{
  "version": "1.0",
  "truncation": null,
  "padding": null,
  "added_tokens": [
    {
      "id": 0,
      "content": "<|endoftext|>",
      "single_word": false,
      "lstrip": false,
      "rstrip": false,
      "normalized": false,
      "special": true
    }
  ],
  "normalizer": null,
  "pre_tokenizer": {
    "type": "ByteLevel",
    "add_prefix_space": false,
    "trim_offsets": true,
    "use_regex": true
  },
  "post_processor": null,
  "decoder": {
    "type": "ByteLevel",
    "add_prefix_space": true,
    "trim_offsets": true,
    "use_regex": true
  },
  "model": {
    "type": "BPE",
    "dropout": null,
    "unk_token": null,
    "continuing_subword_prefix": null,
    "end_of_word_suffix": null,
    "fuse_unk": false,
    "byte_fallback": false,
    "vocab": {
      "<|endoftext|>": 0,
      "!": 1,
      "&": 2,
      "(": 3,
      ")": 4,
      ",": 5,
      "-": 6,
      ".": 7,
      "/": 8,
      "0": 9,
      "1": 10,
      "2": 11,
      "3": 12,
      "4": 13,
      "5": 14,
      "6": 15,
      "7": 16,
      "8": 17,
      "9": 18,
      ":": 19,
      ";": 20,
      "?": 21,
      "A": 22,
      "B": 23,
      "C": 24,
      "D": 25,
      "E": 26,
      "F": 27,
      "G": 28,
      "H": 29,
      "I": 30,
      "J": 31,
      "K": 32,
      "L": 33,
      "M": 34,
      "N": 35,
      "O": 36,
      "P": 37,
      "Q": 38,
      "R": 39,
      "S": 40,
      "T": 41,
      "U": 42,
      "V": 43,
      "W": 44,
      "X": 45,
      "Y": 46,
      "Z": 47,
      "a": 48,
      "b": 49,
      "c": 50,
      "d": 51,
      "e": 52,
      "f": 53,
      "g": 54,
      "h": 55,
      "i": 56,
      "j": 57,
      "k": 58,
      "l": 59,
      "m": 60,
      "n": 61,
      "o": 62,
      "p": 63,
      "q": 64,
      "r": 65,
      "s": 66,
      "t": 67,
      "u": 68,
      "v": 69,
      "w": 70,
      "x": 71,
      "y": 72,
      "z": 73,
      "¢": 74,
      "£": 75,
      "¦": 76,
      "§": 77,
      "¨": 78,
      "©": 79,
      "ª": 80,
      "«": 81,
      "®": 82,
      "¯": 83,
      "°": 84,
      "±": 85,
      "³": 86,
      "´": 87,
      "¹": 88,
      "»": 89,
      "Â": 90,
      "Ã": 91,
      "Å": 92,
      "â": 93,
      "Ġ": 94,
      "Ģ": 95,
      "Ī": 96,
      "ī": 97,
      "ĭ": 98,
      "ĳ": 99,
      "Ĵ": 100,
      "ĵ": 101,
      "ĺ": 102,
      "Ļ": 103,
      "ľ": 104,
      "Ŀ": 105,
      "ł": 106,
      "Ġd": 107,
      "Ġl": 108,
      "Ġm": 109,
      "Ã©": 110,
      "es": 111,
      "Ġn": 112,
      "Ġs": 113,
      "en": 114,
      "aa": 115,
      "on": 116,
      "Ġa": 117,
      "Ġc": 118,
      "Ġb": 119,
      "Ġp": 120,
      "an": 121,
      "Ġde": 122,
      "re": 123,
      "âĢ": 124,
      "Ġt": 125,
      "Ãł": 126,
      "âĢĻ": 127,
      "ou": 128,
      "ai": 129,
      "Ġy": 130,
      "oo": 131,
      "Ġf": 132,
      "er": 133,
      "Ġj": 134,
      "qu": 135,
      "al": 136,
      "ar": 137,
      "Ã«": 138,
      "am": 139,
      "Ġg": 140,
      "Ġla": 141,
      "et": 142,
      "Ã±": 143,
      "Ġk": 144,
      "Ġw": 145,
      "un": 146,
      "te": 147,
      "in": 148,
      "is": 149,
      "ent": 150,
      "Ġqu": 151,
      "Ġci": 152,
      "ur": 153,
      "or": 154,
      "il": 155,
      "it": 156,
      "oon": 157,
      "Ġr": 158,
      "Ġle": 159,
      "kk": 160,
      "ee": 161,
      "Ġma": 162,
      "ĠÃł": 163,
      "le": 164,
      "Ã¨": 165,
      "el": 166,
      "ait": 167,
      "ĠÃ±": 168,
      "Ġx": 169,
      "ir": 170,
      "Ġles": 171,
      "Ã©e": 172,
      "Ġv": 173,
      "pp": 174,
      "Ġet": 175,
      "aan": 176,
      "at": 177,
      "our": 178,
      "ax": 179,
      "Ġmu": 180,
      "Ġni": 181,
      "Ġdes": 182,
      "ri": 183,
      "ant": 184,
      "as": 185,
      "ul": 186,
      "Ġdi": 187,
      "om": 188,
      "ans": 189,
      "Ġse": 190,
      "aay": 191,
      "Ġko": 192,
      "Ġba": 193,
      "ag": 194,
      "Ġen": 195,
      "Ġun": 196,
      "ĠB": 197,
      "Ġdu": 198,
      "us": 199,
      "Ġbi": 200,
      "Ã¨re": 201,
      "ĠA": 202,
      "Ġte": 203,
      "Ġyi": 204,
      "ais": 205,
      "Ġne": 206,
      "Ã©t": 207,
      "Ġak": 208,
      "Ġau": 209,
      "Ġng": 210,
      "gg": 211,
      "Ã³": 212,
      "me": 213,
      "Ġna": 214,
      "ol": 215,
      "ay": 216,
      "ion": 217,
      "ĠM": 218,
      "de": 219,
      "Ã©s": 220,
      "Ġpar": 221,
      "Ġre": 222,
      "oom": 223,
      "ce": 224,
      "Ãłn": 225,
      "au": 226,
      "Ġav": 227,
      "Ġlu": 228,
      "ont": 229,
      "ĠÃ±u": 230,
      "Ã«n": 231,
      "est": 232,
      "Ġdans": 233,
      "Ġqui": 234,
      "Ġyu": 235,
      "ous": 236,
      "ch": 237,
      "em": 238,
      "eu": 239,
      "lu": 240,
      "ĠN": 241,
      "Ġque": 242,
      "que": 243,
      "Ġbu": 244,
      "Ġch": 245,
      "Ãª": 246,
      "ama": 247,
      "ab": 248,
      "fri": 249,
      "os": 250,
      "Ġdaan": 251,
      "enn": 252,
      "ĠL": 253,
      "ĠÂ": 254,
      "di": 255,
      "Ġsu": 256,
      "Ġil": 257,
      "Ġli": 258,
      "Ġfa": 259,
      "Ġmon": 260,
      "Ġseen": 261,
      "ti": 262,
      "Ġpas": 263,
      "Ġca": 264,
      "ĠdÃ©": 265,
      "ĠD": 266,
      "Ġh": 267,
      "ĠS": 268,
      "aw": 269,
      "Åĭ": 270,
      "aar": 271,
      "um": 272,
      "Ġgu": 273,
      "res": 274,
      "im": 275,
      "ot": 276,
      "Ġ:": 277,
      "out": 278,
      "Ġpour": 279,
      "ale": 280,
      "ll": 281,
      "Ġwoon": 282,
      "Ġune": 283,
      "Ġam": 284,
      "Ġmb": 285,
      "ĠT": 286,
      "Ġtr": 287,
      "Ã«r": 288,
      "dd": 289,
      "ĠAfri": 290,
      "ox": 291,
      "opp": 292,
      "and": 293,
      "Ġsa": 294,
      "Ã«kk": 295,
      "ec": 296,
      "oi": 297,
      "Ġnu": 298,
      "ouv": 299,
      "ĠK": 300,
      "Ġsama": 301,
      "aient": 302,
      "Ġje": 303,
      "Ġsur": 304,
      "ĠÃ©t": 305,
      "ĠÃ": 306,
      "Ġdoon": 307,
      "ain": 308,
      "Ġo": 309,
      "Ġpl": 310,
      "ie": 311,
      "Ġda": 312,
      "ĠpÃ¨re": 313,
      "Ġpr": 314,
      "Ġcom": 315,
      "end": 316,
      "ĠBaay": 317,
      "gu": 318,
      "tre": 319,
      "ĠC": 320,
      "aat": 321,
      "Ġmi": 322,
      "ĠF": 323,
      "ge": 324,
      "Ġay": 325,
      "urs": 326,
      "Ġleen": 327,
      "Ġson": 328,
      "ers": 329,
      "ÅĪ": 330,
      "Ġngi": 331,
      "Ġgi": 332,
      "ĠAfrig": 333,
      "Ġin": 334,
      "Ã©pp": 335,
      "aal": 336,
      "oy": 337,
      "Ġsi": 338,
      "ens": 339,
      "ali": 340,
      "ff": 341,
      "av": 342,
      "Ġnd": 343,
      "Ġmel": 344,
      "Ġsax": 345,
      "ort": 346,
      "ub": 347,
      "eek": 348,
      "elle": 349,
      "ĠW": 350,
      "Ġ?": 351,
      "cc": 352,
      "tt": 353,
      "Ġi": 354,
      "gal": 355,
      "ig": 356,
      "ill": 357,
      "ois": 358,
      "Ã¹": 359,
      "Ã©eg": 360,
      "ĠÃ©": 361,
      "ĠÂ»": 362,
      "Il": 363,
      "ps": 364,
      "ions": 365,
      "ante": 366,
      "Ã±u": 367,
      "ĠÂ«": 368,
      "Ġdem": 369,
      "Ġavec": 370,
      "ment": 371,
      "Ġya": 372,
      "eux": 373,
      "ĠO": 374,
      "Ã©n": 375,
      "age": 376,
      "ĠdÃ«kk": 377,
      "onn": 378,
      "Ġgr": 379,
      "Ġxam": 380,
      "se": 381,
      "si": 382,
      "ĠG": 383,
      "Ġest": 384,
      "ĠmÃ«n": 385,
      "Ãłkk": 386,
      "ex": 387,
      "Ã©es": 388,
      "all": 389,
      "Ġloo": 390,
      "Ġnaa": 391,
      "Ġce": 392,
      "ĠoÃ¹": 393,
      "ette": 394,
      "Ã³or": 395,
      "ci": 396,
      "Ġan": 397,
      "Ġwax": 398,
      "ang": 399,
      "Ġdef": 400,
      "ooy": 401,
      "Ġmoom": 402,
      "oir": 403,
      "Ġnous": 404,
      "ons": 405,
      "Ġju": 406,
      "Ġgis": 407,
      "tes": 408,
      "ĠbÃ«": 409,
      "ara": 410,
      "ard": 411,
      "bu": 412,
      "Ġnj": 413,
      "aaw": 414,
      "ook": 415,
      "erre": 416,
      "ants": 417,
      "aak": 418,
      "Ġavait": 419,
      "tu": 420,
      "Ã¨s": 421,
      "Ġplus": 422,
      "Ã©r": 423,
      "eex": 424,
      "iy": 425,
      "Ġit": 426,
      "Ġdal": 427,
      "Ġenf": 428,
      "are": 429,
      "les": 430,
      "pr": 431,
      "Ãłtt": 432,
      "Ã´": 433,
      "ĠJ": 434,
      "one": 435,
      "ance": 436,
      "mb": 437,
      "Ġbr": 438,
      "Ġjam": 439,
      "ne": 440,
      "Ġmay": 441,
      "Ġlui": 442,
      "iv": 443,
      "mi": 444,
      "Ġmais": 445,
      "Ġfu": 446,
      "Ġme": 447,
      "aire": 448,
      "ĠrÃ©": 449,
      "ĠOg": 450,
      "ĠâĢ": 451,
      "Ġbenn": 452,
      "Ġmuy": 453,
      "tÃ©": 454,
      "Ġso": 455,
      "ĠÅĪ": 456,
      "Ġsans": 457,
      "Ġtax": 458,
      "Ġku": 459,
      "ation": 460,
      "aax": 461,
      "Ġar": 462,
      "Ġtout": 463,
      "eau": 464,
      "oin": 465,
      "ĠmÃ¨re": 466,
      "une": 467,
      "unu": 468,
      "Ã©ew": 469,
      "Ġnekk": 470,
      "Ġsol": 471,
      "aam": 472,
      "Ġbopp": 473,
      "Ġcomme": 474,
      "ĠâĢĵ": 475,
      "ct": 476,
      "Ã§": 477,
      "Ġsont": 478,
      "Ġtu": 479,
      "ement": 480,
      "ra": 481,
      "Ġdoo": 482,
      "Ġses": 483,
      "ĠgÃ«n": 484,
      "Ġwu": 485,
      "Ġwar": 486,
      "ine": 487,
      "aaye": 488,
      "Ġnga": 489,
      "een": 490,
      "ĠmÃª": 491,
      "Ã©en": 492,
      "ess": 493,
      "Ġcette": 494,
      "Ġleurs": 495,
      "Ġmas": 496,
      "ĠÃĳ": 497,
      "fa": 498,
      "mes": 499,
      "Ġou": 500,
      "ĠmÃ©": 501,
      "Ãłng": 502,
      "ekk": 503,
      "op": 504,
      "oit": 505,
      "ux": 506,
      "uis": 507,
      "Ġdoom": 508,
      "Ġboo": 509,
      "Ġdev": 510,
      "Ġkenn": 511,
      "ord": 512,
      "ĠjÃ«": 513,
      "Ã«g": 514,
      "ĠkÃ«r": 515,
      "ati": 516,
      "ak": 517,
      "ĠlÃł": 518,
      "Ġces": 519,
      "ku": 520,
      "nd": 521,
      "ĠX": 522,
      "aab": 523,
      "Ġat": 524,
      "oute": 525,
      "amer": 526,
      "Ġmbaa": 527,
      "mps": 528,
      "Ġpay": 529,
      "itÃ©": 530,
      "Ġra": 531,
      "Ãªtre": 532,
      "Ġseeni": 533,
      "st": 534,
      "Ãłll": 535,
      "Ġvie": 536,
      "ages": 537,
      "Ġcha": 538,
      "li": 539,
      "Ġex": 540,
      "Ġnat": 541,
      "Ġnag": 542,
      "Ġpays": 543,
      "ĠP": 544,
      "Ġmar": 545,
      "ence": 546,
      "Ãłgg": 547,
      "alla": 548,
      "oÅĭ": 549,
      "Ġdara": 550,
      "Ã©c": 551,
      "Ġxel": 552,
      "ĠY": 553,
      "Ġdun": 554,
      "Ġcr": 555,
      "Ġcel": 556,
      "Ã«gg": 557,
      "Ã©tait": 558,
      "Ġrekk": 559,
      "che": 560,
      "Ġils": 561,
      "Ġgrand": 562,
      "Ġman": 563,
      "Ġnit": 564,
      "Ãłpp": 565,
      "Ġfi": 566,
      "Ġji": 567,
      "Ġgar": 568,
      "omb": 569,
      "Ġbiir": 570,
      "ĠSu": 571,
      "ĠÃ©tait": 572,
      "ure": 573,
      "ĠlÃ©pp": 574,
      "Ġsam": 575,
      "Ġvi": 576,
      "eur": 577,
      "yaa": 578,
      "aaj": 579,
      "Ġfr": 580,
      "Ġfor": 581,
      "ist": 582,
      "Ãłnk": 583,
      "Ġenfants": 584,
      "ĠmÃªme": 585,
      "eer": 586,
      "Ġ(": 587,
      "Ġmoo": 588,
      "Ġcol": 589,
      "ina": 590,
      "ili": 591,
      "ĠrÃ©ew": 592,
      "Ġmag": 593,
      "Ã©y": 594,
      "eneen": 595,
      "Ġyaay": 596,
      "Ġjour": 597,
      "Ġteg": 598,
      "Ġtemps": 599,
      "Les": 600,
      "Ġent": 601,
      "Ġyar": 602,
      "oor": 603,
      "Ġyiy": 604,
      "Ġaux": 605,
      "Ġloolu": 606,
      "wu": 607,
      "Ġlon": 608,
      "Ġsunu": 609,
      "ĠbÃ©s": 610,
      "ille": 611,
      "ees": 612,
      "oj": 613,
      "Ã¢": 614,
      "Ġtoo": 615,
      "Ġyoon": 616,
      "ĠOgos": 617,
      "uy": 618,
      "Ã»": 619,
      "ond": 620,
      "Ġcou": 621,
      "Ġcor": 622,
      "ĠgÃ©n": 623,
      "aut": 624,
      "Ġguerre": 625,
      "ĠÃĢ": 626,
      "aine": 627,
      "ĠOgosaa": 628,
      "ve": 629,
      "Ġim": 630,
      "Ġdox": 631,
      "Ġdex": 632,
      "Ġjus": 633,
      "Ġgone": 634,
      "Ġwalla": 635,
      "Ġri": 636,
      "eel": 637,
      "Ġlool": 638,
      "Ġdaldi": 639,
      "prÃ¨s": 640,
      "Afri": 641,
      "jj": 642,
      "lle": 643,
      "wul": 644,
      "ĠE": 645,
      "Ġcont": 646,
      "anc": 647,
      "ĠyÃ«g": 648,
      "ool": 649,
      "Ġfekk": 650,
      "eri": 651,
      "ĠÃ±oom": 652,
      "Ã©em": 653,
      "Ġkoy": 654,
      "aiss": 655,
      "Ġdafa": 656,
      "ubaab": 657,
      "Ġcela": 658,
      "ad": 659,
      "Ġmont": 660,
      "Ġser": 661,
      "ĠfÃł": 662,
      "orte": 663,
      "Ãłnte": 664,
      "ĠÃ±uy": 665,
      "Ġmonde": 666,
      "ĠWaaye": 667,
      "Ġsamay": 668,
      "ni": 669,
      "erm": 670,
      "ĠLi": 671,
      "Ġpass": 672,
      "ĠCi": 673,
      "Ġndax": 674,
      "igÃ©en": 675,
      "bb": 676,
      "aari": 677,
      "ono": 678,
      "Ġab": 679,
      "Ġas": 680,
      "ett": 681,
      "ori": 682,
      "ors": 683,
      "Ġkow": 684,
      "Ġtey": 685,
      "ĠMa": 686,
      "Ãªt": 687,
      "ĠTu": 688,
      "Ãłttali": 689,
      "aka": 690,
      "Ġyaram": 691,
      "ju": 692,
      "ob": 693,
      "Ġsouv": 694,
      "aas": 695,
      "Ġcar": 696,
      "Ġyeek": 697,
      "ert": 698,
      "ils": 699,
      "itu": 700,
      "Ġngir": 701,
      "emb": 702,
      "Ġtrav": 703,
      "Ġdoole": 704,
      "af": 705,
      "ic": 706,
      "iÃ¨re": 707,
      "lÃ©eg": 708,
      "mm": 709,
      "ok": 710,
      "ow": 711,
      "ui": 712,
      "ĠR": 713,
      "Ġapp": 714,
      "ĠjigÃ©en": 715,
      "Ġseet": 716,
      "aux": 717,
      "able": 718,
      "Afrique": 719,
      "ĠTugal": 720,
      "ore": 721,
      "ue": 722,
      "uf": 723,
      "ug": 724,
      "Ġpeu": 725,
      "ĠtÃ«": 726,
      "ĠjÃ³": 727,
      "Ġkoo": 728,
      "ise": 729,
      "ents": 730,
      "Ġleur": 731,
      "Ã¨res": 732,
      "Ã©ey": 733,
      "ĠTe": 734,
      "Je": 735,
      "id": 736,
      "kat": 737,
      "ut": 738,
      "Ġlox": 739,
      "Ġmet": 740,
      "ĠfÃłttali": 741,
      "ind": 742,
      "ĠÃłdd": 743,
      "ĠÃłnd": 744,
      "Ġxare": 745,
      "ĠNi": 746,
      "19": 747,
      "La": 748,
      "ro": 749,
      "Ġmal": 750,
      "Ã©p": 751,
      "Ġsaa": 752,
      "Ġal": 753,
      "Ġcas": 754,
      "Ġpouv": 755,
      "Ġtam": 756,
      "Ġfait": 757,
      "Ġfem": 758,
      "kki": 759,
      "Ġaut": 760,
      "ĠnaÃ±": 761,
      "Ġamul": 762,
      "Ġmaison": 763,
      "Ġgarab": 764,
      "oja": 765,
      "ii": 766,
      "ng": 767,
      "ris": 768,
      "Ġdul": 769,
      "Ġmes": 770,
      "Ġnaan": 771,
      "Ġbaax": 772,
      "Ġport": 773,
      "Ãłmb": 774,
      "Ġyooy": 775,
      "Ġfee": 776,
      "Ġciy": 777,
      "Ġxar": 778,
      "ours": 779,
      "Ġpart": 780,
      "Ġnataal": 781,
      "nes": 782,
      "pt": 783,
      "Ã®": 784,
      "Ġ19": 785,
      "Ġsous": 786,
      "ĠwÃ«r": 787,
      "inn": 788,
      "its": 789,
      "Ġenc": 790,
      "use": 791,
      "Ã«nd": 792,
      "oppi": 793,
      "ĠFr": 794,
      "Ġchaque": 795,
      "aÃ±": 796,
      "ma": 797,
      "okk": 798,
      "ww": 799,
      "Ġ;": 800,
      "ĠlÃ©eg": 801,
      "Ġmoi": 802,
      "Ġneex": 803,
      "Ġsou": 804,
      "ande": 805,
      "ari": 806,
      "ĠBans": 807,
      "ĠdÃ©gg": 808,
      "oire": 809,
      "nÃ©es": 810,
      "rÃ©": 811,
      "Ġdaw": 812,
      "ĠdÃ«gg": 813,
      "Ġlaa": 814,
      "Ġpos": 815,
      "ĠjÃłpp": 816,
      "Ġress": 817,
      "ĠAm": 818,
      "Ġreg": 819,
      "ĠdÃ©c": 820,
      "uma": 821,
      "Ġmbir": 822,
      "ĠÃ©c": 823,
      "Ġjamais": 824,
      "Ġjamono": 825,
      "Ġcorps": 826,
      "Ġjusqu": 827,
      "Ġyooyu": 828,
      "ÃĢ": 829,
      "ĠÃ«": 830,
      "Ġdoute": 831,
      "Ġloin": 832,
      "Ġpal": 833,
      "Ġpet": 834,
      "anu": 835,
      "ques": 836,
      "ins": 837,
      "Ġvill": 838,
      "ggÃ©ey": 839,
      "ĠMu": 840,
      "Ġparl": 841,
      "Ãłnn": 842,
      "emp": 843,
      "ĠTubaab": 844,
      "Ġboobu": 845,
      "Ġdund": 846,
      "ĠÃłddina": 847,
      "ac": 848,
      "iw": 849,
      "tr": 850,
      "Ġnoon": 851,
      "enir": 852,
      "Ġacc": 853,
      "Ġconn": 854,
      "Ġpuis": 855,
      "anam": 856,
      "tee": 857,
      "ĠÃłll": 858,
      "ĠbÃ«gg": 859,
      "ĠÅĪu": 860,
      "ĠjÃ³ge": 861,
      "Le": 862,
      "du": 863,
      "kaay": 864,
      "yy": 865,
      "ĠI": 866,
      "Ã©g": 867,
      "ĠaprÃ¨s": 868,
      "oun": 869,
      "Ġginn": 870,
      "Ġquel": 871,
      "Ġriv": 872,
      "elles": 873,
      "ĠBam": 874,
      "cher": 875,
      "ĠliggÃ©ey": 876,
      "ĠKamer": 877,
      "ĠdaÃ±": 878,
      "ĠbÃ«t": 879,
      "ĠKamerun": 880,
      "Qu": 881,
      "ddi": 882,
      "ite": 883,
      "par": 884,
      "Ġdis": 885,
      "ĠmÃłgg": 886,
      "enc": 887,
      "Ġph": 888,
      "ret": 889,
      "Ã«m": 890,
      "leu": 891,
      "ĠÃ±i": 892,
      "riv": 893,
      "ĠAl": 894,
      "dec": 895,
      "Ġsuuf": 896,
      "Ġfaj": 897,
      "ĠÃ©taient": 898,
      "Ġpro": 899,
      "aatu": 900,
      "Ġboppam": 901,
      "ĠmÃ©dec": 902,
      "ameroun": 903,
      "Ġencore": 904,
      "mis": 905,
      "ule": 906,
      "Ġont": 907,
      "ĠÃªtre": 908,
      "aad": 909,
      "Ġcon": 910,
      "Ġper": 911,
      "Ġti": 912,
      "Ġyaak": 913,
      "Ġfan": 914,
      "Ġfaire": 915,
      "Ġjot": 916,
      "Ġwi": 917,
      "ital": 918,
      "omp": 919,
      "omme": 920,
      "Ġbare": 921,
      "Ã³om": 922,
      "Ġche": 923,
      "ains": 924,
      "Ġins": 925,
      "Ġndaw": 926,
      "Ġtravers": 927,
      "app": 928,
      "ga": 929,
      "ĠH": 930,
      "Ġday": 931,
      "Ġmooy": 932,
      "enu": 933,
      "Ġcour": 934,
      "ĠcÃ´": 935,
      "Ġpre": 936,
      "Ġdee": 937,
      "Ġder": 938,
      "ĠtÃłnk": 939,
      "ĠyÃ«n": 940,
      "Ġfay": 941,
      "Ġjaar": 942,
      "alee": 943,
      "Ġmat": 944,
      "ĠÃ±aari": 945,
      "ass": 946,
      "Ġchos": 947,
      "oto": 948,
      "Ġdaj": 949,
      "ĠannÃ©es": 950,
      "oÅĭÅĭ": 951,
      "Ġtoog": 952,
      "ĠBamend": 953,
      "Mon": 954,
      "ate": 955,
      "bar": 956,
      "fu": 957,
      "uw": 958,
      "uur": 959,
      "Ġon": 960,
      "Ġelle": 961,
      "Ġdont": 962,
      "Ġnon": 963,
      "Ġsoo": 964,
      "Ġaus": 965,
      "ĠbÃł": 966,
      "ane": 967,
      "Ġtee": 968,
      "Ãłdd": 969,
      "Ġfour": 970,
      "Ġjoo": 971,
      "ets": 972,
      "Ġxol": 973,
      "Ġautre": 974,
      "ĠMb": 975,
      "ĠNd": 976,
      "ĠNis": 977,
      "gue": 978,
      "ĠÃĳu": 979,
      "Ġtamit": 980,
      "Nous": 981,
      "eet": 982,
      "gn": 983,
      "loo": 984,
      "lent": 985,
      "na": 986,
      "rit": 987,
      "tte": 988,
      "Ġdou": 989,
      "ĠdoÅĭÅĭ": 990,
      "Ġcons": 991,
      "Ġterre": 992,
      "ĠjÃ©": 993,
      "Ġga": 994,
      "ĠlaÃ±u": 995,
      "Ġway": 996,
      "Ġwaaye": 997,
      "uri": 998,
      "oroom": 999,
      "Ġvoy": 1000,
      "Ġbiy": 1001,
      "Ġbien": 1002,
      "Ġavant": 1003,
      "Ġdaanaka": 1004,
      "ĠOgoja": 1005,
      "ĠfÃłww": 1006,
      "Ġloxo": 1007,
      "Ġpouvait": 1008,
      "Ġginnaaw": 1009,
      "Ġpremi": 1010,
      "ba": 1011,
      "ble": 1012,
      "dre": 1013,
      "iers": 1014,
      "oc": 1015,
      "pital": 1016,
      "Ġlan": 1017,
      "Ġmaa": 1018,
      "ente": 1019,
      "Ġdeux": 1020,
      "Ġta": 1021,
      "Ġtopp": 1022,
      "Ãłmm": 1023,
      "ĠyÃ©pp": 1024,
      "Ġfois": 1025,
      "Ġja": 1026,
      "Ġjur": 1027,
      "Ġgun": 1028,
      "iss": 1029,
      "Ġquand": 1030,
      "ĠAy": 1031,
      "Ġrec": 1032,
      "ches": 1033,
      "ĠNig": 1034,
      "ress": 1035,
      "ĠtrÃ¨s": 1036,
      "Ġsav": 1037,
      "Ġcomp": 1038,
      "ĠCameroun": 1039,
      "Ġsolo": 1040,
      "Ġmontag": 1041,
      "ĠfÃłttaliku": 1042,
      "Ġregard": 1043,
      "Mais": 1044,
      "bes": 1045,
      "Ġmer": 1046,
      "Ã©b": 1047,
      "Ġag": 1048,
      "Ġbou": 1049,
      "anaa": 1050,
      "Ġdel": 1051,
      "Ġter": 1052,
      "Ãłq": 1053,
      "Ġyaa": 1054,
      "Ġfam": 1055,
      "Ġfleu": 1056,
      "ĠjÃłn": 1057,
      "ĠwÃłnte": 1058,
      "ile": 1059,
      "ĠrÃ«": 1060,
      "ĠÃ±aar": 1061,
      "Ġvis": 1062,
      "antu": 1063,
      "ĠLe": 1064,
      "imp": 1065,
      "Ġnuy": 1066,
      "ouver": 1067,
      "Ġcomm": 1068,
      "Ġinst": 1069,
      "ffic": 1070,
      "Ils": 1071,
      "ngale": 1072,
      "ĠFrance": 1073,
      "ĠmÃ©decin": 1074,
      "Ġaussi": 1075,
      "),": 1076,
      "iens": 1077,
      "ter": 1078,
      "Ã©et": 1079,
      "Ġsc": 1080,
      "Ġall": 1081,
      "Ġpu": 1082,
      "Ġdell": 1083,
      "Ġtol": 1084,
      "Ġtous": 1085,
      "aires": 1086,
      "aill": 1087,
      "ĠyÃ³": 1088,
      "Ġfin": 1089,
      "arm": 1090,
      "Ã«l": 1091,
      "amp": 1092,
      "ettes": 1093,
      "ĠrÃ©s": 1094,
      "ĠÃ±oo": 1095,
      "Ġxal": 1096,
      "Ġva": 1097,
      "Ġviv": 1098,
      "Ġsemb": 1099,
      "Ġauc": 1100,
      "ĠMÃ³": 1101,
      "ĠAfrique": 1102,
      "ĠWÃłnte": 1103,
      "illes": 1104,
      "Ġans": 1105,
      "ĠforÃªt": 1106,
      "Ġcolon": 1107,
      "Ġlong": 1108,
      "Ġcoup": 1109,
      "Ġyaakaar": 1110,
      "ĠNiser": 1111,
      "bi": 1112,
      "ey": 1113,
      "fi": 1114,
      "jur": 1115,
      "ki": 1116,
      "Ġmaam": 1117,
      "Ã©m": 1118,
      "Ġnir": 1119,
      "Ġsay": 1120,
      "Ġaur": 1121,
      "Ġban": 1122,
      "Ġbord": 1123,
      "ĠtÃłng": 1124,
      "Ġyem": 1125,
      "oolu": 1126,
      "Ġfais": 1127,
      "Ġgaal": 1128,
      "ĠlaÃ±": 1129,
      "ures": 1130,
      "iti": 1131,
      "iri": 1132,
      "ĠÃ±uul": 1133,
      "Ġsuis": 1134,
      "ĠDu": 1135,
      "Ġnuit": 1136,
      "endre": 1137,
      "anger": 1138,
      "Ã´t": 1139,
      "ĠjÃ«l": 1140,
      "Ġviol": 1141,
      "eria": 1142,
      "Ġserv": 1143,
      "Ġmetti": 1144,
      "Ġautour": 1145,
      "Ġnoonu": 1146,
      "ĠbÃłyy": 1147,
      "ĠNigeria": 1148,
      "ĠMÃ³ris": 1149,
      "dde": 1150,
      "mÃ¨re": 1151,
      "nu": 1152,
      "og": 1153,
      "uÃ±u": 1154,
      "Åĵ": 1155,
      "Ġ!": 1156,
      "ĠdÃ©s": 1157,
      "ĠdÃ³or": 1158,
      "Ã©d": 1159,
      "esp": 1160,
      "Ġnan": 1161,
      "Ġnoir": 1162,
      "Ġnoppi": 1163,
      "Ġsent": 1164,
      "Ġbokk": 1165,
      "Ġpi": 1166,
      "Ġplu": 1167,
      "Ãłcc": 1168,
      "oog": 1169,
      "Ġjan": 1170,
      "Ġjaay": 1171,
      "Ġjox": 1172,
      "Ġjeex": 1173,
      "araa": 1174,
      "ĠgÃ³or": 1175,
      "ĠwÃ©y": 1176,
      "Ġrag": 1177,
      "ĠrÃª": 1178,
      "elaw": 1179,
      "ĠÃ±Ãłkk": 1180,
      "Ġxon": 1181,
      "Ġvers": 1182,
      "aanu": 1183,
      "Ġmujj": 1184,
      "Ġbay": 1185,
      "Ġdugg": 1186,
      "Ã³ol": 1187,
      "Ã³ot": 1188,
      "ĠdÃ©g": 1189,
      "ĠDa": 1190,
      "Ġhab": 1191,
      "Ġguddi": 1192,
      "ĠÃ©tÃ©": 1193,
      "Ġxamul": 1194,
      "ĠmÃ«noon": 1195,
      "Ã´pital": 1196,
      "ĠrÃ©y": 1197,
      "ĠXam": 1198,
      "ilif": 1199,
      "Ġrien": 1200,
      "ettali": 1201,
      "Ġsouviens": 1202,
      "ĠNiseryaa": 1203,
      ").": 1204,
      "00": 1205,
      "En": 1206,
      "Pour": 1207,
      "ap": 1208,
      "adi": 1209,
      "ces": 1210,
      "ds": 1211,
      "des": 1212,
      "koo": 1213,
      "mp": 1214,
      "ngal": 1215,
      "ves": 1216,
      "Ġmurs": 1217,
      "Ã©re": 1218,
      "ĠnÃ©eg": 1219,
      "ĠsÃ©": 1220,
      "Ġsau": 1221,
      "enf": 1222,
      "aale": 1223,
      "Ġbl": 1224,
      "Ġbout": 1225,
      "Ġpie": 1226,
      "âĢ¦": 1227,
      "Ġtou": 1228,
      "ĠyÃłgg": 1229,
      "Ġfar": 1230,
      "ĠgÃłtt": 1231,
      "Ã±Ã±": 1232,
      "Ġweex": 1233,
      "Ġwaaj": 1234,
      "teer": 1235,
      "tement": 1236,
      "ing": 1237,
      "orp": 1238,
      "Ġru": 1239,
      "Ġrou": 1240,
      "ĠÃ±Ã©pp": 1241,
      "Ã©ej": 1242,
      "Ġsec": 1243,
      "uss": 1244,
      "ĠAk": 1245,
      "chÃ©": 1246,
      "ĠLu": 1247,
      "ĠLoolu": 1248,
      "Ġlib": 1249,
      "Ġlii": 1250,
      "Ġhaut": 1251,
      "otre": 1252,
      "endant": 1253,
      "aata": 1254,
      "ĠnjÃ«kk": 1255,
      "Ġtaxaw": 1256,
      "Ġdoomi": 1257,
      "Ġdevant": 1258,
      "ĠjÃ«m": 1259,
      "Ġfemme": 1260,
      "ĠBansoo": 1261,
      "Ġquelque": 1262,
      "ĠriviÃ¨re": 1263,
      "aadama": 1264,
      "Ġchose": 1265,
      "Ġfourmis": 1266,
      "Ġjooju": 1267,
      "lentaan": 1268,
      "Ġxalaat": 1269,
      "Ġxonq": 1270,
      "Ou": 1271,
      "aj": 1272,
      "jour": 1273,
      "ĠV": 1274,
      "Ġub": 1275,
      "Ġemp": 1276,
      "Ġmom": 1277,
      "Ġnun": 1278,
      "Ġnettali": 1279,
      "aaÃ±": 1280,
      "onc": 1281,
      "Ġad": 1282,
      "Ġafri": 1283,
      "Ġpeau": 1284,
      "Ġtoit": 1285,
      "ĠtÃłmb": 1286,
      "Ġyee": 1287,
      "Ġfaa": 1288,
      "Ġwet": 1289,
      "Ġwees": 1290,
      "inu": 1291,
      "orm": 1292,
      "Ġxale": 1293,
      "att": 1294,
      "rict": 1295,
      "Ġdire": 1296,
      "omm": 1297,
      "Ġseul": 1298,
      "agn": 1299,
      "aise": 1300,
      "Ġrev": 1301,
      "ouse": 1302,
      "Ġchem": 1303,
      "dic": 1304,
      "ĠSama": 1305,
      "avait": 1306,
      "ĠÂ».": 1307,
      "ĠdÃ«kki": 1308,
      "ĠbÃ«j": 1309,
      "Ã©rÃ©b": 1310,
      "Ġitam": 1311,
      "ĠbrÃ»": 1312,
      "Ġarriv": 1313,
      "Ġdoor": 1314,
      "Ãłlla": 1315,
      "ĠÃĢngale": 1316,
      "ĠÃĢngal": 1317,
      "Ġimp": 1318,
      "Ġsouvenir": 1319,
      "Ġcase": 1320,
      "Ġsouff": 1321,
      "ĠÃ«pp": 1322,
      "Ġchev": 1323,
      "ĠNdax": 1324,
      "Ġvoyage": 1325,
      "ĠjurÃ³om": 1326,
      "ĠgunÃ³or": 1327,
      "Ġafric": 1328,
      "ĠÃĢngalteer": 1329,
      "Au": 1330,
      "Un": 1331,
      "hÃ´pital": 1332,
      "ji": 1333,
      "ler": 1334,
      "oque": 1335,
      "ry": 1336,
      "rme": 1337,
      "uus": 1338,
      "ĠÅĭ": 1339,
      "Ġdan": 1340,
      "ĠdÃ«": 1341,
      "Ġdaal": 1342,
      "Ġdonn": 1343,
      "Ġlors": 1344,
      "Ġmain": 1345,
      "Ġnouv": 1346,
      "Ġnotre": 1347,
      "Ġsox": 1348,
      "Ġsorte": 1349,
      "aalu": 1350,
      "ong": 1351,
      "ĠbÃ©rÃ©b": 1352,
      "andi": 1353,
      "Ġtour": 1354,
      "Ġterm": 1355,
      "oup": 1356,
      "Ġye": 1357,
      "Ġfoo": 1358,
      "Ġfeu": 1359,
      "ĠjÃłng": 1360,
      "Ã«w": 1361,
      "Ġlay": 1362,
      "enti": 1363,
      "ites": 1364,
      "Ġroute": 1365,
      "ĠÃłgg": 1366,
      "leil": 1367,
      "ĠÃ±Ã«w": 1368,
      "Ã©ex": 1369,
      "Ġseule": 1370,
      "ĠBi": 1371,
      "ĠBu": 1372,
      "dey": 1373,
      "Ġparti": 1374,
      "Ãłnd": 1375,
      "autre": 1376,
      "enne": 1377,
      "ĠLa": 1378,
      "ĠDaan": 1379,
      "Ġhomme": 1380,
      "umaa": 1381,
      "Ġamoon": 1382,
      "Ġtrop": 1383,
      "ĠKu": 1384,
      "Ġob": 1385,
      "ĠdaÃ±u": 1386,
      "ĠJe": 1387,
      "Ġsore": 1388,
      "Ġsoleil": 1389,
      "Ġtudd": 1390,
      "Ġwut": 1391,
      "Ġdunyaa": 1392,
      "Ġentre": 1393,
      "Ġcontre": 1394,
      "ĠpassÃ©": 1395,
      "Ġdellu": 1396,
      "bo": 1397,
      "bles": 1398,
      "fois": 1399,
      "goo": 1400,
      "hui": 1401,
      "ier": 1402,
      "ique": 1403,
      "kanam": 1404,
      "lÃ©": 1405,
      "rait": 1406,
      "toor": 1407,
      "uti": 1408,
      "vent": 1409,
      "we": 1410,
      "£s": 1411,
      "Ã£s": 1412,
      "Ġdin": 1413,
      "Ġdist": 1414,
      "Ġdina": 1415,
      "Ġlaaj": 1416,
      "Ġmot": 1417,
      "Ġmoin": 1418,
      "Ġcet": 1419,
      "Ġbon": 1420,
      "Ġpens": 1421,
      "Ġtel": 1422,
      "Ġyaatu": 1423,
      "Ġfl": 1424,
      "erbes": 1425,
      "inst": 1426,
      "orest": 1427,
      "elu": 1428,
      "Ã©egu": 1429,
      "Ġvent": 1430,
      "aane": 1431,
      "atu": 1432,
      "ations": 1433,
      "uses": 1434,
      "Ġneen": 1435,
      "Ġngay": 1436,
      "ĠnaÃ±u": 1437,
      "ĠNg": 1438,
      "ables": 1439,
      "Ġgudd": 1440,
      "oix": 1441,
      "ĠForest": 1442,
      "ĠÃ©p": 1443,
      "ĠÂ»,": 1444,
      "budu": 1445,
      "ĠrÃ©p": 1446,
      "Ġarb": 1447,
      "Ã§on": 1448,
      "Ġtudde": 1449,
      "ĠmÃ©m": 1450,
      "Ġdevait": 1451,
      "ĠlÃłrme": 1452,
      "Ġrac": 1453,
      "ĠgÃ©nn": 1454,
      "oktoor": 1455,
      "Ġseetlu": 1456,
      "Ġpeut": 1457,
      "Ġfemmes": 1458,
      "ĠBanso": 1459,
      "Ġvillage": 1460,
      "part": 1461,
      "Ġphoto": 1462,
      "ĠHouse": 1463,
      "Ġtakk": 1464,
      "armÃ©e": 1465,
      "Ġcoloni": 1466,
      "Ġaurait": 1467,
      "Ġviolence": 1468,
      "ĠbÃłyyi": 1469,
      "Ġfaral": 1470,
      "jourd": 1471,
      "ĠtÃłmbalee": 1472,
      "ĠForestry": 1473,
      "Ce": 1474,
      "Et": 1475,
      "ace": 1476,
      "eff": 1477,
      "gis": 1478,
      "lÃł": 1479,
      "ote": 1480,
      "ode": 1481,
      "ver": 1482,
      "Ġeu": 1483,
      "Ġdoktoor": 1484,
      "Ġmoroom": 1485,
      "Ã©ri": 1486,
      "Ġnos": 1487,
      "Ġsil": 1488,
      "Ġai": 1489,
      "Ġaw": 1490,
      "Ġbois": 1491,
      "Ġporte": 1492,
      "anche": 1493,
      "reux": 1494,
      "Ġtur": 1495,
      "ĠtÃłkk": 1496,
      "Ġtang": 1497,
      "ĠyÃ«": 1498,
      "oot": 1499,
      "Ġfas": 1500,
      "erc": 1501,
      "Ġjou": 1502,
      "Ġjard": 1503,
      "Ġjaf": 1504,
      "quel": 1505,
      "ales": 1506,
      "alitÃ©": 1507,
      "Ã«s": 1508,
      "amb": 1509,
      "Ġgaaw": 1510,
      "etti": 1511,
      "Ġki": 1512,
      "Ġwon": 1513,
      "ĠwÃ³or": 1514,
      "Ġciel": 1515,
      "Ġleer": 1516,
      "eem": 1517,
      "Ã¨g": 1518,
      "Ġxaw": 1519,
      "Ã©ere": 1520,
      "Ġvr": 1521,
      "Ġvoir": 1522,
      "ĠvÃ©c": 1523,
      "ĠbaÃ±": 1524,
      "Ã©tÃ©": 1525,
      "Ã©taient": 1526,
      "ggi": 1527,
      "Ġnaq": 1528,
      "Ġrem": 1529,
      "Ġret": 1530,
      "Ġyuy": 1531,
      "imag": 1532,
      "ĠKon": 1533,
      "ĠÃ©tr": 1534,
      "ĠÃĵ": 1535,
      "Ġplaine": 1536,
      "Ġcompr": 1537,
      "ĠCa": 1538,
      "Ġmiir": 1539,
      "Ġndox": 1540,
      "tÃ©ri": 1541,
      "Ġtaxoon": 1542,
      "Ġsold": 1543,
      "ction": 1544,
      "Ġboog": 1545,
      "Ġchauss": 1546,
      "Ġjours": 1547,
      "Ã»t": 1548,
      "ĠMauri": 1549,
      "Ġvillages": 1550,
      "Quand": 1551,
      "Ġmontagnes": 1552,
      "Ġmoment": 1553,
      "ĠmÃ©moire": 1554,
      "Ġjardin": 1555,
      "be": 1556,
      "ek": 1557,
      "ew": 1558,
      "eÅĭ": 1559,
      "let": 1560,
      "uit": 1561,
      "vre": 1562,
      "Ġz": 1563,
      "Ġmort": 1564,
      "Ġnee": 1565,
      "Ġnom": 1566,
      "Ġsim": 1567,
      "Ġsori": 1568,
      "Ġsoppi": 1569,
      "Ġcamp": 1570,
      "Ġbun": 1571,
      "Ġbind": 1572,
      "Ġpres": 1573,
      "Ġpoin": 1574,
      "anÃ§": 1575,
      "anni": 1576,
      "Ġdeme": 1577,
      "Ġtard": 1578,
      "Ãłr": 1579,
      "Ġyit": 1580,
      "Ġyeux": 1581,
      "Ġyeneen": 1582,
      "Ġfo": 1583,
      "ertÃ©": 1584,
      "ĠjÃ©em": 1585,
      "alle": 1586,
      "arg": 1587,
      "Ġgens": 1588,
      "Ġgard": 1589,
      "Ġkil": 1590,
      "ĠkÃłdd": 1591,
      "Ġwoo": 1592,
      "Ġraw": 1593,
      "Ġromb": 1594,
      "ĠÃ±a": 1595,
      "Ġven": 1596,
      "Ġvois": 1597,
      "aana": 1598,
      "ats": 1599,
      "atul": 1600,
      "Ġdigg": 1601,
      "Ġdiiw": 1602,
      "ommes": 1603,
      "ĠBÃ©s": 1604,
      "ĠAb": 1605,
      "Ġnew": 1606,
      "ĠMan": 1607,
      "Ġavaient": 1608,
      "Ġyuux": 1609,
      "ĠdÃ©p": 1610,
      "Ġheur": 1611,
      "Ġtrans": 1612,
      "ouvert": 1613,
      "endu": 1614,
      "Ġmii": 1615,
      "Ġsong": 1616,
      "Ġngiy": 1617,
      "Ġdemee": 1618,
      "Ġdefar": 1619,
      "ards": 1620,
      "ĠmÃ©dic": 1621,
      "Ġatum": 1622,
      "Ġxelam": 1623,
      "Ġgrands": 1624,
      "Ġdexug": 1625,
      "ĠEn": 1626,
      "ĠfÃłtte": 1627,
      "Ġfeebar": 1628,
      "Ġparler": 1629,
      "ĠdaÃ±oo": 1630,
      "ĠmÃłgget": 1631,
      "ĠcÃ´tÃ©": 1632,
      "ĠBamenda": 1633,
      "ression": 1634,
      "Ġtollu": 1635,
      "Ġaucun": 1636,
      "Ġmujjee": 1637,
      "ĠDafa": 1638,
      "Ġsauv": 1639,
      "ĠlibertÃ©": 1640,
      "Ġweesoo": 1641,
      "ĠMaurice": 1642,
      "Og": 1643,
      "Une": 1644,
      "bbu": 1645,
      "cul": 1646,
      "gl": 1647,
      "ici": 1648,
      "kati": 1649,
      "lait": 1650,
      "mens": 1651,
      "nÃ©e": 1652,
      "nement": 1653,
      "ph": 1654,
      "rent": 1655,
      "roit": 1656,
      "ton": 1657,
      "taan": 1658,
      "tant": 1659,
      "Ġeff": 1660,
      "ĠdÃ©t": 1661,
      "ĠdÃ«n": 1662,
      "Ġdoy": 1663,
      "Ġlaiss": 1664,
      "ĠlÃ©g": 1665,
      "Ġmaan": 1666,
      "Ġndey": 1667,
      "Ġsag": 1668,
      "Ġsais": 1669,
      "Ġsens": 1670,
      "Ġaff": 1671,
      "Ġatt": 1672,
      "Ġco": 1673,
      "Ġcert": 1674,
      "Ġbaa": 1675,
      "Ġbaay": 1676,
      "Ġderet": 1677,
      "Ġtun": 1678,
      "Ġtab": 1679,
      "ÃłÃ±Ã±": 1680,
      "aille": 1681,
      "Ġfra": 1682,
      "Ġfond": 1683,
      "ĠjÃ«kk": 1684,
      "aloon": 1685,
      "amaan": 1686,
      "Ġgaa": 1687,
      "Ġlaqu": 1688,
      "Ġker": 1689,
      "Ġwe": 1690,
      "ines": 1691,
      "itanni": 1692,
      "oonte": 1693,
      "kkali": 1694,
      "ĠÃ±ax": 1695,
      "Ġxool": 1696,
      "Ġxeet": 1697,
      "Ġvol": 1698,
      "Ġville": 1699,
      "axas": 1700,
      "Ġnii": 1701,
      "riÃ¨re": 1702,
      "antes": 1703,
      "Ġsedd": 1704,
      "agne": 1705,
      "Ġtekk": 1706,
      "Ġref": 1707,
      "Ġrey": 1708,
      "Ãªme": 1709,
      "abar": 1710,
      "oss": 1711,
      "andÃ©em": 1712,
      "ectes": 1713,
      "aines": 1714,
      "Ġgiy": 1715,
      "Ġmellentaan": 1716,
      "onne": 1717,
      "Ġgrande": 1718,
      "Ġjudd": 1719,
      "iyaa": 1720,
      "Ġbritanni": 1721,
      "miÃ¨re": 1722,
      "Ġsowu": 1723,
      "Ġtoutes": 1724,
      "ĠXanaa": 1725,
      "ĠgÃ©nt": 1726,
      "ĠdoxandÃ©em": 1727,
      "Ġcarte": 1728,
      "Ġconnaiss": 1729,
      "Ġfleuves": 1730,
      "fficer": 1731,
      "Ġscorp": 1732,
      "Ġdelloo": 1733,
      "Ġnirook": 1734,
      "Ġhabit": 1735,
      "Ġlorsque": 1736,
      "ĠvÃ©cu": 1737,
      "Ġretour": 1738,
      "Ġpresque": 1739,
      "Ġyuuxu": 1740,
      "Ġheures": 1741,
      "Ogoja": 1742,
      "Ġbritannique": 1743,
      "Tout": 1744,
      "ah": 1745,
      "fes": 1746,
      "ient": 1747,
      "iÃ¨res": 1748,
      "jours": 1749,
      "pe": 1750,
      "saalu": 1751,
      "Ġor": 1752,
      "Ġir": 1753,
      "ĠIl": 1754,
      "Ġdit": 1755,
      "Ġdama": 1756,
      "Ġdoit": 1757,
      "ĠmÃ©t": 1758,
      "Ġmili": 1759,
      "ese": 1760,
      "este": 1761,
      "Ġnopp": 1762,
      "ĠnÃ©egu": 1763,
      "Ġsang": 1764,
      "Ġsoir": 1765,
      "ĠsÃ©en": 1766,
      "aate": 1767,
      "Ġac": 1768,
      "Ġcelle": 1769,
      "Ġceux": 1770,
      "Ġbaat": 1771,
      "Ġbeek": 1772,
      "ĠbÃ¢": 1773,
      "Ġpous": 1774,
      "Ġpendant": 1775,
      "ange": 1776,
      "rer": 1777,
      "Ġtali": 1778,
      "Ġteel": 1779,
      "aie": 1780,
      "oogu": 1781,
      "Ġfou": 1782,
      "Ġfees": 1783,
      "Ã«t": 1784,
      "ĠgÃ©ej": 1785,
      "Ġgoogu": 1786,
      "Ġkar": 1787,
      "Ġkese": 1788,
      "Ġwone": 1789,
      "ung": 1790,
      "ilis": 1791,
      "leur": 1792,
      "Ã¨ne": 1793,
      "Ġxi": 1794,
      "Ġxaar": 1795,
      "ĠxÃ©y": 1796,
      "anti": 1797,
      "asse": 1798,
      "ull": 1799,
      "Ġbate": 1800,
      "Ġend": 1801,
      "Ġtere": 1802,
      "Ġtefes": 1803,
      "Ġaujourd": 1804,
      "Ġngoon": 1805,
      "Ġnguur": 1806,
      "ionn": 1807,
      "ĠMaa": 1808,
      "ĠMÃ«n": 1809,
      "ĠMuy": 1810,
      "ĠMoonte": 1811,
      "Ġrel": 1812,
      "Ġavions": 1813,
      "Ġavons": 1814,
      "eut": 1815,
      "Ġchar": 1816,
      "Ġchau": 1817,
      "Ġcap": 1818,
      "ĠdÃ©f": 1819,
      "ĠDe": 1820,
      "Ġhau": 1821,
      "Ġhum": 1822,
      "ecc": 1823,
      "ĠÃ¢": 1824,
      "Ġmiin": 1825,
      "ĠFi": 1826,
      "aliki": 1827,
      "ĠWalla": 1828,
      "ign": 1829,
      "ĠdÃ«kke": 1830,
      "ĠGuy": 1831,
      "ĠGuw": 1832,
      "Ġangl": 1833,
      "ture": 1834,
      "iyaan": 1835,
      "Ġenfant": 1836,
      "ĠJam": 1837,
      "Ã§ons": 1838,
      "Ġtuuti": 1839,
      "Ġdoomu": 1840,
      "Ġraj": 1841,
      "ĠYÃłlla": 1842,
      "Ġjiit": 1843,
      "Ġfroi": 1844,
      "Ġsunuy": 1845,
      "llem": 1846,
      "Ġasamaan": 1847,
      "itude": 1848,
      "Ġappris": 1849,
      "Ġpartir": 1850,
      "Ã®tre": 1851,
      "ĠFrÃ£s": 1852,
      "maÅĭ": 1853,
      "Ġposte": 1854,
      "Ġconnu": 1855,
      "Ġpuiss": 1856,
      "Ġdayo": 1857,
      "ĠyÃ«ngu": 1858,
      "ĠBamendaa": 1859,
      "ĠjÃ©ggi": 1860,
      "ĠyÃ³bbu": 1861,
      "Ġsemble": 1862,
      "Ġfaisait": 1863,
      "Ġnangu": 1864,
      "ĠdÃ©glu": 1865,
      "Ouest": 1866,
      "Ġarbres": 1867,
      "Ġracont": 1868,
      "Ġsilence": 1869,
      "Ġfrapp": 1870,
      "Ġlaquelle": 1871,
      "saalum": 1872,
      "Ġmilieu": 1873,
      "ĠGuyane": 1874,
      "ĠGuwiyaan": 1875,
      "De": 1876,
      "Elle": 1877,
      "Si": 1878,
      "gÃłnn": 1879,
      "ies": 1880,
      "jaay": 1881,
      "ka": 1882,
      "kom": 1883,
      "ole": 1884,
      "ogg": 1885,
      "pl": 1886,
      "rÃ©e": 1887,
      "sa": 1888,
      "tin": 1889,
      "tÃ©s": 1890,
      "tres": 1891,
      "vi": 1892,
      "woo": 1893,
      "Ã¯": 1894,
      "Ġlit": 1895,
      "Ġlaata": 1896,
      "Ġmur": 1897,
      "Ġmeu": 1898,
      "Ġmains": 1899,
      "Ġnoo": 1900,
      "ĠnÃ«": 1901,
      "Ġnanu": 1902,
      "ĠsÃłn": 1903,
      "ĠsÃłkk": 1904,
      "onte": 1905,
      "Ġcl": 1906,
      "Ġbat": 1907,
      "Ġpis": 1908,
      "Ġperm": 1909,
      "ĠtÃ©y": 1910,
      "ĠtÃ©ere": 1911,
      "ail": 1912,
      "air": 1913,
      "Ġyab": 1914,
      "ĠyÃ«kk": 1915,
      "Ġyilif": 1916,
      "ĠyÃ©re": 1917,
      "ĠfÃ©ex": 1918,
      "Ġjoor": 1919,
      "Ġgan": 1920,
      "ĠgÃ©m": 1921,
      "Ġkon": 1922,
      "Ġkay": 1923,
      "temps": 1924,
      "inaire": 1925,
      "isme": 1926,
      "enture": 1927,
      "Ġquit": 1928,
      "urg": 1929,
      "urop": 1930,
      "Ġlekk": 1931,
      "kkal": 1932,
      "kkee": 1933,
      "Ã¨te": 1934,
      "ĠÃ±e": 1935,
      "Ġxeer": 1936,
      "Ġxuus": 1937,
      "iru": 1938,
      "Ġvous": 1939,
      "Ġvoit": 1940,
      "Ġvoix": 1941,
      "Ġenv": 1942,
      "Ġngelaw": 1943,
      "ĠMoo": 1944,
      "ĠMar": 1945,
      "ĠMas": 1946,
      "Ġparce": 1947,
      "Ġrej": 1948,
      "Ġretr": 1949,
      "cept": 1950,
      "Ġluy": 1951,
      "chÃ©s": 1952,
      "ĠNat": 1953,
      "Ãªtes": 1954,
      "Ġsukk": 1955,
      "Ġhommes": 1956,
      "iment": 1957,
      "Ġsaf": 1958,
      "Ġplate": 1959,
      "Ġpris": 1960,
      "ĠprÃ©c": 1961,
      "ends": 1962,
      "Ġinc": 1963,
      "Ġindi": 1964,
      "Ġinter": 1965,
      "avais": 1966,
      "Ġmeloon": 1967,
      "ccu": 1968,
      "ĠÃ©ch": 1969,
      "Ġmoomu": 1970,
      "Ġgise": 1971,
      "Ã´le": 1972,
      "eaux": 1973,
      "Ġwuti": 1974,
      "Ġwaroon": 1975,
      "Ġmasul": 1976,
      "ĠÃĳÃłkk": 1977,
      "ĠlÃłqu": 1978,
      "Ġnature": 1979,
      "Ġmarche": 1980,
      "ĠfrÃ¨re": 1981,
      "ĠfranÃ§": 1982,
      "Ġforce": 1983,
      "ĠrÃ©ewi": 1984,
      "ĠrÃ©ewum": 1985,
      "Ġpassage": 1986,
      "Ġmaladi": 1987,
      "Ġgarabi": 1988,
      "Ġaccro": 1989,
      "teek": 1990,
      "ĠIbo": 1991,
      "Ġtiim": 1992,
      "Ġmatin": 1993,
      "Ġdouce": 1994,
      "ĠpremiÃ¨re": 1995,
      "Ġfamille": 1996,
      "Ġfleuve": 1997,
      "Ġpieds": 1998,
      "Ġyegg": 1999,
      "Ġmoins": 2000,
      "imagine": 2001,
      "Ġzone": 2002,
      "Ġkilom": 2003,
      "ĠkÃłddu": 2004,
      "Ġrawati": 2005,
      "gÃłnnaar": 2006,
      "Dans": 2007,
      "aur": 2008,
      "aff": 2009,
      "acc": 2010,
      "act": 2011,
      "bli": 2012,
      "cour": 2013,
      "dess": 2014,
      "ere": 2015,
      "faraa": 2016,
      "hum": 2017,
      "herbes": 2018,
      "ible": 2019,
      "joo": 2020,
      "ke": 2021,
      "kun": 2022,
      "lus": 2023,
      "min": 2024,
      "maaÃ±": 2025,
      "mÃªme": 2026,
      "ogue": 2027,
      "tal": 2028,
      "tout": 2029,
      "tÃ´t": 2030,
      "vÃ©": 2031,
      "waan": 2032,
      "ze": 2033,
      "Ġeux": 2034,
      "ĠdÃłll": 2035,
      "Ġleneen": 2036,
      "ĠlÃ«nd": 2037,
      "Ġmanger": 2038,
      "Ġneneen": 2039,
      "Ġsel": 2040,
      "eng": 2041,
      "onk": 2042,
      "Ġcu": 2043,
      "Ġbee": 2044,
      "ĠbÃłnn": 2045,
      "Ġboroom": 2046,
      "Ġpe": 2047,
      "Ġple": 2048,
      "Ġpir": 2049,
      "Ġdekkali": 2050,
      "Ġth": 2051,
      "ĠtÃł": 2052,
      "Ġtas": 2053,
      "ĠtÃ³": 2054,
      "Ġtaw": 2055,
      "Ġtoute": 2056,
      "Ġyat": 2057,
      "Ġyax": 2058,
      "ĠyÃ©em": 2059,
      "Ġfen": 2060,
      "Ġfit": 2061,
      "Ġfau": 2062,
      "Ġjant": 2063,
      "Ġjeu": 2064,
      "Ġjub": 2065,
      "quoi": 2066,
      "allu": 2067,
      "Ã«pp": 2068,
      "amour": 2069,
      "ĠgÃ«": 2070,
      "Ġgor": 2071,
      "Ġkaw": 2072,
      "Ġkook": 2073,
      "Ġkanam": 2074,
      "Ġweer": 2075,
      "inÃ©": 2076,
      "Ġcir": 2077,
      "ilit": 2078,
      "Ġrais": 2079,
      "Ġrest": 2080,
      "Ġrout": 2081,
      "eewul": 2082,
      "ela": 2083,
      "Ġniy": 2084,
      "Ġdiff": 2085,
      "aayu": 2086,
      "agg": 2087,
      "ĠBiyaa": 2088,
      "usi": 2089,
      "Ġbii": 2090,
      "Ġnaka": 2091,
      "Ġparfois": 2092,
      "ĠlumiÃ¨re": 2093,
      "chait": 2094,
      "Ġchale": 2095,
      "ĠLÃ©eg": 2096,
      "Ġlim": 2097,
      "ĠfaÃ§on": 2098,
      "ĠSaa": 2099,
      "ĠSeen": 2100,
      "ÅĭÅĭ": 2101,
      "aaral": 2102,
      "Ġguer": 2103,
      "ĠmbÃ³ot": 2104,
      "ĠTeewul": 2105,
      "ect": 2106,
      "oign": 2107,
      "ĠKÃ«r": 2108,
      "Ġjege": 2109,
      "ĠÃ©tions": 2110,
      "Ġoff": 2111,
      "ĠprÃ¨s": 2112,
      "endue": 2113,
      "Ġgii": 2114,
      "oyy": 2115,
      "avoir": 2116,
      "anteer": 2117,
      "Ġnaaj": 2118,
      "Ġanci": 2119,
      "Ġgisaat": 2120,
      "but": 2121,
      "Ġenfance": 2122,
      "ĠrÃ©g": 2123,
      "ĠrÃ©er": 2124,
      "Ġsoci": 2125,
      "Ġarm": 2126,
      "Ã§u": 2127,
      "Ġwute": 2128,
      "ĠmÃªmes": 2129,
      "Ġdeven": 2130,
      "ĠjÃ«f": 2131,
      "ĠkÃ«ram": 2132,
      "Ġvieille": 2133,
      "Ġcrois": 2134,
      "ĠgarÃ§ons": 2135,
      "ombre": 2136,
      "Ã¢ge": 2137,
      "Ġimmens": 2138,
      "Ġass": 2139,
      "okÃ«r": 2140,
      "ĠNiis": 2141,
      "Ġressent": 2142,
      "Ġressemb": 2143,
      "Ġpalanteer": 2144,
      "Ġparlait": 2145,
      "Ġaccomp": 2146,
      "Ġdisp": 2147,
      "encont": 2148,
      "ĠAlmaÅĭ": 2149,
      "ĠAlmaaÃ±": 2150,
      "Ġconf": 2151,
      "Ġinsectes": 2152,
      "fukki": 2153,
      "Ġsoos": 2154,
      "Åĵur": 2155,
      "Ġjanook": 2156,
      "Ġtoujours": 2157,
      "Ġubbi": 2158,
      "Ġwetu": 2159,
      "Ġfoofu": 2160,
      "Ġpartie": 2161,
      "ĠdaÃ±uy": 2162,
      "Ġtangor": 2163,
      "Ġsoldaar": 2164,
      "Ġdiggante": 2165,
      "Ġbateau": 2166,
      "ĠgÃ©mmi": 2167,
      "dessus": 2168,
      "ĠlÃ«ndÃ«m": 2169,
      "ĠbÃłnneex": 2170,
      "Ġroutes": 2171,
      "ĠBiyaafaraa": 2172,
      "Ġchaleur": 2173,
      "Al": 2174,
      "Peut": 2175,
      "Sans": 2176,
      "bas": 2177,
      "coup": 2178,
      "der": 2179,
      "dÃ©et": 2180,
      "fs": 2181,
      "grÃ©": 2182,
      "heur": 2183,
      "ien": 2184,
      "ide": 2185,
      "ict": 2186,
      "jÃł": 2187,
      "jets": 2188,
      "jeÅĭ": 2189,
      "kt": 2190,
      "lÃ¨": 2191,
      "mer": 2192,
      "oÃ»t": 2193,
      "pir": 2194,
      "ru": 2195,
      "ross": 2196,
      "ukaay": 2197,
      "wa": 2198,
      "waat": 2199,
      "wuma": 2200,
      "Ġis": 2201,
      "Ġut": 2202,
      "Ġdaa": 2203,
      "Ġdaaw": 2204,
      "ĠdÃ»": 2205,
      "Ġlal": 2206,
      "Ġlar": 2207,
      "Ġmour": 2208,
      "Ġmill": 2209,
      "Ġmilit": 2210,
      "Ã©elu": 2211,
      "Ġndi": 2212,
      "Ġnord": 2213,
      "Ġnaiss": 2214,
      "Ġsor": 2215,
      "Ġsour": 2216,
      "Ġsimp": 2217,
      "Ġsalle": 2218,
      "enant": 2219,
      "onde": 2220,
      "Ġati": 2221,
      "Ġaim": 2222,
      "Ġcos": 2223,
      "Ġcond": 2224,
      "Ġbant": 2225,
      "Ġboy": 2226,
      "Ġbeau": 2227,
      "Ġbees": 2228,
      "Ġbari": 2229,
      "Ġpo": 2230,
      "Ġpou": 2231,
      "reur": 2232,
      "Ġtar": 2233,
      "Ġtubaab": 2234,
      "ouch": 2235,
      "aite": 2236,
      "Ġyow": 2237,
      "Ġfaut": 2238,
      "ĠjÃłll": 2239,
      "Ġjaxas": 2240,
      "quÃ©": 2241,
      "alc": 2242,
      "alu": 2243,
      "aloo": 2244,
      "aleek": 2245,
      "arde": 2246,
      "Ã«f": 2247,
      "Ã«cc": 2248,
      "ame": 2249,
      "amm": 2250,
      "aments": 2251,
      "Ġgouver": 2252,
      "Ġlakk": 2253,
      "ĠkÃłtt": 2254,
      "ĠkÃ©em": 2255,
      "Ġwoy": 2256,
      "Ġwow": 2257,
      "ĠwÃ«nd": 2258,
      "inc": 2259,
      "entrÃ©e": 2260,
      "Ġciment": 2261,
      "uru": 2262,
      "oritÃ©": 2263,
      "oonu": 2264,
      "Ġroi": 2265,
      "ĠrÃ¨g": 2266,
      "Ġreste": 2267,
      "Ġrencont": 2268,
      "eef": 2269,
      "Ġmax": 2270,
      "Ã¨tres": 2271,
      "ĠxÃłmm": 2272,
      "Ã©edÃ©et": 2273,
      "Ġvu": 2274,
      "Ġmuur": 2275,
      "Ġdestin": 2276,
      "Ġdiis": 2277,
      "Ġdiffic": 2278,
      "Ġsew": 2279,
      "Ġbawoo": 2280,
      "Ã©tais": 2281,
      "ĠMok": 2282,
      "Ãłndi": 2283,
      "ĠNj": 2284,
      "Ġbuy": 2285,
      "abord": 2286,
      "ĠLÃ©pp": 2287,
      "Ġsub": 2288,
      "Ġsuiv": 2289,
      "ĠliÃ±": 2290,
      "ĠdÃ©nd": 2291,
      "ĠDist": 2292,
      "ĠDaÃ±": 2293,
      "ĠSunu": 2294,
      "Ġguy": 2295,
      "otos": 2296,
      "Ġmbind": 2297,
      "ĠsaÃ±": 2298,
      "Ġsurtout": 2299,
      "ĠprÃ©": 2300,
      "ĠprÃ©s": 2301,
      "gues": 2302,
      "Ġmiy": 2303,
      "ĠFa": 2304,
      "Ġinf": 2305,
      "ĠndÃłnk": 2306,
      "eeku": 2307,
      "ĠWaaw": 2308,
      "anteek": 2309,
      "ĠGone": 2310,
      "ĠmÃ«nul": 2311,
      "aller": 2312,
      "Ġanim": 2313,
      "Ġnjab": 2314,
      "ĠnjÃłmb": 2315,
      "iya": 2316,
      "Ġbras": 2317,
      "midi": 2318,
      "aaxaan": 2319,
      "Ġarr": 2320,
      "aamu": 2321,
      "Ã§ait": 2322,
      "ĠgÃ«noon": 2323,
      "Ġmasu": 2324,
      "ĠÃĳoom": 2325,
      "ordinaire": 2326,
      "ĠlÃłmp": 2327,
      "Ġrapp": 2328,
      "lic": 2329,
      "ĠmarchÃ©": 2330,
      "Ġsamp": 2331,
      "Ġvieux": 2332,
      "Ġforme": 2333,
      "Ġcouleur": 2334,
      "Ġcontr": 2335,
      "oria": 2336,
      "uire": 2337,
      "ablement": 2338,
      "ident": 2339,
      "ĠNice": 2340,
      "ĠfeeÃ±": 2341,
      "ĠÃ©cl": 2342,
      "ĠÃ©cout": 2343,
      "Quel": 2344,
      "ĠmÃłggat": 2345,
      "Ġphotos": 2346,
      "Ġfajkat": 2347,
      "Ġfanaan": 2348,
      "ĠcÃ´te": 2349,
      "Ġderni": 2350,
      "ĠyÃ«ngal": 2351,
      "Ġchoses": 2352,
      "Ġmontagne": 2353,
      "ĠrÃ«bb": 2354,
      "Ġvisage": 2355,
      "ĠLegoo": 2356,
      "Ġaucune": 2357,
      "Ġlongtemps": 2358,
      "Ġjaneer": 2359,
      "Ġragal": 2360,
      "ĠrÃªve": 2361,
      "Ġblanc": 2362,
      "Ġhauts": 2363,
      "ĠVict": 2364,
      "Ġafricain": 2365,
      "Ġnouveau": 2366,
      "Ġfeuilles": 2367,
      "gisu": 2368,
      "Ġvrai": 2369,
      "tÃ©rieur": 2370,
      "Ġchaussettes": 2371,
      "Ġnoms": 2372,
      "Ġdiiwaan": 2373,
      "ĠmÃ©dicaments": 2374,
      "ĠEnjeÅĭ": 2375,
      "Ġsauvages": 2376,
      "Ġkeroog": 2377,
      "Ġhautes": 2378,
      "ĠJamono": 2379,
      "Ġfroid": 2380,
      "Ġmeubles": 2381,
      "ĠtÃ©ye": 2382,
      "ĠyÃ«kkati": 2383,
      "ccup": 2384,
      "ĠÃĳÃłkkul": 2385,
      "Ġcuir": 2386,
      "Ġpirogue": 2387,
      "ĠtÃ³okÃ«r": 2388,
      "Ġraison": 2389,
      "ĠsociÃ©tÃ©": 2390,
      "Ġgouvernement": 2391,
      "ĠwÃ«ndÃ©elu": 2392,
      "ĠxÃłmmee": 2393,
      "ĠDistrict": 2394,
      "ĠLegoos": 2395,
      "ĠVictoria": 2396,
      "Cette": 2397,
      "Ma": 2398,
      "Sur": 2399,
      "ade": 2400,
      "aprÃ¨s": 2401,
      "bout": 2402,
      "cs": 2403,
      "edd": 2404,
      "hme": 2405,
      "homme": 2406,
      "ice": 2407,
      "maa": 2408,
      "niy": 2409,
      "oÃ¹": 2410,
      "per": 2411,
      "pas": 2412,
      "puis": 2413,
      "rÃ©s": 2414,
      "sent": 2415,
      "thme": 2416,
      "xi": 2417,
      "Ġesp": 2418,
      "īt": 2419,
      "Ġdur": 2420,
      "Ġdang": 2421,
      "ĠdÃ«g": 2422,
      "ĠdÃłq": 2423,
      "Ġdog": 2424,
      "Ġlopp": 2425,
      "Ġlanu": 2426,
      "Ġmen": 2427,
      "Ġmous": 2428,
      "ĠmÃ©n": 2429,
      "Ġmook": 2430,
      "Ġmaak": 2431,
      "ĠmÃłnd": 2432,
      "ĠmÃłr": 2433,
      "Ã©l": 2434,
      "esc": 2435,
      "Ġnus": 2436,
      "Ġnelaw": 2437,
      "Ġst": 2438,
      "Ġsant": 2439,
      "Ġseng": 2440,
      "ener": 2441,
      "aare": 2442,
      "Ġach": 2443,
      "Ġcan": 2444,
      "Ġcam": 2445,
      "Ġcuis": 2446,
      "Ġcours": 2447,
      "ĠcÅĵur": 2448,
      "Ġber": 2449,
      "Ġbas": 2450,
      "Ġbeneen": 2451,
      "Ġbett": 2452,
      "Ġpom": 2453,
      "Ġpol": 2454,
      "ĠpÃ©n": 2455,
      "Ġpeur": 2456,
      "ĠpÃ«nd": 2457,
      "ĠtÃłn": 2458,
      "Ġtont": 2459,
      "Ġtelle": 2460,
      "Ġtoj": 2461,
      "Ġtable": 2462,
      "Ġtogg": 2463,
      "ĠtÃ´le": 2464,
      "Ġyenn": 2465,
      "Ġyenu": 2466,
      "Ġfat": 2467,
      "Ġfow": 2468,
      "Ġfey": 2469,
      "Ġjum": 2470,
      "arr": 2471,
      "ares": 2472,
      "Ġgl": 2473,
      "Ġgal": 2474,
      "ĠgoÃ»t": 2475,
      "ete": 2476,
      "eti": 2477,
      "etu": 2478,
      "Ġkan": 2479,
      "ĠkÃ©pp": 2480,
      "Ġkilif": 2481,
      "Ġwaa": 2482,
      "Ġwaar": 2483,
      "Ġwoto": 2484,
      "unes": 2485,
      "unniy": 2486,
      "teur": 2487,
      "int": 2488,
      "iner": 2489,
      "inent": 2490,
      "intÃ©rieur": 2491,
      "ises": 2492,
      "Ġquest": 2493,
      "uraat": 2494,
      "itam": 2495,
      "Ġraay": 2496,
      "Ġresp": 2497,
      "eere": 2498,
      "ĠÃ±ii": 2499,
      "Ġxob": 2500,
      "Ġxanaa": 2501,
      "Ġvag": 2502,
      "Ġmukk": 2503,
      "Ġmucc": 2504,
      "Ġens": 2505,
      "ĠBÃ©n": 2506,
      "ĠBuur": 2507,
      "ĠAt": 2508,
      "ĠAyaa": 2509,
      "aisse": 2510,
      "ĠMon": 2511,
      "Ġrepr": 2512,
      "eue": 2513,
      "ĠNga": 2514,
      "ĠNoonu": 2515,
      "Ġbuur": 2516,
      "Ġchang": 2517,
      "ose": 2518,
      "Ġdaanu": 2519,
      "Ġsud": 2520,
      "Ġliy": 2521,
      "Ġlieu": 2522,
      "Ġlieux": 2523,
      "tiir": 2524,
      "Ġcause": 2525,
      "ĠdÃ©part": 2526,
      "ĠDi": 2527,
      "ĠDem": 2528,
      "ĠDÃ©edÃ©et": 2529,
      "ĠhÃ©r": 2530,
      "ĠSoo": 2531,
      "Ġtrain": 2532,
      "Ã«rÃ«m": 2533,
      "ĠAfric": 2534,
      "Ġnuages": 2535,
      "Ġjeunes": 2536,
      "Ġop": 2537,
      "Ġprend": 2538,
      "Ġprop": 2539,
      "endait": 2540,
      "endance": 2541,
      "ĠCh": 2542,
      "ĠFÃł": 2543,
      "ĠFoo": 2544,
      "ĠFekk": 2545,
      "Ġsonal": 2546,
      "ÅĪu": 2547,
      "Ġind": 2548,
      "aali": 2549,
      "Ġsig": 2550,
      "Ġsiiw": 2551,
      "aventure": 2552,
      "ccident": 2553,
      "galu": 2554,
      "ĠÃ©l": 2555,
      "ĠÃ©v": 2556,
      "ĠÃ©le": 2557,
      "Ġdemoon": 2558,
      "ĠObudu": 2559,
      "ĠOfficer": 2560,
      "sible": 2561,
      "exe": 2562,
      "Ġjuum": 2563,
      "tukaay": 2564,
      "Ġdalal": 2565,
      "Ġfukki": 2566,
      "ĠÅĪaari": 2567,
      "Ġsolitude": 2568,
      "Ġtukki": 2569,
      "ements": 2570,
      "Ġdevaient": 2571,
      "Ġdevenu": 2572,
      "Ġraf": 2573,
      "Ġchap": 2574,
      "Ġexp": 2575,
      "ĠYor": 2576,
      "ĠcrÃ©": 2577,
      "Ġcelui": 2578,
      "Ġfii": 2579,
      "Ġfront": 2580,
      "Ã¢te": 2581,
      "Ġtoogu": 2582,
      "ĠgÃ©nÃ©r": 2583,
      "ĠgÃ©nne": 2584,
      "autoritÃ©": 2585,
      "Ġimages": 2586,
      "Ġdoxe": 2587,
      "ances": 2588,
      "Ġsera": 2589,
      "Ġkowe": 2590,
      "afe": 2591,
      "ĠRÃ©ew": 2592,
      "Ġapport": 2593,
      "ĠtÃ«j": 2594,
      "ĠTey": 2595,
      "Ġloxoom": 2596,
      "Ġmetit": 2597,
      "Ã©par": 2598,
      "Ġalk": 2599,
      "Ġcass": 2600,
      "nglet": 2601,
      "Ã®t": 2602,
      "Ġ193": 2603,
      "Ġdawal": 2604,
      "ĠjÃłppale": 2605,
      "ĠAmaana": 2606,
      "ĠdÃ©cor": 2607,
      "Ġpalmes": 2608,
      "Ġpetit": 2609,
      "Ġpetits": 2610,
      "ĠÅĪuul": 2611,
      "Ã©gte": 2612,
      "Ġquelques": 2613,
      "Ġprof": 2614,
      "Ġproche": 2615,
      "Ġteewe": 2616,
      "Ġxolam": 2617,
      "ĠpremiÃ¨res": 2618,
      "ĠAyi": 2619,
      "Ġsavane": 2620,
      "Ġregarder": 2621,
      "ĠjÃłngal": 2622,
      "ĠrÃ«dd": 2623,
      "impression": 2624,
      "ouverte": 2625,
      "Ġaller": 2626,
      "Ġvivre": 2627,
      "ĠtÃłngaay": 2628,
      "Ġnoirs": 2629,
      "Ġsentiment": 2630,
      "ĠplutÃ´t": 2631,
      "Ġraglu": 2632,
      "Ġblanche": 2633,
      "Ġpied": 2634,
      "ingt": 2635,
      "Ġrouge": 2636,
      "Ġchemins": 2637,
      "Ġcheval": 2638,
      "andikoo": 2639,
      "Ġtermites": 2640,
      "Ġseulement": 2641,
      "ĠDaanaka": 2642,
      "Ġobs": 2643,
      "Ġdistrict": 2644,
      "Ġmots": 2645,
      "Ġbonheur": 2646,
      "Ġtels": 2647,
      "instant": 2648,
      "ĠlÃłrmeb": 2649,
      "Ġporteurs": 2650,
      "Ġjafe": 2651,
      "ĠÃĵbudu": 2652,
      "ĠsimoÅĭ": 2653,
      "Ġbunt": 2654,
      "Ġtund": 2655,
      "Ġjuddoo": 2656,
      "Ġscorpion": 2657,
      "ĠÃ¢ge": 2658,
      "Ġanglaise": 2659,
      "Ġpuissance": 2660,
      "saalumu": 2661,
      "ĠsÃłnni": 2662,
      "Ġsukkuraat": 2663,
      "Ġplateaux": 2664,
      "Ġdouceur": 2665,
      "minist": 2666,
      "ĠdiffÃ©r": 2667,
      "Ġoffici": 2668,
      "Ġimmense": 2669,
      "Ġaccompagn": 2670,
      "ĠgÃ©mmiÃ±": 2671,
      "Ġbeaucoup": 2672,
      "ĠkÃ©emaane": 2673,
      "Ġnjaboot": 2674,
      "Ġloppit": 2675,
      "Ġquestion": 2676,
      "ngleterre": 2677,
      "Angleterre": 2678,
      "Cela": 2679,
      "DÃ¨s": 2680,
      "Par": 2681,
      "Puis": 2682,
      "Plus": 2683,
      "Sa": 2684,
      "aci": 2685,
      "benn": 2686,
      "cre": 2687,
      "cle": 2688,
      "dÃ©e": 2689,
      "dol": 2690,
      "dÃ«gg": 2691,
      "eor": 2692,
      "feel": 2693,
      "ges": 2694,
      "iques": 2695,
      "ikt": 2696,
      "jÃ©": 2697,
      "jant": 2698,
      "ko": 2699,
      "lÃ©e": 2700,
      "lines": 2701,
      "ner": 2702,
      "och": 2703,
      "otee": 2704,
      "oÃ¯": 2705,
      "pÃ¨re": 2706,
      "rou": 2707,
      "ront": 2708,
      "see": 2709,
      "saan": 2710,
      "ume": 2711,
      "vis": 2712,
      "vant": 2713,
      "weer": 2714,
      "xe": 2715,
      "ya": 2716,
      "ythme": 2717,
      "ĠÃ³": 2718,
      "Ġemb": 2719,
      "ĠIls": 2720,
      "Ġ00": 2721,
      "Ġdom": 2722,
      "Ġdoi": 2723,
      "Ġlis": 2724,
      "ĠlÃ©e": 2725,
      "Ġlour": 2726,
      "ĠlÃłkk": 2727,
      "Ġmo": 2728,
      "Ġmir": 2729,
      "Ġmoy": 2730,
      "Ġmaas": 2731,
      "ĠmÃłndi": 2732,
      "Ã©er": 2733,
      "Ã©qu": 2734,
      "Ã©ens": 2735,
      "ĠnÃ©ew": 2736,
      "Ġnoyy": 2737,
      "Ġsot": 2738,
      "Ġsopp": 2739,
      "ĠsÃ«kk": 2740,
      "Ġsort": 2741,
      "Ġsanc": 2742,
      "ĠsÃ«s": 2743,
      "onoy": 2744,
      "Ġallem": 2745,
      "Ġcin": 2746,
      "Ġcent": 2747,
      "Ġcoon": 2748,
      "Ġcee": 2749,
      "Ġcab": 2750,
      "Ġbar": 2751,
      "Ġbir": 2752,
      "Ġbaar": 2753,
      "Ġpat": 2754,
      "ĠpÃ©t": 2755,
      "Ġpers": 2756,
      "Ġponk": 2757,
      "ano": 2758,
      "angu": 2759,
      "anches": 2760,
      "Ġdebout": 2761,
      "Ġdepuis": 2762,
      "Ġtre": 2763,
      "Ġtat": 2764,
      "Ġtant": 2765,
      "Ġtub": 2766,
      "Ġtaax": 2767,
      "ĠtÃłgg": 2768,
      "Ġtours": 2769,
      "ĠyÃ©eg": 2770,
      "ĠyÃłkk": 2771,
      "ĠyÃ©en": 2772,
      "Ġyokk": 2773,
      "oole": 2774,
      "Ġfer": 2775,
      "Ġfir": 2776,
      "Ġfenn": 2777,
      "Ġfall": 2778,
      "Ġfull": 2779,
      "erig": 2780,
      "ĠjÃłkk": 2781,
      "ĠjÃ«nd": 2782,
      "ĠjÃłmm": 2783,
      "Ġjunniy": 2784,
      "Ġjotee": 2785,
      "quer": 2786,
      "quelles": 2787,
      "alement": 2788,
      "art": 2789,
      "Ã«dd": 2790,
      "amay": 2791,
      "Ġgol": 2792,
      "ĠgÃłng": 2793,
      "ĠgÃ«m": 2794,
      "ĠgÃłdd": 2795,
      "etÃ©": 2796,
      "etow": 2797,
      "Ã±ax": 2798,
      "Ġkal": 2799,
      "Ġkili": 2800,
      "Ġwer": 2801,
      "Ġwor": 2802,
      "ĠwÃłcc": 2803,
      "uni": 2804,
      "inay": 2805,
      "insi": 2806,
      "ish": 2807,
      "Ġcib": 2808,
      "orool": 2809,
      "ition": 2810,
      "Ġren": 2811,
      "Ġrage": 2812,
      "Ġrythme": 2813,
      "Ġlequel": 2814,
      "kku": 2815,
      "eeÃ±": 2816,
      "eelu": 2817,
      "ĠÃłpp": 2818,
      "ell": 2819,
      "ellentaan": 2820,
      "ĠÃ±iy": 2821,
      "ĠxÃ«cc": 2822,
      "Ã©eme": 2823,
      "Ġvas": 2824,
      "Ġvingt": 2825,
      "Ġdese": 2826,
      "ase": 2827,
      "ules": 2828,
      "Ġdig": 2829,
      "omment": 2830,
      "Ġkott": 2831,
      "ager": 2832,
      "agos": 2833,
      "ĠBa": 2834,
      "ĠBenn": 2835,
      "Ġduma": 2836,
      "Ġtegu": 2837,
      "Ġtekki": 2838,
      "ĠngÃ³or": 2839,
      "ĠMellentaan": 2840,
      "ĠreÃ§u": 2841,
      "Ġavoir": 2842,
      "Ã«ntaan": 2843,
      "chÃ©e": 2844,
      "ĠNu": 2845,
      "ĠNgu": 2846,
      "ĠNaka": 2847,
      "ĠbuÃ±": 2848,
      "Ġcher": 2849,
      "Ġchasse": 2850,
      "Ãªte": 2851,
      "ÃªtÃ©": 2852,
      "abri": 2853,
      "ennes": 2854,
      "ĠLenn": 2855,
      "ĠLaata": 2856,
      "ĠLagos": 2857,
      "Ġsuba": 2858,
      "tique": 2859,
      "ĠdÃ©et": 2860,
      "ĠdÃ©mb": 2861,
      "ĠdÃ©jÃł": 2862,
      "ĠDÃ«gg": 2863,
      "Ġhama": 2864,
      "Ġhist": 2865,
      "Ġherbes": 2866,
      "Ġhuit": 2867,
      "ument": 2868,
      "resse": 2869,
      "image": 2870,
      "Ġmbool": 2871,
      "Ġtrouv": 2872,
      "Ġtroup": 2873,
      "andis": 2874,
      "oie": 2875,
      "ĠKi": 2876,
      "ĠKor": 2877,
      "ĠKano": 2878,
      "Ġdoonte": 2879,
      "ieurs": 2880,
      "Ġprob": 2881,
      "Ġcomb": 2882,
      "Ġmieux": 2883,
      "ĠFii": 2884,
      "ÅĪÅĪ": 2885,
      "ĠAfrigam": 2886,
      "Ġint": 2887,
      "Ġsix": 2888,
      "ĠWikt": 2889,
      "ĠÃ©qu": 2890,
      "Ã±uy": 2891,
      "ĠdÃ«kku": 2892,
      "seer": 2893,
      "ĠGu": 2894,
      "ĠGar": 2895,
      "ĠGeor": 2896,
      "exist": 2897,
      "Ġwaxtu": 2898,
      "Ġwaxtaan": 2899,
      "angoo": 2900,
      "oirs": 2901,
      "ĠnjÃ«l": 2902,
      "aawun": 2903,
      "aree": 2904,
      "Ġjambes": 2905,
      "miers": 2906,
      "ĠrÃ©alitÃ©": 2907,
      "Ġkuy": 2908,
      "aama": 2909,
      "raph": 2910,
      "Ġmasoon": 2911,
      "Ġmasques": 2912,
      "ĠÃĳoo": 2913,
      "Ġoubli": 2914,
      "Ġbooba": 2915,
      "akaliki": 2916,
      "ĠXare": 2917,
      "Ġvieill": 2918,
      "Ġext": 2919,
      "Ġexemp": 2920,
      "ĠPort": 2921,
      "Ġcru": 2922,
      "Ġvient": 2923,
      "aaju": 2924,
      "Ġlongue": 2925,
      "Ġcoups": 2926,
      "autres": 2927,
      "veill": 2928,
      "ĠEurop": 2929,
      "eries": 2930,
      "Ġmontre": 2931,
      "bbe": 2932,
      "Ġask": 2933,
      "Ãªtres": 2934,
      "Ġyaramu": 2935,
      "Ġtravail": 2936,
      "Ġdooley": 2937,
      "uite": 2938,
      "ĠRax": 2939,
      "Ġseetaan": 2940,
      "ĠjÃ³g": 2941,
      "utoon": 2942,
      "Ġmettre": 2943,
      "role": 2944,
      "ĠmalgrÃ©": 2945,
      "Ã©pendance": 2946,
      "ĠnaÃ±oo": 2947,
      "Ġportes": 2948,
      "Ġpartout": 2949,
      "Ġ194": 2950,
      "Ġ196": 2951,
      "aÃ±Ã±": 2952,
      "aÃ±seer": 2953,
      "ĠdÃ«ggÃ«ntaan": 2954,
      "Ġressens": 2955,
      "Ġregarde": 2956,
      "Ġpetite": 2957,
      "Ġpetorool": 2958,
      "ĠIn": 2959,
      "ĠriviÃ¨res": 2960,
      "Ġtiit": 2961,
      "Ġtraverser": 2962,
      "appar": 2963,
      "Ġcourir": 2964,
      "Ġdajale": 2965,
      "Ġteewul": 2966,
      "ĠjÃ©kkee": 2967,
      "ĠlaÃ±uy": 2968,
      "Ġgunge": 2969,
      "Ġreconn": 2970,
      "Ġagsi": 2971,
      "Ġboue": 2972,
      "Ġterr": 2973,
      "Ġterrit": 2974,
      "ĠjÃłnj": 2975,
      "ĠjÃłnq": 2976,
      "Ġvisages": 2977,
      "Ġcommence": 2978,
      "Ġcommenc": 2979,
      "Ġdellusi": 2980,
      "ailles": 2981,
      "ĠyÃ³bb": 2982,
      "Ġservir": 2983,
      "ĠdÃ©sert": 2984,
      "Ã³olu": 2985,
      "ĠnjÃ«kkee": 2986,
      "Ġubb": 2987,
      "Ġadminist": 2988,
      "ĠbrÃ»l": 2989,
      "Ġcheveux": 2990,
      "Ġafricaine": 2991,
      "Ġobjets": 2992,
      "ĠÃ©poque": 2993,
      "Ġcolonial": 2994,
      "Ġcoloniale": 2995,
      "odeur": 2996,
      "Ġnaqadi": 2997,
      "ĠÃ©tranger": 2998,
      "Ġpoint": 2999,
      "Ġwoowe": 3000,
      "ĠAbaak": 3001,
      "Ġnewoon": 3002,
      "ĠdÃ«nnu": 3003,
      "Ġmaanaa": 3004,
      "Ġndeysaan": 3005,
      "Ġsago": 3006,
      "Ġhabitants": 3007,
      "ĠbÃ¢t": 3008,
      "Ġpoussi": 3009,
      "Ġxib": 3010,
      "Ġrelig": 3011,
      "Ġhumaine": 3012,
      "ĠnÃ«bb": 3013,
      "ĠÃ±eme": 3014,
      "Ġrejoin": 3015,
      "ĠNataal": 3016,
      "ĠprÃ©cÃ©d": 3017,
      "ĠfranÃ§ais": 3018,
      "Ġmaladie": 3019,
      "ĠthÃ©": 3020,
      "Ġkawas": 3021,
      "Ġguerri": 3022,
      "Ġressentir": 3023,
      "Ġsoosu": 3024,
      "Alors": 3025,
      "Ġlarge": 3026,
      "Ġmourir": 3027,
      "Ġmilliers": 3028,
      "Ġnaissance": 3029,
      "Ġsimple": 3030,
      "Ġdifficile": 3031,
      "ĠdÃ«gÃ«r": 3032,
      "ĠmÃłrse": 3033,
      "Ġjumtukaay": 3034,
      "Ġvagu": 3035,
      "ĠAfricains": 3036,
      "Ġopeere": 3037,
      "ĠAyijoo": 3038,
      "Ġnjabootam": 3039,
      "dolli": 3040,
      "jÃ©kki": 3041,
      "Ġ000": 3042,
      "ĠlÃ©eb": 3043,
      "Ġfallait": 3044,
      "etown": 3045,
      "ĠWiktor": 3046,
      "Ar": 3047,
      "Ch": 3048,
      "Comment": 3049,
      "Non": 3050,
      "Son": 3051,
      "aque": 3052,
      "bill": 3053,
      "cax": 3054,
      "cule": 3055,
      "dÃ©": 3056,
      "ef": 3057,
      "epp": 3058,
      "euses": 3059,
      "fal": 3060,
      "gin": 3061,
      "gÃ©e": 3062,
      "gÃ©s": 3063,
      "gÃ©ej": 3064,
      "graph": 3065,
      "getown": 3066,
      "ham": 3067,
      "heu": 3068,
      "hab": 3069,
      "ia": 3070,
      "ire": 3071,
      "iis": 3072,
      "iit": 3073,
      "ias": 3074,
      "je": 3075,
      "la": 3076,
      "llu": 3077,
      "loy": 3078,
      "look": 3079,
      "men": 3080,
      "met": 3081,
      "nn": 3082,
      "nait": 3083,
      "nmaa": 3084,
      "oile": 3085,
      "port": 3086,
      "pli": 3087,
      "rÃ©es": 3088,
      "tul": 3089,
      "ud": 3090,
      "ute": 3091,
      "vin": 3092,
      "vÃ©s": 3093,
      "vement": 3094,
      "Ġus": 3095,
      "Ġaar": 3096,
      "Ġond": 3097,
      "Ġaad": 3098,
      "Ġdanu": 3099,
      "Ġdonc": 3100,
      "Ġdroit": 3101,
      "Ġdagg": 3102,
      "ĠlÃ©": 3103,
      "ĠlÃ«": 3104,
      "Ġlun": 3105,
      "Ġlor": 3106,
      "Ġlaine": 3107,
      "Ġlamp": 3108,
      "Ġmin": 3109,
      "Ã©ch": 3110,
      "Ġnes": 3111,
      "Ġnar": 3112,
      "Ġnour": 3113,
      "Ġsar": 3114,
      "Ġsait": 3115,
      "ĠsÃłpp": 3116,
      "ĠsÃłnn": 3117,
      "ĠsÃłcc": 3118,
      "Ġsabar": 3119,
      "enue": 3120,
      "onie": 3121,
      "onge": 3122,
      "Ġceek": 3123,
      "Ġcra": 3124,
      "Ġcameroun": 3125,
      "Ġcaaxaan": 3126,
      "Ġbo": 3127,
      "ĠbÃ©": 3128,
      "Ġbal": 3129,
      "Ġbax": 3130,
      "ĠbÃłn": 3131,
      "Ġbleu": 3132,
      "Ġpen": 3133,
      "Ġpin": 3134,
      "Ġpans": 3135,
      "Ġpeux": 3136,
      "Ġpare": 3137,
      "Ġpoit": 3138,
      "anis": 3139,
      "âĢĿ": 3140,
      "Ġtan": 3141,
      "Ġtus": 3142,
      "Ġtaab": 3143,
      "Ġtomb": 3144,
      "Ġtaatu": 3145,
      "Ãłjj": 3146,
      "ouill": 3147,
      "Ġyaat": 3148,
      "ĠyÃłpp": 3149,
      "ĠyÃ©eme": 3150,
      "Ġfet": 3151,
      "Ġfol": 3152,
      "ĠfÃ©pp": 3153,
      "Ġfort": 3154,
      "Ġfati": 3155,
      "Ġfeneen": 3156,
      "Ġferm": 3157,
      "ĠfÃ©et": 3158,
      "ĠfÃ»t": 3159,
      "Ġfallu": 3160,
      "Ġjag": 3161,
      "ĠjÃłnk": 3162,
      "Ġjote": 3163,
      "aram": 3164,
      "arriv": 3165,
      "Ġger": 3166,
      "ĠgÃłn": 3167,
      "Ġgox": 3168,
      "ĠgÃłnn": 3169,
      "etÃ©s": 3170,
      "Ġkas": 3171,
      "ĠkÃ³": 3172,
      "Ġkak": 3173,
      "ĠkÃłll": 3174,
      "Ġwaax": 3175,
      "ĠwÃ©et": 3176,
      "tekk": 3177,
      "teurs": 3178,
      "inf": 3179,
      "inam": 3180,
      "inÃ©e": 3181,
      "indi": 3182,
      "inter": 3183,
      "iste": 3184,
      "entends": 3185,
      "Ġciv": 3186,
      "urÃ©s": 3187,
      "oro": 3188,
      "orit": 3189,
      "orst": 3190,
      "ormis": 3191,
      "Ġrab": 3192,
      "ĠrÃłkk": 3193,
      "Ġritu": 3194,
      "Ġrass": 3195,
      "Ġrares": 3196,
      "eey": 3197,
      "ĠÃłtte": 3198,
      "ĠÃłngale": 3199,
      "leen": 3200,
      "ĠÃ±aaw": 3201,
      "Ġxur": 3202,
      "Ġxeex": 3203,
      "Ġxii": 3204,
      "ĠxÃ«rÃ«m": 3205,
      "Ġveux": 3206,
      "Ġvari": 3207,
      "Ġvenu": 3208,
      "atoo": 3209,
      "axe": 3210,
      "axam": 3211,
      "Ġniir": 3212,
      "Ġnijaay": 3213,
      "ric": 3214,
      "ulli": 3215,
      "Ġdiy": 3216,
      "Ġdikk": 3217,
      "Ġenn": 3218,
      "ĠBab": 3219,
      "ĠBret": 3220,
      "Ġbiaf": 3221,
      "ĠAr": 3222,
      "ĠAde": 3223,
      "ĠAiya": 3224,
      "Ġteq": 3225,
      "Ġyii": 3226,
      "Ã©th": 3227,
      "ĠngÃ«l": 3228,
      "Ã³o": 3229,
      "Ã³ox": 3230,
      "Ã³ob": 3231,
      "Ġnay": 3232,
      "ĠMais": 3233,
      "ĠMoom": 3234,
      "ĠMooy": 3235,
      "Ġparle": 3236,
      "Ġparcour": 3237,
      "Ġreer": 3238,
      "chÃ©es": 3239,
      "lure": 3240,
      "ĠNit": 3241,
      "Ġbuum": 3242,
      "Ġchant": 3243,
      "Ġchamb": 3244,
      "ĠLes": 3245,
      "ĠLeer": 3246,
      "ĠsuÃ±": 3247,
      "Ġsupp": 3248,
      "Ġlire": 3249,
      "Ġlivre": 3250,
      "tiqu": 3251,
      "tive": 3252,
      "Ġcaf": 3253,
      "Ġcaus": 3254,
      "ĠdÃ©ch": 3255,
      "ĠdÃ©but": 3256,
      "ĠdÃ©kku": 3257,
      "ĠDama": 3258,
      "ĠSout": 3259,
      "ĠSorst": 3260,
      "aaru": 3261,
      "Ġguyy": 3262,
      "imitÃ©": 3263,
      "otoom": 3264,
      "outer": 3265,
      "Ġami": 3266,
      "Ġmbedd": 3267,
      "ĠmbÃ©gte": 3268,
      "Ġtrente": 3269,
      "Ġtronc": 3270,
      "ĠAfrigu": 3271,
      "ands": 3272,
      "andoo": 3273,
      "ouvr": 3274,
      "ĠKenn": 3275,
      "Ġjekk": 3276,
      "Ġsurga": 3277,
      "ĠÃīt": 3278,
      "Ġofficer": 3279,
      "Ġplan": 3280,
      "Ġplain": 3281,
      "ĠdaÅĭ": 3282,
      "Ġdakkal": 3283,
      "Ġprati": 3284,
      "ĠCross": 3285,
      "ĠFord": 3286,
      "Ġsiy": 3287,
      "ave": 3288,
      "avant": 3289,
      "ĠndÃ³ol": 3290,
      "Ġmelax": 3291,
      "ĠÃ©gal": 3292,
      "ĠdÃ«kkoon": 3293,
      "sez": 3294,
      "sique": 3295,
      "Ġnaaxi": 3296,
      "Ġwaxe": 3297,
      "Ġwaxi": 3298,
      "Ġwaxt": 3299,
      "Ġnjaay": 3300,
      "Ġnjort": 3301,
      "ĠnjÃłq": 3302,
      "ooke": 3303,
      "ĠJur": 3304,
      "Ġbrous": 3305,
      "Ġjamonoy": 3306,
      "iver": 3307,
      "Ġfut": 3308,
      "ĠâĢľ": 3309,
      "ĠÅĪaar": 3310,
      "Ġkukk": 3311,
      "Ġarra": 3312,
      "Ġwaral": 3313,
      "Ġwarul": 3314,
      "ession": 3315,
      "Ġmasumaa": 3316,
      "oph": 3317,
      "Ġboole": 3318,
      "Ġdevient": 3319,
      "ĠlÃłq": 3320,
      "Ġexc": 3321,
      "ĠPar": 3322,
      "ĠPour": 3323,
      "Ġgrandes": 3324,
      "ĠmaniÃ¨re": 3325,
      "Ġjii": 3326,
      "europ": 3327,
      "Ġcollines": 3328,
      "Ġtegoon": 3329,
      "Ġentendu": 3330,
      "oorte": 3331,
      "wuÃ±u": 3332,
      "Ġlonet": 3333,
      "ondes": 3334,
      "Ġdoxantu": 3335,
      "Ġdexi": 3336,
      "Ġjuste": 3337,
      "Ġgoney": 3338,
      "Ġriir": 3339,
      "Ġcontact": 3340,
      "Ġcontinent": 3341,
      "ades": 3342,
      "Ġserait": 3343,
      "nifi": 3344,
      "ettait": 3345,
      "Ġkowam": 3346,
      "afra": 3347,
      "Ġappar": 3348,
      "ĠtÃ«dd": 3349,
      "indÃ©pendance": 3350,
      "Ġmalade": 3351,
      "Ã©pare": 3352,
      "Ã©poque": 3353,
      "Ġalors": 3354,
      "Ġcases": 3355,
      "Ġpouvaient": 3356,
      "ngl": 3357,
      "Ġporter": 3358,
      "pton": 3359,
      "Ġneexul": 3360,
      "Ġressenti": 3361,
      "ĠÃ©crit": 3362,
      "Ġloint": 3363,
      "ĠbÃ«ggoon": 3364,
      "ĠliggÃ©eyu": 3365,
      "Ġdispar": 3366,
      "Ġsuufu": 3367,
      "Ġtiis": 3368,
      "Ġbaree": 3369,
      "Ġcourant": 3370,
      "ĠderriÃ¨re": 3371,
      "ĠtÃłnki": 3372,
      "Ġpremier": 3373,
      "Ġsavoir": 3374,
      "Ġcompte": 3375,
      "Ġbouche": 3376,
      "Ġdelsi": 3377,
      "Ġterri": 3378,
      "Ġfamili": 3379,
      "Ġvisite": 3380,
      "Ġcommun": 3381,
      "Ġinstant": 3382,
      "ĠrÃ©sid": 3383,
      "itiÃ¨res": 3384,
      "Ġservice": 3385,
      "Åĵurs": 3386,
      "Ġsentiers": 3387,
      "Ġplupart": 3388,
      "ĠrÃªvÃ©": 3389,
      "Pourtant": 3390,
      "enfant": 3391,
      "ĠgÃłttal": 3392,
      "Ġseuls": 3393,
      "Ġrevenir": 3394,
      "Ġchemise": 3395,
      "ĠbrÃ»lure": 3396,
      "ĠarrivÃ©e": 3397,
      "Ġimpression": 3398,
      "Ġsouffle": 3399,
      "Ġmaint": 3400,
      "ĠtermitiÃ¨res": 3401,
      "ĠBiafra": 3402,
      "Ġparticul": 3403,
      "Ġwutkati": 3404,
      "Ġdinaa": 3405,
      "Ġdinga": 3406,
      "Ġmoindre": 3407,
      "Ġphotograph": 3408,
      "Ġtangori": 3409,
      "Ġjouer": 3410,
      "ĠÃ©trang": 3411,
      "Ġcompris": 3412,
      "Ġchaussures": 3413,
      "Ġsimis": 3414,
      "Ġsoppiku": 3415,
      "Ġcampement": 3416,
      "Ġbuntu": 3417,
      "ĠgardÃ©": 3418,
      "Ġdiiwaanu": 3419,
      "ĠdÃ«nn": 3420,
      "Ġlaisser": 3421,
      "ĠlÃ©gÃ¨re": 3422,
      "Ġcofeel": 3423,
      "Ġcertaine": 3424,
      "ĠweÃ±": 3425,
      "Ġxeetu": 3426,
      "Ġvolets": 3427,
      "Ġconnaissent": 3428,
      "Ġscorpions": 3429,
      "ĠmÃ©tier": 3430,
      "Ġkaraw": 3431,
      "Ġteree": 3432,
      "Ġnguurug": 3433,
      "Ġganes": 3434,
      "Ġretraite": 3435,
      "cepter": 3436,
      "ĠÃ©chapp": 3437,
      "ĠlÃłquji": 3438,
      "kunle": 3439,
      "Ġselon": 3440,
      "Ġgornmaa": 3441,
      "ĠrÃ©gion": 3442,
      "Ġdevenus": 3443,
      "ĠjÃ«fandikoo": 3444,
      "Ġassis": 3445,
      "Ġisol": 3446,
      "Ġutilis": 3447,
      "Ġmilitaires": 3448,
      "Ġcosaan": 3449,
      "alcool": 3450,
      "ĠkÃłttan": 3451,
      "ĠrÃ¨gle": 3452,
      "Ġdestination": 3453,
      "ĠarrÃªtÃ©": 3454,
      "Ġderniers": 3455,
      "Ġmoustiqu": 3456,
      "ĠmÃ©ng": 3457,
      "Ġcuisine": 3458,
      "Ġtontu": 3459,
      "Ġyenukat": 3460,
      "Ġrafet": 3461,
      "ĠYorub": 3462,
      "ĠfrontiÃ¨re": 3463,
      "Ġalkol": 3464,
      "Ġloppitaanu": 3465,
      "Ġdoivent": 3466,
      "ĠmÃłndiÅĭ": 3467,
      "Ġbiral": 3468,
      "Ġpersonne": 3469,
      "Ġponkal": 3470,
      "ĠyÃ©ene": 3471,
      "Ġgolf": 3472,
      "Ġkalaate": 3473,
      "Ġkilifa": 3474,
      "Ġwerante": 3475,
      "Ġvaste": 3476,
      "Ġhamacs": 3477,
      "ĠKoros": 3478,
      "ĠGeorgetown": 3479,
      "Ġterritoire": 3480,
      "ĠAbaakaliki": 3481,
      "ĠpoussiÃ¨re": 3482,
      "Ġxibaar": 3483,
      "Ġrejoindre": 3484,
      "ĠWiktoryaa": 3485,
      "hampton": 3486,
      "Ġondul": 3487,
      "Ġpoitr": 3488,
      "Ġtaabal": 3489,
      "Ġfetal": 3490,
      "ĠfÃ©ete": 3491,
      "ĠgÃłncax": 3492,
      "ĠkÃłllaama": 3493,
      "tekkaaral": 3494,
      "Ġbiafr": 3495,
      "ĠAdekunle": 3496,
      "ĠngÃ«lÃ©n": 3497,
      "ĠSouthampton": 3498,
      "ĠSorstaawun": 3499,
      "ĠnjÃłqare": 3500,
      "28": 3501,
      "Ab": 3502,
      "BC": 3503,
      "Europ": 3504,
      "OÃ¹": 3505,
      "Pendant": 3506,
      "aÅĭ": 3507,
      "aÃ®tre": 3508,
      "bon": 3509,
      "bos": 3510,
      "cun": 3511,
      "cles": 3512,
      "cture": 3513,
      "fin": 3514,
      "fee": 3515,
      "fÃ©r": 3516,
      "fise": 3517,
      "gÃ©": 3518,
      "gation": 3519,
      "gatu": 3520,
      "hous": 3521,
      "hors": 3522,
      "hid": 3523,
      "jo": 3524,
      "jekk": 3525,
      "jafe": 3526,
      "kl": 3527,
      "kook": 3528,
      "kow": 3529,
      "kete": 3530,
      "lit": 3531,
      "lange": 3532,
      "mir": 3533,
      "mbu": 3534,
      "naam": 3535,
      "of": 3536,
      "oÃ±": 3537,
      "oÃ»": 3538,
      "occup": 3539,
      "rat": 3540,
      "ras": 3541,
      "ray": 3542,
      "ration": 3543,
      "rÃ©ew": 3544,
      "rass": 3545,
      "ta": 3546,
      "tÃ³": 3547,
      "taal": 3548,
      "uk": 3549,
      "uÃ±": 3550,
      "uku": 3551,
      "vor": 3552,
      "vit": 3553,
      "vait": 3554,
      "vres": 3555,
      "vec": 3556,
      "voir": 3557,
      "xare": 3558,
      "yoÅĭ": 3559,
      "Ġ2": 3560,
      "Ġes": 3561,
      "Ġout": 3562,
      "ĠUn": 3563,
      "Ġeurop": 3564,
      "Ġdr": 3565,
      "Ġdar": 3566,
      "Ġdos": 3567,
      "ĠdÃłtt": 3568,
      "Ġdunu": 3569,
      "ĠdÃłng": 3570,
      "ĠdÃ³om": 3571,
      "Ġdress": 3572,
      "Ġlits": 3573,
      "Ġlente": 3574,
      "Ġmy": 3575,
      "Ġmis": 3576,
      "Ġmang": 3577,
      "ĠmÃłtt": 3578,
      "ĠmÃłng": 3579,
      "ĠmÃ³ob": 3580,
      "Ã©w": 3581,
      "Ã©lu": 3582,
      "Ã©enne": 3583,
      "Ġnax": 3584,
      "Ġnomb": 3585,
      "Ġnangoo": 3586,
      "Ġsp": 3587,
      "Ġset": 3588,
      "Ġsun": 3589,
      "Ġsaal": 3590,
      "ĠsÃłnk": 3591,
      "Ġsomm": 3592,
      "ĠsÃ©par": 3593,
      "Ġsooke": 3594,
      "ĠsÅĵurs": 3595,
      "ende": 3596,
      "enÃ§ait": 3597,
      "aaÅĭ": 3598,
      "Ġainsi": 3599,
      "Ġcri": 3600,
      "Ġcul": 3601,
      "Ġcous": 3602,
      "ĠcÃłkk": 3603,
      "Ġcara": 3604,
      "Ġcli": 3605,
      "Ġcanc": 3606,
      "Ġcerc": 3607,
      "Ġcouvert": 3608,
      "Ġbes": 3609,
      "Ġbour": 3610,
      "Ġbomb": 3611,
      "Ġbande": 3612,
      "Ġbantu": 3613,
      "Ġbatt": 3614,
      "Ġpil": 3615,
      "Ġpois": 3616,
      "Ġpriv": 3617,
      "Ġpap": 3618,
      "any": 3619,
      "anitÃ©": 3620,
      "Ġtor": 3621,
      "Ġtir": 3622,
      "Ġtri": 3623,
      "ĠtÃ©s": 3624,
      "ĠtÃ«r": 3625,
      "ĠtÃłll": 3626,
      "ĠtÃłmm": 3627,
      "Ġtaamu": 3628,
      "ĠtÃªte": 3629,
      "Ġtandis": 3630,
      "Ãłllu": 3631,
      "oure": 3632,
      "ouest": 3633,
      "aim": 3634,
      "Ġyay": 3635,
      "Ġyomb": 3636,
      "ĠyÃłq": 3637,
      "Ġfon": 3638,
      "Ġfil": 3639,
      "Ġfaax": 3640,
      "ern": 3641,
      "erres": 3642,
      "erie": 3643,
      "ĠjÃł": 3644,
      "Ġjee": 3645,
      "ĠjÃ«r": 3646,
      "Ġjeux": 3647,
      "Ġjooy": 3648,
      "Ġjaaw": 3649,
      "Ġjiy": 3650,
      "Ġjaax": 3651,
      "ĠjÃłmb": 3652,
      "quaient": 3653,
      "alon": 3654,
      "alam": 3655,
      "alul": 3656,
      "alab": 3657,
      "alabar": 3658,
      "arti": 3659,
      "arcour": 3660,
      "Ã«j": 3661,
      "Ã«ri": 3662,
      "ami": 3663,
      "amaa": 3664,
      "amyoÅĭ": 3665,
      "Ġgoy": 3666,
      "Ġgeek": 3667,
      "Ġlax": 3668,
      "etar": 3669,
      "Ã±se": 3670,
      "Ġkur": 3671,
      "Ġkii": 3672,
      "Ġkepp": 3673,
      "ĠkamyoÅĭ": 3674,
      "Ġwal": 3675,
      "Ġwaay": 3676,
      "ĠwÃ©r": 3677,
      "Ġwiy": 3678,
      "ĠwÃ³olu": 3679,
      "teu": 3680,
      "tey": 3681,
      "inci": 3682,
      "istes": 3683,
      "isation": 3684,
      "isoÅĭ": 3685,
      "entu": 3686,
      "Ġquin": 3687,
      "Ġquoi": 3688,
      "Ġqueue": 3689,
      "orage": 3690,
      "orreur": 3691,
      "ilitÃ©": 3692,
      "itions": 3693,
      "Ġram": 3694,
      "Ġras": 3695,
      "Ġroy": 3696,
      "Ġruis": 3697,
      "ĠrÃłpp": 3698,
      "Ġromp": 3699,
      "Ġrong": 3700,
      "ĠrÃłÃ±Ã±": 3701,
      "Ġraxas": 3702,
      "ĠÃłtt": 3703,
      "Ã¨me": 3704,
      "Ã¨ge": 3705,
      "Ã¨che": 3706,
      "Ã¨vre": 3707,
      "els": 3708,
      "ĠÃ±aw": 3709,
      "ĠÃ±etti": 3710,
      "Ġxat": 3711,
      "Ġxul": 3712,
      "Ġxot": 3713,
      "Ġxetu": 3714,
      "Ġlesquelles": 3715,
      "Ã©ef": 3716,
      "ĠvÃ©r": 3717,
      "ĠvÃªt": 3718,
      "ppi": 3719,
      "ppu": 3720,
      "aani": 3721,
      "atur": 3722,
      "atori": 3723,
      "Ġmus": 3724,
      "Ġdesc": 3725,
      "ast": 3726,
      "uls": 3727,
      "ulpt": 3728,
      "Ġdib": 3729,
      "Ġdix": 3730,
      "Ġdiir": 3731,
      "Ġdiine": 3732,
      "Ġdijj": 3733,
      "Ġsem": 3734,
      "aaya": 3735,
      "ĠbaÅĪ": 3736,
      "ĠBoo": 3737,
      "ĠBat": 3738,
      "ĠBaw": 3739,
      "ĠBum": 3740,
      "ĠBÃ«r": 3741,
      "ĠBBC": 3742,
      "ĠBany": 3743,
      "ĠBÃ«j": 3744,
      "Ġdure": 3745,
      "Ġdugal": 3746,
      "usam": 3747,
      "ĠAro": 3748,
      "ĠAllem": 3749,
      "ĠAngl": 3750,
      "ĠauprÃ¨s": 3751,
      "Ã³oy": 3752,
      "Ġnaw": 3753,
      "ĠnaÃ®tre": 3754,
      "ĠnaÅĪu": 3755,
      "olesc": 3756,
      "ĠMag": 3757,
      "ĠMay": 3758,
      "deau": 3759,
      "deux": 3760,
      "dekete": 3761,
      "Ġparf": 3762,
      "Ġparents": 3763,
      "Ġreli": 3764,
      "Ġremp": 3765,
      "cep": 3766,
      "autÃ©": 3767,
      "aumes": 3768,
      "ĠluÃ±": 3769,
      "chent": 3770,
      "emi": 3771,
      "ĠNun": 3772,
      "ĠNkom": 3773,
      "amawa": 3774,
      "aband": 3775,
      "Ġdaaneel": 3776,
      "ennent": 3777,
      "ĠLond": 3778,
      "ĠLool": 3779,
      "dio": 3780,
      "Ġsueur": 3781,
      "tip": 3782,
      "tiÃ¨re": 3783,
      "tifi": 3784,
      "Ġcacher": 3785,
      "ĠdÃ©m": 3786,
      "ĠdÃ©bar": 3787,
      "ĠDoon": 3788,
      "ĠDÃ«kk": 3789,
      "ĠDaaw": 3790,
      "Ġheu": 3791,
      "Ġhut": 3792,
      "ĠSaaw": 3793,
      "ĠSef": 3794,
      "umb": 3795,
      "otion": 3796,
      "Ġpourra": 3797,
      "Ġpourrait": 3798,
      "Ġmbemb": 3799,
      "ĠtrÃ©s": 3800,
      "Ġtrois": 3801,
      "Ġtrad": 3802,
      "Ġtrap": 3803,
      "oximitÃ©": 3804,
      "andÃ©": 3805,
      "ecd": 3806,
      "oient": 3807,
      "Ġnuits": 3808,
      "ĠKak": 3809,
      "ĠKalab": 3810,
      "Ġsurveill": 3811,
      "ainte": 3812,
      "Ġoccup": 3813,
      "Ġoccident": 3814,
      "Ġplace": 3815,
      "ieuse": 3816,
      "Ġpren": 3817,
      "Ġprise": 3818,
      "ĠprÃ©pare": 3819,
      "Ġprinci": 3820,
      "ĠproximitÃ©": 3821,
      "ĠCol": 3822,
      "ĠCalabar": 3823,
      "ĠFu": 3824,
      "Ġsonn": 3825,
      "ÅĪax": 3826,
      "oyer": 3827,
      "Ġsib": 3828,
      "Ġsid": 3829,
      "Ġsibb": 3830,
      "Ġndab": 3831,
      "Ġsaxaaru": 3832,
      "illÃ©s": 3833,
      "oisse": 3834,
      "ĠÃ©pr": 3835,
      "antee": 3836,
      "Ġyare": 3837,
      "onni": 3838,
      "Ġgros": 3839,
      "Ġgrandi": 3840,
      "Ġxame": 3841,
      "Ġxamu": 3842,
      "Ġxamoon": 3843,
      "ĠmÃ«nees": 3844,
      "ĠmÃ«natul": 3845,
      "exp": 3846,
      "Ã©esu": 3847,
      "Ġnaaw": 3848,
      "ettee": 3849,
      "cipl": 3850,
      "Ġanecd": 3851,
      "angoisse": 3852,
      "Ġdefe": 3853,
      "oires": 3854,
      "ĠbÃ«ti": 3855,
      "arades": 3856,
      "bukun": 3857,
      "Ġplusieurs": 3858,
      "prÃ¨te": 3859,
      "ĠJoor": 3860,
      "Ġbrill": 3861,
      "Ġbruit": 3862,
      "Ġbranches": 3863,
      "Ġfuir": 3864,
      "Ġfureur": 3865,
      "Ġmeetar": 3866,
      "Ġsoit": 3867,
      "ĠÅĪi": 3868,
      "ĠÅĪÃłkk": 3869,
      "Ġnekkee": 3870,
      "ĠâĢĵ,": 3871,
      "ctri": 3872,
      "ctions": 3873,
      "raordinaire": 3874,
      "Ġdootul": 3875,
      "ĠgÃ«nee": 3876,
      "ĠmÃ©lange": 3877,
      "uisait": 3878,
      "ĠjÃ«mm": 3879,
      "ĠkÃ«ru": 3880,
      "kuur": 3881,
      "ndÃłnk": 3882,
      "ndeel": 3883,
      "ĠXel": 3884,
      "ĠXaw": 3885,
      "ĠXale": 3886,
      "ĠXÃ©y": 3887,
      "Ġradio": 3888,
      "Ġexil": 3889,
      "Ġextr": 3890,
      "ĠPol": 3891,
      "ĠPoor": 3892,
      "Ã©cl": 3893,
      "Ã©couter": 3894,
      "ĠYaram": 3895,
      "ĠYÃ©esu": 3896,
      "Ġdunde": 3897,
      "Ġcrises": 3898,
      "Ġmani": 3899,
      "ĠfiÃ¨vre": 3900,
      "Ġfippu": 3901,
      "Ġjiitu": 3902,
      "Ġgarde": 3903,
      "ĠSud": 3904,
      "Ġvide": 3905,
      "Ġforte": 3906,
      "ĠcolÃ¨re": 3907,
      "ĠrÃ©ewu": 3908,
      "Ġentour": 3909,
      "Ġentendre": 3910,
      "Ġlonk": 3911,
      "Ġlongues": 3912,
      "Ã¢cher": 3913,
      "Ġtoolu": 3914,
      "Ġimag": 3915,
      "Ġgoneg": 3916,
      "Ġrire": 3917,
      "Afric": 3918,
      "jjÃ©n": 3919,
      "ĠEt": 3920,
      "Ġcontinu": 3921,
      "ancs": 3922,
      "Ġfekki": 3923,
      "Ġmonter": 3924,
      "Ġassi": 3925,
      "Ġassez": 3926,
      "Ġcartes": 3927,
      "emble": 3928,
      "Ġtravaill": 3929,
      "icale": 3930,
      "iÃ¨rement": 3931,
      "Ġseetu": 3932,
      "indax": 3933,
      "Ġalent": 3934,
      "Ġallu": 3935,
      "Ġtamb": 3936,
      "Ġautres": 3937,
      "Ġmesure": 3938,
      "Ġportait": 3939,
      "Ġportant": 3940,
      "Ġportale": 3941,
      "ĠfeeÃ±u": 3942,
      "Ġxarit": 3943,
      "Ġ191": 3944,
      "Ġ1928": 3945,
      "innaaw": 3946,
      "wwi": 3947,
      "Ġsoupe": 3948,
      "ĠdÃ©ggoo": 3949,
      "Ġpossible": 3950,
      "ĠjÃłppoon": 3951,
      "ĠAmul": 3952,
      "ĠAmerig": 3953,
      "ĠdÃ©crit": 3954,
      "ĠdÃ©couvert": 3955,
      "Ġpetites": 3956,
      "Ġdundam": 3957,
      "tru": 3958,
      "ĠIj": 3959,
      "Ġdiscipl": 3960,
      "ĠmÃłgge": 3961,
      "ences": 3962,
      "rets": 3963,
      "ĠAlg": 3964,
      "Ġprovin": 3965,
      "ĠmÃ©decine": 3966,
      "ĠperÃ§": 3967,
      "Ġperdre": 3968,
      "Ġchez": 3969,
      "Ġinspir": 3970,
      "ĠHarcour": 3971,
      "ĠyÃ«ngatu": 3972,
      "Ġdajeek": 3973,
      "Ġsoof": 3974,
      "ĠMbaa": 3975,
      "ĠMbam": 3976,
      "ĠMbir": 3977,
      "ĠMbemb": 3978,
      "ĠNiseer": 3979,
      "gnons": 3980,
      "ritish": 3981,
      "Ġconsul": 3982,
      "ĠjÃ©eri": 3983,
      "Ġtaq": 3984,
      "Ġrecomm": 3985,
      "Ġcompagn": 3986,
      "ĠrÃ«cc": 3987,
      "Ġinstall": 3988,
      "Ġinstants": 3989,
      "Ġsculpt": 3990,
      "Ġallait": 3991,
      "ĠrÃ©ser": 3992,
      "Ġvacc": 3993,
      "Ġcouper": 3994,
      "juram": 3995,
      "Ġyemale": 3996,
      "iriis": 3997,
      "Ġpluie": 3998,
      "Ġjeexal": 3999,
      "ĠÃ±Ãłkkul": 4000,
      "Ġmujje": 4001,
      "ĠsÃ©chÃ©e": 4002,
      "enfants": 4003,
      "tements": 4004,
      "Ġsecondes": 4005,
      "ĠAka": 4006,
      "Ġemport": 4007,
      "ommÃ©": 4008,
      "ĠjurÃ³omi": 4009,
      "Ġdange": 4010,
      "ĠdÃ«pp": 4011,
      "Ġdonne": 4012,
      "Ġdonner": 4013,
      "Ġdonnait": 4014,
      "Ġnouvelles": 4015,
      "Ġtourbill": 4016,
      "Ġyeg": 4017,
      "ĠpensÃ©": 4018,
      "Ġpension": 4019,
      "Ġflam": 4020,
      "Ġventre": 4021,
      "ĠrÃ©pond": 4022,
      "Ġraconte": 4023,
      "Ġaigu": 4024,
      "Ġawsa": 4025,
      "ĠyÃ«f": 4026,
      "ercer": 4027,
      "Ġgaawtu": 4028,
      "Ġnaqar": 4029,
      "Ġcomprendre": 4030,
      "Ġmiirloo": 4031,
      "Ãłrt": 4032,
      "Ġyeneeni": 4033,
      "argent": 4034,
      "Ġvenus": 4035,
      "Ġdiggu": 4036,
      "Ġnewee": 4037,
      "Ġtransf": 4038,
      "Ġtransport": 4039,
      "Ġsauvage": 4040,
      "Ġmaanaam": 4041,
      "Ġsagoom": 4042,
      "Ġcertain": 4043,
      "Ġbaayam": 4044,
      "Ġtabax": 4045,
      "ĠjÃ«kkee": 4046,
      "Ġweg": 4047,
      "Ġrefus": 4048,
      "ĠbÃ¢ton": 4049,
      "Ġpouss": 4050,
      "Ġfoudre": 4051,
      "Ã«taaÃ±": 4052,
      "Ġendur": 4053,
      "Ġendroit": 4054,
      "ionnelle": 4055,
      "Ġcharme": 4056,
      "Ġchaud": 4057,
      "Ġanglais": 4058,
      "ĠracontÃ©": 4059,
      "Ġraconter": 4060,
      "Ġfrappions": 4061,
      "Ġbattre": 4062,
      "ĠpisÃ©": 4063,
      "ĠtÃ©ereb": 4064,
      "Ġvoiture": 4065,
      "Ġenvah": 4066,
      "Ġngelawu": 4067,
      "ĠfranÃ§aise": 4068,
      "Ġmaladies": 4069,
      "Ġkilomet": 4070,
      "ĠkilomÃ¨tres": 4071,
      "gÃłnnaaru": 4072,
      "humanitÃ©": 4073,
      "Ġpeine": 4074,
      "Ġtawat": 4075,
      "ĠyÃ©emu": 4076,
      "ĠfenÃªtre": 4077,
      "Ġfauve": 4078,
      "Ġfauteu": 4079,
      "Ġkanamu": 4080,
      "Ġjaxasoo": 4081,
      "ĠMoka": 4082,
      "ĠMokaa": 4083,
      "ĠprÃ©fÃ©r": 4084,
      "ĠprÃ©sent": 4085,
      "Ġcontraire": 4086,
      "ĠÃ©clat": 4087,
      "ĠÃ©coutant": 4088,
      "Ġvraiment": 4089,
      "Ġdanga": 4090,
      "ĠmÃłndarg": 4091,
      "ĠsantÃ©": 4092,
      "ĠpÃ©nÃ©t": 4093,
      "arrÃªt": 4094,
      "Ġkilifay": 4095,
      "ĠreprÃ©s": 4096,
      "ĠchangÃ©": 4097,
      "ĠDemer": 4098,
      "ĠChuku": 4099,
      "ĠFÃłww": 4100,
      "ĠapportÃ©": 4101,
      "ĠaccompagnÃ©": 4102,
      "weeri": 4103,
      "Ġdomest": 4104,
      "Ġlourde": 4105,
      "Ġmoder": 4106,
      "Ġnoyyi": 4107,
      "Ġallemande": 4108,
      "Ġbariy": 4109,
      "ĠpÃ©trole": 4110,
      "Ġtremp": 4111,
      "ĠtantÃ´t": 4112,
      "Ġtubay": 4113,
      "Ġfirndeel": 4114,
      "ĠgÃłddaay": 4115,
      "Ġworoo": 4116,
      "Ġprobablement": 4117,
      "ĠÃ©quatori": 4118,
      "ĠGuddi": 4119,
      "Ġoublier": 4120,
      "Ġextraordinaire": 4121,
      "Ġexemple": 4122,
      "ĠEurope": 4123,
      "ĠjÃ³gee": 4124,
      "Ġ1948": 4125,
      "Ġ1968": 4126,
      "ĠcommencÃ©": 4127,
      "ĠbÃ¢tons": 4128,
      "ĠprÃ©cÃ©dÃ©": 4129,
      "Ġguerriers": 4130,
      "Ġvagues": 4131,
      "gÃ©eju": 4132,
      "iasme": 4133,
      "ĠlÃ«mm": 4134,
      "Ġlorgnons": 4135,
      "Ġcamerounais": 4136,
      "ĠbÃ©jjÃ©n": 4137,
      "Ġpinces": 4138,
      "ĠyÃłppu": 4139,
      "Ġjotewul": 4140,
      "ĠgÃłnnaay": 4141,
      "Ġkaki": 4142,
      "ĠÃłttekat": 4143,
      "ĠBretagne": 4144,
      "Ġchambre": 4145,
      "ĠÃītats": 4146,
      "ĠdaÅĭar": 4147,
      "ĠÃ©galement": 4148,
      "ĠPourquoi": 4149,
      "oorteelu": 4150,
      "Ġmaintenant": 4151,
      "ĠyÃ©enekaay": 4152,
      "housiasme": 4153,
      "hidjo": 4154,
      "ĠdÃłngin": 4155,
      "ĠdÃ³omu": 4156,
      "ĠsÃłnke": 4157,
      "ĠjÃ«rr": 4158,
      "Ġroyaumes": 4159,
      "Ġruisse": 4160,
      "ĠvÃªtus": 4161,
      "ĠBÃ«rÃ«taaÃ±": 4162,
      "ĠAnglais": 4163,
      "abandon": 4164,
      "Ġhutte": 4165,
      "ĠSaawusam": 4166,
      "ĠSefiriis": 4167,
      "ĠtrapÃ¨": 4168,
      "ĠKalabaar": 4169,
      "Ġprincip": 4170,
      "Ġsibbiru": 4171,
      "ĠÃ©prouv": 4172,
      "Ġdiscipline": 4173,
      "Ġprovince": 4174,
      "ĠHarcourt": 4175,
      "Ad": 4176,
      "AprÃ¨s": 4177,
      "Aro": 4178,
      "Aiya": 4179,
      "Avec": 4180,
      "Cert": 4181,
      "DÃ©": 4182,
      "Des": 4183,
      "Im": 4184,
      "In": 4185,
      "LÃł": 4186,
      "Mal": 4187,
      "YÃłlla": 4188,
      "aous": 4189,
      "aÃ®": 4190,
      "atee": 4191,
      "ban": 4192,
      "bou": 4193,
      "bul": 4194,
      "bÃ©t": 4195,
      "bare": 4196,
      "bÃ©en": 4197,
      "bord": 4198,
      "bati": 4199,
      "bari": 4200,
      "bales": 4201,
      "cl": 4202,
      "cu": 4203,
      "car": 4204,
      "cis": 4205,
      "cur": 4206,
      "cce": 4207,
      "cation": 4208,
      "dit": 4209,
      "dÃ«kk": 4210,
      "dain": 4211,
      "eenti": 4212,
      "ffri": 4213,
      "fic": 4214,
      "gi": 4215,
      "gie": 4216,
      "ganis": 4217,
      "hy": 4218,
      "han": 4219,
      "hort": 4220,
      "horreur": 4221,
      "iÃ©": 4222,
      "iqu": 4223,
      "iin": 4224,
      "ige": 4225,
      "ienne": 4226,
      "jun": 4227,
      "jee": 4228,
      "jaan": 4229,
      "jaar": 4230,
      "jec": 4231,
      "kali": 4232,
      "kub": 4233,
      "kool": 4234,
      "laay": 4235,
      "lÃ©s": 4236,
      "laam": 4237,
      "lac": 4238,
      "lets": 4239,
      "mall": 4240,
      "mmi": 4241,
      "metti": 4242,
      "nal": 4243,
      "ndey": 4244,
      "oti": 4245,
      "off": 4246,
      "occ": 4247,
      "pel": 4248,
      "pus": 4249,
      "pore": 4250,
      "rÃ©t": 4251,
      "rÃ¨te": 4252,
      "son": 4253,
      "sme": 4254,
      "seri": 4255,
      "saÃ±": 4256,
      "to": 4257,
      "tam": 4258,
      "tat": 4259,
      "tri": 4260,
      "tubaab": 4261,
      "taÃ±Ã±": 4262,
      "uv": 4263,
      "upp": 4264,
      "vÃ©e": 4265,
      "vous": 4266,
      "viv": 4267,
      "wi": 4268,
      "waa": 4269,
      "wol": 4270,
      "xam": 4271,
      "xte": 4272,
      "xew": 4273,
      "yu": 4274,
      "yee": 4275,
      "yÃ«g": 4276,
      "ysent": 4277,
      "ysique": 4278,
      "zar": 4279,
      "Ġ6": 4280,
      "Ġem": 4281,
      "Ġelles": 4282,
      "ĠQu": 4283,
      "Ġouvert": 4284,
      "Ġordinaire": 4285,
      "Ġouverte": 4286,
      "Ġdab": 4287,
      "Ġdra": 4288,
      "ĠdÃ©ey": 4289,
      "Ġdenc": 4290,
      "Ġdoc": 4291,
      "Ġdamm": 4292,
      "Ġdysent": 4293,
      "ĠlÃ¨": 4294,
      "Ġlaay": 4295,
      "Ġlenn": 4296,
      "ĠlÃ«kk": 4297,
      "Ġlog": 4298,
      "Ġmand": 4299,
      "Ġmouv": 4300,
      "ĠmÃłkk": 4301,
      "Ġmess": 4302,
      "Ġmorte": 4303,
      "Ġmemb": 4304,
      "ĠmÃ³ol": 4305,
      "Ġmote": 4306,
      "ĠmÃ¨tres": 4307,
      "ĠmÃ«dd": 4308,
      "Ġmettee": 4309,
      "Ã©kk": 4310,
      "Ã©eri": 4311,
      "Ã©du": 4312,
      "esse": 4313,
      "essible": 4314,
      "Ġnoire": 4315,
      "Ġnorm": 4316,
      "ĠnÃłÃ±Ã±": 4317,
      "Ġndekete": 4318,
      "Ġsy": 4319,
      "Ġsir": 4320,
      "Ġsus": 4321,
      "Ġsab": 4322,
      "Ġsos": 4323,
      "ĠsÃ»": 4324,
      "Ġsoix": 4325,
      "Ġsoign": 4326,
      "Ġsombre": 4327,
      "Ġsangu": 4328,
      "ĠsÃ¨che": 4329,
      "Ġsindax": 4330,
      "env": 4331,
      "aati": 4332,
      "aasi": 4333,
      "onf": 4334,
      "onse": 4335,
      "ĠaÃ±": 4336,
      "Ġcaa": 4337,
      "Ġcal": 4338,
      "Ġcat": 4339,
      "Ġcot": 4340,
      "Ġcout": 4341,
      "Ġcoi": 4342,
      "Ġcall": 4343,
      "Ġcess": 4344,
      "Ġcatu": 4345,
      "Ġcuire": 4346,
      "Ġbre": 4347,
      "Ġbor": 4348,
      "Ġbri": 4349,
      "Ġbale": 4350,
      "Ġbooy": 4351,
      "ĠbÃ©g": 4352,
      "ĠbÃłnd": 4353,
      "Ġbonne": 4354,
      "Ġbaie": 4355,
      "Ġpel": 4356,
      "Ġpant": 4357,
      "ĠpÃ³": 4358,
      "ĠpÃ«n": 4359,
      "ĠpÃłkk": 4360,
      "Ġpaak": 4361,
      "Ġpess": 4362,
      "Ġpop": 4363,
      "ĠpÃ¢": 4364,
      "Ġpaille": 4365,
      "Ġpexe": 4366,
      "anes": 4367,
      "anch": 4368,
      "anim": 4369,
      "angue": 4370,
      "rel": 4371,
      "Ġtom": 4372,
      "ĠtÃ«n": 4373,
      "Ġtama": 4374,
      "Ġtot": 4375,
      "Ġtaal": 4376,
      "Ġtig": 4377,
      "ĠtÃ©n": 4378,
      "ĠtÃ©en": 4379,
      "ĠtÃ«gg": 4380,
      "Ġtanc": 4381,
      "Ġtapp": 4382,
      "Ġturi": 4383,
      "ĠtÃłq": 4384,
      "Ġtaill": 4385,
      "Ãłqu": 4386,
      "ouÃ©": 4387,
      "ouff": 4388,
      "oubas": 4389,
      "aide": 4390,
      "Ġyor": 4391,
      "Ġyom": 4392,
      "ĠyÃłcc": 4393,
      "Ġyatt": 4394,
      "oowaan": 4395,
      "Ġfent": 4396,
      "Ġfur": 4397,
      "Ġfus": 4398,
      "ĠfÃ©s": 4399,
      "Ġfum": 4400,
      "Ġfaat": 4401,
      "Ġfig": 4402,
      "Ġfaak": 4403,
      "Ġfomp": 4404,
      "ĠfÃ©d": 4405,
      "Ġfecc": 4406,
      "ĠfÃªtes": 4407,
      "Ġfoyer": 4408,
      "era": 4409,
      "erme": 4410,
      "erci": 4411,
      "erbe": 4412,
      "Ġjar": 4413,
      "Ġjet": 4414,
      "Ġjaab": 4415,
      "Ġjabar": 4416,
      "Ġjull": 4417,
      "Ġjaaxaan": 4418,
      "Ġjoie": 4419,
      "qui": 4420,
      "quait": 4421,
      "quante": 4422,
      "ala": 4423,
      "alpel": 4424,
      "arga": 4425,
      "arangue": 4426,
      "Ã«x": 4427,
      "amti": 4428,
      "Ġge": 4429,
      "ĠgÃ©": 4430,
      "Ġgil": 4431,
      "Ġgas": 4432,
      "ĠgÃ©t": 4433,
      "Ġgenn": 4434,
      "Ġgout": 4435,
      "ĠgÃ©ey": 4436,
      "Ġgoog": 4437,
      "Ġgagn": 4438,
      "ĠgÃ«s": 4439,
      "Ġlaver": 4440,
      "ĠlatÃ©ri": 4441,
      "etul": 4442,
      "Ã±etti": 4443,
      "ĠkÃłrt": 4444,
      "Ġwan": 4445,
      "Ġwis": 4446,
      "ĠwÃ©pp": 4447,
      "Ġwex": 4448,
      "Ġwaas": 4449,
      "Ġwecc": 4450,
      "ĠwÃ©er": 4451,
      "Ġwaree": 4452,
      "Ġwotoom": 4453,
      "ĠwÃ©kk": 4454,
      "unoo": 4455,
      "tem": 4456,
      "inaa": 4457,
      "inÃ©r": 4458,
      "inture": 4459,
      "isait": 4460,
      "isant": 4461,
      "isante": 4462,
      "entre": 4463,
      "entent": 4464,
      "enthousiasme": 4465,
      "Ġquat": 4466,
      "Ġquarti": 4467,
      "Ġcig": 4468,
      "Ġciw": 4469,
      "orme": 4470,
      "oration": 4471,
      "ild": 4472,
      "ilÃ¨g": 4473,
      "itÃ©s": 4474,
      "iture": 4475,
      "ĠrÃł": 4476,
      "Ġris": 4477,
      "Ġrent": 4478,
      "Ġrom": 4479,
      "Ġropp": 4480,
      "Ġrob": 4481,
      "Ġrendu": 4482,
      "Ġlem": 4483,
      "ĠleÃ§on": 4484,
      "Ġlecture": 4485,
      "Ġlekool": 4486,
      "Ġmauv": 4487,
      "lex": 4488,
      "leurs": 4489,
      "Ã¨de": 4490,
      "Ã¨cle": 4491,
      "eler": 4492,
      "ellent": 4493,
      "elds": 4494,
      "ĠÃ±ooy": 4495,
      "ĠÃ±eneen": 4496,
      "ĠÃ±ett": 4497,
      "Ġxun": 4498,
      "Ġxas": 4499,
      "ĠxÃ³": 4500,
      "Ġxaal": 4501,
      "ĠxÃłmb": 4502,
      "ĠxÃ³ot": 4503,
      "Ġxaj": 4504,
      "Ġxew": 4505,
      "Ġxaaju": 4506,
      "ĠxÃ©lu": 4507,
      "ires": 4508,
      "irurg": 4509,
      "irmiers": 4510,
      "Ġlesquel": 4511,
      "Ġvou": 4512,
      "Ġver": 4513,
      "ĠvÃª": 4514,
      "Ġvall": 4515,
      "Ġvaiss": 4516,
      "Ġvue": 4517,
      "Ġvarangue": 4518,
      "ppe": 4519,
      "aange": 4520,
      "atte": 4521,
      "atoon": 4522,
      "atiy": 4523,
      "ature": 4524,
      "Ġmuus": 4525,
      "Ġniki": 4526,
      "Ġdess": 4527,
      "Ġdeseet": 4528,
      "riÃ¨res": 4529,
      "rices": 4530,
      "antÃ©": 4531,
      "asi": 4532,
      "ulee": 4533,
      "Ġsegg": 4534,
      "Ġbac": 4535,
      "agÃ©": 4536,
      "ĠBor": 4537,
      "ĠBari": 4538,
      "ĠduÃ±u": 4539,
      "uscule": 4540,
      "ustri": 4541,
      "ĠAg": 4542,
      "ĠAw": 4543,
      "ĠAad": 4544,
      "ĠAhidjo": 4545,
      "Ġnewu": 4546,
      "Ġneuf": 4547,
      "Ã©tr": 4548,
      "Ã©tat": 4549,
      "Ã©tendue": 4550,
      "Ġngeen": 4551,
      "meur": 4552,
      "Ġnavi": 4553,
      "ĠMill": 4554,
      "ĠMaak": 4555,
      "Ġparaiss": 4556,
      "Ġparad": 4557,
      "Ġred": 4558,
      "Ġree": 4559,
      "Ġreet": 4560,
      "Ġrele": 4561,
      "Ġrece": 4562,
      "Ġreti": 4563,
      "Ġrepas": 4564,
      "ceen": 4565,
      "Ãłnge": 4566,
      "aube": 4567,
      "Ġavance": 4568,
      "Ġavanc": 4569,
      "Ġaventure": 4570,
      "Ġluxe": 4571,
      "estu": 4572,
      "ouses": 4573,
      "chal": 4574,
      "chant": 4575,
      "chais": 4576,
      "chide": 4577,
      "lub": 4578,
      "ĠNk": 4579,
      "ĠNon": 4580,
      "ĠNous": 4581,
      "ĠNorm": 4582,
      "Ġchass": 4583,
      "Ġchoc": 4584,
      "Ġchanger": 4585,
      "Ġchirurg": 4586,
      "abl": 4587,
      "osi": 4588,
      "ost": 4589,
      "ospital": 4590,
      "ĠLaaj": 4591,
      "dib": 4592,
      "diens": 4593,
      "Ġsuy": 4594,
      "Ġsuite": 4595,
      "Ġsucre": 4596,
      "Ġfaf": 4597,
      "Ġfaju": 4598,
      "tic": 4599,
      "tice": 4600,
      "tivement": 4601,
      "ĠdÃ©ci": 4602,
      "ĠdÃ©nu": 4603,
      "ĠDer": 4604,
      "ĠDina": 4605,
      "ĠDuma": 4606,
      "ĠDoole": 4607,
      "ĠhÃ´pital": 4608,
      "Ġhaie": 4609,
      "ĠSh": 4610,
      "ĠSon": 4611,
      "ĠSin": 4612,
      "ĠSax": 4613,
      "ĠSans": 4614,
      "ĠSooy": 4615,
      "ĠSori": 4616,
      "ĠSah": 4617,
      "aww": 4618,
      "uments": 4619,
      "umba": 4620,
      "imis": 4621,
      "iments": 4622,
      "ots": 4623,
      "ott": 4624,
      "otte": 4625,
      "outon": 4626,
      "Ġpourquoi": 4627,
      "llÃ«g": 4628,
      "Ġamal": 4629,
      "Ġamis": 4630,
      "Ġamutoon": 4631,
      "Ġmbal": 4632,
      "Ġmbagg": 4633,
      "ĠTou": 4634,
      "ĠTont": 4635,
      "ĠTÃłng": 4636,
      "ĠToog": 4637,
      "ĠtrÃ´": 4638,
      "Ġtrac": 4639,
      "Ġtrace": 4640,
      "ddu": 4641,
      "ddoo": 4642,
      "oxu": 4643,
      "ĠKÃ³": 4644,
      "ĠKab": 4645,
      "ĠKaw": 4646,
      "ĠKÃłtt": 4647,
      "ĠKari": 4648,
      "Ġjeune": 4649,
      "Ġsurviv": 4650,
      "ĠÃ©tu": 4651,
      "ĠÃ©tat": 4652,
      "ĠÃ©tant": 4653,
      "ĠÃ©touff": 4654,
      "Ġplage": 4655,
      "Ġplac": 4656,
      "Ġplaines": 4657,
      "Ġplonge": 4658,
      "Ġdaf": 4659,
      "Ġdakk": 4660,
      "Ġprom": 4661,
      "Ġproie": 4662,
      "Ġcomment": 4663,
      "Ġcompt": 4664,
      "ĠCette": 4665,
      "ĠCela": 4666,
      "Ġmiiri": 4667,
      "ĠFou": 4668,
      "ĠFili": 4669,
      "ÅĪe": 4670,
      "Ġinvent": 4671,
      "Ġinvis": 4672,
      "ense": 4673,
      "ffÃ©s": 4674,
      "avaient": 4675,
      "Ġndaj": 4676,
      "ĠWaa": 4677,
      "Ġici": 4678,
      "ĠidÃ©e": 4679,
      "igne": 4680,
      "Ġdemi": 4681,
      "Ġdemul": 4682,
      "ĠdÃ«kkee": 4683,
      "ĠdÃ«kkub": 4684,
      "onnÃ©s": 4685,
      "onnement": 4686,
      "Ġgrat": 4687,
      "ĠgrÃ¢": 4688,
      "Ġgrise": 4689,
      "Ġxamatul": 4690,
      "sib": 4691,
      "ĠGÃ³or": 4692,
      "ĠGrass": 4693,
      "ĠGinnaaw": 4694,
      "ĠmÃ«numaa": 4695,
      "ĠmÃ«nutoon": 4696,
      "Ġnaak": 4697,
      "Ġceinture": 4698,
      "cien": 4699,
      "cier": 4700,
      "cieux": 4701,
      "cience": 4702,
      "Ġwaxoon": 4703,
      "Ġwaxamb": 4704,
      "Ġdeful": 4705,
      "Ġmoomeelu": 4706,
      "Ġjuges": 4707,
      "araÃ±se": 4708,
      "arachide": 4709,
      "Ġnju": 4710,
      "ĠnjÃ«nd": 4711,
      "Ġnjari": 4712,
      "Ġnjoowaan": 4713,
      "aakaar": 4714,
      "tug": 4715,
      "tuaire": 4716,
      "tuuti": 4717,
      "Ã©rait": 4718,
      "Ġdalukaay": 4719,
      "Ġenfin": 4720,
      "ĠJo": 4721,
      "ĠJigÃ©en": 4722,
      "ĠJiit": 4723,
      "Ġbrind": 4724,
      "ive": 4725,
      "mite": 4726,
      "Ġmaisons": 4727,
      "ĠmeÃ±Ã±": 4728,
      "Ġsow": 4729,
      "ĠÅĪoom": 4730,
      "ĠÅĪuy": 4731,
      "Ġtaxu": 4732,
      "Ġarmes": 4733,
      "ĠarriÃ¨re": 4734,
      "Ã§aient": 4735,
      "Ġtuu": 4736,
      "raÃ®": 4737,
      "ĠgÃ«natee": 4738,
      "Ġwuteek": 4739,
      "ĠÃĳa": 4740,
      "ĠÃĳaar": 4741,
      "ĠmÃ©bÃ©t": 4742,
      "opÃ©r": 4743,
      "Ġdoomam": 4744,
      "Ġboot": 4745,
      "ĠkÃ«ruus": 4746,
      "ĠlÃłpp": 4747,
      "ĠraÅĭ": 4748,
      "Ãłllaak": 4749,
      "Ġvieilles": 4750,
      "liers": 4751,
      "lieue": 4752,
      "Ġexam": 4753,
      "Ġexces": 4754,
      "Ġnatt": 4755,
      "Ġnatale": 4756,
      "ĠPom": 4757,
      "ĠPuis": 4758,
      "ĠPari": 4759,
      "Ġmari": 4760,
      "Ġmarque": 4761,
      "ĠmarquÃ©": 4762,
      "Ġmarjaan": 4763,
      "ĠYaakaar": 4764,
      "ĠYÃłllaak": 4765,
      "Ġcrise": 4766,
      "ĠcrÃ©p": 4767,
      "Ġcroire": 4768,
      "cheurs": 4769,
      "Ġmanies": 4770,
      "ĠgarÃ§on": 4771,
      "Ġbiiru": 4772,
      "ĠSuku": 4773,
      "Ġvib": 4774,
      "Ġviennent": 4775,
      "ĠfrÃ©qu": 4776,
      "istait": 4777,
      "Ġcolons": 4778,
      "Ġcolonne": 4779,
      "ĠjournÃ©e": 4780,
      "Ġyaroo": 4781,
      "wukaay": 4782,
      "Ġlonge": 4783,
      "Ġtool": 4784,
      "ĠtooÃ±": 4785,
      "Ġtoogal": 4786,
      "Ġyoonam": 4787,
      "Ġcoucher": 4788,
      "Ġcorde": 4789,
      "Ġcornes": 4790,
      "ĠgÃ©nÃ©re": 4791,
      "Ġimm": 4792,
      "Ġdoxal": 4793,
      "Ġridic": 4794,
      "jje": 4795,
      "ĠEl": 4796,
      "ĠEst": 4797,
      "ĠElle": 4798,
      "ĠyÃ«gaat": 4799,
      "Ġfekkoon": 4800,
      "Ġfekksi": 4801,
      "ada": 4802,
      "adee": 4803,
      "Ġmontrent": 4804,
      "ermin": 4805,
      "Ġpasser": 4806,
      "bbal": 4807,
      "Ġabs": 4808,
      "Ġabsent": 4809,
      "ĠMazar": 4810,
      "Ãłttaliku": 4811,
      "Ġyarami": 4812,
      "aasu": 4813,
      "Ġcarav": 4814,
      "Ġcaric": 4815,
      "Ġcarross": 4816,
      "itudes": 4817,
      "embouch": 4818,
      "ĠRiw": 4819,
      "ĠRiis": 4820,
      "ĠRiver": 4821,
      "Ġapporte": 4822,
      "Ġpeup": 4823,
      "ĠtÃ«b": 4824,
      "ĠtÃ«ri": 4825,
      "ĠtÃ«ju": 4826,
      "ĠtÃ«wa": 4827,
      "ĠTeg": 4828,
      "katu": 4829,
      "Ġloxoy": 4830,
      "ĠfÃłttalikoo": 4831,
      "ĠÃłddinay": 4832,
      "ĠNikom": 4833,
      "Ã©ph": 4834,
      "Ġsaaf": 4835,
      "Ġalal": 4836,
      "Ġpouvais": 4837,
      "Ġpouvoir": 4838,
      "Ġfemelle": 4839,
      "Ġauto": 4840,
      "Ġautorit": 4841,
      "Ġportent": 4842,
      "Ġportrait": 4843,
      "Ġxarnu": 4844,
      "Ġxaritam": 4845,
      "Ġpartager": 4846,
      "Ġnataali": 4847,
      "nesi": 4848,
      "ption": 4849,
      "Ġ195": 4850,
      "Ġsouliers": 4851,
      "Ġposs": 4852,
      "Ġposture": 4853,
      "ĠjÃłppe": 4854,
      "ĠdÃ©cl": 4855,
      "ĠdÃ©couv": 4856,
      "ĠdÃ©couverte": 4857,
      "Ġmbirum": 4858,
      "ĠÃ«f": 4859,
      "ĠÃ«tt": 4860,
      "ĠÃ«mb": 4861,
      "ĠÃ«llÃ«g": 4862,
      "Ġpalais": 4863,
      "Ġpalaat": 4864,
      "Ġpalmiers": 4865,
      "empire": 4866,
      "truire": 4867,
      "yyee": 4868,
      "Ġginnax": 4869,
      "Ġrive": 4870,
      "ĠbÃ«tam": 4871,
      "iteurs": 4872,
      "Ġdisait": 4873,
      "Ġphysique": 4874,
      "ĠAlseri": 4875,
      "Ġconv": 4876,
      "Ġperd": 4877,
      "Ġchef": 4878,
      "Ġtraverse": 4879,
      "gade": 4880,
      "Ġcourions": 4881,
      "ĠyÃ«ngoo": 4882,
      "assÃ©": 4883,
      "Ġtoogoon": 4884,
      "ateur": 4885,
      "uwe": 4886,
      "Ġoncles": 4887,
      "Ġnonchal": 4888,
      "Ġautrement": 4889,
      "Ġdoux": 4890,
      "Ġdouleur": 4891,
      "Ġconser": 4892,
      "Ġtoppatoo": 4893,
      "Ġjadd": 4894,
      "issement": 4895,
      "Ġrecons": 4896,
      "ĠNiger": 4897,
      "Ġsavions": 4898,
      "Ġregardent": 4899,
      "Ġboug": 4900,
      "Ġbouill": 4901,
      "Ġfameuses": 4902,
      "ouvertes": 4903,
      "ĠallÃ©": 4904,
      "Ġpuits": 4905,
      "Ġtolloo": 4906,
      "Ġtollook": 4907,
      "ĠyÃ³nn": 4908,
      "ĠrÃ©sign": 4909,
      "Ġvivant": 4910,
      "Ġvivaient": 4911,
      "Ġsemblait": 4912,
      "Ġcolonisation": 4913,
      "Ã©motion": 4914,
      "Ġsaytu": 4915,
      "Ġbanlieue": 4916,
      "Ġyemu": 4917,
      "Ġfaisaient": 4918,
      "Ġserviteurs": 4919,
      "Åĵuf": 4920,
      "ĠdÃ©sir": 4921,
      "ĠdÃ©sesp": 4922,
      "Ġsentiments": 4923,
      "Ġbokkoon": 4924,
      "Ġbokkul": 4925,
      "Ġpierre": 4926,
      "Ġpiki": 4927,
      "Ġpierres": 4928,
      "ĠpiÃ¨ge": 4929,
      "ĠrÃªver": 4930,
      "ĠsÃ©q": 4931,
      "enfance": 4932,
      "enfonc": 4933,
      "ĠyÃłggul": 4934,
      "Ġweexaay": 4935,
      "Ġruu": 4936,
      "Ġrues": 4937,
      "Ġruqu": 4938,
      "Ġrumeur": 4939,
      "Ġroule": 4940,
      "Ġrouges": 4941,
      "Ġsecours": 4942,
      "Ġseconde": 4943,
      "Ġlibre": 4944,
      "ĠVoy": 4945,
      "Ġmoments": 4946,
      "Ġadul": 4947,
      "Ġtoits": 4948,
      "Ġyeew": 4949,
      "Ġyeewu": 4950,
      "Ġweesu": 4951,
      "atta": 4952,
      "Ġrevanche": 4953,
      "Ġchemin": 4954,
      "ĠbrÃ»lait": 4955,
      "ĠarrivÃ©": 4956,
      "Ġimpecc": 4957,
      "Ġsouvenirs": 4958,
      "Ġsouffr": 4959,
      "ĠNdaxam": 4960,
      "Ġvoyageaient": 4961,
      "Ġafricaines": 4962,
      "Aujourd": 4963,
      "Unis": 4964,
      "ĠÅĭaam": 4965,
      "ĠÅĭÃłÃ±Ã±": 4966,
      "ĠÅĭeeÃ±": 4967,
      "Ġdanoo": 4968,
      "Ġdankali": 4969,
      "ĠdÃ«j": 4970,
      "ĠdÃ«ll": 4971,
      "Ġlorsqu": 4972,
      "Ġsoxal": 4973,
      "Ġsoxor": 4974,
      "Ġsoxna": 4975,
      "Ġsoxnaam": 4976,
      "Ġtropicale": 4977,
      "ĠJeffri": 4978,
      "kanami": 4979,
      "Ġdistance": 4980,
      "ĠdinaÃ±": 4981,
      "Ġlaajoon": 4982,
      "Ġpenser": 4983,
      "install": 4984,
      "installer": 4985,
      "ĠNgir": 4986,
      "ĠrÃ©ponse": 4987,
      "ĠgÃ©nnaan": 4988,
      "Ã©rie": 4989,
      "Ġturam": 4990,
      "ĠtÃłkkal": 4991,
      "ĠyÃ«gu": 4992,
      "ĠyÃ«ge": 4993,
      "Ġjafee": 4994,
      "quelÃ©e": 4995,
      "Ġxawoon": 4996,
      "Ġvrais": 4997,
      "Ġnaqadee": 4998,
      "Ġremont": 4999,
      "Ġremonte": 5000,
      "Ġcomprends": 5001,
      "Ġsoldaari": 5002,
      "Ġsoppikoo": 5003,
      "Ġcampagne": 5004,
      "Ġbindkat": 5005,
      "Ġpoing": 5006,
      "Ġpointe": 5007,
      "Ġfowukaay": 5008,
      "Ġwoowu": 5009,
      "Ġvenait": 5010,
      "ĠAbakaliki": 5011,
      "Ġeffec": 5012,
      "Ġeffray": 5013,
      "Ġsensations": 5014,
      "Ġafflu": 5015,
      "Ġaffect": 5016,
      "Ġkerceen": 5017,
      "Ġreyante": 5018,
      "Ġjuddu": 5019,
      "Ġconnaissais": 5020,
      "Ġconnaissance": 5021,
      "Ġretourner": 5022,
      "Ġorages": 5023,
      "Ġorganis": 5024,
      "ĠirÃ³": 5025,
      "Ġnoppal": 5026,
      "Ġaccepter": 5027,
      "Ġaccep": 5028,
      "ungo": 5029,
      "Ġxiir": 5030,
      "ĠMÃ«noon": 5031,
      "Ġcharge": 5032,
      "Ġchaude": 5033,
      "Ġchauff": 5034,
      "Ġcapable": 5035,
      "ĠÃ¢gÃ©s": 5036,
      "ĠFiild": 5037,
      "ĠFields": 5038,
      "Ġrajo": 5039,
      "Ġrajoom": 5040,
      "Ġrajaxe": 5041,
      "Ġracontait": 5042,
      "Devant": 5043,
      "Ġbataax": 5044,
      "Ġpistes": 5045,
      "Ġpermet": 5046,
      "airs": 5047,
      "Ġyaboo": 5048,
      "ĠyÃ©rey": 5049,
      "Ġquitte": 5050,
      "ĠquittÃ©": 5051,
      "urgence": 5052,
      "Ġenvir": 5053,
      "Ġretrouver": 5054,
      "Ġincap": 5055,
      "ĠaccrochÃ©s": 5056,
      "aura": 5057,
      "aurait": 5058,
      "affaire": 5059,
      "ĠdÃłlli": 5060,
      "Ġplein": 5061,
      "Ġpleins": 5062,
      "ĠtÃłyyee": 5063,
      "Ġyaxeet": 5064,
      "ĠfenÃªtres": 5065,
      "Ġfitna": 5066,
      "Ġjubal": 5067,
      "Ġgorilles": 5068,
      "ĠrestÃ©": 5069,
      "ĠSeeni": 5070,
      "Ġguerres": 5071,
      "oignement": 5072,
      "Ġancien": 5073,
      "Ġanciens": 5074,
      "ĠarmÃ©es": 5075,
      "Ġressemblait": 5076,
      "Ġdispens": 5077,
      "ĠdispaÃ±seer": 5078,
      "ruption": 5079,
      "ukaayam": 5080,
      "Ġutil": 5081,
      "Ġdaagu": 5082,
      "Ġdaawu": 5083,
      "Ġmilitaire": 5084,
      "Ġndigg": 5085,
      "Ġndigalu": 5086,
      "Ġaimer": 5087,
      "Ġcosaanu": 5088,
      "Ġconduisait": 5089,
      "Ġsubaak": 5090,
      "Ġsubst": 5091,
      "Ġsuivi": 5092,
      "Ġguyaab": 5093,
      "Ġmbindeef": 5094,
      "ĠprÃ©sence": 5095,
      "Ġanimaux": 5096,
      "ĠnjÃłmbaar": 5097,
      "ĠarrÃªt": 5098,
      "Ġrappelle": 5099,
      "lication": 5100,
      "Quelque": 5101,
      "Quelques": 5102,
      "Ġblancs": 5103,
      "ĠmÃłndarga": 5104,
      "Ġstatu": 5105,
      "ĠachetÃ©s": 5106,
      "Ġcanal": 5107,
      "Ġcamarades": 5108,
      "Ġpoliti": 5109,
      "Ġpolici": 5110,
      "ĠtÃłngal": 5111,
      "Ġfowe": 5112,
      "Ġgaleries": 5113,
      "Ġxobi": 5114,
      "Ġensemble": 5115,
      "ĠBÃ©nouÃ©": 5116,
      "ĠBÃ©nuwe": 5117,
      "ĠBuuru": 5118,
      "ĠAtum": 5119,
      "Ġjeunesse": 5120,
      "Ġpropre": 5121,
      "ĠFÃłtte": 5122,
      "Ġindustri": 5123,
      "Ġsignifi": 5124,
      "ĠÃ©lectri": 5125,
      "Ġchapeaux": 5126,
      "ĠcrÃ©Ã©": 5127,
      "Ã¢teaux": 5128,
      "ĠgÃ©nÃ©rale": 5129,
      "ĠRÃ©ewi": 5130,
      "Ġprofonde": 5131,
      "ĠobsÃ©d": 5132,
      "Ġobsession": 5133,
      "ĠdiffÃ©rent": 5134,
      "Ġofficiers": 5135,
      "rouler": 5136,
      "ĠÃ³fise": 5137,
      "Ġmiroir": 5138,
      "Ġmoytu": 5139,
      "Ġmaasaloo": 5140,
      "Ġsotti": 5141,
      "Ġsortir": 5142,
      "Ġsanctuaire": 5143,
      "Ġcinq": 5144,
      "Ġcoono": 5145,
      "Ġcabax": 5146,
      "Ġfulla": 5147,
      "ĠgÃłngiri": 5148,
      "ĠgÃ«moon": 5149,
      "Ġrendi": 5150,
      "Ġchercheurs": 5151,
      "Ġhistoire": 5152,
      "Ġhistoires": 5153,
      "Ġmbooloo": 5154,
      "Ġtrouve": 5155,
      "ĠGarab": 5156,
      "ĠGaraas": 5157,
      "ĠnjÃ«lbÃ©en": 5158,
      "Ġvieillards": 5159,
      "Ġaskan": 5160,
      "ĠIndiens": 5161,
      "Ġcommencement": 5162,
      "ĠyÃ³bbaale": 5163,
      "Ġadministra": 5164,
      "Arkuur": 5165,
      "Chaque": 5166,
      "heure": 5167,
      "habit": 5168,
      "Ġaada": 5169,
      "Ġlampe": 5170,
      "ĠcraquelÃ©e": 5171,
      "Ġbaxa": 5172,
      "ĠbÃłnx": 5173,
      "Ġfatigue": 5174,
      "arrivÃ©e": 5175,
      "Ġkask": 5176,
      "Ġwaaxu": 5177,
      "ĠrÃłkkaaju": 5178,
      "ĠvariÃ©tÃ©": 5179,
      "ĠBabungo": 5180,
      "Ġteqaleek": 5181,
      "Ã³obu": 5182,
      "Ġsuppose": 5183,
      "Ġcafards": 5184,
      "Ġtroncs": 5185,
      "Ġplaintes": 5186,
      "ĠJurÃ³om": 5187,
      "Ġbrousse": 5188,
      "ĠParis": 5189,
      "Ġappartement": 5190,
      "Ġlointains": 5191,
      "Ġdisparu": 5192,
      "Ġterribles": 5193,
      "Ġfamilier": 5194,
      "ĠparticuliÃ¨rement": 5195,
      "Ġphotographie": 5196,
      "ĠdÃ«nnam": 5197,
      "ĠisolÃ©": 5198,
      "Ġmoustiquaire": 5199,
      "ĠmÃ©ngook": 5200,
      "ĠYorubaa": 5201,
      "ĠondulÃ©e": 5202,
      "Ġpoitrine": 5203,
      "Ġbiafrais": 5204,
      "Abakaliki": 5205,
      "EuropÃ©ens": 5206,
      "feebar": 5207,
      "occupation": 5208,
      "Ġlentement": 5209,
      "ĠmangÃ©": 5210,
      "ĠmÃ³obal": 5211,
      "Ã©wÃ©n": 5212,
      "Ġnombreux": 5213,
      "ĠcÃłkkeef": 5214,
      "Ġcaract": 5215,
      "ĠclichÃ©s": 5216,
      "Ġcercle": 5217,
      "Ġbesoin": 5218,
      "ĠprivilÃ¨g": 5219,
      "Ġtribales": 5220,
      "ĠtÃłllal": 5221,
      "Ġfonction": 5222,
      "ĠjÃłmbu": 5223,
      "Ġlaxas": 5224,
      "ĠrÃłÃ±Ã±ee": 5225,
      "ĠvÃ©ritÃ©": 5226,
      "ĠAllemands": 5227,
      "ĠLooloo": 5228,
      "ĠtrÃ©sor": 5229,
      "ĠKakaa": 5230,
      "Ġsurveillance": 5231,
      "ĠjÃ«mmu": 5232,
      "ĠXawma": 5233,
      "ĠPolisoÅĭ": 5234,
      "ĠentourÃ©": 5235,
      "Ġassiette": 5236,
      "Ġalentour": 5237,
      "Ġallum": 5238,
      "Ġtambours": 5239,
      "ĠAlgÃ©rie": 5240,
      "ĠinstallÃ©": 5241,
      "ĠsculptÃ©s": 5242,
      "Ġvaccins": 5243,
      "ĠdÃ«ppook": 5244,
      "Ġyegsi": 5245,
      "Ġfauteuils": 5246,
      "ĠpÃ©nÃ©trer": 5247,
      "Ġmoderne": 5248,
      "ĠÃ©quatoriale": 5249,
      "ĠSaawusamton": 5250,
      "ĠÃ©prouve": 5251,
      "Adamawa": 5252,
      "junni": 5253,
      "Ġdysenterie": 5254,
      "ĠlÃ«kkale": 5255,
      "Ġmembres": 5256,
      "Ġmoteur": 5257,
      "Ã©ducation": 5258,
      "ĠsÃ»r": 5259,
      "Ġsoixante": 5260,
      "ĠcessÃ©": 5261,
      "ĠbÃłndaas": 5262,
      "Ġpantalon": 5263,
      "ĠpÃ«nde": 5264,
      "Ġpessim": 5265,
      "Ġpopul": 5266,
      "ĠtÃ©nia": 5267,
      "Ġfentaak": 5268,
      "Ġfusils": 5269,
      "ĠfÃ©dÃ©r": 5270,
      "Ġgoogoo": 5271,
      "ĠlatÃ©rite": 5272,
      "Ġquatre": 5273,
      "ĠroppÃ«l": 5274,
      "Ġxaalis": 5275,
      "Ġlesquels": 5276,
      "Ġvaisselle": 5277,
      "ĠdÃ©cidÃ©": 5278,
      "ĠSahara": 5279,
      "ĠÃ©touffante": 5280,
      "ĠFilipus": 5281,
      "Ġinvisible": 5282,
      "ĠgrÃ¢ce": 5283,
      "Ġwaxambaane": 5284,
      "Ġvieillesse": 5285,
      "Ġexcessi": 5286,
      "ĠfrÃ©quent": 5287,
      "ĠMazaruni": 5288,
      "Ġcaricatur": 5289,
      "embouchure": 5290,
      "ĠRiwÃ«r": 5291,
      "ĠyÃ³nnee": 5292,
      "ĠrÃ©signation": 5293,
      "ĠdÃ©sespÃ©r": 5294,
      "Ġdankalikoo": 5295,
      "ĠJeffries": 5296,
      "ĠacceptÃ©": 5297,
      "ĠÃ©lectrique": 5298,
      "ĠprivilÃ¨ges": 5299,
      "300": 5300,
      "700": 5301,
      "Aff": 5302,
      "Aux": 5303,
      "Avant": 5304,
      "Ainsi": 5305,
      "Bam": 5306,
      "Bien": 5307,
      "British": 5308,
      "Ces": 5309,
      "Comme": 5310,
      "Est": 5311,
      "Hormis": 5312,
      "If": 5313,
      "Ici": 5314,
      "Long": 5315,
      "Moi": 5316,
      "Ni": 5317,
      "On": 5318,
      "Rien": 5319,
      "Ses": 5320,
      "Tubaab": 5321,
      "az": 5322,
      "aju": 5323,
      "aÃ¯": 5324,
      "aÃ§ait": 5325,
      "aÃ®t": 5326,
      "boo": 5327,
      "bit": 5328,
      "bres": 5329,
      "bad": 5330,
      "cte": 5331,
      "cel": 5332,
      "cri": 5333,
      "cti": 5334,
      "celle": 5335,
      "cils": 5336,
      "cours": 5337,
      "cits": 5338,
      "cile": 5339,
      "cuss": 5340,
      "cast": 5341,
      "do": 5342,
      "don": 5343,
      "dent": 5344,
      "daay": 5345,
      "eg": 5346,
      "eat": 5347,
      "eurs": 5348,
      "euse": 5349,
      "fon": 5350,
      "fou": 5351,
      "foo": 5352,
      "fait": 5353,
      "fant": 5354,
      "fest": 5355,
      "fiti": 5356,
      "fÃ©ex": 5357,
      "gr": 5358,
      "gaa": 5359,
      "gent": 5360,
      "gers": 5361,
      "gante": 5362,
      "gÃ©n": 5363,
      "gÃ³or": 5364,
      "gles": 5365,
      "gouill": 5366,
      "gagÃ©": 5367,
      "hi": 5368,
      "hn": 5369,
      "hili": 5370,
      "hase": 5371,
      "ich": 5372,
      "ieux": 5373,
      "ibles": 5374,
      "ipe": 5375,
      "ize": 5376,
      "ja": 5377,
      "jal": 5378,
      "jag": 5379,
      "jus": 5380,
      "jÃłng": 5381,
      "jantu": 5382,
      "kaa": 5383,
      "kus": 5384,
      "kÃ«r": 5385,
      "lo": 5386,
      "ly": 5387,
      "laa": 5388,
      "lam": 5389,
      "land": 5390,
      "lÃ©es": 5391,
      "laire": 5392,
      "leel": 5393,
      "lables": 5394,
      "lÃ«pp": 5395,
      "lanis": 5396,
      "lancs": 5397,
      "mant": 5398,
      "mans": 5399,
      "mme": 5400,
      "mont": 5401,
      "maam": 5402,
      "mitÃ©": 5403,
      "mond": 5404,
      "manche": 5405,
      "nj": 5406,
      "nk": 5407,
      "naa": 5408,
      "non": 5409,
      "nir": 5410,
      "nde": 5411,
      "nÃ©s": 5412,
      "ntu": 5413,
      "naux": 5414,
      "nits": 5415,
      "npore": 5416,
      "oil": 5417,
      "ogal": 5418,
      "oct": 5419,
      "oches": 5420,
      "oÃ«l": 5421,
      "occident": 5422,
      "pon": 5423,
      "pou": 5424,
      "pÃ«": 5425,
      "pis": 5426,
      "pain": 5427,
      "peur": 5428,
      "poor": 5429,
      "pees": 5430,
      "pÃ¨res": 5431,
      "paÃ±seer": 5432,
      "paaya": 5433,
      "rir": 5434,
      "raient": 5435,
      "rill": 5436,
      "rop": 5437,
      "rure": 5438,
      "rist": 5439,
      "rob": 5440,
      "romp": 5441,
      "rÃ¨ne": 5442,
      "ruire": 5443,
      "rument": 5444,
      "randis": 5445,
      "rmen": 5446,
      "ranch": 5447,
      "sen": 5448,
      "ser": 5449,
      "sam": 5450,
      "sit": 5451,
      "sas": 5452,
      "sante": 5453,
      "sori": 5454,
      "sac": 5455,
      "stÃ©ri": 5456,
      "santes": 5457,
      "sung": 5458,
      "sailles": 5459,
      "too": 5460,
      "tti": 5461,
      "tÃ³or": 5462,
      "tÃ©r": 5463,
      "tation": 5464,
      "tad": 5465,
      "ttee": 5466,
      "tate": 5467,
      "tÃ©ef": 5468,
      "uil": 5469,
      "ude": 5470,
      "utu": 5471,
      "uits": 5472,
      "ucu": 5473,
      "vu": 5474,
      "vou": 5475,
      "vÃ©n": 5476,
      "vrÃ©": 5477,
      "vente": 5478,
      "wal": 5479,
      "war": 5480,
      "wle": 5481,
      "waal": 5482,
      "waale": 5483,
      "waj": 5484,
      "wumaa": 5485,
      "waare": 5486,
      "wiis": 5487,
      "xu": 5488,
      "xÃ³ot": 5489,
      "yÃ«n": 5490,
      "yaak": 5491,
      "zz": 5492,
      "zes": 5493,
      "®le": 5494,
      "Â«": 5495,
      "Ãīt": 5496,
      "Ġ1": 5497,
      "Ġ3": 5498,
      "ĠZ": 5499,
      "Ġe": 5500,
      "Ġopp": 5501,
      "Ġaak": 5502,
      "Ġeau": 5503,
      "Ġess": 5504,
      "Ġord": 5505,
      "Ġomb": 5506,
      "Ġorte": 5507,
      "ĠUne": 5508,
      "Ġesc": 5509,
      "ĠÃªtres": 5510,
      "Ġouvr": 5511,
      "Ġupp": 5512,
      "ĠÅĵuf": 5513,
      "Ġ700": 5514,
      "ĭsen": 5515,
      "Ġdag": 5516,
      "Ġdale": 5517,
      "ĠdÃ«r": 5518,
      "Ġdand": 5519,
      "Ġdort": 5520,
      "Ġdois": 5521,
      "Ġdiri": 5522,
      "Ġdorm": 5523,
      "Ġdamay": 5524,
      "Ġdof": 5525,
      "Ġlent": 5526,
      "Ġlait": 5527,
      "Ġlot": 5528,
      "Ġlaak": 5529,
      "Ġlaax": 5530,
      "Ġlaam": 5531,
      "Ġloc": 5532,
      "ĠlÃ«pp": 5533,
      "Ġlaisse": 5534,
      "ĠlÃ©th": 5535,
      "ĠlÃ³ox": 5536,
      "ĠmÃł": 5537,
      "Ġmou": 5538,
      "Ġmun": 5539,
      "Ġmor": 5540,
      "Ġmol": 5541,
      "Ġmeek": 5542,
      "Ġmoit": 5543,
      "Ġmaaj": 5544,
      "Ġmors": 5545,
      "Ġmise": 5546,
      "Ġminu": 5547,
      "Ġmode": 5548,
      "Ġmettait": 5549,
      "Ġmouton": 5550,
      "Ã©an": 5551,
      "Ã©di": 5552,
      "Ã©ment": 5553,
      "Ã©mb": 5554,
      "Ã©mi": 5555,
      "Ã©vit": 5556,
      "esam": 5557,
      "ĠnÃ©": 5558,
      "Ġnen": 5559,
      "Ġnaay": 5560,
      "Ġnaat": 5561,
      "Ġnation": 5562,
      "Ġnob": 5563,
      "ĠnoÅĭÅĭ": 5564,
      "ĠnÃłnd": 5565,
      "Ġnoot": 5566,
      "Ġnkom": 5567,
      "Ġnombre": 5568,
      "Ġnamm": 5569,
      "ĠnÃ³ox": 5570,
      "Ġsal": 5571,
      "ĠsÃ«": 5572,
      "Ġsin": 5573,
      "Ġsis": 5574,
      "Ġsaan": 5575,
      "Ġsoi": 5576,
      "Ġseek": 5577,
      "ĠsÃłng": 5578,
      "ĠsÃ©c": 5579,
      "Ġsomb": 5580,
      "ĠsÃ©y": 5581,
      "ĠsÃłmm": 5582,
      "Ġsing": 5583,
      "Ġsommes": 5584,
      "ĠsÃ«pp": 5585,
      "Ġseey": 5586,
      "Ġsulli": 5587,
      "Ġshort": 5588,
      "ĠsÃ³obu": 5589,
      "enait": 5590,
      "enke": 5591,
      "enya": 5592,
      "aami": 5593,
      "onou": 5594,
      "onom": 5595,
      "oneem": 5596,
      "onies": 5597,
      "Ġair": 5598,
      "Ġcoo": 5599,
      "Ġcax": 5600,
      "Ġcay": 5601,
      "ĠcÃ«r": 5602,
      "ĠcÃ©r": 5603,
      "Ġcoc": 5604,
      "ĠcÃ«pp": 5605,
      "Ġcoyy": 5606,
      "Ġclub": 5607,
      "Ġbai": 5608,
      "Ġbis": 5609,
      "Ġbit": 5610,
      "Ġbol": 5611,
      "ĠbÃ©pp": 5612,
      "Ġbelle": 5613,
      "Ġbonn": 5614,
      "Ġbekk": 5615,
      "Ġbanam": 5616,
      "Ġbaatu": 5617,
      "Ġbey": 5618,
      "Ġbaraa": 5619,
      "Ġballe": 5620,
      "ĠbÃªtes": 5621,
      "ĠbÃ³oy": 5622,
      "ĠpÃ©": 5623,
      "ĠpÃł": 5624,
      "Ġpoo": 5625,
      "Ġpun": 5626,
      "Ġpent": 5627,
      "Ġpor": 5628,
      "Ġpax": 5629,
      "Ġpus": 5630,
      "Ġpau": 5631,
      "Ġpont": 5632,
      "Ġpain": 5633,
      "Ġpati": 5634,
      "Ġpid": 5635,
      "Ġpuur": 5636,
      "Ġpress": 5637,
      "Ġpey": 5638,
      "Ġpaj": 5639,
      "ĠpÃ©ex": 5640,
      "ĠpÃ©ri": 5641,
      "ĠpriÃ¨re": 5642,
      "ĠpÃ«t": 5643,
      "Ġpaci": 5644,
      "Ġpric": 5645,
      "anoo": 5646,
      "anqu": 5647,
      "annÃ©e": 5648,
      "anpoor": 5649,
      "Ġdere": 5650,
      "Ġdehors": 5651,
      "reaux": 5652,
      "reuse": 5653,
      "reilles": 5654,
      "reuses": 5655,
      "ĠtÃ©": 5656,
      "Ġtent": 5657,
      "Ġtit": 5658,
      "Ġtag": 5659,
      "Ġtonn": 5660,
      "ĠtÃ³or": 5661,
      "Ġtooy": 5662,
      "ĠtÃ¢": 5663,
      "Ġtaf": 5664,
      "Ġtac": 5665,
      "Ġtente": 5666,
      "ĠtÃ´t": 5667,
      "Ġtaraa": 5668,
      "Ġtaille": 5669,
      "ĠtÃªtes": 5670,
      "Ġtoile": 5671,
      "Ġtenue": 5672,
      "Ġtimis": 5673,
      "Ġtoxu": 5674,
      "Ãłtti": 5675,
      "oue": 5676,
      "oux": 5677,
      "ouer": 5678,
      "ouci": 5679,
      "oureux": 5680,
      "ourets": 5681,
      "ouala": 5682,
      "aies": 5683,
      "aitement": 5684,
      "Ġyan": 5685,
      "Ġyoo": 5686,
      "ĠyÃłn": 5687,
      "Ġyend": 5688,
      "ĠyÃłll": 5689,
      "ĠyÃłlla": 5690,
      "ĠyÃłqu": 5691,
      "ĠfÃ«": 5692,
      "Ġfine": 5693,
      "ĠfÃ«gg": 5694,
      "Ġfaatu": 5695,
      "Ġfiss": 5696,
      "Ġfilles": 5697,
      "Ġfoog": 5698,
      "Ġfaite": 5699,
      "Ġfexe": 5700,
      "Ġfabri": 5701,
      "Ġfaim": 5702,
      "Ġfleurs": 5703,
      "erb": 5704,
      "erce": 5705,
      "erusi": 5706,
      "Ġjaa": 5707,
      "Ġjal": 5708,
      "ĠjÃ«n": 5709,
      "ĠjÃ©y": 5710,
      "Ġjokk": 5711,
      "Ġjomm": 5712,
      "Ġjulli": 5713,
      "Ġjaww": 5714,
      "quent": 5715,
      "quÃ©s": 5716,
      "alet": 5717,
      "alÃ©e": 5718,
      "alaient": 5719,
      "aliment": 5720,
      "arin": 5721,
      "arque": 5722,
      "arma": 5723,
      "arÃ£s": 5724,
      "arnÃ©e": 5725,
      "artal": 5726,
      "arla": 5727,
      "arcl": 5728,
      "arnaa": 5729,
      "Ã«re": 5730,
      "Ã«cce": 5731,
      "ams": 5732,
      "amas": 5733,
      "amps": 5734,
      "amants": 5735,
      "amtee": 5736,
      "Ġgir": 5737,
      "Ġgri": 5738,
      "Ġgay": 5739,
      "Ġgest": 5740,
      "Ġgang": 5741,
      "Ġgants": 5742,
      "Ġgeen": 5743,
      "Ġgeer": 5744,
      "ĠgÃ«l": 5745,
      "ĠgaaÃ±": 5746,
      "Ġgeste": 5747,
      "ĠgÃ«rÃ«m": 5748,
      "Ġlab": 5749,
      "Ġlac": 5750,
      "Ġlavait": 5751,
      "etrole": 5752,
      "Ġka": 5753,
      "Ġkat": 5754,
      "Ġkom": 5755,
      "Ġkaay": 5756,
      "Ġkaar": 5757,
      "Ġkers": 5758,
      "Ġkeneen": 5759,
      "Ġkaka": 5760,
      "Ġkaf": 5761,
      "Ġkomp": 5762,
      "Ġkere": 5763,
      "ĠkÃ«f": 5764,
      "Ġkeey": 5765,
      "ĠkaaÅĭ": 5766,
      "ĠkÃ«ri": 5767,
      "Ġwa": 5768,
      "ĠwÃł": 5769,
      "Ġwall": 5770,
      "Ġwaaw": 5771,
      "Ġween": 5772,
      "Ġwii": 5773,
      "ĠwaaÃ±": 5774,
      "Ġwallu": 5775,
      "ĠwÃłllu": 5776,
      "Ġwonni": 5777,
      "unÃ³or": 5778,
      "ungoo": 5779,
      "texte": 5780,
      "ini": 5781,
      "inÃ©s": 5782,
      "inois": 5783,
      "inage": 5784,
      "ingue": 5785,
      "isi": 5786,
      "isÃ©": 5787,
      "isol": 5788,
      "isÃ©s": 5789,
      "isse": 5790,
      "istique": 5791,
      "islam": 5792,
      "ispaÃ±seer": 5793,
      "entes": 5794,
      "entendre": 5795,
      "entraÃ®": 5796,
      "ĠcitÃ©s": 5797,
      "Ġcitad": 5798,
      "uram": 5799,
      "urant": 5800,
      "urde": 5801,
      "urne": 5802,
      "orom": 5803,
      "orti": 5804,
      "orig": 5805,
      "itÃ©e": 5806,
      "itage": 5807,
      "itation": 5808,
      "oone": 5809,
      "oons": 5810,
      "oonteek": 5811,
      "ĠrÃ¨": 5812,
      "Ġrus": 5813,
      "Ġray": 5814,
      "ĠrÃ«kk": 5815,
      "Ġrend": 5816,
      "Ġrav": 5817,
      "Ġrois": 5818,
      "ĠrÃłgg": 5819,
      "Ġrond": 5820,
      "Ġrue": 5821,
      "Ġrendre": 5822,
      "ĠrÃ©ere": 5823,
      "ĠrÃ´le": 5824,
      "Ġrendait": 5825,
      "Ġrangoo": 5826,
      "Ġraxe": 5827,
      "Ġratta": 5828,
      "Ġlell": 5829,
      "Ġlever": 5830,
      "kko": 5831,
      "kkan": 5832,
      "kkalee": 5833,
      "eej": 5834,
      "Ġmach": 5835,
      "ĠmaÃ®": 5836,
      "Ġmauri": 5837,
      "ĠmaÃ®t": 5838,
      "ĠÃłjj": 5839,
      "ĠÃłlle": 5840,
      "ĠÃłntu": 5841,
      "lection": 5842,
      "Ã¨tre": 5843,
      "Ã¨ve": 5844,
      "ĠÃ±Ã©": 5845,
      "ĠÃ±am": 5846,
      "ĠÃ±or": 5847,
      "ĠÃ±aan": 5848,
      "ĠÃ±ag": 5849,
      "ĠÃ±eek": 5850,
      "ĠÃ±all": 5851,
      "ĠÃ±Ãłng": 5852,
      "ĠÃ±aata": 5853,
      "ĠÃ±aare": 5854,
      "Ġxoo": 5855,
      "ĠxÃłn": 5856,
      "Ġxama": 5857,
      "Ġxub": 5858,
      "ĠxÃłll": 5859,
      "Ġxaaj": 5860,
      "Ġxalee": 5861,
      "Ġxull": 5862,
      "Ġxere": 5863,
      "Ġxoole": 5864,
      "ĠxeeÃ±": 5865,
      "ĠxÃłjj": 5866,
      "Ġxumb": 5867,
      "Ġxocc": 5868,
      "Ġxosi": 5869,
      "Ġxorom": 5870,
      "Ġxeej": 5871,
      "ira": 5872,
      "iris": 5873,
      "irmiÃ¨re": 5874,
      "Ġve": 5875,
      "Ġvir": 5876,
      "Ġvais": 5877,
      "Ġvont": 5878,
      "Ġvend": 5879,
      "ĠvÃ©n": 5880,
      "Ġverre": 5881,
      "Ġvaut": 5882,
      "ĠvÃ©g": 5883,
      "Ġvotre": 5884,
      "Ġvites": 5885,
      "ĠvoÃ»": 5886,
      "Ġvoient": 5887,
      "Ġvoil": 5888,
      "ppus": 5889,
      "ppati": 5890,
      "ato": 5891,
      "ates": 5892,
      "ournal": 5893,
      "Ġmusique": 5894,
      "Ġnib": 5895,
      "Ġnig": 5896,
      "ĠniÃ±": 5897,
      "Ġnite": 5898,
      "Ġnids": 5899,
      "Ġdesoon": 5900,
      "Ġdestru": 5901,
      "rie": 5902,
      "rim": 5903,
      "rire": 5904,
      "asin": 5905,
      "asis": 5906,
      "asard": 5907,
      "ulc": 5908,
      "ulu": 5909,
      "uloo": 5910,
      "ultat": 5911,
      "ulmans": 5912,
      "Ġdiw": 5913,
      "Ġdieu": 5914,
      "Ġdigal": 5915,
      "Ġdieux": 5916,
      "Ġdimens": 5917,
      "Ġdikkal": 5918,
      "Ġdimanche": 5919,
      "Ġdiamants": 5920,
      "ome": 5921,
      "Ġsey": 5922,
      "Ġsept": 5923,
      "Ġseins": 5924,
      "Ġseuil": 5925,
      "aayd": 5926,
      "Ġkos": 5927,
      "ĠkoÅĪ": 5928,
      "ĠkoÅĭÅĭ": 5929,
      "Ġbag": 5930,
      "Ġbav": 5931,
      "Ġbakkan": 5932,
      "agit": 5933,
      "agrÃ©": 5934,
      "aguma": 5935,
      "ĠenlÃ¨": 5936,
      "ĠengagÃ©": 5937,
      "Ġunis": 5938,
      "Ġuniqu": 5939,
      "ĠBen": 5940,
      "ĠBÃł": 5941,
      "ĠBoy": 5942,
      "ĠBali": 5943,
      "ĠBooy": 5944,
      "ĠBak": 5945,
      "ĠBok": 5946,
      "ĠBro": 5947,
      "ĠBokk": 5948,
      "ĠBaali": 5949,
      "ĠBritish": 5950,
      "ĠBlancs": 5951,
      "ĠBarcl": 5952,
      "ĠduÅĭÅĭ": 5953,
      "ĠduÃ±uy": 5954,
      "usaan": 5955,
      "uscul": 5956,
      "uston": 5957,
      "ĠbiÃ±": 5958,
      "Ġbidd": 5959,
      "Ġbivou": 5960,
      "ĠAs": 5961,
      "ĠAcc": 5962,
      "ĠAnd": 5963,
      "ĠAprÃ¨s": 5964,
      "ĠAna": 5965,
      "Ġtegg": 5966,
      "Ġteers": 5967,
      "Ġteeri": 5968,
      "Ġteerusi": 5969,
      "Ġteppati": 5970,
      "ĠyiÃ±": 5971,
      "aises": 5972,
      "Ġnewul": 5973,
      "Ġnemm": 5974,
      "Ã©tÃ©r": 5975,
      "Ã©tation": 5976,
      "Ã©tique": 5977,
      "Ã©tendait": 5978,
      "Ġngone": 5979,
      "Ġngunu": 5980,
      "Ġngoog": 5981,
      "Ġngato": 5982,
      "ggu": 5983,
      "ggante": 5984,
      "Ã³f": 5985,
      "meub": 5986,
      "Ġnaju": 5987,
      "Ġnabit": 5988,
      "old": 5989,
      "oles": 5990,
      "olir": 5991,
      "olog": 5992,
      "olÃ³ol": 5993,
      "ĠMis": 5994,
      "ĠMem": 5995,
      "ĠMÃłkk": 5996,
      "ĠMook": 5997,
      "ĠMii": 5998,
      "ĠMÃłr": 5999,
      "ĠMiin": 6000,
      "dex": 6001,
      "deurs": 6002,
      "deaux": 6003,
      "dehors": 6004,
      "defon": 6005,
      "Ã©sus": 6006,
      "Ġparv": 6007,
      "Ġparas": 6008,
      "Ġparap": 6009,
      "Ġparcours": 6010,
      "Ġparpain": 6011,
      "Ġrect": 6012,
      "Ġrecher": 6013,
      "Ġreelu": 6014,
      "Ġreew": 6015,
      "Ġrewle": 6016,
      "aud": 6017,
      "auf": 6018,
      "aucun": 6019,
      "Ġavent": 6020,
      "Ġaveu": 6021,
      "Ġluci": 6022,
      "Ġlutte": 6023,
      "oussi": 6024,
      "chir": 6025,
      "chem": 6026,
      "emis": 6027,
      "lule": 6028,
      "luait": 6029,
      "luies": 6030,
      "lutÃ´t": 6031,
      "ĠNa": 6032,
      "ĠNekk": 6033,
      "ĠNord": 6034,
      "ĠNow": 6035,
      "ĠNettali": 6036,
      "ĠNÃ©egu": 6037,
      "ĠNoÃ«l": 6038,
      "ĠNsung": 6039,
      "Ġbut": 6040,
      "Ġcho": 6041,
      "Ġchu": 6042,
      "Ġchois": 6043,
      "Ġchamp": 6044,
      "Ġchoix": 6045,
      "Ġchien": 6046,
      "Ġchute": 6047,
      "ĠchrÃ©t": 6048,
      "Ġchatte": 6049,
      "ĠchÃ¢teaux": 6050,
      "amaÅĭ": 6051,
      "amawaa": 6052,
      "amakus": 6053,
      "abres": 6054,
      "osÃ©e": 6055,
      "osse": 6056,
      "ossib": 6057,
      "ennemi": 6058,
      "ĠLÃ©": 6059,
      "ĠLan": 6060,
      "ĠLÃł": 6061,
      "ĠLiy": 6062,
      "ĠLekk": 6063,
      "ĠLuy": 6064,
      "ĠLug": 6065,
      "ĠLuw": 6066,
      "ĠLloy": 6067,
      "die": 6068,
      "diale": 6069,
      "Ġsuff": 6070,
      "Ġsuper": 6071,
      "Ġsuuk": 6072,
      "Ġsummi": 6073,
      "Ġillus": 6074,
      "Ġlig": 6075,
      "Ġliw": 6076,
      "Ġlijj": 6077,
      "Ġliise": 6078,
      "Ġlimite": 6079,
      "Ġfavor": 6080,
      "Ġfacile": 6081,
      "Ġmondiale": 6082,
      "tie": 6083,
      "tiens": 6084,
      "tigation": 6085,
      "Ġpasse": 6086,
      "Ġcapt": 6087,
      "ĠcachÃ©": 6088,
      "Ġcachais": 6089,
      "Ġcadeaux": 6090,
      "ĠdÃ©l": 6091,
      "ĠdÃ©lic": 6092,
      "ĠdÃ©vor": 6093,
      "ĠdÃ©bord": 6094,
      "ĠdÃ©nk": 6095,
      "ĠDur": 6096,
      "ĠDion": 6097,
      "ĠDaw": 6098,
      "ĠDara": 6099,
      "ĠDuw": 6100,
      "ĠDog": 6101,
      "ĠDanoo": 6102,
      "ĠDispaÃ±seer": 6103,
      "Ġhur": 6104,
      "Ġhim": 6105,
      "Ġhaine": 6106,
      "Ġhori": 6107,
      "Ġhere": 6108,
      "ĠhÃ¢te": 6109,
      "Ġhaous": 6110,
      "Ġherbe": 6111,
      "Ġheat": 6112,
      "Ġhasard": 6113,
      "ĠSc": 6114,
      "ĠSopp": 6115,
      "ĠSeet": 6116,
      "ĠSung": 6117,
      "ĠSener": 6118,
      "ĠSamay": 6119,
      "ĠSmall": 6120,
      "ĠSams": 6121,
      "awm": 6122,
      "awu": 6123,
      "awoo": 6124,
      "awnpore": 6125,
      "Åĭuni": 6126,
      "umes": 6127,
      "umul": 6128,
      "umand": 6129,
      "umaal": 6130,
      "Ġguid": 6131,
      "ima": 6132,
      "imu": 6133,
      "imat": 6134,
      "otÃ©": 6135,
      "otes": 6136,
      "otonou": 6137,
      "outait": 6138,
      "Ġmbax": 6139,
      "Ġmbaar": 6140,
      "Ġmbaam": 6141,
      "ĠmbÃ«gg": 6142,
      "ĠmbaÃ±": 6143,
      "Ġmburu": 6144,
      "ĠmbÃłjj": 6145,
      "Ġmbartal": 6146,
      "ĠTam": 6147,
      "ĠTÃ©ere": 6148,
      "ĠTart": 6149,
      "Ġtrou": 6150,
      "Ġtromp": 6151,
      "Ġtristes": 6152,
      "Ġtrott": 6153,
      "ddinay": 6154,
      "oxor": 6155,
      "andonn": 6156,
      "andue": 6157,
      "andiss": 6158,
      "ĠKo": 6159,
      "ĠKaka": 6160,
      "ĠKanam": 6161,
      "ĠKÃłdd": 6162,
      "ĠKantu": 6163,
      "ĠKilif": 6164,
      "ĠKentu": 6165,
      "ĠKwaj": 6166,
      "ĠKenya": 6167,
      "ĠKiris": 6168,
      "ĠKamakus": 6169,
      "Ġsurg": 6170,
      "ĠÃ©tage": 6171,
      "ĠÃ©toile": 6172,
      "ĠÃ´": 6173,
      "ĠÃī": 6174,
      "ĠÃ®le": 6175,
      "ĠÃĭsen": 6176,
      "Ġdooni": 6177,
      "Ġdoonoon": 6178,
      "Ġdoonul": 6179,
      "aincre": 6180,
      "Ġoreilles": 6181,
      "Ġodeurs": 6182,
      "Ġpli": 6183,
      "Ġplant": 6184,
      "iez": 6185,
      "ieur": 6186,
      "Ġdate": 6187,
      "Ġdaju": 6188,
      "ĠprÃ©t": 6189,
      "Ġpros": 6190,
      "Ġproj": 6191,
      "Ġprendre": 6192,
      "ĠprÃ©par": 6193,
      "Ġproue": 6194,
      "endes": 6195,
      "endus": 6196,
      "endroit": 6197,
      "gub": 6198,
      "guÃ©s": 6199,
      "ĠCo": 6200,
      "ĠCet": 6201,
      "ĠCoon": 6202,
      "ĠCamer": 6203,
      "ĠCorp": 6204,
      "ĠCong": 6205,
      "ĠCawnpore": 6206,
      "ĠCotonou": 6207,
      "aatle": 6208,
      "Ġmienne": 6209,
      "Ġmigr": 6210,
      "ĠFan": 6211,
      "ĠFÃ©pp": 6212,
      "ĠFoor": 6213,
      "ĠFarm": 6214,
      "ĠFung": 6215,
      "ĠFumba": 6216,
      "ĠFaraÃ±se": 6217,
      "ĠFÃłttaliku": 6218,
      "ĠFarÃ£s": 6219,
      "Ġayant": 6220,
      "ÅĪoÅĭ": 6221,
      "ÅĪetti": 6222,
      "Ġinacc": 6223,
      "Ġinjec": 6224,
      "aalaa": 6225,
      "aalee": 6226,
      "oyait": 6227,
      "oyce": 6228,
      "Ġsipp": 6229,
      "Ġsiens": 6230,
      "Ġsign": 6231,
      "Ġsippi": 6232,
      "ĠsiÃ¨cle": 6233,
      "ensÃ©es": 6234,
      "alikook": 6235,
      "ffant": 6236,
      "ffÃ©es": 6237,
      "avons": 6238,
      "avanc": 6239,
      "Ġndoorteelu": 6240,
      "ĠndÃ©wÃ©n": 6241,
      "orts": 6242,
      "ortait": 6243,
      "ortir": 6244,
      "ortÃ©s": 6245,
      "ortance": 6246,
      "ubl": 6247,
      "ĠWax": 6248,
      "ĠWÃ©et": 6249,
      "ĠWap": 6250,
      "ĠWute": 6251,
      "ccÃ«g": 6252,
      "ttes": 6253,
      "tter": 6254,
      "Ġibo": 6255,
      "galeek": 6256,
      "iller": 6257,
      "illÃ©es": 6258,
      "illons": 6259,
      "ĠÃ©m": 6260,
      "Ġdemande": 6261,
      "ments": 6262,
      "ĠOu": 6263,
      "ĠOnits": 6264,
      "Ã©nements": 6265,
      "ĠdÃ«kkoo": 6266,
      "ĠdÃ«kkandoo": 6267,
      "onnu": 6268,
      "onnÃ©": 6269,
      "onnÃ©e": 6270,
      "onniers": 6271,
      "Ġgrouill": 6272,
      "seen": 6273,
      "ĠGis": 6274,
      "ĠGÃ©n": 6275,
      "ĠGue": 6276,
      "ĠGÃ«m": 6277,
      "ĠGanaa": 6278,
      "ĠGÃ©ej": 6279,
      "ĠGener": 6280,
      "ĠGhan": 6281,
      "ĠGly": 6282,
      "ĠGesam": 6283,
      "ĠGunÃ³or": 6284,
      "ĠmÃ«noo": 6285,
      "ĠmÃ«nal": 6286,
      "ĠmÃ«nut": 6287,
      "ĠmÃ«numa": 6288,
      "Ãłkkamti": 6289,
      "exemp": 6290,
      "exercer": 6291,
      "exerce": 6292,
      "alles": 6293,
      "Ã³oru": 6294,
      "ciale": 6295,
      "Ġant": 6296,
      "Ġanam": 6297,
      "ĠannÃ©e": 6298,
      "Ġantip": 6299,
      "Ġwaxantee": 6300,
      "angan": 6301,
      "Ġdefoon": 6302,
      "Ġdefee": 6303,
      "Ġdefare": 6304,
      "Ġdefanteek": 6305,
      "Ġmoomoo": 6306,
      "Ġmoomoon": 6307,
      "Ġmoomee": 6308,
      "Ġjuy": 6309,
      "Ġjupe": 6310,
      "Ġgiseek": 6311,
      "ĠbÃ«m": 6312,
      "ĠbÃ«ccÃ«g": 6313,
      "araÃ®tre": 6314,
      "Ġnja": 6315,
      "Ġnji": 6316,
      "Ġnjub": 6317,
      "Ġnjaax": 6318,
      "ĠnjÃłng": 6319,
      "Ġnjiit": 6320,
      "tume": 6321,
      "tuÃ±u": 6322,
      "Ã©rent": 6323,
      "Ã©rÃ©s": 6324,
      "ĠitinÃ©r": 6325,
      "Ġdalu": 6326,
      "Ġenferm": 6327,
      "Ġenfonc": 6328,
      "areg": 6329,
      "arer": 6330,
      "prits": 6331,
      "ĠJÃ©": 6332,
      "ĠJaay": 6333,
      "ĠJÃłpp": 6334,
      "ĠJafe": 6335,
      "ĠJÃłnge": 6336,
      "ĠJournal": 6337,
      "ĠJÃ©sus": 6338,
      "ĠJoyce": 6339,
      "mban": 6340,
      "mbÃ«t": 6341,
      "Ġbruy": 6342,
      "Ġbrut": 6343,
      "Ġbrume": 6344,
      "Ġbrandiss": 6345,
      "Ġjambe": 6346,
      "ives": 6347,
      "ivresse": 6348,
      "miÅĪoÅĭ": 6349,
      "Ġfui": 6350,
      "ĠfuÃ±": 6351,
      "Ġfuuy": 6352,
      "Ġfufu": 6353,
      "Ġmere": 6354,
      "ĠmeÅĪÅĪ": 6355,
      "Ġmedaay": 6356,
      "ĠrÃ©f": 6357,
      "ĠrÃ©elle": 6358,
      "ĠrÃ©du": 6359,
      "ĠrÃ©ccu": 6360,
      "ĠrÃ©veill": 6361,
      "ĠrÃ©cits": 6362,
      "ĠOgil": 6363,
      "ĠOgaar": 6364,
      "tÃ©en": 6365,
      "tÃ©el": 6366,
      "Ġsoin": 6367,
      "Ġsovi": 6368,
      "ĠÅĪax": 6369,
      "ĠÅĪeenti": 6370,
      "Ġtaxul": 6371,
      "Ġtaxumaa": 6372,
      "Ġart": 6373,
      "Ġarch": 6374,
      "ĠarmiÅĪoÅĭ": 6375,
      "Ġnekkinu": 6376,
      "Ã§oit": 6377,
      "Ġtukk": 6378,
      "ĠtuÃ©s": 6379,
      "Ġtuut": 6380,
      "Ġtukkee": 6381,
      "Ġtuuru": 6382,
      "Ġtuwaal": 6383,
      "Ġtuumaal": 6384,
      "rac": 6385,
      "raÅĭ": 6386,
      "ĠgÃ«naloon": 6387,
      "Ġwuyu": 6388,
      "Ġwujje": 6389,
      "Ġwuutu": 6390,
      "Ġwaru": 6391,
      "Ġwaraloon": 6392,
      "ĠmÃªlÃ©": 6393,
      "esses": 6394,
      "Ġmask": 6395,
      "Ġmasin": 6396,
      "Ġmasuma": 6397,
      "Ġmassac": 6398,
      "ĠÃĳi": 6399,
      "ĠÃĳÃ©pp": 6400,
      "ĠjÃ«w": 6401,
      "ĠjÃ«le": 6402,
      "ĠjÃ«li": 6403,
      "ĠjÃ«mbÃ«t": 6404,
      "atique": 6405,
      "ĠlÃłmb": 6406,
      "ĠlÃłbbe": 6407,
      "Ġcesse": 6408,
      "ndomb": 6409,
      "Ġatte": 6410,
      "amertume": 6411,
      "Ġrakk": 6412,
      "Ġraff": 6413,
      "Ġraciale": 6414,
      "Ġvieil": 6415,
      "Ġchacun": 6416,
      "Ġexpl": 6417,
      "Ġexcept": 6418,
      "Ġexercer": 6419,
      "Ġexistait": 6420,
      "Ġnations": 6421,
      "Ġnataalu": 6422,
      "Ġpaysage": 6423,
      "ĠPÃ«l": 6424,
      "ĠPeut": 6425,
      "ĠPetrole": 6426,
      "ĠPensÃ©es": 6427,
      "Ġmars": 6428,
      "Ġmarch": 6429,
      "ĠmarÃ©c": 6430,
      "Ġmarcher": 6431,
      "Ġmarches": 6432,
      "Ġmargouill": 6433,
      "Ã©cor": 6434,
      "Ã©cole": 6435,
      "ĠYoon": 6436,
      "ĠYenn": 6437,
      "ĠYÃłgg": 6438,
      "ĠYaali": 6439,
      "ĠYÃłkkamti": 6440,
      "Ġcry": 6441,
      "Ġcris": 6442,
      "Ġcrav": 6443,
      "Ġcrainte": 6444,
      "Ġcelles": 6445,
      "Ġcellule": 6446,
      "Ġmanque": 6447,
      "Ġmanches": 6448,
      "ĠmaniÃ¨res": 6449,
      "ĠmanquÃ©": 6450,
      "Ġmandib": 6451,
      "Ġfiiw": 6452,
      "Ġjiite": 6453,
      "Ġjikko": 6454,
      "ombrÃ©es": 6455,
      "Ġbiiri": 6456,
      "ĠSuw": 6457,
      "ĠSuÃ±": 6458,
      "ĠlÃ©ppam": 6459,
      "Ġsamag": 6460,
      "Ġviande": 6461,
      "Ġvicti": 6462,
      "Ġfruit": 6463,
      "Ġformant": 6464,
      "eeru": 6465,
      "Ġcolis": 6466,
      "Ġcollection": 6467,
      "ĠrÃ©ewam": 6468,
      "Ġmagie": 6469,
      "Ġmagasin": 6470,
      "ĠjournÃ©es": 6471,
      "Ġjournaux": 6472,
      "Ġtegee": 6473,
      "Ġtegtal": 6474,
      "Ġentend": 6475,
      "Ġentiers": 6476,
      "ĠentrÃ©e": 6477,
      "Ġentendue": 6478,
      "Ġentendait": 6479,
      "Ġentoure": 6480,
      "Ġauxquelles": 6481,
      "Ġlonku": 6482,
      "Ã¢tre": 6483,
      "Ġyooni": 6484,
      "Ġyoonu": 6485,
      "ĠcouchÃ©s": 6486,
      "Ġcorruption": 6487,
      "ĠÃĢll": 6488,
      "ĠÃĢnd": 6489,
      "ĠÃĢbb": 6490,
      "ĠÃĢddinay": 6491,
      "Ġimpr": 6492,
      "Ġimmeub": 6493,
      "Ġdexu": 6494,
      "Ġjusque": 6495,
      "Ġjustement": 6496,
      "Ġjustifi": 6497,
      "Ġjustice": 6498,
      "Ġrikk": 6499,
      "Ġriiri": 6500,
      "Ġrides": 6501,
      "Ġrideau": 6502,
      "ĠEend": 6503,
      "ĠEnu": 6504,
      "ĠEke": 6505,
      "ĠyÃ«goon": 6506,
      "erik": 6507,
      "Ã©emÃ©eri": 6508,
      "aissait": 6509,
      "adÃ©": 6510,
      "adaa": 6511,
      "adolesc": 6512,
      "adcast": 6513,
      "ĠmontÃ©e": 6514,
      "Ġserp": 6515,
      "Ġserais": 6516,
      "Ġseraient": 6517,
      "Ġseringue": 6518,
      "ĠfÃłÅĭÅĭ": 6519,
      "ĠfÃłttee": 6520,
      "ĠLiÃ±": 6521,
      "ĠLiggÃ©ey": 6522,
      "Ġpassant": 6523,
      "Ġpassion": 6524,
      "ĠpassÃ©es": 6525,
      "Ġpassionn": 6526,
      "bbi": 6527,
      "Ġabandonn": 6528,
      "Ġaskanam": 6529,
      "Ġastem": 6530,
      "ettaient": 6531,
      "ĠTuwaare": 6532,
      "obilis": 6533,
      "Ġsouvent": 6534,
      "Ġcarg": 6535,
      "Ġcarab": 6536,
      "Ġcaraxam": 6537,
      "ituÃ©": 6538,
      "ituer": 6539,
      "embler": 6540,
      "Ġtravaux": 6541,
      "ica": 6542,
      "mmee": 6543,
      "oko": 6544,
      "okos": 6545,
      "ĠRid": 6546,
      "Ġappr": 6547,
      "Ġappel": 6548,
      "ĠjigÃ©eni": 6549,
      "Ġseetsi": 6550,
      "orer": 6551,
      "Ġpeuvent": 6552,
      "ĠtÃ«w": 6553,
      "ĠjÃ³olÃ³ol": 6554,
      "ides": 6555,
      "idÃ©e": 6556,
      "iditÃ©": 6557,
      "indre": 6558,
      "ĠÃłddinaa": 6559,
      "ĠÃłndal": 6560,
      "ĠNiÃ±": 6561,
      "Laper": 6562,
      "roche": 6563,
      "Ġmala": 6564,
      "Ã©paisse": 6565,
      "Ġalaate": 6566,
      "Ġalalu": 6567,
      "Ġalmet": 6568,
      "Ġcasque": 6569,
      "Ġcastes": 6570,
      "Ġautoch": 6571,
      "Ġgarabu": 6572,
      "Ġyooyoo": 6573,
      "Ġfeem": 6574,
      "Ġfeebari": 6575,
      "Ġxarat": 6576,
      "Ġxaritu": 6577,
      "Ġpartait": 6578,
      "Ġpartant": 6579,
      "nesil": 6580,
      "Ã®le": 6581,
      "Ã®tes": 6582,
      "Ġ1919": 6583,
      "Ġ1900": 6584,
      "ĠwÃ«raleek": 6585,
      "Ġencad": 6586,
      "Ġencerc": 6587,
      "ĠencombrÃ©es": 6588,
      "ĠlÃ©egi": 6589,
      "Ġneexoon": 6590,
      "Ġneexaan": 6591,
      "Ġsoupir": 6592,
      "andeer": 6593,
      "aria": 6594,
      "ĠdÃ©ggee": 6595,
      "ĠdÃ©ggaat": 6596,
      "Ġlaaf": 6597,
      "Ġposer": 6598,
      "Ġposent": 6599,
      "ĠposÃ©e": 6600,
      "ĠAmin": 6601,
      "Ġregret": 6602,
      "ĠdÃ©col": 6603,
      "Ġmbiram": 6604,
      "ĠÃ©cole": 6605,
      "Ġpalabres": 6606,
      "insectes": 6607,
      "instigation": 6608,
      "Ġvilles": 6609,
      "ĠparlÃ©": 6610,
      "Ġparlent": 6611,
      "Ġparlaient": 6612,
      "Ġdundale": 6613,
      "acÃ©": 6614,
      "acle": 6615,
      "accepter": 6616,
      "Ġnoonam": 6617,
      "Ġaccouch": 6618,
      "Ġconnus": 6619,
      "Ġconnue": 6620,
      "ĠconnaÃ®t": 6621,
      "Ġpuisque": 6622,
      "ĠbÃ«ggul": 6623,
      "ĠjÃ³geji": 6624,
      "ĠIdi": 6625,
      "ĠIbos": 6626,
      "ĠIbad": 6627,
      "ĠliggÃ©eye": 6628,
      "ĠliggÃ©eyal": 6629,
      "ĠliggÃ©eyam": 6630,
      "parti": 6631,
      "Ġdiscuss": 6632,
      "encer": 6633,
      "Ġfajar": 6634,
      "Ġproc": 6635,
      "ĠmÃ©decins": 6636,
      "miss": 6637,
      "uleen": 6638,
      "ĠcongÃ©s": 6639,
      "Ġperte": 6640,
      "ĠperoÅĭ": 6641,
      "Ġperdu": 6642,
      "Ġtiital": 6643,
      "Ġfanweeri": 6644,
      "Ġjotu": 6645,
      "Ġjotoon": 6646,
      "Ġjotaan": 6647,
      "Ġbarey": 6648,
      "Ã³omam": 6649,
      "Ġchefs": 6650,
      "Ġinsur": 6651,
      "Ġinsens": 6652,
      "Ġinsurg": 6653,
      "Ġinsouci": 6654,
      "Ġndawal": 6655,
      "ĠtraversÃ©": 6656,
      "appellent": 6657,
      "approche": 6658,
      "ĠHogg": 6659,
      "ĠHospital": 6660,
      "Ġcourt": 6661,
      "Ġcourants": 6662,
      "ĠcÃ´tiÃ¨re": 6663,
      "Ġpreu": 6664,
      "Ġderam": 6665,
      "ĠtÃłnkam": 6666,
      "Ġjaarale": 6667,
      "asses": 6668,
      "Ġdaje": 6669,
      "Ġdajul": 6670,
      "Ġdajeel": 6671,
      "Ġdajaloo": 6672,
      "ĠBamendaak": 6673,
      "atel": 6674,
      "atement": 6675,
      "uwaa": 6676,
      "Ġoncle": 6677,
      "Ġsoog": 6678,
      "Ġaussit": 6679,
      "Ġteewu": 6680,
      "Ġjoowu": 6681,
      "Ġxoll": 6682,
      "Ġxolu": 6683,
      "Ġxolub": 6684,
      "Ġautrefois": 6685,
      "ĠMbÃ©gte": 6686,
      "ĠNdox": 6687,
      "ĠNdoorteelu": 6688,
      "gnent": 6689,
      "gnÃ©s": 6690,
      "riture": 6691,
      "Ġdoul": 6692,
      "Ġdouces": 6693,
      "Ġconsac": 6694,
      "Ġconstr": 6695,
      "Ġconscience": 6696,
      "Ġconstate": 6697,
      "Ġvoyages": 6698,
      "Ġbienfait": 6699,
      "Ġpremiers": 6700,
      "oces": 6701,
      "ocÃ©an": 6702,
      "Ġlanati": 6703,
      "Ġlanuy": 6704,
      "ĠlanÃ§ait": 6705,
      "Ġtapis": 6706,
      "isses": 6707,
      "isson": 6708,
      "issait": 6709,
      "Ġrecul": 6710,
      "Ġrecouvert": 6711,
      "resses": 6712,
      "Ġsavait": 6713,
      "Ġsavate": 6714,
      "Ġcompos": 6715,
      "ĠcomplÃ¨": 6716,
      "Ġcomplets": 6717,
      "Ġregardant": 6718,
      "Ã©bÃ¨ne": 6719,
      "Ġagents": 6720,
      "Ġagsee": 6721,
      "Ġagric": 6722,
      "Ġagrandis": 6723,
      "ĠbouffÃ©es": 6724,
      "Ġterres": 6725,
      "ĠjÃłnqu": 6726,
      "ĠrÃ«b": 6727,
      "Ġvisible": 6728,
      "ĠLeurs": 6729,
      "ĠLeica": 6730,
      "importe": 6731,
      "impact": 6732,
      "impossib": 6733,
      "ĠcommenÃ§ait": 6734,
      "Ġinstru": 6735,
      "Ġinstinc": 6736,
      "fficers": 6737,
      "Ġscalpel": 6738,
      "ĠallÃ©e": 6739,
      "Ġallaient": 6740,
      "Ġallions": 6741,
      "Ġpuud": 6742,
      "Ġdellus": 6743,
      "ailli": 6744,
      "ailler": 6745,
      "ĠrÃ©sist": 6746,
      "ĠrÃ©sultat": 6747,
      "Ġxalaate": 6748,
      "Ġvaches": 6749,
      "Ġvapeur": 6750,
      "Ġvivent": 6751,
      "Ġvivres": 6752,
      "Ġsembler": 6753,
      "ĠsemblÃ©": 6754,
      "Ġsemblables": 6755,
      "ĠforÃªts": 6756,
      "Ġcolonie": 6757,
      "ĠcoupÃ©": 6758,
      "ĠcoupÃ©e": 6759,
      "ĠcoupÃ©s": 6760,
      "biis": 6761,
      "fiance": 6762,
      "Ġniroo": 6763,
      "Ġnirool": 6764,
      "ĠnirÃ³ot": 6765,
      "Ġaurais": 6766,
      "Ġbanaana": 6767,
      "Ġyemul": 6768,
      "Ġfaisant": 6769,
      "Ġfaisions": 6770,
      "itiÃ©": 6771,
      "ĠjÃ«lsi": 6772,
      "Ġservait": 6773,
      "Ġservant": 6774,
      "Ġservaient": 6775,
      "ĠbÃłyyeeku": 6776,
      "ĠbÃłyyima": 6777,
      "Åĵu": 6778,
      "ĠdÃ©sord": 6779,
      "Ã©der": 6780,
      "espoir": 6781,
      "Ġnoires": 6782,
      "Ġpij": 6783,
      "Ġpicc": 6784,
      "Ġjaayante": 6785,
      "ĠjoxoÃ±": 6786,
      "ĠÃ±Ãłkke": 6787,
      "Ġverser": 6788,
      "Ġbayaal": 6789,
      "ĠdÃ©ging": 6790,
      "ĠDaÅĪu": 6791,
      "Ġhabitu": 6792,
      "ĠhabillÃ©s": 6793,
      "Ġguddig": 6794,
      "Enfin": 6795,
      "Pourquoi": 6796,
      "ĠsÃ©v": 6797,
      "ĠsÃ©jour": 6798,
      "Ġsauf": 6799,
      "enferme": 6800,
      "Ġbloc": 6801,
      "Ġtoucher": 6802,
      "ĠtouchÃ©": 6803,
      "Ġweexul": 6804,
      "Ġsecrets": 6805,
      "ĠsecrÃ¨te": 6806,
      "Ġtaxawaay": 6807,
      "Ġempl": 6808,
      "Ġempes": 6809,
      "ĠempÃª": 6810,
      "Ġemploy": 6811,
      "Ġemphase": 6812,
      "Ġempoussi": 6813,
      "Ġadmir": 6814,
      "Ġadolesc": 6815,
      "ĠtÃłmbali": 6816,
      "Ġyeey": 6817,
      "Ġfaagaa": 6818,
      "Ġwetam": 6819,
      "ormais": 6820,
      "Ġdirection": 6821,
      "Ġrevenu": 6822,
      "Ġrevient": 6823,
      "Ġarrivent": 6824,
      "Ġarrivait": 6825,
      "Ġarrivant": 6826,
      "Ġarrivaient": 6827,
      "Ġimportance": 6828,
      "Ġsouffert": 6829,
      "Ġsoufflet": 6830,
      "Ġsoufflait": 6831,
      "Ġsouffrent": 6832,
      "Ġchevaux": 6833,
      "Ġvoyageur": 6834,
      "ĠgunÃ³ori": 6835,
      "lerie": 6836,
      "ĠÅĭun": 6837,
      "ĠÅĭaaÅĭ": 6838,
      "Ġdana": 6839,
      "ĠdÃ«mm": 6840,
      "ĠdÃ«ddu": 6841,
      "ĠdonnÃ©": 6842,
      "Ġnouvelle": 6843,
      "Ġnouveaux": 6844,
      "ĠtournÃ©e": 6845,
      "Ġyewwi": 6846,
      "ĠjÃłngale": 6847,
      "ĠÃłggee": 6848,
      "ĠBuÃ±": 6849,
      "autrefois": 6850,
      "ĠKup": 6851,
      "Ġobst": 6852,
      "Ġsoree": 6853,
      "Ġsorewul": 6854,
      "Ġtuddoon": 6855,
      "Ġwutale": 6856,
      "Ġwutali": 6857,
      "kanamu": 6858,
      "Ġdinan": 6859,
      "Ġdinay": 6860,
      "Ġdistances": 6861,
      "Ġlaajee": 6862,
      "Ġpense": 6863,
      "Ġflot": 6864,
      "Ġflamb": 6865,
      "Ġventres": 6866,
      "ĠNgom": 6867,
      "ĠNgelaw": 6868,
      "ĠNgonk": 6869,
      "Ġguddee": 6870,
      "ĠrÃ©pandue": 6871,
      "Ġarbre": 6872,
      "parts": 6873,
      "Ġtakku": 6874,
      "Ġtakkarnaa": 6875,
      "Ġtakkandeer": 6876,
      "gisam": 6877,
      "Ã©rience": 6878,
      "Ġaime": 6879,
      "Ġturbul": 6880,
      "ĠtÃłkkusaan": 6881,
      "ootul": 6882,
      "ercÃ©": 6883,
      "Ġjouaient": 6884,
      "Ġjafal": 6885,
      "Ã«su": 6886,
      "Ġleeroon": 6887,
      "Ã¨gre": 6888,
      "Ġxawma": 6889,
      "Ġvraie": 6890,
      "ĠvÃ©cue": 6891,
      "ĠbaÃ±oon": 6892,
      "Ġremparts": 6893,
      "imaginer": 6894,
      "ĠÃ©trange": 6895,
      "ĠzÃ©b": 6896,
      "Ġcampements": 6897,
      "Ġbindoo": 6898,
      "Ġyitte": 6899,
      "arges": 6900,
      "Ġgarden": 6901,
      "Ġgardait": 6902,
      "ĠgardÃ©e": 6903,
      "Ġkilot": 6904,
      "ĠÃ±aq": 6905,
      "Ġvenaient": 6906,
      "Ġvoisins": 6907,
      "Ġvoisinage": 6908,
      "ĠAboÅĭ": 6909,
      "Ġnews": 6910,
      "ĠManul": 6911,
      "ĠdÃ©pay": 6912,
      "ĠdÃ©passÃ©": 6913,
      "endues": 6914,
      "Ġdefaraat": 6915,
      "ĠmÃ©dical": 6916,
      "ĠmÃ©dicale": 6917,
      "ĠmÃłggetloo": 6918,
      "tones": 6919,
      "Ġeffet": 6920,
      "ĠdÃ©test": 6921,
      "ĠdÃ©termin": 6922,
      "ĠdÃ©truire": 6923,
      "Ġdoyal": 6924,
      "ĠlaissÃ©": 6925,
      "ĠlaissÃ©es": 6926,
      "ĠlÃ©gende": 6927,
      "ĠlÃ©gendes": 6928,
      "Ġmaandu": 6929,
      "Ġsaisir": 6930,
      "Ġsaisons": 6931,
      "Ġsensation": 6932,
      "Ġaffaires": 6933,
      "Ġattir": 6934,
      "Ġattendre": 6935,
      "Ġcoh": 6936,
      "Ġbaagante": 6937,
      "Ġtundi": 6938,
      "Ġtabe": 6939,
      "Ġtabure": 6940,
      "Ġtabourets": 6941,
      "ailleurs": 6942,
      "ĠjÃ«kkÃ«r": 6943,
      "ĠweÅĪ": 6944,
      "Ġxoolee": 6945,
      "Ġvolont": 6946,
      "Ġrefl": 6947,
      "Ġrefaire": 6948,
      "Ġdelloosi": 6949,
      "ĠirrÃ©": 6950,
      "Ġirokos": 6951,
      "ĠmÃ©tal": 6952,
      "ĠmÃ©tall": 6953,
      "Ġnoppalu": 6954,
      "Ġsangoo": 6955,
      "Ġsangles": 6956,
      "Ġsoirs": 6957,
      "Ġactive": 6958,
      "Ġtaliy": 6959,
      "Ġfoufou": 6960,
      "Ġfeesal": 6961,
      "Ġbateaux": 6962,
      "ionnel": 6963,
      "Ġrelations": 6964,
      "ĠdÃ©fil": 6965,
      "ĠdÃ©form": 6966,
      "ĠdÃ©fense": 6967,
      "Ġhumains": 6968,
      "Ġhumide": 6969,
      "igname": 6970,
      "ĠJames": 6971,
      "Ġfroide": 6972,
      "Ġfrappait": 6973,
      "Ġfrappant": 6974,
      "pling": 6975,
      "ĠlittÃ©r": 6976,
      "Ġmuraille": 6977,
      "Ġmurailles": 6978,
      "ĠnÃ«b": 6979,
      "ĠsÃłnq": 6980,
      "onteel": 6981,
      "Ġclasse": 6982,
      "Ġclamps": 6983,
      "Ġclimat": 6984,
      "Ġbataille": 6985,
      "Ġperman": 6986,
      "Ġpermangan": 6987,
      "ails": 6988,
      "ĠyÃ«kkatiy": 6989,
      "Ġyilifoon": 6990,
      "ĠfÃ©exlu": 6991,
      "Ġkayitam": 6992,
      "Ġquitt": 6993,
      "ĠÃ±eenti": 6994,
      "ĠMarie": 6995,
      "ĠMasur": 6996,
      "ĠMasul": 6997,
      "ĠMasuma": 6998,
      "Ġrejet": 6999,
      "Ġretrouv": 7000,
      "ĠNataalu": 7001,
      "Ġsukkandikoo": 7002,
      "Ġsafaan": 7003,
      "Ġsafara": 7004,
      "Ġplateau": 7005,
      "ĠprÃ©cis": 7006,
      "Ġinconnu": 7007,
      "Ġindiens": 7008,
      "ĠinterprÃ¨te": 7009,
      "Ġinterdit": 7010,
      "ĠÃ©change": 7011,
      "ĠaccrochÃ©": 7012,
      "ĠaccrochÃ©es": 7013,
      "Ġaccrochent": 7014,
      "Ġyeggee": 7015,
      "ĠkilomÃ¨tre": 7016,
      "aurais": 7017,
      "humour": 7018,
      "humiditÃ©": 7019,
      "Ġsell": 7020,
      "Ġpeggu": 7021,
      "Ġpleine": 7022,
      "Ġthe": 7023,
      "ĠtÃłbbal": 7024,
      "ĠtÃłmme": 7025,
      "ĠtawfÃ©ex": 7026,
      "Ġfitn": 7027,
      "Ġjubb": 7028,
      "Ġjubale": 7029,
      "ĠgÃ«dd": 7030,
      "ĠgÃ«jee": 7031,
      "Ġkawari": 7032,
      "Ġcirc": 7033,
      "ĠcirÃ©es": 7034,
      "Ġcircul": 7035,
      "Ġcircule": 7036,
      "ĠrestÃ©s": 7037,
      "ÅĭÅĭati": 7038,
      "ĠKÃ«ru": 7039,
      "ĠKÃ«ram": 7040,
      "Ġgiifal": 7041,
      "Ġanciennes": 7042,
      "ĠrÃ©gul": 7043,
      "ĠrÃ©gions": 7044,
      "ĠarmÃ©": 7045,
      "ĠarmÃ©s": 7046,
      "Ġwutewul": 7047,
      "Ġdevenait": 7048,
      "Ġdevenue": 7049,
      "ĠjÃ«fandi": 7050,
      "ĠassommÃ©": 7051,
      "Ġressemble": 7052,
      "Ġressembler": 7053,
      "Ġpalanteeram": 7054,
      "Ġaccompagne": 7055,
      "Ġconfront": 7056,
      "ktails": 7057,
      "Ġdaagoo": 7058,
      "Ġdaawul": 7059,
      "Ġlarmes": 7060,
      "Ġnaissent": 7061,
      "Ġsorcel": 7062,
      "Ġsource": 7063,
      "Ġsourcils": 7064,
      "Ġsimples": 7065,
      "ĠaimÃ©": 7066,
      "Ġaimait": 7067,
      "Ġboyeti": 7068,
      "Ġpoules": 7069,
      "Ġpoudre": 7070,
      "Ġjaxasook": 7071,
      "ĠkÃłttanu": 7072,
      "Ġwoyantu": 7073,
      "incelle": 7074,
      "ĠrÃ¨gne": 7075,
      "Ġrencontre": 7076,
      "ĠrencontrÃ©": 7077,
      "ĠdestinÃ©s": 7078,
      "Ġdifficul": 7079,
      "ĠNjoy": 7080,
      "ĠNjort": 7081,
      "Ġsuivait": 7082,
      "Ġsuivant": 7083,
      "ĠSunuy": 7084,
      "Ġmbindaan": 7085,
      "Ġinflex": 7086,
      "Ġinfirmiers": 7087,
      "Ġinfranch": 7088,
      "ĠnjÃłmbal": 7089,
      "ĠnjÃłmburam": 7090,
      "ĠlÃłmpi": 7091,
      "ĠlÃłmpu": 7092,
      "Ġrappeler": 7093,
      "Ġsampu": 7094,
      "Ġcontrainte": 7095,
      "ĠÃ©clairs": 7096,
      "ĠÃ©couter": 7097,
      "Ġdernier": 7098,
      "ĠrÃ«bbi": 7099,
      "ĠrÃ«bbiy": 7100,
      "Ġgouvernements": 7101,
      "Ġdurant": 7102,
      "Ġdangay": 7103,
      "ĠdÃłqee": 7104,
      "Ġdogook": 7105,
      "ĠmenÃ©": 7106,
      "Ġmenace": 7107,
      "ĠmÃ©ngaleek": 7108,
      "Ġcannes": 7109,
      "Ġcamion": 7110,
      "Ġberk": 7111,
      "Ġberu": 7112,
      "Ġbergers": 7113,
      "ĠpÃ©nc": 7114,
      "ĠtÃłnku": 7115,
      "Ġtoje": 7116,
      "Ġtableau": 7117,
      "Ġfattu": 7118,
      "Ġfeyu": 7119,
      "ĠglacÃ©": 7120,
      "Ġrespons": 7121,
      "Ġrespect": 7122,
      "Ġenser": 7123,
      "Ġensuite": 7124,
      "Ġchangement": 7125,
      "ĠDieu": 7126,
      "ĠDiggante": 7127,
      "ĠhÃ©riss": 7128,
      "ĠhÃ©roÃ¯": 7129,
      "ĠhÃ©ritage": 7130,
      "ĠFekkoon": 7131,
      "Ġsiiwoon": 7132,
      "ĠÃ©lan": 7133,
      "ĠÃ©loignement": 7134,
      "ĠÃ©vid": 7135,
      "ĠÃ©voque": 7136,
      "ĠÃ©vÃ©nements": 7137,
      "ĠÃ©levÃ©s": 7138,
      "Ġdevenues": 7139,
      "Ġchapeau": 7140,
      "Ġexplication": 7141,
      "ĠYoroubas": 7142,
      "ĠgÃ©nÃ©ral": 7143,
      "Ġalkaati": 7144,
      "ĠcassÃ©": 7145,
      "Ġcassure": 7146,
      "Ġ1932": 7147,
      "Ġ1938": 7148,
      "Ġ1939": 7149,
      "ĠdÃ©corÃ©e": 7150,
      "ĠdÃ©corÃ©s": 7151,
      "ĠtÃłngaayam": 7152,
      "Ġloppitaan": 7153,
      "Parfois": 7154,
      "acieux": 7155,
      "ronter": 7156,
      "ĠÃ³tÃ³": 7157,
      "Ġlislaam": 7158,
      "Ġmiroirs": 7159,
      "Ã©quateur": 7160,
      "Ġcinquante": 7161,
      "Ġcentre": 7162,
      "Ġcentaines": 7163,
      "Ġcabine": 7164,
      "Ġbaaraam": 7165,
      "Ġbaaraamu": 7166,
      "Ġbaaraami": 7167,
      "Ġpattes": 7168,
      "Ġtreize": 7169,
      "Ġtata": 7170,
      "Ġtatay": 7171,
      "Ġtatawu": 7172,
      "Ġtaaxu": 7173,
      "ĠtÃłggat": 7174,
      "ĠtÃłggook": 7175,
      "ĠyÃłkkali": 7176,
      "ĠyÃłkkamtee": 7177,
      "Ġfirnde": 7178,
      "Ġfullaal": 7179,
      "Ã«ddu": 7180,
      "ĠwÃłccee": 7181,
      "ĠxÃ«ccoo": 7182,
      "Ġdigaal": 7183,
      "ĠNguu": 7184,
      "ĠNguur": 7185,
      "Ġchercher": 7186,
      "Ġmbooleem": 7187,
      "Ġtroupes": 7188,
      "Ġtroupeau": 7189,
      "Ġtroupeaux": 7190,
      "ĠKiku": 7191,
      "ĠKipli": 7192,
      "ĠKipling": 7193,
      "Ġcombatt": 7194,
      "existence": 7195,
      "ĠPortale": 7196,
      "ĠcruautÃ©": 7197,
      "Ġaskanu": 7198,
      "Ġ1940": 7199,
      "Ġ1960": 7200,
      "Ġtiitaange": 7201,
      "appartement": 7202,
      "Ġreconnu": 7203,
      "Ġreconnais": 7204,
      "ĠreconnaÃ®tre": 7205,
      "Ġterrain": 7206,
      "ĠjÃłnqi": 7207,
      "Ġcommencer": 7208,
      "ĠyÃ³bboo": 7209,
      "Ġubbil": 7210,
      "Ġadministrat": 7211,
      "ĠbrÃ»lantes": 7212,
      "Ġreligion": 7213,
      "Ġreligieux": 7214,
      "ĠguerriÃ¨res": 7215,
      "Ġvaguement": 7216,
      "Ġopeeree": 7217,
      "Ġopeerekat": 7218,
      "Christ": 7219,
      "heureux": 7220,
      "menÃ©": 7221,
      "Ġaadawoo": 7222,
      "ĠlÃ©z": 7223,
      "Ġlunk": 7224,
      "Ġlunettes": 7225,
      "Ġlampes": 7226,
      "Ġminuscul": 7227,
      "Ġnaroon": 7228,
      "Ġnourris": 7229,
      "Ġnourriture": 7230,
      "Ġsarwiis": 7231,
      "ĠsÃłppi": 7232,
      "ĠsÃłnneeku": 7233,
      "Ġboq": 7234,
      "ĠboÃ®tes": 7235,
      "Ġbalaa": 7236,
      "ĠbÃłnq": 7237,
      "Ġbleues": 7238,
      "Ġpenku": 7239,
      "Ġpenkub": 7240,
      "Ġpareille": 7241,
      "Ġpareils": 7242,
      "Ġyaatoo": 7243,
      "Ġyaatal": 7244,
      "Ġfolle": 7245,
      "Ġfolkl": 7246,
      "ĠfermÃ©e": 7247,
      "Ġjagleel": 7248,
      "ĠjÃłnkonteel": 7249,
      "arriver": 7250,
      "Ġgerte": 7251,
      "ĠkÃ³kkali": 7252,
      "ĠkÃ³kkalee": 7253,
      "ĠwÃ©etaay": 7254,
      "infirmiÃ¨re": 7255,
      "interro": 7256,
      "interprÃ¨te": 7257,
      "Ġcivile": 7258,
      "Ġcivilis": 7259,
      "Ġrabi": 7260,
      "ĠrÃłkkaaj": 7261,
      "Ġrituel": 7262,
      "Ġrituels": 7263,
      "Ġxiif": 7264,
      "Ġxiibon": 7265,
      "ĠxÃ«rÃ«mkat": 7266,
      "Ġvariole": 7267,
      "Ġnijaayam": 7268,
      "Ġennemi": 7269,
      "Ġennemis": 7270,
      "ĠBabungoo": 7271,
      "Ġparcouru": 7272,
      "Ġchantant": 7273,
      "Ġcafko": 7274,
      "ĠcausÃ©": 7275,
      "Ġcauser": 7276,
      "ouvrant": 7277,
      "Ġpratique": 7278,
      "avez": 7279,
      "Ġwaxtoom": 7280,
      "Ġwaxtaane": 7281,
      "Ġnjortoon": 7282,
      "Ġbroussailles": 7283,
      "Ġfutur": 7284,
      "Ġarrachait": 7285,
      "Ġexcluait": 7286,
      "Ġlointaine": 7287,
      "Ġdisparaissait": 7288,
      "Ġterrible": 7289,
      "ĠcommunautÃ©": 7290,
      "ĠrÃ©sidence": 7291,
      "ĠrÃ©sidents": 7292,
      "ĠÃ©trangers": 7293,
      "Ġganesi": 7294,
      "ĠÃ©chappÃ©": 7295,
      "ĠÃ©chapper": 7296,
      "Ġmoustiquaires": 7297,
      "ĠmÃ©ngale": 7298,
      "ĠYoruba": 7299,
      "ĠgÃłncaxu": 7300,
      "Ġbiafraise": 7301,
      "ĠnjÃłqareg": 7302,
      "jekkal": 7303,
      "kly": 7304,
      "taÅĪÅĪ": 7305,
      "tÃ³nu": 7306,
      "Ġesprits": 7307,
      "Ġoutre": 7308,
      "Ġoutils": 7309,
      "ĠeuropÃ©ens": 7310,
      "ĠeuropÃ©enne": 7311,
      "Ġdarab": 7312,
      "Ġdaraak": 7313,
      "ĠdÃłttu": 7314,
      "Ġdressaient": 7315,
      "ĠmystÃ©ri": 7316,
      "Ġsommets": 7317,
      "Ġcousu": 7318,
      "Ġcancrel": 7319,
      "Ġpoison": 7320,
      "Ġpapay": 7321,
      "Ġpapillons": 7322,
      "Ġtorches": 7323,
      "Ġyombul": 7324,
      "Ġfiltre": 7325,
      "ernel": 7326,
      "Ġjeeg": 7327,
      "Ġjaawale": 7328,
      "Ġjaaxal": 7329,
      "Ġjaaxle": 7330,
      "ĠjÃłmbat": 7331,
      "Ġgoyav": 7332,
      "Ġgoyave": 7333,
      "Ġwalbati": 7334,
      "Ġquinze": 7335,
      "Ġramener": 7336,
      "Ġrasu": 7337,
      "Ġrompre": 7338,
      "Ġronger": 7339,
      "ĠÃłttan": 7340,
      "ĠÃłttaaya": 7341,
      "Ġxultu": 7342,
      "Ġxotti": 7343,
      "Ġxottu": 7344,
      "Ġmusulmans": 7345,
      "Ġdescendre": 7346,
      "ulsion": 7347,
      "ĠdibÃ©er": 7348,
      "ĠBooba": 7349,
      "ĠBaterig": 7350,
      "ĠBaterik": 7351,
      "ĠBawop": 7352,
      "ĠBawob": 7353,
      "ĠBanyo": 7354,
      "ĠBanyook": 7355,
      "Ġnawetu": 7356,
      "Ġparfaitement": 7357,
      "ĠLondar": 7358,
      "ĠLondres": 7359,
      "ĠdÃ©molir": 7360,
      "Ġheureux": 7361,
      "Ġmbembe": 7362,
      "ĠmbembÃ©": 7363,
      "Ġtradit": 7364,
      "Ġoccidentaux": 7365,
      "ĠprÃ©parer": 7366,
      "ĠColonie": 7367,
      "Ġsiboon": 7368,
      "Ġsida": 7369,
      "Ġsidaa": 7370,
      "Ġnaawantu": 7371,
      "Ġanecdote": 7372,
      "ĠÅĪÃłkkum": 7373,
      "ĠXaley": 7374,
      "Ã©clat": 7375,
      "Ã©couterai": 7376,
      "Ġmanifest": 7377,
      "ĠimaginÃ©": 7378,
      "Africain": 7379,
      "Ġcontinuent": 7380,
      "Ġxaritoo": 7381,
      "Ġ1913": 7382,
      "Ġ1914": 7383,
      "ĠIjama": 7384,
      "ĠperÃ§ois": 7385,
      "ĠinspirÃ©": 7386,
      "ĠMbembe": 7387,
      "ĠMbembÃ©": 7388,
      "ĠrecommenÃ§ait": 7389,
      "Ġrecommencer": 7390,
      "Ġcompagnie": 7391,
      "Ġcompagnons": 7392,
      "Ġdangereux": 7393,
      "Ġtourbillon": 7394,
      "Ġtourbillonn": 7395,
      "Ġflamme": 7396,
      "Ġflammes": 7397,
      "Ġaiguille": 7398,
      "Ġnaqarlu": 7399,
      "Ġtransform": 7400,
      "Ġcertainement": 7401,
      "Ġrefusait": 7402,
      "Ġendurci": 7403,
      "Ġendurcis": 7404,
      "ĠmÃłndargay": 7405,
      "ĠreprÃ©sentent": 7406,
      "ĠDemerara": 7407,
      "ĠDemeraraa": 7408,
      "Ġdomestiques": 7409,
      "Ġlourdement": 7410,
      "ĠtrempÃ©e": 7411,
      "Ġextraordinairement": 7412,
      "Ġruisseau": 7413,
      "Ġruisseaux": 7414,
      "ĠtrapÃ¨ze": 7415,
      "ĠtrapÃ¨zes": 7416,
      "Ġprincipes": 7417,
      "Certains": 7418,
      "DÃ©jÃł": 7419,
      "Imitation": 7420,
      "MalgrÃ©": 7421,
      "bouille": 7422,
      "giÃ¨ne": 7423,
      "hygiÃ¨ne": 7424,
      "jaaram": 7425,
      "lacÃ©s": 7426,
      "otiques": 7427,
      "offrir": 7428,
      "wolu": 7429,
      "Ġemm": 7430,
      "Ġdraps": 7431,
      "Ġdocteur": 7432,
      "Ġmandat": 7433,
      "Ġmouvement": 7434,
      "ĠmÃłkkaani": 7435,
      "Ġmessieurs": 7436,
      "Ġsiraas": 7437,
      "Ġsusp": 7438,
      "Ġcaagin": 7439,
      "Ġcoutume": 7440,
      "ĠcoiffÃ©s": 7441,
      "Ġcallweer": 7442,
      "Ġbref": 7443,
      "Ġpelouse": 7444,
      "ĠpÃ³lit": 7445,
      "Ġpaaka": 7446,
      "ĠpÃ¢tes": 7447,
      "Ġtombu": 7448,
      "ĠtÃ«nk": 7449,
      "Ġtotale": 7450,
      "Ġtigi": 7451,
      "ĠtaillÃ©e": 7452,
      "Ġyombut": 7453,
      "ĠfÃ©sal": 7454,
      "Ġfaatoo": 7455,
      "ĠfigÃ©": 7456,
      "ercice": 7457,
      "Ġjeter": 7458,
      "Ġjaabante": 7459,
      "Ġjullit": 7460,
      "Ġgeestu": 7461,
      "ĠgÃ©ants": 7462,
      "Ġgilets": 7463,
      "ĠgouttiÃ¨re": 7464,
      "Ġgagner": 7465,
      "ĠgÃ«stu": 7466,
      "Ġwisit": 7467,
      "Ġwaaso": 7468,
      "ĠwÃ©eru": 7469,
      "Ġquartier": 7470,
      "ĠrÃłÅĭÅĭati": 7471,
      "Ġromans": 7472,
      "Ġrobes": 7473,
      "Ġlemu": 7474,
      "Ġmauvaise": 7475,
      "Ġxund": 7476,
      "ĠxÃ³ll": 7477,
      "ĠxÃłmbi": 7478,
      "Ġvertic": 7479,
      "ĠvÃªtu": 7480,
      "ĠvallÃ©e": 7481,
      "Ġdessine": 7482,
      "ĠdeseetuÃ±u": 7483,
      "ĠAgwu": 7484,
      "ĠAadamawaa": 7485,
      "Ġnavigu": 7486,
      "ĠMills": 7487,
      "Ġparadis": 7488,
      "Ġreetaan": 7489,
      "Ġrecevoir": 7490,
      "Ġretirer": 7491,
      "ĠNormÃłndi": 7492,
      "Ġchirurgien": 7493,
      "Ġfajukaay": 7494,
      "ĠdÃ©nudÃ©e": 7495,
      "ĠShell": 7496,
      "ĠSinuwaa": 7497,
      "ĠSaxaraa": 7498,
      "Ġmbalit": 7499,
      "ĠTouareg": 7500,
      "ĠTontu": 7501,
      "ĠTÃłngaay": 7502,
      "ĠtrÃ´nes": 7503,
      "Ġtraces": 7504,
      "ĠKÃ³tÃ³nu": 7505,
      "ĠKaburi": 7506,
      "ĠKÃłttan": 7507,
      "Ġsurvivre": 7508,
      "Ġplongeait": 7509,
      "Ġcompter": 7510,
      "ĠFoumban": 7511,
      "ĠinventÃ©": 7512,
      "Ġndaje": 7513,
      "Ġgratuite": 7514,
      "ĠnjariÃ±": 7515,
      "ĠJohn": 7516,
      "Ġbrindille": 7517,
      "Ġsowub": 7518,
      "Ġtuutee": 7519,
      "opÃ©ration": 7520,
      "ĠlÃłppto": 7521,
      "Ġmariage": 7522,
      "ĠcrÃ©puscule": 7523,
      "ĠgÃ©nÃ©reux": 7524,
      "Ġridicules": 7525,
      "Ġabsurde": 7526,
      "Ġcaravane": 7527,
      "Ġcarrossable": 7528,
      "Ġpeuples": 7529,
      "Ġautoritaire": 7530,
      "Ġportraits": 7531,
      "Ġ1954": 7532,
      "ĠdÃ©clar": 7533,
      "Ġperdue": 7534,
      "Ġnonchalante": 7535,
      "ĠconservÃ©": 7536,
      "Ġreconstruire": 7537,
      "Ġpikiir": 7538,
      "enfoncer": 7539,
      "Ġruuj": 7540,
      "ĠVoyage": 7541,
      "Ġadulte": 7542,
      "Ġimpeccablement": 7543,
      "Ġsouffrance": 7544,
      "installaient": 7545,
      "ĠyÃ«guÃ±u": 7546,
      "Ġremonter": 7547,
      "Ġpoings": 7548,
      "Ġeffectivement": 7549,
      "Ġeffrayant": 7550,
      "Ġaffluent": 7551,
      "ĠirÃ³ko": 7552,
      "Ġxiiroon": 7553,
      "Ġchauffeur": 7554,
      "Ġbataaxal": 7555,
      "Ġincapable": 7556,
      "Ġdispensaire": 7557,
      "Ġutilise": 7558,
      "Ġstatues": 7559,
      "Ġpolitique": 7560,
      "Ġpoliciers": 7561,
      "ĠFÃłttewuma": 7562,
      "Ġsignifiaient": 7563,
      "Ġprofondeur": 7564,
      "ĠÃ³fisey": 7565,
      "ĠGarabi": 7566,
      "Ġadministrateurs": 7567,
      "ĠJurÃ³omi": 7568,
      "ĠcaractÃ¨re": 7569,
      "ĠjÃłmbure": 7570,
      "Ġallumette": 7571,
      "ĠsÃ»rs": 7572,
      "Ġpessimisme": 7573,
      "Ġpopulation": 7574,
      "Ġfentaakon": 7575,
      "ĠroppÃ«laan": 7576,
      "Ġexcessive": 7577,
      "ĠfrÃ©quentaient": 7578,
      "Ġcaricaturale": 7579,
      "Bamend": 7580,
      "Ifite": 7581,
      "Longtemps": 7582,
      "dogu": 7583,
      "fitiiru": 7584,
      "hilippus": 7585,
      "jÃłngoro": 7586,
      "occidentale": 7587,
      "pÃ«ti": 7588,
      "yÃ«ngu": 7589,
      "zzam": 7590,
      "Ãītait": 7591,
      "ĠopposÃ©e": 7592,
      "Ġaakimu": 7593,
      "Ġessay": 7594,
      "Ġordres": 7595,
      "ĠÅĵufs": 7596,
      "Ġdortoirs": 7597,
      "Ġlaiton": 7598,
      "Ġlottal": 7599,
      "Ġlaaxira": 7600,
      "ĠlÃ©tharg": 7601,
      "ĠlÃ³oxÃ³or": 7602,
      "Ġmunie": 7603,
      "ĠmoitiÃ©": 7604,
      "Ġmorsures": 7605,
      "ĠsÃ«q": 7606,
      "Ġsiso": 7607,
      "Ġsombres": 7608,
      "Ġsinges": 7609,
      "ĠsÃ«ppu": 7610,
      "ĠcÃ©rÃ©m": 7611,
      "Ġcocktails": 7612,
      "ĠbaignÃ©s": 7613,
      "Ġbonnes": 7614,
      "Ġbekkoor": 7615,
      "Ġbaraag": 7616,
      "ĠpÃłpaaya": 7617,
      "Ġpentuur": 7618,
      "Ġporc": 7619,
      "Ġpatients": 7620,
      "Ġpidgin": 7621,
      "Ġpressent": 7622,
      "ĠpÃ©exu": 7623,
      "ĠpÃ©riode": 7624,
      "Ġpacifi": 7625,
      "Ġprickly": 7626,
      "Ġderetu": 7627,
      "Ġtitre": 7628,
      "Ġtonnerre": 7629,
      "Ġtaraapees": 7630,
      "Ġyendoo": 7631,
      "ĠyÃłllay": 7632,
      "ĠfÃ«lle": 7633,
      "ĠjÃ©yya": 7634,
      "Ġjokkook": 7635,
      "Ġjommal": 7636,
      "Ġgestes": 7637,
      "ĠgangrÃ¨ne": 7638,
      "Ġwallay": 7639,
      "origine": 7640,
      "ĠrÃ¨gnent": 7641,
      "Ġravins": 7642,
      "ĠrangooÃ±": 7643,
      "ĠmaÃ®tres": 7644,
      "ĠmaÃ®tresses": 7645,
      "Ġxamadi": 7646,
      "Ġxullee": 7647,
      "ĠxereÃ±": 7648,
      "Ġvautours": 7649,
      "ĠvÃ©gÃ©tation": 7650,
      "Ġvitesse": 7651,
      "ĠvoÃ»te": 7652,
      "Ġdimension": 7653,
      "agrÃ©ment": 7654,
      "Ġuniquement": 7655,
      "ĠBooyd": 7656,
      "ĠBroadcast": 7657,
      "ĠBarclay": 7658,
      "ĠAccra": 7659,
      "Ġteersi": 7660,
      "ologie": 7661,
      "ĠMemf": 7662,
      "ĠMÃłkkaanu": 7663,
      "defondi": 7664,
      "Ġparapluies": 7665,
      "Ġparpaing": 7666,
      "Ġrectil": 7667,
      "ĠNowel": 7668,
      "ĠNsungli": 7669,
      "Ġchoisi": 7670,
      "ĠchrÃ©tiens": 7671,
      "ĠLloyd": 7672,
      "Ġlijjanti": 7673,
      "Ġfavoris": 7674,
      "ĠdÃ©licatement": 7675,
      "ĠdÃ©vorant": 7676,
      "ĠDuwaalaa": 7677,
      "Ġhoriz": 7678,
      "Ġherbeuses": 7679,
      "ĠSeneraal": 7680,
      "ĠmbÃ«ggeel": 7681,
      "ĠmbaÃ±eel": 7682,
      "Ġtristesse": 7683,
      "ĠKÃłddu": 7684,
      "ĠKilifay": 7685,
      "ĠKwaja": 7686,
      "Ġprojet": 7687,
      "ĠCameroons": 7688,
      "ĠCorporation": 7689,
      "ĠCongo": 7690,
      "Ġmigraines": 7691,
      "ĠFungom": 7692,
      "ĠFumbaÅĭ": 7693,
      "ĠFÃłttalikuwuma": 7694,
      "Ġinaccessible": 7695,
      "avancÃ©e": 7696,
      "ĠndÃ©wÃ©nal": 7697,
      "ĠWÃ©etaay": 7698,
      "ĠWapiri": 7699,
      "ĠGuezzam": 7700,
      "ĠGeneral": 7701,
      "ĠGhana": 7702,
      "ĠGlynn": 7703,
      "ĠmÃ«nuta": 7704,
      "exemple": 7705,
      "Ġnjaaxum": 7706,
      "Ġnjiitlaay": 7707,
      "ĠitinÃ©rant": 7708,
      "ĠJÃłngewuma": 7709,
      "Ġwuyuji": 7710,
      "Ġmassacre": 7711,
      "ĠPetroleum": 7712,
      "ĠmarÃ©cages": 7713,
      "Ġmargouillats": 7714,
      "ĠYÃłkkamtiwuÃ±u": 7715,
      "Ġmandibules": 7716,
      "Ġvictimes": 7717,
      "Ġfruitiers": 7718,
      "ĠÃĢbbaa": 7719,
      "Ġimmeuble": 7720,
      "ĠEnugu": 7721,
      "Ġastemaak": 7722,
      "ĠTuwaareg": 7723,
      "Ã©paisseur": 7724,
      "Ġalaateret": 7725,
      "Ġautochtones": 7726,
      "Ġdiscussions": 7727,
      "ĠHoggar": 7728,
      "ĠaussitÃ´t": 7729,
      "ĠcomplÃ¨tement": 7730,
      "impossibilitÃ©": 7731,
      "Ġinstructions": 7732,
      "Ġpuudar": 7733,
      "ĠnirÃ³otuÃ±u": 7734,
      "enfermement": 7735,
      "ĠemployÃ©s": 7736,
      "ĠempoussiÃ©rÃ©s": 7737,
      "Ġadmirable": 7738,
      "Ġfaagaagal": 7739,
      "Ġtakkarnaase": 7740,
      "Ġclampser": 7741,
      "Ġsorcellerie": 7742,
      "Ġinflexible": 7743,
      "Ġinfranchiss": 7744,
      "ĠKipliÅĭ": 7745,
      "Ġminuscules": 7746,
      "ĠmystÃ©rieux": 7747,
      "Ġcancrelats": 7748,
      "Ġwalbatiku": 7749,
      "ĠBroadcasting": 7750,
      ".)": 7751,
      ".).": 7752,
      ".âĢĿ": 7753,
      "90": 7754,
      "Ah": 7755,
      "Aim": 7756,
      "Abb": 7757,
      "Aut": 7758,
      "Aba": 7759,
      "Allem": 7760,
      "Ahidjo": 7761,
      "Agade": 7762,
      "Bans": 7763,
      "Beau": 7764,
      "Bient": 7765,
      "Bouton": 7766,
      "Banqu": 7767,
      "Ceux": 7768,
      "Du": 7769,
      "DÃ©s": 7770,
      "Douala": 7771,
      "Durant": 7772,
      "Es": 7773,
      "Ele": 7774,
      "Ell": 7775,
      "Ermen": 7776,
      "Fr": 7777,
      "Fin": 7778,
      "Fais": 7779,
      "Face": 7780,
      "Gol": 7781,
      "GÃ³or": 7782,
      "Hommes": 7783,
      "Ill": 7784,
      "Ibos": 7785,
      "Kii": 7786,
      "Leur": 7787,
      "Lors": 7788,
      "Lui": 7789,
      "Maw": 7790,
      "Moin": 7791,
      "MÃªme": 7792,
      "Mah": 7793,
      "Oku": 7794,
      "Oju": 7795,
      "Oui": 7796,
      "Obudu": 7797,
      "Obukun": 7798,
      "Pis": 7799,
      "PlutÃ´t": 7800,
      "Philippus": 7801,
      "Rou": 7802,
      "Ruus": 7803,
      "Rencont": 7804,
      "Sou": 7805,
      "Sel": 7806,
      "Seu": 7807,
      "Sauf": 7808,
      "Tel": 7809,
      "Uru": 7810,
      "Vers": 7811,
      "Vingt": 7812,
      "YÃłll": 7813,
      "aul": 7814,
      "ach": 7815,
      "aÃ§": 7816,
      "acher": 7817,
      "bl": 7818,
      "bre": 7819,
      "bal": 7820,
      "bel": 7821,
      "bir": 7822,
      "bour": 7823,
      "bax": 7824,
      "bÃ©s": 7825,
      "baat": 7826,
      "bub": 7827,
      "book": 7828,
      "biy": 7829,
      "boute": 7830,
      "banu": 7831,
      "bins": 7832,
      "belles": 7833,
      "bets": 7834,
      "bÃłcc": 7835,
      "binu": 7836,
      "bÃ©rÃ©b": 7837,
      "bites": 7838,
      "blÃ©": 7839,
      "bÃ«t": 7840,
      "burg": 7841,
      "baree": 7842,
      "bÃłjj": 7843,
      "co": 7844,
      "cy": 7845,
      "cen": 7846,
      "con": 7847,
      "can": 7848,
      "cal": 7849,
      "cÃ©e": 7850,
      "cat": 7851,
      "cie": 7852,
      "cette": 7853,
      "cÃ¨s": 7854,
      "cÃ´": 7855,
      "cune": 7856,
      "cine": 7857,
      "cop": 7858,
      "cli": 7859,
      "cad": 7860,
      "cui": 7861,
      "core": 7862,
      "cut": 7863,
      "celles": 7864,
      "comme": 7865,
      "cade": 7866,
      "cteur": 7867,
      "clÃ©e": 7868,
      "cteurs": 7869,
      "cession": 7870,
      "coph": 7871,
      "carades": 7872,
      "crob": 7873,
      "cosse": 7874,
      "cÃ©der": 7875,
      "daa": 7876,
      "dou": 7877,
      "dis": 7878,
      "day": 7879,
      "dÃ©s": 7880,
      "dres": 7881,
      "dub": 7882,
      "deek": 7883,
      "dante": 7884,
      "dÃ©es": 7885,
      "dÃ©r": 7886,
      "ditÃ©": 7887,
      "deel": 7888,
      "dju": 7889,
      "dits": 7890,
      "drÃ©": 7891,
      "denc": 7892,
      "dÃłq": 7893,
      "dog": 7894,
      "donc": 7895,
      "drait": 7896,
      "dales": 7897,
      "doole": 7898,
      "deelu": 7899,
      "drat": 7900,
      "donnÃ©": 7901,
      "dacieux": 7902,
      "dÃ«ddu": 7903,
      "eÃ±": 7904,
      "egg": 7905,
      "eku": 7906,
      "eww": 7907,
      "eddi": 7908,
      "eign": 7909,
      "evi": 7910,
      "ewwi": 7911,
      "fe": 7912,
      "fo": 7913,
      "fÃ©": 7914,
      "fam": 7915,
      "ful": 7916,
      "fem": 7917,
      "feu": 7918,
      "fara": 7919,
      "fut": 7920,
      "fables": 7921,
      "ftin": 7922,
      "flus": 7923,
      "fect": 7924,
      "feelu": 7925,
      "forme": 7926,
      "forts": 7927,
      "gh": 7928,
      "gt": 7929,
      "gre": 7930,
      "ger": 7931,
      "gar": 7932,
      "gor": 7933,
      "gee": 7934,
      "gÃ¨": 7935,
      "gul": 7936,
      "goom": 7937,
      "gois": 7938,
      "gne": 7939,
      "gob": 7940,
      "ganu": 7941,
      "gantes": 7942,
      "guru": 7943,
      "grÃ©s": 7944,
      "goÃ¯": 7945,
      "grat": 7946,
      "ginnaaw": 7947,
      "guments": 7948,
      "gdales": 7949,
      "ha": 7950,
      "hm": 7951,
      "hou": 7952,
      "har": 7953,
      "hil": 7954,
      "hol": 7955,
      "hine": 7956,
      "hist": 7957,
      "hett": 7958,
      "hic": 7959,
      "hrÃ©": 7960,
      "hass": 7961,
      "harm": 7962,
      "hog": 7963,
      "hÃ©d": 7964,
      "hÃ©re": 7965,
      "hier": 7966,
      "hode": 7967,
      "hanti": 7968,
      "hiver": 7969,
      "hera": 7970,
      "herbe": 7971,
      "host": 7972,
      "hots": 7973,
      "hrop": 7974,
      "ik": 7975,
      "ian": 7976,
      "ial": 7977,
      "iam": 7978,
      "iir": 7979,
      "ime": 7980,
      "iÃ©s": 7981,
      "ium": 7982,
      "iend": 7983,
      "iid": 7984,
      "ikat": 7985,
      "ibar": 7986,
      "ifi": 7987,
      "ibo": 7988,
      "irer": 7989,
      "ifs": 7990,
      "iami": 7991,
      "iÃ¨me": 7992,
      "iennent": 7993,
      "jaa": 7994,
      "jou": 7995,
      "jar": 7996,
      "jam": 7997,
      "jet": 7998,
      "jor": 7999,
      "joon": 8000,
      "jom": 8001,
      "jest": 8002,
      "jum": 8003,
      "jali": 8004,
      "jook": 8005,
      "jaam": 8006,
      "joor": 8007,
      "jaas": 8008,
      "jii": 8009,
      "junniy": 8010,
      "jorit": 8011,
      "jonni": 8012,
      "ky": 8013,
      "kan": 8014,
      "kou": 8015,
      "kam": 8016,
      "kur": 8017,
      "kor": 8018,
      "kit": 8019,
      "koon": 8020,
      "kas": 8021,
      "kul": 8022,
      "koom": 8023,
      "kos": 8024,
      "kale": 8025,
      "kers": 8026,
      "kooy": 8027,
      "kiy": 8028,
      "kÃłnk": 8029,
      "kwu": 8030,
      "kors": 8031,
      "kid": 8032,
      "kloo": 8033,
      "key": 8034,
      "karaa": 8035,
      "kteer": 8036,
      "kÃłlla": 8037,
      "kÃłnd": 8038,
      "konte": 8039,
      "karla": 8040,
      "kinois": 8041,
      "ld": 8042,
      "lk": 8043,
      "lun": 8044,
      "lis": 8045,
      "lee": 8046,
      "lat": 8047,
      "las": 8048,
      "lous": 8049,
      "lti": 8050,
      "law": 8051,
      "laient": 8052,
      "lig": 8053,
      "lante": 8054,
      "looy": 8055,
      "lance": 8056,
      "lune": 8057,
      "laaj": 8058,
      "loor": 8059,
      "laf": 8060,
      "lande": 8061,
      "leem": 8062,
      "lamm": 8063,
      "lablement": 8064,
      "liner": 8065,
      "linÃ©s": 8066,
      "latel": 8067,
      "lailler": 8068,
      "mou": 8069,
      "mor": 8070,
      "maan": 8071,
      "mat": 8072,
      "mag": 8073,
      "mÃ©s": 8074,
      "mÃª": 8075,
      "mos": 8076,
      "main": 8077,
      "mment": 8078,
      "mure": 8079,
      "mili": 8080,
      "meel": 8081,
      "mise": 8082,
      "mente": 8083,
      "mbut": 8084,
      "mener": 8085,
      "mettait": 8086,
      "mÃ³oy": 8087,
      "nÃ©": 8088,
      "net": 8089,
      "nent": 8090,
      "nee": 8091,
      "nel": 8092,
      "naan": 8093,
      "nant": 8094,
      "nas": 8095,
      "nais": 8096,
      "nous": 8097,
      "naient": 8098,
      "nie": 8099,
      "nelle": 8100,
      "nois": 8101,
      "nÃ©eg": 8102,
      "neux": 8103,
      "naaw": 8104,
      "nook": 8105,
      "nation": 8106,
      "naax": 8107,
      "nitÃ©": 8108,
      "nomb": 8109,
      "ntr": 8110,
      "naires": 8111,
      "nÃ©egu": 8112,
      "neem": 8113,
      "nards": 8114,
      "njaay": 8115,
      "nangu": 8116,
      "nÃ³ox": 8117,
      "nommÃ©": 8118,
      "oqu": 8119,
      "ops": 8120,
      "oci": 8121,
      "odes": 8122,
      "ogues": 8123,
      "ogalu": 8124,
      "oÃ®t": 8125,
      "otique": 8126,
      "oquaient": 8127,
      "otements": 8128,
      "oddoo": 8129,
      "oada": 8130,
      "pÃ©": 8131,
      "pre": 8132,
      "pet": 8133,
      "pte": 8134,
      "pat": 8135,
      "pau": 8136,
      "pos": 8137,
      "pie": 8138,
      "pers": 8139,
      "pons": 8140,
      "para": 8141,
      "peau": 8142,
      "pille": 8143,
      "porte": 8144,
      "piÃ¨re": 8145,
      "put": 8146,
      "pac": 8147,
      "poto": 8148,
      "poc": 8149,
      "penti": 8150,
      "peut": 8151,
      "pect": 8152,
      "plutÃ´t": 8153,
      "pides": 8154,
      "percÃ©": 8155,
      "qi": 8156,
      "qal": 8157,
      "qar": 8158,
      "qam": 8159,
      "qÃ«t": 8160,
      "qatiy": 8161,
      "raa": 8162,
      "ron": 8163,
      "rai": 8164,
      "rÃ«": 8165,
      "run": 8166,
      "ril": 8167,
      "rans": 8168,
      "rag": 8169,
      "rol": 8170,
      "ros": 8171,
      "rand": 8172,
      "rav": 8173,
      "rine": 8174,
      "rati": 8175,
      "ritÃ©": 8176,
      "ryaa": 8177,
      "row": 8178,
      "rut": 8179,
      "rÃ©p": 8180,
      "rits": 8181,
      "rures": 8182,
      "rendre": 8183,
      "rables": 8184,
      "rales": 8185,
      "rhum": 8186,
      "ruments": 8187,
      "rots": 8188,
      "ss": 8189,
      "sÃ©": 8190,
      "ses": 8191,
      "sil": 8192,
      "sant": 8193,
      "sÃ«r": 8194,
      "saal": 8195,
      "seek": 8196,
      "stes": 8197,
      "saam": 8198,
      "sÃłmb": 8199,
      "sÃłmm": 8200,
      "sures": 8201,
      "seem": 8202,
      "sectes": 8203,
      "suk": 8204,
      "scur": 8205,
      "tou": 8206,
      "tÃ«": 8207,
      "toon": 8208,
      "tÃ¨re": 8209,
      "tion": 8210,
      "taw": 8211,
      "tum": 8212,
      "tÃ«r": 8213,
      "toy": 8214,
      "tali": 8215,
      "taax": 8216,
      "tra": 8217,
      "tÃłnk": 8218,
      "term": 8219,
      "titude": 8220,
      "tisme": 8221,
      "tances": 8222,
      "titions": 8223,
      "tÃ©emÃ©eri": 8224,
      "tituer": 8225,
      "uqu": 8226,
      "uÃ©e": 8227,
      "uÅĪ": 8228,
      "uelle": 8229,
      "uuf": 8230,
      "uaires": 8231,
      "uvi": 8232,
      "uteek": 8233,
      "uvÃ©s": 8234,
      "uÅĪe": 8235,
      "uttes": 8236,
      "uadÃ©": 8237,
      "vy": 8238,
      "vet": 8239,
      "vel": 8240,
      "vas": 8241,
      "vais": 8242,
      "vers": 8243,
      "vions": 8244,
      "vage": 8245,
      "vÃ©es": 8246,
      "vette": 8247,
      "ville": 8248,
      "vert": 8249,
      "vid": 8250,
      "venir": 8251,
      "vrÃ©s": 8252,
      "veries": 8253,
      "venue": 8254,
      "vieuse": 8255,
      "villÃ©s": 8256,
      "vires": 8257,
      "villÃ©es": 8258,
      "visses": 8259,
      "voquaient": 8260,
      "wer": 8261,
      "wax": 8262,
      "was": 8263,
      "waay": 8264,
      "waak": 8265,
      "woÅĭ": 8266,
      "waas": 8267,
      "wii": 8268,
      "waatu": 8269,
      "wÃ©ri": 8270,
      "waayu": 8271,
      "waleek": 8272,
      "wÃłllu": 8273,
      "waguma": 8274,
      "xes": 8275,
      "xel": 8276,
      "xum": 8277,
      "xue": 8278,
      "xosi": 8279,
      "ye": 8280,
      "yaay": 8281,
      "yus": 8282,
      "yaar": 8283,
      "yll": 8284,
      "yeux": 8285,
      "yonn": 8286,
      "yard": 8287,
      "yook": 8288,
      "yles": 8289,
      "yaam": 8290,
      "yÃłgg": 8291,
      "yÃłcc": 8292,
      "yaanu": 8293,
      "yeÅĭ": 8294,
      "yards": 8295,
      "yph": 8296,
      "yaram": 8297,
      "yadaa": 8298,
      "ycÃ©e": 8299,
      "ygdales": 8300,
      "ypoc": 8301,
      "yrans": 8302,
      "zin": 8303,
      "zia": 8304,
      "zias": 8305,
      "°,": 8306,
      "Â°,": 8307,
      "Ġ&": 8308,
      "Ġ4": 8309,
      "Ġ8": 8310,
      "ĠĠ": 8311,
      "Ġaa": 8312,
      "Ġer": 8313,
      "Ġos": 8314,
      "Ġouv": 8315,
      "Ġort": 8316,
      "Ġaas": 8317,
      "Ġoto": 8318,
      "Ġorp": 8319,
      "Ġorm": 8320,
      "ĠÃªtes": 8321,
      "Ġect": 8322,
      "Ġombre": 8323,
      "Ġouvertes": 8324,
      "Ġurgence": 8325,
      "Ġold": 8326,
      "Ġ90": 8327,
      "ĠUru": 8328,
      "Ĵbukun": 8329,
      "Ġden": 8330,
      "Ġdor": 8331,
      "Ġdil": 8332,
      "Ġdat": 8333,
      "Ġdol": 8334,
      "Ġdaar": 8335,
      "Ġdot": 8336,
      "Ġdurs": 8337,
      "Ġdens": 8338,
      "ĠdÃ©eg": 8339,
      "Ġdooy": 8340,
      "Ġdard": 8341,
      "Ġdoj": 8342,
      "ĠdÃ®": 8343,
      "Ġdanger": 8344,
      "ĠdÃ©egu": 8345,
      "Ġdame": 8346,
      "ĠdÃ©edÃ©et": 8347,
      "Ġdouter": 8348,
      "ĠdÃłllu": 8349,
      "Ġdamaa": 8350,
      "Ġdogal": 8351,
      "Ġdoct": 8352,
      "ĠdÃłtti": 8353,
      "Ġlen": 8354,
      "Ġlet": 8355,
      "Ġlin": 8356,
      "Ġlaal": 8357,
      "Ġlali": 8358,
      "Ġlions": 8359,
      "Ġlang": 8360,
      "Ġlune": 8361,
      "ĠlÃłng": 8362,
      "Ġlop": 8363,
      "Ġlord": 8364,
      "Ġlaab": 8365,
      "ĠlÃłnk": 8366,
      "Ġlanc": 8367,
      "Ġlett": 8368,
      "ĠlÃ©p": 8369,
      "ĠlÃ«m": 8370,
      "ĠlÃ«f": 8371,
      "Ġlame": 8372,
      "Ġlaamu": 8373,
      "Ġlances": 8374,
      "Ġlende": 8375,
      "ĠlÃ¢cher": 8376,
      "Ġlaide": 8377,
      "Ġlarges": 8378,
      "ĠlycÃ©e": 8379,
      "Ġmai": 8380,
      "Ġment": 8381,
      "Ġmit": 8382,
      "Ġmee": 8383,
      "Ġmans": 8384,
      "ĠmÃłn": 8385,
      "Ġmim": 8386,
      "ĠmÃ«r": 8387,
      "Ġmens": 8388,
      "Ġmali": 8389,
      "Ġmois": 8390,
      "Ġmante": 8391,
      "Ġmord": 8392,
      "Ġmeri": 8393,
      "Ġmett": 8394,
      "Ġmokk": 8395,
      "ĠmÃłcc": 8396,
      "Ġmorp": 8397,
      "Ġmoque": 8398,
      "Ġmenti": 8399,
      "Ġmines": 8400,
      "ĠmÃ¨ne": 8401,
      "ĠminÃ©": 8402,
      "Ġmouch": 8403,
      "Ġmailles": 8404,
      "ĠmÃ³olu": 8405,
      "Ġmouill": 8406,
      "ĠmÃ¢cher": 8407,
      "Ġmoone": 8408,
      "Ġmalles": 8409,
      "Ġmobilis": 8410,
      "Ã©a": 8411,
      "Ã©te": 8412,
      "Ã©le": 8413,
      "Ã©gg": 8414,
      "Ã©me": 8415,
      "Ã©ol": 8416,
      "Ã©gal": 8417,
      "Ã©ci": 8418,
      "Ã©vent": 8419,
      "Ã©eem": 8420,
      "Ã©vre": 8421,
      "Ã©lic": 8422,
      "Ã©vÃ©n": 8423,
      "Ã©hic": 8424,
      "eser": 8425,
      "esbu": 8426,
      "espr": 8427,
      "Ġnn": 8428,
      "ĠnÃ©e": 8429,
      "Ġnas": 8430,
      "Ġnaar": 8431,
      "ĠnÃłkk": 8432,
      "Ġnette": 8433,
      "Ġnooy": 8434,
      "ĠnÃ©c": 8435,
      "ĠnÃłpp": 8436,
      "Ġnoor": 8437,
      "ĠnÃłcc": 8438,
      "Ġnote": 8439,
      "Ġnasse": 8440,
      "Ġnogg": 8441,
      "Ġnof": 8442,
      "ĠnommÃ©": 8443,
      "Ġnestu": 8444,
      "Ġnoct": 8445,
      "ĠnotÃ©": 8446,
      "Ġnoces": 8447,
      "ĠnÅĵu": 8448,
      "ĠnÃ¨gre": 8449,
      "Ġsan": 8450,
      "Ġsat": 8451,
      "Ġsul": 8452,
      "Ġsaay": 8453,
      "Ġsaw": 8454,
      "Ġsout": 8455,
      "Ġsale": 8456,
      "Ġsand": 8457,
      "Ġstre": 8458,
      "Ġsill": 8459,
      "Ġsois": 8460,
      "ĠsÃ³or": 8461,
      "Ġsci": 8462,
      "Ġsaak": 8463,
      "Ġstu": 8464,
      "ĠsÃ©r": 8465,
      "ĠsÃłtt": 8466,
      "Ġsaab": 8467,
      "Ġsages": 8468,
      "ĠsÃ«gg": 8469,
      "Ġsaut": 8470,
      "Ġsitu": 8471,
      "ĠsÃ©g": 8472,
      "Ġsomme": 8473,
      "ĠsÃłq": 8474,
      "Ġsantu": 8475,
      "Ġsaill": 8476,
      "Ġsiti": 8477,
      "Ġsinu": 8478,
      "ĠsÃ©ex": 8479,
      "ĠsÃłnd": 8480,
      "Ġsquel": 8481,
      "Ġsanti": 8482,
      "ĠsÅĵur": 8483,
      "Ġspir": 8484,
      "ĠsÃ«f": 8485,
      "Ġspas": 8486,
      "Ġseere": 8487,
      "ĠsÃ³ob": 8488,
      "ĠsÃ©pare": 8489,
      "Ġsalon": 8490,
      "Ġsoient": 8491,
      "Ġstru": 8492,
      "ĠsÃłrt": 8493,
      "Ġsmall": 8494,
      "ĠsÃłqu": 8495,
      "Ġscier": 8496,
      "ĠsÃ³f": 8497,
      "Ġsparti": 8498,
      "Ġshanti": 8499,
      "eni": 8500,
      "enri": 8501,
      "enus": 8502,
      "enais": 8503,
      "enres": 8504,
      "enaient": 8505,
      "enants": 8506,
      "eniv": 8507,
      "enable": 8508,
      "engalu": 8509,
      "enades": 8510,
      "enkub": 8511,
      "enrouler": 8512,
      "eneg": 8513,
      "endie": 8514,
      "aag": 8515,
      "aame": 8516,
      "aaaw": 8517,
      "aatee": 8518,
      "aafant": 8519,
      "ones": 8520,
      "onee": 8521,
      "onak": 8522,
      "onyaa": 8523,
      "onga": 8524,
      "onaale": 8525,
      "onique": 8526,
      "onteek": 8527,
      "onze": 8528,
      "onisait": 8529,
      "onisant": 8530,
      "onial": 8531,
      "onron": 8532,
      "onville": 8533,
      "onzin": 8534,
      "Ġaj": 8535,
      "Ġait": 8536,
      "Ġagg": 8537,
      "Ġalu": 8538,
      "ĠaÅĪ": 8539,
      "Ġaci": 8540,
      "Ġast": 8541,
      "Ġawu": 8542,
      "Ġaille": 8543,
      "ĠaÃ®": 8544,
      "Ġaji": 8545,
      "Ġawe": 8546,
      "ĠaÃ©ri": 8547,
      "Ġajoo": 8548,
      "Ġaper": 8549,
      "Ġaxe": 8550,
      "Ġafin": 8551,
      "Ġajag": 8552,
      "ĠaidÃ©e": 8553,
      "Ġcre": 8554,
      "Ġcle": 8555,
      "Ġcau": 8556,
      "Ġcale": 8557,
      "Ġcouv": 8558,
      "Ġcort": 8559,
      "Ġcub": 8560,
      "Ġcaax": 8561,
      "Ġcord": 8562,
      "Ġcati": 8563,
      "Ġcoute": 8564,
      "ĠcÃ©c": 8565,
      "ĠcÃ©y": 8566,
      "Ġcokk": 8567,
      "ĠcÃłmm": 8568,
      "Ġcaill": 8569,
      "Ġcoque": 8570,
      "Ġcode": 8571,
      "Ġcreux": 8572,
      "Ġcanni": 8573,
      "Ġcalle": 8574,
      "ĠcinÃ©": 8575,
      "Ġcalc": 8576,
      "Ġcaisse": 8577,
      "ĠcÅĵurs": 8578,
      "Ġcouvertes": 8579,
      "Ġcoxor": 8580,
      "Ġbe": 8581,
      "Ġbil": 8582,
      "Ġble": 8583,
      "Ġbul": 8584,
      "ĠbÃ«n": 8585,
      "Ġbos": 8586,
      "ĠbÃ«r": 8587,
      "Ġband": 8588,
      "Ġbec": 8589,
      "Ġbaal": 8590,
      "ĠbÃ©n": 8591,
      "ĠbÃłkk": 8592,
      "Ġbaak": 8593,
      "Ġbles": 8594,
      "Ġboit": 8595,
      "Ġbaab": 8596,
      "ĠbÃłnk": 8597,
      "ĠbÃªt": 8598,
      "Ġboire": 8599,
      "Ġbaad": 8600,
      "ĠbÃ³om": 8601,
      "Ġbains": 8602,
      "ĠbÃ©b": 8603,
      "Ġbile": 8604,
      "Ġbiti": 8605,
      "Ġbamb": 8606,
      "Ġbanti": 8607,
      "Ġbasse": 8608,
      "Ġbalc": 8609,
      "ĠbandÃ©": 8610,
      "Ġbancs": 8611,
      "Ġbouses": 8612,
      "ĠbÅĵuf": 8613,
      "Ġbenke": 8614,
      "Ġballes": 8615,
      "Ġpan": 8616,
      "Ġpai": 8617,
      "Ġpur": 8618,
      "ĠpÃ¨": 8619,
      "Ġpag": 8620,
      "ĠpÃª": 8621,
      "Ġpot": 8622,
      "ĠpÃ«r": 8623,
      "Ġpoi": 8624,
      "Ġpne": 8625,
      "Ġpaire": 8626,
      "Ġpeer": 8627,
      "Ġpaiss": 8628,
      "ĠpÃłttali": 8629,
      "Ġpaas": 8630,
      "ĠpÃ©ey": 8631,
      "Ġpains": 8632,
      "Ġpoto": 8633,
      "Ġpente": 8634,
      "Ġpures": 8635,
      "Ġpatt": 8636,
      "ĠpÃ»t": 8637,
      "Ġpagne": 8638,
      "Ġpeste": 8639,
      "Ġpiment": 8640,
      "Ġpoign": 8641,
      "Ġpint": 8642,
      "ĠpÃ¢te": 8643,
      "Ġpaxam": 8644,
      "Ġpuls": 8645,
      "ĠpandÃ©": 8646,
      "ĠpriÃ¨res": 8647,
      "ĠpÃłttaliku": 8648,
      "ĠpitiÃ©": 8649,
      "Ġpeser": 8650,
      "ana": 8651,
      "anama": 8652,
      "anie": 8653,
      "anci": 8654,
      "anaam": 8655,
      "annÃ©es": 8656,
      "ancher": 8657,
      "anite": 8658,
      "aniers": 8659,
      "anaane": 8660,
      "anya": 8661,
      "ancien": 8662,
      "anjal": 8663,
      "ankaa": 8664,
      "rey": 8665,
      "reÃ±": 8666,
      "reem": 8667,
      "reÅĭ": 8668,
      "reff": 8669,
      "rection": 8670,
      "remiÃ¨re": 8671,
      "reetown": 8672,
      "retter": 8673,
      "reeku": 8674,
      "reuvÃ©s": 8675,
      "revisses": 8676,
      "Ġtin": 8677,
      "Ġtil": 8678,
      "Ġtch": 8679,
      "Ġtend": 8680,
      "Ġtens": 8681,
      "Ġtaaw": 8682,
      "Ġtaire": 8683,
      "Ġtaam": 8684,
      "ĠtÃ«g": 8685,
      "Ġtors": 8686,
      "Ġtii": 8687,
      "Ġtenir": 8688,
      "Ġtelles": 8689,
      "Ġtenu": 8690,
      "Ġtane": 8691,
      "Ġtress": 8692,
      "Ġtendre": 8693,
      "Ġtorp": 8694,
      "Ġtendant": 8695,
      "Ġtrict": 8696,
      "ĠtÃłnd": 8697,
      "Ġtables": 8698,
      "Ġtantes": 8699,
      "Ġtaaral": 8700,
      "Ġtendue": 8701,
      "Ġtenant": 8702,
      "Ġtalc": 8703,
      "Ġtendait": 8704,
      "Ġtaali": 8705,
      "Ġtooke": 8706,
      "ĠtÃ©w": 8707,
      "Ġtettee": 8708,
      "Ġtocc": 8709,
      "Ġtaasu": 8710,
      "Ġtenait": 8711,
      "Ġtumul": 8712,
      "ĠtÃ©emÃ©eri": 8713,
      "Ġtasses": 8714,
      "Ġtyrans": 8715,
      "Ġtaafant": 8716,
      "âĢĻ,": 8717,
      "âĢĻÂ«": 8718,
      "ouc": 8719,
      "ouis": 8720,
      "oulu": 8721,
      "ouette": 8722,
      "oucher": 8723,
      "ouba": 8724,
      "oudre": 8725,
      "ouler": 8726,
      "oulÃ©": 8727,
      "ouÃ¯": 8728,
      "oubli": 8729,
      "oulous": 8730,
      "aime": 8731,
      "aigu": 8732,
      "aible": 8733,
      "aides": 8734,
      "aider": 8735,
      "aitements": 8736,
      "airiÃ¨res": 8737,
      "airie": 8738,
      "Ġyal": 8739,
      "Ġyur": 8740,
      "Ġyel": 8741,
      "ĠyÃ«r": 8742,
      "ĠyÃłtt": 8743,
      "Ġyees": 8744,
      "Ġyore": 8745,
      "Ġyey": 8746,
      "ĠyÃ©ex": 8747,
      "ĠyÃłnd": 8748,
      "Ġyendu": 8749,
      "Ġyell": 8750,
      "ĠyÃ©wÃ©n": 8751,
      "Ġyeeru": 8752,
      "oore": 8753,
      "oote": 8754,
      "ooti": 8755,
      "oowul": 8756,
      "Ġfal": 8757,
      "Ġfri": 8758,
      "Ġfant": 8759,
      "ĠfÃ©t": 8760,
      "ĠfÃłn": 8761,
      "Ġfont": 8762,
      "Ġfab": 8763,
      "Ġfale": 8764,
      "Ġfoi": 8765,
      "Ġfeek": 8766,
      "Ġfex": 8767,
      "Ġfara": 8768,
      "ĠfÃ©r": 8769,
      "Ġfiy": 8770,
      "Ġfille": 8771,
      "ĠfÃ¢": 8772,
      "Ġfaari": 8773,
      "Ġfett": 8774,
      "Ġfils": 8775,
      "Ġfitu": 8776,
      "ĠfÃ®": 8777,
      "ĠfÃłnn": 8778,
      "Ġfoto": 8779,
      "Ġfuri": 8780,
      "Ġfiri": 8781,
      "ĠfÃ³ot": 8782,
      "Ġfaale": 8783,
      "Ġfuss": 8784,
      "Ġfatt": 8785,
      "Ġfomm": 8786,
      "Ġfonk": 8787,
      "Ġfuru": 8788,
      "Ġfell": 8789,
      "Ġfument": 8790,
      "Ġfotoom": 8791,
      "ĠfÃ«ri": 8792,
      "ĠfaraÃ±se": 8793,
      "Ġfaayd": 8794,
      "Ġfailli": 8795,
      "Ġfeign": 8796,
      "Ġfaible": 8797,
      "erle": 8798,
      "eront": 8799,
      "erge": 8800,
      "erment": 8801,
      "erara": 8802,
      "erne": 8803,
      "erine": 8804,
      "erbi": 8805,
      "eroog": 8806,
      "ereng": 8807,
      "ergie": 8808,
      "erÃ§aient": 8809,
      "eresses": 8810,
      "Ġjaan": 8811,
      "Ġjab": 8812,
      "ĠjÃ©pp": 8813,
      "Ġjoy": 8814,
      "Ġjeek": 8815,
      "Ġjonn": 8816,
      "Ġjad": 8817,
      "ĠjaÃ±": 8818,
      "ĠjÃłdd": 8819,
      "ĠjÃłq": 8820,
      "Ġjantu": 8821,
      "Ġjaloo": 8822,
      "Ġjaamu": 8823,
      "Ġjaare": 8824,
      "ĠjetÃ©": 8825,
      "ĠjÃ©eme": 8826,
      "Ġjonni": 8827,
      "Ġjaasi": 8828,
      "quin": 8829,
      "quant": 8830,
      "quÃ©es": 8831,
      "quette": 8832,
      "quants": 8833,
      "quence": 8834,
      "quets": 8835,
      "quiner": 8836,
      "quetÃ©s": 8837,
      "aler": 8838,
      "alait": 8839,
      "alaat": 8840,
      "alook": 8841,
      "alors": 8842,
      "alung": 8843,
      "alogue": 8844,
      "alade": 8845,
      "alete": 8846,
      "alistes": 8847,
      "altation": 8848,
      "aladÃ©": 8849,
      "alatel": 8850,
      "alheureux": 8851,
      "altitude": 8852,
      "alankaa": 8853,
      "arc": 8854,
      "aru": 8855,
      "ary": 8856,
      "aris": 8857,
      "aroon": 8858,
      "araan": 8859,
      "aray": 8860,
      "arch": 8861,
      "ardi": 8862,
      "arale": 8863,
      "arante": 8864,
      "arook": 8865,
      "arants": 8866,
      "arra": 8867,
      "armes": 8868,
      "arass": 8869,
      "archÃ©": 8870,
      "arnement": 8871,
      "arriÃ¨re": 8872,
      "artÃ©s": 8873,
      "arinÃ©": 8874,
      "araayu": 8875,
      "arquÃ©": 8876,
      "arquer": 8877,
      "arlook": 8878,
      "arbres": 8879,
      "arlaa": 8880,
      "Ã«er": 8881,
      "Ã«tt": 8882,
      "Ã«ter": 8883,
      "Ã«xi": 8884,
      "Ã«tuÃ±u": 8885,
      "Ã«tÃ©en": 8886,
      "Ã«biy": 8887,
      "amoo": 8888,
      "amis": 8889,
      "ament": 8890,
      "amee": 8891,
      "amus": 8892,
      "amaak": 8893,
      "amne": 8894,
      "amelles": 8895,
      "amaanu": 8896,
      "ameaux": 8897,
      "amarr": 8898,
      "amatique": 8899,
      "amitiÃ©": 8900,
      "Ġgin": 8901,
      "Ġgee": 8902,
      "ĠgÃ©e": 8903,
      "ĠgÃª": 8904,
      "Ġgaar": 8905,
      "Ġgale": 8906,
      "Ġgain": 8907,
      "Ġgend": 8908,
      "ĠgÃ©pp": 8909,
      "ĠgÃłkk": 8910,
      "ĠgÃ©ew": 8911,
      "ĠgÃłpp": 8912,
      "Ġgond": 8913,
      "Ġgerm": 8914,
      "Ġgane": 8915,
      "Ġgeet": 8916,
      "Ġgamb": 8917,
      "Ġgaana": 8918,
      "ĠgÃłÃ±Ã±": 8919,
      "Ġgoss": 8920,
      "Ġgaines": 8921,
      "Ġgedd": 8922,
      "ĠgÃ©l": 8923,
      "ĠgÃ¢te": 8924,
      "ĠgaÃ±Ã±": 8925,
      "Ġgappar": 8926,
      "ĠgoÃ»": 8927,
      "Ġgonf": 8928,
      "Ġgumba": 8929,
      "ĠgÃ¢teaux": 8930,
      "Ġgoneem": 8931,
      "Ġgome": 8932,
      "Ġgosse": 8933,
      "ĠgÃ³omam": 8934,
      "Ġghett": 8935,
      "Ġgenres": 8936,
      "Ġgreff": 8937,
      "Ġgamelles": 8938,
      "Ġlate": 8939,
      "Ġlave": 8940,
      "Ġlattes": 8941,
      "eter": 8942,
      "etÃ©e": 8943,
      "ettÃ©": 8944,
      "Ã±o": 8945,
      "Ã±oo": 8946,
      "Ã±et": 8947,
      "Ã±ent": 8948,
      "Ã±oom": 8949,
      "Ã±aar": 8950,
      "Ã±ooy": 8951,
      "Ã±ook": 8952,
      "Ã±eer": 8953,
      "Ã±eenti": 8954,
      "Ã±Ã«x": 8955,
      "Ã±enke": 8956,
      "Ã±Ã«xi": 8957,
      "Ġkor": 8958,
      "ĠkÃ«n": 8959,
      "Ġkem": 8960,
      "Ġkim": 8961,
      "Ġkort": 8962,
      "Ġkeek": 8963,
      "Ġkare": 8964,
      "Ġkekk": 8965,
      "Ġkaab": 8966,
      "Ġkomb": 8967,
      "ĠkÃłnk": 8968,
      "Ġkees": 8969,
      "Ġkaas": 8970,
      "ĠkaÃ±": 8971,
      "Ġkamp": 8972,
      "ĠkÃłcc": 8973,
      "Ġkap": 8974,
      "Ġkomm": 8975,
      "Ġkeem": 8976,
      "ĠkÃ«cc": 8977,
      "Ġkafe": 8978,
      "ĠkÃ«dd": 8979,
      "ĠkaÃ±seer": 8980,
      "Ġkaani": 8981,
      "Ġkaasi": 8982,
      "Ġkeww": 8983,
      "Ġkwas": 8984,
      "Ġwur": 8985,
      "Ġwit": 8986,
      "Ġwel": 8987,
      "Ġwat": 8988,
      "Ġwag": 8989,
      "Ġwest": 8990,
      "Ġwot": 8991,
      "Ġweek": 8992,
      "ĠwÃ©n": 8993,
      "Ġware": 8994,
      "Ġwekk": 8995,
      "ĠwÃłll": 8996,
      "ĠwÃ«l": 8997,
      "ĠwÃ³ol": 8998,
      "ĠwÃ«s": 8999,
      "Ġwew": 9000,
      "ĠwÃłÃ±Ã±": 9001,
      "Ġwacc": 9002,
      "ĠwaÃ±Ã±": 9003,
      "Ġwulli": 9004,
      "ĠwÃ«re": 9005,
      "ĠwÃ³omam": 9006,
      "Ġwoddoo": 9007,
      "ĠwÃ«tÃ©en": 9008,
      "unis": 9009,
      "unub": 9010,
      "univ": 9011,
      "unitÃ©": 9012,
      "unique": 9013,
      "uneem": 9014,
      "tein": 9015,
      "temp": 9016,
      "tection": 9017,
      "inte": 9018,
      "init": 9019,
      "inaan": 9020,
      "inant": 9021,
      "inais": 9022,
      "inti": 9023,
      "inale": 9024,
      "inie": 9025,
      "inelle": 9026,
      "ineux": 9027,
      "ination": 9028,
      "inaam": 9029,
      "inct": 9030,
      "inement": 9031,
      "inue": 9032,
      "inier": 9033,
      "inique": 9034,
      "ineem": 9035,
      "invit": 9036,
      "inqui": 9037,
      "invente": 9038,
      "inguÃ©s": 9039,
      "indefondi": 9040,
      "invas": 9041,
      "isu": 9042,
      "isons": 9043,
      "isants": 9044,
      "isone": 9045,
      "istÃ©": 9046,
      "isode": 9047,
      "isole": 9048,
      "iseaux": 9049,
      "isienne": 9050,
      "ismond": 9051,
      "iscut": 9052,
      "iskit": 9053,
      "entÃ©": 9054,
      "ention": 9055,
      "entation": 9056,
      "enturi": 9057,
      "entÃ´t": 9058,
      "entrices": 9059,
      "entailler": 9060,
      "Ġquai": 9061,
      "Ġquant": 9062,
      "Ġquelle": 9063,
      "ĠqualitÃ©": 9064,
      "Ġquoti": 9065,
      "Ġcire": 9066,
      "Ġcime": 9067,
      "Ġcimet": 9068,
      "Ġcicat": 9069,
      "uris": 9070,
      "urÃ¨": 9071,
      "urait": 9072,
      "urÃ©e": 9073,
      "urtre": 9074,
      "urions": 9075,
      "urante": 9076,
      "urga": 9077,
      "urÃ©m": 9078,
      "urung": 9079,
      "urisÃ©s": 9080,
      "ores": 9081,
      "oral": 9082,
      "orat": 9083,
      "orant": 9084,
      "orais": 9085,
      "orain": 9086,
      "oraal": 9087,
      "oroy": 9088,
      "orment": 9089,
      "orable": 9090,
      "ortive": 9091,
      "orisation": 9092,
      "orieuse": 9093,
      "orisante": 9094,
      "oramas": 9095,
      "orkor": 9096,
      "ilin": 9097,
      "ilait": 9098,
      "ilaak": 9099,
      "ilop": 9100,
      "ilyaam": 9101,
      "iter": 9102,
      "itim": 9103,
      "itaire": 9104,
      "itables": 9105,
      "itose": 9106,
      "itaawun": 9107,
      "itinÃ©r": 9108,
      "iturne": 9109,
      "ithm": 9110,
      "oonjaay": 9111,
      "Ġrax": 9112,
      "ĠrÃ³": 9113,
      "Ġros": 9114,
      "Ġrot": 9115,
      "Ġrand": 9116,
      "Ġrig": 9117,
      "Ġrang": 9118,
      "ĠrÃ´": 9119,
      "Ġruy": 9120,
      "Ġranc": 9121,
      "Ġruse": 9122,
      "Ġruss": 9123,
      "Ġrendant": 9124,
      "Ġrations": 9125,
      "Ġrends": 9126,
      "Ġrendue": 9127,
      "Ġramm": 9128,
      "Ġrose": 9129,
      "Ġroch": 9130,
      "ĠroÃ±": 9131,
      "Ġraide": 9132,
      "Ġrires": 9133,
      "Ġroches": 9134,
      "Ġraame": 9135,
      "Ġronron": 9136,
      "Ġraides": 9137,
      "Ġroote": 9138,
      "Ġlees": 9139,
      "Ġleek": 9140,
      "Ġleew": 9141,
      "ĠleÃ§ons": 9142,
      "Ġleere": 9143,
      "ĠlevÃ©": 9144,
      "ĠlevÃ©s": 9145,
      "Ġlecteurs": 9146,
      "ĠlevÃ©es": 9147,
      "kke": 9148,
      "kkoo": 9149,
      "kkat": 9150,
      "kkiy": 9151,
      "kkuus": 9152,
      "eed": 9153,
      "eele": 9154,
      "eewu": 9155,
      "eefi": 9156,
      "eeji": 9157,
      "eewii": 9158,
      "Ġmati": 9159,
      "Ġmacc": 9160,
      "Ġmatu": 9161,
      "Ġmaux": 9162,
      "Ġmatr": 9163,
      "ĠmatÃ©ri": 9164,
      "ĠmaÃ®tre": 9165,
      "Ġmaud": 9166,
      "Ġmajorit": 9167,
      "ĠmareÃ±": 9168,
      "ĠÃłngal": 9169,
      "ĠÃłllu": 9170,
      "lez": 9171,
      "lekk": 9172,
      "leut": 9173,
      "lever": 9174,
      "lexe": 9175,
      "lelaw": 9176,
      "Ã¨ches": 9177,
      "Ã¨ces": 9178,
      "Ã¨des": 9179,
      "Ã¨nement": 9180,
      "Ã¨vement": 9181,
      "Ã¨bres": 9182,
      "ellu": 9183,
      "eliÃ¨re": 9184,
      "elets": 9185,
      "ellÃ©": 9186,
      "aits": 9187,
      "aitait": 9188,
      "ĠÃ±aa": 9189,
      "ĠÃ±ee": 9190,
      "ĠÃ±enn": 9191,
      "ĠÃ±ook": 9192,
      "ĠÃ±ore": 9193,
      "ĠÃ±aÃ±": 9194,
      "ĠÃ±Ãłdd": 9195,
      "ĠÃ±amb": 9196,
      "ĠÃ±oyy": 9197,
      "ĠÃ±oonu": 9198,
      "ĠÃ±oÃ±": 9199,
      "ĠÃ±Ãłnge": 9200,
      "ĠÃ±ulu": 9201,
      "ĠÃ±oxor": 9202,
      "Ġxer": 9203,
      "Ġxet": 9204,
      "Ġxom": 9205,
      "Ġxay": 9206,
      "Ġxoom": 9207,
      "ĠxÃ«r": 9208,
      "Ġxaat": 9209,
      "ĠxÃ©n": 9210,
      "Ġxara": 9211,
      "ĠxÃłtt": 9212,
      "Ġxad": 9213,
      "ĠxaÃ±": 9214,
      "ĠxÃ«m": 9215,
      "Ġxuur": 9216,
      "Ġxoroom": 9217,
      "Ġxoolu": 9218,
      "Ġxef": 9219,
      "Ġxepp": 9220,
      "Ġxaju": 9221,
      "ĠxÃ«cce": 9222,
      "Ġxewwi": 9223,
      "Ġxuuf": 9224,
      "ĠxÃ«tt": 9225,
      "irait": 9226,
      "iraay": 9227,
      "irres": 9228,
      "irÃ©es": 9229,
      "iraas": 9230,
      "irables": 9231,
      "irmer": 9232,
      "irkaa": 9233,
      "iroko": 9234,
      "irlande": 9235,
      "irpÃ©": 9236,
      "iritaawun": 9237,
      "Ã©eÅĪ": 9238,
      "Ġvit": 9239,
      "Ġvul": 9240,
      "Ġvom": 9241,
      "Ġvest": 9242,
      "Ġvos": 9243,
      "Ġvaine": 9244,
      "Ġverm": 9245,
      "Ġvert": 9246,
      "Ġvac": 9247,
      "Ġvenir": 9248,
      "Ġvente": 9249,
      "ĠvÃ©ri": 9250,
      "Ġvoile": 9251,
      "Ġverres": 9252,
      "Ġvalaient": 9253,
      "ĠvÃ©tÃ©r": 9254,
      "Ġvaincre": 9255,
      "Ġvendues": 9256,
      "ĠvÃ©hic": 9257,
      "Ġvanite": 9258,
      "Ġvalait": 9259,
      "ĠvellÃ©": 9260,
      "pper": 9261,
      "ppÃ©t": 9262,
      "ppop": 9263,
      "ppaaj": 9264,
      "ppuy": 9265,
      "Ġetaas": 9266,
      "aanee": 9267,
      "aangoom": 9268,
      "aanesbu": 9269,
      "atÃ¨re": 9270,
      "attre": 9271,
      "atina": 9272,
      "atuma": 9273,
      "ataires": 9274,
      "atuÃ±u": 9275,
      "attug": 9276,
      "ative": 9277,
      "ouru": 9278,
      "ources": 9279,
      "ourdit": 9280,
      "ourvu": 9281,
      "ournais": 9282,
      "axu": 9283,
      "axit": 9284,
      "axoon": 9285,
      "axew": 9286,
      "axlaf": 9287,
      "Ġmuse": 9288,
      "Ġmusi": 9289,
      "Ġmuusi": 9290,
      "ĠmuuÃ±": 9291,
      "Ġmusib": 9292,
      "Ġmuucu": 9293,
      "Ġmulti": 9294,
      "Ġmutisme": 9295,
      "ĠmuuÅĪ": 9296,
      "Ġniwaak": 9297,
      "ries": 9298,
      "rien": 9299,
      "rite": 9300,
      "rime": 9301,
      "rions": 9302,
      "ribu": 9303,
      "rive": 9304,
      "riÃ©tÃ©": 9305,
      "rimer": 9306,
      "riades": 9307,
      "ricieux": 9308,
      "rident": 9309,
      "riotes": 9310,
      "ripper": 9311,
      "antoo": 9312,
      "antal": 9313,
      "antur": 9314,
      "antÃ©s": 9315,
      "antise": 9316,
      "antique": 9317,
      "antennes": 9318,
      "anthrop": 9319,
      "asaa": 9320,
      "aset": 9321,
      "asim": 9322,
      "astre": 9323,
      "asques": 9324,
      "astr": 9325,
[...]
