{
  "version": "1.0",
  "truncation": null,
  "padding": null,
  "added_tokens": [
    {
      "id": 0,
      "content": "<cls>",
      "single_word": false,
      "lstrip": false,
      "rstrip": false,
      "normalized": false,
      "special": true
    },
    {
      "id": 1,
      "content": "<sep>",
      "single_word": false,
      "lstrip": false,
      "rstrip": false,
      "normalized": false,
      "special": true
    },
    {
      "id": 2,
      "content": "<unk>",
      "single_word": false,
      "lstrip": false,
      "rstrip": false,
      "normalized": false,
      "special": true
    },
    {
      "id": 3,
      "content": "<pad>",
      "single_word": false,
      "lstrip": false,
      "rstrip": false,
      "normalized": false,
      "special": true
    },
    {
      "id": 4,
      "content": "<mask>",
      "single_word": false,
      "lstrip": false,
      "rstrip": false,
      "normalized": false,
      "special": true
    },
    {
      "id": 5,
      "content": "<s>",
      "single_word": false,
      "lstrip": false,
      "rstrip": false,
      "normalized": false,
      "special": true
    },
    {
      "id": 6,
      "content": "</s>",
      "single_word": false,
      "lstrip": false,
      "rstrip": false,
      "normalized": false,
      "special": true
    }
  ],
  "normalizer": null,
  "pre_tokenizer": {
    "type": "Metaspace",
    "replacement": "▁",
    "add_prefix_space": true
  },
  "post_processor": null,
  "decoder": {
    "type": "Metaspace",
    "replacement": "▁",
    "add_prefix_space": true
  },
  "model": {
    "type": "Unigram",
    "unk_id": 2,
    "vocab": [
      [
        "<cls>",
        0.0
      ],
      [
        "<sep>",
        0.0
      ],
      [
        "<unk>",
        0.0
      ],
      [
        "<pad>",
        0.0
      ],
      [
        "<mask>",
        0.0
      ],
      [
        "<s>",
        0.0
      ],
      [
        "</s>",
        0.0
      ],
      [
        ",",
        -2.7666285640396637
      ],
      [
        "▁",
        -2.9254840717388895
      ],
      [
        "▁de",
        -3.371282984294588
      ],
      [
        "s",
        -3.3743519589441586
      ],
      [
        ".",
        -3.6749854123919414
      ],
      [
        "▁la",
        -3.870466595864637
      ],
      [
        "e",
        -4.202131654520679
      ],
      [
        "à",
        -4.245028546975884
      ],
      [
        "▁les",
        -4.382000109727211
      ],
      [
        "▁et",
        -4.498707028514533
      ],
      [
        "▁des",
        -4.566106748673588
      ],
      [
        "▁le",
        -4.581546283854536
      ],
      [
        "t",
        -4.829309517804884
      ],
      [
        "▁un",
        -4.921159761041013
      ],
      [
        "▁dans",
        -4.922918765632112
      ],
      [
        "▁qui",
        -4.942890583076951
      ],
      [
        "▁en",
        -5.008857344962698
      ],
      [
        "▁du",
        -5.019997525800595
      ],
      [
        "▁que",
        -5.077007333774428
      ],
      [
        "▁pour",
        -5.359998613947383
      ],
      [
        "▁au",
        -5.377130843807964
      ],
      [
        "r",
        -5.449485511749675
      ],
      [
        "▁mon",
        -5.454984007778979
      ],
      [
        "ent",
        -5.470323384504182
      ],
      [
        "▁son",
        -5.478908910981328
      ],
      [
        "▁par",
        -5.481030012223061
      ],
      [
        "c",
        -5.484499876545568
      ],
      [
        "▁pas",
        -5.488260401553247
      ],
      [
        "▁père",
        -5.498531482471375
      ],
      [
        "▁l'",
        -5.545753500348917
      ],
      [
        "ait",
        -5.576141801449308
      ],
      [
        "une",
        -5.597368481220605
      ],
      [
        "▁sur",
        -5.608160234471744
      ],
      [
        "▁il",
        -5.614287347474438
      ],
      [
        "er",
        -5.6198786136816095
      ],
      [
        "é",
        -5.629677874171712
      ],
      [
        "▁je",
        -5.640953506075747
      ],
      [
        "es",
        -5.700404505704619
      ],
      [
        "i",
        -5.751950284687714
      ],
      [
        "▁qu'il",
        -5.759868881071762
      ],
      [
        "▁a",
        -5.834239738103863
      ],
      [
        "▁ne",
        -5.834624178347423
      ],
      [
        "▁Il",
        -5.8472808931656
      ],
      [
        "▁ma",
        -5.8599340838469285
      ],
      [
        "▁ave",
        -5.884833075257104
      ],
      [
        "▁ce",
        -5.9041056123937805
      ],
      [
        "▁se",
        -5.929889957468258
      ],
      [
        "▁sa",
        -5.934023690515259
      ],
      [
        "▁où",
        -5.945836542105803
      ],
      [
        "▁c",
        -5.9834855383890275
      ],
      [
        "nt",
        -5.99038918652415
      ],
      [
        "▁nous",
        -6.0042944811226775
      ],
      [
        "▁d",
        -6.01031080351199
      ],
      [
        "▁d'un",
        -6.01458942329791
      ],
      [
        "et",
        -6.030072336316853
      ],
      [
        "u",
        -6.030525327123023
      ],
      [
        "▁Le",
        -6.030830338836982
      ],
      [
        "▁est",
        -6.042686874371275
      ],
      [
        "que",
        -6.04538269467302
      ],
      [
        "▁plus",
        -6.066789056740798
      ],
      [
        "▁avait",
        -6.070265758442337
      ],
      [
        "a",
        -6.162160907051976
      ],
      [
        "▁lui",
        -6.210603164853036
      ],
      [
        "ont",
        -6.234002197266453
      ],
      [
        ":",
        -6.247969383187342
      ],
      [
        "▁comme",
        -6.25612917735403
      ],
      [
        "▁mère",
        -6.258072463917951
      ],
      [
        "les",
        -6.280575225280063
      ],
      [
        "ette",
        -6.28977637633957
      ],
      [
        "ment",
        -6.298969021227118
      ],
      [
        "▁d'",
        -6.302532956872646
      ],
      [
        "ant",
        -6.358189875856904
      ],
      [
        "▁me",
        -6.384025478531766
      ],
      [
        "▁san",
        -6.400847311122206
      ],
      [
        "▁tout",
        -6.418643290257256
      ],
      [
        "▁même",
        -6.427255362218387
      ],
      [
        "aient",
        -6.431092652818315
      ],
      [
        "▁s",
        -6.458870056641927
      ],
      [
        "▁pays",
        -6.461929316353191
      ],
      [
        "▁ces",
        -6.47167162137928
      ],
      [
        "leurs",
        -6.4961379246006485
      ],
      [
        "▁S",
        -6.497693257725543
      ],
      [
        "▁Je",
        -6.5341379994312785
      ],
      [
        "d",
        -6.547006229872325
      ],
      [
        "▁était",
        -6.548009954960046
      ],
      [
        "▁ou",
        -6.554924731039324
      ],
      [
        "▁enfants",
        -6.555581308946084
      ],
      [
        "▁vie",
        -6.584564252174596
      ],
      [
        "le",
        -6.590995698069809
      ],
      [
        "▁La",
        -6.591403254270956
      ],
      [
        "▁guerre",
        -6.607700047136311
      ],
      [
        "n",
        -6.615893841772904
      ],
      [
        "▁leur",
        -6.624421332616301
      ],
      [
        "▁aux",
        -6.654480464124702
      ],
      [
        "▁temps",
        -6.667990598526028
      ],
      [
        "▁l",
        -6.668981001896796
      ],
      [
        "is",
        -6.686697292253384
      ],
      [
        "'est",
        -6.694133483243853
      ],
      [
        "▁?",
        -6.706469279394119
      ],
      [
        "ils",
        -6.7218885180952395
      ],
      [
        "▁cela",
        -6.738364967042596
      ],
      [
        "re",
        -6.747220697584355
      ],
      [
        "▁monde",
        -6.74859487533398
      ],
      [
        "«",
        -6.754063334177075
      ],
      [
        "▁»",
        -6.779590813567001
      ],
      [
        "on",
        -6.794906906846994
      ],
      [
        "▁n'",
        -6.809783183773735
      ],
      [
        "▁cha",
        -6.814575920431947
      ],
      [
        ")",
        -6.839364753838814
      ],
      [
        "ce",
        -6.847438554012728
      ],
      [
        "▁m",
        -6.850447012994103
      ],
      [
        "▁maison",
        -6.857499670521597
      ],
      [
        "ses",
        -6.86304443855338
      ],
      [
        "y",
        -6.876175241086385
      ],
      [
        "il",
        -6.878979389507755
      ],
      [
        "▁mais",
        -6.888475662164914
      ],
      [
        "és",
        -6.889500222046423
      ],
      [
        "eux",
        -6.914774434424073
      ],
      [
        "▁fait",
        -6.928493726764116
      ],
      [
        "▁Ma",
        -6.944450475384508
      ],
      [
        "▁si",
        -6.953233646503362
      ],
      [
        "l",
        -6.9586718277624175
      ],
      [
        "ans",
        -6.9601534816283195
      ],
      [
        "À",
        -6.962596150379981
      ],
      [
        "▁C",
        -6.985624333303258
      ],
      [
        "ions",
        -6.989965968451621
      ],
      [
        "▁–",
        -6.993801361771336
      ],
      [
        "▁moi",
        -6.99616983667552
      ],
      [
        "être",
        -6.998100661008747
      ],
      [
        "▁j'a",
        -7.017688750190712
      ],
      [
        "▁sous",
        -7.018692041233484
      ],
      [
        "la",
        -7.024475843456274
      ],
      [
        "ée",
        -7.037640983223746
      ],
      [
        "▁jamais",
        -7.055417896951239
      ],
      [
        "▁doute",
        -7.055671217833133
      ],
      [
        "▁corps",
        -7.055809739058118
      ],
      [
        "▁Mon",
        -7.0559165048713925
      ],
      [
        "▁y",
        -7.060875337597658
      ],
      [
        "▁c'est",
        -7.06571326410758
      ],
      [
        "ne",
        -7.0997080001907555
      ],
      [
        "est",
        -7.11167492612989
      ],
      [
        "it",
        -7.11861381225358
      ],
      [
        "de",
        -7.119665570086221
      ],
      [
        "▁p",
        -7.123360727247853
      ],
      [
        "▁jour",
        -7.130415576861824
      ],
      [
        "▁jusqu'",
        -7.142098812974913
      ],
      [
        "▁loin",
        -7.155331858681313
      ],
      [
        "▁(",
        -7.160551089067448
      ],
      [
        "▁terre",
        -7.165427005422976
      ],
      [
        "ation",
        -7.16719691525247
      ],
      [
        "▁encore",
        -7.191141453746283
      ],
      [
        "tre",
        -7.19600681217266
      ],
      [
        "▁faire",
        -7.2076974367194655
      ],
      [
        "▁Ce",
        -7.212743558176215
      ],
      [
        "▁être",
        -7.22080961352607
      ],
      [
        "▁c'étai",
        -7.2280550925562
      ],
      [
        "en",
        -7.229166283010036
      ],
      [
        "x",
        -7.236751981214927
      ],
      [
        "-",
        -7.256662733303898
      ],
      [
        "▁D",
        -7.261244569342758
      ],
      [
        "▁l'Afrique",
        -7.267124636626432
      ],
      [
        "▁mes",
        -7.2700855296567335
      ],
      [
        "▁années",
        -7.272203201088081
      ],
      [
        "▁L",
        -7.28206944588603
      ],
      [
        "▁Ogoja",
        -7.310340035805865
      ],
      [
        "▁après",
        -7.310734938598715
      ],
      [
        "▁quelque",
        -7.315686198062096
      ],
      [
        "▁avant",
        -7.3199367552372525
      ],
      [
        "▁médecin",
        -7.320035031489656
      ],
      [
        "▁En",
        -7.33903859652329
      ],
      [
        "▁aussi",
        -7.3480101873348325
      ],
      [
        "▁France",
        -7.348020159063379
      ],
      [
        "▁Cameroun",
        -7.3481572552164405
      ],
      [
        "▁Un",
        -7.352327207762439
      ],
      [
        "▁P",
        -7.355806583548453
      ],
      [
        "▁tou",
        -7.367816135905388
      ],
      [
        "▁peu",
        -7.36802680396856
      ],
      [
        "un",
        -7.3696606687188035
      ],
      [
        "▁autre",
        -7.371567013139098
      ],
      [
        "▁pouvait",
        -7.387657345158531
      ],
      [
        "▁qu'elle",
        -7.392616826493712
      ],
      [
        "▁bien",
        -7.393368987546122
      ],
      [
        "été",
        -7.39466552140549
      ],
      [
        "▁fois",
        -7.400215047852697
      ],
      [
        "▁deux",
        -7.403800573639271
      ],
      [
        "▁elle",
        -7.432916527812065
      ],
      [
        "▁travers",
        -7.436630092701151
      ],
      [
        "us",
        -7.438911456200458
      ],
      [
        "rès",
        -7.445472799476914
      ],
      [
        "▁m'a",
        -7.452536335544473
      ],
      [
        "▁fin",
        -7.45379168133212
      ],
      [
        "▁non",
        -7.45476952575208
      ],
      [
        "ement",
        -7.454958197865924
      ],
      [
        "▁n'a",
        -7.458442185719113
      ],
      [
        "▁Afrique",
        -7.459585045175657
      ],
      [
        "▁case",
        -7.4650539909329385
      ],
      [
        "▁n",
        -7.475877748135149
      ],
      [
        "▁De",
        -7.476416278043722
      ],
      [
        "▁N",
        -7.482544400834893
      ],
      [
        "▁forêt",
        -7.484318026198741
      ],
      [
        "▁aucun",
        -7.488428844905748
      ],
      [
        "autour",
        -7.492332426448587
      ],
      [
        "▁nuit",
        -7.505501034921904
      ],
      [
        "o",
        -7.5287349715468235
      ],
      [
        "’exil",
        -7.533067184795985
      ],
      [
        "▁Nigeria",
        -7.534401078455954
      ],
      [
        "ais",
        -7.55077563168993
      ],
      [
        "▁bord",
        -7.55138340875008
      ],
      [
        "▁rien",
        -7.557411307770215
      ],
      [
        "▁route",
        -7.557815371447585
      ],
      [
        "iers",
        -7.5598673679851895
      ],
      [
        "▁vers",
        -7.56220652276565
      ],
      [
        "▁dé",
        -7.56367289841788
      ],
      [
        "▁A",
        -7.566173600335718
      ],
      [
        "ux",
        -7.567133832851795
      ],
      [
        "ns",
        -7.5863367447326695
      ],
      [
        "▁grand-mère",
        -7.58705897018476
      ],
      [
        "▁souviens",
        -7.587319483309983
      ],
      [
        "▁qu'on",
        -7.593780315080805
      ],
      [
        "▁bout",
        -7.605575363775049
      ],
      [
        "▁haut",
        -7.606133942026829
      ],
      [
        "▁puis",
        -7.608474280035863
      ],
      [
        "▁village",
        -7.6128029495001055
      ],
      [
        "▁chose",
        -7.612854658645702
      ],
      [
        "▁rivière",
        -7.6128980983185945
      ],
      [
        "▁femme",
        -7.6134521719825
      ],
      [
        "▁passé",
        -7.614083979781992
      ],
      [
        "▁s'",
        -7.620757771979456
      ],
      [
        "eurs",
        -7.621134333107509
      ],
      [
        "▁t",
        -7.628184782194538
      ],
      [
        "▁L'",
        -7.631770200186786
      ],
      [
        "▁in",
        -7.63482627831416
      ],
      [
        "▁va",
        -7.638624075784204
      ],
      [
        "▁soleil",
        -7.64241629652619
      ],
      [
        "▁fourmis",
        -7.6451567391164215
      ],
      [
        "▁Et",
        -7.646985469538184
      ],
      [
        "ai",
        -7.650516186119896
      ],
      [
        "▁murs",
        -7.651102142409053
      ],
      [
        "▁devant",
        -7.651881131358184
      ],
      [
        "▁cet",
        -7.65738853072024
      ],
      [
        "▁qu'",
        -7.661202488762174
      ],
      [
        "m",
        -7.666553559636145
      ],
      [
        "tion",
        -7.667692564063644
      ],
      [
        "▁regard",
        -7.691962556686481
      ],
      [
        "▁seul",
        -7.694151306997044
      ],
      [
        "▁No",
        -7.700439865554554
      ],
      [
        "▁Banso",
        -7.701063358026628
      ],
      [
        "▁toit",
        -7.701727195863743
      ],
      [
        "tôt",
        -7.709171981133313
      ],
      [
        "▁plaine",
        -7.709848428638523
      ],
      [
        "▁peau",
        -7.710693224460265
      ],
      [
        "ur",
        -7.711502311529968
      ],
      [
        "▁sorte",
        -7.717489359023379
      ],
      [
        "▁l'a",
        -7.720001169267153
      ],
      [
        "▁Au",
        -7.729599259667612
      ],
      [
        "▁voyage",
        -7.7341278821652555
      ],
      [
        "▁mot",
        -7.737352354047406
      ],
      [
        "▁ans",
        -7.739267159217529
      ],
      [
        "▁grand",
        -7.741963652779836
      ],
      [
        "▁quan",
        -7.74303781870168
      ],
      [
        "▁ét",
        -7.746176636651628
      ],
      [
        "▁f",
        -7.747981618199457
      ],
      [
        "té",
        -7.751172087963084
      ],
      [
        "entre",
        -7.753831881916176
      ],
      [
        "▁l'Ouest",
        -7.763885654630132
      ],
      [
        "▁homme",
        -7.764713611906979
      ],
      [
        "▁sui",
        -7.7889848805971935
      ],
      [
        "▁tel",
        -7.793130826773787
      ],
      [
        "▁femmes",
        -7.805412917068763
      ],
      [
        "▁Bamenda",
        -7.829243855062636
      ],
      [
        "▁violence",
        -7.829246779310125
      ],
      [
        "ous",
        -7.836178181436973
      ],
      [
        "tte",
        -7.836199347591135
      ],
      [
        "▁contre",
        -7.836431848289777
      ],
      [
        "▁C'étai",
        -7.83894581128693
      ],
      [
        "▁ciel",
        -7.839501174373829
      ],
      [
        "▁mal",
        -7.84200377510969
      ],
      [
        "▁re",
        -7.842522439849928
      ],
      [
        "▁grande",
        -7.848666493464526
      ],
      [
        "▁pu",
        -7.850069526053326
      ],
      [
        "aux",
        -7.850726983326393
      ],
      [
        "▁yeux",
        -7.854531337036692
      ],
      [
        "▁Quan",
        -7.8605256515677455
      ],
      [
        "ry",
        -7.862219357533856
      ],
      [
        "▁plu",
        -7.865289096287077
      ],
      [
        "▁villages",
        -7.866254171191187
      ],
      [
        "▁souvenir",
        -7.870528272292068
      ],
      [
        "▁port",
        -7.873030236582622
      ],
      [
        "ou",
        -7.874576197857927
      ],
      [
        "▁long",
        -7.876381970362372
      ],
      [
        "▁ni",
        -7.877660607374557
      ],
      [
        "armée",
        -7.8837855844217035
      ],
      [
        "▁Pour",
        -7.887309422550003
      ],
      [
        "▁so",
        -7.888908337138174
      ],
      [
        "ir",
        -7.8892390244252475
      ],
      [
        "elle",
        -7.89055337794415
      ],
      [
        "▁doi",
        -7.894060253722266
      ],
      [
        "eur",
        -7.899774152840386
      ],
      [
        "quelle",
        -7.900265301896865
      ],
      [
        "▁jardin",
        -7.900672409418019
      ],
      [
        "▁mémoire",
        -7.900679914249712
      ],
      [
        "▁vécu",
        -7.90070098416255
      ],
      [
        "▁l'hôpital",
        -7.901783628892806
      ],
      [
        "ient",
        -7.901833742814708
      ],
      [
        "▁l'eau",
        -7.902248885177334
      ],
      [
        "▁Elle",
        -7.902528052482217
      ],
      [
        "▁gens",
        -7.90257928848594
      ],
      [
        "▁bois",
        -7.902678901930783
      ],
      [
        "▁côté",
        -7.9102418150906
      ],
      [
        "ité",
        -7.915384098635963
      ],
      [
        "▁étai",
        -7.918209656841503
      ],
      [
        "▁montagnes",
        -7.918412479994121
      ],
      [
        "▁n'étai",
        -7.922166085276832
      ],
      [
        "uis",
        -7.926710066125006
      ],
      [
        "▁n'avai",
        -7.937956294455245
      ],
      [
        "te",
        -7.938566415377565
      ],
      [
        "▁mort",
        -7.9449978277490265
      ],
      [
        "me",
        -7.9478696080670606
      ],
      [
        "▁coup",
        -7.950115516778856
      ],
      [
        "▁connu",
        -7.951444762448276
      ],
      [
        "ées",
        -7.958404704049828
      ],
      [
        "ère",
        -7.960846204269008
      ],
      [
        "t-",
        -7.9674747677413125
      ],
      [
        "avoir",
        -7.967976979882536
      ],
      [
        "▁jours",
        -7.971855500424436
      ],
      [
        "▁voir",
        -7.975304745885737
      ],
      [
        "▁qu'un",
        -7.975776167460179
      ],
      [
        "▁britannique",
        -7.977595462707386
      ],
      [
        "▁liberté",
        -7.977595527600448
      ],
      [
        "▁tard",
        -7.97786503730063
      ],
      [
        "▁Maurice",
        -7.979298809836839
      ],
      [
        "▁lorsqu",
        -7.98052349228326
      ],
      [
        "▁parler",
        -7.98117113754088
      ],
      [
        "▁nos",
        -7.986630506269739
      ],
      [
        "▁Sa",
        -7.99653908632607
      ],
      [
        "▁aurait",
        -8.006757339444318
      ],
      [
        "▁M",
        -8.0133181134386
      ],
      [
        "avons",
        -8.022543287218216
      ],
      [
        "ès",
        -8.029244143237078
      ],
      [
        "▁seule",
        -8.031264915873763
      ],
      [
        "▁carte",
        -8.031483008869511
      ],
      [
        "▁enfant",
        -8.032880266624689
      ],
      [
        "▁peut",
        -8.035534516033287
      ],
      [
        "▁celle",
        -8.038437909113373
      ],
      [
        "▁ville",
        -8.038633003668341
      ],
      [
        "▁reste",
        -8.038866880334133
      ],
      [
        "▁grands",
        -8.040788185733692
      ],
      [
        "aire",
        -8.04687572561549
      ],
      [
        "▁no",
        -8.051777913810783
      ],
      [
        "in",
        -8.055237410957233
      ],
      [
        "▁l'autre",
        -8.061294207941033
      ],
      [
        "▁Tout",
        -8.06135390442919
      ],
      [
        "▁passage",
        -8.061768793038835
      ],
      [
        "▁Sud",
        -8.062531310393073
      ],
      [
        "▁appris",
        -8.063117975474608
      ],
      [
        "▁For",
        -8.063738066073977
      ],
      [
        "vent",
        -8.064049550189873
      ],
      [
        "▁heures",
        -8.065025015536392
      ],
      [
        "▁aujourd'hui",
        -8.067024066191733
      ],
      [
        "▁trop",
        -8.074241745291555
      ],
      [
        "▁dire",
        -8.076238018679433
      ],
      [
        "▁main",
        -8.080050897491722
      ],
      [
        "▁fleuves",
        -8.086814485813168
      ],
      [
        "▁vi",
        -8.08712465436431
      ],
      [
        "▁semble",
        -8.090186466646188
      ],
      [
        "▁J",
        -8.090423065456335
      ],
      [
        "vaient",
        -8.096154341801128
      ],
      [
        "▁pres",
        -8.101430164918456
      ],
      [
        "age",
        -8.113674565529891
      ],
      [
        "▁noir",
        -8.117374538697256
      ],
      [
        "▁moment",
        -8.12260667087138
      ],
      [
        "▁J'a",
        -8.123090375341986
      ],
      [
        "▁vrai",
        -8.123873075247923
      ],
      [
        "▁toutes",
        -8.124807681639092
      ],
      [
        "▁j'",
        -8.125329147392213
      ],
      [
        "▁cour",
        -8.125931091974648
      ],
      [
        "f",
        -8.129427359970283
      ],
      [
        "▁ca",
        -8.133940691497159
      ],
      [
        "▁marche",
        -8.137556306917352
      ],
      [
        "▁Guyane",
        -8.151837907845715
      ],
      [
        "zone",
        -8.151856456699706
      ],
      [
        "▁frère",
        -8.151957421036043
      ],
      [
        "▁force",
        -8.151988122891142
      ],
      [
        "▁lit",
        -8.152255924009474
      ],
      [
        "▁famille",
        -8.15249025627526
      ],
      [
        "▁cuir",
        -8.152912242768233
      ],
      [
        "▁longue",
        -8.153866759274313
      ],
      [
        "▁silence",
        -8.15419819299774
      ],
      [
        "▁faisait",
        -8.154508568540216
      ],
      [
        "▁poste",
        -8.154629403121431
      ],
      [
        "▁bateau",
        -8.15681324135684
      ],
      [
        "▁fall",
        -8.15823620826395
      ],
      [
        "▁soir",
        -8.162454094202051
      ],
      [
        "▁toujours",
        -8.162668624433806
      ],
      [
        "▁toute",
        -8.164177641595236
      ],
      [
        "▁arbres",
        -8.166381425705527
      ],
      [
        "▁avions",
        -8.174051857823391
      ],
      [
        "p",
        -8.177255087320367
      ],
      [
        "▁ch",
        -8.180203852782284
      ],
      [
        "▁on",
        -8.19745720951479
      ],
      [
        "▁hommes",
        -8.197933885216631
      ],
      [
        "vait",
        -8.198029949239544
      ],
      [
        "▁forme",
        -8.206125857850848
      ],
      [
        "▁photo",
        -8.221164461769993
      ],
      [
        "▁fleuve",
        -8.221386644801706
      ],
      [
        "▁première",
        -8.22172176094097
      ],
      [
        "▁fond",
        -8.22658844610405
      ],
      [
        "▁qu",
        -8.232358652423727
      ],
      [
        "▁dit",
        -8.240021239225635
      ],
      [
        "près",
        -8.242067290554395
      ],
      [
        "▁là",
        -8.24570294685914
      ],
      [
        "▁B",
        -8.250768674588326
      ],
      [
        "8",
        -8.251837886858386
      ],
      [
        "▁Nord",
        -8.252046659777386
      ],
      [
        "▁d'Ogoja",
        -8.252063167854942
      ],
      [
        "▁matin",
        -8.252070269022648
      ],
      [
        "▁voix",
        -8.252112708599672
      ],
      [
        "▁sentiment",
        -8.252326682915308
      ],
      [
        "▁point",
        -8.25377710400436
      ],
      [
        "▁partir",
        -8.253960913851543
      ],
      [
        "▁moins",
        -8.255710797267424
      ],
      [
        "▁nouveau",
        -8.256487021747459
      ],
      [
        "▁bras",
        -8.26369069214648
      ],
      [
        "▁partie",
        -8.270765056174238
      ],
      [
        "▁pieds",
        -8.27327993346534
      ],
      [
        "des",
        -8.273532883517294
      ],
      [
        "▁su",
        -8.274882941119364
      ],
      [
        "▁vois",
        -8.278334431353512
      ],
      [
        "r.",
        -8.27891972612909
      ],
      [
        "▁G",
        -8.284263065196193
      ],
      [
        "▁regarde",
        -8.284757808609225
      ],
      [
        "▁pa",
        -8.286334633697068
      ],
      [
        "▁mains",
        -8.287842913847072
      ],
      [
        "ure",
        -8.292300106186184
      ],
      [
        "▁sang",
        -8.294049990708652
      ],
      [
        "ance",
        -8.301809353354484
      ],
      [
        "▁do",
        -8.30922584892463
      ],
      [
        "▁eu",
        -8.309761252722582
      ],
      [
        "▁porte",
        -8.310414842231888
      ],
      [
        "▁av",
        -8.326644575068315
      ],
      [
        "▁Peu",
        -8.327249794526466
      ],
      [
        "▁pro",
        -8.34310139416889
      ],
      [
        "ts",
        -8.34335877713453
      ],
      [
        "ons",
        -8.345636958930289
      ],
      [
        "au",
        -8.352308653891951
      ],
      [
        "où",
        -8.359648224707069
      ],
      [
        "▁petite",
        -8.360821831969496
      ],
      [
        "▁vu",
        -8.361865239869488
      ],
      [
        "▁co",
        -8.362088259582467
      ],
      [
        "▁façon",
        -8.362948997972104
      ],
      [
        "▁pirogue",
        -8.362949054271766
      ],
      [
        "▁lumière",
        -8.362949333611468
      ],
      [
        "▁société",
        -8.362950401414805
      ],
      [
        "▁l'âge",
        -8.36295412236789
      ],
      [
        "▁raison",
        -8.362970238162823
      ],
      [
        "▁insectes",
        -8.362985206546288
      ],
      [
        "▁savane",
        -8.363045603505107
      ],
      [
        "▁manger",
        -8.363446921527789
      ],
      [
        "▁po",
        -8.363598671286598
      ],
      [
        "▁parfois",
        -8.363747134003615
      ],
      [
        "ante",
        -8.363836167377606
      ],
      [
        "▁chaleur",
        -8.363906676494581
      ],
      [
        "▁marché",
        -8.364601733989055
      ],
      [
        "ec",
        -8.365189134787697
      ],
      [
        "▁vieille",
        -8.365336067782625
      ],
      [
        "▁d'herbes",
        -8.365464212847595
      ],
      [
        "▁Ou",
        -8.367298957515537
      ],
      [
        "▁d’",
        -8.368394071781903
      ],
      [
        "▁couleur",
        -8.368446769063429
      ],
      [
        "▁étions",
        -8.36883639265153
      ],
      [
        "▁garçons",
        -8.372655350764806
      ],
      [
        "▁d'a",
        -8.372971661296907
      ],
      [
        "▁cause",
        -8.373062199740595
      ],
      [
        "▁côte",
        -8.37757890981451
      ],
      [
        "▁Ba",
        -8.378026307245102
      ],
      [
        "▁enfance",
        -8.378648060151718
      ],
      [
        "eu",
        -8.38251790147908
      ],
      [
        "▁crois",
        -8.3841411360508
      ],
      [
        "▁mili",
        -8.387844472514665
      ],
      [
        "▁vent",
        -8.389617822372818
      ],
      [
        "▁b",
        -8.403815237619133
      ],
      [
        "▁froid",
        -8.404485991420538
      ],
      [
        "▁l'ai",
        -8.410506112238181
      ],
      [
        "▁part",
        -8.420738220599574
      ],
      [
        "ez",
        -8.423501538453317
      ],
      [
        "and",
        -8.424625448770103
      ],
      [
        "nce",
        -8.42805511930085
      ],
      [
        "▁routes",
        -8.429173324010353
      ],
      [
        "▁feu",
        -8.430059711645477
      ],
      [
        "ter",
        -8.435093619353752
      ],
      [
        "▁jeu",
        -8.437180656158699
      ],
      [
        "ture",
        -8.443349898011112
      ],
      [
        "▁rêve",
        -8.44509328792968
      ],
      [
        "▁nature",
        -8.445736290026923
      ],
      [
        "vous",
        -8.448389407624745
      ],
      [
        "▁africain",
        -8.450261351203345
      ],
      [
        "tant",
        -8.451477618507186
      ],
      [
        "ique",
        -8.453119108258612
      ],
      [
        "▁telle",
        -8.453946816335257
      ],
      [
        "▁rouge",
        -8.455157169583856
      ],
      [
        "▁visage",
        -8.456587235285369
      ],
      [
        "▁petit",
        -8.456805657811453
      ],
      [
        "▁ex",
        -8.459180813778973
      ],
      [
        "▁montagne",
        -8.46056561169954
      ],
      [
        "▁inter",
        -8.46445499378565
      ],
      [
        "se",
        -8.465467183772683
      ],
      [
        "du",
        -8.465884840609824
      ],
      [
        "û",
        -8.470361885607362
      ],
      [
        "gré",
        -8.470478878067333
      ],
      [
        "pendan",
        -8.475423163773083
      ],
      [
        "▁h",
        -8.482275636076846
      ],
      [
        "▁sais",
        -8.482494375625496
      ],
      [
        "▁médicaments",
        -8.487948998636112
      ],
      [
        "▁simple",
        -8.487950434655891
      ],
      [
        "▁chaussettes",
        -8.487956135853455
      ],
      [
        "▁l'amour",
        -8.487959836570493
      ],
      [
        "▁puissance",
        -8.487987670193395
      ],
      [
        "▁feuilles",
        -8.488012392643435
      ],
      [
        "▁blanche",
        -8.488025995871022
      ],
      [
        "▁L'Afrique",
        -8.488186664433726
      ],
      [
        "▁départ",
        -8.48845526335402
      ],
      [
        "▁douceur",
        -8.488458674664951
      ],
      [
        "▁région",
        -8.488507468086732
      ],
      [
        "▁Nice",
        -8.488551681431403
      ],
      [
        "▁dernier",
        -8.488611315891038
      ],
      [
        "avait",
        -8.488653809852368
      ],
      [
        "▁plein",
        -8.488718046771853
      ],
      [
        "▁manière",
        -8.488786398360213
      ],
      [
        "▁longtemps",
        -8.489031342262713
      ],
      [
        "▁surtout",
        -8.489355225928982
      ],
      [
        "▁Comme",
        -8.490735949114676
      ],
      [
        "▁meubles",
        -8.491054853887837
      ],
      [
        "▁faut",
        -8.491072455818513
      ],
      [
        "▁salle",
        -8.491861194634758
      ],
      [
        "▁debout",
        -8.492377133480248
      ],
      [
        "▁I",
        -8.493235638361769
      ],
      [
        "▁montre",
        -8.49465961795886
      ],
      [
        "▁proche",
        -8.496024460087058
      ],
      [
        "▁cœur",
        -8.498501932592104
      ],
      [
        "▁goût",
        -8.499006561899597
      ],
      [
        "▁Non",
        -8.501587155073072
      ],
      [
        "▁roi",
        -8.50187664455839
      ],
      [
        "▁près",
        -8.506977572111273
      ],
      [
        "▁sauvages",
        -8.507494052598327
      ],
      [
        "▁hautes",
        -8.50931977719975
      ],
      [
        "▁noms",
        -8.510536515676977
      ],
      [
        "▁compte",
        -8.513000090218625
      ],
      [
        "tes",
        -8.514966913492925
      ],
      [
        "umes",
        -8.51744722457756
      ],
      [
        "▁connaiss",
        -8.523439350155469
      ],
      [
        "▁photos",
        -8.528179095157649
      ],
      [
        "▁not",
        -8.529914345675602
      ],
      [
        "ndant",
        -8.544962686210042
      ],
      [
        "▁ba",
        -8.546367050813013
      ],
      [
        "▁sou",
        -8.547971384218002
      ],
      [
        "▁sera",
        -8.551597457739966
      ],
      [
        "impression",
        -8.555596448694322
      ],
      [
        "▁pouvai",
        -8.557286949969422
      ],
      [
        "▁parlait",
        -8.559978167422464
      ],
      [
        "▁choses",
        -8.56045682139263
      ],
      [
        "ch",
        -8.560465257245111
      ],
      [
        "ine",
        -8.566052488308134
      ],
      [
        "▁devai",
        -8.56837702283249
      ],
      [
        "homme",
        -8.578041920791552
      ],
      [
        "▁cours",
        -8.578090866041189
      ],
      [
        "▁certaine",
        -8.590139195197914
      ],
      [
        "▁cons",
        -8.592746789023913
      ],
      [
        "▁vivre",
        -8.59775007670334
      ],
      [
        "▁scorpion",
        -8.599741005523574
      ],
      [
        "▁peur",
        -8.600461102491572
      ],
      [
        "▁retour",
        -8.602531328732292
      ],
      [
        "▁e",
        -8.606245666290496
      ],
      [
        "▁di",
        -8.612524999349754
      ],
      [
        "▁pied",
        -8.612705948345004
      ],
      [
        "▁O",
        -8.614632849638983
      ],
      [
        "▁l'é",
        -8.620649079247519
      ],
      [
        "▁travail",
        -8.626470147956114
      ],
      [
        "our",
        -8.627755959679547
      ],
      [
        "▁gro",
        -8.630422505679965
      ],
      [
        "g",
        -8.630425596307404
      ],
      [
        "▁Victoria",
        -8.630806140838594
      ],
      [
        "▁âge",
        -8.630806140846671
      ],
      [
        "▁gouvernement",
        -8.630806140884268
      ],
      [
        "▁bonheur",
        -8.63080617544944
      ],
      [
        "▁difficile",
        -8.630806198884034
      ],
      [
        "▁immense",
        -8.630806544254247
      ],
      [
        "▁premier",
        -8.630808420695296
      ],
      [
        "▁mourir",
        -8.630808573552308
      ],
      [
        "▁solitude",
        -8.630810255677574
      ],
      [
        "▁cheval",
        -8.63081197551309
      ],
      [
        "▁l'intérieur",
        -8.63081222571952
      ],
      [
        "▁Alors",
        -8.630824157742893
      ],
      [
        "▁House",
        -8.630845113427753
      ],
      [
        "▁beaucoup",
        -8.630846430190822
      ],
      [
        "▁tôle",
        -8.630856978773753
      ],
      [
        "▁district",
        -8.630946743840186
      ],
      [
        "▁plateaux",
        -8.631006290256632
      ],
      [
        "▁l'Angleterre",
        -8.631083411434586
      ],
      [
        "▁d'autre",
        -8.631136833160111
      ],
      [
        "▁train",
        -8.631141365976738
      ],
      [
        "▁campement",
        -8.631174904523705
      ],
      [
        "▁d'abord",
        -8.631525961758674
      ],
      [
        "▁celui",
        -8.631843988309734
      ],
      [
        "▁large",
        -8.631922683535924
      ],
      [
        "▁d'Afrique",
        -8.63203663194929
      ],
      [
        "▁au-de",
        -8.632531699980182
      ],
      [
        "▁palmes",
        -8.632842557307782
      ],
      [
        "mettre",
        -8.632996686872433
      ],
      [
        "thme",
        -8.633018824785493
      ],
      [
        "▁Plu",
        -8.633198319335335
      ],
      [
        "▁prend",
        -8.633578559129004
      ],
      [
        "▁termites",
        -8.633828594849662
      ],
      [
        "▁courant",
        -8.63406929954802
      ],
      [
        "▁nuages",
        -8.63409143371252
      ],
      [
        "▁depuis",
        -8.634528197933818
      ],
      [
        "▁reç",
        -8.635161967817302
      ],
      [
        "▁images",
        -8.635304959119285
      ],
      [
        "▁six",
        -8.635594227197181
      ],
      [
        "▁mi",
        -8.636776292402656
      ],
      [
        "▁ventre",
        -8.637225754090194
      ],
      [
        "▁lieux",
        -8.639860353996188
      ],
      [
        "▁accroché",
        -8.639871092863222
      ],
      [
        "▁raconte",
        -8.640943855949894
      ],
      [
        "▁porteurs",
        -8.641224566524425
      ],
      [
        "▁mer",
        -8.64350180626127
      ],
      [
        "odeur",
        -8.64381316836524
      ],
      [
        "▁anglaise",
        -8.64386700102843
      ],
      [
        "▁cru",
        -8.649061588703402
      ],
      [
        "▁lieu",
        -8.651071410159295
      ],
      [
        "dé",
        -8.652035409329425
      ],
      [
        "▁chemins",
        -8.652625152746321
      ],
      [
        "▁parc",
        -8.653687824165312
      ],
      [
        "▁s'il",
        -8.655873673553337
      ],
      [
        "▁D'",
        -8.658894578445159
      ],
      [
        "autorité",
        -8.663019957528709
      ],
      [
        "▁l’",
        -8.663141718647294
      ],
      [
        "▁con",
        -8.664009041387281
      ],
      [
        "▁chasse",
        -8.664361381728492
      ],
      [
        "▁lesquel",
        -8.666018976657067
      ],
      [
        "▁nus",
        -8.670957435387043
      ],
      [
        "▁aller",
        -8.671249814176576
      ],
      [
        "▁habit",
        -8.6758189133248
      ],
      [
        "▁premières",
        -8.676603662201746
      ],
      [
        "▁noirs",
        -8.682509909707084
      ],
      [
        "▁coloniale",
        -8.68479180985993
      ],
      [
        "▁petits",
        -8.68529486698974
      ],
      [
        "▁r",
        -8.690978686752594
      ],
      [
        "ables",
        -8.694698585736825
      ],
      [
        "▁s'ét",
        -8.698974633259724
      ],
      [
        "▁K",
        -8.703122961700668
      ],
      [
        "h",
        -8.704953714040661
      ],
      [
        "▁pris",
        -8.705275973352899
      ],
      [
        "ire",
        -8.705498013310228
      ],
      [
        "▁jou",
        -8.707403422441025
      ],
      [
        "▁E",
        -8.712736593288248
      ],
      [
        "entiers",
        -8.7139493911878
      ],
      [
        "▁V",
        -8.722380536054905
      ],
      [
        "▁crise",
        -8.727748005370769
      ],
      [
        "▁entend",
        -8.732347906134466
      ],
      [
        "▁J'",
        -8.739137591955844
      ],
      [
        "ng",
        -8.741365555622835
      ],
      [
        "▁hu",
        -8.742032011910434
      ],
      [
        "▁colonial",
        -8.745431168421472
      ],
      [
        "voir",
        -8.754880432198902
      ],
      [
        "ieux",
        -8.758047105017962
      ],
      [
        "▁v",
        -8.758789063830694
      ],
      [
        "▁m'en",
        -8.759077573135682
      ],
      [
        "▁vo",
        -8.760496793313209
      ],
      [
        "▁destin",
        -8.761475990680285
      ],
      [
        "▁maladie",
        -8.765287294811689
      ],
      [
        "▁gardé",
        -8.767403479766134
      ],
      [
        "ri",
        -8.767535714970863
      ],
      [
        "▁blanc",
        -8.770129059057581
      ],
      [
        "quoi",
        -8.771366572542547
      ],
      [
        "▁ressenti",
        -8.7717597365247
      ],
      [
        "▁étranger",
        -8.776620316102951
      ],
      [
        "▁boue",
        -8.776932497899825
      ],
      [
        "▁venu",
        -8.78020584806492
      ],
      [
        "▁accompagn",
        -8.794876284082692
      ],
      [
        "▁Africains",
        -8.79747281038255
      ],
      [
        "▁territoire",
        -8.797472855454824
      ],
      [
        "▁officer",
        -8.797472978139915
      ],
      [
        "▁règle",
        -8.797473033247421
      ],
      [
        "▁brousse",
        -8.797473792137314
      ],
      [
        "▁Lagos",
        -8.797476466617942
      ],
      [
        "▁désert",
        -8.797492004398023
      ],
      [
        "▁chemise",
        -8.797493184808111
      ],
      [
        "▁vingt",
        -8.797514636633327
      ],
      [
        "▁pierre",
        -8.79752368020408
      ],
      [
        "▁cheveux",
        -8.797560154096931
      ],
      [
        "▁réalité",
        -8.797591847068318
      ],
      [
        "▁servir",
        -8.79760077737378
      ],
      [
        "▁frontière",
        -8.797660198815064
      ],
      [
        "▁époque",
        -8.797726159778872
      ],
      [
        "▁légère",
        -8.79778739977052
      ],
      [
        "▁j'imagine",
        -8.797820600115163
      ],
      [
        "▁rêvé",
        -8.797839155035083
      ],
      [
        "▁vaste",
        -8.798075571820533
      ],
      [
        "▁début",
        -8.798090853396001
      ],
      [
        "▁Par",
        -8.798245282765546
      ],
      [
        "▁herbes",
        -8.7983050028204
      ],
      [
        "▁nouvelle",
        -8.798421008336618
      ],
      [
        "▁masques",
        -8.798568605566986
      ],
      [
        "▁ressens",
        -8.79857817488488
      ],
      [
        "▁courir",
        -8.798716130046863
      ],
      [
        "▁lequel",
        -8.799319335121666
      ],
      [
        "▁fuir",
        -8.799378247427168
      ],
      [
        "▁arrêté",
        -8.799648938156295
      ],
      [
        "▁partout",
        -8.79984435895811
      ],
      [
        "▁bouche",
        -8.799903268914544
      ],
      [
        "▁habitants",
        -8.801403864163088
      ],
      [
        "▁l'aventure",
        -8.801667244980575
      ],
      [
        "▁malade",
        -8.80189786247653
      ],
      [
        "▁laisser",
        -8.802710008980954
      ],
      [
        "▁dev",
        -8.80339393213309
      ],
      [
        "▁écrit",
        -8.805723574057332
      ],
      [
        "▁livre",
        -8.80642005657768
      ],
      [
        "▁africaine",
        -8.806493009770307
      ],
      [
        "▁jambes",
        -8.806851426144625
      ],
      [
        "éjà",
        -8.808319313690388
      ],
      [
        "lon",
        -8.808637918213046
      ],
      [
        "▁Obudu",
        -8.809098720359932
      ],
      [
        "b",
        -8.81112248936773
      ],
      [
        "▁objets",
        -8.812026396419654
      ],
      [
        "▁humaine",
        -8.812383002098947
      ],
      [
        "▁thé",
        -8.812601339963658
      ],
      [
        "▁Europe",
        -8.812850830007353
      ],
      [
        "▁histoire",
        -8.812880582234762
      ],
      [
        "▁sol",
        -8.814219653823443
      ],
      [
        "▁souffle",
        -8.814717544812144
      ],
      [
        "▁vêtu",
        -8.815189680448457
      ],
      [
        "-t-il",
        -8.817161227570166
      ],
      [
        "▁devenu",
        -8.819949969908368
      ],
      [
        "▁Su",
        -8.82014938432773
      ],
      [
        "indre",
        -8.822040914687172
      ],
      [
        "▁sens",
        -8.82222232379257
      ],
      [
        "image",
        -8.823905989316902
      ],
      [
        "▁ressentir",
        -8.825461779847513
      ],
      [
        "▁Quelque",
        -8.825886393936353
      ],
      [
        "▁tours",
        -8.828824402019107
      ],
      [
        "instant",
        -8.832641933022789
      ],
      [
        "▁C'",
        -8.832909047671679
      ],
      [
        "▁naissance",
        -8.834391792821561
      ],
      [
        "▁cou",
        -8.836449931936349
      ],
      [
        "▁fais",
        -8.836693386336746
      ],
      [
        "part",
        -8.841555497409995
      ],
      [
        "▁visages",
        -8.84190926525206
      ],
      [
        "▁commence",
        -8.85428921527724
      ],
      [
        "▁française",
        -8.855674926011574
      ],
      [
        "eau",
        -8.863668966349048
      ],
      [
        "▁coups",
        -8.86367028806197
      ],
      [
        "▁rage",
        -8.863922262210616
      ],
      [
        "▁l'entr",
        -8.864823804366623
      ],
      [
        "▁portes",
        -8.867409744088828
      ],
      [
        "▁band",
        -8.870926429969009
      ],
      [
        "éri",
        -8.874872737838732
      ],
      [
        "▁mo",
        -8.88042255273688
      ],
      [
        "▁mari",
        -8.882748408722719
      ],
      [
        "▁pos",
        -8.884213095951097
      ],
      [
        "ort",
        -8.886147293646708
      ],
      [
        "▁suiv",
        -8.889982554207009
      ],
      [
        "iment",
        -8.892001657042949
      ],
      [
        "▁parle",
        -8.892656745908486
      ],
      [
        "vant",
        -8.893212245662534
      ],
      [
        "▁éta",
        -8.89610052813877
      ],
      [
        "▁rivières",
        -8.897492178562246
      ],
      [
        "▁Pe",
        -8.904018414363248
      ],
      [
        "▁car",
        -8.910267406608606
      ],
      [
        "▁nom",
        -8.912240737499939
      ],
      [
        "êtes",
        -8.913303028000444
      ],
      [
        "▁bas",
        -8.914189949924122
      ],
      [
        "kom",
        -8.91756932313964
      ],
      [
        "▁per",
        -8.91853812443929
      ],
      [
        "▁H",
        -8.922176987131085
      ],
      [
        "rait",
        -8.923258919998348
      ],
      [
        "▁col",
        -8.925035614636723
      ],
      [
        "▁français",
        -8.930722946786684
      ],
      [
        "ton",
        -8.939221158143635
      ],
      [
        "▁Av",
        -8.940462347930122
      ],
      [
        "tation",
        -8.957217023835623
      ],
      [
        "ète",
        -8.96406834925611
      ],
      [
        "▁sauvage",
        -8.965835312342021
      ],
      [
        "▁chaud",
        -8.966067346315247
      ],
      [
        "ame",
        -8.971104034702044
      ],
      [
        "▁am",
        -8.972191959690202
      ],
      [
        "▁entendu",
        -8.97255632623986
      ],
      [
        "▁mur",
        -8.97772883991389
      ],
      [
        "lle",
        -8.980175408881038
      ],
      [
        "son",
        -8.981202223818467
      ],
      [
        "▁chemin",
        -8.982023812445489
      ],
      [
        "▁garde",
        -8.984981315583465
      ],
      [
        "▁ta",
        -8.98995147079144
      ],
      [
        "ré",
        -8.990526201491111
      ],
      [
        "▁eux",
        -8.996530100060697
      ],
      [
        "-là",
        -8.996915229129701
      ],
      [
        "▁juste",
        -8.997263416121896
      ],
      [
        "▁Georgetown",
        -8.997472807506238
      ],
      [
        "▁biafrais",
        -8.997472807506574
      ],
      [
        "▁Biafra",
        -8.997472807508673
      ],
      [
        "▁camerounais",
        -8.997472807533143
      ],
      [
        "2",
        -8.997472807544845
      ],
      [
        "▁Southampton",
        -8.997472807544845
      ],
      [
        "▁photographi",
        -8.997472816406969
      ],
      [
        "▁termitières",
        -8.997472825226039
      ],
      [
        "▁!",
        -8.99747296902598
      ],
      [
        "▁l'époque",
        -8.997473310743198
      ],
      [
        "▁grand-père",
        -8.997473451608556
      ],
      [
        "▁Cross",
        -8.997473534684978
      ],
      [
        "▁continent",
        -8.99747477666572
      ],
      [
        "▁probable",
        -8.99747767624266
      ],
      [
        "▁visite",
        -8.997481817500294
      ],
      [
        "▁fauve",
        -8.997484006088564
      ],
      [
        "▁chaussures",
        -8.997486567007613
      ],
      [
        "▁terrible",
        -8.99749134630776
      ],
      [
        "▁rejoindre",
        -8.997492659050794
      ],
      [
        "▁compris",
        -8.997496313238232
      ],
      [
        "▁service",
        -8.997498157957358
      ],
      [
        "▁branche",
        -8.997498368970046
      ],
      [
        "▁collines",
        -8.997500193267802
      ],
      [
        "▁métier",
        -8.997500204019914
      ],
      [
        "▁contact",
        -8.997505824849265
      ],
      [
        "▁retraite",
        -8.997512196466392
      ],
      [
        "▁tronc",
        -8.997514876752568
      ],
      [
        "▁brûlure",
        -8.997551952100167
      ],
      [
        "▁ondul",
        -8.997558783635572
      ],
      [
        "▁j'étais",
        -8.997569107762391
      ],
      [
        "▁poussière",
        -8.997581479043342
      ],
      [
        "▁assis",
        -8.997620796374518
      ],
      [
        "▁fût",
        -8.997626254418233
      ],
      [
        "▁lampe",
        -8.997634953127573
      ],
      [
        "▁présent",
        -8.997636938168526
      ],
      [
        "▁séchée",
        -8.997776334065138
      ],
      [
        "▁revenir",
        -8.99777750997772
      ],
      [
        "▁rares",
        -8.99779409046113
      ],
      [
        "▁fruit",
        -8.997919887839807
      ],
      [
        "▁Pourtant",
        -8.998059364963762
      ],
      [
        "▁traverse",
        -8.998208292580973
      ],
      [
        "▁hutte",
        -8.998318660992355
      ],
      [
        "▁commun",
        -8.99847014562979
      ],
      [
        "▁journée",
        -8.998597942262814
      ],
      [
        "▁colère",
        -8.998615733215027
      ],
      [
        "▁voiture",
        -8.998654333990244
      ],
      [
        "▁précédé",
        -8.998766483767461
      ],
      [
        "▁oncle",
        -8.99887640825303
      ],
      [
        "▁mill",
        -8.99894701225105
      ],
      [
        "▁place",
        -8.999271136341395
      ],
      [
        "▁bonne",
        -8.999412650209678
      ],
      [
        "▁vivant",
        -8.999534174848227
      ],
      [
        "▁douce",
        -8.999842553077993
      ],
      [
        "▁pince",
        -9.000000244428671
      ],
      [
        "▁sensation",
        -9.000873019629905
      ],
      [
        "▁égale",
        -9.001359638975837
      ],
      [
        "▁apporté",
        -9.001387310155222
      ],
      [
        "▁auto",
        -9.0014282307086
      ],
      [
        "▁hamacs",
        -9.002047392331251
      ],
      [
        "▁sombre",
        -9.002055778918846
      ],
      [
        "▁cuisine",
        -9.002132842437172
      ],
      [
        "▁volets",
        -9.002137393976662
      ],
      [
        "andis",
        -9.002330571062183
      ],
      [
        "ie",
        -9.002748831999504
      ],
      [
        "▁jouer",
        -9.00294004687516
      ],
      [
        "▁droit",
        -9.003491489028647
      ],
      [
        "▁alors",
        -9.003563306245253
      ],
      [
        "▁men",
        -9.003703415977649
      ],
      [
        "tiens",
        -9.00392701159734
      ],
      [
        "▁rire",
        -9.00523771802725
      ],
      [
        "▁voit",
        -9.007701817397715
      ],
      [
        "bi",
        -9.008071819356672
      ],
      [
        "▁resté",
        -9.009029902581835
      ],
      [
        "▁personne",
        -9.009267400114355
      ],
      [
        "▁Moi",
        -9.009347811185012
      ],
      [
        "▁couch",
        -9.01054145253813
      ],
      [
        "▁différent",
        -9.010876006123876
      ],
      [
        "▁allemande",
        -9.012157487763712
      ],
      [
        "ion",
        -9.012197119022465
      ],
      [
        "▁lire",
        -9.01219740589297
      ],
      [
        "▁ami",
        -9.012770604115595
      ],
      [
        "▁ainsi",
        -9.01284758135558
      ],
      [
        "▁plan",
        -9.012945756264251
      ],
      [
        "▁armé",
        -9.013883607904546
      ],
      [
        "▁savoir",
        -9.014453696704848
      ],
      [
        "▁militaires",
        -9.016492439401016
      ],
      [
        "▁bou",
        -9.017401104581444
      ],
      [
        "▁charge",
        -9.01909903584027
      ],
      [
        "▁vide",
        -9.020853515388122
      ],
      [
        "▁donc",
        -9.023278812061466
      ],
      [
        "▁forte",
        -9.023291291539742
      ],
      [
        "▁laissé",
        -9.024644088999892
      ],
      [
        "▁pans",
        -9.025515569031139
      ],
      [
        "▁table",
        -9.03093228340008
      ],
      [
        "▁laine",
        -9.0320171410832
      ],
      [
        "▁Aiya",
        -9.033698606151479
      ],
      [
        "boy",
        -9.037606528005208
      ],
      [
        "▁rive",
        -9.039286969646335
      ],
      [
        "angoisse",
        -9.039697759398077
      ],
      [
        "▁pluie",
        -9.04203334803398
      ],
      [
        "▁scorpions",
        -9.044757133662147
      ],
      [
        "-j",
        -9.046746116584401
      ],
      [
        "▁instant",
        -9.047040072960113
      ],
      [
        "aires",
        -9.048594403919864
      ],
      [
        "▁avance",
        -9.050791767428962
      ],
      [
        "▁devenus",
        -9.051455942352735
      ],
      [
        "ôt",
        -9.051731433236213
      ],
      [
        "use",
        -9.053541099540524
      ],
      [
        "▁provi",
        -9.058423604015193
      ],
      [
        "▁tour",
        -9.060723776825883
      ],
      [
        "v",
        -9.063904551885283
      ],
      [
        "▁arrivée",
        -9.06404431715273
      ],
      [
        "euse",
        -9.067333009598462
      ],
      [
        "mes",
        -9.067597989772292
      ],
      [
        "▁rend",
        -9.067920538682182
      ],
      [
        "veux",
        -9.068945747525225
      ],
      [
        "était",
        -9.070634293013395
      ],
      [
        "▁batt",
        -9.071540932910402
      ],
      [
        "▁pareil",
        -9.073408808753662
      ],
      [
        "tions",
        -9.073489897354422
      ],
      [
        "▁grandi",
        -9.079696966467825
      ],
      [
        "vi",
        -9.082189103871425
      ],
      [
        "▁soup",
        -9.087431327548742
      ],
      [
        "an",
        -9.089291502588225
      ],
      [
        "▁19",
        -9.090917743266916
      ],
      [
        "▁rappel",
        -9.0916234994274
      ],
      [
        "▁Da",
        -9.091921223580355
      ],
      [
        "▁donn",
        -9.091965379132034
      ],
      [
        "▁l'avai",
        -9.093735155658296
      ],
      [
        "▁bo",
        -9.094746587420662
      ],
      [
        "ait-il",
        -9.097432567317174
      ],
      [
        "▁prise",
        -9.100830114434308
      ],
      [
        "ide",
        -9.101694759767621
      ],
      [
        "ssu",
        -9.102690462797172
      ],
      [
        "▁pensé",
        -9.104901489469542
      ],
      [
        "res",
        -9.106532454530308
      ],
      [
        "▁pouss",
        -9.107024455496418
      ],
      [
        "▁cont",
        -9.107511468503988
      ],
      [
        "▁ra",
        -9.112499623920797
      ],
      [
        "rète",
        -9.116806558854865
      ],
      [
        "▁seuls",
        -9.117649947453453
      ],
      [
        "semble",
        -9.118119891338685
      ],
      [
        "▁m'",
        -9.12023998407968
      ],
      [
        "▁cime",
        -9.120974302838363
      ],
      [
        "▁rue",
        -9.122401480477
      ],
      [
        "vais",
        -9.124702271028891
      ],
      [
        "▁impression",
        -9.127883250861888
      ],
      [
        "auté",
        -9.13087046298452
      ],
      [
        "▁troupeau",
        -9.137079848421024
      ],
      [
        "ins",
        -9.137178899800514
      ],
      [
        "▁ré",
        -9.137399679754079
      ],
      [
        "ille",
        -9.138318287101887
      ],
      [
        "▁all",
        -9.138717808331759
      ],
      [
        "▁pis",
        -9.140089601274783
      ],
      [
        "sion",
        -9.140459317433235
      ],
      [
        "▁couvert",
        -9.142292738726221
      ],
      [
        "ble",
        -9.142874730696782
      ],
      [
        "▁sau",
        -9.143383937759017
      ],
      [
        "▁(ce",
        -9.145127328575775
      ],
      [
        "ières",
        -9.148102998788605
      ],
      [
        "ption",
        -9.14877674982046
      ],
      [
        "▁donne",
        -9.149496703659754
      ],
      [
        "ombre",
        -9.149930931308027
      ],
      [
        "▁découvert",
        -9.155743574782596
      ],
      [
        "▁mé",
        -9.157543709581294
      ],
      [
        "am",
        -9.15974939319863
      ],
      [
        "▁croi",
        -9.160431767029031
      ],
      [
        "ing",
        -9.162187849235817
      ],
      [
        "▁pourra",
        -9.167734829503093
      ],
      [
        "▁pourrai",
        -9.170283247100114
      ],
      [
        "uni",
        -9.170335613120717
      ],
      [
        "isme",
        -9.17533745593829
      ],
      [
        "▁fenêtre",
        -9.17774951824549
      ],
      [
        "roule",
        -9.18804448544947
      ],
      [
        "ène",
        -9.189495790026898
      ],
      [
        "▁nu",
        -9.190042307527994
      ],
      [
        "aller",
        -9.191672239784726
      ],
      [
        "ni",
        -9.193391572542389
      ],
      [
        "▁vari",
        -9.194100424591477
      ],
      [
        "▁chang",
        -9.195341331800867
      ],
      [
        "ément",
        -9.200860820518743
      ],
      [
        "▁est-",
        -9.20133532042611
      ],
      [
        "▁cherch",
        -9.20176714818271
      ],
      [
        "▁tr",
        -9.20206682042285
      ],
      [
        "▁coupé",
        -9.20458060058586
      ],
      [
        "▁tête",
        -9.211471932010625
      ],
      [
        "ces",
        -9.212165001084468
      ],
      [
        "▁fil",
        -9.213079821184353
      ],
      [
        "sait",
        -9.214595531061564
      ],
      [
        "▁bâton",
        -9.214882503808088
      ],
      [
        "ù",
        -9.218581757072908
      ],
      [
        "▁racont",
        -9.225918246659951
      ],
      [
        "▁décor",
        -9.227256299958176
      ],
      [
        "▁Po",
        -9.229994462820324
      ],
      [
        "▁cinq",
        -9.230290861741121
      ],
      [
        "oir",
        -9.233672802150217
      ],
      [
        "▁frapp",
        -9.237782284970564
      ],
      [
        "▁bra",
        -9.237909553604927
      ],
      [
        "▁don",
        -9.239406522166822
      ],
      [
        "roya",
        -9.239558663466061
      ],
      [
        "▁quitte",
        -9.239653394114619
      ],
      [
        "or",
        -9.24179355667456
      ],
      [
        "▁fort",
        -9.242455061454422
      ],
      [
        "armes",
        -9.243603480835077
      ],
      [
        "▁allé",
        -9.246074383855206
      ],
      [
        "çai",
        -9.247459376958716
      ],
      [
        "▁Ahidjo",
        -9.247472807504924
      ],
      [
        "▁trapèze",
        -9.247472807510723
      ],
      [
        "▁Calabar",
        -9.247472807603529
      ],
      [
        "▁lorgnons",
        -9.247472808224376
      ],
      [
        "▁fièvre",
        -9.247472813562611
      ],
      [
        "▁Anglais",
        -9.247472818471925
      ],
      [
        "▁Harcourt",
        -9.247472819520603
      ],
      [
        "▁électri",
        -9.24747281974346
      ],
      [
        "▁éprouv",
        -9.247472824688188
      ],
      [
        "▁proximité",
        -9.247472838795204
      ],
      [
        "▁Bretagne",
        -9.247472854987457
      ],
      [
        "▁caravane",
        -9.247472867920584
      ],
      [
        "▁officier",
        -9.247472892374331
      ],
      [
        "▁discipline",
        -9.247472905433673
      ],
      [
        "▁radio",
        -9.24747294980978
      ],
      [
        "▁Chuku",
        -9.247472952587
      ],
      [
        "▁trésor",
        -9.247473120550104
      ],
      [
        "▁Certain",
        -9.24747330166704
      ],
      [
        "▁l'abri",
        -9.247473369753653
      ],
      [
        "▁pénétr",
        -9.24747338783894
      ],
      [
        "▁Jeffries",
        -9.247473876715091
      ],
      [
        "▁règne",
        -9.247474244052063
      ],
      [
        "▁alentour",
        -9.247474244442053
      ],
      [
        "▁accepté",
        -9.247474379790091
      ],
      [
        "▁assiette",
        -9.24747479376069
      ],
      [
        "▁cliché",
        -9.24747546926448
      ],
      [
        "▁install",
        -9.247476094556177
      ],
      [
        "▁extraordinaire",
        -9.247478536039178
      ],
      [
        "D.O",
        -9.24748270626737
      ],
      [
        "▁tropicale",
        -9.247484428691093
      ],
      [
        "▁Moka",
        -9.247487581341048
      ],
      [
        "▁ruisseau",
        -9.247492299935207
      ],
      [
        "▁l'imp",
        -9.24749439776111
      ],
      [
        "▁décrit",
        -9.247495481833578
      ],
      [
        "▁fonction",
        -9.24750109268174
      ],
      [
        "▁foudre",
        -9.247508117894792
      ],
      [
        "▁légende",
        -9.24751223239592
      ],
      [
        "▁répond",
        -9.247521261620165
      ],
      [
        "▁fauteuil",
        -9.247534776150225
      ],
      [
        "▁poitrine",
        -9.24753801599484
      ],
      [
        "▁obsession",
        -9.247543899522704
      ],
      [
        "▁entouré",
        -9.247566143963459
      ],
      [
        "▁champ",
        -9.247568861334926
      ],
      [
        "▁aigu",
        -9.247592943279734
      ],
      [
        "▁vieillard",
        -9.247650435837993
      ],
      [
        "▁naître",
        -9.247710269732549
      ],
      [
        "▁refus",
        -9.247711651529844
      ],
      [
        "▁maintenant",
        -9.247731836909876
      ],
      [
        "▁fureur",
        -9.24774426488841
      ],
      [
        "▁surveill",
        -9.247745300673778
      ],
      [
        "▁possible",
        -9.24777858053666
      ],
      [
        "▁l'hum",
        -9.247786718693881
      ],
      [
        "▁comprendre",
        -9.247810277275612
      ],
      [
        "▁perdre",
        -9.247856574795772
      ],
      [
        "▁fameuse",
        -9.247876177263613
      ],
      [
        "▁lui-même",
        -9.247898713022693
      ],
      [
        "▁bruit",
        -9.24792513647156
      ],
      [
        "▁capable",
        -9.247947058509885
      ],
      [
        "▁contraire",
        -9.24799227308246
      ],
      [
        "▁charme",
        -9.248032217345855
      ],
      [
        "▁muraille",
        -9.248041095896596
      ],
      [
        "▁assez",
        -9.248090335256663
      ],
      [
        "▁frappions",
        -9.248111310180999
      ],
      [
        "▁pension",
        -9.248266844242629
      ],
      [
        "▁l'indépendance",
        -9.248743629514056
      ],
      [
        "▁mangé",
        -9.24898398259208
      ],
      [
        "▁flamme",
        -9.248995742049418
      ],
      [
        "▁commencé",
        -9.2492426707504
      ],
      [
        "▁brûlant",
        -9.249712810754978
      ],
      [
        "▁compl",
        -9.250041373928475
      ],
      [
        "▁peine",
        -9.250536165230729
      ],
      [
        "ra",
        -9.251155569272978
      ],
      [
        "▁raconté",
        -9.251218174933204
      ],
      [
        "▁cacher",
        -9.251320528732277
      ],
      [
        "▁dure",
        -9.252185967140182
      ],
      [
        "▁répu",
        -9.252973957674161
      ],
      [
        "▁pétrole",
        -9.253410092117432
      ],
      [
        "▁Ibo",
        -9.25346479883004
      ],
      [
        "▁Éta",
        -9.253602607294638
      ],
      [
        "▁oublier",
        -9.254721966361458
      ],
      [
        "▁ressembl",
        -9.255598147559997
      ],
      [
        "▁marqué",
        -9.256254993049097
      ],
      [
        "hôpital",
        -9.257442184993451
      ],
      [
        "al",
        -9.25770475149651
      ],
      [
        "▁rendu",
        -9.257726383156335
      ],
      [
        "▁créé",
        -9.257855352382597
      ],
      [
        "▁après-midi",
        -9.258780074026983
      ],
      [
        "▁donner",
        -9.259329489130437
      ],
      [
        "-il",
        -9.260783835648168
      ],
      [
        "▁sœurs",
        -9.262180325906467
      ],
      [
        "▁kilomètres",
        -9.2626559290329
      ],
      [
        "▁im",
        -9.263837884548337
      ],
      [
        "▁d'enfants",
        -9.264064932531655
      ],
      [
        "▁conduis",
        -9.264956033111247
      ],
      [
        "▁pou",
        -9.265068989611438
      ],
      [
        "um",
        -9.265210360511745
      ],
      [
        "▁Bam",
        -9.267553061448108
      ],
      [
        "▁noire",
        -9.26796493499593
      ],
      [
        "▁d'eux",
        -9.26802176327413
      ],
      [
        "at",
        -9.268646021038078
      ],
      [
        "▁imagin",
        -9.269528047971669
      ],
      [
        "▁propre",
        -9.26984024372607
      ],
      [
        "▁qua",
        -9.269947648192598
      ],
      [
        "▁acheté",
        -9.270139404062647
      ],
      [
        "▁libre",
        -9.271547354146604
      ],
      [
        "▁maîtres",
        -9.271851746162838
      ],
      [
        "▁secondes",
        -9.272223884612444
      ],
      [
        "▁vagues",
        -9.272230234235888
      ],
      [
        "▁jeux",
        -9.273300952434445
      ],
      [
        "▁grise",
        -9.273615989485329
      ],
      [
        "▁d’or",
        -9.273829625412665
      ],
      [
        "▁jeunes",
        -9.27425505234245
      ],
      [
        "▁chambre",
        -9.274354413181754
      ],
      [
        "▁fer",
        -9.27487617158088
      ],
      [
        "▁corde",
        -9.277622820602822
      ],
      [
        "▁parents",
        -9.277852843004863
      ],
      [
        "'imagine",
        -9.27883883279095
      ],
      [
        "▁d'Ar",
        -9.281136263464443
      ],
      [
        "▁bâtons",
        -9.281173814086731
      ],
      [
        "ci",
        -9.28124824941307
      ],
      [
        "rie",
        -9.282452047329137
      ],
      [
        "venir",
        -9.283917752032059
      ],
      [
        "▁marque",
        -9.283957393875264
      ],
      [
        "▁avai",
        -9.284797301147764
      ],
      [
        "▁trouve",
        -9.285117379660676
      ],
      [
        "▁éclat",
        -9.28580963333463
      ],
      [
        "▁mesure",
        -9.287882463705657
      ],
      [
        "▁soit",
        -9.28973692334576
      ],
      [
        "▁l'an",
        -9.290368487342343
      ],
      [
        "vers",
        -9.290391697641976
      ],
      [
        "▁Ri",
        -9.290698288612024
      ],
      [
        "▁exerc",
        -9.291089503217181
      ],
      [
        "▁endroit",
        -9.29194733514976
      ],
      [
        "▁instants",
        -9.293137456242011
      ],
      [
        "▁cré",
        -9.29612098350566
      ],
      [
        "▁étrange",
        -9.296391052940097
      ],
      [
        "▁dur",
        -9.297589696229364
      ],
      [
        "▁mis",
        -9.298559570691884
      ],
      [
        "▁Bo",
        -9.298957337111904
      ],
      [
        "▁maladies",
        -9.30004105629209
      ],
      [
        "▁tra",
        -9.30022479049317
      ],
      [
        "▁chef",
        -9.300740646695473
      ],
      [
        "▁pe",
        -9.300986237148708
      ],
      [
        "deux",
        -9.301031915824638
      ],
      [
        "arrière",
        -9.303257003926024
      ],
      [
        "▁entr",
        -9.308519345257395
      ],
      [
        "'occupa",
        -9.30868106633456
      ],
      [
        "▁idée",
        -9.309815976594498
      ],
      [
        "▁Jo",
        -9.312809327736687
      ],
      [
        "commencer",
        -9.31293672827918
      ],
      [
        "▁l'ét",
        -9.314672711361753
      ],
      [
        "▁attend",
        -9.314830970185547
      ],
      [
        "men",
        -9.317007515271158
      ],
      [
        "ve",
        -9.321375752010976
      ],
      [
        "▁juge",
        -9.32248471498103
      ],
      [
        "▁em",
        -9.323103364561414
      ],
      [
        "manche",
        -9.324317766711843
      ],
      [
        "▁certain",
        -9.32727317348428
      ],
      [
        "w",
        -9.328767533597967
      ],
      [
        "▁cercl",
        -9.330569716429885
      ],
      [
        "porter",
        -9.33129673340993
      ],
      [
        "▁var",
        -9.331590420957177
      ],
      [
        "ière",
        -9.335029850236957
      ],
      [
        "▁fur",
        -9.337900038813252
      ],
      [
        "ches",
        -9.33878021292421
      ],
      [
        "▁char",
        -9.339110892536462
      ],
      [
        "▁gr",
        -9.339760586241333
      ],
      [
        "▁Kan",
        -9.340251140610548
      ],
      [
        "▁d'ar",
        -9.340403588877496
      ],
      [
        "rass",
        -9.34442577768701
      ],
      [
        "▁touch",
        -9.344641588889404
      ],
      [
        "ver",
        -9.347540501458631
      ],
      [
        "▁n'aura",
        -9.348416865852114
      ],
      [
        "▁découverte",
        -9.349030166073982
      ],
      [
        "▁com",
        -9.352053376027236
      ],
      [
        "▁cartes",
        -9.352260116541581
      ],
      [
        "'exerce",
        -9.355187754281191
      ],
      [
        "▁l'est",
        -9.35638456997473
      ],
      [
        "▁laisse",
        -9.362808411646979
      ],
      [
        "▁guerr",
        -9.363776333032515
      ],
      [
        "resse",
        -9.365977264395003
      ],
      [
        "umeur",
        -9.367572647894278
      ],
      [
        "▁générale",
        -9.370669517921362
      ],
      [
        "▁d'en",
        -9.373238187816504
      ],
      [
        "co",
        -9.374196812706003
      ],
      [
        "ures",
        -9.374437637175177
      ],
      [
        "able",
        -9.380388340146963
      ],
      [
        "ourquoi",
        -9.381077462452676
      ],
      [
        "▁ouverte",
        -9.381176030441788
      ],
      [
        "▁ai",
        -9.38541832665913
      ],
      [
        "▁aventure",
        -9.385683250076111
      ],
      [
        "▁nourri",
        -9.386069155259852
      ],
      [
        "Afrique",
        -9.389713825250027
      ],
      [
        "ria",
        -9.390472846716218
      ],
      [
        "ier",
        -9.391832280657987
      ],
      [
        "ants",
        -9.395877418832246
      ],
      [
        "sant",
        -9.398131406005803
      ],
      [
        "▁s'installe",
        -9.398759224859903
      ],
      [
        "▁entré",
        -9.400029102606021
      ],
      [
        "ien",
        -9.401023757938683
      ],
      [
        "▁tro",
        -9.402207601537771
      ],
      [
        "▁dis",
        -9.40346873506776
      ],
      [
        "▁continu",
        -9.405187042496726
      ],
      [
        "▁l'inst",
        -9.40717770886849
      ],
      [
        "aque",
        -9.407584696336452
      ],
      [
        "▁tableau",
        -9.409955495523562
      ],
      [
        "os",
        -9.41046300567572
      ],
      [
        "▁fig",
        -9.411912027745574
      ],
      [
        "▁sembl",
        -9.412048087029923
      ],
      [
        "▁cris",
        -9.414421773695457
      ],
      [
        "urs",
        -9.415033892267326
      ],
      [
        "▁cri",
        -9.418487689468861
      ],
      [
        "▁tant",
        -9.418593491118251
      ],
      [
        "▁leçon",
        -9.419576203124796
      ],
      [
        "▁g",
        -9.420208193028989
      ],
      [
        "▁Con",
        -9.421857666523385
      ],
      [
        "oit",
        -9.422224972523086
      ],
      [
        "nde",
        -9.422444628900012
      ],
      [
        "▁retourne",
        -9.423379100387342
      ],
      [
        "▁isolé",
        -9.425468589691139
      ],
      [
        "▁bri",
        -9.42600865431002
      ],
      [
        "▁nuits",
        -9.42610489569945
      ],
      [
        "ix",
        -9.428873667020264
      ],
      [
        "▁cr",
        -9.433847245745696
      ],
      [
        "st-",
        -9.434744056775699
      ],
      [
        "▁général",
        -9.436260193992883
      ],
      [
        "oire",
        -9.43782734773868
      ],
      [
        "ience",
        -9.43852757103904
      ],
      [
        "▁j'ent",
        -9.441314500925802
      ],
      [
        "▁vol",
        -9.442710607231081
      ],
      [
        "z",
        -9.444373328297875
      ],
      [
        "lop",
        -9.444844932420125
      ],
      [
        "mère",
        -9.446317597821384
      ],
      [
        "▁autres",
        -9.448947389977409
      ],
      [
        "▁F",
        -9.45058395086065
      ],
      [
        "stique",
        -9.451262433148132
      ],
      [
        "urant",
        -9.45153717820796
      ],
      [
        "âche",
        -9.452189307679568
      ],
      [
        "▁médecine",
        -9.457768419458361
      ],
      [
        "exemple",
        -9.461421597393498
      ],
      [
        "dre",
        -9.463141343800052
      ],
      [
        "▁rencontre",
        -9.466373326238784
      ],
      [
        "▁fum",
        -9.466961156057861
      ],
      [
        "elles",
        -9.467324598997227
      ],
      [
        "▁dos",
        -9.468318144356328
      ],
      [
        "▁n'e",
        -9.470175298886522
      ],
      [
        "▁Gu",
        -9.472198550176566
      ],
      [
        "peur",
        -9.473373980938792
      ],
      [
        "▁gu",
        -9.476093988495533
      ],
      [
        "tait",
        -9.476421235435007
      ],
      [
        "ations",
        -9.477303041626854
      ],
      [
        "▁Ka",
        -9.477744994284185
      ],
      [
        "▁sec",
        -9.481306928233497
      ],
      [
        "▁anim",
        -9.4814795118964
      ],
      [
        "▁pré",
        -9.48164872876436
      ],
      [
        "sse",
        -9.484216646831884
      ],
      [
        "ttes",
        -9.484239689844182
      ],
      [
        "heure",
        -9.484320800239686
      ],
      [
        "ka",
        -9.48462350928014
      ],
      [
        "▁déci",
        -9.48815577832402
      ],
      [
        "▁R",
        -9.48999796134045
      ],
      [
        "oque",
        -9.490937358756309
      ],
      [
        "table",
        -9.491258235887212
      ],
      [
        "▁ouvert",
        -9.495332440594773
      ],
      [
        "▁ab",
        -9.495874449962225
      ],
      [
        "▁Co",
        -9.497217632922128
      ],
      [
        "▁devenue",
        -9.499813998881075
      ],
      [
        "▁écout",
        -9.50042486987668
      ],
      [
        "construi",
        -9.501436012858733
      ],
      [
        "-elle",
        -9.503968067554004
      ],
      [
        "cul",
        -9.505825362549002
      ],
      [
        "▁soul",
        -9.506043751036668
      ],
      [
        "▁Qu'",
        -9.506372977539625
      ],
      [
        "errière",
        -9.506390055123534
      ],
      [
        "▁lect",
        -9.506643353765957
      ],
      [
        "▁imp",
        -9.507834837996224
      ],
      [
        "▁s'en",
        -9.508279091123923
      ],
      [
        "yeux",
        -9.516229722981157
      ],
      [
        "mé",
        -9.51633126187663
      ],
      [
        "st",
        -9.516517828215322
      ],
      [
        "▁cent",
        -9.517985011437977
      ],
      [
        "ssent",
        -9.52166701326889
      ],
      [
        "▁mont",
        -9.523293507154834
      ],
      [
        "habit",
        -9.525246058026603
      ],
      [
        "▁Nko",
        -9.528680692733138
      ],
      [
        "llemands",
        -9.53111563898935
      ],
      [
        "▁armée",
        -9.532179025691313
      ],
      [
        "▁bleu",
        -9.532573938035075
      ],
      [
        "▁Mar",
        -9.532875579993226
      ],
      [
        "▁d'A",
        -9.536220476654679
      ],
      [
        "monter",
        -9.538607173630695
      ],
      [
        "nte",
        -9.538654964382504
      ],
      [
        "▁cach",
        -9.53933449117696
      ],
      [
        "▁moustiquaire",
        -9.543694973240742
      ],
      [
        "▁miroir",
        -9.54425751376617
      ],
      [
        "▁distance",
        -9.544276685089018
      ],
      [
        "▁envahi",
        -9.546074803902805
      ],
      [
        "▁seconde",
        -9.547384483413902
      ],
      [
        "▁vague",
        -9.547657959968882
      ],
      [
        "▁militaire",
        -9.547865100764994
      ],
      [
        "▁anglais",
        -9.54796933245216
      ],
      [
        "▁garçon",
        -9.548852580777826
      ],
      [
        "▁arbre",
        -9.549190850717764
      ],
      [
        "▁humain",
        -9.54920927694954
      ],
      [
        "▁civil",
        -9.549897376786
      ],
      [
        "alement",
        -9.550554538653058
      ],
      [
        "▁ancien",
        -9.55109036786824
      ],
      [
        "▁arrivé",
        -9.551643047897414
      ],
      [
        "arrivée",
        -9.552305860910824
      ],
      [
        "▁fermé",
        -9.55425146098112
      ],
      [
        "▁br",
        -9.55642789410432
      ],
      [
        "ifs",
        -9.556444553106182
      ],
      [
        "▁fatigu",
        -9.55682787096628
      ],
      [
        "▁sub",
        -9.558126011685625
      ],
      [
        "étendue",
        -9.55879771356661
      ],
      [
        "▁parcour",
        -9.561839572085303
      ],
      [
        "▁quel",
        -9.562368425351163
      ],
      [
        "▁cas",
        -9.562671528723417
      ],
      [
        "▁trace",
        -9.56343164846244
      ],
      [
        "ser",
        -9.564929413648418
      ],
      [
        "▁venai",
        -9.566540115245418
      ],
      [
        "▁ban",
        -9.566618269227673
      ],
      [
        "▁att",
        -9.56698905179661
      ],
      [
        "ph",
        -9.570761234057516
      ],
      [
        "▁dress",
        -9.570779092190758
      ],
      [
        "tuaire",
        -9.571699297722548
      ],
      [
        "ards",
        -9.573604381374164
      ],
      [
        "▁rituel",
        -9.573712801513029
      ],
      [
        "▁anti",
        -9.5741490282307
      ],
      [
        "con",
        -9.576475095966117
      ],
      [
        "▁échapp",
        -9.577020704955373
      ],
      [
        "angue",
        -9.577587210913745
      ],
      [
        "Abakaliki",
        -9.578883994464135
      ],
      [
        "ême",
        -9.579074270073583
      ],
      [
        "▁camp",
        -9.580347310368552
      ],
      [
        "4",
        -9.580671904772387
      ],
      [
        "3",
        -9.580671909804234
      ],
      [
        "obab",
        -9.580800937951691
      ],
      [
        "▁privilèges",
        -9.580806140838524
      ],
      [
        "▁grâce",
        -9.580806140838675
      ],
      [
        "▁caricatural",
        -9.580806140840442
      ],
      [
        "▁trône",
        -9.58080614084176
      ],
      [
        "▁États-Unis",
        -9.580806140865505
      ],
      [
        "▁l'Adamawa",
        -9.580806140878178
      ],
      [
        "▁Aujourd'hui",
        -9.580806140878178
      ],
      [
        "▁dysenterie",
        -9.580806141045493
      ],
      [
        "▁invisible",
        -9.580806141154717
      ],
      [
        "▁Fields",
        -9.580806142325198
      ],
      [
        "▁d'alcool",
        -9.58080614342031
      ],
      [
        "▁impeccable",
        -9.580806144005233
      ],
      [
        "▁incapable",
        -9.580806148456212
      ],
      [
        "▁excessive",
        -9.580806148630815
      ],
      [
        "▁tribales",
        -9.580806164350744
      ],
      [
        "▁l'empire",
        -9.580806165042437
      ],
      [
        "calpel",
        -9.580806182299728
      ],
      [
        "▁dispensaire",
        -9.580806208967978
      ],
      [
        "▁affluent",
        -9.580806218062133
      ],
      [
        "▁fréquenta",
        -9.580806218496987
      ],
      [
        "▁conservé",
        -9.580806218745717
      ],
      [
        "▁cafards",
        -9.580806248436815
      ],
      [
        "▁effray",
        -9.580806258306886
      ],
      [
        "▁tambours",
        -9.580806260188954
      ],
      [
        "ez-vous",
        -9.580806281028195
      ],
      [
        "▁gorilles",
        -9.580806282473525
      ],
      [
        "▁camarades",
        -9.580806295481073
      ],
      [
        "▁physique",
        -9.580806457337061
      ],
      [
        "▁politique",
        -9.580806487939626
      ],
      [
        "▁latérite",
        -9.580806496194569
      ],
      [
        "▁chirurgi",
        -9.58080656721426
      ],
      [
        "▁serviteurs",
        -9.580806650569833
      ],
      [
        "▁ridicule",
        -9.580806724483207
      ],
      [
        "▁Sahara",
        -9.5808068092722
      ],
      [
        "▁Bénoué",
        -9.580806812106331
      ],
      [
        "▁banlieue",
        -9.580806837673974
      ],
      [
        "▁adulte",
        -9.580806877600825
      ],
      [
        "▁soixante",
        -9.580806994216758
      ],
      [
        "▁ténia",
        -9.580807244601624
      ],
      [
        "▁sèche",
        -9.58080728690787
      ],
      [
        "▁pelouse",
        -9.580807324993103
      ],
      [
        "▁brindille",
        -9.580807394372073
      ],
      [
        "▁natale",
        -9.580807643286551
      ],
      [
        "▁oreilles",
        -9.580807976729435
      ],
      [
        "▁d'opération",
        -9.58080802692903
      ],
      [
        "▁recouvert",
        -9.580808199890358
      ],
      [
        "▁contrebas",
        -9.580808237512876
      ],
      [
        "▁disparu",
        -9.580808446953537
      ],
      [
        "▁étouffante",
        -9.580808597352805
      ],
      [
        "▁ceinture",
        -9.580809132084523
      ],
      [
        "▁présence",
        -9.580809954041973
      ],
      [
        "▁regret",
        -9.580810476436422
      ],
      [
        "▁Indiens",
        -9.580811001508481
      ],
      [
        "▁popula",
        -9.580811192142122
      ],
      [
        "▁Algérie",
        -9.58081153753001
      ],
      [
        "▁coiff",
        -9.58081202278586
      ],
      [
        "▁habillé",
        -9.580812100769847
      ],
      [
        "▁visible",
        -9.58081226216995
      ],
      [
        "▁suppose",
        -9.580813240786368
      ],
      [
        "▁galeries",
        -9.580814335139625
      ],
      [
        "▁réponse",
        -9.580814777330856
      ],
      [
        "▁000",
        -9.58081556753605
      ],
      [
        "▁vaisselle",
        -9.580817722380672
      ],
      [
        "▁quartier",
        -9.580817807223902
      ],
      [
        "▁craquelée",
        -9.58081854049335
      ],
      [
        "▁minuscule",
        -9.580818871321206
      ],
      [
        "▁répandu",
        -9.580819964087086
      ],
      [
        "▁résignation",
        -9.580822175538927
      ],
      [
        "▁foyer",
        -9.580823916033328
      ],
      [
        "voûte",
        -9.580824694697533
      ],
      [
        "00",
        -9.580825375298962
      ],
      [
        "▁profit",
        -9.5808271339057
      ],
      [
        "▁mauvais",
        -9.580833471117291
      ],
      [
        "▁neuf",
        -9.580847491929635
      ],
      [
        "▁piège",
        -9.580847607784609
      ],
      [
        "▁repris",
        -9.580853453687423
      ],
      [
        "urgence",
        -9.580860234542094
      ],
      [
        "▁S'il",
        -9.580860246166372
      ],
      [
        "▁bref",
        -9.580861726735593
      ],
      [
        "▁fusils",
        -9.580862535321911
      ],
      [
        "▁procur",
        -9.580866824506913
      ],
      [
        "▁trente",
        -9.58087160409344
      ],
      [
        "▁consacré",
        -9.580879658118354
      ],
      [
        "▁196",
        -9.580887572341187
      ],
      [
        "▁colonisation",
        -9.580894111711604
      ],
      [
        "▁River",
        -9.580897109992494
      ],
      [
        "▁(car",
        -9.580897947360645
      ],
      [
        "▁canal",
        -9.580898493680927
      ],
      [
        "▁m'a-t-",
        -9.580918452937086
      ],
      [
        "▁camion",
        -9.580919312067666
      ],
      [
        "▁interdit",
        -9.580921571540513
      ],
      [
        "▁caract",
        -9.580924950209328
      ],
      [
        "▁défens",
        -9.5809262746265
      ],
      [
        "▁193",
        -9.580940389717716
      ],
      [
        "▁194",
        -9.5809403947509
      ],
      [
        "boît",
        -9.580954460767082
      ],
      [
        "▁vallée",
        -9.580975314628425
      ],
      [
        "▁colonne",
        -9.58098837842511
      ],
      [
        "▁douleur",
        -9.580994956851768
      ],
      [
        "▁sucre",
        -9.58102301698823
      ],
      [
        "▁sept",
        -9.581025518243525
      ],
      [
        "▁palais",
        -9.58102919313205
      ],
      [
        "▁terrain",
        -9.581046800317313
      ],
      [
        "▁sculptés",
        -9.581060315488163
      ],
      [
        "▁qu'aucun",
        -9.581063162473415
      ],
      [
        "▁d'Européens",
        -9.58108916942829
      ],
      [
        "▁surviv",
        -9.58109934799095
      ],
      [
        "▁allumette",
        -9.581160540066085
      ],
      [
        "▁totale",
        -9.58116931937685
      ],
      [
        "▁plaintes",
        -9.58117114430694
      ],
      [
        "▁chute",
        -9.581172162424066
      ],
      [
        "▁torche",
        -9.58117451282134
      ],
      [
        "▁l'après-midi",
        -9.581262751139782
      ],
      [
        "▁moment-là",
        -9.58128982191916
      ],
      [
        "▁poing",
        -9.581313085859978
      ],
      [
        "▁chapeaux",
        -9.581328691266476
      ],
      [
        "▁t’",
        -9.581336433294279
      ],
      [
        "▁taillé",
        -9.581345513166985
      ],
      [
        "▁haie",
        -9.581352787116234
      ],
      [
        "▁vieillesse",
        -9.581384560113516
      ],
      [
        "▁vérité",
        -9.58138909649723
      ],
      [
        "▁l'inter",
        -9.58145104062085
      ],
      [
        "▁plage",
        -9.58149508126182
      ],
      [
        "▁l'enthousiasme",
        -9.581528514767625
      ],
      [
        "▁compagnie",
        -9.581570884669993
      ],
      [
        "▁Chin",
        -9.581577807275979
      ],
      [
        "▁l'horreur",
        -9.581580784784865
      ],
      [
        "▁parfaite",
        -9.58158754085674
      ],
      [
        "▁Bien",
        -9.58176162115651
      ],
      [
        "▁nombreux",
        -9.581766482092357
      ],
      [
        "▁familier",
        -9.581858721481671
      ],
      [
        "▁demand",
        -9.581909724843264
      ],
      [
        "▁effect",
        -9.581915548408864
      ],
      [
        "▁Niger",
        -9.58192637434665
      ],
      [
        "▁glac",
        -9.581979549613235
      ],
      [
        "▁lutte",
        -9.58201679413122
      ],
      [
        "▁plonge",
        -9.582060408503088
      ],
      [
        "▁lentement",
        -9.582064190907452
      ],
      [
        "▁proie",
        -9.582199521728597
      ],
      [
        "▁là-bas",
        -9.58229690466567
      ],
      [
        "▁cornes",
        -9.582354884833359
      ],
      [
        "▁géant",
        -9.582416170964853
      ],
      [
        "▁l'aube",
        -9.582457706743368
      ],
      [
        "soin",
        -9.582480893654152
      ],
      [
        "▁domestique",
        -9.582519457724953
      ],
      [
        "▁relev",
        -9.582533371388793
      ],
      [
        "▁repas",
        -9.58253403634386
      ],
      [
        "▁brûlait",
        -9.58255079465929
      ],
      [
        "▁paille",
        -9.582558219152807
      ],
      [
        "épaisse",
        -9.582560811582095
      ],
      [
        "▁remonte",
        -9.58259762689383
      ],
      [
        "▁crép",
        -9.582668117521877
      ],
      [
        "▁d'Abakaliki",
        -9.582731944809044
      ],
      [
        "▁chantant",
        -9.582739561618133
      ],
      [
        "zar",
        -9.582765035006076
      ],
      [
        "▁absent",
        -9.582781533385221
      ],
      [
        "▁lunette",
        -9.582786086682848
      ],
      [
        "▁poison",
        -9.58279397987891
      ],
      [
        "▁lançai",
        -9.58279908924969
      ],
      [
        "rrière",
        -9.58280106439247
      ],
      [
        "▁Ng",
        -9.582892156488425
      ],
      [
        "▁temps-là",
        -9.582901765944335
      ],
      [
        "▁captur",
        -9.582992720074973
      ],
      [
        "▁jeunesse",
        -9.583124640149236
      ],
      [
        "▁orages",
        -9.583129272602072
      ],
      [
        "▁pâte",
        -9.583216528259488
      ],
      [
        "▁policier",
        -9.583275945325742
      ],
      [
        "outils",
        -9.583311361257145
      ],
      [
        "paradis",
        -9.583326016081703
      ],
      [
        "▁signifiai",
        -9.58338976883601
      ],
      [
        "▁d'après",
        -9.58350925742623
      ],
      [
        "▁Paris",
        -9.583623676189099
      ],
      [
        "▁vivaient",
        -9.583759759259166
      ],
      [
        "▁changement",
        -9.583789914911716
      ],
      [
        "▁résidence",
        -9.583921366134394
      ],
      [
        "▁inventé",
        -9.584067803407509
      ],
      [
        "▁inspiré",
        -9.584183354662006
      ],
      [
        "▁gagn",
        -9.58420386734955
      ],
      [
        "▁recherche",
        -9.584331815800164
      ],
      [
        "▁aimer",
        -9.584386238436265
      ],
      [
        "▁colons",
        -9.584451153869267
      ],
      [
        "▁hérit",
        -9.584458741127651
      ],
      [
        "▁penser",
        -9.584523937077293
      ],
      [
        "▁rejet",
        -9.584596784189458
      ],
      [
        "▁l'enfant",
        -9.584990081595356
      ],
      [
        "▁encerclé",
        -9.585262783942175
      ],
      [
        "▁quitté",
        -9.585277032211636
      ],
      [
        "▁manies",
        -9.585375685655189
      ],
      [
        "particulièrement",
        -9.58545184239579
      ],
      [
        "▁partager",
        -9.585762814400859
      ],
      [
        "▁kaki",
        -9.585843123677705
      ],
      [
        "▁d'eau",
        -9.585879496768344
      ],
      [
        "▁coucher",
        -9.585906496029214
      ],
      [
        "▁enfin",
        -9.585928765954506
      ],
      [
        "▁jup",
        -9.58624774343402
      ],
      [
        "▁connaissais",
        -9.586273568525538
      ],
      [
        "▁ancienne",
        -9.586582419715729
      ],
      [
        "▁causé",
        -9.58663385915734
      ],
      [
        "▁tomb",
        -9.586719448227136
      ],
      [
        "▁myst",
        -9.58702360563666
      ],
      [
        "▁dieu",
        -9.587169147407074
      ],
      [
        "ck",
        -9.587818835557085
      ],
      [
        "▁drap",
        -9.587952455924103
      ],
      [
        "▁doux",
        -9.588094604304146
      ],
      [
        "▁prière",
        -9.588498196377671
      ],
      [
        "▁âgés",
        -9.58857801830248
      ],
      [
        "arrachait",
        -9.588683398915014
      ],
      [
        "▁ju",
        -9.588727659930965
      ],
      [
        "▁pourquoi",
        -9.588836945459022
      ],
      [
        "▁milli",
        -9.589037342275507
      ],
      [
        "▁vaccins",
        -9.589058339283499
      ],
      [
        "▁campagne",
        -9.589127086638424
      ],
      [
        "▁palmiers",
        -9.589161006671059
      ],
      [
        "▁moderne",
        -9.58925424670379
      ],
      [
        "▁revanche",
        -9.589302714615036
      ],
      [
        "▁équatoriale",
        -9.589346564445073
      ],
      [
        "▁pistes",
        -9.589515144813257
      ],
      [
        "▁revenu",
        -9.589981164613063
      ],
      [
        "▁comprends",
        -9.590044165058169
      ],
      [
        "▁disait",
        -9.590131089719144
      ],
      [
        "▁luxe",
        -9.590354612195824
      ],
      [
        "▁constat",
        -9.590846393821188
      ],
      [
        "▁pr",
        -9.591108133461695
      ],
      [
        "▁rencontré",
        -9.591183060030701
      ],
      [
        "▁trempé",
        -9.591275752764357
      ],
      [
        "it-",
        -9.591682581858977
      ],
      [
        "▁complet",
        -9.591698612879952
      ],
      [
        "▁désir",
        -9.592633594325784
      ],
      [
        "▁luisant",
        -9.593242162422644
      ],
      [
        "nze",
        -9.593403331832267
      ],
      [
        "▁débarqu",
        -9.593463962214885
      ],
      [
        "▁poudre",
        -9.593545239325541
      ],
      [
        "▁d'imagin",
        -9.593619669760637
      ],
      [
        "ungo",
        -9.593906099498437
      ],
      [
        "▁but",
        -9.594407607302653
      ],
      [
        "ilité",
        -9.595935907656273
      ],
      [
        "▁mêl",
        -9.596159292482717
      ],
      [
        "▁rem",
        -9.59620388724948
      ],
      [
        "lit",
        -9.596232327687934
      ],
      [
        "▁revien",
        -9.59649221264371
      ],
      [
        "▁viennent",
        -9.596869593456024
      ],
      [
        "▁Abo",
        -9.597004356218237
      ],
      [
        "▁sortir",
        -9.597040684070562
      ],
      [
        "▁j",
        -9.597371254905603
      ],
      [
        "rôle",
        -9.59770513958672
      ],
      [
        "▁qu'en",
        -9.59778771170071
      ],
      [
        "ève",
        -9.59787016457918
      ],
      [
        "▁On",
        -9.598241034222006
      ],
      [
        "achi",
        -9.598260851785797
      ],
      [
        "▁verre",
        -9.59978341988856
      ],
      [
        "yant",
        -9.600045383236857
      ],
      [
        "cation",
        -9.60030388097271
      ],
      [
        "ica",
        -9.601203596633946
      ],
      [
        "▁accepter",
        -9.601291065298552
      ],
      [
        "▁cli",
        -9.601908906051387
      ],
      [
        "▁lointains",
        -9.602413286190098
      ],
      [
        "▁relié",
        -9.602416786248657
      ],
      [
        "ate",
        -9.602746981553222
      ],
      [
        "▁casque",
        -9.603507165909578
      ],
      [
        "ension",
        -9.604183265343611
      ],
      [
        "mbrées",
        -9.604218273724968
      ],
      [
        "▁secours",
        -9.60432752767716
      ],
      [
        "▁Ban",
        -9.604496360858487
      ],
      [
        "▁voul",
        -9.604710584829101
      ],
      [
        "▁sommet",
        -9.605067247969561
      ],
      [
        "der",
        -9.605783791431787
      ],
      [
        "▁Colonie",
        -9.605852117680309
      ],
      [
        "▁paysage",
        -9.606659337315474
      ],
      [
        "▁l'anti",
        -9.607600906802592
      ],
      [
        "▁voyageur",
        -9.607891885001772
      ],
      [
        "▁échange",
        -9.608160852956253
      ],
      [
        "maine",
        -9.609953828353984
      ],
      [
        "ar",
        -9.610129121476009
      ],
      [
        "▁respect",
        -9.61281362837699
      ],
      [
        "▁mand",
        -9.613204632988532
      ],
      [
        "▁chauff",
        -9.613546704082973
      ],
      [
        "▁bouill",
        -9.613627121325742
      ],
      [
        "▁siècle",
        -9.61368801137926
      ],
      [
        "▁démo",
        -9.614327184629586
      ],
      [
        "▁boug",
        -9.614354090555572
      ],
      [
        "ige",
        -9.61439019106865
      ],
      [
        "▁ordinaire",
        -9.61486894134755
      ],
      [
        "▁int",
        -9.614972950705843
      ],
      [
        "▁usé",
        -9.61562191318315
      ],
      [
        "▁al",
        -9.616663109064469
      ],
      [
        "▁Ni",
        -9.61685711579255
      ],
      [
        "▁mètres",
        -9.617462589612428
      ],
      [
        "prenant",
        -9.618214953952249
      ],
      [
        "▁perdue",
        -9.620458323134587
      ],
      [
        "▁anecdote",
        -9.621023527310092
      ],
      [
        "▁regardent",
        -9.621974843715073
      ],
      [
        "▁goyave",
        -9.622241858162168
      ],
      [
        "▁jo",
        -9.622608906598714
      ],
      [
        "▁tournée",
        -9.62269286029742
      ],
      [
        "▁Ch",
        -9.62331347998143
      ],
      [
        "▁passer",
        -9.62450943912663
      ],
      [
        "celle",
        -9.624685547589817
      ],
      [
        "agrandi",
        -9.62488797882763
      ],
      [
        "nique",
        -9.626837065124652
      ],
      [
        "▁pain",
        -9.627731017182716
      ],
      [
        "▁appartement",
        -9.627752668632487
      ],
      [
        "euses",
        -9.62863822889029
      ],
      [
        "-de",
        -9.629243906161138
      ],
      [
        "▁étage",
        -9.630183673946995
      ],
      [
        "iques",
        -9.630280034609335
      ],
      [
        "▁vend",
        -9.631189485798505
      ],
      [
        "▁épi",
        -9.631563615770766
      ],
      [
        "père",
        -9.633015964617492
      ],
      [
        "ème",
        -9.634335666821201
      ],
      [
        "▁unique",
        -9.63565074150998
      ],
      [
        "▁hauteur",
        -9.636882690109767
      ],
      [
        "ard",
        -9.637173957588459
      ],
      [
        "écu",
        -9.637440896145268
      ],
      [
        "poussiér",
        -9.63750493304858
      ],
      [
        "▁anciens",
        -9.638321191994807
      ],
      [
        "uée",
        -9.638539738351085
      ],
      [
        "▁acc",
        -9.638955712253779
      ],
      [
        "▁emport",
        -9.63952334712499
      ],
      [
        "ut-",
        -9.63963007186154
      ],
      [
        "ma",
        -9.640229417157986
      ],
      [
        "dée",
        -9.640272156159874
      ],
      [
        "▁chaude",
        -9.640692533538616
      ],
      [
        "dra",
        -9.64228442962875
      ],
      [
        "▁ici",
        -9.643056823108957
      ],
      [
        "▁amis",
        -9.643708259189657
      ],
      [
        "ends",
        -9.649467991960453
      ],
      [
        "▁manque",
        -9.65045272378303
      ],
      [
        "ave",
        -9.65264497858557
      ],
      [
        "▁rentr",
        -9.653488576357258
      ],
      [
        "▁Aro",
        -9.655349078589694
      ],
      [
        "ailli",
        -9.6574573398476
      ],
      [
        "▁Terre-",
        -9.657510326818551
      ],
      [
        "▁île",
        -9.65790144116008
      ],
      [
        "▁gra",
        -9.658506736883314
      ],
      [
        "mo",
        -9.659875139284566
      ],
      [
        "▁blancs",
        -9.660360605454311
      ],
      [
        "▁exc",
        -9.662057639777366
      ],
      [
        "▁colonie",
        -9.66284716318486
      ],
      [
        "▁dépass",
        -9.663392814281448
      ],
      [
        "▁s'a",
        -9.663804683817002
      ],
      [
        "▁écouta",
        -9.664246927664674
      ],
      [
        "belle",
        -9.665568414046476
      ],
      [
        "▁vue",
        -9.665986931481504
      ],
      [
        "▁somme",
        -9.66624618203582
      ],
      [
        "▁maga",
        -9.666652040314387
      ],
      [
        "▁cor",
        -9.666985170859782
      ],
      [
        "▁médicale",
        -9.66735135052129
      ],
      [
        "aisons",
        -9.667752369857467
      ],
      [
        "▁destiné",
        -9.66836317555563
      ],
      [
        "sieur",
        -9.668732614033809
      ],
      [
        "po",
        -9.668989091509657
      ],
      [
        "avions",
        -9.671387652518618
      ],
      [
        "ay",
        -9.672182696132277
      ],
      [
        "zin",
        -9.673578894715076
      ],
      [
        "▁lég",
        -9.67392840416841
      ],
      [
        "par",
        -9.674731335340393
      ],
      [
        "▁retrouve",
        -9.674818750446772
      ],
      [
        "▁donné",
        -9.6749016475285
      ],
      [
        "▁servai",
        -9.677490005964547
      ],
      [
        "ois",
        -9.679634312903339
      ],
      [
        "▁africaines",
        -9.67986345449391
      ],
      [
        "▁four",
        -9.67987655445133
      ],
      [
        "▁combat",
        -9.681007244823098
      ],
      [
        "▁rouges",
        -9.685006113235296
      ],
      [
        "▁l'on",
        -9.68538921978944
      ],
      [
        "▁fenêtres",
        -9.686623600422406
      ],
      [
        "▁arriv",
        -9.689350445349149
      ],
      [
        "▁rêves",
        -9.689692219096655
      ],
      [
        "▁l'aim",
        -9.692092815807278
      ],
      [
        "tail",
        -9.693420568069476
      ],
      [
        "cteur",
        -9.695705256645544
      ],
      [
        "▁lorsqu'",
        -9.696194274239174
      ],
      [
        "ti",
        -9.696716883478222
      ],
      [
        "trait",
        -9.698131041918424
      ],
      [
        "▁l'ex",
        -9.698310320617534
      ],
      [
        "ig",
        -9.698704621642463
      ],
      [
        "▁ha",
        -9.701164826820925
      ],
      [
        "cousu",
        -9.702392883852657
      ],
      [
        "▁construi",
        -9.703105485319076
      ],
      [
        "diction",
        -9.703759699478562
      ],
      [
        "▁cra",
        -9.705121209433589
      ],
      [
        "▁utilis",
        -9.705157597045126
      ],
      [
        "ence",
        -9.70560427564794
      ],
      [
        "rgent",
        -9.705762233377248
      ],
      [
        "▁l’or",
        -9.706187967568102
      ],
      [
        "▁souven",
        -9.70627103523505
      ],
      [
        "▁canne",
        -9.706520699918098
      ],
      [
        "▁jeune",
        -9.711310491900106
      ],
      [
        "▁tente",
        -9.713692038909652
      ],
      [
        "chaîn",
        -9.713817193535377
      ],
      [
        "venus",
        -9.716899731977376
      ],
      [
        "▁direct",
        -9.718018474601031
      ],
      [
        "alité",
        -9.719518010902783
      ],
      [
        "gation",
        -9.721719373953746
      ],
      [
        "▁pri",
        -9.72215557728679
      ],
      [
        "alon",
        -9.723184044731106
      ],
      [
        "▁allai",
        -9.723303512006769
      ],
      [
        "uits",
        -9.724748897620547
      ],
      [
        "▁mor",
        -9.724913505035069
      ],
      [
        "▁moments",
        -9.724932639162347
      ],
      [
        "▁(il",
        -9.726213366830537
      ],
      [
        "▁pouv",
        -9.726283249025231
      ],
      [
        "▁brill",
        -9.728030853304
      ],
      [
        "▁pratiqu",
        -9.728952229283449
      ],
      [
        "changer",
        -9.729327705463763
      ],
      [
        "source",
        -9.730758110946441
      ],
      [
        "▁comment",
        -9.730973920519348
      ],
      [
        "enfance",
        -9.732431410715321
      ],
      [
        "▁bac",
        -9.735073485713894
      ],
      [
        "▁lourde",
        -9.735697521585204
      ],
      [
        "ue",
        -9.735821732713392
      ],
      [
        "▁bêt",
        -9.736269728087054
      ],
      [
        "▁jusqu'au",
        -9.742348203579784
      ],
      [
        "cités",
        -9.743349263236452
      ],
      [
        "isson",
        -9.743779200073888
      ],
      [
        "ice",
        -9.745091810604995
      ],
      [
        "avancé",
        -9.746640098822311
      ],
      [
        "ers",
        -9.752983467768502
      ],
      [
        "▁sépar",
        -9.753187228487505
      ],
      [
        "▁souri",
        -9.754525420329525
      ],
      [
        "ident",
        -9.754961612553657
      ],
      [
        "▁serai",
        -9.756353055868173
      ],
      [
        "▁plant",
        -9.757201360984512
      ],
      [
        "sus",
        -9.757398728874852
      ],
      [
        "tenir",
        -9.757842740187314
      ],
      [
        "▁troupe",
        -9.758244282617593
      ],
      [
        "▁souvenirs",
        -9.759526682637002
      ],
      [
        "▁retire",
        -9.762241808409783
      ],
      [
        "▁coupée",
        -9.762360529907117
      ],
      [
        "è",
        -9.762849149230428
      ],
      [
        "k",
        -9.763002927121299
      ],
      [
        "▁circule",
        -9.763956090220741
      ],
      [
        "▁ap",
        -9.765832353190717
      ],
      [
        "▁soin",
        -9.766143133790251
      ],
      [
        "▁viv",
        -9.766202454415021
      ],
      [
        "▁ro",
        -9.767593801635087
      ],
      [
        "▁ver",
        -9.769040636130923
      ],
      [
        "cier",
        -9.772955038570867
      ],
      [
        "erre",
        -9.77343695627869
      ],
      [
        "▁morte",
        -9.773914858617715
      ],
      [
        "▁détr",
        -9.776452118503359
      ],
      [
        "agit",
        -9.778479229376824
      ],
      [
        "▁déf",
        -9.778599140867613
      ],
      [
        "qu'un",
        -9.779108750441916
      ],
      [
        "▁pi",
        -9.780205281364443
      ],
      [
        "iné",
        -9.780693864011882
      ],
      [
        "▁be",
        -9.784981477415247
      ],
      [
        "ho",
        -9.78635225702746
      ],
      [
        "ule",
        -9.787554860498066
      ],
      [
        "▁dénu",
        -9.791100772511015
      ],
      [
        "▁fu",
        -9.791283358230801
      ],
      [
        "gu",
        -9.793603889221693
      ],
      [
        "▁extr",
        -9.795483061796293
      ],
      [
        "igne",
        -9.796647382709615
      ],
      [
        "yon",
        -9.801029776248008
      ],
      [
        "ger",
        -9.805009398652329
      ],
      [
        "uvet",
        -9.808201081567603
      ],
      [
        "▁Am",
        -9.810659405003237
      ],
      [
        "oindre",
        -9.811186378234956
      ],
      [
        "pas",
        -9.812308492401655
      ],
      [
        "lu",
        -9.813430866799207
      ],
      [
        "xte",
        -9.814801028851488
      ],
      [
        "▁quitt",
        -9.816544131678876
      ],
      [
        "coutum",
        -9.817534016951242
      ],
      [
        "tendre",
        -9.817620387440083
      ],
      [
        "▁fille",
        -9.822199007733426
      ],
      [
        "▁enferm",
        -9.82348261978972
      ],
      [
        "lière",
        -9.82434337101166
      ],
      [
        "▁souffr",
        -9.82722959711384
      ],
      [
        "▁ag",
        -9.830196207481253
      ],
      [
        "mbo",
        -9.832514866832415
      ],
      [
        "▁précis",
        -9.833462750525563
      ],
      [
        "gé",
        -9.83395643845399
      ],
      [
        "embre",
        -9.834513801669617
      ],
      [
        "ides",
        -9.834622448023818
      ],
      [
        "▁rep",
        -9.835214852313467
      ],
      [
        "▁doct",
        -9.837389279157286
      ],
      [
        "▁disp",
        -9.842500941066683
      ],
      [
        "▁rés",
        -9.842588304314281
      ],
      [
        "▁ressemble",
        -9.843570902823956
      ],
      [
        "▁préfér",
        -9.844968805600097
      ],
      [
        "▁Qu",
        -9.845103124382103
      ],
      [
        "▁oppos",
        -9.845673938153228
      ],
      [
        "▁n'av",
        -9.851557914185705
      ],
      [
        "ieuse",
        -9.85246918945296
      ],
      [
        "▁l'in",
        -9.854122499190025
      ],
      [
        "mi",
        -9.854724915595602
      ],
      [
        "▁ven",
        -9.856368569516482
      ],
      [
        "ormis",
        -9.859008325686322
      ],
      [
        "▁comp",
        -9.861259662771296
      ],
      [
        "▁Se",
        -9.863399823809212
      ],
      [
        "▁form",
        -9.864423705568173
      ],
      [
        "mise",
        -9.86454372105235
      ],
      [
        "isé",
        -9.865493024882987
      ],
      [
        "titude",
        -9.866230408283048
      ],
      [
        "roman",
        -9.867064676705091
      ],
      [
        "▁limit",
        -9.876608423913328
      ],
      [
        "▁pratique",
        -9.877462914774734
      ],
      [
        "▁191",
        -9.877629201686036
      ],
      [
        "▁froide",
        -9.878836570447705
      ],
      [
        "▁sort",
        -9.883668835242368
      ],
      [
        "ères",
        -9.885978735137213
      ],
      [
        "occidentale",
        -9.886200767701403
      ],
      [
        "▁levé",
        -9.891137766227718
      ],
      [
        "discu",
        -9.894275812698648
      ],
      [
        "ole",
        -9.896100295379384
      ],
      [
        "▁utilise",
        -9.896805445033
      ],
      [
        "ta",
        -9.898877256961423
      ],
      [
        "▁impo",
        -9.899292921305683
      ],
      [
        "bé",
        -9.900529409952041
      ],
      [
        "▁réserv",
        -9.900688079935188
      ],
      [
        "née",
        -9.900845411357917
      ],
      [
        "▁cassé",
        -9.901115939888381
      ],
      [
        "iale",
        -9.902029273464825
      ],
      [
        "▁violent",
        -9.902727836468864
      ],
      [
        "▁bon",
        -9.90411902428642
      ],
      [
        "▁devi",
        -9.904146649940744
      ],
      [
        "'écouter",
        -9.905209791980901
      ],
      [
        "▁métal",
        -9.906176849713386
      ],
      [
        "▁consul",
        -9.906719088038972
      ],
      [
        "▁prov",
        -9.907833026660274
      ],
      [
        "fond",
        -9.9104658933266
      ],
      [
        "vres",
        -9.910781120523565
      ],
      [
        "▁caché",
        -9.911952488572965
      ],
      [
        "▁élev",
        -9.91341827504468
      ],
      [
        "▁ci",
        -9.916429199749869
      ],
      [
        "▁Lo",
        -9.916541594082465
      ],
      [
        "▁brûle",
        -9.918560651372887
      ],
      [
        "cieux",
        -9.920825776691146
      ],
      [
        "iller",
        -9.921244411656726
      ],
      [
        "pa",
        -9.92247520153163
      ],
      [
        "ib",
        -9.926163449655665
      ],
      [
        "▁dép",
        -9.930419594610784
      ],
      [
        "be",
        -9.930544563409223
      ],
      [
        "▁parl",
        -9.931672485570775
      ],
      [
        "illon",
        -9.93181589175539
      ],
      [
        "▁s'arrête",
        -9.93228201378319
      ],
      [
        "▁coupe",
        -9.932485283380936
      ],
      [
        "d'",
        -9.93251503104445
      ],
      [
        "▁accompagne",
        -9.934550797163103
      ],
      [
        "ctions",
        -9.93598803414955
      ],
      [
        "▁combatt",
        -9.936190329395025
      ],
      [
        "▁her",
        -9.936481303442083
      ],
      [
        "onner",
        -9.938481537145263
      ],
      [
        "élan",
        -9.939739327613225
      ],
      [
        "▁ins",
        -9.939791529647344
      ],
      [
        "prè",
        -9.940040566062008
      ],
      [
        "▁j'en",
        -9.941027244291323
      ],
      [
        "▁retrouv",
        -9.943756322106434
      ],
      [
        "emelle",
        -9.945870045341248
      ],
      [
        "suite",
        -9.946088331035021
      ],
      [
        "▁Lu",
        -9.946379233158575
      ],
      [
        "▁agi",
        -9.950624117608992
      ],
      [
        "▁médical",
        -9.95359627092224
      ],
      [
        "nie",
        -9.953802009770579
      ],
      [
        "▁fra",
        -9.954486522286215
      ],
      [
        "▁montr",
        -9.95550017832935
      ],
      [
        "▁gard",
        -9.959840080460705
      ],
      [
        "▁log",
        -9.963215419390384
      ],
      [
        "▁év",
        -9.963995864242305
      ],
      [
        "▁Terre",
        -9.966815364935123
      ],
      [
        "île",
        -9.968074653549142
      ],
      [
        "▁représent",
        -9.96929555423308
      ],
      [
        "tique",
        -9.970659199060535
      ],
      [
        "ju",
        -9.97363552790025
      ],
      [
        "origine",
        -9.973808306809328
      ],
      [
        "pluie",
        -9.974057011572947
      ],
      [
        "si",
        -9.975646461543862
      ],
      [
        "ments",
        -9.97567867104454
      ],
      [
        "sé",
        -9.975704950219884
      ],
      [
        "▁souffl",
        -9.981476483298959
      ],
      [
        "▁l'un",
        -9.981785768165802
      ],
      [
        "nd",
        -9.982049481201823
      ],
      [
        "gard",
        -9.982212929941687
      ],
      [
        "▁embr",
        -9.982450746615186
      ],
      [
        "'orage",
        -9.984748826856315
      ],
      [
        "rai",
        -9.985114319911533
      ],
      [
        "ennemi",
        -9.986585231689643
      ],
      [
        "▁sour",
        -9.987620861033264
      ],
      [
        "bon",
        -9.987681084395883
      ],
      [
        "▁fi",
        -9.989800142222888
      ],
      [
        "▁semblait",
        -9.992267167463824
      ],
      [
        "▁aurait-",
        -9.993089878720909
      ],
      [
        "endroit",
        -9.99421842959599
      ],
      [
        "▁d'ac",
        -9.995125915082937
      ],
      [
        "▁fabriqu",
        -10.000180015347679
      ],
      [
        "time",
        -10.00189730298168
      ],
      [
        "▁résist",
        -10.00309250310681
      ],
      [
        "ap",
        -10.00654257724968
      ],
      [
        "ndait",
        -10.006900591136093
      ],
      [
        "aurais",
        -10.007262349900751
      ],
      [
        "▁Leur",
        -10.007498769372388
      ],
      [
        "attend",
        -10.008149826574257
      ],
      [
        "mir",
        -10.011685277066157
      ],
      [
        "fic",
        -10.01221148450104
      ],
      [
        "meuble",
        -10.012573936162026
      ],
      [
        "▁mus",
        -10.014342041440914
      ],
      [
        "état",
        -10.015419341619141
      ],
      [
        "pos",
        -10.016055087220575
      ],
      [
        "ible",
        -10.016881075731874
      ],
      [
        "▁vibr",
        -10.01805881071727
      ],
      [
        "ction",
        -10.0183624133475
      ],
      [
        "stitué",
        -10.02056115344568
      ],
      [
        "issant",
        -10.021221360002697
      ],
      [
        "pis",
        -10.022452957904195
      ],
      [
        "nable",
        -10.02394829259382
      ],
      [
        "ox",
        -10.02424170739003
      ],
      [
        "▁man",
        -10.025398201973282
      ],
      [
        "▁choi",
        -10.02760714019904
      ],
      [
        "plu",
        -10.028871645677581
      ],
      [
        "vois",
        -10.029315032387455
      ],
      [
        "▁L'a",
        -10.029978025827875
      ],
      [
        "fort",
        -10.03143849467324
      ],
      [
        "▁statue",
        -10.032224311267663
      ],
      [
        "oc",
        -10.032983713002539
      ],
      [
        "non",
        -10.034956328612624
      ],
      [
        "▁rap",
        -10.035265815857636
      ],
      [
        "▁por",
        -10.039089336843833
      ],
      [
        "nelle",
        -10.039274219241124
      ],
      [
        "jet",
        -10.039479744891775
      ],
      [
        "mêmes",
        -10.0403202792619
      ],
      [
        "▁para",
        -10.040606256422947
      ],
      [
        "han",
        -10.040819855874236
      ],
      [
        "rin",
        -10.041078908494441
      ],
      [
        "▁anima",
        -10.041901411389535
      ],
      [
        "▁permet",
        -10.042133532451981
      ],
      [
        "▁prépar",
        -10.042489943051537
      ],
      [
        "▁endurci",
        -10.043159348240508
      ],
      [
        "▁peuple",
        -10.043294497172456
      ],
      [
        "▁geste",
        -10.044038688031216
      ],
      [
        "▁fui",
        -10.04559889243732
      ],
      [
        "rable",
        -10.046153852185782
      ],
      [
        "ivement",
        -10.0462332757906
      ],
      [
        "rois",
        -10.046764684272414
      ],
      [
        "▁lointain",
        -10.046897536510453
      ],
      [
        "▁kilomètre",
        -10.047129172814957
      ],
      [
        "▁d'enfant",
        -10.047837288279208
      ],
      [
        "▁jambe",
        -10.048137571412543
      ],
      [
        "▁fourmi",
        -10.05030561789806
      ],
      [
        "▁o",
        -10.050441455126192
      ],
      [
        "ul",
        -10.050574901747014
      ],
      [
        "appartement",
        -10.052413907907226
      ],
      [
        "act",
        -10.05268839398172
      ],
      [
        "ako",
        -10.054225153289718
      ],
      [
        "▁reli",
        -10.054818027423037
      ],
      [
        "▁dim",
        -10.055230801652694
      ],
      [
        "lé",
        -10.055474685784404
      ],
      [
        "ateur",
        -10.055961565229707
      ],
      [
        "▁mêle",
        -10.056243980407979
      ],
      [
        "▁fri",
        -10.057208822409052
      ],
      [
        "ang",
        -10.05723257531995
      ],
      [
        "ités",
        -10.058854465703739
      ],
      [
        "▁passion",
        -10.060645393867581
      ],
      [
        "▁transport",
        -10.062271895080062
      ],
      [
        "▁affect",
        -10.063523449894536
      ],
      [
        "▁passe",
        -10.0648273673886
      ],
      [
        "venue",
        -10.064833253196664
      ],
      [
        "naissance",
        -10.064974680237356
      ],
      [
        "▁exa",
        -10.066104710522183
      ],
      [
        "ies",
        -10.06611367049039
      ],
      [
        "▁tab",
        -10.067296837260589
      ],
      [
        "ngli",
        -10.07131421115029
      ],
      [
        "▁l'app",
        -10.071870150334929
      ],
      [
        "lancs",
        -10.071913443370773
      ],
      [
        "▁arrêt",
        -10.073103707588377
      ],
      [
        "élic",
        -10.073831931100862
      ],
      [
        "olu",
        -10.07433234329663
      ],
      [
        "mall",
        -10.075227289856374
      ],
      [
        "ongtemps",
        -10.076058899298559
      ],
      [
        "▁religi",
        -10.077592798901598
      ],
      [
        "▁pense",
        -10.077733976743536
      ],
      [
        "qui",
        -10.07778110619571
      ],
      [
        "▁kak",
        -10.077843852017525
      ],
      [
        "▁tourbillon",
        -10.078009762822049
      ],
      [
        "esprit",
        -10.078081777655886
      ],
      [
        "ignés",
        -10.078128314917858
      ],
      [
        "▁danger",
        -10.078214619143349
      ],
      [
        "idité",
        -10.078280164439265
      ],
      [
        "▁européen",
        -10.078497158245561
      ],
      [
        "▁exil",
        -10.07883497446905
      ],
      [
        "ik",
        -10.078917030280236
      ],
      [
        "▁aime",
        -10.07908828787635
      ],
      [
        "▁année",
        -10.079285200176827
      ],
      [
        "▁emm",
        -10.079334801592367
      ],
      [
        "orage",
        -10.079486851034483
      ],
      [
        "▁compagn",
        -10.079603205395758
      ],
      [
        "hili",
        -10.079664705878837
      ],
      [
        "▁résiden",
        -10.079835988720147
      ],
      [
        "commençait",
        -10.080107647085718
      ],
      [
        "œu",
        -10.080210032811898
      ],
      [
        "bembé",
        -10.080243649910669
      ],
      [
        "▁plateau",
        -10.080343099851243
      ],
      [
        "0",
        -10.080665220973712
      ],
      [
        "6",
        -10.080673175783554
      ],
      [
        "pêch",
        -10.08072507973952
      ],
      [
        "▁Yoroubas",
        -10.08080614083826
      ],
      [
        "▁BBC",
        -10.080806140838282
      ],
      [
        "▁Cawnpore",
        -10.080806140838602
      ],
      [
        "▁l'hygiène",
        -10.080806140843867
      ],
      [
        "▁yorouba",
        -10.080806140866885
      ],
      [
        "ë",
        -10.080806140878178
      ],
      [
        ";",
        -10.080806140878178
      ],
      [
        "▁infranchissable",
        -10.080806140878178
      ],
      [
        "▁l'Africain",
        -10.080806140878178
      ],
      [
        "▁Adekunle",
        -10.080806140887425
      ],
      [
        "▁léthargi",
        -10.080806140934468
      ],
      [
        "▁dégingandé",
        -10.080806140945459
      ],
      [
        "▁cérémonie",
        -10.080806140996835
      ],
      [
        "▁gangrène",
        -10.080806141079345
      ],
      [
        "▁tam-tam",
        -10.080806141195296
      ],
      [
        "▁turbulen",
        -10.080806141286994
      ],
      [
        "▁musulmans",
        -10.080806141383249
      ],
      [
        "▁l'amertume",
        -10.08080614138433
      ],
      [
        "▁d'Africa",
        -10.080806141422375
      ],
      [
        "▁confronté",
        -10.080806141619629
      ],
      [
        "▁Touareg",
        -10.080806141642988
      ],
      [
        "▁pidgin",
        -10.080806141943473
      ],
      [
        "▁Kwaja",
        -10.080806142092642
      ],
      [
        "▁rectiligne",
        -10.080806142127829
      ],
      [
        "▁cancrelats",
        -10.080806142964938
      ],
      [
        "▁mandibules",
        -10.080806142987674
      ],
      [
        "-B",
        -10.080806143398178
      ],
      [
        "▁favoris",
        -10.080806143663503
      ],
      [
        "▁admirable",
        -10.080806143871477
      ],
      [
        "▁folklor",
        -10.080806144144642
      ],
      [
        "▁navigu",
        -10.080806144733844
      ],
      [
        "▁broussailles",
        -10.080806144851367
      ],
      [
        "▁Kishong",
        -10.080806145439812
      ],
      [
        "açant",
        -10.080806147379134
      ],
      [
        "▁zébr",
        -10.08080614760305
      ],
      [
        "▁Hoggar",
        -10.080806147867865
      ],
      [
        "▁marécages",
        -10.080806148312197
      ],
      [
        "▁l'alcool",
        -10.080806148522473
      ],
      [
        "▁d'abandon",
        -10.080806149307401
      ],
      [
        "▁inflexible",
        -10.080806152055072
      ],
      [
        "▁d'ébène",
        -10.080806154053839
      ],
      [
        "▁l'abandon",
        -10.080806155493953
      ],
      [
        "▁végétation",
        -10.08080615551429
      ],
      [
        "▁agricole",
        -10.0808061555712
      ],
      [
        "▁responsab",
        -10.080806155893631
      ],
      [
        "▁Bawop",
        -10.080806156309123
      ],
      [
        "▁bivoua",
        -10.080806158085908
      ],
      [
        "▁Foumban",
        -10.08080615867265
      ],
      [
        "âne",
        -10.080806166138599
      ],
      [
        "▁mauricien",
        -10.080806169064894
      ],
      [
        "▁suspendu",
        -10.080806171536253
      ],
      [
        "▁soviétique",
        -10.080806176911986
      ],
      [
        "▁clampser",
        -10.080806178781577
      ],
      [
        "▁Accra",
        -10.080806178958364
      ],
      [
        "▁difficulté",
        -10.080806203887903
      ],
      [
        "▁s'enfonce",
        -10.080806227460965
      ],
      [
        "▁horizon",
        -10.080806253713103
      ],
      [
        "▁période",
        -10.08080625800174
      ],
      [
        "▁sportive",
        -10.080806268485304
      ],
      [
        "ospital",
        -10.080806278867295
      ],
      [
        "▁bergers",
        -10.080806279094112
      ],
      [
        "▁m'emmen",
        -10.080806281840793
      ],
      [
        "▁diamants",
        -10.08080630163262
      ],
      [
        "économi",
        -10.08080633402993
      ],
      [
        "▁enfoncé",
        -10.080806335167095
      ],
      [
        "énergie",
        -10.080806352722135
      ],
      [
        "▁foufou",
        -10.080806467466545
      ],
      [
        "▁tragique",
        -10.080806501924403
      ],
      [
        "▁respire",
        -10.080806522248741
      ],
      [
        "▁lézard",
        -10.080806526258367
      ],
      [
        "effaçait",
        -10.080806531555215
      ],
      [
        "▁différence",
        -10.080806551780139
      ],
      [
        "▁bâtisse",
        -10.08080657625081
      ],
      [
        "▁cravate",
        -10.080806640460164
      ],
      [
        "▁spéci",
        -10.080806642503115
      ],
      [
        "▁dortoirs",
        -10.080806667212057
      ],
      [
        "▁l'islam",
        -10.08080667828457
      ],
      [
        "▁Y",
        -10.080806682217819
      ],
      [
        "▁Z",
        -10.080806682228587
      ],
      [
        "▁héroï",
        -10.080806712168243
      ],
      [
        "acacia",
        -10.080806712611858
      ],
      [
        "Obukun",
        -10.080806716261339
      ],
      [
        "▁ravins",
        -10.080806736550636
      ],
      [
        "▁détermination",
        -10.080806745363788
      ],
      [
        "▁ombrage",
        -10.080807084408788
      ],
      [
        "▁manifesta",
        -10.080807236965159
      ],
      [
        "▁voisinage",
        -10.080807246599091
      ],
      [
        "▁jusque-là",
        -10.080807261285393
      ],
      [
        "▁anémi",
        -10.080807393596304
      ],
      [
        "▁l'existence",
        -10.08080748518834
      ],
      [
        "égoïs",
        -10.08080752904116
      ],
      [
        "▁déformée",
        -10.080807623379128
      ],
      [
        "▁abandonn",
        -10.080807643500872
      ],
      [
        "▁hâte",
        -10.080808023886192
      ],
      [
        "▁cultiv",
        -10.080808155439977
      ],
      [
        "▁Londres",
        -10.0808081931734
      ],
      [
        "▁hasard",
        -10.080808472531546
      ],
      [
        "▁club",
        -10.080808705503113
      ],
      [
        "'écorch",
        -10.080808796046208
      ],
      [
        "▁bavard",
        -10.08080886854319
      ],
      [
        "vaincre",
        -10.080809060041659
      ],
      [
        "▁absurde",
        -10.080809180262355
      ],
      [
        "▁facile",
        -10.080809187418735
      ],
      [
        "▁endormi",
        -10.080809329468986
      ],
      [
        "▁cohorte",
        -10.080809677435434
      ],
      [
        "▁calcul",
        -10.080810961453393
      ],
      [
        "▁short",
        -10.080810967553889
      ],
      [
        "▁rompre",
        -10.080811008570528
      ],
      [
        "▁navire",
        -10.080811087217826
      ],
      [
        "▁effort",
        -10.080811116213749
      ],
      [
        "▁possession",
        -10.08081140140348
      ],
      [
        "▁verticale",
        -10.08081152950528
      ],
      [
        "▁suffisa",
        -10.08081154180668
      ],
      [
        "fiévr",
        -10.080811687136846
      ],
      [
        "▁bloc",
        -10.080811702048917
      ],
      [
        "▁signal",
        -10.08081182039385
      ],
      [
        "▁soldat",
        -10.080812369187067
      ],
      [
        "▁encadré",
        -10.08081248901075
      ],
      [
        "▁d'insectes",
        -10.080812672078025
      ],
      [
        "▁palabres",
        -10.080813140598
      ],
      [
        "▁morsures",
        -10.080813151349378
      ],
      [
        "▁serpent",
        -10.080813220914234
      ],
      [
        "▁s'embarque",
        -10.080813373078511
      ],
      [
        "▁n'importe",
        -10.080814188716232
      ],
      [
        "▁assommé",
        -10.080814488728983
      ],
      [
        "▁bruyante",
        -10.080814607061978
      ],
      [
        "▁citad",
        -10.080814854479256
      ],
      [
        "escalad",
        -10.080815069619746
      ],
      [
        "▁placard",
        -10.080815214938571
      ],
      [
        "▁collection",
        -10.080815870157535
      ],
      [
        "▁mouvement",
        -10.080816146378352
      ],
      [
        "▁rassurant",
        -10.080816648529199
      ],
      [
        "▁étudi",
        -10.080817213443042
      ],
      [
        "▁dévorant",
        -10.080817254492896
      ],
      [
        "▁hérissé",
        -10.080817291946275
      ],
      [
        "autopsie",
        -10.080817519172866
      ],
      [
        "▁souffert",
        -10.080818548666471
      ],
      [
        "▁littéra",
        -10.080819869369632
      ],
      [
        "▁patients",
        -10.0808200585082
      ],
      [
        "▁justifi",
        -10.08082005947523
      ],
      [
        "▁bourgeo",
        -10.080821978255354
      ],
      [
        "uscule",
        -10.080823631254294
      ],
      [
        "▁cellule",
        -10.080823713489162
      ],
      [
        "tués",
        -10.080823779888293
      ],
      [
        "▁certitude",
        -10.080824641430814
      ],
      [
        "▁reflétai",
        -10.080825071367077
      ],
      [
        "▁distendu",
        -10.080826408357979
      ],
      [
        "▁prisonnier",
        -10.080826828315933
      ],
      [
        "▁illusion",
        -10.080827039990844
      ],
      [
        "harmoni",
        -10.080827098826914
      ],
      [
        "▁employés",
        -10.080827461374302
      ],
      [
        "▁emphase",
        -10.080829632988214
      ],
      [
        "▁crainte",
        -10.08083002846158
      ],
      [
        "▁circon",
        -10.080830070053183
      ],
      [
        "▁Sauf",
        -10.080831675210403
      ],
      [
        "▁preuve",
        -10.080833733169747
      ],
      [
        "▁explication",
        -10.080835420994683
      ],
      [
        "▁traditionnelle",
        -10.08083713243167
      ],
      [
        "▁brandiss",
        -10.08083741543755
      ],
      [
        "▁disparaissait",
        -10.080837949535919
      ],
      [
        "▁l'école",
        -10.080841036257228
      ],
      [
        "▁carrossable",
        -10.080841814225714
      ],
      [
        "▁Mbam",
        -10.080842293337062
      ],
      [
        "▁voudrai",
        -10.080844016460663
      ],
      [
        "▁désord",
        -10.0808442237172
      ],
      [
        "▁humide",
        -10.080844368566526
      ],
      [
        "ifiée",
        -10.080846337735377
      ],
      [
        "▁herbeuses",
        -10.080846615585386
      ],
      [
        "au-dehors",
        -10.080847585118324
      ],
      [
        "pulsé",
        -10.080848417311417
      ],
      [
        "▁Kenya",
        -10.080851599747103
      ],
      [
        "Allemagne",
        -10.080852011938584
      ],
      [
        "▁remède",
        -10.080852342666372
      ],
      [
        "▁gouttière",
        -10.080855261740032
      ],
      [
        "▁conçu",
        -10.080855305791196
      ],
      [
        "▁recouvr",
        -10.080858690836616
      ],
      [
        "▁aveugl",
        -10.080859837766534
      ],
      [
        "▁bataille",
        -10.080860189764776
      ],
      [
        "▁séjour",
        -10.080860304845222
      ],
      [
        "▁réduit",
        -10.080862549649089
      ],
      [
        "▁pauvre",
        -10.080864361077222
      ],
      [
        "▁classe",
        -10.080865169870386
      ],
      [
        "▁désigne",
        -10.080866631494487
      ],
      [
        "▁douloureu",
        -10.080867437369326
      ],
      [
        "▁cargo",
        -10.080871147140106
      ],
      [
        "▁prospère",
        -10.080872286321647
      ],
      [
        "▁moyen",
        -10.080875477729336
      ],
      [
        "▁terrasse",
        -10.080876471034514
      ],
      [
        "▁vitesse",
        -10.08087742626978
      ],
      [
        "▁insurgé",
        -10.080879096192685
      ],
      [
        "▁migraines",
        -10.080881510713725
      ],
      [
        "▁chocra",
        -10.080890517691099
      ],
      [
        "▁châteaux",
        -10.08089277555325
      ],
      [
        "▁cotonn",
        -10.08089661150271
      ],
      [
        "▁bombard",
        -10.08089772951795
      ],
      [
        "dehors",
        -10.080899598326859
      ],
      [
        "▁empêcha",
        -10.080902571707615
      ],
      [
        "▁calme",
        -10.080903810446557
      ],
      [
        "▁espion",
        -10.080904410222097
      ],
      [
        "grippe",
        -10.080905075623706
      ],
      [
        "gonflé",
        -10.080907772198497
      ],
      [
        "éléphant",
        -10.080909511826555
      ],
      [
        "▁tromp",
        -10.080909765790306
      ],
      [
        "▁essay",
        -10.080911193385843
      ],
      [
        "▁itinérant",
        -10.080912687241346
      ],
      [
        "▁école",
        -10.08091280819705
      ],
      [
        "▁carabine",
        -10.080916989593275
      ],
      [
        "▁reconnaître",
        -10.080917538378563
      ],
      [
        "▁singes",
        -10.080919357169313
      ],
      [
        "▁occidentaux",
        -10.080920983683427
      ],
      [
        "apparition",
        -10.080921589513741
      ],
      [
        "ologie",
        -10.080927543484897
      ],
      [
        "▁administrative",
        -10.08093296050314
      ],
      [
        "▁féti",
        -10.080947390539388
      ],
      [
        "▁redouta",
        -10.080948829895899
      ],
      [
        "▁s'éloigne",
        -10.08095291291289
      ],
      [
        "▁diff",
        -10.080955590868342
      ],
      [
        "▁chacun",
        -10.080964670557151
      ],
      [
        "▁inconnu",
        -10.08096518716491
      ],
      [
        "▁grouill",
        -10.080967492534771
      ],
      [
        "▁agoni",
        -10.080978388684004
      ],
      [
        "▁côtière",
        -10.080981405520198
      ],
      [
        "▁reconnu",
        -10.080982981995241
      ],
      [
        "▁Parfois",
        -10.080984271304759
      ],
      [
        "▁vautours",
        -10.080985911572242
      ],
      [
        "▁rattach",
        -10.080988251376338
      ],
      [
        "▁orteil",
        -10.080988850027765
      ],
      [
        "▁examin",
        -10.080997314940157
      ],
      [
        "▁hurle",
        -10.080998118857353
      ],
      [
        "▁inject",
        -10.081001789981528
      ],
      [
        "▁inaccessible",
        -10.08100676510991
      ],
      [
        "▁s'écroul",
        -10.081012405353862
      ],
      [
        "▁indienne",
        -10.081022844451171
      ],
      [
        "▁recevoir",
        -10.081022955499
      ],
      [
        "▁minut",
        -10.081024385496333
      ],
      [
        "▁d'autrefois",
        -10.081031598633992
      ],
      [
        "▁clair",
        -10.081035050768243
      ],
      [
        "▁Demerara",
        -10.081035876052185
      ],
      [
        "▁demi-",
        -10.08103734562669
      ],
      [
        "▁journaux",
        -10.081040893415704
      ],
      [
        "apporte",
        -10.081049833934804
      ],
      [
        "▁cadeaux",
        -10.081056661294843
      ],
      [
        "▁savate",
        -10.081078516755142
      ],
      [
        "▁empesé",
        -10.081079106728192
      ],
      [
        "obscur",
        -10.081081631562393
      ],
      [
        "équipe",
        -10.08108281810181
      ],
      [
        "▁raffiné",
        -10.08108794516524
      ],
      [
        "support",
        -10.081090387627256
      ],
      [
        "▁pacifi",
        -10.08109096335447
      ],
      [
        "▁pessimisme",
        -10.081098419728491
      ],
      [
        "▁indiens",
        -10.081106922697609
      ],
      [
        "▁chevaux",
        -10.081107129272022
      ],
      [
        "▁d'arriver",
        -10.081110428876643
      ],
      [
        "oiseaux",
        -10.08113830895504
      ],
      [
        "▁d'E",
        -10.081140472584059
      ],
      [
        "▁brèche",
        -10.081148268558124
      ],
      [
        "offens",
        -10.081164345055445
      ],
      [
        "▁active",
        -10.081165389348138
      ],
      [
        "▁relations",
        -10.081168076960388
      ],
      [
        "▁entoure",
        -10.081180321793362
      ],
      [
        "▁reparti",
        -10.081185901513255
      ],
      [
        "▁aimait",
        -10.081189875921439
      ],
      [
        "▁loca",
        -10.081192821440485
      ],
      [
        "douze",
        -10.08119310553585
      ],
      [
        "▁venge",
        -10.08121094006317
      ],
      [
        "inclin",
        -10.081218135368797
      ],
      [
        "▁déclar",
        -10.081218777905523
      ],
      [
        "âtre",
        -10.08123274230713
      ],
      [
        "▁Tama",
        -10.081238553590786
      ],
      [
        "zia",
        -10.081245425923955
      ],
      [
        "▁chapeau",
        -10.081252294735329
      ],
      [
        "▁imprim",
        -10.081262690387998
      ],
      [
        "otiques",
        -10.081271428199045
      ],
      [
        "▁moitié",
        -10.081283998037428
      ],
      [
        "▁ruiné",
        -10.081292953554549
      ],
      [
        "▁guerrières",
        -10.081298922278524
      ],
      [
        "▁généreux",
        -10.081299298493787
      ],
      [
        "▁étoile",
        -10.081327708471326
      ],
      [
        "▁titre",
        -10.081332897269366
      ],
      [
        "▁sourcils",
        -10.081337127472908
      ],
      [
        "▁souffrance",
        -10.081362782321207
      ],
      [
        "▁capric",
        -10.08136885729694
      ],
      [
        "▁Mbembé",
        -10.0813694525992
      ],
      [
        "ternel",
        -10.081374677111114
      ],
      [
        "▁Bali",
        -10.081417526722175
      ],
      [
        "▁cousine",
        -10.081418804467823
      ],
      [
        "▁Dieu",
        -10.081427675224361
      ],
      [
        "▁bienfait",
        -10.081439874478244
      ],
      [
        "▁fourni",
        -10.081471653058506
      ],
      [
        "▁manqué",
        -10.081471899210804
      ],
      [
        "▁haine",
        -10.08147782642737
      ],
      [
        "▁recommençait",
        -10.081505919794415
      ],
      [
        "ègre",
        -10.081506258854489
      ],
      [
        "▁banan",
        -10.081511268660126
      ],
      [
        "▁réveill",
        -10.081525519131615
      ],
      [
        "▁abri",
        -10.081527484346907
      ],
      [
        "▁promena",
        -10.081530983718102
      ],
      [
        "rifice",
        -10.081531737993785
      ],
      [
        "▁s'installaient",
        -10.081537657103485
      ],
      [
        "blème",
        -10.08159919812821
      ],
      [
        "▁oublié",
        -10.081617960914244
      ],
      [
        "én",
        -10.081638240742963
      ],
      [
        "▁dépays",
        -10.08164706964169
      ],
      [
        "lumin",
        -10.081647884516713
      ],
      [
        "▁n'exist",
        -10.081656060712923
      ],
      [
        "▁commande",
        -10.08166254078602
      ],
      [
        "▁autrefois",
        -10.081672917671611
      ],
      [
        "▁sida",
        -10.081676229454246
      ],
      [
        "▁l'argent",
        -10.081693091375367
      ],
      [
        "▁nacelle",
        -10.081698905830274
      ],
      [
        "▁haoussa",
        -10.081711886267492
      ],
      [
        "jama",
        -10.081715075163755
      ],
      [
        "▁l'angl",
        -10.081716387649177
      ],
      [
        "▁profondeur",
        -10.081721655618377
      ],
      [
        "▁cirées",
        -10.081735602300068
      ],
      [
        "▁gland",
        -10.08174466417648
      ],
      [
        "▁futur",
        -10.081782013434083
      ],
      [
        "▁Enfin",
        -10.081795679102532
      ],
      [
        "▁mouton",
        -10.081811889051115
      ],
      [
        "▁amoureu",
        -10.081816086698904
      ],
      [
        "▁gosse",
        -10.081835503735793
      ],
      [
        "▁événements",
        -10.081849266413508
      ],
      [
        "▁véné",
        -10.081855704873544
      ],
      [
        "▁parisienne",
        -10.081856344624411
      ],
      [
        "▁Bro",
        -10.081881258272611
      ],
      [
        "▁semblables",
        -10.081892179530048
      ],
      [
        "▁superf",
        -10.081903799823245
      ],
      [
        "▁irokos",
        -10.08192955930738
      ],
      [
        "▁aimé",
        -10.081933869133392
      ],
      [
        "▁terminé",
        -10.081958544725657
      ],
      [
        "▁Mill",
        -10.081961263184752
      ],
      [
        "antenne",
        -10.081965508493868
      ],
      [
        "▁gants",
        -10.081972770244484
      ],
      [
        "▁voisins",
        -10.081975228327767
      ],
      [
        "▁heureux",
        -10.082023476242416
      ],
      [
        "▁dangereux",
        -10.082043496231762
      ],
      [
        "▁religieux",
        -10.08207384150078
      ],
      [
        "▁l'étroit",
        -10.082081600398997
      ],
      [
        "▁l'équ",
        -10.082139635130646
      ],
      [
        "▁œufs",
        -10.082185063115535
      ],
      [
        "▁termina",
        -10.082221434874123
      ],
      [
        "arc-",
        -10.082224463438237
      ],
      [
        "▁tirage",
        -10.082273263129974
      ],
      [
        "bienne",
        -10.082273650179522
      ],
      [
        "▁trente-",
        -10.082305743108169
      ],
      [
        "▁savon",
        -10.082313705565507
      ],
      [
        "ish",
        -10.08237061160231
      ],
      [
        "▁capit",
        -10.082380429862793
      ],
      [
        "elle-même",
        -10.082430203441014
      ],
      [
        "▁trott",
        -10.08246559391695
      ],
      [
        "▁castes",
        -10.082535073321145
      ],
      [
        "▁marchand",
        -10.082604302511005
      ],
      [
        "▁enserr",
        -10.082683143707303
      ],
      [
        "minist",
        -10.082683783902842
      ],
      [
        "ailleurs",
        -10.082716802308125
      ],
      [
        "▁enlève",
        -10.082719212622061
      ],
      [
        "▁dangereuse",
        -10.082787064901552
      ],
      [
        "▁d'état",
        -10.0827880359864
      ],
      [
        "adresse",
        -10.082827427401865
      ],
      [
        "▁volont",
        -10.082831789293088
      ],
      [
        "▁religieuse",
        -10.082832795090358
      ],
      [
        "▁permanent",
        -10.082843507320838
      ],
      [
        "▁Og",
        -10.08285792961374
      ],
      [
        "▁contrai",
        -10.082977511903874
      ],
      [
        "▁flamb",
        -10.083012861018629
      ],
      [
        "▁détest",
        -10.08301870091338
      ],
      [
        "▁arrivant",
        -10.083052149100983
      ],
      [
        "▁refaire",
        -10.083053842173241
      ],
      [
        "▁front",
        -10.083057116983191
      ],
      [
        "▁faim",
        -10.083065803576174
      ],
      [
        "▁Déjà",
        -10.083125798985375
      ],
      [
        "▁déborda",
        -10.08316835802366
      ],
      [
        "▁ruine",
        -10.083172591788744
      ],
      [
        "▁proue",
        -10.083194134199447
      ],
      [
        "▁atroc",
        -10.083263544047128
      ],
      [
        "▁l'inv",
        -10.083318897124515
      ],
      [
        "trappe",
        -10.083437409238018
      ],
      [
        "▁principes",
        -10.083440161260965
      ],
      [
        "▁esprits",
        -10.083546563867694
      ],
      [
        "▁tourbillonnai",
        -10.08361020728847
      ],
      [
        "▁veine",
        -10.083711160821013
      ],
      [
        "▁lourdement",
        -10.083761949679703
      ],
      [
        "▁obsédant",
        -10.083840282376926
      ],
      [
        "▁s'ex",
        -10.084127864661518
      ],
      [
        "onnement",
        -10.0841445446242
      ],
      [
        "▁emmen",
        -10.084246430767006
      ],
      [
        "▁naiss",
        -10.08427464999252
      ],
      [
        "▁John",
        -10.084320469985876
      ],
      [
        "▁l'émotion",
        -10.084324383198465
      ],
      [
        "▁l'humanité",
        -10.084326557862033
      ],
      [
        "▁contenu",
        -10.084378296081189
      ],
      [
        "kw",
        -10.084401677449522
      ],
      [
        "▁perçoi",
        -10.084523641348738
      ],
      [
        "palud",
        -10.084709037477982
      ],
      [
        "▁lettre",
        -10.084714687547947
      ],
      [
        "▁lucid",
        -10.084740786546172
      ],
      [
        "▁livré",
        -10.084775929956823
      ],
      [
        "▁conform",
        -10.084809097607506
      ],
      [
        "▁Dion",
        -10.08480950918926
      ],
      [
        "baie",
        -10.084818983818204
      ],
      [
        "agaie",
        -10.084843660518976
      ],
      [
        "▁rép",
        -10.084845250139912
      ],
      [
        "▁l'aura",
        -10.085011083633141
      ],
      [
        "▁capo",
        -10.08511038550944
      ],
      [
        "▁dram",
        -10.08514294414995
      ],
      [
        "ache",
        -10.085407436833702
      ],
      [
        "▁tâche",
        -10.085471702250361
      ],
      [
        "acharn",
        -10.08563546209688
      ],
      [
        "▁troubl",
        -10.085656352093352
      ],
      [
        "nkar",
        -10.085676935156057
      ],
      [
        "▁incon",
        -10.085756189039802
      ],
      [
        "▁rond",
        -10.085783507316673
      ],
      [
        "quetés",
        -10.08584457559309
      ],
      [
        "▁soupir",
        -10.085917469339698
      ],
      [
        "▁justement",
        -10.085953714863221
      ],
      [
        "▁l'exemple",
        -10.086001283754976
      ],
      [
        "▁ensuite",
        -10.086021212117124
      ],
      [
        "▁rêverie",
        -10.086068159444253
      ],
      [
        "▁sorcier",
        -10.086126697255349
      ],
      [
        "▁j'écoute",
        -10.086224500336652
      ],
      [
        "▁trac",
        -10.086317636091252
      ],
      [
        "ulture",
        -10.086572094359836
      ],
      [
        "▁toucher",
        -10.08692688256498
      ],
      [
        "▁échappé",
        -10.087027607366165
      ],
      [
        "ocrit",
        -10.087038761727143
      ],
      [
        "▁brumeu",
        -10.087095952725882
      ],
      [
        "▁parlaient",
        -10.087121816696845
      ],
      [
        "▁avenir",
        -10.08712300858625
      ],
      [
        "rak",
        -10.08725211806384
      ],
      [
        "▁apparaît",
        -10.08731705459379
      ],
      [
        "▁l'I",
        -10.087338910276316
      ],
      [
        "▁perche",
        -10.0874279800713
      ],
      [
        "▁étonné",
        -10.08743821295915
      ],
      [
        "découvrant",
        -10.087558351224308
      ],
      [
        "▁frappait",
        -10.087886844199355
      ],
      [
        "▁attir",
        -10.087938712102313
      ],
      [
        "▁suivant",
        -10.08794378489165
      ],
      [
        "▁l'ignor",
        -10.088030283975804
      ],
      [
        "▁accent",
        -10.08809659350386
      ],
      [
        "veille",
        -10.088142440664209
      ],
      [
        "▁fissur",
        -10.088197744751819
      ],
      [
        "▁épineu",
        -10.088377150147185
      ],
      [
        "▁exig",
        -10.088414587872418
      ],
      [
        "▁instinctive",
        -10.08848788623536
      ],
      [
        "▁l'écla",
        -10.08850824252061
      ],
      [
        "nya",
        -10.088938676133996
      ],
      [
        "acle",
        -10.088979306455572
      ],
      [
        "umul",
        -10.089521551833585
      ],
      [
        "utisme",
        -10.08969400072576
      ],
      [
        "▁descente",
        -10.090057002913287
      ],
      [
        "▁trouvé",
        -10.090063617072166
      ],
      [
        "turne",
        -10.09009035760374
      ],
      [
        "▁bro",
        -10.090168494025306
      ],
      [
        "▁arrivait",
        -10.090203898593902
      ],
      [
        "▁transformé",
        -10.090492650839801
      ],
      [
        "▁brutal",
        -10.090536934169917
      ],
      [
        "licat",
        -10.090579441283433
      ],
      [
        "▁vaine",
        -10.090646898841985
      ],
      [
        "▁folle",
        -10.090687315079519
      ],
      [
        "▁occupé",
        -10.090780743181835
      ],
      [
        "▁puissant",
        -10.09079703775289
      ],
      [
        "▁referm",
        -10.090962088452148
      ],
      [
        "▁papaye",
        -10.091074795683179
      ],
      [
        "▁serré",
        -10.091182068619952
      ],
      [
        "quiner",
        -10.091188281185184
      ],
      [
        "▁rouillé",
        -10.091586167292247
      ],
      [
        "▁rendait",
        -10.09163384053298
      ],
      [
        "▁préparer",
        -10.091664183541912
      ],
      [
        "▁défil",
        -10.091913533595607
      ],
      [
        "▁parcouru",
        -10.092223447735327
      ],
      [
        "▁ref",
        -10.092253413466908
      ],
      [
        "usure",
        -10.092572487406969
      ],
      [
        "ouilla",
        -10.092587594335608
      ],
      [
        "dales",
        -10.092759190296327
      ],
      [
        "▁désespérant",
        -10.092837199043244
      ],
      [
        "▁mouch",
        -10.092944561972573
      ],
      [
        "sses",
        -10.093078815102155
      ],
      [
        "▁saisir",
        -10.093146161111424
      ],
      [
        "▁appel",
        -10.093250440276668
      ],
      [
        "▁odeurs",
        -10.093315930999827
      ],
      [
        "▁flotte",
        -10.093492961073315
      ],
      [
        "aines",
        -10.093650879749397
      ],
      [
        "▁séc",
        -10.093709750627708
      ],
      [
        "▁magie",
        -10.093749680816627
      ],
      [
        "▁remonter",
        -10.093779111058199
      ],
      [
        "ntrée",
        -10.09389018124796
      ],
      [
        "▁voilé",
        -10.09390769939693
      ],
      [
        "▁puni",
        -10.094211202972986
      ],
      [
        "yph",
        -10.094507877669022
      ],
      [
        "cher",
        -10.094580752699885
      ],
      [
        "▁battant",
        -10.094802813011825
      ],
      [
        "gorg",
        -10.09486259503107
      ],
      [
        "▁l'oc",
        -10.095008890169746
      ],
      [
        "▁sûrs",
        -10.095374300833612
      ],
      [
        "▁gratuite",
        -10.095396736122142
      ],
      [
        "▁moqu",
        -10.095414453497842
      ],
      [
        "▁portraits",
        -10.095462612814046
      ],
      [
        "▁secrets",
        -10.09547267726515
      ],
      [
        "▁administrateurs",
        -10.095475128101832
      ],
      [
        "▁nonchalante",
        -10.09547673875466
      ],
      [
        "▁gilets",
        -10.095483780034483
      ],
      [
        "▁planche",
        -10.095699654005461
      ],
      [
        "onnés",
        -10.095831186651932
      ],
      [
        "ung",
        -10.095939115986594
      ],
      [
        "▁flanc",
        -10.096054448918126
      ],
      [
        "▁larmes",
        -10.096283611749486
      ],
      [
        "iquaient",
        -10.096306549459428
      ],
      [
        "sensible",
        -10.0963511520636
      ],
      [
        "▁Fou",
        -10.096856291035934
      ],
      [
        "▁parlé",
        -10.096970168644683
      ],
      [
        "▁pilot",
        -10.097349738114385
      ],
      [
        "▁immobil",
        -10.09738633360839
      ],
      [
        "▁congés",
        -10.09749779094864
      ],
      [
        "▁envoy",
        -10.097536246090414
      ],
      [
        "▁substan",
        -10.097589984779994
      ],
      [
        "▁dessine",
        -10.097668075163083
      ],
      [
        "▁compos",
        -10.09774629317659
      ],
      [
        "orant",
        -10.097936248497684
      ],
      [
        "▁remarqu",
        -10.09795606356821
      ],
      [
        "▁vieilli",
        -10.098044159773382
      ],
      [
        "▁conduit",
        -10.098158677204372
      ],
      [
        "▁nombre",
        -10.09836855622314
      ],
      [
        "▁l'adolescen",
        -10.0983898531586
      ],
      [
        "▁affection",
        -10.098442274783332
      ],
      [
        "▁outre",
        -10.098786063602951
      ],
      [
        "▁signe",
        -10.098908223303702
      ],
      [
        "▁raide",
        -10.0989097370822
      ],
      [
        "▁enco",
        -10.099316117375825
      ],
      [
        "▁pap",
        -10.09933105296376
      ],
      [
        "eaux",
        -10.099617430826939
      ],
      [
        "▁insouciant",
        -10.099887119330685
      ],
      [
        "▁transmet",
        -10.100102041586226
      ],
      [
        "▁seraient",
        -10.100275039017319
      ],
      [
        "cité",
        -10.100756673349842
      ],
      [
        "▁effe",
        -10.100773232197264
      ],
      [
        "'étais",
        -10.100875031766224
      ],
      [
        "▁l'avant",
        -10.10125877286794
      ],
      [
        "aliment",
        -10.101484770990652
      ],
      [
        "▁arraché",
        -10.10161433509986
      ],
      [
        "▁dial",
        -10.101637923714115
      ],
      [
        "itié",
        -10.101753968197915
      ],
      [
        "▁salon",
        -10.10179653832082
      ],
      [
        "▁rides",
        -10.10200007118987
      ],
      [
        "rompt",
        -10.102095193816325
      ],
      [
        "▁langue",
        -10.102187625641758
      ],
      [
        "▁évi",
        -10.102326821425056
      ],
      [
        "▁brûlé",
        -10.102673416357552
      ],
      [
        "▁remis",
        -10.102730942672522
      ],
      [
        "rendre",
        -10.10273494136155
      ],
      [
        "▁exilé",
        -10.102939656485306
      ],
      [
        "major",
        -10.103112953889855
      ],
      [
        "▁prétend",
        -10.103349720296276
      ],
      [
        "▁siens",
        -10.103373658606152
      ],
      [
        "▁corr",
        -10.103992210892397
      ],
      [
        "ffronter",
        -10.104793519891851
      ],
      [
        "▁inqui",
        -10.10503261392636
      ],
      [
        "▁flo",
        -10.105318467288834
      ],
      [
        "▁taille",
        -10.105945715509147
      ],
      [
        "chures",
        -10.106077970591642
      ],
      [
        "▁transporté",
        -10.10618502644825
      ],
      [
        "oups",
        -10.106789411398884
      ],
      [
        "▁Ver",
        -10.107239970926381
      ],
      [
        "▁deven",
        -10.108319165729354
      ],
      [
        "abine",
        -10.108548916805079
      ],
      [
        "étho",
        -10.108992513054217
      ],
      [
        "tueuse",
        -10.109036166053437
      ],
      [
        "▁rompu",
        -10.10959332283391
      ],
      [
        "▁gâteau",
        -10.109596843314291
      ],
      [
        "▁bleues",
        -10.109940722956493
      ],
      [
        "▁prépare",
        -10.11061494131915
      ],
      [
        "Ouest",
        -10.110649989448179
      ],
      [
        "▁mani",
        -10.110677454887657
      ],
      [
        "▁fut",
        -10.111445592883127
      ],
      [
        "▁rempli",
        -10.11184600610261
      ],
      [
        "▁d'enc",
        -10.112024441615088
      ],
      [
        "▁passionn",
        -10.112379555773229
      ],
      [
        "gante",
        -10.112586260287806
      ],
      [
        "▁gi",
        -10.113338588160447
      ],
      [
        "rage",
        -10.113709443764687
      ],
      [
        "▁d'agr",
        -10.113984020395476
      ],
      [
        "▁bours",
        -10.114083518914404
      ],
      [
        "▁ser",
        -10.11425882452795
      ],
      [
        "ku",
        -10.114502309652726
      ],
      [
        "▁rapporte",
        -10.114906256247945
      ],
      [
        "aises",
        -10.115112752562617
      ],
      [
        "▁accouchement",
        -10.115344122697357
      ],
      [
        "explosi",
        -10.11544812738648
      ],
      [
        "avant",
        -10.115563118487623
      ],
      [
        "▁machette",
        -10.115969585390557
      ],
      [
        "▁choqu",
        -10.116091650685034
      ],
      [
        "basse",
        -10.116113141701906
      ],
      [
        "▁sév",
        -10.11672105409802
      ],
      [
        "▁amer",
        -10.116808987105625
      ],
      [
        "▁soigné",
        -10.11758729740101
      ],
      [
        "▁mett",
        -10.117908377779852
      ],
      [
        "▁décorés",
        -10.11808845633735
      ],
      [
        "▁vic",
        -10.118217857337415
      ],
      [
        "ramas",
        -10.118318230782162
      ],
      [
        "toile",
        -10.118324902617589
      ],
      [
        "▁abo",
        -10.118499508695068
      ],
      [
        "ada",
        -10.118634920094001
      ],
      [
        "▁utilisé",
        -10.118847200987066
      ],
      [
        "▁ressembler",
        -10.118936703653482
      ],
      [
        "▁dorm",
        -10.119168835034829
      ],
      [
        "▁gestes",
        -10.119274344525214
      ],
      [
        "oudain",
        -10.1195410940746
      ],
      [
        "mat",
        -10.119871995517709
      ],
      [
        "▁peuples",
        -10.119951856542642
      ],
      [
        "▁instrument",
        -10.120395408431987
      ],
      [
        "▁perçois",
        -10.120424819588626
      ],
      [
        "▁éch",
        -10.120824860353164
      ],
      [
        "matur",
        -10.120829783649011
      ],
      [
        "leur",
        -10.121178053377685
      ],
      [
        "▁voi",
        -10.121201937278597
      ],
      [
        "▁fatigué",
        -10.121213644319345
      ],
      [
        "▁exceptionnel",
        -10.12143786241051
      ],
      [
        "▁expérience",
        -10.121562129908083
      ],
      [
        "tilité",
        -10.122053673901005
      ],
      [
        "▁endurcis",
        -10.122232993375263
      ],
      [
        "ration",
        -10.122247272506682
      ],
      [
        "▁ennemis",
        -10.122605331748177
      ],
      [
        "▁infirmiers",
        -10.122831167542008
      ],
      [
        "▁environn",
        -10.1228637221904
      ],
      [
        "▁rong",
        -10.122919537360984
      ],
      [
        "villé",
        -10.123252417180158
      ],
      [
        "▁habitu",
        -10.123433379516026
      ],
      [
        "▁gain",
        -10.123468934420835
      ],
      [
        "ades",
        -10.123581200674263
      ],
      [
        "▁ibo",
        -10.124595413609288
      ],
      [
        "gar",
        -10.124816611030504
      ],
      [
        "yo",
        -10.125061724340068
      ],
      [
        "nois",
        -10.125418835164089
      ],
      [
        "▁tir",
        -10.125628985796777
      ],
      [
        "ssures",
        -10.12594731036995
      ],
      [
        "rude",
        -10.126241067427415
      ],
      [
        "▁prendre",
        -10.126986031737518
      ],
      [
        "▁fuit",
        -10.127158672344368
      ],
      [
        "▁européenne",
        -10.127361795625317
      ],
      [
        "▁immensité",
        -10.12743549736603
      ],
      [
        "▁chass",
        -10.127555186767172
      ],
      [
        "épar",
        -10.127705984942112
      ],
      [
        "hy",
        -10.12793671083575
      ],
      [
        "▁permettr",
        -10.127986229214876
      ],
      [
        "?",
        -10.128151020575405
      ],
      [
        "provision",
        -10.12848991530913
      ],
      [
        "▁rituels",
        -10.128593002367325
      ],
      [
        "▁marcher",
        -10.128805622719398
      ],
      [
        "▁affaires",
        -10.12904538501918
      ],
      [
        "réelle",
        -10.129173205002306
      ],
      [
        "▁l'aide",
        -10.129306242799386
      ],
      [
        "insi",
        -10.129333432680536
      ],
      [
        "▁espoir",
        -10.1298046457509
      ],
      [
        "▁habite",
        -10.130197581284683
      ],
      [
        "▁battu",
        -10.130559064675634
      ],
      [
        "▁éloignement",
        -10.130806238295438
      ],
      [
        "▁décoré",
        -10.131259225411343
      ],
      [
        "égré",
        -10.13177813409854
      ],
      [
        "▁officielle",
        -10.132941444625104
      ],
      [
        "▁éclairs",
        -10.133098228394458
      ],
      [
        "▁civilis",
        -10.133496838203145
      ],
      [
        "▁irréel",
        -10.133804734583139
      ],
      [
        "▁march",
        -10.133948917746396
      ],
      [
        "▁industrielle",
        -10.134101714328395
      ],
      [
        "habituelle",
        -10.134194507809216
      ],
      [
        "▁rêver",
        -10.13553424774188
      ],
      [
        "▁statu",
        -10.135650672787119
      ],
      [
        "▁divi",
        -10.135840466582016
      ],
      [
        "▁rongé",
        -10.136319541375125
      ],
      [
        "éan",
        -10.136924732795196
      ],
      [
        "▁élé",
        -10.137363975019623
      ],
      [
        "▁bib",
        -10.138159529263769
      ],
      [
        "▁l'isol",
        -10.138378491468893
      ],
      [
        "▁brin",
        -10.138416401199706
      ],
      [
        "écart",
        -10.138674072930026
      ],
      [
        "its",
        -10.138715415979082
      ],
      [
        "ange",
        -10.139217349630163
      ],
      [
        "▁parcours",
        -10.139556717312793
      ],
      [
        "yard",
        -10.139992827028847
      ],
      [
        "dou",
        -10.140016116470767
      ],
      [
        "▁soufflet",
        -10.140072825364745
      ],
      [
        "envahissai",
        -10.140186800455123
      ],
      [
        "▁ennemi",
        -10.140343981305467
      ],
      [
        "▁trou",
        -10.140884413133705
      ],
      [
        "▁rassembl",
        -10.141580242482286
      ],
      [
        "▁tam",
        -10.141837835734952
      ],
      [
        "lang",
        -10.141891022100388
      ],
      [
        "▁fatal",
        -10.142053774838582
      ],
      [
        "▁miroirs",
        -10.143465222914504
      ],
      [
        "▁distances",
        -10.143616839379611
      ],
      [
        "rouille",
        -10.14408054985653
      ],
      [
        "di",
        -10.144128202960704
      ],
      [
        "▁dieux",
        -10.144304406012301
      ],
      [
        "coph",
        -10.144371026625894
      ],
      [
        "▁moustiquaires",
        -10.144460896796174
      ],
      [
        "▁autorit",
        -10.144510226470564
      ],
      [
        "▁institu",
        -10.145059762615862
      ],
      [
        "êt",
        -10.145371338591657
      ],
      [
        "uments",
        -10.145546590791223
      ],
      [
        "▁accroch",
        -10.146003017092179
      ],
      [
        "roduit",
        -10.146860553271068
      ],
      [
        "ncé",
        -10.147043801267326
      ],
      [
        "▁famili",
        -10.147747413729206
      ],
      [
        "▁semé",
        -10.149158413412511
      ],
      [
        "▁traces",
        -10.149309626020333
      ],
      [
        "'appellent",
        -10.149676306400721
      ],
      [
        "▁Ngo",
        -10.149710080234216
      ],
      [
        "géni",
        -10.149814933929441
      ],
      [
        "▁s'éte",
        -10.150276760410948
      ],
      [
        "'affaire",
        -10.150661750677152
      ],
      [
        "vions",
        -10.15190957321796
      ],
      [
        "▁étude",
        -10.151921021236298
      ],
      [
        "▁chefs",
        -10.152466979655644
      ],
      [
        "▁vieil",
        -10.15294259558174
      ],
      [
        "isée",
        -10.153376720219763
      ],
      [
        "esse",
        -10.15471063595452
      ],
      [
        "▁offra",
        -10.154722892398434
      ],
      [
        "gade",
        -10.154897792896309
      ],
      [
        "▁n'app",
        -10.155935973470545
      ],
      [
        "parts",
        -10.157218755005522
      ],
      [
        "▁colport",
        -10.157285180734833
      ],
      [
        "idée",
        -10.157319620539207
      ],
      [
        "▁Bar",
        -10.15802760286007
      ],
      [
        "▁normal",
        -10.158756103784674
      ],
      [
        "▁décol",
        -10.159161951695475
      ],
      [
        "▁écouter",
        -10.159206081084916
      ],
      [
        "▁positi",
        -10.159281118266103
      ],
      [
        "je",
        -10.160135544371297
      ],
      [
        "▁lever",
        -10.160784044730558
      ],
      [
        "ition",
        -10.161182471846548
      ],
      [
        "oulé",
        -10.162002115157318
      ],
      [
        "aisse",
        -10.163038654348082
      ],
      [
        "▁mode",
        -10.16367598489335
      ],
      [
        "▁serais",
        -10.164088158266328
      ],
      [
        "▁résiste",
        -10.165271077678854
      ],
      [
        "▁Mal",
        -10.165413557157432
      ],
      [
        "▁ép",
        -10.166632221772023
      ],
      [
        "▁ressent",
        -10.166712724533486
      ],
      [
        "ain",
        -10.167255799743632
      ],
      [
        "ly",
        -10.16811484927625
      ],
      [
        "▁plai",
        -10.169084406522169
      ],
      [
        "▁d'hi",
        -10.170425801188443
      ],
      [
        "▁confin",
        -10.171465998788593
      ],
      [
        "pés",
        -10.171590770472509
      ],
      [
        "▁cesse",
        -10.171622590573357
      ],
      [
        "émie",
        -10.171900478060955
      ],
      [
        "hré",
        -10.173876226859282
      ],
      [
        "▁rac",
        -10.174717475107581
      ],
      [
        "orpor",
        -10.174777164127619
      ],
      [
        "▁profonde",
        -10.175630251578308
      ],
      [
        "▁têtes",
        -10.17652884155575
      ],
      [
        "▁te",
        -10.177960763958582
      ],
      [
        "sultat",
        -10.178189449604634
      ],
      [
        "▁organisat",
        -10.178445129668042
      ],
      [
        "▁détri",
        -10.178889335672707
      ],
      [
        "blant",
        -10.180022252178548
      ],
      [
        "ènes",
        -10.181512868198258
      ],
      [
        "attes",
        -10.181704196872893
      ],
      [
        "écess",
        -10.183042059383203
      ],
      [
        "▁fédérale",
        -10.183440500084195
      ],
      [
        "ppu",
        -10.184205812845384
      ],
      [
        "▁poules",
        -10.185320038980365
      ],
      [
        "▁sexe",
        -10.186103450376603
      ],
      [
        "réci",
        -10.186127308967079
      ],
      [
        "▁So",
        -10.187234066296451
      ],
      [
        "lacés",
        -10.187941195715423
      ],
      [
        "tivement",
        -10.187952447984353
      ],
      [
        "▁Cas",
        -10.188071883762063
      ],
      [
        "▁réguli",
        -10.188363484496241
      ],
      [
        "▁ôte",
        -10.188811344804995
      ],
      [
        "▁gir",
        -10.189125057048056
      ],
      [
        "sque",
        -10.189155121101624
      ],
      [
        "▁El",
        -10.189413361688228
      ],
      [
        "▁vert",
        -10.189941781773701
      ],
      [
        "▁voyai",
        -10.190222582185775
      ],
      [
        "▁justi",
        -10.191259380762158
      ],
      [
        "▁n'ét",
        -10.192252290205543
      ],
      [
        "houe",
        -10.192498805841122
      ],
      [
        "▁vé",
        -10.192993174969757
      ],
      [
        "▁entendue",
        -10.19348650560786
      ],
      [
        "approch",
        -10.193549989094967
      ],
      [
        "-tu",
        -10.19434606132955
      ],
      [
        "lée",
        -10.19476332020368
      ],
      [
        "▁bis",
        -10.194835113798987
      ],
      [
        "'ulcère",
        -10.197303472102277
      ],
      [
        "▁fl",
        -10.198205465340951
      ],
      [
        "▁tac",
        -10.19866184895446
      ],
      [
        "▁prête",
        -10.19898218539206
      ],
      [
        "▁origine",
        -10.200229140185227
      ],
      [
        "comp",
        -10.200553433010992
      ],
      [
        "diale",
        -10.20055390426842
      ],
      [
        "▁combi",
        -10.200800040718939
      ],
      [
        "▁gar",
        -10.200899816132742
      ],
      [
        "allaient",
        -10.201199799997044
      ],
      [
        "▁Nj",
        -10.201808488952487
      ],
      [
        "lir",
        -10.202582384503343
      ],
      [
        "▁embras",
        -10.202896637583036
      ],
      [
        "ements",
        -10.203842597205124
      ],
      [
        "▁étrangers",
        -10.204643549470987
      ],
      [
        "▁indig",
        -10.204703566194858
      ],
      [
        "▁foul",
        -10.204742625234998
      ],
      [
        "▁représente",
        -10.20587891956569
      ],
      [
        "▁ride",
        -10.206090432910944
      ],
      [
        "▁cond",
        -10.207297670808579
      ],
      [
        "hot",
        -10.210079767652026
      ],
      [
        "▁gardée",
        -10.210969187949518
      ],
      [
        "ajouta",
        -10.213247659062935
      ],
      [
        "▁aurais",
        -10.213385977499463
      ],
      [
        "buste",
        -10.213709174521794
      ],
      [
        "▁d'att",
        -10.213808117745291
      ],
      [
        "▁l'Es",
        -10.214516466482532
      ],
      [
        "▁étendue",
        -10.214591595559897
      ],
      [
        "ires",
        -10.21573476348803
      ],
      [
        "▁déchi",
        -10.216960533558952
      ],
      [
        "▁Mari",
        -10.216967841863628
      ],
      [
        "quée",
        -10.217318684528436
      ],
      [
        "roche",
        -10.217826197512633
      ],
      [
        "▁roche",
        -10.21959980064509
      ],
      [
        "▁T",
        -10.2215115354914
      ],
      [
        "▁permettai",
        -10.222015369946742
      ],
      [
        "reuse",
        -10.222353363723055
      ],
      [
        "▁ja",
        -10.222738658093427
      ],
      [
        "▁tan",
        -10.223146163783289
      ],
      [
        "▁écr",
        -10.22331170700482
      ],
      [
        "nier",
        -10.22459935758225
      ],
      [
        "▁gri",
        -10.225399617815722
      ],
      [
        "▁arrive",
        -10.226080203732705
      ],
      [
        "ages",
        -10.22732515305692
      ],
      [
        "dit",
        -10.227759467608372
      ],
      [
        "èrement",
        -10.228720563636076
      ],
      [
        "itions",
        -10.229250546038084
      ],
      [
        "▁rest",
        -10.230040245098813
      ],
      [
        "gnée",
        -10.230827306988482
      ],
      [
        "▁obst",
        -10.230834722455732
      ],
      [
        "▁roulé",
        -10.23110953922864
      ],
      [
        "▁lè",
        -10.23134278954601
      ],
      [
        "▁animal",
        -10.232048778938026
      ],
      [
        "▁m'étai",
        -10.232622350805501
      ],
      [
        "'y",
        -10.232949862250589
      ],
      [
        "as",
        -10.233176457654386
      ],
      [
        "▁guide",
        -10.235201241150879
      ],
      [
        "▁vivres",
        -10.235851726297291
      ],
      [
        "▁brûl",
        -10.238845511681218
      ],
      [
        "ède",
        -10.239719227696458
      ],
      [
        "uer",
        -10.240302694983574
      ],
      [
        "yc",
        -10.240374612811626
      ],
      [
        "lettes",
        -10.241911761237727
      ],
      [
        "▁or",
        -10.244667955222374
      ],
      [
        "don",
        -10.245722252893398
      ],
      [
        "'endorm",
        -10.246376592262328
      ],
      [
        "▁bal",
        -10.24651203349058
      ],
      [
        "emporter",
        -10.248120245555274
      ],
      [
        "▁canc",
        -10.248442808736378
      ],
      [
        "paraître",
        -10.249765251822826
      ],
      [
        "rio",
        -10.250704946344909
      ],
      [
        "ande",
        -10.252178031883286
      ],
      [
        "ivre",
        -10.25307929274631
      ],
      [
        "arti",
        -10.25324427222524
      ],
      [
        "ection",
        -10.253767787047519
      ],
      [
        "émir",
        -10.253927422725676
      ],
      [
        "▁s'arrêt",
        -10.254423122603136
      ],
      [
        "▁valai",
        -10.256097460714308
      ],
      [
        "▁pren",
        -10.257061488789178
      ],
      [
        "▁d'art",
        -10.258362249153905
      ],
      [
        "▁golf",
        -10.258369560928704
      ],
      [
        "▁fr",
        -10.26076417842687
      ],
      [
        "accompagner",
        -10.262292765004027
      ],
      [
        "rs",
        -10.26306565800703
      ],
      [
        "▁veni",
        -10.264755683235224
      ],
      [
        "▁risque",
        -10.266043290508387
      ],
      [
        "▁pla",
        -10.266216682629413
      ],
      [
        "né",
        -10.266243632442224
      ],
      [
        "quier",
        -10.266339035345776
      ],
      [
        "▁l'en",
        -10.267518260289524
      ],
      [
        "lo",
        -10.268000112950007
      ],
      [
        "bur",
        -10.26889125514929
      ],
      [
        "yait",
        -10.270850330390063
      ],
      [
        "ommé",
        -10.271101385841321
      ],
      [
        "rées",
        -10.271883454751219
      ],
      [
        "uses",
        -10.271936542254851
      ],
      [
        "▁chap",
        -10.273090173696133
      ],
      [
        "gir",
        -10.278188227339255
      ],
      [
        "anis",
        -10.278305529284111
      ],
      [
        "▁carr",
        -10.279091704518379
      ],
      [
        "▁inex",
        -10.279829418386122
      ],
      [
        "▁Wa",
        -10.279845420111279
      ],
      [
        "naires",
        -10.279941048533535
      ],
      [
        "▁rencontr",
        -10.28015476721919
      ],
      [
        "rigue",
        -10.282430620410807
      ],
      [
        "onnée",
        -10.282669325254226
      ],
      [
        "▁ord",
        -10.284480132432565
      ],
      [
        "▁aval",
        -10.28741785114634
      ],
      [
        "liée",
        -10.287425201825917
      ],
      [
        "▁d'am",
        -10.288111968826046
      ],
      [
        "▁sorc",
        -10.28873188419253
      ],
      [
        "'infirmière",
        -10.290034269909643
      ],
      [
        "▁rus",
        -10.29014390975923
      ],
      [
        "▁métall",
        -10.29144487295642
      ],
      [
        "▁consult",
        -10.293403676675062
      ],
      [
        "▁vrais",
        -10.29438154836193
      ],
      [
        "rop",
        -10.294900700750645
      ],
      [
        "chercher",
        -10.297797977130399
      ],
      [
        "▁Fa",
        -10.299698748182855
      ],
      [
        "▁violente",
        -10.30112706729545
      ],
      [
        "▁réserve",
        -10.303923232720368
      ],
      [
        "oi",
        -10.304529544021738
      ],
      [
        "▁tenu",
        -10.304846496727865
      ],
      [
        "hanti",
        -10.305648805481809
      ],
      [
        "pace",
        -10.305671159457113
      ],
      [
        "irland",
        -10.306341732114685
      ],
      [
        "trices",
        -10.306499645664738
      ],
      [
        "▁Ta",
        -10.307130683352725
      ],
      [
        "rmée",
        -10.307720648154499
      ],
      [
        "oï",
        -10.308244908651737
      ],
      [
        "▁apport",
        -10.308565492860156
      ],
      [
        "année",
        -10.308617470069398
      ],
      [
        "ouche",
        -10.309936601006154
      ],
      [
        "eff",
        -10.31025122210799
      ],
      [
        "▁masc",
        -10.310648340645063
      ],
      [
        "▁cachée",
        -10.310869161737356
      ],
      [
        "'Aiya",
        -10.31153603681435
      ],
      [
        "▁arch",
        -10.312609927977471
      ],
      [
        "▁naturel",
        -10.314335957209883
      ],
      [
        "▁ru",
        -10.31505364954558
      ],
      [
        "'enferm",
        -10.31509634785627
      ],
      [
        "▁cassée",
        -10.315164172526238
      ],
      [
        "alheureux",
        -10.316705048205112
      ],
      [
        "▁occidental",
        -10.320945903859645
      ],
      [
        "bes",
        -10.321432710175275
      ],
      [
        "tifs",
        -10.321798596474988
      ],
      [
        "hiver",
        -10.322834976303392
      ],
      [
        "rans",
        -10.3234788835256
      ],
      [
        "▁paroi",
        -10.323875259801218
      ],
      [
        "gne",
        -10.323994261969448
      ],
      [
        "▁L'av",
        -10.32667002685449
      ],
      [
        "âch",
        -10.327320412878626
      ],
      [
        "▁tri",
        -10.329418414272187
      ],
      [
        "▁nationali",
        -10.330069302018588
      ],
      [
        "▁fa",
        -10.330215115391471
      ],
      [
        "▁prest",
        -10.33114280693464
      ],
      [
        "écrire",
        -10.333601973468216
      ],
      [
        "▁marches",
        -10.333863089784845
      ],
      [
        "▁rois",
        -10.334284645193545
      ],
      [
        "▁art",
        -10.335607832157446
      ],
      [
        "Gol",
        -10.335830948572134
      ],
      [
        "embou",
        -10.336163631900941
      ],
      [
        "aube",
        -10.33688920845391
      ],
      [
        "ro",
        -10.342185804903377
      ],
      [
        "▁découvr",
        -10.342212757078691
      ],
      [
        "▁exempl",
        -10.34505640763256
      ],
      [
        "ndie",
        -10.345105870251855
      ],
      [
        "thé",
        -10.345674102978165
      ],
      [
        "▁muse",
        -10.345979521886086
      ],
      [
        "▁gre",
        -10.349248612661167
      ],
      [
        "▁pl",
        -10.34944978664729
      ],
      [
        "▁dév",
        -10.349913496075212
      ],
      [
        "▁fouettai",
        -10.350842399734361
      ],
      [
        "▁villes",
        -10.353248491300636
      ],
      [
        "riture",
        -10.353782622928186
      ],
      [
        "▁connus",
        -10.354450800752385
      ],
      [
        "gag",
        -10.354540220270275
      ],
      [
        "limité",
        -10.356711376413173
      ],
      [
        "▁Quel",
        -10.358414234559591
      ],
      [
        "▁Fr",
        -10.35848558444534
      ],
      [
        "▁désa",
        -10.359750506788425
      ],
      [
        "▁adolescen",
        -10.360015828430514
      ],
      [
        "bord",
        -10.364027611227018
      ],
      [
        "mbre",
        -10.364260227832137
      ],
      [
        "offr",
        -10.364865087181787
      ],
      [
        "ling",
        -10.369098900790991
      ],
      [
        "▁né",
        -10.370560977880237
      ],
      [
        "op",
        -10.371196408331164
      ],
      [
        "▁d'I",
        -10.372320388412547
      ],
      [
        "▁to",
        -10.373624793770574
      ],
      [
        "ube",
        -10.37525728054865
      ],
      [
        "ffé",
        -10.375356903095676
      ],
      [
        "illes",
        -10.37615206651194
      ],
      [
        "lime",
        -10.37948080286365
      ],
      [
        "▁Te",
        -10.380205132542763
      ],
      [
        "tionné",
        -10.380857242953013
      ],
      [
        "cro",
        -10.381262346961911
      ],
      [
        "même",
        -10.381560332345977
      ],
      [
        "▁vais",
        -10.382375579233258
      ],
      [
        "tables",
        -10.382732565456177
      ],
      [
        "termin",
        -10.384263974252356
      ],
      [
        "garden",
        -10.385012591131384
      ],
      [
        "▁préféra",
        -10.387163525730118
      ],
      [
        "▁gué",
        -10.387493710584982
      ],
      [
        "tu",
        -10.387978545934049
      ],
      [
        "oppose",
        -10.388585976458023
      ],
      [
        "sacré",
        -10.391042160643002
      ],
      [
        "sin",
        -10.39185373835824
      ],
      [
        "▁serv",
        -10.392044441341879
      ],
      [
        "ciné",
        -10.39222208801368
      ],
      [
        "ouvant",
        -10.39235047183756
      ],
      [
        "pi",
        -10.392503474772354
      ],
      [
        "lot",
        -10.393735325482396
      ],
      [
        "t-il",
        -10.393981085905564
      ],
      [
        "ipli",
        -10.395144203696892
      ],
      [
        "▁perle",
        -10.398991382204228
      ],
      [
        "▁Dur",
        -10.398996185563798
      ],
      [
        "▁isolée",
        -10.399401523461037
      ],
      [
        "uchure",
        -10.405275632042152
      ],
      [
        "▁éc",
        -10.405583110070959
      ],
      [
        "▁évide",
        -10.406912767202785
      ],
      [
        "▁déport",
        -10.407445219486474
      ],
      [
        "tombe",
        -10.40817253742761
      ],
      [
        "liens",
        -10.408836726028715
      ],
      [
        "lets",
        -10.409186443841685
      ],
      [
        "▁abs",
        -10.410449286367495
      ],
      [
        "▁cro",
        -10.410789027167311
      ],
      [
        "estr",
        -10.413296886617383
      ],
      [
        "hi",
        -10.414540494566054
      ],
      [
        "leçons",
        -10.41476706454502
      ],
      [
        "oi-même",
        -10.414939215227411
      ],
      [
        "struction",
        -10.415303651402638
      ],
      [
        "▁existait",
        -10.417425527837057
      ],
      [
        "s-",
        -10.41753303397665
      ],
      [
        "ale",
        -10.419989845478144
      ],
      [
        "arg",
        -10.420041481596943
      ],
      [
        "oisi",
        -10.420828646430966
      ],
      [
        "rée",
        -10.424756471921471
      ],
      [
        "▁tendre",
        -10.425711822017238
      ],
      [
        "ots",
        -10.42624107643418
      ],
      [
        "roc",
        -10.426257830155599
      ],
      [
        "erri",
        -10.42655147502235
      ],
      [
        "▁plain",
        -10.428307215769603
      ],
      [
        "▁dou",
        -10.430846080735073
      ],
      [
        "im",
        -10.430997163901862
      ],
      [
        "ral",
        -10.43137271221163
      ],
      [
        "ign",
        -10.431891434951167
      ],
      [
        "gile",
        -10.432880426634403
      ],
      [
        "robe",
        -10.434679634917215
      ],
      [
        "nté",
        -10.435035346416853
      ],
      [
        "endre",
        -10.435628908203595
      ],
      [
        "précise",
        -10.435977926539284
      ],
      [
        "▁faite",
        -10.436671232977712
      ],
      [
        "▁mol",
        -10.436910012098817
      ],
      [
        "fiance",
        -10.438822259297979
      ],
      [
        "isse",
        -10.440337211937802
      ],
      [
        "▁autorité",
        -10.440574472536458
      ],
      [
        "nations",
        -10.443678574647949
      ],
      [
        "▁descen",
        -10.44847541213892
      ],
      [
        "glis",
        -10.448779769400808
      ],
      [
        "▁ve",
        -10.449303408653861
      ],
      [
        "ud",
        -10.45027470865918
      ],
      [
        "interrog",
        -10.450412281041139
      ],
      [
        "▁Jou",
        -10.453111417164784
      ],
      [
        "▁continue",
        -10.453779620484486
      ],
      [
        "▁travaill",
        -10.457576843554305
      ],
      [
        "ive",
        -10.458087534322067
      ],
      [
        "▁jouai",
        -10.45839042494912
      ],
      [
        "▁ros",
        -10.460886442169306
      ],
      [
        "milie",
        -10.460905962304258
      ],
      [
        "▁dépla",
        -10.461180452924522
      ],
      [
        "iété",
        -10.46281067548262
      ],
      [
        "▁é",
        -10.463327545934296
      ],
      [
        "entraîne",
        -10.465587984945406
      ],
      [
        "'entraîn",
        -10.468799899443832
      ],
      [
        "ssait",
        -10.469675338968592
      ],
      [
        "▁conc",
        -10.470927581175644
      ],
      [
        "posée",
        -10.474631379831031
      ],
      [
        "▁cass",
        -10.475335770404259
      ],
      [
        "éria",
        -10.475861781532705
      ],
      [
        "teau",
        -10.479205273716325
      ],
      [
        "▁lisai",
        -10.47952067012543
      ],
      [
        "▁ém",
        -10.480108996111495
      ],
      [
        "existe",
        -10.480311530514673
      ],
      [
        "'infl",
        -10.480748908132803
      ],
      [
        "▁bor",
        -10.483054888185267
      ],
      [
        "ose",
        -10.48324698878592
      ],
      [
        "▁suit",
        -10.484899585108092
      ],
      [
        "Aiya",
        -10.485151252639202
      ],
      [
        "▁vou",
        -10.485732692253999
      ],
      [
        "▁confit",
        -10.486695536617477
      ],
      [
        "iger",
        -10.48971791361607
      ],
      [
        "énué",
        -10.489806918558319
      ],
      [
        "▁Enf",
        -10.48997568465113
      ],
      [
        "rtance",
        -10.493047645553911
      ],
      [
        "▁voyag",
        -10.493716092649692
      ],
      [
        "s)",
        -10.495254287430438
      ],
      [
        "▁(le",
        -10.495784812131735
      ],
      [
        "'espoir",
        -10.498210724180675
      ],
      [
        "▁ouvri",
        -10.498790470811995
      ],
      [
        "▁heur",
        -10.500234211462999
      ],
      [
        "ernie",
        -10.501036433070869
      ],
      [
        "iz",
        -10.506481550382484
      ],
      [
        "meut",
        -10.506526966056969
      ],
      [
        "▁an",
        -10.507101826266751
      ],
      [
        "▁mar",
        -10.508118747918815
      ],
      [
        "ries",
        -10.508515883504666
      ],
      [
        "▁pensée",
        -10.511623128001455
      ],
      [
        "▁nourris",
        -10.511677869023629
      ],
      [
        "▁sac",
        -10.51267933206732
      ],
      [
        "▁lis",
        -10.514660433981591
      ],
      [
        "▁lave",
        -10.515518826756178
      ],
      [
        "merci",
        -10.516266556032946
      ],
      [
        "illo",
        -10.520835882473968
      ],
      [
        "'accepter",
        -10.522083425800894
      ],
      [
        "endait",
        -10.522682783273561
      ],
      [
        "rist",
        -10.525076967258322
      ],
      [
        "lait",
        -10.525666500957675
      ],
      [
        "ince",
        -10.526242483707508
      ],
      [
        "▁s'é",
        -10.526378852303479
      ],
      [
        "ston",
        -10.529575765822333
      ],
      [
        "▁paysan",
        -10.532736432760553
      ],
      [
        "merge",
        -10.533552367355533
      ],
      [
        "▁ouvr",
        -10.534274584468086
      ],
      [
        "▁posé",
        -10.535057832345041
      ],
      [
        "▁bru",
        -10.53624482462458
      ],
      [
        "pon",
        -10.539049792661524
      ],
      [
        "▁éviden",
        -10.539793219305821
      ],
      [
        "▁aventur",
        -10.540189365419957
      ],
      [
        "▁sent",
        -10.540273975290111
      ],
      [
        "▁circul",
        -10.540408016808394
      ],
      [
        "▁instru",
        -10.540483699429878
      ],
      [
        "▁malheur",
        -10.540999082421976
      ],
      [
        "▁soi",
        -10.541144022723042
      ],
      [
        "▁faisai",
        -10.541587417592865
      ],
      [
        "▁Ki",
        -10.543159952960455
      ],
      [
        "sme",
        -10.543925809273706
      ],
      [
        "▁bé",
        -10.544632322560563
      ],
      [
        "▁retir",
        -10.544838489533458
      ],
      [
        "anté",
        -10.545076160368229
      ],
      [
        "cru",
        -10.545211554955136
      ],
      [
        "▁mienne",
        -10.547072541956503
      ],
      [
        "▁attein",
        -10.548513989409855
      ],
      [
        "▁paraiss",
        -10.549041492489026
      ],
      [
        "▁travaillai",
        -10.552527819569018
      ],
      [
        "▁chante",
        -10.552609074488117
      ],
      [
        "indépendance",
        -10.5536084770635
      ],
      [
        "'interrog",
        -10.55404965690904
      ],
      [
        "adopt",
        -10.554648993927195
      ],
      [
        "igné",
        -10.555294265422322
      ],
      [
        "▁l'im",
        -10.55681033728202
      ],
      [
        "▁excu",
        -10.558753256314546
      ],
      [
        "ortir",
        -10.559173580870194
      ],
      [
        "émotion",
        -10.560439259929225
      ],
      [
        "ac",
        -10.560490368483183
      ],
      [
        "▁cap",
        -10.561150995246669
      ],
      [
        "humanité",
        -10.561445643921
      ],
      [
        "tiers",
        -10.561856761959907
      ],
      [
        "uisant",
        -10.561888212075857
      ],
      [
        "boute",
        -10.562172749583674
      ],
      [
        "▁connaîtr",
        -10.563735089716705
      ],
      [
        "tées",
        -10.565783065127459
      ],
      [
        "'existe",
        -10.566806213875761
      ],
      [
        "sanc",
        -10.567231947141222
      ],
      [
        "chure",
        -10.572864304678724
      ],
      [
        "ï",
        -10.576878867533036
      ],
      [
        "▁l'uni",
        -10.580464109544687
      ],
      [
        "▁gl",
        -10.58050584681252
      ],
      [
        "rac",
        -10.581382202788514
      ],
      [
        "▁pass",
        -10.581466558424385
      ],
      [
        "▁pilo",
        -10.581823520791348
      ],
      [
        "nous",
[...]
