{
  "version": "1.0",
  "truncation": null,
  "padding": null,
  "added_tokens": [
    {
      "id": 0,
      "content": "<cls>",
      "single_word": false,
      "lstrip": false,
      "rstrip": false,
      "normalized": false,
      "special": true
    },
    {
      "id": 1,
      "content": "<sep>",
      "single_word": false,
      "lstrip": false,
      "rstrip": false,
      "normalized": false,
      "special": true
    },
    {
      "id": 2,
      "content": "<unk>",
      "single_word": false,
      "lstrip": false,
      "rstrip": false,
      "normalized": false,
      "special": true
    },
    {
      "id": 3,
      "content": "<pad>",
      "single_word": false,
      "lstrip": false,
      "rstrip": false,
      "normalized": false,
      "special": true
    },
    {
      "id": 4,
      "content": "<mask>",
      "single_word": false,
      "lstrip": false,
      "rstrip": false,
      "normalized": false,
      "special": true
    },
    {
      "id": 5,
      "content": "<s>",
      "single_word": false,
      "lstrip": false,
      "rstrip": false,
      "normalized": false,
      "special": true
    },
    {
      "id": 6,
      "content": "</s>",
      "single_word": false,
      "lstrip": false,
      "rstrip": false,
      "normalized": false,
      "special": true
    }
  ],
  "normalizer": {
    "type": "Replace",
    "pattern": {
      "String": " {2,}"
    },
    "content": " "
  },
  "pre_tokenizer": {
    "type": "Metaspace",
    "replacement": "▁",
    "add_prefix_space": true
  },
  "post_processor": null,
  "decoder": {
    "type": "Metaspace",
    "replacement": "▁",
    "add_prefix_space": true
  },
  "model": {
    "type": "Unigram",
    "unk_id": 2,
    "vocab": [
      [
        "<cls>",
        0.0
      ],
      [
        "<sep>",
        0.0
      ],
      [
        "<unk>",
        0.0
      ],
      [
        "<pad>",
        0.0
      ],
      [
        "<mask>",
        0.0
      ],
      [
        "<s>",
        0.0
      ],
      [
        "</s>",
        0.0
      ],
      [
        ".",
        -2.8245073845349378
      ],
      [
        "▁",
        -3.069384767210199
      ],
      [
        ",",
        -3.317475171533628
      ],
      [
        "▁la",
        -4.182630970142268
      ],
      [
        "▁de",
        -4.2285450116870855
      ],
      [
        "s",
        -4.568856730971794
      ],
      [
        "e",
        -4.746527519941295
      ],
      [
        "y",
        -4.800092007055791
      ],
      [
        "▁ci",
        -4.872900245383966
      ],
      [
        "a",
        -4.879074067801754
      ],
      [
        "▁le",
        -4.890082738319018
      ],
      [
        "▁ko",
        -4.986756290321038
      ],
      [
        "!",
        -5.0369287038200135
      ],
      [
        "▁Il",
        -5.076849890483769
      ],
      [
        "▁pas",
        -5.103328376933365
      ],
      [
        "▁ne",
        -5.119785507424234
      ],
      [
        "▁a",
        -5.167896208675294
      ],
      [
        "i",
        -5.247742571180162
      ],
      [
        "▁à",
        -5.251850190868119
      ],
      [
        "u",
        -5.258938145701773
      ],
      [
        "▁est",
        -5.266728126329663
      ],
      [
        "▁bi",
        -5.267034630194503
      ],
      [
        "▁ma",
        -5.313658251538055
      ],
      [
        "▁qui",
        -5.31879915295826
      ],
      [
        "▁que",
        -5.347652025227405
      ],
      [
        "▁un",
        -5.389515985801354
      ],
      [
        "▁les",
        -5.4142005677623635
      ],
      [
        "▁mu",
        -5.438468561585107
      ],
      [
        "▁du",
        -5.445195363142589
      ],
      [
        "▁des",
        -5.456527169814152
      ],
      [
        "?",
        -5.4576682894968656
      ],
      [
        "▁na",
        -5.468078540192998
      ],
      [
        "▁!",
        -5.571785493394972
      ],
      [
        "▁ba",
        -5.646466844866315
      ],
      [
        "▁C'est",
        -5.654388498419874
      ],
      [
        "▁tu",
        -5.686361036176526
      ],
      [
        "t",
        -5.730574808508035
      ],
      [
        "▁en",
        -5.826884335867503
      ],
      [
        "▁gi",
        -5.896310528036615
      ],
      [
        "l",
        -5.90004894508499
      ],
      [
        "▁yi",
        -5.902066536475356
      ],
      [
        "une",
        -5.903170626507163
      ],
      [
        "▁dans",
        -5.907687920833104
      ],
      [
        "▁sa",
        -5.9188256802825965
      ],
      [
        "▁pour",
        -5.931121379789114
      ],
      [
        "▁nga",
        -5.934525193517713
      ],
      [
        "▁di",
        -5.956142168434403
      ],
      [
        "▁bu",
        -5.961275539466526
      ],
      [
        "▁Je",
        -5.987234418590365
      ],
      [
        "▁?",
        -5.9940216934206
      ],
      [
        "▁ngi",
        -6.02191880630019
      ],
      [
        "▁et",
        -6.0704808326296
      ],
      [
        "▁te",
        -6.089067968608957
      ],
      [
        "▁ak",
        -6.096367528006407
      ],
      [
        "▁je",
        -6.1015958006001165
      ],
      [
        "▁Le",
        -6.1078176129017185
      ],
      [
        "▁qu'il",
        -6.130338229306453
      ],
      [
        "▁Dafa",
        -6.1382174291589395
      ],
      [
        "▁dafa",
        -6.143503216257634
      ],
      [
        "▁ni",
        -6.148988830557604
      ],
      [
        "▁il",
        -6.156566542780544
      ],
      [
        "r",
        -6.170348034756418
      ],
      [
        "n",
        -6.18757086174542
      ],
      [
        "à",
        -6.193857302984075
      ],
      [
        "▁se",
        -6.203544600167489
      ],
      [
        "▁dem",
        -6.205056915173916
      ],
      [
        "▁au",
        -6.237819279366608
      ],
      [
        "▁ce",
        -6.244763577676745
      ],
      [
        "▁ñu",
        -6.250249531820831
      ],
      [
        "▁lui",
        -6.288274640611115
      ],
      [
        "et",
        -6.290702948144485
      ],
      [
        "▁ca",
        -6.339402989027014
      ],
      [
        "▁mi",
        -6.376421584120854
      ],
      [
        "▁naa",
        -6.381727605739659
      ],
      [
        ";",
        -6.401245147425283
      ],
      [
        "▁yu",
        -6.41696371935214
      ],
      [
        "▁sur",
        -6.421261743058003
      ],
      [
        "▁avec",
        -6.435910038839871
      ],
      [
        "▁Tu",
        -6.440508454902469
      ],
      [
        "▁sont",
        -6.452421002345659
      ],
      [
        "d",
        -6.457727075217781
      ],
      [
        "al",
        -6.487892869690356
      ],
      [
        "▁sama",
        -6.488135002793824
      ],
      [
        "▁La",
        -6.493178607970419
      ],
      [
        "▁am",
        -6.519640895094762
      ],
      [
        "▁ay",
        -6.533971129932576
      ],
      [
        "le",
        -6.536658700665344
      ],
      [
        "▁fait",
        -6.546753087247932
      ],
      [
        "il",
        -6.561875616654884
      ],
      [
        "▁c'est",
        -6.598388427701585
      ],
      [
        "▁lu",
        -6.59864659476421
      ],
      [
        "▁y",
        -6.612275087893483
      ],
      [
        "s.",
        -6.664251829228165
      ],
      [
        "▁par",
        -6.677515512678418
      ],
      [
        "▁son",
        -6.693461463115551
      ],
      [
        "▁c",
        -6.697982987951543
      ],
      [
        "é",
        -6.699862658537225
      ],
      [
        "▁plus",
        -6.7116607138295405
      ],
      [
        "▁wax",
        -6.740058343258986
      ],
      [
        "▁moo",
        -6.756622256607804
      ],
      [
        "▁fa",
        -6.760830278524502
      ],
      [
        "▁seen",
        -6.768164519262882
      ],
      [
        "▁woon",
        -6.79193114873892
      ],
      [
        "▁me",
        -6.812107384914615
      ],
      [
        "▁doon",
        -6.814200810177916
      ],
      [
        "▁Les",
        -6.822122461726821
      ],
      [
        "▁si",
        -6.826615301252785
      ],
      [
        "▁la.",
        -6.8298162802869395
      ],
      [
        "▁nous",
        -6.847479568158571
      ],
      [
        "▁def",
        -6.850445612419576
      ],
      [
        "▁mon",
        -6.853879021693646
      ],
      [
        "▁ji",
        -6.877812360866717
      ],
      [
        "▁bi.",
        -6.882552091765769
      ],
      [
        "▁rekk",
        -6.887054813976738
      ],
      [
        "▁li",
        -6.898882260664773
      ],
      [
        "ette",
        -6.923370320891206
      ],
      [
        "▁Mu",
        -6.9236705794769495
      ],
      [
        "e.",
        -6.931002398062749
      ],
      [
        "▁d",
        -6.957271660555698
      ],
      [
        "▁leen",
        -6.962612086760522
      ],
      [
        "▁daan",
        -6.964964514064429
      ],
      [
        "▁Si",
        -6.965531436204817
      ],
      [
        "on",
        -6.968295939685843
      ],
      [
        "▁J'ai",
        -6.9727314788129044
      ],
      [
        "▁n'est",
        -6.979083874511025
      ],
      [
        "▁Omar",
        -6.9814805835816465
      ],
      [
        "▁Ce",
        -6.98786035940875
      ],
      [
        "m",
        -6.990047416330243
      ],
      [
        "▁fi",
        -6.992919292934415
      ],
      [
        "▁Sa",
        -6.995006073875801
      ],
      [
        "▁l",
        -7.015251165278227
      ],
      [
        "▁Bu",
        -7.016999197472736
      ],
      [
        "▁Quan",
        -7.01832800771132
      ],
      [
        "am",
        -7.022164457018519
      ],
      [
        "▁xam",
        -7.024520472181983
      ],
      [
        "▁nekk",
        -7.0515743227403105
      ],
      [
        "▁tout",
        -7.057077312518788
      ],
      [
        "er",
        -7.0784423458583285
      ],
      [
        "▁Ku",
        -7.078461250337946
      ],
      [
        "▁Dama",
        -7.086105170482934
      ],
      [
        "k",
        -7.08718551924064
      ],
      [
        "nt",
        -7.09850532604915
      ],
      [
        "▁gis",
        -7.100616523219329
      ],
      [
        "▁vu",
        -7.101603933908652
      ],
      [
        "▁may",
        -7.114220535312847
      ],
      [
        "es",
        -7.138446445595189
      ],
      [
        "▁ku",
        -7.140044783882557
      ],
      [
        "▁moom",
        -7.170466241513323
      ],
      [
        "ent",
        -7.171696224949129
      ],
      [
        "▁l'a",
        -7.180948634038743
      ],
      [
        "les",
        -7.184762225622769
      ],
      [
        "▁Un",
        -7.200936117838044
      ],
      [
        "▁faire",
        -7.216138141543853
      ],
      [
        "▁où",
        -7.221651763278044
      ],
      [
        "▁nit",
        -7.235529108733468
      ],
      [
        "▁qu'on",
        -7.235552384684001
      ],
      [
        "▁On",
        -7.24416014704147
      ],
      [
        "▁d'un",
        -7.246236838183547
      ],
      [
        "▁Ci",
        -7.260187058818573
      ],
      [
        "que",
        -7.276460422604637
      ],
      [
        "▁wi",
        -7.280119875457196
      ],
      [
        "▁ton",
        -7.28667532482424
      ],
      [
        "b",
        -7.2870871923503335
      ],
      [
        "▁Am",
        -7.295860286435475
      ],
      [
        "▁père",
        -7.302463602392866
      ],
      [
        "▁benn",
        -7.305996730649723
      ],
      [
        "▁nu",
        -7.318924732836418
      ],
      [
        "▁Su",
        -7.321439522034662
      ],
      [
        "▁nag",
        -7.332396851688741
      ],
      [
        "▁comme",
        -7.332413477446272
      ],
      [
        "oo",
        -7.336031748589972
      ],
      [
        "▁enfants",
        -7.3398495448779135
      ],
      [
        "▁l'",
        -7.340955917339569
      ],
      [
        "▁va",
        -7.342644573127481
      ],
      [
        "▁:",
        -7.347832601497533
      ],
      [
        "▁as",
        -7.352571446199731
      ],
      [
        "▁Ne",
        -7.35357243674474
      ],
      [
        "▁kër",
        -7.357536787458369
      ],
      [
        "▁yi.",
        -7.364894743424219
      ],
      [
        "▁maison",
        -7.375046519920172
      ],
      [
        "▁été",
        -7.376434131531755
      ],
      [
        "oon",
        -7.3775680467775455
      ],
      [
        "▁dit",
        -7.3777750221387945
      ],
      [
        "▁laa",
        -7.39516885514652
      ],
      [
        "▁D",
        -7.397077178728288
      ],
      [
        "▁mel",
        -7.399502864677515
      ],
      [
        "-",
        -7.4031766399012255
      ],
      [
        "la",
        -7.40485249733568
      ],
      [
        "g",
        -7.406855138314734
      ],
      [
        "▁ndax",
        -7.407371172093994
      ],
      [
        "▁m",
        -7.410979435782913
      ],
      [
        "▁lay",
        -7.4151250463372955
      ],
      [
        "▁toi",
        -7.41528940788497
      ],
      [
        "▁xale",
        -7.423949622976615
      ],
      [
        "en",
        -7.426956197766484
      ],
      [
        "▁nañu",
        -7.428915776208601
      ],
      [
        "▁sax",
        -7.4318944079149505
      ],
      [
        "▁tax",
        -7.433571231828823
      ],
      [
        "▁vous",
        -7.43710149705626
      ],
      [
        "▁su",
        -7.4399170747105385
      ],
      [
        "▁s'est",
        -7.440240063987376
      ],
      [
        "ait",
        -7.44858454730169
      ],
      [
        "ne",
        -7.449070898398389
      ],
      [
        "▁avait",
        -7.456516289288942
      ],
      [
        "it",
        -7.456721898789626
      ],
      [
        "▁mais",
        -7.459250817567763
      ],
      [
        "▁ŋga",
        -7.462660872393351
      ],
      [
        "▁Góor",
        -7.464859838152558
      ],
      [
        "te",
        -7.465987674039767
      ],
      [
        "▁gu",
        -7.4663189309711715
      ],
      [
        "▁dañu",
        -7.468997551184857
      ],
      [
        "▁Sama",
        -7.469314629929976
      ],
      [
        "▁lañu",
        -7.4804450118591
      ],
      [
        "ay",
        -7.484116781947013
      ],
      [
        "▁ya",
        -7.485827096086377
      ],
      [
        "▁biir",
        -7.496908057191241
      ],
      [
        "▁ab",
        -7.498642787288715
      ],
      [
        "▁kenn",
        -7.499180614278147
      ],
      [
        "o",
        -7.505152802231477
      ],
      [
        "▁ta",
        -7.509159007134424
      ],
      [
        "▁ga",
        -7.512917312647327
      ],
      [
        "▁ju",
        -7.5187707141860045
      ],
      [
        "▁d'",
        -7.519631528400938
      ],
      [
        "un",
        -7.520967309189152
      ],
      [
        "«",
        -7.5247793613242
      ],
      [
        "▁n'a",
        -7.540140046149134
      ],
      [
        "▁dara",
        -7.551375525655575
      ],
      [
        "e,",
        -7.553155762411671
      ],
      [
        "ses",
        -7.554922466897806
      ],
      [
        "▁Baay",
        -7.555168261099071
      ],
      [
        "▁Elle",
        -7.556119473945594
      ],
      [
        "▁Gis",
        -7.556480667657913
      ],
      [
        "▁chose",
        -7.5621375059475895
      ],
      [
        "▁bii",
        -7.56219033455068
      ],
      [
        "▁homme",
        -7.569262078001362
      ],
      [
        "▁Yàlla",
        -7.5755825403151045
      ],
      [
        "▁n",
        -7.579343510541912
      ],
      [
        "▁j'ai",
        -7.58681468100066
      ],
      [
        "▁sans",
        -7.592807776005876
      ],
      [
        "▁baax",
        -7.5937546561543545
      ],
      [
        "▁waay",
        -7.600712759759917
      ],
      [
        "▁Soo",
        -7.6049417807895985
      ],
      [
        "di",
        -7.611156720163042
      ],
      [
        "ma",
        -7.611790337669276
      ],
      [
        "▁Lu",
        -7.617356296922108
      ],
      [
        "▁ñi",
        -7.617358603514388
      ],
      [
        "▁bien",
        -7.624311545991795
      ],
      [
        "▁L",
        -7.626809736165446
      ],
      [
        "▁bëgg",
        -7.626979063503923
      ],
      [
        "▁cela",
        -7.635076285658337
      ],
      [
        "▁n'",
        -7.636091154050066
      ],
      [
        "▁mën",
        -7.642136942377933
      ],
      [
        "▁bare",
        -7.643750818681492
      ],
      [
        "▁dal",
        -7.646984701342628
      ],
      [
        "▁même",
        -7.647660585646993
      ],
      [
        "▁dina",
        -7.649315367209286
      ],
      [
        "▁ñaar",
        -7.651126785796165
      ],
      [
        "▁yépp",
        -7.658042545636083
      ],
      [
        "▁J",
        -7.664532111549154
      ],
      [
        "▁dafay",
        -7.665367182387267
      ],
      [
        "▁peut",
        -7.669945868756878
      ],
      [
        "▁deux",
        -7.67308822710478
      ],
      [
        "▁ko.",
        -7.675861524579274
      ],
      [
        "▁P",
        -7.677488566083243
      ],
      [
        "▁dëkk",
        -7.682558338449532
      ],
      [
        "▁suis",
        -7.683036326005312
      ],
      [
        "▁na.",
        -7.6865406006362385
      ],
      [
        "▁Dieu",
        -7.687071623638464
      ],
      [
        "▁moi",
        -7.692063225429402
      ],
      [
        "ce",
        -7.697007102894026
      ],
      [
        "▁était",
        -7.69716102314539
      ],
      [
        "ak",
        -7.701225422523148
      ],
      [
        "▁Ba",
        -7.7043409396657845
      ],
      [
        "▁s",
        -7.708164667141538
      ],
      [
        "▁mère",
        -7.711155061233333
      ],
      [
        "▁enfant",
        -7.712717128173545
      ],
      [
        "est",
        -7.7131310606772825
      ],
      [
        "▁yaa",
        -7.713848149037627
      ],
      [
        "▁veux",
        -7.721106409267733
      ],
      [
        "▁Afrig",
        -7.721784128615032
      ],
      [
        "▁encore",
        -7.724481860095972
      ],
      [
        "ant",
        -7.7409120299115255
      ],
      [
        "▁ça",
        -7.7462498861450175
      ],
      [
        "▁Nous",
        -7.747904084725449
      ],
      [
        "▁»",
        -7.757175296572862
      ],
      [
        "s-tu",
        -7.7744839224082884
      ],
      [
        "▁on",
        -7.784811565642661
      ],
      [
        "▁pays",
        -7.786898865797718
      ],
      [
        "▁rien",
        -7.792314387972974
      ],
      [
        "▁porte",
        -7.795431394785615
      ],
      [
        "▁autre",
        -7.795460991048523
      ],
      [
        "▁leur",
        -7.79955553783503
      ],
      [
        "▁Qui",
        -7.802057296894965
      ],
      [
        "▁parti",
        -7.805120236599408
      ],
      [
        "▁yoon",
        -7.8051218862072425
      ],
      [
        "▁L'homme",
        -7.812635425526024
      ],
      [
        "r.",
        -7.814943937660356
      ],
      [
        "▁Li",
        -7.815295834717581
      ],
      [
        "▁xar",
        -7.8237063918603775
      ],
      [
        "de",
        -7.824595109002172
      ],
      [
        "ngay",
        -7.8320451144799295
      ],
      [
        "▁S",
        -7.8328832567366415
      ],
      [
        "ñ",
        -7.83727146696673
      ],
      [
        "▁N",
        -7.837277649458414
      ],
      [
        "▁elle",
        -7.837543271255463
      ],
      [
        "▁Maa",
        -7.839492657222891
      ],
      [
        "▁ici",
        -7.84041257671983
      ],
      [
        "ont",
        -7.84094264068183
      ],
      [
        "▁góor",
        -7.84106748014717
      ],
      [
        "re",
        -7.841185999444545
      ],
      [
        "▁Ma",
        -7.844218584273705
      ],
      [
        "▁fu",
        -7.846744087534786
      ],
      [
        "tu",
        -7.848592875193647
      ],
      [
        "▁tey",
        -7.848924955212385
      ],
      [
        "▁Nit",
        -7.850714558724505
      ],
      [
        "▁là",
        -7.85344092403233
      ],
      [
        "▁personne",
        -7.853570716806794
      ],
      [
        "x",
        -7.859936012487068
      ],
      [
        "▁gens",
        -7.867229769155609
      ],
      [
        "▁Dañu",
        -7.86734466304477
      ],
      [
        "▁photo",
        -7.867821505094058
      ],
      [
        "▁lool",
        -7.870869132869925
      ],
      [
        "ci",
        -7.873180554088916
      ],
      [
        "▁jusqu'",
        -7.873869694795512
      ],
      [
        "▁ont",
        -7.88113811836696
      ],
      [
        "▁ñëw",
        -7.882228989130503
      ],
      [
        "▁A",
        -7.884051864186801
      ],
      [
        "▁leurs",
        -7.8858684445802565
      ],
      [
        "▁être",
        -7.889579995478538
      ],
      [
        "▁l'eau",
        -7.890793585199713
      ],
      [
        "▁beaucoup",
        -7.891110214429736
      ],
      [
        "▁quelque",
        -7.895144418193034
      ],
      [
        "▁amul",
        -7.898629879165337
      ],
      [
        "-moi",
        -7.900007814280037
      ],
      [
        "▁m'a",
        -7.905403120799889
      ],
      [
        "▁aux",
        -7.910918762345447
      ],
      [
        "▁ces",
        -7.914133748694023
      ],
      [
        "▁temps",
        -7.914147475535245
      ],
      [
        "▁C",
        -7.915076293252647
      ],
      [
        "▁tous",
        -7.920673900224
      ],
      [
        "▁doom",
        -7.92460511574297
      ],
      [
        "ils",
        -7.934573054017571
      ],
      [
        "▁cet",
        -7.937292092534914
      ],
      [
        "▁garab",
        -7.93878286184694
      ],
      [
        "▁bëgga",
        -7.939151972586781
      ],
      [
        "▁cause",
        -7.941590558064229
      ],
      [
        "ment",
        -7.959400731095807
      ],
      [
        "▁cheval",
        -7.959413360827859
      ],
      [
        "▁gën",
        -7.959453201347439
      ],
      [
        "▁bon",
        -7.962396253936454
      ],
      [
        "ñuy",
        -7.964101651543023
      ],
      [
        "▁t",
        -7.964503367607342
      ],
      [
        "▁boo",
        -7.965615019949168
      ],
      [
        "▁man",
        -7.972969503713203
      ],
      [
        "▁réew",
        -7.972994739676026
      ],
      [
        "▁nataal",
        -7.975848067287881
      ],
      [
        "▁sol",
        -7.9772432392615125
      ],
      [
        "▁peu",
        -7.977648900414043
      ],
      [
        "leen",
        -7.984632161055661
      ],
      [
        "▁l'homme",
        -7.985780971895154
      ],
      [
        "▁Danga",
        -7.989379788839891
      ],
      [
        "▁néeg",
        -7.9922454800453036
      ],
      [
        "c",
        -7.999336976331065
      ],
      [
        "▁aussi",
        -8.005766480371207
      ],
      [
        "▁naan",
        -8.00932342655097
      ],
      [
        "▁ndox",
        -8.010739783808841
      ],
      [
        "aient",
        -8.011614270965804
      ],
      [
        "▁mag",
        -8.015278302796286
      ],
      [
        "▁qu'elle",
        -8.016653769531645
      ],
      [
        "▁teg",
        -8.023242806686591
      ],
      [
        "▁parle",
        -8.024029668361779
      ],
      [
        "▁Ñu",
        -8.024503028099446
      ],
      [
        "▁Ndax",
        -8.028851360637116
      ],
      [
        "▁Du",
        -8.030019427288302
      ],
      [
        "▁femme",
        -8.032216411955503
      ],
      [
        "▁fais",
        -8.035550496071004
      ],
      [
        "▁ngir",
        -8.039780586867572
      ],
      [
        "▁mes",
        -8.040440996443463
      ],
      [
        "am.",
        -8.040593975832744
      ],
      [
        "▁À",
        -8.042356176576629
      ],
      [
        "▁ñoo",
        -8.049879673928523
      ],
      [
        "▁liggéey",
        -8.06384498202663
      ],
      [
        "▁koo",
        -8.064028894424416
      ],
      [
        "▁veut",
        -8.071472120187872
      ],
      [
        "▁fekk",
        -8.07165167194593
      ],
      [
        "▁ou",
        -8.075381779104271
      ],
      [
        "▁Bul",
        -8.079868528447559
      ],
      [
        "▁mouton",
        -8.08354196174788
      ],
      [
        "▁suuf",
        -8.08453438701451
      ],
      [
        "▁avant",
        -8.085470679631936
      ],
      [
        "▁O",
        -8.09577516386223
      ],
      [
        "▁rafet",
        -8.096340337108122
      ],
      [
        "▁Va",
        -8.099609970458692
      ],
      [
        ":",
        -8.103924668549903
      ],
      [
        "uma",
        -8.113329433474298
      ],
      [
        "▁voir",
        -8.12526716532676
      ],
      [
        "w",
        -8.126846710533794
      ],
      [
        "▁En",
        -8.13006552713584
      ],
      [
        "▁très",
        -8.135158939044821
      ],
      [
        "▁jigéen",
        -8.137498799530078
      ],
      [
        "▁maa",
        -8.140427961800423
      ],
      [
        "▁Xale",
        -8.150964846422376
      ],
      [
        "▁bee",
        -8.152498218937172
      ],
      [
        "▁sunu",
        -8.153228279197485
      ],
      [
        "▁Mon",
        -8.157390885436058
      ],
      [
        "▁quan",
        -8.16422329802606
      ],
      [
        "▁lañuy",
        -8.174267828320907
      ],
      [
        "▁Ton",
        -8.174776568701468
      ],
      [
        "▁loxo",
        -8.176536452639938
      ],
      [
        "▁léegi",
        -8.183490385512886
      ],
      [
        "▁war",
        -8.18381976662051
      ],
      [
        "avoir",
        -8.186014133945253
      ],
      [
        "▁sais",
        -8.18803586152601
      ],
      [
        "▁part",
        -8.192452008964331
      ],
      [
        "▁l'ai",
        -8.193156343336941
      ],
      [
        "▁vois",
        -8.195905793264636
      ],
      [
        "▁toog",
        -8.196219075913818
      ],
      [
        "▁doit",
        -8.19624253835056
      ],
      [
        "▁Moo",
        -8.197136684220574
      ],
      [
        "▁B",
        -8.199567106930239
      ],
      [
        "ul",
        -8.203847161430616
      ],
      [
        "▁lekk",
        -8.205532916029718
      ],
      [
        "▁say",
        -8.20734043829981
      ],
      [
        "▁soit",
        -8.20950903603888
      ],
      [
        "▁gëna",
        -8.212826277032267
      ],
      [
        "▁fois",
        -8.215279241336313
      ],
      [
        "▁ki",
        -8.217690026288409
      ],
      [
        "▁Demal",
        -8.220929863982425
      ],
      [
        "▁wu",
        -8.231136467508044
      ],
      [
        "tre",
        -8.23186240939228
      ],
      [
        "▁ngeen",
        -8.232254426299722
      ],
      [
        "ù",
        -8.233658859866642
      ],
      [
        "lu",
        -8.235067382489648
      ],
      [
        "ñu",
        -8.235691436903148
      ],
      [
        "▁travail",
        -8.24011299796664
      ],
      [
        "▁demee",
        -8.240666861677099
      ],
      [
        "▁yaay",
        -8.240921911254812
      ],
      [
        "▁M",
        -8.241387448820106
      ],
      [
        "▁quelqu'un",
        -8.245605299553372
      ],
      [
        "▁dama",
        -8.245675966048541
      ],
      [
        "▁Sur",
        -8.246425788189875
      ],
      [
        "▁mbaa",
        -8.246693309881936
      ],
      [
        "▁sera",
        -8.248901808254935
      ],
      [
        "▁mis",
        -8.248968642267767
      ],
      [
        "f",
        -8.256767015927725
      ],
      [
        "▁b",
        -8.257902996154126
      ],
      [
        "▁Cet",
        -8.259201236774262
      ],
      [
        "▁fas",
        -8.26260890383449
      ],
      [
        "▁entre",
        -8.268844399422658
      ],
      [
        "▁fii",
        -8.27074544900483
      ],
      [
        "▁yàgg",
        -8.27171998086645
      ],
      [
        "▁ndaw",
        -8.272990143082552
      ],
      [
        "▁jaay",
        -8.275522987435927
      ],
      [
        "▁terre",
        -8.276607433668968
      ],
      [
        "▁champ",
        -8.278538151948549
      ],
      [
        "▁tes",
        -8.279507861396127
      ],
      [
        "▁monde",
        -8.27960965035893
      ],
      [
        "ons",
        -8.28267410376786
      ],
      [
        "▁grand",
        -8.284668183614745
      ],
      [
        "▁lépp",
        -8.285142249759307
      ],
      [
        "▁gone",
        -8.29377514761206
      ],
      [
        "▁bopp",
        -8.293787595851837
      ],
      [
        "▁tête",
        -8.293985592598325
      ],
      [
        "▁ànd",
        -8.294106236060644
      ],
      [
        "▁yooyu",
        -8.300165663918381
      ],
      [
        "▁celui",
        -8.300283345443505
      ],
      [
        "▁j",
        -8.311260490663276
      ],
      [
        "▁partir",
        -8.311271011584115
      ],
      [
        "▁Nataal",
        -8.311951167531529
      ],
      [
        "▁venu",
        -8.31345455932319
      ],
      [
        "▁weex",
        -8.314491574716978
      ],
      [
        "▁trop",
        -8.315149802185672
      ],
      [
        "▁donné",
        -8.322374118809805
      ],
      [
        "▁De",
        -8.325278440026517
      ],
      [
        "▁l'enfant",
        -8.326834942792276
      ],
      [
        "▁boobu",
        -8.327779277296587
      ],
      [
        "▁lii",
        -8.328857722185472
      ],
      [
        "▁ja",
        -8.329343333913435
      ],
      [
        "▁faut",
        -8.33187483672977
      ],
      [
        "▁baa",
        -8.332111252181825
      ],
      [
        "▁peux",
        -8.332524640954663
      ],
      [
        "▁Que",
        -8.33347846195083
      ],
      [
        "▁loolu",
        -8.334596539505467
      ],
      [
        "▁Lii",
        -8.336312906912944
      ],
      [
        "▁–",
        -8.340596428539444
      ],
      [
        "▁riz",
        -8.341700535232567
      ],
      [
        "▁s'en",
        -8.34177658761731
      ],
      [
        "ee",
        -8.341961015256778
      ],
      [
        "▁ciy",
        -8.35026563443996
      ],
      [
        "and",
        -8.350794138508924
      ],
      [
        "▁jox",
        -8.350909768938116
      ],
      [
        "'",
        -8.351332707980749
      ],
      [
        "▁vie",
        -8.35189965556147
      ],
      [
        "▁Celui",
        -8.353328301053534
      ],
      [
        "▁petit",
        -8.354284568326317
      ],
      [
        "▁ag",
        -8.355314454027656
      ],
      [
        "▁jour",
        -8.356940517143883
      ],
      [
        "▁dul",
        -8.358178968448955
      ],
      [
        "▁Boo",
        -8.358450053856073
      ],
      [
        "▁dont",
        -8.358922213241701
      ],
      [
        "▁ñépp",
        -8.361102479243957
      ],
      [
        "▁Wax",
        -8.361635983568814
      ],
      [
        "▁nii",
        -8.363971517441215
      ],
      [
        "as",
        -8.365271276188789
      ],
      [
        "▁pris",
        -8.368151464261903
      ],
      [
        "▁là-bas",
        -8.368646222490355
      ],
      [
        "kat",
        -8.369814176392675
      ],
      [
        "▁ñów",
        -8.375400330350491
      ],
      [
        "▁aujourd'hui",
        -8.37686178911079
      ],
      [
        "▁Ça",
        -8.382074118361734
      ],
      [
        "▁celui-là",
        -8.383631507208218
      ],
      [
        "é.",
        -8.38766254635624
      ],
      [
        "▁tuuti",
        -8.389145988160209
      ],
      [
        "▁yee",
        -8.390725626026732
      ],
      [
        "▁n'ai",
        -8.391307235252823
      ],
      [
        "▁soo",
        -8.392866833741142
      ],
      [
        "▁jot",
        -8.39448084412162
      ],
      [
        "▁Na",
        -8.396158547192835
      ],
      [
        "▁bàyyi",
        -8.39675364404587
      ],
      [
        "▁dugg",
        -8.402137602560842
      ],
      [
        "▁sous",
        -8.405788823924178
      ],
      [
        "▁Te",
        -8.414713496103154
      ],
      [
        "▁Tout",
        -8.415213860077387
      ],
      [
        "▁coup",
        -8.417233199360112
      ],
      [
        "▁Est-",
        -8.418964621525406
      ],
      [
        "▁yaram",
        -8.419118379595002
      ],
      [
        "▁génn",
        -8.421390299682896
      ],
      [
        "▁contre",
        -8.421784606622552
      ],
      [
        "eneen",
        -8.423815023997664
      ],
      [
        "▁Dem",
        -8.430586282403205
      ],
      [
        "▁f",
        -8.431907931448045
      ],
      [
        "▁bois",
        -8.434042842466246
      ],
      [
        "▁wi.",
        -8.435603784911283
      ],
      [
        "▁chambre",
        -8.43591538114641
      ],
      [
        "▁k",
        -8.436847795913835
      ],
      [
        "▁T",
        -8.440153641166097
      ],
      [
        "▁jénd",
        -8.441204711727899
      ],
      [
        "▁walla",
        -8.446490323067053
      ],
      [
        "▁Yaa",
        -8.45288908593426
      ],
      [
        "um",
        -8.453896068128437
      ],
      [
        "▁kow",
        -8.455031844031403
      ],
      [
        "i.",
        -8.456174036401356
      ],
      [
        "▁jàpp",
        -8.461248959045335
      ],
      [
        "▁jëm",
        -8.46143308427686
      ],
      [
        "▁bés",
        -8.463518851200078
      ],
      [
        "▁aller",
        -8.467022055582719
      ],
      [
        "▁Ay",
        -8.474142221323802
      ],
      [
        "▁maintenant",
        -8.47671206329809
      ],
      [
        "▁l'intérieur",
        -8.476815467035987
      ],
      [
        "▁xarit",
        -8.478758388460761
      ],
      [
        "j",
        -8.48353515229093
      ],
      [
        "▁xel",
        -8.4867275136402
      ],
      [
        "▁xaalis",
        -8.487307771672636
      ],
      [
        "ŋ",
        -8.48922069632573
      ],
      [
        "ée",
        -8.49009966388337
      ],
      [
        "▁F",
        -8.490114071722635
      ],
      [
        "▁p",
        -8.491123710687233
      ],
      [
        "▁voiture",
        -8.491123843174066
      ],
      [
        "▁ai",
        -8.496138342427082
      ],
      [
        "▁gii",
        -8.496806895168412
      ],
      [
        "▁réer",
        -8.497433983091677
      ],
      [
        "▁Bi",
        -8.499647374917028
      ],
      [
        "▁ka",
        -8.500746988378296
      ],
      [
        "▁taxaw",
        -8.50892443824505
      ],
      [
        "▁waa",
        -8.509152554338456
      ],
      [
        "▁neex",
        -8.516136239846837
      ],
      [
        "▁tànk",
        -8.516636805566836
      ],
      [
        "▁mal",
        -8.517395539538574
      ],
      [
        "▁t'a",
        -8.520320187432604
      ],
      [
        "▁nuit",
        -8.520667186427385
      ],
      [
        "▁qu",
        -8.523675715831846
      ],
      [
        "▁Vous",
        -8.526174715113058
      ],
      [
        "▁jamais",
        -8.526420841091081
      ],
      [
        "▁l'autre",
        -8.526616884515835
      ],
      [
        "▁Ta",
        -8.528288027473542
      ],
      [
        "▁jóge",
        -8.531344632251454
      ],
      [
        "woon",
        -8.533068813988049
      ],
      [
        "▁guerre",
        -8.538555866251233
      ],
      [
        "▁Ab",
        -8.539216307860539
      ],
      [
        "▁danga",
        -8.539629226474922
      ],
      [
        "▁ñoom",
        -8.539821958952139
      ],
      [
        "▁j'",
        -8.539912856215144
      ],
      [
        "▁yow",
        -8.543043672736617
      ],
      [
        "▁Attends",
        -8.544973610232628
      ],
      [
        "▁daw",
        -8.545931086857296
      ],
      [
        "ez",
        -8.549638857175974
      ],
      [
        "▁Man",
        -8.549705391051788
      ],
      [
        "▁acheté",
        -8.549750085597422
      ],
      [
        "▁jaar",
        -8.553544980557506
      ],
      [
        "▁G",
        -8.553888755916798
      ],
      [
        "eux",
        -8.55623994127183
      ],
      [
        "▁poisson",
        -8.558622712407637
      ],
      [
        "▁Xam",
        -8.560202162073992
      ],
      [
        "tte",
        -8.560386424047675
      ],
      [
        "▁Loolu",
        -8.561670262654598
      ],
      [
        "▁Waaye",
        -8.563225253079997
      ],
      [
        "▁metti",
        -8.563993246072705
      ],
      [
        "elle",
        -8.563997755528174
      ],
      [
        "ation",
        -8.565781556259509
      ],
      [
        "nga",
        -8.56723275836239
      ],
      [
        "▁yiy",
        -8.569647212616822
      ],
      [
        "▁vers",
        -8.570776768544215
      ],
      [
        "▁ŋgi",
        -8.573251519984527
      ],
      [
        "▁Nang",
        -8.577457249482208
      ],
      [
        "▁Jox",
        -8.57797247101971
      ],
      [
        "▁ëpp",
        -8.579360473034477
      ],
      [
        "▁manger",
        -8.582683636185429
      ],
      [
        "▁g",
        -8.58467343498717
      ],
      [
        "▁doo",
        -8.586480506086339
      ],
      [
        "loo",
        -8.588229257132838
      ],
      [
        "▁dëgg",
        -8.591882165804112
      ],
      [
        "▁fin",
        -8.59861141660851
      ],
      [
        "▁passe",
        -8.60057295121067
      ],
      [
        "▁bala",
        -8.601356680188626
      ],
      [
        "es.",
        -8.601420054504814
      ],
      [
        "▁tool",
        -8.601546367504456
      ],
      [
        "se",
        -8.60286525141582
      ],
      [
        "▁fini",
        -8.604399791560883
      ],
      [
        "▁point",
        -8.614124489120776
      ],
      [
        "▁qu'un",
        -8.615345355903328
      ],
      [
        "▁voilà",
        -8.615565427496948
      ],
      [
        "▁Mais",
        -8.617006836223215
      ],
      [
        "▁bokk",
        -8.618767673632732
      ],
      [
        "▁trois",
        -8.61951171012118
      ],
      [
        "▁dox",
        -8.619689001804375
      ],
      [
        "▁Seen",
        -8.619700172112374
      ],
      [
        "▁es",
        -8.620309932504446
      ],
      [
        "▁moment",
        -8.62391615268958
      ],
      [
        "▁re",
        -8.625162823838355
      ],
      [
        "▁couscous",
        -8.631107347672508
      ],
      [
        "▁wara",
        -8.632249510278351
      ],
      [
        "▁allé",
        -8.635028253857804
      ],
      [
        "▁mieux",
        -8.636124369006534
      ],
      [
        "▁Commen",
        -8.642172978675362
      ],
      [
        "ku",
        -8.642526049794562
      ],
      [
        "▁togg",
        -8.643005057292157
      ],
      [
        "▁saa",
        -8.645840895059912
      ],
      [
        "▁qu'",
        -8.647016566581101
      ],
      [
        "▁S'il",
        -8.653271367617686
      ],
      [
        "▁daal",
        -8.654741851548128
      ],
      [
        "▁couleur",
        -8.656520393296788
      ],
      [
        "▁Loo",
        -8.656768931842116
      ],
      [
        "▁jeex",
        -8.657644362658228
      ],
      [
        "▁pied",
        -8.658503007306575
      ],
      [
        "▁Waaw",
        -8.658958031889405
      ],
      [
        "▁dis",
        -8.664562900128198
      ],
      [
        "▁Cela",
        -8.6669767875169
      ],
      [
        "▁noppi",
        -8.667035216007386
      ],
      [
        "▁cha",
        -8.667378377028534
      ],
      [
        "-le",
        -8.67013801959012
      ],
      [
        "ions",
        -8.672274227267684
      ],
      [
        "▁dé",
        -8.672549978086836
      ],
      [
        "▁soleil",
        -8.673343653085876
      ],
      [
        "▁Xaaral",
        -8.673404458649475
      ],
      [
        "▁àll",
        -8.674707233510194
      ],
      [
        "▁devant",
        -8.675586938558876
      ],
      [
        "▁main",
        -8.676959579150546
      ],
      [
        "▁bët",
        -8.679007893818168
      ],
      [
        "▁mil",
        -8.679413083336714
      ],
      [
        "▁weer",
        -8.679635343195457
      ],
      [
        "▁après",
        -8.681749365283117
      ],
      [
        "▁passé",
        -8.682808047275262
      ],
      [
        "▁ñax",
        -8.684752657718253
      ],
      [
        ")",
        -8.68816963206259
      ],
      [
        "▁loin",
        -8.69340158302025
      ],
      [
        "▁longtemps",
        -8.693618173084875
      ],
      [
        "▁no",
        -8.6945541689037
      ],
      [
        "▁ainsi",
        -8.696831611005322
      ],
      [
        "▁mer",
        -8.702486743926467
      ],
      [
        "is",
        -8.704448371466345
      ],
      [
        "▁bunt",
        -8.709878965297587
      ],
      [
        "▁yeux",
        -8.711918171131767
      ],
      [
        "▁corps",
        -8.71388565724762
      ],
      [
        "▁takk",
        -8.713984999583122
      ],
      [
        "▁reste",
        -8.714850755810899
      ],
      [
        "épp",
        -8.718146582904865
      ],
      [
        "▁dañ",
        -8.719387134829404
      ],
      [
        "▁ceux",
        -8.719629940817514
      ],
      [
        "▁côté",
        -8.72168272911592
      ],
      [
        "▁so",
        -8.722694662582269
      ],
      [
        "laay",
        -8.724792875600894
      ],
      [
        "ante",
        -8.725336893370855
      ],
      [
        "▁duma",
        -8.725338625659418
      ],
      [
        "▁Quel",
        -8.72610596269363
      ],
      [
        "▁topp",
        -8.732923357898322
      ],
      [
        "mettre",
        -8.73306095058651
      ],
      [
        "t.",
        -8.733673550841266
      ],
      [
        "▁doŋŋ",
        -8.734296882278013
      ],
      [
        "▁Kenn",
        -8.734739696654056
      ],
      [
        "▁tamit",
        -8.734747264773048
      ],
      [
        "▁Tugal",
        -8.734793599620435
      ],
      [
        "as-tu",
        -8.73492595862264
      ],
      [
        "▁wa",
        -8.73520993632938
      ],
      [
        "▁lait",
        -8.736123051763297
      ],
      [
        "▁dóor",
        -8.73666597097078
      ],
      [
        "▁toute",
        -8.73947356957097
      ],
      [
        "u.",
        -8.739508926813013
      ],
      [
        "lui",
        -8.739735033481054
      ],
      [
        "▁dois",
        -8.740359194045134
      ],
      [
        "▁Ana",
        -8.741622594734928
      ],
      [
        "ni",
        -8.74181428249664
      ],
      [
        "être",
        -8.742165176641201
      ],
      [
        "▁dire",
        -8.74241103228804
      ],
      [
        "▁puis",
        -8.742978136138731
      ],
      [
        "▁ñuul",
        -8.743524040474025
      ],
      [
        "▁fo",
        -8.744232054180255
      ],
      [
        "▁car",
        -8.74482678305506
      ],
      [
        "▁Ca",
        -8.74496567323245
      ],
      [
        "▁Tey",
        -8.748232318799662
      ],
      [
        "▁parce",
        -8.753158770331138
      ],
      [
        "▁mort",
        -8.754045989395223
      ],
      [
        "▁Ogosaa",
        -8.755667183876792
      ],
      [
        "▁matin",
        -8.755984836312198
      ],
      [
        "▁seulement",
        -8.756392307598523
      ],
      [
        "▁mëna",
        -8.761537103677313
      ],
      [
        "▁Xar",
        -8.763935094082125
      ],
      [
        "▁maam",
        -8.76811318626753
      ],
      [
        "▁femmes",
        -8.769013322570386
      ],
      [
        "▁L'",
        -8.772119508083334
      ],
      [
        "▁J'",
        -8.774104639446138
      ],
      [
        "▁milieu",
        -8.777622556584916
      ],
      [
        "▁ceeb",
        -8.780599980035074
      ],
      [
        "▁village",
        -8.780630062828699
      ],
      [
        "▁mains",
        -8.780964313209914
      ],
      [
        "▁marché",
        -8.781572682431284
      ],
      [
        "▁mbir",
        -8.783723455347502
      ],
      [
        "▁arrivé",
        -8.784634834503596
      ],
      [
        "▁Waa",
        -8.787886472917826
      ],
      [
        "▁bari",
        -8.788870424691918
      ],
      [
        "▁vais",
        -8.7923627970546
      ],
      [
        "▁donne",
        -8.79900406960449
      ],
      [
        "▁woto",
        -8.799219543650896
      ],
      [
        "▁ba-noppi",
        -8.799803558045335
      ],
      [
        "▁faj",
        -8.80058233049833
      ],
      [
        "▁alors",
        -8.803181936512944
      ],
      [
        "▁Moom",
        -8.803438872673171
      ],
      [
        "▁dikk",
        -8.803934013918733
      ],
      [
        "▁bay",
        -8.806988792648616
      ],
      [
        "▁sac",
        -8.807230950911404
      ],
      [
        "▁bonne",
        -8.807270126566198
      ],
      [
        "▁aw",
        -8.809445345984912
      ],
      [
        "▁mets",
        -8.810952850646363
      ],
      [
        "▁grande",
        -8.811653264803894
      ],
      [
        "sait",
        -8.813667056389681
      ],
      [
        "▁Def",
        -8.813754204889333
      ],
      [
        "na",
        -8.821490403037728
      ],
      [
        "▁doole",
        -8.821794602118269
      ],
      [
        "▁chez",
        -8.822060654028078
      ],
      [
        "▁l'argent",
        -8.822527253965937
      ],
      [
        "▁jél",
        -8.824199569742957
      ],
      [
        "▁n'en",
        -8.828347993818578
      ],
      [
        "▁xol",
        -8.829441349318222
      ],
      [
        "▁gaa",
        -8.830921255564089
      ],
      [
        "li",
        -8.831702727430079
      ],
      [
        "▁xare",
        -8.833591312591073
      ],
      [
        "▁habits",
        -8.834025573191777
      ],
      [
        "▁wër",
        -8.834978316080903
      ],
      [
        "ais",
        -8.841459935958033
      ],
      [
        "quoi",
        -8.841826147337535
      ],
      [
        "▁ville",
        -8.84185770961432
      ],
      [
        "▁Cherche",
        -8.842382894443258
      ],
      [
        "▁fan",
        -8.842727252139925
      ],
      [
        "▁dégg",
        -8.843431159924398
      ],
      [
        "in",
        -8.843891982730096
      ],
      [
        "▁premier",
        -8.845620298652493
      ],
      [
        "▁vo",
        -8.845805950965586
      ],
      [
        "▁gaaw",
        -8.84597917536828
      ],
      [
        "▁famille",
        -8.84990757899825
      ],
      [
        "▁noonu",
        -8.851687927472291
      ],
      [
        "▁vient",
        -8.852470330399377
      ],
      [
        "bi",
        -8.853339293073692
      ],
      [
        "▁n'as",
        -8.853474699519747
      ],
      [
        "▁R",
        -8.858499592715575
      ],
      [
        "▁route",
        -8.86137426251749
      ],
      [
        "▁assis",
        -8.861535625382935
      ],
      [
        "▁C'étai",
        -8.864498343695331
      ],
      [
        "ès",
        -8.865688441925936
      ],
      [
        "▁xaar",
        -8.866117731781205
      ],
      [
        "▁seul",
        -8.86879127991867
      ],
      [
        "▁yóbbu",
        -8.871791118384762
      ],
      [
        "▁jamono",
        -8.873252792770337
      ],
      [
        "▁Mën",
        -8.87455542987146
      ],
      [
        "▁beau",
        -8.874614392062465
      ],
      [
        "▁Ni",
        -8.875298913955588
      ],
      [
        "age",
        -8.877073166536626
      ],
      [
        "yeek",
        -8.879927972700767
      ],
      [
        "▁da",
        -8.88024327251232
      ],
      [
        "ici.",
        -8.880825630450332
      ],
      [
        "ale",
        -8.880863586878016
      ],
      [
        "▁baay",
        -8.881689113282764
      ],
      [
        "▁fees",
        -8.88447231106322
      ],
      [
        "▁xaj",
        -8.889154967981009
      ],
      [
        "▁itam",
        -8.889611974997603
      ],
      [
        "▁parler",
        -8.889737642278003
      ],
      [
        "quelle",
        -8.892813012544355
      ],
      [
        "▁laaj",
        -8.893574223024912
      ],
      [
        "▁vas",
        -8.894326943921921
      ],
      [
        "▁debout",
        -8.894392274152622
      ],
      [
        "aay",
        -8.899338985770155
      ],
      [
        "▁réy",
        -8.90171168674533
      ],
      [
        "▁Dans",
        -8.902371645845996
      ],
      [
        "▁lion",
        -8.905242394913188
      ],
      [
        "▁fay",
        -8.905484227768689
      ],
      [
        "▁dinaa",
        -8.905812489788879
      ],
      [
        "▁Ñaar",
        -8.90662539139848
      ],
      [
        "tes",
        -8.906769500256187
      ],
      [
        "▁àddina",
        -8.910553348333838
      ],
      [
        "▁non",
        -8.911969531027014
      ],
      [
        "▁jours",
        -8.912604292048968
      ],
      [
        "avons",
        -8.913773366573214
      ],
      [
        "si",
        -8.91570574166471
      ],
      [
        "l.",
        -8.915739272887087
      ],
      [
        "▁bout",
        -8.91607466284426
      ],
      [
        "▁demul",
        -8.918079339591467
      ],
      [
        "▁Aujourd'hui",
        -8.919035234182079
      ],
      [
        "▁jël",
        -8.919637886446788
      ],
      [
        "▁nañ",
        -8.919769842651986
      ],
      [
        "▁yëg",
        -8.921017474798496
      ],
      [
        "▁vont",
        -8.92157920631001
      ],
      [
        "▁pa",
        -8.921953591253807
      ],
      [
        "uñu",
        -8.92273239070164
      ],
      [
        "▁somme",
        -8.925281842216247
      ],
      [
        "▁marse",
        -8.926134853409438
      ],
      [
        "▁(",
        -8.926193081547996
      ],
      [
        "▁partie",
        -8.92766681310605
      ],
      [
        "aan",
        -8.928298858863041
      ],
      [
        "▁Dinaa",
        -8.928978900727273
      ],
      [
        "▁Et",
        -8.931102564648315
      ],
      [
        "▁chien",
        -8.932952829933805
      ],
      [
        "▁dex",
        -8.933396136787554
      ],
      [
        "▁eu",
        -8.936437061546389
      ],
      [
        "▁bañ",
        -8.938630955883472
      ],
      [
        "▁puits",
        -8.944065630057029
      ],
      [
        "▁yére",
        -8.945455164481627
      ],
      [
        "▁s'il",
        -8.947083815033757
      ],
      [
        "▁train",
        -8.94854330376029
      ],
      [
        "▁gee",
        -8.950699572918149
      ],
      [
        "▁travers",
        -8.951924947043288
      ],
      [
        "▁xonq",
        -8.95282920933576
      ],
      [
        "▁trou",
        -8.9552145993208
      ],
      [
        "▁K",
        -8.959924758212905
      ],
      [
        "▁yoo",
        -8.960481591903003
      ],
      [
        "▁prendre",
        -8.960804818730017
      ],
      [
        "▁aura",
        -8.962982625303535
      ],
      [
        "▁moutons",
        -8.965221127374658
      ],
      [
        "▁i",
        -8.96594783293187
      ],
      [
        "ur",
        -8.968839961865546
      ],
      [
        "▁indi",
        -8.96890724022154
      ],
      [
        "▁W",
        -8.970203347047045
      ],
      [
        "▁Alors",
        -8.970360059972911
      ],
      [
        "▁Jigéen",
        -8.970510047065162
      ],
      [
        "▁boubou",
        -8.970514002034328
      ],
      [
        "▁Chaque",
        -8.970786700022817
      ],
      [
        "▁Fii",
        -8.971858662848215
      ],
      [
        "▁jooju",
        -8.97275524162221
      ],
      [
        "pendant",
        -8.973249292858483
      ],
      [
        "▁Prends",
        -8.973682913712157
      ],
      [
        "▁wut",
        -8.974626293998586
      ],
      [
        "▁voit",
        -8.975089008800493
      ],
      [
        "▁place",
        -8.97537979384373
      ],
      [
        "▁blanc",
        -8.976844057727902
      ],
      [
        "▁daanu",
        -8.9773077037582
      ],
      [
        "▁haut",
        -8.978370318778897
      ],
      [
        "▁saison",
        -8.97912753319999
      ],
      [
        "wul",
        -8.979382645213786
      ],
      [
        "▁at",
        -8.979478409773392
      ],
      [
        "▁Des",
        -8.98197217306014
      ],
      [
        "▁suba",
        -8.98466140633083
      ],
      [
        "▁guddi",
        -8.986627245601909
      ],
      [
        "▁jeune",
        -8.98688836653978
      ],
      [
        "-t-il",
        -8.98760191975993
      ],
      [
        "▁cinq",
        -8.991413180360224
      ],
      [
        "▁trouve",
        -8.994393320134552
      ],
      [
        "▁choses",
        -8.997614606316462
      ],
      [
        "q",
        -8.99803218582421
      ],
      [
        "▁plu",
        -8.999133892045203
      ],
      [
        "▁pagne",
        -9.001172634555918
      ],
      [
        "▁cuisine",
        -9.002035981938743
      ],
      [
        "▁propos",
        -9.002623814121705
      ],
      [
        "▁dund",
        -9.004976791053355
      ],
      [
        "▁peur",
        -9.005550567101928
      ],
      [
        "▁prend",
        -9.007868332153933
      ],
      [
        "▁Y",
        -9.009497164991995
      ],
      [
        "▁autres",
        -9.00952937635838
      ],
      [
        "▁case",
        -9.010348182624536
      ],
      [
        "aux",
        -9.013862380836432
      ],
      [
        "▁doy",
        -9.015220295428296
      ],
      [
        "▁kaw",
        -9.01568784002677
      ],
      [
        "▁Fais",
        -9.016964780868092
      ],
      [
        "me",
        -9.018359796850756
      ],
      [
        "▁Au",
        -9.020437439889047
      ],
      [
        "▁Fu",
        -9.020667514907275
      ],
      [
        "▁belle",
        -9.021194238730008
      ],
      [
        "naa",
        -9.021736999960318
      ],
      [
        "▁lañ",
        -9.023852446138367
      ],
      [
        "ra",
        -9.024432330253411
      ],
      [
        "je",
        -9.024449306653173
      ],
      [
        "▁viande",
        -9.025271196150133
      ],
      [
        "▁mauvais",
        -9.025461099359514
      ],
      [
        "▁raison",
        -9.025462761823784
      ],
      [
        "▁Qu'est-ce",
        -9.02561216076123
      ],
      [
        "▁Astu",
        -9.025690506328862
      ],
      [
        "▁xalaat",
        -9.025875690610746
      ],
      [
        "▁toutes",
        -9.027031958475323
      ],
      [
        "▁Pour",
        -9.030980684572354
      ],
      [
        "mi",
        -9.03322058259284
      ],
      [
        "▁Ceci",
        -9.033237626684718
      ],
      [
        "▁d'autres",
        -9.033616219141566
      ],
      [
        "▁Ben",
        -9.036611370484827
      ],
      [
        "▁tudd",
        -9.039809862413108
      ],
      [
        "▁nee",
        -9.040437805461146
      ],
      [
        "▁dee",
        -9.04161355031462
      ],
      [
        "ko",
        -9.042536241476675
      ],
      [
        "ou",
        -9.044721190798485
      ],
      [
        "▁xamul",
        -9.045020934362377
      ],
      [
        "▁sorte",
        -9.046923919925586
      ],
      [
        "▁amis",
        -9.048926363239824
      ],
      [
        "▁dàll",
        -9.049073810849313
      ],
      [
        "▁Fas",
        -9.049945640071686
      ],
      [
        "▁Celui-là",
        -9.054139538467258
      ],
      [
        "▁l'arbre",
        -9.054401365615893
      ],
      [
        "▁mangé",
        -9.054788110195307
      ],
      [
        "▁c'était",
        -9.055478366756361
      ],
      [
        "au",
        -9.05583320763775
      ],
      [
        "-lui",
        -9.05978091219226
      ],
      [
        "▁jooy",
        -9.060098939598406
      ],
      [
        "▁s'",
        -9.060626369845469
      ],
      [
        "▁gaynde",
        -9.061821701534575
      ],
      [
        "▁moi.",
        -9.063754003228727
      ],
      [
        "▁gaal",
        -9.063947170119791
      ],
      [
        "▁roi",
        -9.065910770463791
      ],
      [
        "▁woo",
        -9.066897576270117
      ],
      [
        "▁bras",
        -9.067009852180616
      ],
      [
        "▁ñaa",
        -9.068501181752607
      ],
      [
        "▁Son",
        -9.069682223187678
      ],
      [
        "▁dellu",
        -9.07046839234338
      ],
      [
        "▁cere",
        -9.071974024835402
      ],
      [
        "▁E",
        -9.072766188307215
      ],
      [
        "▁arbres",
        -9.075834480826236
      ],
      [
        "an",
        -9.076792836407915
      ],
      [
        "▁peau",
        -9.078347021688439
      ],
      [
        "nu",
        -9.079046534414314
      ],
      [
        "▁façon",
        -9.083104119140039
      ],
      [
        "▁lequel",
        -9.084374027377741
      ],
      [
        "▁Gone",
        -9.084599577806213
      ],
      [
        "▁beneen",
        -9.086319999688953
      ],
      [
        "▁chemise",
        -9.088777474451454
      ],
      [
        "▁ban",
        -9.089474373550532
      ],
      [
        "at",
        -9.0905801828373
      ],
      [
        "▁noir",
        -9.090818638383
      ],
      [
        "▁Di",
        -9.091165158677267
      ],
      [
        "▁seet",
        -9.091549704615032
      ],
      [
        "ement",
        -9.094055045359754
      ],
      [
        "▁bëggee",
        -9.09433812741718
      ],
      [
        "▁dinga",
        -9.094483661910251
      ],
      [
        "▁Comme",
        -9.095001027732406
      ],
      [
        "▁fàtte",
        -9.096717769236351
      ],
      [
        "▁defar",
        -9.09834588958825
      ],
      [
        "▁nos",
        -9.098759757109802
      ],
      [
        "▁pain",
        -9.099244723704688
      ],
      [
        "▁ŋgeen",
        -9.099603720076333
      ],
      [
        "▁yeneen",
        -9.100166321929578
      ],
      [
        "▁kanam",
        -9.10367591397591
      ],
      [
        "▁w",
        -9.106105231331798
      ],
      [
        "▁m'en",
        -9.107386157872332
      ],
      [
        "▁Donne",
        -9.10828675455658
      ],
      [
        "ourquoi",
        -9.10894299911431
      ],
      [
        "▁jàng",
        -9.111085505782535
      ],
      [
        "▁Kooku",
        -9.111437666559318
      ],
      [
        "▁wolof",
        -9.111740278991608
      ],
      [
        "ai",
        -9.112114673852876
      ],
      [
        "▁Naka",
        -9.11238451162172
      ],
      [
        "▁cheveux",
        -9.113536603449248
      ],
      [
        "▁yaakaar",
        -9.113581149275724
      ],
      [
        "▁voyage",
        -9.114228462656213
      ],
      [
        "▁nangu",
        -9.116423305975616
      ],
      [
        "▁dame",
        -9.11707909916025
      ],
      [
        "▁dagg",
        -9.117194610315277
      ],
      [
        "▁boppam",
        -9.117705999333655
      ],
      [
        "▁doute",
        -9.119463266323049
      ],
      [
        "▁ami",
        -9.120962566673517
      ],
      [
        "▁May",
        -9.121622542906696
      ],
      [
        "▁Tubaab",
        -9.123311890296387
      ],
      [
        "▁solo",
        -9.123670732343815
      ],
      [
        "▁jii",
        -9.126124041307019
      ],
      [
        "▁waaw",
        -9.126500653035503
      ],
      [
        "▁mat",
        -9.126973657826
      ],
      [
        "▁cherche",
        -9.127410063298793
      ],
      [
        "▁mange",
        -9.127683584768317
      ],
      [
        "▁tombé",
        -9.128534072621857
      ],
      [
        "▁soir",
        -9.128654246686201
      ],
      [
        "ir",
        -9.133367423057791
      ],
      [
        "▁wet",
        -9.136778441718024
      ],
      [
        "▁X",
        -9.137282473539269
      ],
      [
        "▁table",
        -9.137378429190443
      ],
      [
        "▁dos",
        -9.137743740259896
      ],
      [
        "▁waral",
        -9.138321006558133
      ],
      [
        "▁pluies",
        -9.138465998542571
      ],
      [
        "ri",
        -9.13879473697915
      ],
      [
        "▁ñ",
        -9.140215102277944
      ],
      [
        "▁vent",
        -9.140451028667188
      ],
      [
        "▁jabar",
        -9.142543402402808
      ],
      [
        "▁kooku",
        -9.143987366120996
      ],
      [
        "▁viendra",
        -9.144768859506772
      ],
      [
        "▁léeg-léeg",
        -9.144895235411841
      ],
      [
        "▁d'eau",
        -9.144940255810283
      ],
      [
        "▁vraiment",
        -9.144965380178556
      ],
      [
        "▁pieds",
        -9.14609760095319
      ],
      [
        "▁jén",
        -9.146351957166566
      ],
      [
        "▁tollu",
        -9.146405624769837
      ],
      [
        "▁long",
        -9.147893301460078
      ],
      [
        "-là",
        -9.149294480398526
      ],
      [
        "du",
        -9.153883620750975
      ],
      [
        "ras",
        -9.15532614743094
      ],
      [
        "▁Astou",
        -9.15650371913175
      ],
      [
        "▁yem",
        -9.157005031517198
      ],
      [
        "▁arrive",
        -9.157715834664565
      ],
      [
        "▁dangay",
        -9.157969551420171
      ],
      [
        "▁amoon",
        -9.16115929903589
      ],
      [
        "▁Jél",
        -9.161180220188047
      ],
      [
        "▁n'avai",
        -9.161398433414787
      ],
      [
        "▁années",
        -9.164274597328797
      ],
      [
        "▁m'as",
        -9.16527831252206
      ],
      [
        "▁personnes",
        -9.165677978838172
      ],
      [
        "▁daa",
        -9.165995643173595
      ],
      [
        "▁duñu",
        -9.166953396661055
      ],
      [
        "▁lit",
        -9.167184341589925
      ],
      [
        "▁Xa",
        -9.169702299825268
      ],
      [
        "▁cour",
        -9.172051982338855
      ],
      [
        "▁hommes",
        -9.175135302870522
      ],
      [
        "autour",
        -9.175367474410894
      ],
      [
        "▁Borom",
        -9.176698294440493
      ],
      [
        "▁Kamerun",
        -9.176943451264624
      ],
      [
        "▁taal",
        -9.177273683428716
      ],
      [
        "▁Wutal",
        -9.177665387683726
      ],
      [
        "▁foofu",
        -9.177883686646517
      ],
      [
        "▁fut",
        -9.17925690404722
      ],
      [
        "▁feuilles",
        -9.179807513464521
      ],
      [
        "▁kan",
        -9.180033686032921
      ],
      [
        "▁Qu'a",
        -9.185074720509668
      ],
      [
        "ar",
        -9.188795487131518
      ],
      [
        "ux",
        -9.188971418505583
      ],
      [
        "...",
        -9.189792632961693
      ],
      [
        "▁ñetti",
        -9.18988511471575
      ],
      [
        "pp",
        -9.190612445646803
      ],
      [
        "h",
        -9.192643185065755
      ],
      [
        "▁Fa",
        -9.192783361822023
      ],
      [
        "▁étai",
        -9.194298111900245
      ],
      [
        "▁xool",
        -9.19508865177993
      ],
      [
        "▁marcher",
        -9.195744907645661
      ],
      [
        "▁buntu",
        -9.195765201631911
      ],
      [
        "▁xaw",
        -9.196275982779355
      ],
      [
        "▁petits",
        -9.19759073604272
      ],
      [
        "▁day",
        -9.199405433487897
      ],
      [
        "▁dents",
        -9.200295069842412
      ],
      [
        "▁semble",
        -9.201533524083555
      ],
      [
        "mu",
        -9.203849739345404
      ],
      [
        "▁lakk",
        -9.205132036382317
      ],
      [
        "▁Mets",
        -9.205949335350024
      ],
      [
        "▁ginnaaw",
        -9.20596871072502
      ],
      [
        "▁laver",
        -9.206862801573372
      ],
      [
        "Après",
        -9.208672968927115
      ],
      [
        "vaient",
        -9.20988144005808
      ],
      [
        "▁forêt",
        -9.20994712272801
      ],
      [
        "▁Léegi",
        -9.21038691556003
      ],
      [
        "▁force",
        -9.211800810033328
      ],
      [
        "▁saf",
        -9.211897924649534
      ],
      [
        "▁mot",
        -9.212152998745719
      ],
      [
        "▁nelaw",
        -9.212621375503058
      ],
      [
        "▁droit",
        -9.21348533297512
      ],
      [
        "▁lieu",
        -9.217756830673203
      ],
      [
        "▁peut-être",
        -9.217850246990007
      ],
      [
        "▁font",
        -9.218329319769627
      ],
      [
        "▁jambes",
        -9.219542840330492
      ],
      [
        "▁miir",
        -9.219600820866518
      ],
      [
        "▁ragal",
        -9.220240763641181
      ],
      [
        "▁savoir",
        -9.220533581642181
      ],
      [
        "▁leer",
        -9.222956485708991
      ],
      [
        "és",
        -9.225611589410171
      ],
      [
        "▁chemin",
        -9.228129840998424
      ],
      [
        "▁passer",
        -9.229395760452638
      ],
      [
        "▁Mi",
        -9.231030689870096
      ],
      [
        "▁singe",
        -9.23106107012166
      ],
      [
        "▁posé",
        -9.231941397766374
      ],
      [
        "eurs",
        -9.235976806723224
      ],
      [
        "▁waxtaan",
        -9.239561634701701
      ],
      [
        "▁Amul",
        -9.242675137986357
      ],
      [
        "▁crois",
        -9.243579451471504
      ],
      [
        "aat",
        -9.243917244515728
      ],
      [
        "▁couteau",
        -9.243919894911153
      ],
      [
        "▁dugub",
        -9.244738897425385
      ],
      [
        "▁Ñoom",
        -9.245582343289328
      ],
      [
        "▁mënul",
        -9.246132260924167
      ],
      [
        "▁poule",
        -9.248273893568673
      ],
      [
        "▁bind",
        -9.249135958760437
      ],
      [
        "▁serait",
        -9.250525358442967
      ],
      [
        "▁froid",
        -9.250884361901733
      ],
      [
        "▁bouche",
        -9.251346320687368
      ],
      [
        "▁médecin",
        -9.251742541556812
      ],
      [
        "▁gàtt",
        -9.251853486446898
      ],
      [
        "▁peine",
        -9.253654312077064
      ],
      [
        "▁waxtu",
        -9.255169948096286
      ],
      [
        "▁tàng",
        -9.25886833281674
      ],
      [
        "gi",
        -9.260282480519674
      ],
      [
        "▁quelle",
        -9.261133585808617
      ],
      [
        "▁nuy",
        -9.261717342262356
      ],
      [
        "nt.",
        -9.262023308759522
      ],
      [
        "té",
        -9.262114939915136
      ],
      [
        "▁première",
        -9.262921476382381
      ],
      [
        "▁rouge",
        -9.267069067189562
      ],
      [
        "▁rey",
        -9.267582314156167
      ],
      [
        "est-ce",
        -9.269131655014613
      ],
      [
        "▁tas",
        -9.269449686485862
      ],
      [
        "▁endroit",
        -9.270199746389693
      ],
      [
        "▁visage",
        -9.27139390329565
      ],
      [
        "▁fille",
        -9.271414736273691
      ],
      [
        "▁verre",
        -9.27278740224882
      ],
      [
        "▁saak",
        -9.273580150801568
      ],
      [
        "▁xeet",
        -9.273881034115634
      ],
      [
        "▁bant",
        -9.27389814961373
      ],
      [
        "▁blanche",
        -9.274358291258011
      ],
      [
        "▁gudd",
        -9.276157458427097
      ],
      [
        "oŋ",
        -9.276406195101758
      ],
      [
        "▁mii",
        -9.276793079582838
      ],
      [
        "ta",
        -9.276836558704735
      ],
      [
        "▁pu",
        -9.277196043752493
      ],
      [
        "▁Da",
        -9.279016892539694
      ],
      [
        "voir",
        -9.27965159932272
      ],
      [
        "▁mbubb",
        -9.280117852103691
      ],
      [
        "▁Lu-tax",
        -9.280192571379974
      ],
      [
        "▁paix",
        -9.28027733121708
      ],
      [
        "▁Garab",
        -9.280300902462606
      ],
      [
        "▁ceux-là",
        -9.280432899295535
      ],
      [
        "▁l'Afrique",
        -9.280520326440062
      ],
      [
        "▁tàmbalee",
        -9.281004832355821
      ],
      [
        "▁nom",
        -9.281131561205264
      ],
      [
        "▁agsi",
        -9.281440490003073
      ],
      [
        "▁longue",
        -9.281483090664493
      ],
      [
        "ukaay",
        -9.28162142202451
      ],
      [
        "▁Qu'il",
        -9.282260255638738
      ],
      [
        "▁biti",
        -9.28328027723095
      ],
      [
        "▁yii",
        -9.283333912242066
      ],
      [
        "▁chaussures",
        -9.28385091766643
      ],
      [
        "▁seule",
        -9.283949997682797
      ],
      [
        "▁wii",
        -9.284526309720729
      ],
      [
        "▁corde",
        -9.287167266686659
      ],
      [
        "▁sàkk",
        -9.287454544010775
      ],
      [
        "▁pouvait",
        -9.288304666124384
      ],
      [
        "▁r",
        -9.289257747126902
      ],
      [
        "▁simis",
        -9.289474779325122
      ],
      [
        "▁taabal",
        -9.290020392724498
      ],
      [
        "le.",
        -9.29053496368698
      ],
      [
        "▁gisee",
        -9.293277731375102
      ],
      [
        "▁defe",
        -9.293603083680999
      ],
      [
        "▁fer",
        -9.294153680049755
      ],
      [
        "-toi",
        -9.296605851625932
      ],
      [
        "aw",
        -9.29889986123086
      ],
      [
        "▁toj",
        -9.302016627965479
      ],
      [
        "▁tere",
        -9.30228263347384
      ],
      [
        "▁année",
        -9.303856845175428
      ],
      [
        "▁séen",
        -9.30519332702141
      ],
      [
        "bu",
        -9.305283594599327
      ],
      [
        "▁chat",
        -9.307258331417854
      ],
      [
        "▁demande",
        -9.30770636789242
      ],
      [
        "▁laisse",
        -9.308038104215772
      ],
      [
        "▁prépare",
        -9.309519485928469
      ],
      [
        "ère",
        -9.31078141287066
      ],
      [
        "▁dinañu",
        -9.311654295091255
      ],
      [
        "▁l'un",
        -9.311937826057767
      ],
      [
        "nd",
        -9.314300981339688
      ],
      [
        "▁loo",
        -9.315853974773741
      ],
      [
        "▁picc",
        -9.316745027674877
      ],
      [
        "▁mariage",
        -9.317354827891188
      ],
      [
        "▁question",
        -9.317409734833548
      ],
      [
        "▁ngelaw",
        -9.317438727580965
      ],
      [
        "p",
        -9.317555953582096
      ],
      [
        "▁dénk",
        -9.318108509074106
      ],
      [
        "▁nopp",
        -9.318339069064436
      ],
      [
        "▁soow",
        -9.319870297817129
      ],
      [
        "▁Oui",
        -9.32299986463708
      ],
      [
        "▁tomber",
        -9.325720765163432
      ],
      [
        "▁buum",
        -9.326500207340967
      ],
      [
        "▁francs",
        -9.326760723242776
      ],
      [
        "▁chercher",
        -9.328023258382027
      ],
      [
        "▁Kër",
        -9.329405006265882
      ],
      [
        "▁besoin",
        -9.32952685170691
      ],
      [
        "▁fruits",
        -9.330238725778173
      ],
      [
        "▁ňu",
        -9.330458951875148
      ],
      [
        "ées",
        -9.332104839966904
      ],
      [
        "▁fey",
        -9.33234348714809
      ],
      [
        "▁gan",
        -9.334606187603434
      ],
      [
        "tal",
        -9.334825138276129
      ],
      [
        "▁montre",
        -9.335571673674693
      ],
      [
        "où",
        -9.337604038360244
      ],
      [
        "▁t'ai",
        -9.339012021362647
      ],
      [
        "▁yor",
        -9.339398461829411
      ],
      [
        "▁Bëgg",
        -9.340184812590984
      ],
      [
        "▁tard",
        -9.340935320514454
      ],
      [
        "▁vend",
        -9.341008752572348
      ],
      [
        "▁buur",
        -9.342304543481815
      ],
      [
        "ub",
        -9.34287817546583
      ],
      [
        "▁Ces",
        -9.343082692831974
      ],
      [
        "▁fukk",
        -9.344690397173522
      ],
      [
        "▁War",
        -9.34561035764473
      ],
      [
        "▁tudde",
        -9.34669561883252
      ],
      [
        "▁eux",
        -9.347706870583588
      ],
      [
        "ati",
        -9.34839264544982
      ],
      [
        "▁vaut",
        -9.353541599408299
      ],
      [
        "eek",
        -9.353732856902763
      ],
      [
        "▁kii",
        -9.353955544347507
      ],
      [
        "▁au-dessus",
        -9.355843480829055
      ],
      [
        "▁paaka",
        -9.355858167834988
      ],
      [
        "▁grand-mère",
        -9.35592699618611
      ],
      [
        "▁Yéesu",
        -9.356421418831708
      ],
      [
        "ngeen",
        -9.357507108369957
      ],
      [
        "▁yàpp",
        -9.357515527342965
      ],
      [
        "▁nettali",
        -9.35801152947848
      ],
      [
        "▁wéy",
        -9.358041399464263
      ],
      [
        "z",
        -9.35838773278026
      ],
      [
        "▁France",
        -9.358428078766984
      ],
      [
        "▁sucre",
        -9.358475096179399
      ],
      [
        "▁lanu",
        -9.359101157526755
      ],
      [
        "▁moomu",
        -9.36058159799636
      ],
      [
        "▁xanaa",
        -9.361567197268428
      ],
      [
        "▁ubbi",
        -9.361579945849774
      ],
      [
        "▁porter",
        -9.361802293350582
      ],
      [
        "▁marché.",
        -9.362732877165307
      ],
      [
        "ba",
        -9.3628081946264
      ],
      [
        "▁Ogoja",
        -9.362850789152354
      ],
      [
        "▁depuis",
        -9.363039954849445
      ],
      [
        "▁déj",
        -9.364253166246602
      ],
      [
        "▁Afrique",
        -9.365773146893805
      ],
      [
        "een",
        -9.3662510042301
      ],
      [
        "▁Nda",
        -9.367410582859286
      ],
      [
        "▁fleuve",
        -9.368362697324569
      ],
      [
        "▁Quelle",
        -9.369664871439364
      ],
      [
        "x.",
        -9.370504773430728
      ],
      [
        "▁demain",
        -9.372358013628006
      ],
      [
        "▁far",
        -9.372782241676692
      ],
      [
        "▁près",
        -9.37381394527235
      ],
      [
        "▁teen",
        -9.37445113942121
      ],
      [
        "▁pluie",
        -9.376666419386478
      ],
      [
        "▁aperçu",
        -9.377717879528802
      ],
      [
        "▁bord",
        -9.377969862186472
      ],
      [
        "▁sable",
        -9.379280994907532
      ],
      [
        "▁naaj",
        -9.379418930764686
      ],
      [
        "▁Ndox",
        -9.38242460226084
      ],
      [
        "▁lan",
        -9.383253093821036
      ],
      [
        "▁vache",
        -9.383950079227565
      ],
      [
        "▁feu",
        -9.385693734449617
      ],
      [
        "▁n'étai",
        -9.387733549327585
      ],
      [
        "▁cassé",
        -9.388698946166093
      ],
      [
        "▁ans",
        -9.389543323425904
      ],
      [
        "▁vienne",
        -9.390942987403204
      ],
      [
        "▁fils",
        -9.391260283459436
      ],
      [
        "▁Kan",
        -9.391406648802295
      ],
      [
        "▁J'en",
        -9.39365610933427
      ],
      [
        "▁déglu",
        -9.394627374995338
      ],
      [
        "▁fàww",
        -9.395256554730524
      ],
      [
        "▁Jésus",
        -9.395343665549909
      ],
      [
        "▁marche",
        -9.395386750715232
      ],
      [
        "▁chacun",
        -9.395490508515625
      ],
      [
        "ersonne",
        -9.39550979320754
      ],
      [
        "▁sauce",
        -9.395589873211685
      ],
      [
        "▁Senegaal",
        -9.395712021514132
      ],
      [
        "▁ensemble",
        -9.39607468159539
      ],
      [
        "▁coeur",
        -9.396412025164654
      ],
      [
        "▁daanaka",
        -9.396690924760073
      ],
      [
        "tôt",
        -9.396782553328228
      ],
      [
        "▁yónnee",
        -9.396933501923446
      ],
      [
        "▁présent",
        -9.397847721972687
      ],
      [
        "▁bar",
        -9.399886567850556
      ],
      [
        "▁portes",
        -9.40096632079932
      ],
      [
        "▁comment",
        -9.405165146160302
      ],
      [
        "vent",
        -9.406156786212204
      ],
      [
        "▁baaxul",
        -9.4064428685596
      ],
      [
        "▁»,",
        -9.409864593984688
      ],
      [
        "▁vaches",
        -9.411123387842826
      ],
      [
        "▁l'air",
        -9.41339557766111
      ],
      [
        "▁jeunes",
        -9.41472704894915
      ],
      [
        "▁ña",
        -9.415548686719939
      ],
      [
        "▁Tou",
        -9.415957504392196
      ],
      [
        "▁baat",
        -9.416060999611494
      ],
      [
        "ji",
        -9.417180878264697
      ],
      [
        "▁soxla",
        -9.417311359988645
      ],
      [
        "▁So",
        -9.419136863983443
      ],
      [
        "▁Indi",
        -9.420731788907617
      ],
      [
        "▁wóor",
        -9.422603651162158
      ],
      [
        "▁affaire",
        -9.423610044032136
      ],
      [
        "▁Bàyyil",
        -9.425011531023607
      ],
      [
        "▁bees",
        -9.425879680331764
      ],
      [
        "▁ganaar",
        -9.426468537020114
      ],
      [
        "▁êtes",
        -9.426867325780007
      ],
      [
        "▁dellusi",
        -9.427142656130576
      ],
      [
        "moi",
        -9.427544555622928
      ],
      [
        "▁ressemble",
        -9.428250727225683
      ],
      [
        "▁plein",
        -9.430144475469572
      ],
      [
        "▁wone",
        -9.430700696476878
      ],
      [
        "is-tu",
        -9.431363537013457
      ],
      [
        "ag",
        -9.431612225282418
      ],
      [
        "▁bol",
        -9.434966365806542
      ],
      [
        "▁teel",
        -9.435184927407112
      ],
      [
        "▁dernier",
        -9.437252909363936
      ],
      [
        "▁Cameroun",
        -9.4373920064398
      ],
      [
        "▁doktoor",
        -9.437830787233409
      ],
      [
        "▁door",
        -9.438565226559811
      ],
      [
        "des",
        -9.439142130314828
      ],
      [
        "▁fête",
        -9.439191704810437
      ],
      [
        "▁sedd",
        -9.439466094741897
      ],
      [
        "ug",
        -9.43947018728931
      ],
      [
        "▁xeer",
        -9.441332545135104
      ],
      [
        "▁tali",
        -9.441452798163793
      ],
      [
        "▁travailler",
        -9.44187230952758
      ],
      [
        "▁sànni",
        -9.442239801079129
      ],
      [
        "▁màgget",
        -9.442476804929504
      ],
      [
        "▁sant",
        -9.443093584702433
      ],
      [
        "▁noo",
        -9.443465975580533
      ],
      [
        "▁xeex",
        -9.444619444602665
      ],
      [
        "▁heures",
        -9.444874976182033
      ],
      [
        "▁ndab",
        -9.445046597994704
      ],
      [
        "eur",
        -9.446646185752863
      ],
      [
        "▁venir",
        -9.44731094229975
      ],
      [
        "▁Fi",
        -9.448609003086977
      ],
      [
        "▁faral",
        -9.44869021489527
      ],
      [
        "▁xorom",
        -9.448847370240205
      ],
      [
        "qui",
        -9.449093485104349
      ],
      [
        "▁trouvé",
        -9.449924242657215
      ],
      [
        "▁Nan",
        -9.450751034866936
      ],
      [
        "▁Dëkk",
        -9.452031786372823
      ],
      [
        "▁tabax",
        -9.453178010226866
      ],
      [
        "▁fecc",
        -9.455327230777165
      ],
      [
        "▁Ñ",
        -9.457265859384282
      ],
      [
        "▁jëkk",
        -9.459954129666176
      ],
      [
        "▁v",
        -9.46067511810095
      ],
      [
        "▁taat",
        -9.464396602936974
      ],
      [
        "▁fond",
        -9.4644136887438
      ],
      [
        "▁frère",
        -9.464429568722618
      ],
      [
        "▁fàttaliku",
        -9.465626536285457
      ],
      [
        "▁aucun",
        -9.465634168175697
      ],
      [
        "▁jusqu'au",
        -9.466210770526455
      ],
      [
        "▁nanu",
        -9.467216849524485
      ],
      [
        "▁wàn",
        -9.46774954687199
      ],
      [
        "▁vite",
        -9.468189918699014
      ],
      [
        "▁dana",
        -9.471102183998566
      ],
      [
        "▁Se",
        -9.472047702486334
      ],
      [
        "▁leneen",
        -9.476592808176473
      ],
      [
        "▁entendu",
        -9.477304533981394
      ],
      [
        "▁Ak",
        -9.477778646453903
      ],
      [
        "▁Sénégal",
        -9.479997361294078
      ],
      [
        "▁grand-père",
        -9.48088958348527
      ],
      [
        "ng",
        -9.481463008100205
      ],
      [
        "ellement",
        -9.48352744788983
      ],
      [
        "▁petite",
        -9.484186880056477
      ],
      [
        "▁Dakar",
        -9.484265540805586
      ],
      [
        "▁apporté",
        -9.484696620310366
      ],
      [
        "▁diggu",
        -9.486236671937919
      ],
      [
        "▁Bés",
        -9.487316433374506
      ],
      [
        "▁googu",
        -9.488033473762702
      ],
      [
        "▁cuir",
        -9.48859465820953
      ],
      [
        "▁Ceux",
        -9.490043689122498
      ],
      [
        "▁jouer",
        -9.490132946475446
      ],
      [
        "woo",
        -9.49026649435307
      ],
      [
        "▁gannaaw",
        -9.490478366496681
      ],
      [
        "▁yar",
        -9.490888909896967
      ],
      [
        "▁tooy",
        -9.492224124269182
      ],
      [
        "▁égaré",
        -9.492416200762525
      ],
      [
        "▁damm",
        -9.492876836678775
      ],
      [
        "ti",
        -9.49374088693768
      ],
      [
        "▁met",
        -9.496220841660529
      ],
      [
        "▁t'",
        -9.497991235370714
      ],
      [
        "▁dessus",
        -9.498454301733247
      ],
      [
        "▁t'en",
        -9.499428944320208
      ],
      [
        "'entrée",
        -9.499530621386791
      ],
      [
        "▁wetu",
        -9.500994062038064
      ],
      [
        "▁parte",
        -9.503004882503426
      ],
      [
        "▁gros",
        -9.506147826500943
      ],
      [
        "▁fit",
        -9.506887023377598
      ],
      [
        "▁Mbaa",
        -9.507692556154037
      ],
      [
        "▁co",
        -9.508254733020017
      ],
      [
        "▁waaj",
        -9.510391392961768
      ],
      [
        "▁defee",
        -9.513717206973233
      ],
      [
        "▁Booy",
        -9.515353933468106
      ],
      [
        "▁arbre",
        -9.517648805313105
      ],
      [
        "▁toit",
        -9.517864733225931
      ],
      [
        "▁ciel",
        -9.519257449218683
      ],
      [
        "▁Liggéey",
        -9.519610584922543
      ],
      [
        "▁épouse",
        -9.519823403604887
      ],
      [
        "▁avais",
        -9.521975550736046
      ],
      [
        "▁guy",
        -9.524447504695058
      ],
      [
        "▁journée",
        -9.526047618627516
      ],
      [
        "▁diggante",
        -9.526115756791288
      ],
      [
        "▁complètement",
        -9.526293658177165
      ],
      [
        "▁donner",
        -9.526315537670767
      ],
      [
        "▁colère",
        -9.526349204301987
      ],
      [
        "▁vieux",
        -9.526520646731642
      ],
      [
        "▁manière",
        -9.526714024798876
      ],
      [
        "▁gor",
        -9.52690747614748
      ],
      [
        "▁suffit",
        -9.527002526644763
      ],
      [
        "▁réunion",
        -9.527128260545227
      ],
      [
        "▁derrière",
        -9.527594581222914
      ],
      [
        "▁it",
        -9.529029833803994
      ],
      [
        "▁Buur",
        -9.52954199305829
      ],
      [
        "▁sew",
        -9.529689414127784
      ],
      [
        "▁fourmis",
        -9.53039174819111
      ],
      [
        "▁natte",
        -9.531206492672544
      ],
      [
        "ga",
        -9.532041241228988
      ],
      [
        "▁toujours",
        -9.534156858912574
      ],
      [
        "▁mo",
        -9.534391301292702
      ],
      [
        "▁séy",
        -9.53661015727341
      ],
      [
        "▁offert",
        -9.53718510992731
      ],
      [
        "▁Ñi",
        -9.538338911654563
      ],
      [
        "▁jàmm",
        -9.538541159156027
      ],
      [
        "▁attention",
        -9.539037993480669
      ],
      [
        "it.",
        -9.539589778623041
      ],
      [
        "▁souris",
        -9.541062687361748
      ],
      [
        "▁borom",
        -9.54300943757392
      ],
      [
        "ooy",
        -9.545466663434341
      ],
      [
        "▁aime",
        -9.545733249536312
      ],
      [
        "▁m'",
        -9.546137504898626
      ],
      [
        "ax",
        -9.546655378977729
      ],
      [
        "▁Leur",
        -9.546819045022657
      ],
      [
        "▁taw",
        -9.547175976793767
      ],
      [
        "▁serpent",
        -9.548616521788595
      ],
      [
        "▁amee",
        -9.549337527115648
      ],
      [
        "▁dàq",
        -9.550322750760202
      ],
      [
        "▁yàq",
        -9.550515309080437
      ],
      [
        "▁sang",
        -9.550586744094572
      ],
      [
        "▁won",
        -9.550797324490851
      ],
      [
        "▁ñàkk",
        -9.552171609066288
      ],
      [
        "▁laisser",
        -9.555198717364929
      ],
      [
        "▁xëcc",
        -9.556756368429454
      ],
      [
        "▁sore",
        -9.557805348842189
      ],
      [
        "▁Fan",
        -9.55797783100256
      ],
      [
        "▁sens",
        -9.559333315833541
      ],
      [
        "▁wuti",
        -9.559558024537088
      ],
      [
        "oir",
        -9.561617598513276
      ],
      [
        "▁lutte",
        -9.562475330291928
      ],
      [
        "▁fort",
        -9.56378996443969
      ],
      [
        "ul.",
        -9.564197998128222
      ],
      [
        "▁Teg",
        -9.564641563866932
      ],
      [
        "▁prière",
        -9.565258153368905
      ],
      [
        "▁chef",
        -9.565688037000575
      ],
      [
        "▁lal",
        -9.56724950360873
      ],
      [
        "▁woy",
        -9.568324950072665
      ],
      [
        "uloo",
        -9.56937971396314
      ],
      [
        "▁Apporte",
        -9.571774699993865
      ],
      [
        "▁màtt",
        -9.57199869683968
      ],
      [
        "▁Viens",
        -9.573247300731378
      ],
      [
        "▁Wànte",
        -9.573249229172898
      ],
      [
        "▁téere",
        -9.573373030713029
      ],
      [
        "▁meilleur",
        -9.573752433437143
      ],
      [
        "▁simplement",
        -9.573872381828387
      ],
      [
        "▁celui-ci",
        -9.573921264393988
      ],
      [
        "▁chaleur",
        -9.573998365662977
      ],
      [
        "▁seetlu",
        -9.574118791163777
      ],
      [
        "▁appris",
        -9.574565161951867
      ],
      [
        "▁ñaw",
        -9.574815360451879
      ],
      [
        "ième",
        -9.57519733193898
      ],
      [
        "-na",
        -9.575834810933186
      ],
      [
        "▁moins",
        -9.576887723222256
      ],
      [
        "▁vas-tu",
        -9.577085530921815
      ],
      [
        "▁faisait",
        -9.57837734409534
      ],
      [
        "▁ngoon",
        -9.578426242297033
      ],
      [
        "▁plaît",
        -9.578854551063154
      ],
      [
        "▁nekkoon",
        -9.579202379074331
      ],
      [
        "▁brousse",
        -9.579211540900852
      ],
      [
        "▁circoncis",
        -9.579952424431909
      ],
      [
        "▁prends",
        -9.580024059708126
      ],
      [
        "▁n'arrête",
        -9.580198723777341
      ],
      [
        "▁mois",
        -9.580586822261145
      ],
      [
        "▁compte",
        -9.58113904969169
      ],
      [
        "▁viens",
        -9.581530361149898
      ],
      [
        "▁assez",
        -9.581908696509071
      ],
      [
        "▁Ici",
        -9.58239688178391
      ],
      [
        "▁dëkke",
        -9.584396541821079
      ],
      [
        "▁bouillie",
        -9.586145320781913
      ],
      [
        "▁gerte",
        -9.587064298599037
      ],
      [
        "▁fera",
        -9.587363520690669
      ],
      [
        "aire",
        -9.590221446402369
      ],
      [
        "▁coté",
        -9.590759000693964
      ],
      [
        "▁murs",
        -9.591069403025909
      ],
      [
        "▁l'as",
        -9.591611942251905
      ],
      [
        "▁gént",
        -9.592838919916579
      ],
      [
        "aa",
        -9.592926351841324
      ],
      [
        "ab",
        -9.593161216706978
      ],
      [
        "▁tëb",
        -9.593441467270903
      ],
      [
        "▁Par",
        -9.593452055145478
      ],
      [
        "▁kay",
        -9.59590076306176
      ],
      [
        "▁téye",
        -9.596562860447332
      ],
      [
        "▁ndey",
        -9.599644529403028
      ],
      [
        "▁ñaan",
        -9.599754218170018
      ],
      [
        "▁bëggul",
        -9.600930498415744
      ],
      [
        "▁Mes",
        -9.60194726019565
      ],
      [
        "▁tombe",
        -9.603508830882145
      ],
      [
        "wu",
        -9.604168099712716
      ],
      [
        "▁diis",
        -9.607074299561534
      ],
      [
        "▁tué",
        -9.607206635444646
      ],
      [
        "▁Qu",
        -9.608063251935098
      ],
      [
        "▁nak",
        -9.608786735728815
      ],
      [
        "▁Nu",
        -9.6099381066809
      ],
      [
        "▁connais",
        -9.61189735020408
      ],
      [
        "aar",
        -9.613282497577178
      ],
      [
        "ent.",
        -9.613394974931085
      ],
      [
        "▁vivre",
        -9.614052487724061
      ],
      [
        "▁yàqu",
        -9.614520015937181
      ],
      [
        "▁ét",
        -9.614745899924335
      ],
      [
        "▁jur",
        -9.616809834576014
      ],
      [
        "▁vieille",
        -9.616843356363333
      ],
      [
        "▁pot",
        -9.617578709964112
      ],
      [
        "fin",
        -9.617979814983581
      ],
      [
        "▁tëdd",
        -9.618919847115798
      ],
      [
        "▁tour",
        -9.61995471264655
      ],
      [
        "▁jëkkër",
        -9.620324631852538
      ],
      [
        "▁Ave",
        -9.622556078937537
      ],
      [
        "▁Móris",
        -9.623129448042606
      ],
      [
        "▁gunóor",
        -9.623308742782157
      ],
      [
        "▁bëñ",
        -9.623368428254004
      ],
      [
        "▁mouillé",
        -9.62337380436999
      ],
      [
        "▁marmite",
        -9.6233840866349
      ],
      [
        "▁l'herbe",
        -9.623408828036132
      ],
      [
        "▁nombreux",
        -9.62360588690774
      ],
      [
        "▁Maintenant",
        -9.623607630794012
      ],
      [
        "▁doom-aadama",
        -9.623673556016856
      ],
      [
        "▁appelle",
        -9.623697595246572
      ],
      [
        "▁Keneen",
        -9.623875270023937
      ],
      [
        "▁këram",
        -9.624672720527373
      ],
      [
        "▁mburu",
        -9.62482433679304
      ],
      [
        "▁bépp",
        -9.625581582142702
      ],
      [
        "▁commencé",
        -9.626092933213236
      ],
      [
        "▁commerce",
        -9.62651645858561
      ],
      [
        "▁Niseryaa",
        -9.626659662275213
      ],
      [
        "▁bëggoon",
        -9.626977188030986
      ],
      [
        "▁pourquoi",
        -9.627610836960613
      ],
      [
        "▁devait",
        -9.627653518057969
      ],
      [
        "▁romb",
        -9.627887090783249
      ],
      [
        "▁tel",
        -9.628049031867944
      ],
      [
        "▁niroo",
        -9.628993889125068
      ],
      [
        "▁relations",
        -9.630005403576387
      ],
      [
        "▁Samba",
        -9.631925664394721
      ],
      [
        "▁song",
        -9.632023964516963
      ],
      [
        "▁Sunu",
        -9.633594983546708
      ],
      [
        "▁golo",
        -9.634104940496526
      ],
      [
        "▁aurait",
        -9.634439112349728
      ],
      [
        "▁portent",
        -9.635575111906956
      ],
      [
        "▁trouver",
        -9.636004580504716
      ],
      [
        "▁V",
        -9.636133529485274
      ],
      [
        "▁màndi",
        -9.637025722640479
      ],
      [
        "▁maanaa",
        -9.637188185270917
      ],
      [
        "▁Foo",
        -9.637693675178843
      ],
      [
        "▁battu",
        -9.638636839065672
      ],
      [
        "▁yéeg",
        -9.639111868347607
      ],
      [
        "▁Danu",
        -9.639354264184142
      ],
      [
        "▁celle",
        -9.640932167304026
      ],
      [
        "▁parents",
        -9.641102481483061
      ],
      [
        "▁jiit",
        -9.641472074164474
      ],
      [
        "▁Ndar",
        -9.641982895176236
      ],
      [
        "▁sortir",
        -9.641994782287256
      ],
      [
        "▁nun",
        -9.642280578797697
      ],
      [
        "▁daje",
        -9.642790826193904
      ],
      [
        "▁Vo",
        -9.643311681663707
      ],
      [
        "▁x",
        -9.643539984329125
      ],
      [
        "▁puisse",
        -9.643564268891101
      ],
      [
        "▁Voil",
        -9.644700877669052
      ],
      [
        "▁ventre",
        -9.644717970999015
      ],
      [
        "▁xew",
        -9.645996108321487
      ],
      [
        "▁tefes",
        -9.647854012364984
      ],
      [
        "▁n'aime",
        -9.64840328932267
      ],
      [
        "▁feebar",
        -9.648445154336066
      ],
      [
        "koon",
        -9.649870571818774
      ],
      [
        "▁xa",
        -9.649969079833438
      ],
      [
        "▁dëgër",
        -9.651036870102896
      ],
      [
        "▁Kañ",
        -9.6523360782054
      ],
      [
        "▁seeti",
        -9.65332633135716
      ],
      [
        "▁doomu",
        -9.655136490833113
      ],
      [
        "'habitude",
        -9.65526082373152
      ],
      [
        "▁garde",
        -9.658422769420977
      ],
      [
        "▁nez",
        -9.658548333035407
      ],
      [
        "avais",
        -9.658675818721598
      ],
      [
        "▁jékk",
        -9.659026168919738
      ],
      [
        "▁regard",
        -9.66109837713633
      ],
      [
        "▁adulte",
        -9.661170382226969
      ],
      [
        "-il",
        -9.661953535753703
      ],
      [
        "▁wutal",
        -9.662070215817737
      ],
      [
        "▁baaraam",
        -9.663369999037561
      ],
      [
        "▁Ñoo",
        -9.66357447965217
      ],
      [
        "û",
        -9.663808183027054
      ],
      [
        "▁biens",
        -9.6648622340103
      ],
      [
        "▁mari",
        -9.665548091522389
      ],
      [
        "▁mas",
        -9.66579032441232
      ],
      [
        "▁tolloo",
        -9.667037122161892
      ],
      [
        "maa",
        -9.669578882550564
      ],
      [
        "▁jar",
        -9.670257448163657
      ],
      [
        "▁mbaam",
        -9.670407202317648
      ],
      [
        "▁jaan",
        -9.671308030862466
      ],
      [
        "▁début",
        -9.675705985667129
      ],
      [
        "▁Arrête",
        -9.675801144010503
      ],
      [
        "▁mbedd",
        -9.675822142935967
      ],
      [
        "▁nouveau",
        -9.675904238717212
      ],
      [
        "▁Nigeria",
        -9.67595056143382
      ],
      [
        "▁souviens",
        -9.675968995386576
      ],
      [
        "▁ndaje",
        -9.67619487089199
      ],
      [
        "▁màngo",
        -9.676292887163562
      ],
      [
        "▁voix",
        -9.677456304278824
      ],
      [
        "añoo",
        -9.677572117162352
      ],
      [
        "▁féete",
        -9.677694210953948
      ],
      [
        "▁Bansoo",
        -9.677785629441528
      ],
      [
        "▁Noonu",
        -9.67942891993055
      ],
      [
        "▁vécu",
        -9.679564206362622
      ],
      [
        "▁booba",
        -9.68024144724087
      ],
      [
        "▁woowu",
        -9.68054688836904
      ],
      [
        "▁kàddu",
        -9.682654604817765
      ],
      [
        "▁weñ",
        -9.683585484550003
      ],
      [
        "re.",
        -9.684972415650995
      ],
      [
        "▁Ndakaaru",
        -9.68533364000199
      ],
      [
        "ici",
        -9.685800443720854
      ],
      [
        "▁d'ici",
        -9.68616388176492
      ],
      [
        "▁deret",
        -9.68634957235204
      ],
      [
        "vient",
        -9.686549477568718
      ],
      [
        "▁rendu",
        -9.686700891062728
      ],
      [
        "▁oreilles",
        -9.68767264439093
      ],
      [
        "▁àgg",
        -9.689099767970337
      ],
      [
        "▁lampe",
        -9.68981729097245
      ],
      [
        "▁ng",
        -9.690298890543112
      ],
      [
        "▁bien.",
        -9.691352091678302
      ],
      [
        "▁deme",
        -9.691541528978766
      ],
      [
        "▁mar",
        -9.693303579991845
      ],
      [
        "▁Moi",
        -9.695239301963852
      ],
      [
        "▁sér",
        -9.695584084068559
      ],
      [
        "▁D'",
        -9.697846737512748
      ],
      [
        "▁defal",
        -9.698731029910917
      ],
      [
        "▁regarde",
        -9.698758178724349
      ],
      [
        "▁géej",
        -9.699403636528253
      ],
      [
        "▁baobab",
        -9.699420423574894
      ],
      [
        "▁quel",
        -9.70713793520888
      ],
      [
        "a.",
        -9.70760110178872
      ],
      [
        "▁doomam",
        -9.707651731259322
      ],
      [
        "▁alal",
        -9.70901864630903
      ],
      [
        "▁yokk",
        -9.709040182440969
      ],
      [
        "▁bâton",
        -9.709865073002641
      ],
      [
        "▁Gor",
        -9.710279092372192
      ],
      [
        "▁chasse",
        -9.711591332245668
      ],
      [
        "▁pantalon",
        -9.71167706837932
      ],
      [
        "▁Woto",
        -9.711820901096514
      ],
      [
        "▁per",
        -9.711925418097247
      ],
      [
        "oivent",
        -9.714915309603011
      ],
      [
        "em",
        -9.71742439600983
      ],
      [
        "▁wér",
        -9.717927039227574
      ],
      [
        "▁rivière",
        -9.719000722504322
      ],
      [
        "▁partira",
        -9.722798926840081
      ],
      [
        "▁langue",
        -9.722922257378364
      ],
      [
        "▁Enlève",
        -9.723559353612625
      ],
      [
        "n.",
        -9.723976292775617
      ],
      [
        "▁charge",
        -9.72539074615919
      ],
      [
        "▁in",
        -9.726200630713747
      ],
      [
        "yu",
        -9.728997331230838
      ],
      [
        "▁voici",
        -9.72901389297041
      ],
      [
        "-ci",
        -9.730024271957516
      ],
      [
        "▁tar",
        -9.730164409805335
      ],
      [
        "▁bal",
        -9.730291658116364
      ],
      [
        "▁morceau",
        -9.73036987309878
      ],
      [
        "▁néew",
        -9.730717112944326
      ],
      [
        "▁caillé",
        -9.731248422910017
      ],
      [
        "▁préfère",
        -9.73134144016013
      ],
      [
        "▁l'école",
        -9.731361782203614
      ],
      [
        "▁l'Ouest",
        -9.731370448503068
      ],
      [
        "▁weesoo",
        -9.73147340943681
      ],
      [
        "▁tranquille",
        -9.731561190234153
      ],
      [
        "▁kayit",
        -9.732334975694735
      ],
      [
        "▁delloo",
        -9.732359197565394
      ],
      [
        "▁passage",
        -9.73254554309911
      ],
      [
        "▁Laobe",
        -9.73271885018161
      ],
      [
        "▁resté",
        -9.732857850793726
      ],
      [
        "▁foo",
        -9.733011142775469
      ],
      [
        "▁fetal",
        -9.73305708765271
      ],
      [
        "▁soient",
        -9.733200892935258
      ],
      [
        "▁propre",
        -9.73387125774087
      ],
      [
        "▁mépp",
        -9.73507528720301
      ],
      [
        "▁meew",
        -9.735084889304293
      ],
      [
        "▁dehors",
        -9.735177278682324
      ],
      [
        "'avoir",
        -9.735831382607632
      ],
      [
        "▁agsee",
        -9.73610321951033
      ],
      [
        "▁monde.",
        -9.736176738443847
      ],
      [
        "▁nawet",
        -9.736620922190966
      ],
      [
        "▁Jénda",
        -9.737212284294422
      ],
      [
        "ngi",
        -9.738977513154525
      ],
      [
        "▁xelam",
        -9.739066017599093
      ],
      [
        "▁Aw",
        -9.739783387705284
      ],
      [
        "ël",
        -9.740030911194548
      ],
      [
        "▁yaatu",
        -9.740101483007045
      ],
      [
        "▁Ra",
        -9.740420366342255
      ],
      [
        "▁Kon",
        -9.740611607776497
      ],
      [
        "▁arachides",
        -9.740640735021842
      ],
      [
        "▁jant",
        -9.741560396884445
      ],
      [
        "▁varan",
        -9.742971453490524
      ],
      [
        "▁poudre",
        -9.743773172177548
      ],
      [
        "▁jeu",
        -9.743864360585457
      ],
      [
        "▁for",
        -9.744305642892666
      ],
      [
        "▁plaine",
        -9.744645309355018
      ],
      [
        "▁pense",
        -9.745460697407289
      ],
      [
        "▁mesure",
        -9.746694634728652
      ],
      [
        "▁dirige",
        -9.747394816223832
      ],
      [
        "▁coucher",
        -9.74771173772134
      ],
      [
        "▁argent",
        -9.74797395928231
      ],
      [
        "▁muus",
        -9.748159189059294
      ],
      [
        "▁sàcc",
        -9.748864486670177
      ],
      [
        "▁gars",
        -9.750046225644143
      ],
      [
        "▁garder",
        -9.750749871528646
      ],
      [
        "▁béré",
        -9.750988643443435
      ],
      [
        "▁wàll",
        -9.751198616641686
      ],
      [
        "▁large",
        -9.75286948940538
      ],
      [
        "▁Doom",
        -9.75381076106699
      ],
      [
        "▁rapide",
        -9.75509062198259
      ],
      [
        "àll",
        -9.755168902556909
      ],
      [
        "▁réewu",
        -9.75553928202515
      ],
      [
        "▁avions",
        -9.756936207941465
      ],
      [
        "▁dromadaire",
        -9.757032153393864
      ],
      [
        "▁For",
        -9.757418462099192
      ],
      [
        "▁jéem",
        -9.758602819936021
      ],
      [
        "▁ñor",
        -9.759915223642718
      ],
      [
        "▁bëre",
        -9.760370990216055
      ],
      [
        "▁tàkk",
        -9.762907904119196
      ],
      [
        "ment.",
        -9.764299353627882
      ],
      [
        "▁fàttali",
        -9.765520251117973
      ],
      [
        "▁yax",
        -9.766467072957663
      ],
      [
        "ek",
        -9.77007350333071
      ],
      [
        "▁médicament",
        -9.770376788812381
      ],
      [
        "▁maître",
        -9.770400702288628
      ],
      [
        "▁commence",
        -9.77123725867463
      ],
      [
        "▁am-",
        -9.772660997956422
      ],
      [
        "cc",
        -9.776235347194836
      ],
      [
        "▁pax",
        -9.776429277980458
      ],
      [
        "▁noon",
        -9.77668120098398
      ],
      [
        "saŋ",
        -9.778174525633329
      ],
      [
        "aan.",
        -9.778513642677574
      ],
      [
        "▁Sée",
        -9.778933397975138
      ],
      [
        "▁jën",
        -9.78029246317474
      ],
      [
        "▁blancs",
        -9.783027934144302
      ],
      [
        "▁dootul",
        -9.783038931596117
      ],
      [
        "▁ra",
        -9.783406993032331
      ],
      [
        "▁calme",
        -9.78457025539052
      ],
      [
        "▁morom",
        -9.785091836487862
      ],
      [
        "▁Defa",
        -9.786890605004757
      ],
      [
        "▁Banso",
        -9.787620219109149
      ],
      [
        "▁bakkan",
        -9.787803803632222
      ],
      [
        "▁Êt",
        -9.788775268693573
      ],
      [
        "▁Saint-Louis",
        -9.7892200354291
      ],
      [
        "gal",
        -9.789295249281798
      ],
      [
        "èrent",
        -9.789348413088351
      ],
      [
        "▁Picc",
        -9.789646975136835
      ],
      [
        "▁jardin",
        -9.789939104188068
      ],
      [
        "▁rue",
        -9.790035226110245
      ],
      [
        "▁Tabaski",
        -9.790077938032463
      ],
      [
        "▁violence",
        -9.790125999469918
      ],
      [
        "▁Àngalteer",
        -9.790201676590884
      ],
      [
        "▁ceinture",
        -9.790328829138673
      ],
      [
        "▁allait",
        -9.79048581874935
      ],
      [
        "▁Àngale",
        -9.79071481728608
      ],
      [
        "▁d'Omar",
        -9.790718821737203
      ],
      [
        "iers",
        -9.791013608213628
      ],
      [
        "▁Xaj",
        -9.7911856881766
      ],
      [
        "▁facile",
        -9.791290070159269
      ],
      [
        "▁asamaan",
        -9.791575098197672
      ],
      [
        "▁Mënuma",
        -9.791826200862882
      ],
      [
        "ez-vous",
        -9.792112233453171
      ],
      [
        "▁fanaan",
        -9.792157704564776
      ],
      [
        "▁Kaay",
        -9.7932980012677
      ],
      [
        "▁élevé",
        -9.793304397353424
      ],
      [
        "▁seetaan",
        -9.793676284467379
      ],
      [
        "▁boole",
        -9.794126641029598
      ],
      [
        "▁Combi",
        -9.794245784853445
      ],
      [
        "▁pleurer",
        -9.794468661616598
      ],
      [
        "▁ëtt",
        -9.795471080094838
      ],
      [
        "▁animaux",
        -9.795893574887172
      ],
      [
        "▁sàmm",
        -9.796115667960308
      ],
      [
        "▁monter",
        -9.797456406773492
      ],
      [
        "▁fou",
        -9.797693437446945
      ],
      [
        "▁jaa",
        -9.79848363803958
      ],
      [
        "▁salle",
        -9.798880948833395
      ],
      [
        "▁tontu",
        -9.799473641381907
      ],
      [
        "ité",
        -9.79954676955747
      ],
      [
        "▁forme",
        -9.799946609351322
      ],
      [
        "▁montagnes",
        -9.80082019600787
      ],
      [
        "▁sotti",
        -9.8020465390157
      ],
      [
        "▁l'an",
        -9.803228528790838
      ],
      [
        "▁donc",
        -9.803755585474484
      ],
      [
        "▁jóg",
        -9.804045309419301
      ],
      [
        "▁tire",
        -9.80437960359341
      ],
      [
        "▁entré",
        -9.80445761176759
      ],
      [
        "▁rappelle",
        -9.80451112391097
      ],
      [
        "▁café",
        -9.806837593846545
      ],
      [
        "▁Dina",
        -9.808017220972182
      ],
      [
        "▁prochain",
        -9.808375466518518
      ],
      [
        "▁âge",
        -9.808421948899904
      ],
      [
        "▁danu",
        -9.80856405814863
      ],
      [
        "▁vendu",
        -9.808827850743734
      ],
      [
        "▁séché",
        -9.808920172477718
      ],
      [
        "▁raxas",
        -9.810533918302905
      ],
      [
        "▁lorsqu",
        -9.810777760227975
      ],
      [
        "▁xóot",
        -9.810920369368375
      ],
      [
        "▁Toi",
        -9.81127014574466
      ],
      [
        "▁jëkka",
        -9.811298402917844
      ],
      [
        "part",
        -9.81344886877913
      ],
      [
        "▁tubaab",
        -9.815616854779526
      ],
      [
        "▁plat",
        -9.815740337242342
      ],
      [
        "▁queue",
        -9.817233579895962
      ],
      [
        "▁taxul",
        -9.817751848228433
      ],
      [
        "▁Xan",
        -9.81832880837129
      ],
      [
        "▁gar",
        -9.819296184427353
      ],
      [
        "▁kaas",
        -9.820062315546553
      ],
      [
        "▁të",
        -9.821842600244466
      ],
      [
        "▁Moytul",
        -9.822804820518956
      ],
      [
        "ans",
        -9.823285938220044
      ],
      [
        "▁Saa",
        -9.823888205068208
      ],
      [
        "▁fekke",
        -9.824596518940838
      ],
      [
        "▁dëkki",
        -9.82463932048503
      ],
      [
        "▁jàll",
        -9.825282484827286
      ],
      [
        "▁do",
        -9.825366705781885
      ],
      [
        "▁I",
        -9.825813065905493
      ],
      [
        "▁julli",
        -9.826795288978529
      ],
      [
        "▁acheter",
        -9.826801775149882
      ],
      [
        "▁rëdd",
        -9.828318814151826
      ],
      [
        "kk",
        -9.828395424381608
      ],
      [
        "▁Re",
        -9.828458245937094
      ],
      [
        "▁njaay",
        -9.82857753551994
      ],
      [
        "▁garçon",
        -9.828751867472347
      ],
      [
        "▁affaires",
        -9.829507227875322
      ],
      [
        "▁Mets-",
        -9.830059855256359
      ],
      [
        "▁daj",
        -9.830145879008809
      ],
      [
        "▁kanam.",
        -9.830761017348589
      ],
      [
        "▁faa",
        -9.830909133486353
      ],
      [
        "rent",
        -9.831263838106441
      ],
      [
        "▁mur",
        -9.832633166281209
      ],
      [
        "▁pourrai",
        -9.832783853046195
      ],
      [
        "▁bo",
        -9.834177331007309
      ],
      [
        "▁tambour",
        -9.834377977952753
      ],
      [
        "▁repas",
        -9.834661599216908
      ],
      [
        "▁Xaw",
        -9.835861760060572
      ],
      [
        "▁maladie",
        -9.83738553342209
      ],
      [
        "▁livre",
        -9.83784233743112
      ],
      [
        "oor",
        -9.838271792082685
      ],
      [
        "▁tëgg",
        -9.8399012922532
      ],
      [
        "▁Lekk",
        -9.840011885328671
      ],
      [
        "▁cou",
        -9.840775240230869
      ],
      [
        "▁Là",
        -9.841397879183894
      ],
      [
        "▁parlait",
        -9.84241495092597
      ],
      [
        "▁Xamu",
        -9.842621484586832
      ],
      [
        "▁Mag",
        -9.843037683286711
      ],
      [
        "vais",
        -9.84320041386308
      ],
      [
        "▁bleu",
        -9.843381172828186
      ],
      [
        "▁villages",
        -9.843437790450679
      ],
      [
        "ire",
        -9.84490677714355
      ],
      [
        "▁bas",
        -9.847117397296918
      ],
      [
        "t-il",
        -9.847755335279611
      ],
      [
        "▁retour",
        -9.849010240548434
      ],
      [
        "▁way-jur",
        -9.849405281212839
      ],
      [
        "▁Bala",
        -9.851122726276568
      ],
      [
        "▁dëkku",
        -9.851253401914338
      ],
      [
        "▁elles",
        -9.85165134690417
      ],
      [
        "▁làmp",
        -9.85210625056607
      ],
      [
        "▁piège",
        -9.852142273472236
      ],
      [
        "▁Moussa",
        -9.852297126521645
      ],
      [
        "▁<mask>",
        -9.852299983757257
      ],
      [
        "▁Mecque",
        -9.85230200027216
      ],
      [
        "▁vérité",
        -9.852309568929954
      ],
      [
        "▁l'âge",
        -9.852409969113374
      ],
      [
        "▁diiwaan",
        -9.852416092554073
      ],
      [
        "▁lëndëm",
        -9.852432883523022
      ],
      [
        "▁dunyaa",
        -9.852433725432242
      ],
      [
        "▁d'argent",
        -9.852513560622029
      ],
      [
        "▁j'irai",
        -9.852558379048379
      ],
      [
        "▁Pourtant",
        -9.852560884889144
      ],
      [
        "▁moroom",
        -9.852580928736678
      ],
      [
        "▁d'abord",
        -9.852593220337367
      ],
      [
        "▁région",
        -9.852761543486707
      ],
      [
        "▁tekk",
        -9.852789053587102
      ],
      [
        "▁Mënul",
        -9.852881742556331
      ],
      [
        "▁préparé",
        -9.852914654701577
      ],
      [
        "▁tangor",
        -9.853240071019103
      ],
      [
        "▁courant",
        -9.8533080079849
      ],
      [
        "▁Appelle",
        -9.853674367402368
      ],
      [
        "▁demkoon",
        -9.85414745104351
      ],
      [
        "'exiler",
        -9.854301506522898
      ],
      [
        "▁caabi",
        -9.85439807081588
      ],
      [
        "▁Booba",
        -9.854504816136311
      ],
      [
        "▁surtout",
        -9.854704538867498
      ],
      [
        "portant",
        -9.85538056750116
      ],
      [
        "▁Bamenda",
        -9.855527045240667
      ],
      [
        "▁kese",
        -9.857046058912381
      ],
      [
        "▁mënoo",
        -9.857310562977446
      ],
      [
        "▁màggat",
        -9.857573425048098
      ],
      [
        "óon",
        -9.857739409805374
      ],
      [
        "▁Njaay",
        -9.857996898697868
      ],
      [
        "▁habit",
        -9.858109620219308
      ],
      [
        "▁Seeta",
        -9.858639434265699
      ],
      [
        "▁dajale",
        -9.859326965727888
      ],
      [
        "▁suukar",
        -9.860405658269302
      ],
      [
        "▁venus",
        -9.860893289201274
      ],
      [
        "▁Passe",
        -9.861822119372311
      ],
      [
        "▁genn",
        -9.862462249378972
      ],
      [
        "▁boog",
        -9.86247643046632
      ],
      [
        "▁tukki",
        -9.862745781643593
      ],
      [
        "▁juróomi",
        -9.862909542722482
      ],
      [
        "▁moy",
        -9.863841326536061
      ],
      [
        "▁yéene",
        -9.86391749258303
      ],
      [
        "▁Ñii",
        -9.864428827277202
      ],
      [
        "▁Doo",
        -9.864749337651372
      ],
      [
        "▁teew",
        -9.8654647788414
      ],
      [
        "▁démb",
        -9.865594638777697
      ],
      [
        "près",
        -9.865763936436402
      ],
      [
        "▁quatre",
        -9.866138478065132
      ],
      [
        "▁néegu",
        -9.867823600961685
      ],
      [
        "▁battre",
        -9.8679558741998
      ],
      [
        "▁mujjee",
        -9.869388519519244
      ],
      [
        "▁ekool",
        -9.869879485436753
      ],
      [
        "▁Nga",
        -9.870119977151601
      ],
      [
        "▁viennent",
        -9.87120039423887
      ],
      [
        "▁Kii",
        -9.87218664318409
      ],
      [
        "▁partis",
        -9.872268313174553
      ],
      [
        "▁rend",
        -9.872860209081383
      ],
      [
        "▁Nag",
        -9.872947164759122
      ],
      [
        "▁poissons",
        -9.87358550989937
      ],
      [
        "la.",
        -9.875451131259808
      ],
      [
        "▁Yaw",
        -9.875592101831675
      ],
      [
        "▁cuit",
        -9.878413546301026
      ],
      [
        "▁sel",
        -9.878781949436608
      ],
      [
        "▁jaam",
        -9.880064782250667
      ],
      [
        "▁ferai",
        -9.88012272606809
      ],
      [
        "▁dig",
        -9.88111257528729
      ],
      [
        "▁filles",
        -9.883504463962062
      ],
      [
        "▁doomi",
        -9.885032340104964
      ],
      [
        "▁aucune",
        -9.886685260867349
      ],
      [
        "▁jotee",
        -9.88707220337994
      ],
      [
        "▁Achète",
        -9.888008932305011
      ],
      [
        "pas",
        -9.89105370060597
      ],
      [
        "▁denc",
        -9.893503518904033
      ],
      [
        "▁sorti",
        -9.89508770027209
      ],
      [
        "▁joue",
        -9.895696521201675
      ],
      [
        "▁No",
        -9.896000419678424
      ],
      [
        "▁taxa",
        -9.896486578182557
      ],
      [
        "▁parles",
        -9.897874305369616
      ],
      [
        "▁d'en",
        -9.898101202338086
      ],
      [
        "▁neen",
        -9.899384599887412
      ],
      [
        "us",
        -9.899396804243187
      ],
      [
        "▁xéy",
        -9.899435828320234
      ],
      [
        "»",
        -9.899499356147363
      ],
      [
        "▁ëmb",
        -9.901517713632803
      ],
      [
        "▁coupé",
        -9.901594753683002
      ],
      [
        "▁tenir",
        -9.902101514023869
      ],
      [
        "▁reconnais",
        -9.902809386978653
      ],
      [
        "▁diw",
        -9.903609743543337
      ],
      [
        "▁noirs",
        -9.904275575874841
      ],
      [
        "▁visite",
        -9.904503635668807
      ],
      [
        "kër",
        -9.904905284663387
      ],
      [
        "▁jafe",
        -9.905824630674612
      ],
      [
        "▁branche",
        -9.906650727231645
      ],
      [
        "aller",
        -9.907291982312888
      ],
      [
        "▁booy",
        -9.907993988556345
      ],
      [
        "▁xob",
        -9.908819811348405
      ],
      [
        "▁rester",
        -9.909400879948167
      ],
      [
        "ces",
        -9.91035905961851
      ],
      [
        "▁soog",
        -9.910729639646814
      ],
      [
        "▁naaw",
        -9.911904789306877
      ],
      [
        "aayu",
        -9.914184669968517
      ],
      [
        "▁ñan",
        -9.914885348793291
      ],
      [
        "▁mujje",
        -9.916490306300183
      ],
      [
        "laata",
        -9.91719203962164
      ],
      [
        "▁fee",
        -9.917396383942275
      ],
      [
        "▁palanteer",
        -9.91800875124163
      ],
      [
        "ion",
        -9.918098055091626
      ],
      [
        "▁Ñów",
        -9.918200229763293
      ],
      [
        "▁Yow",
        -9.91840691382552
      ],
      [
        "tion",
        -9.91855724496509
      ],
      [
        "▁rëcc",
        -9.918643038049765
      ],
      [
        "▁grâce",
        -9.918674805929616
      ],
      [
        "▁House",
        -9.91868168654652
      ],
      [
        "▁làrme",
        -9.918714127208183
      ],
      [
        "▁Aucun",
        -9.918739636594475
      ],
      [
        "▁l'aube",
        -9.918864812499086
      ],
      [
        "▁choisi",
        -9.91888220799176
      ],
      [
        "▁soldaar",
        -9.918915912088538
      ],
      [
        "▁mémoire",
        -9.918919818925172
      ],
      [
        "▁gis-gis",
        -9.918937312595428
      ],
      [
        "▁l'armée",
        -9.91894226771128
      ],
      [
        "▁chevaux",
        -9.918947510915704
      ],
      [
        "▁Seigneur",
        -9.919003620755255
      ],
      [
        "▁renversé",
        -9.919015810036752
      ],
      [
        "▁toppatoo",
        -9.919054202713433
      ],
      [
        "▁fourneau",
        -9.919069426318691
      ],
      [
        "▁l'esprit",
        -9.919089450158713
      ],
      [
        "▁déjeuner",
        -9.919147208802631
      ],
      [
        "▁appelé",
        -9.919185835743278
      ],
      [
        "▁j'étais",
        -9.919291885022876
      ],
      [
        "▁l'hôpital",
        -9.919303974202409
      ],
      [
        "▁l'endroit",
        -9.919418036258064
      ],
      [
        "▁xàmmee",
        -9.92036348535175
      ],
      [
        "▁Laisse",
        -9.920793214437325
      ],
      [
        "▁xuus",
        -9.920836921181142
      ],
      [
        "▁partout",
        -9.920929613463034
      ],
      [
        "▁Noo",
        -9.922166062730279
      ],
      [
        "sa",
        -9.92218028651974
      ],
      [
        "▁ňaar",
        -9.922501850864224
      ],
      [
        "▁kilifa",
        -9.92361424798202
      ],
      [
        "▁maisons",
        -9.923996703622734
      ],
      [
        "▁ñaaw",
        -9.924024583551255
      ],
      [
        "▁dirait",
        -9.924127315907356
      ],
      [
        "▁ñett",
        -9.92484565254741
      ],
      [
        "▁tëj",
        -9.925446981358881
      ],
      [
        "▁ràbb",
        -9.925467180975275
      ],
      [
        "▁ser",
        -9.92628141003806
      ],
      [
        "▁fenn",
        -9.926791558915642
      ],
      [
        "▁paille",
        -9.927106654894764
      ],
      [
        "▁entier",
        -9.927625818147428
      ],
      [
        "▁oncle",
        -9.927703581077797
      ],
      [
        "▁pars",
        -9.928544612304584
      ],
      [
        "▁wute",
        -9.928781302701013
      ],
      [
        "▁feeñ",
        -9.931206244172259
      ],
      [
        "▁Fomp",
        -9.931555605445968
      ],
      [
        "▁Toute",
        -9.931711379845733
      ],
      [
        "▁chaud",
        -9.935313736219577
      ],
      [
        "▁avez",
        -9.93589263311094
      ],
      [
        "▁pourra",
        -9.939516906476818
      ],
      [
        "▁warul",
        -9.939834300496162
      ],
      [
        "▁fil",
        -9.940313976728222
      ],
      [
        "▁difficile",
        -9.940750099992249
      ],
      [
        "ñoo",
        -9.941146684949533
      ],
      [
        "▁ñuul.",
        -9.942328497514513
      ],
      [
        "▁liggéeye",
        -9.943471438875001
      ],
      [
        "▁ron",
        -9.944012390848101
      ],
      [
        "mb",
        -9.944114874734627
      ],
      [
        "▁sopp",
        -9.945172127698115
      ],
      [
        "ure",
        -9.945244474465841
      ],
      [
        "▁fóot",
        -9.945867050143796
      ],
      [
        "▁proche",
        -9.946183114434227
      ],
      [
        "▁riir",
        -9.94618481160464
      ],
      [
        "▁commencer",
        -9.947162769861025
      ],
      [
        "▁mille",
        -9.947375028559213
      ],
      [
        "▁Naan",
        -9.947746633765764
      ],
      [
        "▁po",
        -9.948036226324469
      ],
      [
        "▁jaune",
        -9.949022738083393
      ],
      [
        "▁Nd",
        -9.949934377777055
      ],
      [
        "▁jàngal",
        -9.950008868217957
      ],
      [
        "▁see",
        -9.95034965143113
      ],
      [
        "▁sort",
        -9.951560935723602
      ],
      [
        "ottali",
        -9.951728062928266
      ],
      [
        "▁set",
        -9.952468868544155
      ],
      [
        "▁jënd",
        -9.952560348907278
      ],
      [
        "▁ëe",
        -9.953126248061812
      ],
      [
        "▁manque",
        -9.954278365438688
      ],
      [
        "uy",
        -9.957042632603564
      ],
      [
        "f.",
        -9.958368788780636
      ],
      [
        "jj",
        -9.958769930640099
      ],
      [
        "▁doigt",
        -9.959583293799925
      ],
      [
        "▁Dis",
        -9.96162540867302
      ],
      [
        "▁ñii",
        -9.961719170470872
      ],
      [
        "▁tekki",
        -9.962339889251151
      ],
      [
        "▁bul",
        -9.963231803187515
      ],
      [
        "waat",
        -9.963510162179585
      ],
      [
        "▁ex",
        -9.964648573734271
      ],
      [
        "▁fusil",
        -9.964745123089294
      ],
      [
        "▁Dégg",
        -9.965533694576889
      ],
      [
        "▁dayo",
        -9.966535306858074
      ],
      [
        "indil",
        -9.968420307611431
      ],
      [
        "▁tirer",
        -9.969913949390325
      ],
      [
        "▁coupe",
        -9.970177696839986
      ],
      [
        "ewul",
        -9.970293875166263
      ],
      [
        "▁dënn",
        -9.973376553669038
      ],
      [
        "▁wadd",
        -9.974230135772988
      ],
      [
        "▁lim",
        -9.974411176060528
      ],
      [
        "▁mba",
        -9.975195967349027
      ],
      [
        "▁cours",
        -9.97615268952942
      ],
      [
        "▁j'en",
        -9.976476354902196
      ],
      [
        "▁souvenir",
        -9.97715165016082
      ],
      [
        "leur",
        -9.977453143634607
      ],
      [
        "▁bett",
        -9.977876685121185
      ],
      [
        "▁clé",
        -9.978436251185503
      ],
      [
        "atum",
        -9.981069561276774
      ],
      [
        "aale",
        -9.98295956341657
      ],
      [
        "▁grands",
        -9.984058668599548
      ],
      [
        "ême",
        -9.984949437991284
      ],
      [
        "▁malade",
        -9.985255943464368
      ],
      [
        "▁telle",
        -9.985983199164057
      ],
      [
        "▁gaañ",
        -9.986007878515895
      ],
      [
        "▁jolie",
        -9.986757342694185
      ],
      [
        "▁couper",
        -9.986882451497864
      ],
      [
        "▁remis",
        -9.98933394526365
      ],
      [
        "▁cadeau",
        -9.989582615816563
      ],
      [
        "▁wàññi",
        -9.989784475622987
      ],
      [
        "▁wirgo",
        -9.989951146446336
      ],
      [
        "▁faudra",
        -9.990051443992066
      ],
      [
        "▁wacc",
        -9.99006623923315
      ],
      [
        "▁Kawlax",
        -9.99008096480083
      ],
      [
        "▁jamano",
        -9.99008454387972
      ],
      [
        "▁ndigg",
        -9.990101453661584
      ],
      [
        "▁waar",
        -9.990124065502533
      ],
      [
        "▁bërëb",
        -9.990161094491004
      ],
      [
        "▁soudain",
        -9.990176012355207
      ],
      [
        "▁liberté",
        -9.990180023756322
      ],
      [
        "▁Kaolack",
        -9.990182986222823
      ],
      [
        "▁palais",
        -9.990194165701228
      ],
      [
        "-je",
        -9.990205151835937
      ],
      [
        "▁enceinte",
        -9.990259045367358
      ],
      [
        "▁L'oiseau",
        -9.990265570929497
      ],
      [
        "▁théière",
        -9.990281578849755
      ],
      [
        "▁Réew",
        -9.99030340220218
      ],
      [
        "▁Ceux-là",
        -9.990325601648387
      ],
      [
        "▁caractère",
        -9.990341738916271
      ],
      [
        "▁dernière",
        -9.99034982963431
      ],
      [
        "▁xar-kanam",
        -9.99035452486728
      ],
      [
        "▁nourriture",
        -9.99038427806978
      ],
      [
        "▁farine",
        -9.990467208730049
      ],
      [
        "▁këll",
        -9.99046846230117
      ],
      [
        "▁l'instant",
        -9.990586941018783
      ],
      [
        "▁boroom",
        -9.990768603336372
      ],
      [
        "▁demandé",
        -9.990851967962653
      ],
      [
        "▁mbër",
        -9.991067526523992
      ],
      [
        "▁Weer",
        -9.991375267588225
      ],
      [
        "▁bëtt",
        -9.991517410949777
      ],
      [
        "▁Musaa",
        -9.991577062066774
      ],
      [
        "▁naqar",
        -9.991596257842481
      ],
      [
        "▁yuuxu",
        -9.991675177619667
      ],
      [
        "▁bukki",
        -9.99171042053218
      ],
      [
        "▁fasse",
        -9.992083247187962
      ],
      [
        "▁to",
        -9.992287747936459
      ],
      [
        "▁loxoom",
        -9.992482667121928
      ],
      [
        "▁Yéen",
        -9.992776686119358
      ],
      [
        "▁làkk",
        -9.992929244263372
      ],
      [
        "▁jub",
        -9.992932087850573
      ],
      [
        "mal",
        -9.99358188712224
      ],
      [
        "able",
        -9.99363523743712
      ],
      [
        "▁autrement",
        -9.993780826893143
      ],
      [
        "▁baxa",
        -9.994207375749236
      ],
      [
        "ch",
        -9.994210132302333
      ],
      [
        "▁Walla",
        -9.994211026317211
      ],
      [
        "▁prix",
        -9.995000923350698
      ],
      [
        "▁taxoon",
        -9.995042997368666
      ],
      [
        "▁Mar",
        -9.99553347996277
      ],
      [
        "▁Xel",
        -9.995660095621123
      ],
      [
        "gu",
        -9.995697806922593
      ],
      [
        "▁Suba",
        -9.995853239331995
      ],
      [
        "▁meloon",
        -9.996379245196879
      ],
      [
        "▁mb",
        -9.996605703647573
      ],
      [
        "▁l'âne",
        -9.996755766265396
      ],
      [
        "▁caillou",
        -9.99680772751869
      ],
      [
        "▁Yen",
        -9.997690833641919
      ],
      [
        "▁feneen",
        -9.997700236990571
      ],
      [
        "▁époque",
        -9.99915804168826
      ],
      [
        "▁waroon",
        -9.999249101322535
      ],
      [
        "▁court",
        -9.999930852175172
      ],
      [
        "▁Noona",
        -9.99998389712269
      ],
      [
        "▁juste",
        -10.00011158528592
      ],
      [
        "▁bëy",
        -10.002202029624037
      ],
      [
        "▁waañ",
        -10.0023021412457
      ],
      [
        "▁yenn",
        -10.002803269422476
      ],
      [
        "▁luy",
        -10.003117866784155
      ],
      [
        "▁menn",
        -10.00318235784436
      ],
      [
        "▁prêt",
        -10.003874661474518
      ],
      [
        "▁yaw",
        -10.005174156699622
      ],
      [
        "▁Wa",
        -10.005377600914997
      ],
      [
        "▁samp",
        -10.00601937471446
      ],
      [
        "▁thé",
        -10.007009224321019
      ],
      [
        "▁gémmiñ",
        -10.007501110786787
      ],
      [
        "▁gendarmes",
        -10.007606217999422
      ],
      [
        "auras",
        -10.008907435716306
      ],
      [
        "▁wow",
        -10.009159305152377
      ],
      [
        "▁sori",
        -10.009342558180471
      ],
      [
        "▁jeté",
        -10.010255197778147
      ],
      [
        "▁Fo",
        -10.013931164905582
      ],
      [
        "▁kilo",
        -10.015140884885705
      ],
      [
        "▁pënd",
        -10.015285526500913
      ],
      [
        "▁ren",
        -10.016393271004777
      ],
      [
        "▁l'eff",
        -10.016522391494506
      ],
      [
        "bal",
        -10.017382436156023
      ],
      [
        "▁Bii",
        -10.017983826822512
      ],
      [
        "▁beek",
        -10.01861032826663
      ],
      [
        "ju",
        -10.019053283216238
      ],
      [
        "▁Ñaa",
        -10.02025013109878
      ],
      [
        "▁yeew",
        -10.020876013818947
      ],
      [
        "▁doigts",
        -10.021377457994117
      ],
      [
        "▁perdu",
        -10.022054945644337
      ],
      [
        "▁sii",
        -10.02319564031905
      ],
      [
        "▁natt",
        -10.026853662875368
      ],
      [
        "sant",
        -10.027218411254715
      ],
      [
        "▁laisses",
        -10.027759073999492
      ],
      [
        "▁njëkk",
        -10.028133466852829
      ],
      [
        "▁clair",
        -10.028354131361237
      ],
      [
        "▁Non",
        -10.028502224837343
      ],
      [
        "▁H",
        -10.029271525659263
      ],
      [
        "▁xat",
        -10.029625066881
      ],
      [
        "ton",
        -10.03015339408915
      ],
      [
        "▁Dé",
        -10.031353821561448
      ],
      [
        "▁dexu",
        -10.032594135946853
      ],
      [
        "iez",
        -10.033234801384125
      ],
      [
        "▁jee",
        -10.0334739506643
      ],
      [
        "▁Lan",
        -10.033635463005881
      ],
      [
        "rai",
        -10.033812181559956
      ],
      [
        "▁Gàdd",
        -10.034500706596448
      ],
      [
        "▁l'on",
        -10.03472488451473
      ],
      [
        "▁vi",
        -10.035904923914138
      ],
      [
        "bi.",
        -10.036392228564646
      ],
      [
        "▁nëbb",
        -10.036524829507727
      ],
      [
        "▁yab",
        -10.037746757841806
      ],
      [
        "▁tund",
        -10.037944511412233
      ],
      [
        "▁reer",
        -10.03896747672349
      ],
      [
        "▁gise",
        -10.039377459851782
      ],
      [
        "▁fruit",
        -10.039645184104858
      ],
      [
        "▁mucc",
        -10.039822556163625
      ],
      [
        "▁col",
        -10.0401133257979
      ],
      [
        "▁sab",
        -10.040419298116468
      ],
      [
        "éeréer",
        -10.040504592876154
      ],
      [
        "▁sou",
        -10.040752596873745
      ],
      [
        "▁sonn",
        -10.041404568355262
      ],
      [
        "▁pirogue",
        -10.042433608792782
      ],
      [
        "▁wàcc",
        -10.042535782149239
      ],
      [
        "▁entrer",
        -10.042675634358364
      ],
      [
        "▁tant",
        -10.043634126294432
      ],
      [
        "▁accroché",
        -10.043634129188888
      ],
      [
        "ependant",
        -10.045244805077932
      ],
      [
        "▁sell",
        -10.045334720289336
      ],
      [
        "▁gaawa",
        -10.045700182301424
      ],
      [
        "om",
        -10.046238414013345
      ],
      [
        "▁con",
        -10.046376446098144
      ],
      [
        "m.",
        -10.047843129351953
      ],
      [
        "▁Seet",
        -10.048425617746691
      ],
      [
        "▁calebasse",
        -10.049563715594093
      ],
      [
        "ň",
        -10.050553956919556
      ],
      [
        "▁mënee",
        -10.051006137035355
      ],
      [
        "▁Voi",
        -10.051486492393439
      ],
      [
        "▁takku",
        -10.051562867630482
      ],
      [
        "▁devenu",
        -10.051645237069582
      ],
      [
        "▁sûr",
        -10.052113961588788
      ],
      [
        "▁juróom",
        -10.052325333143271
      ],
      [
        "▁champs",
        -10.052795462911407
      ],
      [
        "at.",
        -10.053258789846076
      ],
      [
        "▁bool",
        -10.05351890546745
      ],
      [
        "▁sabar",
        -10.053627676057669
      ],
      [
        "▁abal",
        -10.053823657198485
      ],
      [
        "▁chèvre",
        -10.054467699959037
      ],
      [
        "▁Qu'",
        -10.056758782810935
      ],
      [
        "▁ñam",
        -10.0578734664646
      ],
      [
        "▁Avan",
        -10.062523532320709
      ],
      [
        "'en",
        -10.062874884045407
      ],
      [
        "▁yëf",
        -10.065741335881746
      ],
      [
        "ook",
        -10.065761241235869
      ],
      [
        "▁chapeau",
        -10.06644701857876
      ],
      [
        "▁Wolof",
        -10.066708027740596
      ],
      [
        "▁Homme",
        -10.066740840094546
      ],
      [
        "▁canari",
        -10.06675179326476
      ],
      [
        "▁Lawbe",
        -10.066788888128242
      ],
      [
        "▁plage",
        -10.066790348790693
      ],
      [
        "▁rawati",
        -10.06691464921078
      ],
      [
        "▁tam-tam",
        -10.066920228430225
      ],
      [
        "▁mosquée",
        -10.066920810190155
      ],
      [
        "▁période",
        -10.06692165095633
      ],
      [
        "▁lumière",
        -10.066926882153403
      ],
      [
        "▁Waxtaan",
        -10.067025492060887
      ],
      [
        "▁britannique",
        -10.067158487114757
      ],
      [
        "▁compris",
        -10.067165069266457
      ],
      [
        "▁compagnie",
        -10.06722177116037
      ],
      [
        "▁mbokk",
        -10.06734596227194
      ],
      [
        "▁mbóot",
        -10.067502096610786
      ],
      [
        "▁tubay",
        -10.067582573359637
      ],
      [
        "▁naat",
        -10.067629914565726
      ],
      [
        "▁jëfandikoo",
        -10.06766197576841
      ],
      [
        "▁souffle",
        -10.067667946189776
      ],
      [
        "▁grosse",
        -10.067702365682006
      ],
      [
        "▁Màkka",
        -10.067772664681984
      ],
      [
        "▁instant",
        -10.06791378844413
      ],
      [
        "▁jéggi",
        -10.067949054412324
      ],
      [
        "▁tissu",
        -10.068198608540833
      ],
      [
        "▁fépp",
        -10.068276447715228
      ],
      [
        "▁foyer",
        -10.068620288195163
      ],
      [
        "▁tank",
        -10.06901711834397
      ],
      [
        "▁Ibo",
        -10.06978562230006
      ],
      [
        "ient",
        -10.070300910009493
      ],
      [
        "▁njël",
        -10.070412667566385
      ],
      [
        "llions",
        -10.070468754890145
      ],
      [
        "▁départ",
        -10.070474288438204
      ],
      [
        "▁d'a",
        -10.070826589450348
      ],
      [
        "▁Moonte",
        -10.071492495922461
      ],
      [
        "▁failli",
        -10.072030636505941
      ],
      [
        "▁sèche",
        -10.073032262577538
      ],
      [
        "▁déggoo",
        -10.07312860163621
      ],
      [
        "▁jege",
        -10.073338836768416
      ],
      [
        "▁Yeen",
        -10.073586324622305
      ],
      [
        "▁savon",
        -10.073941761560102
      ],
      [
        "▁muur",
        -10.073961703671127
      ],
      [
        "▁linge",
        -10.07423183799704
      ],
      [
        "▁dugal",
        -10.074577836753235
      ],
      [
        "▁gas",
        -10.074672020409796
      ],
      [
        "▁couché",
        -10.07468473612234
      ],
      [
        "▁Bamendaa",
        -10.074853949632654
      ],
      [
        "▁xamoon",
        -10.074972948710569
      ],
      [
        "▁silence",
        -10.075107631543496
      ],
      [
        "▁Maurice",
        -10.07523703166396
      ],
      [
        "▁tiim",
        -10.075360946595353
      ],
      [
        "'avez",
        -10.075614973529827
      ],
      [
        "▁d'herbes",
        -10.076365220620689
      ],
      [
        "▁parlé",
        -10.076544764266666
      ],
      [
        "▁chant",
        -10.07656174105545
      ],
      [
        "▁ndënd",
        -10.076579040077158
      ],
      [
        "▁connu",
        -10.07763422152764
      ],
      [
        "▁Frãs",
        -10.077654425131634
      ],
      [
        "▁fleurs",
        -10.078039316423622
      ],
      [
        "▁attend",
        -10.078523002570407
      ],
      [
        "▁jeux",
        -10.079015031198178
      ],
      [
        "▁Bët",
        -10.079553902503813
      ],
      [
        "▁boire",
        -10.08002704806573
      ],
      [
        "▁panier",
        -10.080116062008706
      ],
      [
        "▁entra",
        -10.080977403313527
      ],
      [
        "▁gardé",
        -10.081166985656012
      ],
      [
        "▁yég",
        -10.082178220852118
      ],
      [
        "▁tuur",
        -10.082399041782757
      ],
      [
        "▁tama",
        -10.08354949915518
      ],
      [
        "▁couleurs",
        -10.086577002803782
      ],
      [
        "ka",
        -10.086655972315798
      ],
      [
        "▁balle",
        -10.086678536202895
      ],
      [
        "▁bor",
        -10.087039862946064
      ],
      [
        "▁rek",
        -10.089759741181176
      ],
      [
        "▁Bunt",
        -10.09060457061129
      ],
      [
        "▁Daan",
        -10.09111260261576
      ],
      [
        "ui",
        -10.091222756312842
      ],
      [
        "oy",
        -10.092064497939765
      ],
      [
        "▁envoyé",
        -10.093047074515258
      ],
      [
        "▁existe",
        -10.093839971335044
      ],
      [
        "▁e",
        -10.095404348908602
      ],
      [
        "▁pres",
        -10.096236492583742
      ],
      [
        "▁garçons",
        -10.096909603918075
      ],
      [
        "▁dalal",
        -10.100459317461485
      ],
      [
        "▁malheur",
        -10.100989762974708
      ],
      [
        "àpp",
        -10.10141272208097
      ],
      [
        "nte",
        -10.102191022299701
      ],
      [
        "▁sago",
        -10.102996010976582
      ],
      [
        "▁dix",
        -10.10395166222327
      ],
      [
        "▁tay",
        -10.103965882083216
      ],
      [
        "▁laissé",
        -10.104394276720425
      ],
      [
        "▁ciment",
        -10.104775714808202
      ],
      [
        "▁classe",
        -10.105341312972667
      ],
      [
        "▁pom",
        -10.105991863790688
      ],
      [
        "▁coups",
        -10.106195362779063
      ],
      [
        "▁joor",
        -10.10630754338477
      ],
      [
        "▁nooy",
        -10.107241264244202
      ],
      [
        "ré",
        -10.110229091352386
      ],
      [
        "▁s'appelle",
        -10.11321404505855
      ],
      [
        "▁jour.",
        -10.114254389096542
      ],
      [
        "▁yomb",
        -10.116727010634982
      ],
      [
        "son",
        -10.117454531420938
      ],
      [
        "▁Buy",
        -10.11764921166522
      ],
      [
        "▁touche",
        -10.117707652496096
      ],
      [
        "▁scorpion",
        -10.118285553682485
      ],
      [
        "▁sor",
        -10.119890705680367
      ],
      [
        "gré",
        -10.119980505694333
      ],
      [
        "▁Jaay",
        -10.12046786489377
      ],
      [
        "ter",
        -10.121625640173441
      ],
      [
        "eu",
        -10.122678355593855
      ],
      [
        "▁léeb",
        -10.125561867536176
      ],
      [
        "alal",
        -10.127025432790598
      ],
      [
        "▁neex.",
        -10.127485334169851
      ],
      [
        "▁demander",
        -10.127893115547353
      ],
      [
        "▁ŋgii",
        -10.127924437417652
      ],
      [
        "os",
        -10.128177728408346
      ],
      [
        "el",
        -10.129304950495518
      ],
      [
        "▁weesu",
        -10.131543576626742
      ],
      [
        "cation",
        -10.132963171149866
      ],
      [
        "▁laal",
        -10.133005838117416
      ],
      [
        "▁rab",
        -10.133300144078694
      ],
      [
        "te.",
        -10.13358818109023
      ],
      [
        "▁sonal",
        -10.133948615251192
      ],
      [
        "▁mêmes",
        -10.134747270203368
      ],
      [
        "▁carte",
        -10.13568073160505
      ],
      [
        "▁parties",
        -10.136106734041899
      ],
      [
        "▁chaise",
        -10.136119929159449
      ],
      [
        "▁bànneex",
        -10.13613987208229
      ],
      [
        "eel",
        -10.136367346469138
      ],
      [
        "▁pri",
        -10.136999446279047
      ],
      [
        "▁couche",
        -10.137043166705
      ],
      [
        "enn",
        -10.137224051803873
      ],
      [
        "▁vrai",
        -10.139734589484744
      ],
      [
        "tt",
        -10.141466278688966
      ],
      [
        "▁maternel",
        -10.141996116135061
      ],
      [
        "▁gënal",
        -10.142140917611032
      ],
      [
        "odeur",
        -10.143548240426743
      ],
      [
        "▁désert",
        -10.143882912262683
      ],
      [
        "▁ferme",
        -10.145222456994725
      ],
      [
        "▁kañ",
        -10.146592383508954
      ],
      [
        "▁port",
        -10.147214222251135
      ],
      [
        "▁venue",
        -10.149646258781836
      ],
      [
        "▁radio",
        -10.149913038855356
      ],
      [
        "▁mourir",
        -10.149951154873849
      ],
      [
        "▁cosaan",
        -10.149976672711126
      ],
      [
        "▁juddoo",
        -10.14998015513157
      ],
      [
        "▁ñeex",
        -10.150030720773437
      ],
      [
        "▁baptême",
        -10.150055143528236
      ],
      [
        "▁docteur",
        -10.150061755277077
      ],
      [
        "▁veulent",
        -10.150068282328657
      ],
      [
        "▁banqaas",
        -10.150077694803006
      ],
      [
        "▁mbaar",
        -10.150083484510072
      ],
      [
        "▁poitrine",
        -10.150132725856555
      ],
      [
        "▁présence",
        -10.15015558065529
      ],
      [
        "▁Léeg-léeg",
        -10.150193483031401
      ],
      [
        "▁poussière",
        -10.150233467843028
      ],
      [
        "▁lui-même",
        -10.150358603483621
      ],
      [
        "▁Ganaar",
        -10.150364996243034
      ],
      [
        "▁mellentaan",
        -10.150402849503735
      ],
      [
        "▁d'all",
        -10.150475298263368
      ],
      [
        "▁pouvoir",
        -10.15047934665336
      ],
      [
        "▁meetar",
        -10.150641710767315
      ],
      [
        "▁fâché",
        -10.150822781983033
      ],
      [
        "▁wépp",
        -10.150924528000662
      ],
      [
        "▁Jàppal",
        -10.15099465305552
      ],
      [
        "koo",
        -10.151054366385363
      ],
      [
        "▁seetsi",
        -10.15113346683298
      ],
      [
        "▁nombre",
        -10.151336896344871
      ],
      [
        "▁poste",
        -10.151416671885572
      ],
      [
        "▁mette",
        -10.151448365659423
      ],
      [
        "▁jàppale",
        -10.151586883851872
      ],
      [
        "▁séq",
        -10.151620802811756
      ],
      [
        "▁tàmbali",
        -10.15185792437943
      ],
      [
        "▁ndànk",
        -10.152233404014707
      ],
      [
        "▁saabu",
        -10.152646110207158
      ],
      [
        "▁xamante",
        -10.153108380868183
      ],
      [
        "▁yëngu",
        -10.153140381657638
      ],
      [
        "puis",
        -10.1533375459061
      ],
      [
        "▁nuages",
        -10.153588372494168
      ],
      [
        "▁Puis",
        -10.153745315067482
      ],
      [
        "▁Ki",
        -10.154044447734908
      ],
      [
        "eaucoup",
        -10.154459503358199
      ],
      [
        "▁foofa",
        -10.154811044855528
      ],
      [
        "▁étions",
        -10.15504946114139
      ],
      [
        "-tu",
        -10.155784142502807
      ],
      [
        "▁vendre",
        -10.156368308449071
      ],
      [
        "▁soosu",
        -10.156649457073268
      ],
      [
        "▁kawar",
        -10.15705777429274
      ],
      [
        "▁ñeme",
        -10.157157580049375
      ],
      [
        "▁vide",
        -10.157202768301552
      ],
      [
        "▁saw",
        -10.15807546424966
      ],
      [
        "▁retraite",
        -10.158540069920189
      ],
      [
        "▁servir",
        -10.158695461942376
      ],
      [
        "▁Faat",
        -10.159351545628901
      ],
      [
        "▁école",
        -10.159976438852214
      ],
      [
        "▁présente",
        -10.160119663422018
      ],
      [
        "▁njiit",
        -10.160148571999542
      ],
      [
        "▁Jaam",
        -10.160238031451327
      ],
      [
        "▁bateau",
        -10.160438202623626
      ],
      [
        "▁jëf",
        -10.160493852194252
      ],
      [
        "▁tresses",
        -10.161660128423726
      ],
      [
        "▁doxandéem",
        -10.162076518177084
      ],
      [
        "▁takk-der",
        -10.162308716159188
      ],
      [
        "▁Plu",
        -10.162322850738692
      ],
      [
        "▁pierres",
        -10.162609106069876
      ],
      [
        "▁dég",
        -10.163006357685203
      ],
      [
        "▁herbes",
        -10.163817184522735
      ],
      [
        "impression",
        -10.164429035999781
      ],
      [
        "▁neexul",
        -10.164608185600839
      ],
      [
        "eelu",
        -10.165285140664789
      ],
      [
        "eer",
        -10.165842248577704
      ],
      [
        "▁cercle",
        -10.167519670057652
      ],
      [
        "▁digg",
        -10.167819607013552
      ],
      [
        "▁Ri",
        -10.168748007520893
      ],
      [
        "▁côte",
        -10.169806637305136
      ],
      [
        "gg",
        -10.171282462598368
      ],
      [
        "▁dawal",
        -10.172248572956635
      ],
      [
        "▁yaayam",
        -10.172454812502123
      ],
      [
        "dul",
        -10.172742119698082
      ],
      [
        "kaay",
        -10.173897938872921
      ],
      [
        "▁adultes",
        -10.175618853208245
      ],
      [
        "ier",
        -10.176418906230008
      ],
      [
        "▁xas",
        -10.177532032853394
      ],
      [
        "▁ëllëg",
        -10.177609117478776
      ],
      [
        "▁bande",
        -10.177900818102605
      ],
      [
        "▁médicaments",
        -10.17948001898743
      ],
      [
        "▁wex",
        -10.18092192182937
      ],
      [
        "▁nang",
        -10.182616706875837
      ],
      [
        "▁fatigué",
        -10.182698943747296
      ],
      [
        "▁ub",
        -10.183165388737626
      ],
      [
        "▁soup",
        -10.184190364243038
      ],
      [
        "eau",
        -10.185079059176239
      ],
      [
        "▁tur",
        -10.185490837848597
      ],
      [
        "▁sarax",
        -10.185640299669856
      ],
      [
        "atul",
        -10.186235452754381
      ],
      [
        "or",
        -10.187003297326296
      ],
      [
        "▁Nee",
        -10.18784819233915
      ],
      [
        "▁monte",
        -10.188284208452405
      ],
      [
        "▁regarder",
        -10.189036010515117
      ],
      [
        "▁noire.",
        -10.189578794583277
      ],
      [
        "▁toogu",
        -10.190760902955084
      ],
      [
        "▁verres",
        -10.190963464750919
      ],
      [
        "▁Ou",
        -10.19137214982139
      ],
      [
        "▁naissance",
        -10.19168465180752
      ],
      [
        "▁parole",
        -10.193447925082731
      ],
      [
        "▁ira",
        -10.19377249070246
      ],
      [
        "▁Màng",
        -10.194243338308883
      ],
      [
        "▁taille",
        -10.19587727286467
      ],
      [
        "▁Diw",
        -10.197912957341005
      ],
      [
        "▁Jàng",
        -10.198162813988993
      ],
      [
        "▁tiit",
        -10.199649361058054
      ],
      [
        "▁préparer",
        -10.199844070521593
      ],
      [
        "▁bale",
        -10.20111591929872
      ],
      [
        "▁cordes",
        -10.202071073841706
      ],
      [
        "▁baŋ",
        -10.202813799059166
      ],
      [
        "▁dog",
        -10.20282303605185
      ],
      [
        "▁saal",
        -10.202965801341893
      ],
      [
        "ëkk",
        -10.20413703446602
      ],
      [
        "▁lourd",
        -10.205792489555328
      ],
      [
        "▁pén",
        -10.206308502523456
      ],
      [
        "▁tôt",
        -10.207385257974966
      ],
      [
        "▁pe",
        -10.207808065716865
      ],
      [
        "▁fleuves",
        -10.210351797776124
      ],
      [
        "▁jéle",
        -10.21045003721774
      ],
      [
        "▁pré",
        -10.210748648521491
      ],
      [
        "▁Sérère",
        -10.211532142781849
      ],
      [
        "▁tàmm",
        -10.21271180733833
      ],
      [
        "ssent",
        -10.213209612380034
      ],
      [
        "▁dur",
        -10.213431969480078
      ],
      [
        "▁Wool",
        -10.213527208252493
      ],
      [
        "▁Me",
        -10.214344197509211
      ],
      [
        "▁laxas",
        -10.21454853761188
      ],
      [
        "dit",
        -10.215283522227672
      ],
      [
        "▁d'autre",
        -10.216510227947325
      ],
      [
        "ca",
        -10.217054594829754
      ],
      [
        "▁banc",
        -10.218376666015528
      ],
      [
        "▁Cere",
        -10.219196799145166
      ],
      [
        "y,",
        -10.219465320184607
      ],
      [
        "▁tombée",
        -10.219477559990313
      ],
      [
        "▁conçue",
        -10.220893429798224
      ],
      [
        "▁boot",
        -10.22106811130298
      ],
      [
        "▁arrivés",
        -10.22319095673006
      ],
      [
        "▁Won",
        -10.223636137825661
      ],
      [
        "▁attends",
        -10.224031376097676
      ],
      [
        "▁Ë",
        -10.224363673120324
      ],
      [
        "óor",
        -10.228209819380712
      ],
      [
        "▁Defe",
        -10.228212893872364
      ],
      [
        "▁envoyée",
        -10.228229617655813
      ],
      [
        "▁vaccin",
        -10.228881542402256
      ],
      [
        "▁ré",
        -10.230352879049626
      ],
      [
        "qu",
        -10.231798865371236
      ],
      [
        "nit",
        -10.233858726106188
      ],
      [
        "▁voulai",
        -10.233974903535252
      ],
      [
        "▁baña",
        -10.235771043028413
      ],
      [
        "▁fût",
        -10.235876176568055
      ],
      [
        "eut-être",
        -10.23616880976635
      ],
      [
        "▁rage",
        -10.236475125103317
      ],
      [
        "▁lesquel",
        -10.237072471903634
      ],
      [
        "▁époux",
        -10.23881983377589
      ],
      [
        "▁bébé",
        -10.238850607410903
      ],
      [
        "▁frappé",
        -10.239578989774309
      ],
      [
        "▁Mbër",
        -10.239614648421759
      ],
      [
        "▁piment",
        -10.239889137933154
      ],
      [
        "▁mee",
        -10.23998818922445
      ],
      [
        "▁reconnu",
        -10.240223604365742
      ],
      [
        "▁Ëllëg",
        -10.240536900635668
      ],
      [
        "▁Ceeb",
        -10.240598866214066
      ],
      [
        "▁l'abri",
        -10.240614017323072
      ],
      [
        "▁furno",
        -10.240641933873087
      ],
      [
        "▁manioc",
        -10.240652951490548
      ],
      [
        "▁Guyane",
        -10.24069838955339
      ],
      [
        "▁créé",
        -10.240748815894143
      ],
      [
        "▁Xammee",
        -10.24075598636949
      ],
      [
        "▁contient",
        -10.240762621958252
      ],
      [
        "▁l'heure",
        -10.240772830381871
      ],
      [
        "▁yëkkati",
        -10.24077869113198
      ],
      [
        "▁tamarin",
        -10.240781403143094
      ],
      [
        "▁terrain",
        -10.240807357594583
      ],
      [
        "▁Guwiyaan",
        -10.240821096817607
      ],
      [
        "▁d'Ogoja",
        -10.24084114043832
      ],
      [
        "▁gazelle",
        -10.240874649953346
      ],
      [
        "▁Casamance",
        -10.240879225629715
      ],
      [
        "▁bouteille",
        -10.24089217110731
      ],
      [
        "▁vaisselle",
        -10.240894713989903
      ],
      [
        "▁protection",
        -10.240936724404136
      ],
      [
        "▁bâtiment",
        -10.240940163589011
      ],
      [
        "▁réveillé",
        -10.240956440443608
      ],
      [
        "▁brusquement",
        -10.24096527030967
      ],
      [
        "▁d'Afrique",
        -10.240973269982371
      ],
      [
        "▁bëj-saalum",
        -10.240994102988203
      ],
      [
        "▁bracelet",
        -10.241029266089775
      ],
      [
        "▁rythme",
        -10.24111673400612
      ],
      [
        "▁l'amour",
        -10.241152071620988
      ],
      [
        "▁gëléem",
        -10.241171872184792
      ],
      [
        "▁cacher",
        -10.241180863804926
      ],
      [
        "▁assurément",
        -10.241184569250503
      ],
      [
        "yan",
        -10.241340777513877
      ],
      [
        "▁toogukaay",
        -10.241413105302817
      ],
      [
        "▁l'alcool",
        -10.24145754649519
      ],
      [
        "▁Po",
        -10.241800301980817
      ],
      [
        "▁enlevé",
        -10.242013050335988
      ],
      [
        "▁sëkk",
        -10.242019161265182
      ],
      [
        "ve",
        -10.242053560832373
      ],
      [
        "▁libre",
        -10.24206446973161
      ],
      [
        "▁daaneel",
        -10.24230037835202
      ],
      [
        "▁metit",
        -10.242381968521412
      ],
      [
        "▁morceaux",
        -10.242453550784136
      ],
      [
        "▁Gën",
        -10.24303180520916
      ],
      [
        "▁n'irai",
        -10.243134293928499
      ],
      [
        "▁butéel",
        -10.243310563697062
      ],
      [
        "▁Bëy",
        -10.243362651759108
      ],
      [
        "'asseoir",
        -10.243539713532932
      ],
      [
        "yi",
        -10.24355366679945
      ],
      [
        "▁dessous",
        -10.243660033986249
      ],
      [
        "v",
        -10.244256007397368
      ],
      [
        "▁taq",
        -10.244493427703897
      ],
      [
        "▁Éta",
        -10.244551833522891
      ],
      [
        "▁certain",
        -10.244555710595808
      ],
      [
        "▁ballon",
        -10.24524231874478
      ],
      [
        "▁tàngal",
        -10.245323256095736
      ],
      [
        "▁diir",
        -10.245537415730157
      ],
      [
        "▁tegoon",
        -10.246543643292588
      ],
      [
        "▁génne",
        -10.24660864369627
      ],
      [
        "▁certaine",
        -10.247171034676017
      ],
      [
        "▁voulu",
        -10.247270569009231
      ],
      [
        "ance",
        -10.248716689646576
      ],
      [
        "▁fesses",
        -10.249412502783027
      ],
      [
        "▁tiré",
        -10.249556104811504
      ],
      [
        "ça",
        -10.24960541763751
      ],
      [
        "▁d'Europe",
        -10.250046796277458
      ],
      [
        "▁jéndal",
        -10.251133848511246
      ],
      [
        "▁zone",
        -10.251272074704154
      ],
      [
        "▁Bon",
        -10.251562973494192
      ],
      [
        "▁santé",
        -10.251709985556829
      ],
      [
        "▁front",
        -10.251747424386894
      ],
      [
        "▁boutique",
        -10.252849091876042
      ],
      [
        "▁bekk",
        -10.252963374109145
      ],
      [
        "▁wanag",
        -10.25351193139591
      ],
      [
        "▁écrit",
        -10.254552088083859
      ],
      [
        "▁seau",
        -10.25522956560143
      ],
      [
        "▁masul",
        -10.2554092791975
      ],
      [
        "▁prenne",
        -10.256370444175419
      ],
      [
        "▁bassine",
        -10.257543740649217
      ],
      [
        "dd",
        -10.257782699537724
      ],
      [
        "▁Pose",
        -10.258177042866649
      ],
      [
        "▁suite",
        -10.259189418618675
      ],
      [
        "▁alla",
        -10.259997049778507
      ],
      [
        "▁tuuru",
        -10.260073119449356
      ],
      [
        "▁rencontre",
        -10.260643819012323
      ],
      [
        "▁enfance",
        -10.260784812261356
      ],
      [
        "▁chante",
        -10.26122451185907
      ],
      [
        "▁mana",
        -10.263346322911989
      ],
      [
        "▁mariée",
        -10.264382108945636
      ],
      [
        "▁cassée",
        -10.265030637423646
      ],
      [
        "añ",
        -10.265129101975873
      ],
      [
        "▁Baax",
        -10.265520279975362
      ],
      [
        "▁sauvages",
        -10.266306888426104
      ],
      [
        "▁mode",
        -10.266315035651608
      ],
      [
        "▁pan",
        -10.266395166766577
      ],
      [
        "▁profond",
        -10.26810096934998
      ],
      [
        "▁Abal",
        -10.269606439052055
      ],
      [
        "▁jam",
        -10.272531904053478
      ],
      [
        "▁talisman",
        -10.273434407720638
      ],
      [
        "rendre",
        -10.274046296996051
      ],
      [
        "▁hier",
        -10.274204152046611
      ],
      [
        "▁lenn",
        -10.274249330784134
      ],
      [
        "▁Ka",
        -10.275355038691659
      ],
      [
        "uur",
        -10.275439457807034
      ],
      [
        "▁ñee",
        -10.276464338500185
      ],
      [
        "▁rus",
        -10.276819949576543
      ],
      [
        "▁jë",
        -10.276972785931155
      ],
      [
        "▁defare",
        -10.278602540699191
      ],
      [
        "▁jàppe",
        -10.280855799542358
      ],
      [
        "ations",
        -10.281997978110695
      ],
      [
        "▁siis",
        -10.283142897319877
      ],
      [
        "elles",
        -10.283236230624853
      ],
      [
        "ñ.",
        -10.283462375435505
      ],
      [
        "▁pouvai",
        -10.284138953907927
      ],
      [
        "▁soppi",
        -10.28480365236986
      ],
      [
        "laa",
        -10.284993244398718
      ],
      [
        "▁nàmp",
        -10.285585644735857
      ],
      [
        "▁routes",
        -10.285808168450252
      ],
      [
        "▁teey",
        -10.286347193783802
      ],
      [
        "▁goût",
        -10.28652590198293
      ],
      [
        "▁waxal",
        -10.286772799594315
      ],
      [
        "▁ceci",
        -10.286986241189304
      ],
      [
        "▁neneen",
        -10.287671621329999
      ],
      [
        "▁petites",
        -10.288003439743358
      ],
      [
        "ar.",
        -10.288704032244468
      ],
      [
        "▁partes",
        -10.289172689483937
      ],
      [
        "▁sag",
        -10.289498742797013
      ],
      [
        "▁viendrai",
        -10.290973775410151
      ],
      [
        "▁poussé",
        -10.291488703790272
      ],
      [
        "▁dénd",
        -10.29190578096232
      ],
      [
        "▁gale",
        -10.292598165415058
      ],
      [
        "ût",
        -10.2933734411219
      ],
      [
        "▁pañe",
        -10.293528579700434
      ],
      [
        "▁paan",
        -10.294063581650244
      ],
      [
        "▁retrouver",
        -10.29529841473712
      ],
      [
        "▁gris",
        -10.296851286211266
      ],
      [
        "▁San",
        -10.297505436052484
      ],
      [
        "▁finir",
        -10.298275021664807
      ],
      [
        "▁miin",
        -10.299431084015131
      ],
      [
        "▁Ren",
        -10.299561526164682
      ],
      [
        "sse",
        -10.299620855984177
      ],
      [
        "ine",
        -10.300185184892333
      ],
      [
        "▁jan",
        -10.301471807077103
      ],
      [
        "▁nag.",
        -10.302115248632738
      ],
      [
        "▁tiens",
        -10.304572564715649
      ],
      [
        "▁brave",
        -10.30582243079042
      ],
      [
        "▁taa",
        -10.306056936620102
      ],
      [
        "▁rêve",
        -10.30615904242995
      ],
      [
        "▁taamu",
        -10.30644819991413
      ],
      [
        "▁s'étai",
        -10.30681430306086
      ],
      [
        "▁dekkali",
        -10.306984694914666
      ],
      [
        "▁tànki",
        -10.30875681226378
      ],
      [
        "▁cordon",
        -10.309548056631549
      ],
      [
        "avait",
        -10.309814541892324
      ],
      [
        "faire",
        -10.31038675862389
      ],
      [
        "▁fenêtre",
        -10.3104070673858
      ],
      [
        "▁tóo",
        -10.310658738630153
      ],
      [
        "▁teint",
        -10.31071995000418
      ],
      [
        "▁égarée",
        -10.310877593386815
      ],
      [
        "▁tux",
        -10.310927027672808
      ],
      [
        "▁raay",
        -10.311047410630763
      ],
      [
        "▁jubal",
        -10.311421069571704
      ],
      [
        "▁dunde",
        -10.312806970234975
      ],
      [
        "waan",
        -10.313107283237946
      ],
      [
        "▁fale",
        -10.313348102239772
      ],
      [
        "moon",
        -10.313360392692358
      ],
      [
        "▁Co",
        -10.313737449518165
      ],
      [
        "▁ngaa",
        -10.31405766606581
      ],
      [
        "▁lance",
        -10.31643249909568
      ],
      [
        "▁Ña",
        -10.318180148435006
      ],
      [
        "▁arrêt",
        -10.318484108825535
      ],
      [
        "▁poulet",
        -10.318695929772812
      ],
      [
        "▁fiir",
        -10.318982367838533
      ],
      [
        "▁policier",
        -10.31970386644426
      ],
      [
        "▁Tay",
        -10.32077340125115
      ],
      [
        "père",
        -10.321599687445678
      ],
      [
        "▁nouvelle",
        -10.322702827287728
      ],
      [
        "▁mangue",
        -10.32428511682022
      ],
      [
        "▁palissade",
        -10.32534413200068
      ],
      [
        "▁unique",
        -10.32556255393109
      ],
      [
        "▁doxe",
        -10.326534697629391
      ],
      [
        "▁éclat",
        -10.327273561417698
      ],
      [
        "▁Koo",
        -10.327870035577408
      ],
      [
        "▁vue",
        -10.327923775659738
      ],
      [
        "fi",
        -10.328702469163094
      ],
      [
        "▁cee",
        -10.32938623351876
      ],
      [
        "▁cases",
        -10.333312000332544
      ],
      [
        "▁arrêté",
        -10.334236410322832
      ],
      [
        "▁cas",
        -10.334258289495468
      ],
      [
        "▁'",
        -10.334273525545765
      ],
      [
        "▁junni",
        -10.334347342047993
      ],
      [
        "▁dër",
        -10.334376684106116
      ],
      [
        "▁askan",
        -10.334637596138727
      ],
      [
        "▁nj",
        -10.334979251118657
      ],
      [
        "▁Ya",
        -10.336209310933308
      ],
      [
        "▁troupeau",
        -10.336555681595522
      ],
      [
        "iñ",
        -10.337023867875047
      ],
      [
        "▁Donne-",
        -10.337873850215065
      ],
      [
        "▁légère",
        -10.338189070843075
      ],
      [
        "ral",
        -10.33822851834643
      ],
      [
        "▁meññ",
        -10.338511229045412
      ],
      [
        "▁yegg",
        -10.338748799078667
      ],
      [
        "▁cérémonie",
        -10.338783025092294
      ],
      [
        "▁rônier",
        -10.338783028205377
      ],
      [
        "▁perroquet",
        -10.338783065283078
      ],
      [
        "▁Là-bas",
        -10.338783971002599
      ],
      [
        "▁dispute",
        -10.338785540940233
      ],
      [
        "▁société",
        -10.338785557742812
      ],
      [
        "▁Allez",
        -10.338787897781822
      ],
      [
        "▁travaux",
        -10.338788527471854
      ],
      [
        "▁récipient",
        -10.338789278625482
      ],
      [
        "▁Chacun",
        -10.338789982814053
      ],
      [
        "▁charbon",
        -10.338792054958759
      ],
      [
        "▁Prophète",
        -10.338794572475674
      ],
      [
        "▁Regarde",
        -10.338811365345846
      ],
      [
        "▁puissance",
        -10.338812254745237
      ],
      [
        "▁tronc",
        -10.33881257788376
      ],
      [
        "▁U2",
        -10.338813169007583
      ],
      [
        "▁magasin",
        -10.338831230610584
      ],
      [
        "▁yëngal",
        -10.33884642563654
      ],
      [
        "▁tâche",
        -10.338872723229942
      ],
      [
        "▁Fatim",
        -10.338875989465116
      ],
      [
        "▁Allons",
        -10.338885914990522
      ],
      [
        "▁peinture",
        -10.338889411344654
      ],
      [
        "▁Coran",
        -10.338894525443564
      ],
      [
        "▁Nord",
        -10.338904741881912
      ],
      [
        "▁lentement",
        -10.33897351175629
      ],
      [
        "▁subë",
        -10.338994969696184
      ],
      [
        "▁campement",
        -10.33900327653708
      ],
      [
        "-fukk",
        -10.339011062045342
      ],
      [
        "▁douceur",
        -10.33903553418166
      ],
      [
        "▁Jénd",
        -10.33906037307593
      ],
      [
        "▁sentiment",
        -10.339088836366045
      ],
      [
        "▁d'oeil",
        -10.339161481867352
      ],
      [
        "▁Dëgg",
        -10.33919972468184
      ],
      [
        "▁Xoolal",
        -10.33920370155886
      ],
      [
        "▁poing",
        -10.339241598091396
      ],
      [
        "▁gauche",
        -10.33946940270805
      ],
      [
        "▁parfois",
        -10.339727756626985
      ],
      [
        "▁wëndéelu",
        -10.339938473221537
      ],
      [
        "▁épuisé",
        -10.340139611496937
      ],
      [
        "▁sauf",
        -10.340180494558746
      ],
      [
        "▁comporte",
        -10.34055156393804
      ],
      [
        "▁gox",
        -10.340647436939065
      ],
      [
        "s-moi",
        -10.340657635755534
      ],
      [
        "▁profit",
        -10.340683382667043
      ],
      [
        "▁bëj-gànnaar",
        -10.340715682743786
      ],
      [
        "▁wurus",
        -10.340750086786406
      ],
      [
        "▁l'après-midi",
        -10.34078636768451
      ],
      [
        "▁Génn",
        -10.340861759205758
      ],
      [
        "▁Gaynde",
        -10.341257224837172
      ],
      [
        "▁n'es",
        -10.341811827007115
      ],
      [
        "▁pourtant",
        -10.341813422931178
      ],
      [
        "▁machine",
        -10.341978632991037
      ],
      [
        "▁naqadi",
        -10.342050059420334
      ],
      [
        "▁possible",
        -10.34242759264865
      ],
      [
        "▁yewwu",
        -10.342705257977816
      ],
      [
        "qu'il",
        -10.342808871596933
      ],
      [
        "▁Julli",
        -10.343013310071981
      ],
      [
        "▁Puisse",
        -10.343288936345873
      ],
      [
        "▁gënoon",
        -10.343568526897538
      ],
      [
        "▁honnête",
        -10.343884360061281
      ],
      [
        "▁toilettes",
        -10.344822500248025
      ],
      [
        "été",
        -10.344875232852512
      ],
      [
        "prit",
        -10.3455703782218
      ],
      [
        "▁Yaay",
        -10.345791805760891
      ],
      [
        "▁Foofa",
        -10.346125799363538
      ],
      [
        "▁jariñ",
        -10.346362030479398
      ],
      [
        "▁Yoon",
        -10.34657409963602
      ],
      [
        "▁be",
        -10.346619536320997
      ],
      [
        "▁rencontrer",
        -10.347046813022276
      ],
      [
        "▁penku",
        -10.347125109651047
      ],
      [
        "▁soigner",
        -10.347272626476833
      ],
      [
        "▁coono",
        -10.347814679700782
      ],
      [
        "▁garabi",
        -10.348748382638028
      ],
      [
        "▁nijaay",
        -10.349171654080486
      ],
      [
        "▁arriva",
        -10.34920141368855
      ],
      [
        "▁amatul",
        -10.349499621119495
      ],
      [
        "▁mënuma",
        -10.349566600848123
      ],
      [
        "▁mënu",
        -10.349986988785538
      ],
      [
        "too",
        -10.350008252318961
      ],
      [
        "▁courage",
        -10.350091741622956
      ],
      [
        "▁bënn",
        -10.35012125528992
      ],
      [
        "▁fatigue",
        -10.350667724937626
      ],
      [
        "▁jog",
        -10.350731462364637
      ],
      [
        "oi",
        -10.350823118217873
      ],
      [
        "lóor",
        -10.350938870548708
      ],
      [
        "▁pexe",
        -10.351099015605573
      ],
      [
        "lever",
        -10.351308031330314
      ],
      [
        "▁couvre",
        -10.351458169967762
      ],
      [
        "▁Marie",
        -10.351986440648286
      ],
      [
        "▁trempé",
        -10.352837590851529
      ],
      [
        "▁extrême",
        -10.352970249199448
      ],
      [
        "▁kafe",
        -10.35460676994892
      ],
      [
        "▁bonheur",
        -10.35462043413996
      ],
      [
        "▁ñëwul",
        -10.354661879706676
      ],
      [
        "▁étranger",
        -10.35501625436518
      ],
      [
        "▁jou",
        -10.355502472378477
      ],
      [
        "▁hautes",
        -10.355879274363469
      ],
      [
        "▁détourn",
        -10.356885476583201
      ],
      [
        "▁palmes",
        -10.35829567282361
      ],
      [
        "▁njariñ",
        -10.358856009485597
      ],
      [
        "▁aventure",
        -10.359150982033505
      ],
      [
        "▁Amuloo",
        -10.359157021477351
      ],
      [
        "▁janoo",
        -10.359821227996477
      ],
      [
        "▁mangues",
        -10.360000836411217
      ],
      [
        "▁kowe",
        -10.36211321284947
      ],
      [
        "▁Fekk",
        -10.362226006052161
      ],
      [
        "▁contes",
        -10.362322491339194
      ],
      [
        "▁foule",
        -10.362392151512065
      ],
      [
        "▁liy",
        -10.36278190160939
      ],
      [
        "ler",
        -10.363791084716802
      ],
      [
        "tul",
        -10.364185512098722
      ],
      [
        "▁Dinga",
        -10.364878610126773
      ],
      [
        "▁kook",
        -10.365936778589335
      ],
      [
        "▁ndaa",
        -10.367025764650121
      ],
      [
        "▁Tëgg",
        -10.367312789719469
      ],
      [
        "▁habite",
        -10.367691393947853
      ],
      [
        "▁qu'en",
        -10.367957930408707
      ],
      [
        "▁gëm",
        -10.368472670887698
      ],
      [
        "rait",
        -10.368559752711796
      ],
      [
        "▁sanc",
        -10.369169488963777
      ],
      [
        "▁kowam",
        -10.369828294395354
      ],
      [
        "▁pleine",
        -10.370185100873485
      ],
      [
        "▁verra",
        -10.370299801119124
      ],
      [
        "waay",
        -10.370938835671812
      ],
      [
        "▁Naar",
        -10.372269802738497
      ],
      [
        "▁finira",
        -10.373401760366589
      ],
      [
        "▁vin",
        -10.374319208024229
      ],
      [
        "▁faisan",
        -10.375382276732646
      ],
      [
        "'enfant",
        -10.37549516494782
      ],
      [
        "lal",
        -10.37634682712314
      ],
      [
        "▁bâtons",
        -10.379183443389412
      ],
      [
        "▁tient",
        -10.379503237746679
      ],
      [
        "ru",
        -10.380360244339581
      ],
      [
        "▁hache",
        -10.381894040397134
      ],
      [
        "▁nekkul",
        -10.38190304458869
      ],
      [
        "▁féex",
        -10.382507119214441
      ],
      [
        "▁sog",
        -10.383266697557332
      ],
      [
        "▁quitte",
        -10.383488324976508
      ],
      [
        "▁Nun",
        -10.38478783036438
      ],
      [
        "▁xamu",
        -10.384789380289567
      ],
      [
        "▁àtte",
        -10.384807018882235
      ],
      [
        "▁rire",
        -10.38518769415751
      ],
      [
        "▁attaché",
        -10.38574289113174
      ],
      [
        "▁droite",
        -10.38583938750675
      ],
      [
        "avec",
        -10.386507511066501
      ],
      [
        "▁L'un",
        -10.386524250036869
      ],
      [
        "ë",
        -10.386618752341263
      ],
      [
        "▁Sud",
        -10.38743150786405
      ],
      [
        "▁noms",
        -10.387467574395522
      ],
      [
        "▁projet",
        -10.387667826878738
      ],
      [
        "àcc",
        -10.388672753092685
      ],
      [
        "▁devrai",
        -10.388803326684577
      ],
      [
        "▁Lui",
        -10.389300985093708
      ],
      [
        "▁mou",
        -10.389548580401147
      ],
      [
        "▁état",
        -10.390208003742055
      ],
      [
        "▁t'avai",
        -10.391476478930475
      ],
      [
        "▁vends",
        -10.39240343752473
      ],
      [
        "▁dessin",
        -10.393751067610019
      ],
      [
        "▁ailleurs",
        -10.39883545327666
      ],
      [
        "▁der",
        -10.398899032470192
      ],
      [
        "▁forte",
        -10.399260690973396
      ],
      [
        "▁sortes",
        -10.401601026142693
      ],
      [
        "kati",
        -10.401750785657072
      ],
      [
        "es-tu",
        -10.401860951403663
      ],
      [
        "on.",
        -10.402082159957473
      ],
      [
        "wuma",
        -10.402309342257714
      ],
      [
        "▁tàll",
        -10.403223123745601
      ],
      [
        "▁réunis",
        -10.403737518504085
      ],
      [
        "▁déeg",
        -10.404766837364324
      ],
      [
        "▁craint",
        -10.407310051987144
      ],
      [
        "▁Dañ",
        -10.407912257235788
      ],
      [
        "▁wiy",
        -10.408005471185072
      ],
      [
        "▁m'avai",
        -10.408708264116477
      ],
      [
        "mes",
        -10.409768337018505
      ],
      [
        "erai",
        -10.410929339394078
      ],
      [
        "▁domaine",
        -10.41110883220596
      ],
      [
        "▁bavard",
        -10.411340942448437
      ],
      [
        "war",
        -10.411627808193344
      ],
      [
        "▁joli",
        -10.413490065798333
      ],
      [
        "▁laax",
        -10.41507764361748
      ],
      [
        "lli",
        -10.415215782262784
      ],
      [
        "▁daaw",
        -10.416781005615341
      ],
      [
        "▁sauvage",
        -10.416950693509353
      ],
      [
        "▁foi",
        -10.41903370178765
      ],
      [
        "▁tëral",
        -10.419164536295527
      ],
      [
        "▁traverse",
        -10.419954749563935
      ],
      [
        "▁rajo",
        -10.42047874741472
      ],
      [
        "ulli",
        -10.421376756495672
      ],
      [
        "▁Certain",
        -10.422841149645919
      ],
      [
        "▁Yóbbul",
        -10.42304958964171
      ],
      [
        "▁Jo",
        -10.423626716494132
      ],
      [
        "▁suur",
        -10.425565367495128
      ],
      [
        "▁vit",
        -10.428824982140611
      ],
      [
        "▁Attache",
        -10.430940677390646
      ],
      [
        "toi",
        -10.43184347460255
      ],
      [
        "▁rendi",
        -10.431907867400962
      ],
      [
        "▁palme",
        -10.43237427172102
      ],
      [
        "▁yit",
        -10.432661995307495
      ],
      [
        "espère",
        -10.432811365914308
      ],
      [
        "▁brûle",
        -10.433027243062842
      ],
      [
        "▁nature",
        -10.433336299108039
      ],
      [
        "yoon",
        -10.433557240910636
      ],
      [
        "▁sàq",
        -10.434211177496007
      ],
      [
        "fa",
        -10.434573214903818
      ],
      [
        "▁jàkk",
        -10.43460267873008
      ],
      [
        "▁filet",
        -10.43462307092777
      ],
      [
        "'était",
        -10.434887190049201
      ],
      [
        "▁jànj",
        -10.435596737828293
      ],
      [
        "▁xal",
        -10.43606334788996
      ],
      [
        "▁papier",
        -10.4369351747293
      ],
      [
        "▁respect",
        -10.437727579490248
      ],
      [
        "▁danse",
        -10.439649409170519
      ],
      [
        "▁montagne",
        -10.439696884477332
      ],
      [
        "▁bain",
        -10.440049549411922
      ],
      [
        "▁provi",
        -10.44323427286918
      ],
      [
        "▁tan",
        -10.443333903144762
      ],
      [
        "▁idée",
        -10.44408536998571
      ],
      [
        "intention",
        -10.444172144535788
      ],
      [
        "de.",
        -10.444175541905574
      ],
      [
        "ur.",
        -10.445723320389916
      ],
      [
        "▁nul",
        -10.445838205004172
      ],
      [
        "▁nja",
        -10.446591424172766
      ],
      [
        "▁suufu",
        -10.44719674822671
      ],
      [
        "▁wan",
        -10.44836910302493
      ],
      [
        "▁Néeg",
        -10.449311616971215
      ],
      [
        "▁simple",
        -10.449555703640819
      ],
      [
        "▁Biyaafaraa",
        -10.449894135289266
      ],
      [
        "▁propriétaire",
        -10.449894137165234
      ],
      [
        "▁Soudain",
        -10.44989415298673
      ],
      [
        "▁ramadan",
        -10.449894226330212
      ],
      [
        "▁Déedéet",
        -10.449894271703858
      ],
      [
        "▁Mbubb",
        -10.449896932123501
      ],
      [
        "▁keroog",
        -10.449897296631807
      ],
      [
        "▁Jamono",
        -10.44989835426917
      ],
      [
        "▁sowu-jant",
        -10.44989957742008
      ],
      [
        "▁délicieux",
        -10.449899924671524
      ],
      [
        "▁Ainsi",
        -10.449901351597584
      ],
      [
        "▁lessive",
        -10.449901386916729
      ],
      [
        "▁lu-tax",
        -10.449903816591894
      ],
      [
        "▁tubéy",
        -10.44990406590747
      ],
      [
        "▁jeûne",
        -10.44990415966597
      ],
      [
        "▁njég",
        -10.449906908684936
      ],
      [
        "▁pièce",
        -10.449919738339787
      ],
      [
        "▁beurre",
        -10.449919954751758
      ],
      [
        "▁lislaam",
        -10.449925679936701
      ],
      [
        "▁Almaañ",
        -10.449934163201302
      ],
      [
        "▁gouvernement",
        -10.449938128376628
      ],
      [
        "▁l'Angleterre",
        -10.44993831202483
      ],
      [
        "▁dimanche",
        -10.449938381354787
      ],
      [
        "▁conversation",
        -10.449947660210551
      ],
      [
        "▁ensuite",
        -10.449960773211073
      ],
      [
        "▁l'écart",
        -10.449973956207634
      ],
      [
        "▁menace",
        -10.449994478132972
      ],
      [
        "▁hutte",
        -10.450006141272482
      ],
      [
        "▁frontière",
        -10.450006232948686
      ],
      [
        "▁nourrisson",
        -10.450013895199069
      ],
      [
        "▁guró",
        -10.45001660801184
      ],
      [
        "▁l'aumône",
        -10.450023525787364
      ],
      [
        "▁marchandise",
        -10.450041937697511
      ],
      [
        "▁reçoi",
        -10.450071152625707
      ],
      [
        "▁genoux",
        -10.450086317947601
      ],
      [
        "▁honte",
        -10.450127578629834
      ],
      [
        "▁noix",
        -10.450133471490297
      ],
      [
        "▁blessé",
        -10.450145903061806
      ],
      [
        "▁Monsieur",
        -10.450152932562714
      ],
      [
        "▁bruit",
        -10.450181106140992
      ],
      [
        "▁clef",
        -10.450200409598718
      ],
      [
        "▁creux",
        -10.4502362216714
      ],
      [
        "▁abandonné",
        -10.450252014801876
      ],
      [
        "▁oublié",
        -10.450257956416946
      ],
      [
        "▁jaaxal",
        -10.450267733540013
      ],
      [
        "▁pauvre",
        -10.450323474709018
      ],
      [
        "▁tabac",
        -10.450332050300656
      ],
      [
        "▁Teewul",
        -10.450336673513101
      ],
      [
        "▁Demain",
        -10.45033843516985
      ],
      [
        "▁moment-là",
        -10.450350397261705
      ],
      [
        "▁Gorée",
        -10.450404126191255
      ],
      [
        "▁Pël",
        -10.450588021099037
      ],
      [
        "▁xayma",
        -10.450619816149167
      ],
      [
        "▁palaat",
        -10.450720632037521
      ],
      [
        "▁Eux",
        -10.450730546935867
      ],
      [
        "▁piqué",
        -10.450758247240742
      ],
      [
        "▁l'affaire",
        -10.450840507245012
      ],
      [
        "▁jaxasoo",
        -10.450928559815363
      ],
      [
        "▁camp",
        -10.450990516366767
      ],
      [
        "▁sàngara",
        -10.451064154304351
      ],
      [
        "▁bientôt",
        -10.451077982778088
      ],
      [
        "▁matinée",
        -10.45114255581013
      ],
      [
        "▁Laobé",
        -10.451153161143576
      ],
      [
        "▁tàllal",
        -10.45121092277627
      ],
      [
        "▁cornes",
        -10.4513142991615
      ],
      [
        "▁dërëm",
        -10.451315393214877
      ],
      [
        "▁jinne",
        -10.451572136432409
      ],
      [
        "▁waxaale",
        -10.45164287135173
      ],
      [
        "▁xef",
        -10.451661348157591
      ],
      [
        "▁lettre",
        -10.451800135440905
      ],
      [
        "▁gisaat",
        -10.451804402273737
      ],
      [
        "▁pressé",
        -10.451826511465192
      ],
      [
        "▁alkaati",
        -10.451852058653474
      ],
      [
        "▁brûlé",
        -10.451994029951583
      ],
      [
        "▁Mbir",
        -10.452072643619204
      ],
      [
        "▁coow",
        -10.452233734123004
      ],
      [
        "▁grains",
        -10.452392816558312
      ],
      [
        "▁Këram",
        -10.45245164545426
      ],
      [
        "▁Looloo",
        -10.452466541846885
      ],
      [
        "▁Géj",
        -10.452492713466414
      ],
      [
        "▁baraada",
        -10.452690710367376
      ],
      [
        "▁Bëgguma",
        -10.45279564178942
      ],
      [
        "▁jaŋg",
        -10.452934570263018
      ],
      [
        "▁neuf",
        -10.453129114268846
      ],
      [
        "▁xiif",
        -10.453308008662969
      ],
      [
        "▁meubles",
        -10.453410405482325
      ],
      [
        "▁Tool",
        -10.45342792357517
      ],
      [
        "▁xeeñ",
        -10.453656333277468
      ],
      [
        "▁cor",
        -10.453910638711914
      ],
      [
        "▁ressemblent",
        -10.454000360224445
      ],
      [
        "▁ŋgoon",
        -10.454076866551564
      ],
      [
        "▁Donne-m",
        -10.454093012821371
      ],
      [
        "▁Bërë",
        -10.454565065195982
      ],
      [
        "▁soldats",
        -10.454715808373253
      ],
      [
        "▁insectes",
        -10.454836090403484
      ],
      [
        "▁serré",
        -10.454842201175785
      ],
      [
        "▁courir",
        -10.455073017424176
      ],
      [
        "▁yànj",
        -10.455086596789663
      ],
      [
        "▁gàddu",
        -10.455196700814804
      ],
      [
        "▁joie",
        -10.455204908349858
      ],
      [
        "u-nekk",
        -10.45531141832594
      ],
      [
        "▁fumée",
        -10.455535134002007
      ],
      [
        "▁coule",
        -10.455893312961708
      ],
      [
        "▁Guy",
        -10.456603728114626
      ],
      [
        "▁maye",
        -10.456721159610977
      ],
      [
        "▁baay.",
        -10.456723766220913
      ],
      [
        "▁dessiné",
        -10.456780182637646
      ],
      [
        "▁méchant",
        -10.457079231228258
      ],
      [
        "▁descendre",
        -10.457464871434798
      ],
      [
        "▁wàcce",
        -10.457620984302665
      ],
      [
        "▁woowe",
        -10.457828032566123
      ],
      [
        "▁sommeil",
        -10.457964294454946
      ],
      [
        "▁taaru",
        -10.45840997971402
      ],
      [
        "▁dëj",
        -10.458447273463852
      ],
      [
        "▁Ñàkkul",
        -10.458714466330514
      ],
      [
        "naka",
        -10.458766465322276
      ],
      [
        "lle",
        -10.458912904455921
      ],
      [
        "▁nar",
        -10.459117019204292
      ],
      [
        "▁goutte",
        -10.459733439188
      ],
      [
        "▁voisins",
        -10.459830961492377
      ],
      [
        "andoo",
        -10.459878063795403
      ],
      [
        "▁xolam",
        -10.460691353170226
      ],
      [
        "▁Niis",
        -10.460734877033783
      ],
      [
        "▁tàgg",
        -10.460953448864021
      ],
      [
        "▁quitté",
        -10.46111754001762
      ],
      [
        "▁voudrai",
        -10.461122222180563
      ],
      [
        "▁neexee",
        -10.462083598264538
      ],
      [
        "biy",
        -10.462134720542142
      ],
      [
        "▁crâne",
        -10.462183714037549
      ],
      [
        "▁mukk",
        -10.462605950742116
      ],
      [
        "▁voitures",
        -10.462665601866298
      ],
      [
        "▁savane",
        -10.46296234315391
      ],
      [
        "▁prête",
        -10.463688939110927
      ],
      [
        "tenir",
        -10.464214299506413
      ],
      [
        "▁disait",
        -10.46481361551884
      ],
      [
        "▁Wut",
        -10.46605103487526
      ],
      [
        "▁hyène",
        -10.466565330596575
      ],
      [
        "iy",
        -10.466825743182689
      ],
      [
        "▁waxoon",
        -10.466984951001017
      ],
      [
        "z-vous",
        -10.46699579558954
      ],
      [
        "▁amené",
        -10.468125625282239
      ],
      [
        "aatu",
        -10.46850224164407
      ],
      [
        "▁ñówee",
        -10.468957665930539
      ],
      [
        "▁cultive",
        -10.469048864288027
      ],
      [
        "▁baayam",
        -10.469100569293479
      ],
      [
        "▁jote",
        -10.46951099076449
      ],
      [
        "▁fatt",
        -10.47004124792142
      ],
      [
        "▁objets",
        -10.470430160762797
      ],
      [
        "▁darab",
        -10.470760714267865
      ],
      [
        "▁dënnu",
        -10.47115773893832
      ],
      [
        "▁veau",
        -10.471290301435584
      ],
      [
        "▁travaille",
        -10.471550186382581
      ],
      [
        "▁clin",
        -10.472133642541687
      ],
      [
        "▁sës",
        -10.472391443178157
      ],
      [
        "▁xobi",
        -10.472887090365282
      ],
      [
        "▁l'avai",
        -10.474449574450771
      ],
      [
        "▁ame",
        -10.475389622713129
      ],
      [
        "▁Europe",
        -10.475426034062277
      ],
      [
        "endant",
        -10.475524101575921
      ],
      [
        "▁lieux",
        -10.475572244303834
      ],
      [
        "▁reçu",
        -10.475602295213468
      ],
      [
        "▁Taw",
        -10.47562475286757
      ],
      [
        "▁rentré",
        -10.47592045646029
      ],
      [
        "▁vivres",
        -10.47711506506699
      ],
      [
        "▁arrivée",
        -10.4773251853156
      ],
      [
        "ro",
        -10.477716751354428
      ],
      [
        "▁taax",
        -10.477848818236662
      ],
      [
        "vant",
        -10.47844498336119
      ],
      [
        "▁cru",
        -10.478676427558895
      ],
      [
        "▁Yóbbu",
        -10.478914995902974
      ],
      [
        "▁branches",
        -10.479333437639882
      ],
      [
        "▁not",
        -10.480194112462655
      ],
      [
        "▁më",
        -10.48069349527774
      ],
      [
        "▁veille",
        -10.481603240596641
      ],
      [
        "-bët",
        -10.481788699096764
      ],
      [
        "▁nguuru",
        -10.48196122574074
      ],
      [
        "▁Woo",
        -10.482455240760718
      ],
      [
        "▁Parle",
        -10.482647240207262
      ],
      [
        "▁s'agi",
        -10.483422405406284
      ],
      [
        "▁six",
        -10.483617862037022
      ],
      [
        "▁bitik",
        -10.48388120829977
      ],
      [
        "▁africain",
        -10.483950967255593
      ],
      [
        "▁liir",
        -10.487564434586401
      ],
      [
        "▁Ngela",
        -10.48819929886037
      ],
      [
        "▁feras",
        -10.488379719089615
      ],
      [
        "seras",
        -10.488500323351401
      ],
      [
        "▁refuse",
        -10.488757780703942
      ],
      [
        "▁allon",
        -10.489677647119919
      ],
      [
        "▁fui",
        -10.489960651788627
      ],
      [
        "▁Aka",
        -10.489977039391142
      ],
      [
        "▁sommet",
        -10.489988629343387
      ],
      [
        "▁wee",
        -10.490815374959366
      ],
      [
        "urs",
        -10.490880777774207
      ],
      [
        "▁ree",
        -10.492430103450896
      ],
      [
        "▁tenue",
        -10.492787217999837
      ],
      [
        "▁max",
        -10.493063988737106
      ],
      [
        "▁manche",
        -10.493768189823275
      ],
      [
        "▁indil",
        -10.495128609071996
      ],
      [
        "▁yenu",
        -10.495513352174424
      ],
      [
        "▁xo",
        -10.495645583328603
      ],
      [
        "▁soi",
        -10.496542295513441
      ],
      [
        "▁nég",
        -10.496660670034407
      ],
      [
        "guloo",
        -10.496748605775107
      ],
      [
        "▁permet",
        -10.497391098847537
      ],
      [
        "▁sec",
        -10.498157874805312
      ],
      [
        "▁kee",
        -10.499102397490619
      ],
      [
        "oom",
        -10.499781444195534
      ],
      [
        "▁jiitu",
        -10.500128279079679
      ],
      [
        "▁d'arachides",
        -10.5003640380057
      ],
      [
        "▁chance",
        -10.500733956728943
      ],
      [
        "▁différent",
        -10.502649530938914
      ],
      [
        "▁cëpp",
        -10.502808729025013
      ],
      [
        "▁iras",
        -10.503580018608849
      ],
      [
        "▁vert",
        -10.50399917030526
      ],
      [
        "rie",
        -10.5044540333662
      ],
      [
        "lé",
        -10.50482080359767
      ],
      [
        "▁reew",
        -10.507287409460162
      ],
      [
        "▁apporte",
        -10.507433870130711
      ],
      [
        "▁Muu",
        -10.507456399638885
      ],
      [
        "▁ñooñu",
        -10.508044966990386
      ],
      [
        "▁wala",
        -10.508064308916781
      ],
      [
        "▁Ko",
        -10.508762334256355
      ],
      [
        "▁pointe",
        -10.511655800364066
      ],
      [
        "▁sañ",
        -10.512009743657122
      ],
      [
        "▁viennes",
        -10.512082026431806
      ],
      [
        "tant",
        -10.51262876572275
      ],
      [
        "▁paroles",
        -10.51302612172607
      ],
      [
        "▁lutter",
        -10.513829403700624
      ],
      [
        "▁peut-",
        -10.51438723399889
      ],
      [
        "▁français",
        -10.515173330184219
      ],
      [
        "▁jigéen.",
        -10.516070927773605
      ],
      [
        "▁fen",
        -10.516616082647431
      ],
      [
        "▁sert",
        -10.5183145579649
      ],
      [
        "▁siiw",
        -10.518391268228411
      ],
      [
        "▁wees",
        -10.51902230173937
      ],
      [
        "▁maak",
        -10.519241653298462
      ],
      [
        "▁ras",
        -10.519974082229073
      ],
      [
        "▁course",
        -10.520352544717682
      ],
      [
        "seront",
        -10.52040076329443
      ],
      [
        "▁liggéeyam",
        -10.521096953459743
      ],
      [
        "restr",
        -10.521411312528986
      ],
      [
        "▁nañoo",
        -10.521426645043356
      ],
      [
        "ique",
        -10.521688253690165
      ],
[...]
