{
  "version": "1.0",
  "truncation": null,
  "padding": null,
  "added_tokens": [
    {
      "id": 0,
      "content": "<cls>",
      "single_word": false,
      "lstrip": false,
      "rstrip": false,
      "normalized": false,
      "special": true
    },
    {
      "id": 1,
      "content": "<sep>",
      "single_word": false,
      "lstrip": false,
      "rstrip": false,
      "normalized": false,
      "special": true
    },
    {
      "id": 2,
      "content": "<unk>",
      "single_word": false,
      "lstrip": false,
      "rstrip": false,
      "normalized": false,
      "special": true
    },
    {
      "id": 3,
      "content": "<pad>",
      "single_word": false,
      "lstrip": false,
      "rstrip": false,
      "normalized": false,
      "special": true
    },
    {
      "id": 4,
      "content": "<mask>",
      "single_word": false,
      "lstrip": false,
      "rstrip": false,
      "normalized": false,
      "special": true
    },
    {
      "id": 5,
      "content": "<s>",
      "single_word": false,
      "lstrip": false,
      "rstrip": false,
      "normalized": false,
      "special": true
    },
    {
      "id": 6,
      "content": "</s>",
      "single_word": false,
      "lstrip": false,
      "rstrip": false,
      "normalized": false,
      "special": true
    }
  ],
  "normalizer": {
    "type": "Replace",
    "pattern": {
      "String": " {2,}"
    },
    "content": " "
  },
  "pre_tokenizer": {
    "type": "Metaspace",
    "replacement": "▁",
    "add_prefix_space": true
  },
  "post_processor": null,
  "decoder": {
    "type": "Metaspace",
    "replacement": "▁",
    "add_prefix_space": true
  },
  "model": {
    "type": "Unigram",
    "unk_id": 2,
    "vocab": [
      [
        "<cls>",
        0.0
      ],
      [
        "<sep>",
        0.0
      ],
      [
        "<unk>",
        0.0
      ],
      [
        "<pad>",
        0.0
      ],
      [
        "<mask>",
        0.0
      ],
      [
        "<s>",
        0.0
      ],
      [
        "</s>",
        0.0
      ],
      [
        ".",
        -2.6977166356034132
      ],
      [
        "▁",
        -3.0016844040093904
      ],
      [
        ",",
        -3.5958905575874915
      ],
      [
        "▁la",
        -4.203886019270751
      ],
      [
        "▁de",
        -4.336513674308948
      ],
      [
        "s",
        -4.631936270958827
      ],
      [
        "e",
        -4.719577226703087
      ],
      [
        "!",
        -4.723122271860167
      ],
      [
        "a",
        -4.811223702724153
      ],
      [
        "▁le",
        -4.825274041888708
      ],
      [
        "y",
        -4.851193652487549
      ],
      [
        "▁ko",
        -4.859513901355349
      ],
      [
        "▁Il",
        -4.892091033836344
      ],
      [
        "▁pas",
        -4.947364266342286
      ],
      [
        "▁ne",
        -5.00297125334976
      ],
      [
        "▁ci",
        -5.005975383782499
      ],
      [
        "?",
        -5.074518709508404
      ],
      [
        "▁est",
        -5.092209432631962
      ],
      [
        "▁a",
        -5.189292949489157
      ],
      [
        "▁bi",
        -5.197672354329449
      ],
      [
        "u",
        -5.239628432216855
      ],
      [
        "▁que",
        -5.25196221202502
      ],
      [
        "▁qui",
        -5.27069238388353
      ],
      [
        "▁à",
        -5.290436394193858
      ],
      [
        "▁un",
        -5.308260654829255
      ],
      [
        "i",
        -5.364895625181924
      ],
      [
        "▁ma",
        -5.383485553203071
      ],
      [
        "▁na",
        -5.399332411568993
      ],
      [
        "▁C'est",
        -5.433403668968173
      ],
      [
        "▁tu",
        -5.442475744470243
      ],
      [
        "▁!",
        -5.4769286586863375
      ],
      [
        "▁du",
        -5.507256559948936
      ],
      [
        "▁les",
        -5.55745020505308
      ],
      [
        "▁mu",
        -5.560364220307577
      ],
      [
        "▁des",
        -5.614308692020283
      ],
      [
        "l",
        -5.765756368714822
      ],
      [
        "t",
        -5.773002822494707
      ],
      [
        "n",
        -5.773257799067569
      ],
      [
        "▁nga",
        -5.789900916000625
      ],
      [
        "▁ba",
        -5.7975474567585845
      ],
      [
        "▁Je",
        -5.818547786895978
      ],
      [
        "▁gi",
        -5.823976894460043
      ],
      [
        "▁sa",
        -5.852009685034912
      ],
      [
        "▁en",
        -5.880739153363156
      ],
      [
        "une",
        -5.884266159304867
      ],
      [
        "▁Dafa",
        -5.914769218014791
      ],
      [
        "▁pour",
        -5.931296226649848
      ],
      [
        "▁Le",
        -5.940198864153984
      ],
      [
        "▁dafa",
        -5.971099399381897
      ],
      [
        "▁ngi",
        -5.990699692455997
      ],
      [
        "▁yi",
        -6.020846642934042
      ],
      [
        "r",
        -6.03564698003748
      ],
      [
        "▁bu",
        -6.047377680239732
      ],
      [
        "▁dans",
        -6.067883901253726
      ],
      [
        "▁je",
        -6.073342911388429
      ],
      [
        "▁qu'il",
        -6.083222709742702
      ],
      [
        "▁dem",
        -6.093888182138061
      ],
      [
        "▁te",
        -6.102793798472515
      ],
      [
        "▁il",
        -6.103546891340358
      ],
      [
        "▁se",
        -6.115516511759111
      ],
      [
        "▁ce",
        -6.17526901963716
      ],
      [
        "▁lui",
        -6.194430830844247
      ],
      [
        "▁Tu",
        -6.203514202300309
      ],
      [
        "▁di",
        -6.219813633365425
      ],
      [
        ";",
        -6.226638334121817
      ],
      [
        "à",
        -6.237066844638227
      ],
      [
        "▁?",
        -6.2877525187373
      ],
      [
        "al",
        -6.290753308716795
      ],
      [
        "▁naa",
        -6.294081329095331
      ],
      [
        "▁au",
        -6.313172078509593
      ],
      [
        "▁mi",
        -6.317948825825729
      ],
      [
        "d",
        -6.3392000790507845
      ],
      [
        "▁et",
        -6.3403824954474555
      ],
      [
        "▁sont",
        -6.362942690161516
      ],
      [
        "▁ak",
        -6.373280044052903
      ],
      [
        "▁La",
        -6.378069258141752
      ],
      [
        "▁fait",
        -6.387707091659054
      ],
      [
        "il",
        -6.401465470881841
      ],
      [
        "▁ca",
        -6.4214202926876
      ],
      [
        "s.",
        -6.429710273574096
      ],
      [
        "▁y",
        -6.431440467995919
      ],
      [
        "▁c'est",
        -6.434056847469901
      ],
      [
        "le",
        -6.435137337263733
      ],
      [
        "▁avec",
        -6.441908950769474
      ],
      [
        "▁am",
        -6.466907260189543
      ],
      [
        "▁ñu",
        -6.467421130234153
      ],
      [
        "▁sur",
        -6.494490952212502
      ],
      [
        "é",
        -6.498946922369266
      ],
      [
        "▁ay",
        -6.571492233961499
      ],
      [
        "et",
        -6.598601506881909
      ],
      [
        "▁la.",
        -6.599231671242637
      ],
      [
        "▁c",
        -6.632522868451768
      ],
      [
        "▁wax",
        -6.650467507079611
      ],
      [
        "e.",
        -6.658116582551845
      ],
      [
        "▁bi.",
        -6.710791891991164
      ],
      [
        "▁ji",
        -6.7217016966896805
      ],
      [
        "▁Omar",
        -6.7373654489881805
      ],
      [
        "▁plus",
        -6.742700217063601
      ],
      [
        "▁O",
        -6.751071908827012
      ],
      [
        "on",
        -6.753503526616227
      ],
      [
        "▁Les",
        -6.766221275368642
      ],
      [
        "▁Si",
        -6.769517172599192
      ],
      [
        "▁Sa",
        -6.773545757238963
      ],
      [
        "▁J'ai",
        -6.779792643054982
      ],
      [
        "▁moo",
        -6.790062862332293
      ],
      [
        "▁me",
        -6.795352782273296
      ],
      [
        "▁son",
        -6.802691591021702
      ],
      [
        "▁Ce",
        -6.805608156824664
      ],
      [
        "▁sama",
        -6.813271584038266
      ],
      [
        "▁lu",
        -6.818178937901689
      ],
      [
        "▁def",
        -6.82538881805417
      ],
      [
        "▁Mu",
        -6.828713056737866
      ],
      [
        "▁n'est",
        -6.830308925958806
      ],
      [
        "▁si",
        -6.833097191659507
      ],
      [
        "▁Bu",
        -6.835509053001887
      ],
      [
        "▁Quan",
        -6.838656644713947
      ],
      [
        "▁rekk",
        -6.852104285332306
      ],
      [
        "▁yu",
        -6.855595281594298
      ],
      [
        "▁wi",
        -6.863594700326282
      ],
      [
        "▁Dama",
        -6.878351576981051
      ],
      [
        "▁fi",
        -6.879864942725513
      ],
      [
        "▁vu",
        -6.891989240096118
      ],
      [
        "▁Ku",
        -6.901444951840971
      ],
      [
        "▁par",
        -6.9319135444534865
      ],
      [
        "▁ni",
        -6.936950591963072
      ],
      [
        "▁nous",
        -6.940172267559924
      ],
      [
        "▁li",
        -6.948600132518168
      ],
      [
        "▁l'a",
        -6.958409484915586
      ],
      [
        "ette",
        -6.9614182987671
      ],
      [
        "▁d",
        -6.9805823146261465
      ],
      [
        "m",
        -6.981154572238192
      ],
      [
        "▁ton",
        -7.040145381876954
      ],
      [
        "▁tout",
        -7.042545942194755
      ],
      [
        "▁xam",
        -7.051622137245867
      ],
      [
        "▁Un",
        -7.0677649169553485
      ],
      [
        "▁as",
        -7.071162683354171
      ],
      [
        "▁qu'on",
        -7.084224304775559
      ],
      [
        "▁nekk",
        -7.090543832927857
      ],
      [
        "▁l",
        -7.091544829788161
      ],
      [
        "er",
        -7.091893659802476
      ],
      [
        "nt",
        -7.102213474099458
      ],
      [
        "▁Ne",
        -7.103350463668356
      ],
      [
        "▁faire",
        -7.103842544289903
      ],
      [
        "▁gis",
        -7.104673405476281
      ],
      [
        "am",
        -7.115713590051828
      ],
      [
        "▁Am",
        -7.128910904891259
      ],
      [
        "▁dit",
        -7.1625077620000805
      ],
      [
        "▁doon",
        -7.168750163568257
      ],
      [
        "▁toi",
        -7.175863264873378
      ],
      [
        "oo",
        -7.194239167965087
      ],
      [
        "▁va",
        -7.194935952693254
      ],
      [
        "▁fa",
        -7.200903310670364
      ],
      [
        "▁ku",
        -7.212775403245702
      ],
      [
        "▁ŋga",
        -7.218618265595504
      ],
      [
        "▁lay",
        -7.223456887845431
      ],
      [
        "es",
        -7.223488586125883
      ],
      [
        "▁été",
        -7.234487435411286
      ],
      [
        "▁woon",
        -7.234813033521973
      ],
      [
        "▁nit",
        -7.235932053778695
      ],
      [
        "▁Góor",
        -7.2369372748437595
      ],
      [
        "▁may",
        -7.237556240592499
      ],
      [
        "▁mon",
        -7.238376541455415
      ],
      [
        "▁vous",
        -7.270992472420345
      ],
      [
        "▁nañu",
        -7.271161069095029
      ],
      [
        "▁s'est",
        -7.27382956634765
      ],
      [
        "▁xale",
        -7.286139252034923
      ],
      [
        "▁Ci",
        -7.294365824568727
      ],
      [
        "▁laa",
        -7.294735051062219
      ],
      [
        "▁leen",
        -7.2956211474943204
      ],
      [
        "▁dañu",
        -7.31563017532906
      ],
      [
        "▁Gis",
        -7.315995226355176
      ],
      [
        "▁moom",
        -7.323429044038643
      ],
      [
        "▁ta",
        -7.325557333282259
      ],
      [
        "▁Su",
        -7.330368253761841
      ],
      [
        "▁maison",
        -7.343078009463013
      ],
      [
        "▁Sama",
        -7.343178885174251
      ],
      [
        "▁lañu",
        -7.346325062583686
      ],
      [
        "-",
        -7.348371931960001
      ],
      [
        "▁bii",
        -7.3563073159115175
      ],
      [
        "▁n'a",
        -7.361266260754948
      ],
      [
        "la",
        -7.365178672505298
      ],
      [
        "▁D",
        -7.365803617297693
      ],
      [
        "▁dina",
        -7.370368853351478
      ],
      [
        "ne",
        -7.372963466469298
      ],
      [
        "▁seen",
        -7.39013277391605
      ],
      [
        "▁kër",
        -7.392864015055432
      ],
      [
        "▁ab",
        -7.4036063972521235
      ],
      [
        "▁yi.",
        -7.40403203686573
      ],
      [
        "▁Elle",
        -7.4061969845113085
      ],
      [
        "▁nag",
        -7.408784904547801
      ],
      [
        "▁enfants",
        -7.412053978607414
      ],
      [
        "▁Soo",
        -7.414871106247429
      ],
      [
        "▁dafay",
        -7.417745285596382
      ],
      [
        "▁tax",
        -7.4200874377725805
      ],
      [
        "▁Yàlla",
        -7.422746903232659
      ],
      [
        "o",
        -7.425229949775605
      ],
      [
        "▁ndax",
        -7.4303010526464615
      ],
      [
        "▁homme",
        -7.437737410711693
      ],
      [
        "en",
        -7.442573429662516
      ],
      [
        "▁chose",
        -7.444142762736016
      ],
      [
        "▁ga",
        -7.444854642015838
      ],
      [
        "est",
        -7.447611788797311
      ],
      [
        "▁Dieu",
        -7.457470264139541
      ],
      [
        "▁m",
        -7.457938869447505
      ],
      [
        "te",
        -7.459089087430649
      ],
      [
        "▁mais",
        -7.463596668686568
      ],
      [
        "▁Ba",
        -7.463867381800419
      ],
      [
        "ent",
        -7.475546470255233
      ],
      [
        "▁ça",
        -7.4837856522228945
      ],
      [
        "ay",
        -7.490636150099523
      ],
      [
        "▁na.",
        -7.50085422531501
      ],
      [
        "▁peut",
        -7.508883569524483
      ],
      [
        "s-tu",
        -7.510838906224282
      ],
      [
        "▁n",
        -7.512036808446936
      ],
      [
        "b",
        -7.515041473622301
      ],
      [
        "▁veux",
        -7.515555656040952
      ],
      [
        "▁C",
        -7.518139605245736
      ],
      [
        "▁l'",
        -7.520996929900817
      ],
      [
        "▁benn",
        -7.521729033646046
      ],
      [
        "▁bien",
        -7.523567124994615
      ],
      [
        "▁Lu",
        -7.5363217957839135
      ],
      [
        "▁comme",
        -7.537711982564913
      ],
      [
        "ont",
        -7.545256953616535
      ],
      [
        "▁bëgg",
        -7.5465119955243765
      ],
      [
        "▁enfant",
        -7.552428996804899
      ],
      [
        "▁waay",
        -7.557065660567043
      ],
      [
        "▁Qui",
        -7.557445281055924
      ],
      [
        "r.",
        -7.560596960665068
      ],
      [
        "▁où",
        -7.5634026834068555
      ],
      [
        "▁n'",
        -7.563488744175178
      ],
      [
        "▁bare",
        -7.5647218401971905
      ],
      [
        "▁parti",
        -7.568850213762224
      ],
      [
        "ma",
        -7.575401336341587
      ],
      [
        "▁d'un",
        -7.576738477285634
      ],
      [
        "▁ici",
        -7.579021242969438
      ],
      [
        "▁J",
        -7.58285033175522
      ],
      [
        "▁P",
        -7.586528651011555
      ],
      [
        "k",
        -7.593277347583972
      ],
      [
        "▁suis",
        -7.596665848220411
      ],
      [
        "▁yépp",
        -7.602155709465039
      ],
      [
        "▁L'homme",
        -7.602218854256143
      ],
      [
        "▁L",
        -7.6054160756443485
      ],
      [
        "▁j'ai",
        -7.60546992723501
      ],
      [
        "▁porte",
        -7.607056898410421
      ],
      [
        "▁deux",
        -7.6071351339865085
      ],
      [
        "▁baax",
        -7.619901750402219
      ],
      [
        "▁biir",
        -7.620612839400432
      ],
      [
        "▁ñi",
        -7.628893597933249
      ],
      [
        "▁Dañu",
        -7.629707396726607
      ],
      [
        "-moi",
        -7.63218810442187
      ],
      [
        "▁t",
        -7.633352596178595
      ],
      [
        "▁yaa",
        -7.635500079882064
      ],
      [
        "ce",
        -7.640396262054933
      ],
      [
        "▁s",
        -7.641044005496419
      ],
      [
        "▁Nit",
        -7.647770660150325
      ],
      [
        "ngay",
        -7.651084037625064
      ],
      [
        "les",
        -7.651709842864957
      ],
      [
        "it",
        -7.6524586606467375
      ],
      [
        "▁personne",
        -7.652764259391426
      ],
      [
        "oon",
        -7.664845233981908
      ],
      [
        "un",
        -7.667306205136727
      ],
      [
        "x",
        -7.669519205647182
      ],
      [
        "g",
        -7.6817379973344995
      ],
      [
        "▁xar",
        -7.692849400186034
      ],
      [
        "▁moi",
        -7.692980716899658
      ],
      [
        "▁gu",
        -7.693980560666076
      ],
      [
        "▁là",
        -7.703078398980584
      ],
      [
        "▁bëgga",
        -7.704005851072316
      ],
      [
        "▁jusqu'",
        -7.709563944890182
      ],
      [
        "▁rien",
        -7.71095219661951
      ],
      [
        "▁beaucoup",
        -7.712075246911412
      ],
      [
        "▁Maa",
        -7.712609160169984
      ],
      [
        "▁photo",
        -7.721254727760905
      ],
      [
        "▁encore",
        -7.7312176403226704
      ],
      [
        "ses",
        -7.734212332149068
      ],
      [
        "▁autre",
        -7.736256560680206
      ],
      [
        "re",
        -7.736509724788592
      ],
      [
        "▁ont",
        -7.737208030839696
      ],
      [
        "ait",
        -7.737808301555278
      ],
      [
        "▁d'",
        -7.74045458108269
      ],
      [
        "▁Nous",
        -7.741414287810134
      ],
      [
        "▁boo",
        -7.743187842172655
      ],
      [
        "▁kenn",
        -7.751361877666427
      ],
      [
        "▁elle",
        -7.753199499228365
      ],
      [
        "▁dara",
        -7.75403269482344
      ],
      [
        "▁gens",
        -7.754290479392406
      ],
      [
        "que",
        -7.754717803947844
      ],
      [
        "tu",
        -7.7553224808191565
      ],
      [
        "▁cela",
        -7.756221854762006
      ],
      [
        "▁Danga",
        -7.75742991377169
      ],
      [
        "▁doom",
        -7.759495513208807
      ],
      [
        "e,",
        -7.763400683959863
      ],
      [
        "▁cause",
        -7.76453115275088
      ],
      [
        "▁góor",
        -7.769002191331342
      ],
      [
        "▁l'homme",
        -7.771607751095707
      ],
      [
        "▁on",
        -7.773446063021268
      ],
      [
        "▁su",
        -7.780034952606316
      ],
      [
        "▁l'eau",
        -7.781721422571585
      ],
      [
        "é.",
        -7.781876128791713
      ],
      [
        "▁cheval",
        -7.785146154457076
      ],
      [
        "▁ju",
        -7.7867081445480215
      ],
      [
        "▁m'a",
        -7.787936413471763
      ],
      [
        "▁daan",
        -7.790183222696849
      ],
      [
        "▁ñëw",
        -7.792912431563594
      ],
      [
        "ci",
        -7.794946320269679
      ],
      [
        "▁néeg",
        -7.794985244568189
      ],
      [
        "▁bon",
        -7.806721605613643
      ],
      [
        "▁nu",
        -7.809007650453608
      ],
      [
        "ñ",
        -7.8110283466132335
      ],
      [
        "▁A",
        -7.816341398879876
      ],
      [
        "▁S",
        -7.823025450524083
      ],
      [
        "▁mel",
        -7.82559253626055
      ],
      [
        "▁veut",
        -7.829570227030168
      ],
      [
        "di",
        -7.833166804231804
      ],
      [
        "▁parle",
        -7.834258328966305
      ],
      [
        "▁Bul",
        -7.834455868817215
      ],
      [
        "▁ñaar",
        -7.835749570327135
      ],
      [
        "▁mën",
        -7.845722633552241
      ],
      [
        "de",
        -7.848383268864298
      ],
      [
        "▁cet",
        -7.852531316333875
      ],
      [
        "▁fais",
        -7.853225390290618
      ],
      [
        "▁Va",
        -7.854352511597346
      ],
      [
        "▁même",
        -7.855226843719329
      ],
      [
        "▁mouton",
        -7.861582814587637
      ],
      [
        "▁N",
        -7.864192118272467
      ],
      [
        "▁ndox",
        -7.880398104173889
      ],
      [
        "▁:",
        -7.883175532606788
      ],
      [
        "ant",
        -7.887697797532311
      ],
      [
        "▁tous",
        -7.894827822300614
      ],
      [
        "▁avait",
        -7.895011991739376
      ],
      [
        "▁leur",
        -7.900128906352542
      ],
      [
        "▁quelque",
        -7.9063764557057725
      ],
      [
        "▁dëkk",
        -7.922604259094454
      ],
      [
        "▁rafet",
        -7.9232075226981244
      ],
      [
        "uma",
        -7.925186386153908
      ],
      [
        "▁Ton",
        -7.927292703199724
      ],
      [
        "▁garab",
        -7.929557318914497
      ],
      [
        "am.",
        -7.93549685821991
      ],
      [
        "▁tes",
        -7.936726439192018
      ],
      [
        "▁être",
        -7.938407891203726
      ],
      [
        "▁Xale",
        -7.9543665486719695
      ],
      [
        "▁était",
        -7.958276510025946
      ],
      [
        "▁léegi",
        -7.963542371804508
      ],
      [
        "▁sol",
        -7.968414638322434
      ],
      [
        "leen",
        -7.970024016669291
      ],
      [
        "▁peu",
        -7.971412659702034
      ],
      [
        "▁B",
        -7.971639745878358
      ],
      [
        "▁Li",
        -7.975290621646118
      ],
      [
        "c",
        -7.975307387725088
      ],
      [
        "▁Demal",
        -7.976631102871157
      ],
      [
        "▁Ndax",
        -7.978175227341487
      ],
      [
        "▁gëna",
        -7.994993245376777
      ],
      [
        "▁lañuy",
        -7.997221804999535
      ],
      [
        "▁femme",
        -7.997966017046043
      ],
      [
        "▁Ma",
        -7.99980815635303
      ],
      [
        "▁tey",
        -8.001781247450406
      ],
      [
        "▁sans",
        -8.011150475962218
      ],
      [
        "▁aussi",
        -8.013991716882925
      ],
      [
        "▁quelqu'un",
        -8.014133382313553
      ],
      [
        "▁soit",
        -8.014609479802019
      ],
      [
        "▁bee",
        -8.020487644217189
      ],
      [
        "w",
        -8.020904905118492
      ],
      [
        "▁l'ai",
        -8.021963305389221
      ],
      [
        "▁yoon",
        -8.025548823166949
      ],
      [
        "▁ngeen",
        -8.02777552603131
      ],
      [
        "f",
        -8.028088365968431
      ],
      [
        "▁man",
        -8.029801950145252
      ],
      [
        "ù",
        -8.037651054790778
      ],
      [
        "▁b",
        -8.038310932912943
      ],
      [
        "▁mis",
        -8.039443318633829
      ],
      [
        "▁voir",
        -8.040689117402636
      ],
      [
        "▁qu'elle",
        -8.04096701427552
      ],
      [
        "▁sais",
        -8.04304085940802
      ],
      [
        "▁dal",
        -8.04710656845473
      ],
      [
        "▁liggéey",
        -8.047868641087579
      ],
      [
        "avoir",
        -8.049617640742813
      ],
      [
        "▁amul",
        -8.056584461572236
      ],
      [
        "▁part",
        -8.066872056264282
      ],
      [
        "▁lekk",
        -8.071189012582089
      ],
      [
        "▁champ",
        -8.072545389522425
      ],
      [
        "▁travail",
        -8.074233522528967
      ],
      [
        "ons",
        -8.07618510053879
      ],
      [
        "▁vois",
        -8.078111192375806
      ],
      [
        "▁j",
        -8.079806645637785
      ],
      [
        "▁Du",
        -8.081616291494095
      ],
      [
        "▁Ñu",
        -8.084054122675077
      ],
      [
        "▁Cet",
        -8.088954645622476
      ],
      [
        "▁mes",
        -8.091316916090173
      ],
      [
        "as",
        -8.091514358837596
      ],
      [
        "▁doit",
        -8.096371329720931
      ],
      [
        "▁ñoo",
        -8.097588426066872
      ],
      [
        "▁Lii",
        -8.098407937255173
      ],
      [
        "▁sera",
        -8.102908549449602
      ],
      [
        "▁Que",
        -8.105232892134012
      ],
      [
        "▁Celui",
        -8.105471562593145
      ],
      [
        "▁riz",
        -8.108986082016795
      ],
      [
        "▁ag",
        -8.11171302092603
      ],
      [
        "i.",
        -8.114951405574581
      ],
      [
        "▁tête",
        -8.115609209596077
      ],
      [
        "▁aux",
        -8.115783794841121
      ],
      [
        "▁donné",
        -8.116710661096032
      ],
      [
        "▁l'enfant",
        -8.124937536676281
      ],
      [
        "▁venu",
        -8.127048079432992
      ],
      [
        "▁ñów",
        -8.130896199675064
      ],
      [
        "▁lool",
        -8.131163496233437
      ],
      [
        "▁maa",
        -8.132758545339216
      ],
      [
        "▁Na",
        -8.136860412632636
      ],
      [
        "▁Wax",
        -8.137555906826929
      ],
      [
        "▁Ça",
        -8.137563670728179
      ],
      [
        "▁Sur",
        -8.139105089612627
      ],
      [
        "▁s'en",
        -8.140253922151643
      ],
      [
        "▁celui",
        -8.141527449138934
      ],
      [
        "▁quan",
        -8.142443991390582
      ],
      [
        "▁M",
        -8.142578855331179
      ],
      [
        "▁fii",
        -8.145920415178786
      ],
      [
        "▁fu",
        -8.146527705701164
      ],
      [
        "▁pays",
        -8.147118561496038
      ],
      [
        "'",
        -8.148463032449289
      ],
      [
        "▁ki",
        -8.149492285903598
      ],
      [
        "▁celui-là",
        -8.154126746193551
      ],
      [
        "▁peux",
        -8.157191101753524
      ],
      [
        "▁avant",
        -8.158178707657527
      ],
      [
        "▁fas",
        -8.159067602114831
      ],
      [
        "▁dama",
        -8.159169469126175
      ],
      [
        "▁Boo",
        -8.16743926155417
      ],
      [
        "▁là-bas",
        -8.168938536679821
      ],
      [
        "▁demee",
        -8.171955784809317
      ],
      [
        "▁j'",
        -8.177503998906143
      ],
      [
        "▁naan",
        -8.181499537816162
      ],
      [
        "▁f",
        -8.182198736515232
      ],
      [
        "▁suuf",
        -8.182629696383533
      ],
      [
        "ñuy",
        -8.187317943019345
      ],
      [
        "▁T",
        -8.188223201669228
      ],
      [
        "▁sax",
        -8.191694298555454
      ],
      [
        "▁Moo",
        -8.193932474071065
      ],
      [
        "▁ya",
        -8.19588425434824
      ],
      [
        "▁jénd",
        -8.196012509259864
      ],
      [
        "and",
        -8.197763279629331
      ],
      [
        "▁réew",
        -8.19877879471408
      ],
      [
        "▁très",
        -8.199551384705366
      ],
      [
        "▁Nataal",
        -8.199942367291293
      ],
      [
        "▁nataal",
        -8.200147474410407
      ],
      [
        "▁partir",
        -8.200548009770676
      ],
      [
        "lu",
        -8.20198797976187
      ],
      [
        "▁say",
        -8.205288776514656
      ],
      [
        "▁faut",
        -8.209860640367499
      ],
      [
        "▁Yaa",
        -8.21102676930266
      ],
      [
        "▁petit",
        -8.216224816936169
      ],
      [
        "tre",
        -8.21650188830154
      ],
      [
        "▁Mon",
        -8.21696546870564
      ],
      [
        "ment",
        -8.217120681392476
      ],
      [
        "▁mère",
        -8.21778521990283
      ],
      [
        "▁yàgg",
        -8.219938220596434
      ],
      [
        "▁baa",
        -8.221042805379966
      ],
      [
        "▁pris",
        -8.22474050610909
      ],
      [
        "▁De",
        -8.229358832121754
      ],
      [
        "▁nii",
        -8.230024385765946
      ],
      [
        "eneen",
        -8.232716568458056
      ],
      [
        "▁Dem",
        -8.2337182283282
      ],
      [
        "▁Est-",
        -8.237372443570333
      ],
      [
        "▁temps",
        -8.239194769927902
      ],
      [
        "▁chambre",
        -8.2493734474636
      ],
      [
        "▁trop",
        -8.251859525770929
      ],
      [
        "▁toog",
        -8.252069435401308
      ],
      [
        "▁ai",
        -8.252312349939418
      ],
      [
        "▁À",
        -8.254306785467946
      ],
      [
        "▁es",
        -8.255594344172774
      ],
      [
        "▁entre",
        -8.255890609362748
      ],
      [
        "▁grand",
        -8.257572218924054
      ],
      [
        "▁ka",
        -8.267271925675026
      ],
      [
        "▁koo",
        -8.279567250457024
      ],
      [
        "▁jaay",
        -8.282901998246821
      ],
      [
        "ul",
        -8.283786495569469
      ],
      [
        "▁soo",
        -8.284321144426318
      ],
      [
        "ñu",
        -8.284744453870298
      ],
      [
        "▁t'a",
        -8.286395555844987
      ],
      [
        "j",
        -8.289177660191587
      ],
      [
        "es.",
        -8.293634557856567
      ],
      [
        "▁xaalis",
        -8.293981973542307
      ],
      [
        "▁Vous",
        -8.298924122405737
      ],
      [
        "▁maintenant",
        -8.299454670897383
      ],
      [
        "▁Attends",
        -8.30039571745418
      ],
      [
        "ak",
        -8.300643922960136
      ],
      [
        "▁xarit",
        -8.301358264458276
      ],
      [
        "ez",
        -8.30170474837907
      ],
      [
        "▁fois",
        -8.307851591330003
      ],
      [
        "▁yee",
        -8.30788730834578
      ],
      [
        "▁n'ai",
        -8.31057123874839
      ],
      [
        "▁k",
        -8.31095768662604
      ],
      [
        "▁weex",
        -8.315545660083174
      ],
      [
        "▁jox",
        -8.318072181515657
      ],
      [
        "▁Ta",
        -8.320540487371826
      ],
      [
        "▁tuuti",
        -8.320763068205002
      ],
      [
        "▁wu",
        -8.323310969801135
      ],
      [
        "▁teg",
        -8.324106494251843
      ],
      [
        "ee",
        -8.324810479581632
      ],
      [
        "▁aujourd'hui",
        -8.325699276877696
      ],
      [
        "▁jigéen",
        -8.327473968707384
      ],
      [
        "▁ŋgi",
        -8.329246166615285
      ],
      [
        "▁En",
        -8.330946214378574
      ],
      [
        "▁poisson",
        -8.332671030302908
      ],
      [
        "▁voiture",
        -8.333885890531716
      ],
      [
        "▁Nang",
        -8.334295301698385
      ],
      [
        "▁aller",
        -8.334589343426627
      ],
      [
        "▁tool",
        -8.335310922644343
      ],
      [
        "t.",
        -8.336833244928386
      ],
      [
        "ils",
        -8.34442784768465
      ],
      [
        "▁ngir",
        -8.344462431697249
      ],
      [
        "▁coup",
        -8.344830345122912
      ],
      [
        "▁gën",
        -8.345338409175689
      ],
      [
        "▁Jox",
        -8.347086454129759
      ],
      [
        "kat",
        -8.34767795935699
      ],
      [
        "▁fekk",
        -8.347736320346879
      ],
      [
        "▁gii",
        -8.34799005479318
      ],
      [
        "▁bala",
        -8.35103918653389
      ],
      [
        "▁l'intérieur",
        -8.353105013137203
      ],
      [
        "▁Ab",
        -8.355089442739928
      ],
      [
        "▁mag",
        -8.355945721633141
      ],
      [
        "▁qu",
        -8.35763768042802
      ],
      [
        "▁g",
        -8.357683388520956
      ],
      [
        "▁fini",
        -8.357871621512283
      ],
      [
        "lui",
        -8.359458185922362
      ],
      [
        "▁dis",
        -8.362607547494717
      ],
      [
        "▁Tout",
        -8.36352206312901
      ],
      [
        "▁loxo",
        -8.364554798401032
      ],
      [
        "▁danga",
        -8.366653488448604
      ],
      [
        "▁lii",
        -8.36774371568725
      ],
      [
        "▁ces",
        -8.370073377690728
      ],
      [
        "▁voilà",
        -8.371022251515265
      ],
      [
        "▁toute",
        -8.37682186672043
      ],
      [
        "▁wara",
        -8.376901633520312
      ],
      [
        "▁acheté",
        -8.377928681644928
      ],
      [
        "▁génn",
        -8.380250112569282
      ],
      [
        "laay",
        -8.384439983165244
      ],
      [
        "«",
        -8.38500816365027
      ],
      [
        "▁couscous",
        -8.386927537985141
      ],
      [
        "▁père",
        -8.39689439044015
      ],
      [
        "▁ndaw",
        -8.397118421013634
      ],
      [
        "-le",
        -8.397876390651565
      ],
      [
        "▁waa",
        -8.401286495479933
      ],
      [
        "▁passe",
        -8.403838764843368
      ],
      [
        "▁dugg",
        -8.404591123636374
      ],
      [
        "▁ja",
        -8.408122150150252
      ],
      [
        "se",
        -8.41286487042407
      ],
      [
        "▁ñépp",
        -8.417534011314299
      ],
      [
        "▁lait",
        -8.42268552888126
      ],
      [
        "▁mil",
        -8.423276706631908
      ],
      [
        "▁réer",
        -8.424359798351317
      ],
      [
        "▁Xaaral",
        -8.428974271702137
      ],
      [
        "▁bàyyi",
        -8.429049326296369
      ],
      [
        "▁moment",
        -8.429445389877543
      ],
      [
        "▁bois",
        -8.436282664470419
      ],
      [
        "▁contre",
        -8.44009268108751
      ],
      [
        "u.",
        -8.440541243200293
      ],
      [
        "tte",
        -8.442931890394172
      ],
      [
        "▁neex",
        -8.444061744356805
      ],
      [
        "▁p",
        -8.446017300220454
      ],
      [
        "▁trois",
        -8.448704286300805
      ],
      [
        "▁allé",
        -8.449673186444988
      ],
      [
        "▁terre",
        -8.450165948783642
      ],
      [
        "▁Loo",
        -8.451078232247594
      ],
      [
        "▁mal",
        -8.45175123605558
      ],
      [
        "▁doo",
        -8.4587230595929
      ],
      [
        "▁leurs",
        -8.459855635405848
      ],
      [
        "nga",
        -8.463036908354244
      ],
      [
        "▁Bi",
        -8.465410123307574
      ],
      [
        "▁yow",
        -8.468637718353298
      ],
      [
        "▁S'il",
        -8.468795376102577
      ],
      [
        "▁F",
        -8.479661624355945
      ],
      [
        "▁togg",
        -8.490215159726121
      ],
      [
        "▁point",
        -8.4921719770269
      ],
      [
        "um",
        -8.49658241406652
      ],
      [
        "▁Commen",
        -8.50700939045277
      ],
      [
        "▁l'autre",
        -8.511505597050984
      ],
      [
        "▁mieux",
        -8.51285380137781
      ],
      [
        "▁mëna",
        -8.513698757041654
      ],
      [
        "▁car",
        -8.515659660747163
      ],
      [
        "▁manger",
        -8.516184643727522
      ],
      [
        "ku",
        -8.517150023654281
      ],
      [
        "au",
        -8.518971220373821
      ],
      [
        "▁jàpp",
        -8.521408212847128
      ],
      [
        "eux",
        -8.522746730120907
      ],
      [
        "▁re",
        -8.523979209940958
      ],
      [
        "▁Ay",
        -8.528959612369192
      ],
      [
        "▁Man",
        -8.529251926970666
      ],
      [
        "▁Xar",
        -8.531158522566276
      ],
      [
        "▁»",
        -8.531860183209862
      ],
      [
        "as-tu",
        -8.532523499856106
      ],
      [
        "▁wa",
        -8.53535937502681
      ],
      [
        "▁dois",
        -8.538532609546877
      ],
      [
        "▁Ana",
        -8.53951103924491
      ],
      [
        "loo",
        -8.542452860795388
      ],
      [
        "▁Quel",
        -8.54507590759679
      ],
      [
        "▁Def",
        -8.547857027736558
      ],
      [
        "▁ëpp",
        -8.552680739304282
      ],
      [
        "▁ainsi",
        -8.555002541525077
      ],
      [
        "▁ba-noppi",
        -8.555354153005645
      ],
      [
        "▁ànd",
        -8.55637457443228
      ],
      [
        "▁ceeb",
        -8.557748136271055
      ],
      [
        "▁Seen",
        -8.558451496006292
      ],
      [
        "▁pied",
        -8.56097430446826
      ],
      [
        "▁mets",
        -8.563755533575751
      ],
      [
        "▁ou",
        -8.564394104144093
      ],
      [
        "aient",
        -8.568565117282134
      ],
      [
        "▁J'",
        -8.56997782056752
      ],
      [
        "▁s'",
        -8.570478438009992
      ],
      [
        "▁war",
        -8.572169066410467
      ],
      [
        "woon",
        -8.572778127873852
      ],
      [
        "▁jél",
        -8.57755462458986
      ],
      [
        "ante",
        -8.577795291613997
      ],
      [
        "▁bunt",
        -8.579443110064425
      ],
      [
        "▁tànk",
        -8.579771441141533
      ],
      [
        "▁sac",
        -8.580522931935105
      ],
      [
        "▁couleur",
        -8.583347434636789
      ],
      [
        "▁Waaw",
        -8.584487740758128
      ],
      [
        "▁habits",
        -8.58610702130316
      ],
      [
        "▁Waa",
        -8.589251322922285
      ],
      [
        "▁vais",
        -8.59235905900193
      ],
      [
        "▁Cherche",
        -8.59614233526942
      ],
      [
        "l.",
        -8.597039250237554
      ],
      [
        "▁bokk",
        -8.59826350878201
      ],
      [
        "▁taxaw",
        -8.600794394525057
      ],
      [
        "▁Kenn",
        -8.601008510422027
      ],
      [
        "▁n'as",
        -8.601092530308973
      ],
      [
        "▁arrivé",
        -8.607348160357164
      ],
      [
        "▁Cela",
        -8.616363132489738
      ],
      [
        "sait",
        -8.620592585066106
      ],
      [
        "▁jot",
        -8.622760941464128
      ],
      [
        "▁l'argent",
        -8.62506778190617
      ],
      [
        "▁qu'un",
        -8.625125667516171
      ],
      [
        "▁longtemps",
        -8.625136852964815
      ],
      [
        "ère",
        -8.62541802176861
      ],
      [
        "▁vas",
        -8.626932793192395
      ],
      [
        "is",
        -8.627610927066751
      ],
      [
        "na",
        -8.627696539410984
      ],
      [
        "▁dul",
        -8.628035675973102
      ],
      [
        "▁dikk",
        -8.628443331591063
      ],
      [
        "▁takk",
        -8.628607933976056
      ],
      [
        "▁beau",
        -8.629974156954791
      ],
      [
        "▁bonne",
        -8.63136058156909
      ],
      [
        "▁duma",
        -8.632818944880915
      ],
      [
        "▁so",
        -8.635628193076853
      ],
      [
        "▁jëm",
        -8.637034496810656
      ],
      [
        "▁baay",
        -8.6416483508021
      ],
      [
        "in",
        -8.64324196899192
      ],
      [
        "▁donne",
        -8.650623309877407
      ],
      [
        "▁main",
        -8.65071628104962
      ],
      [
        "▁lion",
        -8.655844289986536
      ],
      [
        "▁weer",
        -8.657013201626885
      ],
      [
        "▁L'",
        -8.66024996335782
      ],
      [
        "mettre",
        -8.662471211355317
      ],
      [
        "▁jour",
        -8.66367189811142
      ],
      [
        "▁R",
        -8.66931181513878
      ],
      [
        "▁seulement",
        -8.67487005391991
      ],
      [
        "▁chez",
        -8.674957900245065
      ],
      [
        "▁alors",
        -8.676471182761016
      ],
      [
        "▁yooyu",
        -8.676473614629414
      ],
      [
        "elle",
        -8.67688890607765
      ],
      [
        "▁Moom",
        -8.677514310255956
      ],
      [
        "▁boobu",
        -8.67790636703092
      ],
      [
        "▁marse",
        -8.678934304839308
      ],
      [
        "▁Xam",
        -8.679088539074726
      ],
      [
        "▁wet",
        -8.683551633903011
      ],
      [
        "▁Tey",
        -8.683743309434911
      ],
      [
        "▁vo",
        -8.68525906821597
      ],
      [
        "▁dé",
        -8.690945208145266
      ],
      [
        "▁xaj",
        -8.692593825267286
      ],
      [
        "▁ñett",
        -8.692909065936119
      ],
      [
        "'était",
        -8.694521341685732
      ],
      [
        "▁jaar",
        -8.694792111489168
      ],
      [
        "▁reste",
        -8.698969482978978
      ],
      [
        "▁Loolu",
        -8.700583572935638
      ],
      [
        "▁nuit",
        -8.701747188723994
      ],
      [
        "▁ñax",
        -8.702891075986761
      ],
      [
        "ée",
        -8.708451300729056
      ],
      [
        "▁Dinaa",
        -8.709355241754135
      ],
      [
        "ici.",
        -8.709936134354002
      ],
      [
        "▁dox",
        -8.710963926474722
      ],
      [
        "age",
        -8.714344216062976
      ],
      [
        "▁ciy",
        -8.715718390280875
      ],
      [
        "▁pa",
        -8.717194325125265
      ],
      [
        "ux",
        -8.717532525183938
      ],
      [
        "▁moutons",
        -8.718939667638598
      ],
      [
        "▁vers",
        -8.719655193171558
      ],
      [
        "ation",
        -8.719659264642834
      ],
      [
        "▁woto",
        -8.725762616832922
      ],
      [
        "▁Prends",
        -8.725965454844921
      ],
      [
        "▁boubou",
        -8.726051933143186
      ],
      [
        "q",
        -8.728025898965821
      ],
      [
        "▁fo",
        -8.728441472908065
      ],
      [
        "▁vont",
        -8.728963104326596
      ],
      [
        "▁trou",
        -8.730128988208605
      ],
      [
        "▁daw",
        -8.731791298546463
      ],
      [
        "ra",
        -8.7348943013157
      ],
      [
        "vons",
        -8.735692938283469
      ],
      [
        "▁monde",
        -8.738141994721877
      ],
      [
        "▁parce",
        -8.73820359799409
      ],
      [
        "▁yoo",
        -8.740093274462456
      ],
      [
        "uñu",
        -8.741717274535304
      ],
      [
        "▁chien",
        -8.742002741329703
      ],
      [
        "▁kaw",
        -8.74346182578958
      ],
      [
        "quoi",
        -8.74806976311544
      ],
      [
        "▁demul",
        -8.751548194329228
      ],
      [
        "▁matin",
        -8.753366321781327
      ],
      [
        "▁Aujourd'hui",
        -8.753471151857433
      ],
      [
        "▁fin",
        -8.753617539075686
      ],
      [
        "▁somme",
        -8.755555414636913
      ],
      [
        "▁assis",
        -8.755720378344071
      ],
      [
        "▁n'en",
        -8.757652888646128
      ],
      [
        "▁sunu",
        -8.758393979378585
      ],
      [
        "▁w",
        -8.760033459067033
      ],
      [
        "▁vient",
        -8.763533469017526
      ],
      [
        "▁marché",
        -8.763625407659044
      ],
      [
        "▁indi",
        -8.767541202687541
      ],
      [
        "▁Ñaar",
        -8.767567220501693
      ],
      [
        "▁G",
        -8.76930238703573
      ],
      [
        "▁prendre",
        -8.771096843442324
      ],
      [
        "▁aw",
        -8.772368321220739
      ],
      [
        "▁dëgg",
        -8.773783558110734
      ],
      [
        "▁daal",
        -8.774127978160262
      ],
      [
        "▁mains",
        -8.778388155604134
      ],
      [
        "▁dire",
        -8.780100684555823
      ],
      [
        "▁puits",
        -8.780604990199356
      ],
      [
        "▁premier",
        -8.781304057328738
      ],
      [
        "▁Astu",
        -8.781349173493638
      ],
      [
        "▁pagne",
        -8.781360567493515
      ],
      [
        "▁propos",
        -8.78419989959621
      ],
      [
        "▁ceux",
        -8.787935782382535
      ],
      [
        "▁Ceci",
        -8.78801709315829
      ],
      [
        "▁no",
        -8.788985580669976
      ],
      [
        "▁côté",
        -8.789510570635578
      ],
      [
        "▁aura",
        -8.791787957757698
      ],
      [
        "ur",
        -8.792912759910804
      ],
      [
        "▁saison",
        -8.793607107463597
      ],
      [
        "▁Fais",
        -8.799256609908607
      ],
      [
        "vous",
        -8.799660658439503
      ],
      [
        "▁Fas",
        -8.801225843573599
      ],
      [
        "▁Y",
        -8.803452918272209
      ],
      [
        "-t-il",
        -8.803463067082186
      ],
      [
        "li",
        -8.803491185219793
      ],
      [
        "▁jeex",
        -8.804044802151216
      ],
      [
        "▁gee",
        -8.80497272002557
      ],
      [
        "-lui",
        -8.805283070981146
      ],
      [
        "▁Jigéen",
        -8.809311223333998
      ],
      [
        "▁Chaque",
        -8.809547810749134
      ],
      [
        "▁Qu'est-ce",
        -8.809713322775597
      ],
      [
        "▁Celui-là",
        -8.809752014625197
      ],
      [
        "▁l'arbre",
        -8.809965565071497
      ],
      [
        "▁metti",
        -8.810369775980222
      ],
      [
        "▁milieu",
        -8.811366805636029
      ],
      [
        "▁Te",
        -8.811379135776177
      ],
      [
        "▁gaynde",
        -8.81291940088547
      ],
      [
        "▁qu'",
        -8.81486859192267
      ],
      [
        "▁yeux",
        -8.820439280547811
      ],
      [
        "▁bopp",
        -8.821095400077692
      ],
      [
        "▁mort",
        -8.823674670839498
      ],
      [
        "▁jeune",
        -8.824442015070968
      ],
      [
        "an",
        -8.825747215618824
      ],
      [
        "ès",
        -8.82735827721094
      ],
      [
        "▁cere",
        -8.827769116443895
      ],
      [
        "▁belle",
        -8.832913582959153
      ],
      [
        "▁trouve",
        -8.834190273857832
      ],
      [
        "▁cinq",
        -8.835695287708603
      ],
      [
        "-là",
        -8.837689728728918
      ],
      [
        "ais",
        -8.837837558350794
      ],
      [
        "▁viande",
        -8.83871319721466
      ],
      [
        "▁place",
        -8.842152045805545
      ],
      [
        "▁bari",
        -8.843070747771337
      ],
      [
        "▁Donne",
        -8.84320575834705
      ],
      [
        "si",
        -8.847199051401358
      ],
      [
        "▁sous",
        -8.847821019233406
      ],
      [
        "▁dañ",
        -8.852735607955035
      ],
      [
        "▁cherche",
        -8.852760158692417
      ],
      [
        "▁passé",
        -8.853608363269831
      ],
      [
        "▁ŋgeen",
        -8.855517650491622
      ],
      [
        "▁daanu",
        -8.856332803850965
      ],
      [
        "▁Mën",
        -8.858626874661885
      ],
      [
        "▁autres",
        -8.860441083455196
      ],
      [
        "ement",
        -8.863621567483651
      ],
      [
        "▁wolof",
        -8.866993935845432
      ],
      [
        "ras",
        -8.8676626724899
      ],
      [
        "aan",
        -8.868942780712011
      ],
      [
        "▁soleil",
        -8.869098854243232
      ],
      [
        "▁mauvais",
        -8.869170519239642
      ],
      [
        "▁debout",
        -8.869308915967435
      ],
      [
        "tes",
        -8.870101867959269
      ],
      [
        "▁Des",
        -8.870966132228713
      ],
      [
        "▁devant",
        -8.871230287770745
      ],
      [
        "▁voit",
        -8.872905556223738
      ],
      [
        "▁mange",
        -8.874831005228362
      ],
      [
        "▁tombé",
        -8.880342126356592
      ],
      [
        "▁xol",
        -8.880452974814844
      ],
      [
        "ale",
        -8.880994499782972
      ],
      [
        "bi",
        -8.882189789956414
      ],
      [
        "nt.",
        -8.883381410581922
      ],
      [
        "▁gaa",
        -8.884748550689956
      ],
      [
        "▁ñaa",
        -8.888277643527502
      ],
      [
        "tal",
        -8.888368962849169
      ],
      [
        "▁noppi",
        -8.889065723473223
      ],
      [
        "▁amis",
        -8.88914847280807
      ],
      [
        "ai",
        -8.88916717609401
      ],
      [
        "▁bëggee",
        -8.890237711147794
      ],
      [
        "mi",
        -8.890254454952677
      ],
      [
        "ar",
        -8.890979077834954
      ],
      [
        "▁kow",
        -8.891524168103576
      ],
      [
        "▁Kooku",
        -8.898012604253841
      ],
      [
        "▁moi.",
        -8.89979647446571
      ],
      [
        "▁viendra",
        -8.90050741153443
      ],
      [
        "▁jén",
        -8.90124325022414
      ],
      [
        "▁dame",
        -8.902620331754036
      ],
      [
        "▁Fii",
        -8.902798618452184
      ],
      [
        "▁train",
        -8.903930744903533
      ],
      [
        "▁blanc",
        -8.904174005500726
      ],
      [
        "▁famille",
        -8.905611623116226
      ],
      [
        "▁cassé",
        -8.906361359404283
      ],
      [
        "me",
        -8.906400527575698
      ],
      [
        "▁cuisine",
        -8.907295319581257
      ],
      [
        "▁m'as",
        -8.907850237655243
      ],
      [
        "▁Qu'a",
        -8.911692472753353
      ],
      [
        "▁Ca",
        -8.911877336534454
      ],
      [
        "▁Astou",
        -8.912199201417875
      ],
      [
        "▁pluies",
        -8.913969442179198
      ],
      [
        "▁woo",
        -8.914061653890236
      ],
      [
        "▁eu",
        -8.914504138044808
      ],
      [
        "▁Jél",
        -8.91758692980043
      ],
      [
        "▁personnes",
        -8.917865603795853
      ],
      [
        "▁E",
        -8.921001794520384
      ],
      [
        "ko",
        -8.92237553271168
      ],
      [
        "▁ville",
        -8.92495877421926
      ],
      [
        "▁kooku",
        -8.927249633278683
      ],
      [
        "▁Borom",
        -8.928772702877758
      ],
      [
        "▁Comme",
        -8.930301496293845
      ],
      [
        "▁Alors",
        -8.932200826831535
      ],
      [
        "▁Wutal",
        -8.933266900870295
      ],
      [
        "▁mangé",
        -8.933678909186321
      ],
      [
        "▁yóbbu",
        -8.934141221682696
      ],
      [
        "▁xaar",
        -8.935952477554974
      ],
      [
        "▁jooy",
        -8.93797496456191
      ],
      [
        "pp",
        -8.938254107007387
      ],
      [
        "▁Fu",
        -8.938356045417814
      ],
      [
        "▁arrive",
        -8.941099900920253
      ],
      [
        "▁fees",
        -8.942713157465425
      ],
      [
        "▁pain",
        -8.943478429356057
      ],
      [
        "▁femmes",
        -8.94532190795334
      ],
      [
        "▁yére",
        -8.945772472364027
      ],
      [
        "▁waaw",
        -8.94597330847697
      ],
      [
        "▁partie",
        -8.946786509802013
      ],
      [
        "▁dents",
        -8.95011895176403
      ],
      [
        "▁Mets",
        -8.955568802028113
      ],
      [
        "▁grande",
        -8.95688436341974
      ],
      [
        "le.",
        -8.960656628913581
      ],
      [
        "▁table",
        -8.96144104993125
      ],
      [
        "▁W",
        -8.965171744649208
      ],
      [
        "▁raison",
        -8.96597887675702
      ],
      [
        "épp",
        -8.969895184290708
      ],
      [
        "▁mer",
        -8.970554283445162
      ],
      [
        "▁poule",
        -8.971871088370158
      ],
      [
        "▁dos",
        -8.97230833510958
      ],
      [
        "être",
        -8.97271453109492
      ],
      [
        "▁d'autres",
        -8.975306080708506
      ],
      [
        "nd",
        -8.975850753688006
      ],
      [
        "aay",
        -8.976013444498205
      ],
      [
        "▁dangay",
        -8.978241423831449
      ],
      [
        "▁K",
        -8.978928658671265
      ],
      [
        "quelle",
        -8.979608011045826
      ],
      [
        "▁gone",
        -8.97997154041401
      ],
      [
        "▁prend",
        -8.981748667779975
      ],
      [
        "▁singe",
        -8.98373778585816
      ],
      [
        "aw",
        -8.98395466486275
      ],
      [
        "ourquoi",
        -8.984470576967299
      ],
      [
        "naa",
        -8.987159828159736
      ],
      [
        "▁bay",
        -8.989153108338465
      ],
      [
        "▁topp",
        -8.990105260615767
      ],
      [
        "▁dee",
        -8.991604483605506
      ],
      [
        "puis",
        -8.994928644185865
      ],
      [
        "▁jii",
        -8.99519087511898
      ],
      [
        "▁ñuul",
        -8.995890865810445
      ],
      [
        "▁peur",
        -8.99740036403576
      ],
      [
        "▁May",
        -8.997771144091395
      ],
      [
        "▁choses",
        -8.997794565650306
      ],
      [
        "▁jabar",
        -8.998116041403405
      ],
      [
        "▁jóge",
        -8.999001676600653
      ],
      [
        "▁chemise",
        -9.000216188921069
      ],
      [
        "▁Léegi",
        -9.000310927281765
      ],
      [
        "▁puis",
        -9.002773271417812
      ],
      [
        "▁wut",
        -9.00543921843406
      ],
      [
        "▁font",
        -9.007399489041937
      ],
      [
        "▁dinga",
        -9.009075367547378
      ],
      [
        "ir",
        -9.009503777472645
      ],
      [
        "▁Di",
        -9.01090806424272
      ],
      [
        "▁suba",
        -9.01144028468845
      ],
      [
        "O",
        -9.016743474595739
      ],
      [
        "▁posé",
        -9.01814233796291
      ],
      [
        "▁marcher",
        -9.019685590705809
      ],
      [
        "▁saak",
        -9.024952377605626
      ],
      [
        "▁seul",
        -9.02686929038398
      ],
      [
        "▁gaaw",
        -9.027096839693971
      ],
      [
        "▁taal",
        -9.029180187487022
      ],
      [
        "▁quelle",
        -9.0339134796073
      ],
      [
        "▁couteau",
        -9.035026126647441
      ],
      [
        "▁fut",
        -9.035611364672027
      ],
      [
        "▁mbubb",
        -9.03563430186195
      ],
      [
        "▁Lu-tax",
        -9.0357242114552
      ],
      [
        "▁dugub",
        -9.035886827548216
      ],
      [
        "▁d'eau",
        -9.035970758653688
      ],
      [
        "▁ceux-là",
        -9.035978851117857
      ],
      [
        "▁vraiment",
        -9.036071737709364
      ],
      [
        "▁duñu",
        -9.036482119680203
      ],
      [
        "▁lequel",
        -9.036899364823539
      ],
      [
        "▁maam",
        -9.037630637792143
      ],
      [
        "▁faj",
        -9.03767173293682
      ],
      [
        "▁yaay",
        -9.03905349845703
      ],
      [
        "▁Naka",
        -9.045064971393593
      ],
      [
        "▁m'en",
        -9.045641406895651
      ],
      [
        "▁village",
        -9.045942406587564
      ],
      [
        "▁doy",
        -9.047185600621654
      ],
      [
        "▁dóor",
        -9.047336835735642
      ],
      [
        "▁parler",
        -9.050673495030281
      ],
      [
        "▁Ben",
        -9.052595430493572
      ],
      [
        "▁ami",
        -9.058259484007941
      ],
      [
        "-toi",
        -9.058846246505514
      ],
      [
        "▁laaj",
        -9.061044949552773
      ],
      [
        "ri",
        -9.061694914651323
      ],
      [
        "▁fille",
        -9.063815898349558
      ],
      [
        "▁seet",
        -9.065610318200548
      ],
      [
        "▁laver",
        -9.066035340137635
      ],
      [
        "▁kan",
        -9.06932095856386
      ],
      [
        "▁fan",
        -9.071812076068236
      ],
      [
        "▁vie",
        -9.072351909221593
      ],
      [
        "▁paix",
        -9.07249468213048
      ],
      [
        "▁cheveux",
        -9.072846945233108
      ],
      [
        "▁jamais",
        -9.072884701061394
      ],
      [
        "ukaay",
        -9.072951006624695
      ],
      [
        "▁soow",
        -9.074884671123836
      ],
      [
        "▁Mais",
        -9.074924923756774
      ],
      [
        "▁jours",
        -9.075434976069754
      ],
      [
        "▁beneen",
        -9.076299532058547
      ],
      [
        "▁da",
        -9.077333021054566
      ],
      [
        "▁lit",
        -9.078926393679746
      ],
      [
        "▁tomber",
        -9.080164935124504
      ],
      [
        "h",
        -9.080191579506494
      ],
      [
        "▁Qu",
        -9.082652242593753
      ],
      [
        "gi",
        -9.082946681987785
      ],
      [
        "ngeen",
        -9.083999174965838
      ],
      [
        "▁X",
        -9.08429775958373
      ],
      [
        "▁francs",
        -9.084370193529073
      ],
      [
        "z",
        -9.084993982208628
      ],
      [
        "▁Mi",
        -9.086281845688267
      ],
      [
        "▁roi",
        -9.089103860911209
      ],
      [
        "▁loo",
        -9.089850652260218
      ],
      [
        "ta",
        -9.091150754298665
      ],
      [
        "voir",
        -9.092577366258626
      ],
      [
        "▁t'ai",
        -9.094309846665471
      ],
      [
        "▁daa",
        -9.094701184101034
      ],
      [
        "▁Dans",
        -9.09486027011512
      ],
      [
        "▁dinañu",
        -9.09522921008714
      ],
      [
        "▁passer",
        -9.096358391179633
      ],
      [
        "▁War",
        -9.09785682037604
      ],
      [
        "▁Son",
        -9.098489248860805
      ],
      [
        "▁verre",
        -9.103327213124826
      ],
      [
        "▁dàll",
        -9.105095529760906
      ],
      [
        "▁Quelle",
        -9.106876063298529
      ],
      [
        "▁nee",
        -9.108118602358825
      ],
      [
        "▁vaut",
        -9.109306954159718
      ],
      [
        "je",
        -9.109442382243088
      ],
      [
        "▁soxla",
        -9.10948627836949
      ],
      [
        "▁marché.",
        -9.10981600234892
      ],
      [
        "▁noir",
        -9.110376709502638
      ],
      [
        "▁peut-être",
        -9.111474046520922
      ],
      [
        "▁yor",
        -9.112232623102257
      ],
      [
        "▁biti",
        -9.112844901116075
      ],
      [
        "▁r",
        -9.113926849127305
      ],
      [
        "▁Oui",
        -9.11536477713829
      ],
      [
        "ions",
        -9.117220340389624
      ],
      [
        "▁après",
        -9.118883216010367
      ],
      [
        "▁ñ",
        -9.126015606740381
      ],
      [
        "▁gan",
        -9.126754577974946
      ],
      [
        "▁sable",
        -9.127003643617401
      ],
      [
        "▁demain",
        -9.127981802929416
      ],
      [
        "▁aperçu",
        -9.128662909140418
      ],
      [
        "▁année",
        -9.128912918288464
      ],
      [
        "▁gisee",
        -9.129099258092117
      ],
      [
        "▁Nda",
        -9.129313938062472
      ],
      [
        "▁buntu",
        -9.130484974243855
      ],
      [
        "▁waral",
        -9.134313118780529
      ],
      [
        "▁chat",
        -9.135496062102085
      ],
      [
        "pendant",
        -9.1360234167193
      ],
      [
        "▁demande",
        -9.137502476765281
      ],
      [
        "▁kanam",
        -9.138783990783462
      ],
      [
        "▁bañ",
        -9.139146217200972
      ],
      [
        "▁prépare",
        -9.139283014050264
      ],
      [
        "▁Bëgg",
        -9.139361787854455
      ],
      [
        "du",
        -9.139549822002547
      ],
      [
        "▁vache",
        -9.139811262454272
      ],
      [
        "▁dagg",
        -9.140103417670971
      ],
      [
        "▁l'un",
        -9.141873312349466
      ],
      [
        "▁Da",
        -9.142784998619774
      ],
      [
        "ax",
        -9.14436705156291
      ],
      [
        "▁saf",
        -9.145131939173577
      ],
      [
        "▁laisse",
        -9.14755856657306
      ],
      [
        "▁wii",
        -9.148546213198488
      ],
      [
        "Après",
        -9.149152522575148
      ],
      [
        "▁Amul",
        -9.150788631419358
      ],
      [
        "▁picc",
        -9.150793199604044
      ],
      [
        "▁Jésus",
        -9.150863993672594
      ],
      [
        "▁Garab",
        -9.150890097909592
      ],
      [
        "▁façon",
        -9.150994061164372
      ],
      [
        "▁mariage",
        -9.151222478880294
      ],
      [
        "▁chemin",
        -9.151310141866729
      ],
      [
        "▁dénk",
        -9.152042878640424
      ],
      [
        "▁coeur",
        -9.152561071418715
      ],
      [
        "▁defe",
        -9.153229750287059
      ],
      [
        "▁Qu'il",
        -9.15331958021008
      ],
      [
        "▁lépp",
        -9.153947155008339
      ],
      [
        "▁nopp",
        -9.154014508877065
      ],
      [
        "▁bar",
        -9.1546333758464
      ],
      [
        "▁route",
        -9.157351886473096
      ],
      [
        "▁yaram",
        -9.15932358825373
      ],
      [
        "▁droit",
        -9.159573293504774
      ],
      [
        "▁corde",
        -9.16051163083318
      ],
      [
        "▁chercher",
        -9.160726922500043
      ],
      [
        "▁baaxul",
        -9.160860226015016
      ],
      [
        "▁savoir",
        -9.162346953212989
      ],
      [
        "▁bras",
        -9.163038467016666
      ],
      [
        "▁peine",
        -9.1634516681763
      ],
      [
        "▁yii",
        -9.17006130833077
      ],
      [
        "▁J'en",
        -9.17113959497235
      ],
      [
        "est-ce",
        -9.171141055145235
      ],
      [
        "ersonne",
        -9.1719821225373
      ],
      [
        "▁Tou",
        -9.178587288819234
      ],
      [
        "▁ganaar",
        -9.180337283257881
      ],
      [
        "▁Indi",
        -9.180492235424309
      ],
      [
        "▁endroit",
        -9.18098368982343
      ],
      [
        "p",
        -9.184095283143847
      ],
      [
        "▁v",
        -9.184810218846236
      ],
      [
        "▁vienne",
        -9.187123894875825
      ],
      [
        "▁fils",
        -9.187357754478812
      ],
      [
        "ul.",
        -9.187775787789953
      ],
      [
        "▁Nan",
        -9.188680364750871
      ],
      [
        "▁teen",
        -9.191444734444534
      ],
      [
        "eur",
        -9.192216931696219
      ],
      [
        "▁doŋŋ",
        -9.192325307961987
      ],
      [
        "▁sauce",
        -9.192668983406891
      ],
      [
        "▁Senegaal",
        -9.192840450270134
      ],
      [
        "▁taabal",
        -9.192948544486939
      ],
      [
        "▁vend",
        -9.193314578004587
      ],
      [
        "▁Gone",
        -9.194072606204418
      ],
      [
        "moi",
        -9.194201960500896
      ],
      [
        "▁plu",
        -9.194869951626044
      ],
      [
        "▁serait",
        -9.196400503805886
      ],
      [
        "ŋ",
        -9.197457264259597
      ],
      [
        "oŋ",
        -9.199498719391112
      ],
      [
        "▁bouche",
        -9.200457384087128
      ],
      [
        "▁Xa",
        -9.200541728179001
      ],
      [
        "▁jambes",
        -9.201321048487559
      ],
      [
        "ba",
        -9.20482380293802
      ],
      [
        "▁fruits",
        -9.205499171797616
      ],
      [
        "▁juróom",
        -9.206259439344027
      ],
      [
        "▁vent",
        -9.206753833357896
      ],
      [
        "▁Ces",
        -9.207563994143019
      ],
      [
        "een",
        -9.207583915887014
      ],
      [
        "▁êtes",
        -9.208960119935856
      ],
      [
        "is-tu",
        -9.209352048964764
      ],
      [
        "▁besoin",
        -9.209775265607187
      ],
      [
        "▁itam",
        -9.211020793769281
      ],
      [
        "▁petits",
        -9.212926135950477
      ],
      [
        "▁nom",
        -9.216300233541293
      ],
      [
        "▁rouge",
        -9.216922041305562
      ],
      [
        "▁Bàyyil",
        -9.217276568321775
      ],
      [
        "qui",
        -9.219578885424204
      ],
      [
        "▁affaire",
        -9.219692075444025
      ],
      [
        "▁arbres",
        -9.220992404726035
      ],
      [
        "▁defar",
        -9.221702519720454
      ],
      [
        "ag",
        -9.223199125599542
      ],
      [
        "ellement",
        -9.22561911498505
      ],
      [
        "uloo",
        -9.226485139004005
      ],
      [
        "▁vite",
        -9.227675448419442
      ],
      [
        "▁bout",
        -9.231700608869495
      ],
      [
        "▁venir",
        -9.233741040651907
      ],
      [
        "▁Ndox",
        -9.235385668635232
      ],
      [
        "▁ressemble",
        -9.23558477260399
      ],
      [
        "▁paaka",
        -9.236215809796091
      ],
      [
        "▁tamit",
        -9.236236864304837
      ],
      [
        "▁Yéesu",
        -9.236935150424898
      ],
      [
        "▁sucre",
        -9.237122174255674
      ],
      [
        "▁nelaw",
        -9.238501926906286
      ],
      [
        "▁feuilles",
        -9.239617594673184
      ],
      [
        "▁waxtaan",
        -9.239816127978742
      ],
      [
        "▁Dakar",
        -9.239981905488863
      ],
      [
        "▁simis",
        -9.240115248916327
      ],
      [
        "▁chaussures",
        -9.240714041210396
      ],
      [
        "▁travailler",
        -9.242072499365587
      ],
      [
        "▁comment",
        -9.242566653524253
      ],
      [
        "▁co",
        -9.243912673182022
      ],
      [
        "▁lieu",
        -9.244406768569712
      ],
      [
        "▁déj",
        -9.246404570572725
      ],
      [
        "▁égaré",
        -9.248366216903754
      ],
      [
        "▁waxtu",
        -9.249202187172285
      ],
      [
        "▁t'en",
        -9.249849278454747
      ],
      [
        "▁So",
        -9.250172064789705
      ],
      [
        "▁cour",
        -9.250512233948047
      ],
      [
        "▁toj",
        -9.250521277337251
      ],
      [
        "▁gannaaw",
        -9.250654887962138
      ],
      [
        "▁vaches",
        -9.252909326309096
      ],
      [
        "▁dessus",
        -9.254751962496417
      ],
      [
        "wul",
        -9.258064224885656
      ],
      [
        "▁fer",
        -9.258414869224382
      ],
      [
        "▁trouvé",
        -9.259605248134593
      ],
      [
        "▁tas",
        -9.260482186602976
      ],
      [
        "▁dana",
        -9.261988264154207
      ],
      [
        "▁met",
        -9.26306284268967
      ],
      [
        "▁semble",
        -9.263670158043608
      ],
      [
        "▁parte",
        -9.263698055439889
      ],
      [
        "▁xew",
        -9.268886346354435
      ],
      [
        "▁kii",
        -9.270771072635213
      ],
      [
        "▁épouse",
        -9.272354099066641
      ],
      [
        "ou",
        -9.27627822475001
      ],
      [
        "ême",
        -9.27730529716453
      ],
      [
        "▁bol",
        -9.277767239195883
      ],
      [
        "▁pieds",
        -9.279352538221197
      ],
      [
        "▁Sénégal",
        -9.280788590390692
      ],
      [
        "▁suffit",
        -9.282409028203476
      ],
      [
        "▁réunion",
        -9.282816110154194
      ],
      [
        "▁foofu",
        -9.282971255317685
      ],
      [
        "▁yónnee",
        -9.283031800128752
      ],
      [
        "▁agsi",
        -9.283131517287023
      ],
      [
        "▁lakk",
        -9.28507980122206
      ],
      [
        "▁loolu",
        -9.285200221092484
      ],
      [
        "▁noonu",
        -9.28849214373641
      ],
      [
        "mu",
        -9.29030669285631
      ],
      [
        "▁buum",
        -9.29181833009882
      ],
      [
        "▁offert",
        -9.292172895689985
      ],
      [
        "▁xorom",
        -9.294362854242442
      ],
      [
        "▁xool",
        -9.294683064887172
      ],
      [
        "▁réy",
        -9.295716876123334
      ],
      [
        "ati",
        -9.296754080690253
      ],
      [
        "▁yem",
        -9.29731212967772
      ],
      [
        "▁Pour",
        -9.298186689715179
      ],
      [
        "▁amee",
        -9.299164056414801
      ],
      [
        "▁borom",
        -9.299715451075567
      ],
      [
        "▁bët",
        -9.299886161831306
      ],
      [
        "re.",
        -9.303565761356884
      ],
      [
        "▁soir",
        -9.304104251530543
      ],
      [
        "▁àll",
        -9.304318609779202
      ],
      [
        "▁Se",
        -9.308102375074299
      ],
      [
        "▁pluie",
        -9.308751645619015
      ],
      [
        "▁bind",
        -9.30925924323085
      ],
      [
        "▁Et",
        -9.31056643613452
      ],
      [
        "ti",
        -9.31114345900249
      ],
      [
        "▁Ñ",
        -9.311542033420121
      ],
      [
        "oir",
        -9.311792553354788
      ],
      [
        "hacun",
        -9.312642541531499
      ],
      [
        "▁ban",
        -9.316000040263027
      ],
      [
        "▁avais",
        -9.317096461112742
      ],
      [
        "▁Apporte",
        -9.319765923594977
      ],
      [
        "▁nak",
        -9.319837514124362
      ],
      [
        "▁woy",
        -9.320493310584489
      ],
      [
        "▁mois",
        -9.322531695974174
      ],
      [
        "▁Fa",
        -9.323842671021708
      ],
      [
        "▁blanche",
        -9.324368884522839
      ],
      [
        "▁fey",
        -9.325262841433942
      ],
      [
        "ent.",
        -9.32578834489353
      ],
      [
        "▁prends",
        -9.325836347621479
      ],
      [
        "▁mënul",
        -9.326100213427274
      ],
      [
        "▁yeneen",
        -9.327493926428456
      ],
      [
        "ga",
        -9.327759247992255
      ],
      [
        "▁crois",
        -9.328211810178853
      ],
      [
        "▁chef",
        -9.328527771213828
      ],
      [
        "▁jàng",
        -9.328759438841127
      ],
      [
        "▁Viens",
        -9.328766273214804
      ],
      [
        "▁tambour",
        -9.329020263085777
      ],
      [
        "▁fête",
        -9.329116168754917
      ],
      [
        "▁médicament",
        -9.329247436857703
      ],
      [
        "▁tabax",
        -9.32924867051057
      ],
      [
        "▁meilleur",
        -9.32926345830709
      ],
      [
        "▁do",
        -9.329385917239945
      ],
      [
        "▁celui-ci",
        -9.329469346516108
      ],
      [
        "▁ensemble",
        -9.329486403979889
      ],
      [
        "▁loin",
        -9.329751932069431
      ],
      [
        "▁yàpp",
        -9.330232090754144
      ],
      [
        "▁nos",
        -9.331062644338635
      ],
      [
        "▁Ñoom",
        -9.331221062201275
      ],
      [
        "ssez",
        -9.331882824582621
      ],
      [
        "▁porter",
        -9.332848579799016
      ],
      [
        "▁vas-tu",
        -9.333320806668786
      ],
      [
        "▁viens",
        -9.334304853456569
      ],
      [
        "▁plaît",
        -9.334780666167429
      ],
      [
        "▁Ceux",
        -9.335569914158818
      ],
      [
        "▁coté",
        -9.336386674244928
      ],
      [
        "▁l'as",
        -9.337242119904879
      ],
      [
        "▁n'arrête",
        -9.338220819658677
      ],
      [
        "▁haut",
        -9.339217222409255
      ],
      [
        "▁bouillie",
        -9.339231946624258
      ],
      [
        "▁serpent",
        -9.33950072297278
      ],
      [
        "▁nangu",
        -9.339678665215317
      ],
      [
        "▁tooy",
        -9.340228178647621
      ],
      [
        "▁fera",
        -9.340517308919711
      ],
      [
        "▁jékk",
        -9.34073519122139
      ],
      [
        "▁mat",
        -9.340935636207567
      ],
      [
        "▁souris",
        -9.342393049044187
      ],
      [
        "▁attention",
        -9.343098396470285
      ],
      [
        "▁sant",
        -9.34783347968165
      ],
      [
        "▁froid",
        -9.348078154256436
      ],
      [
        "▁fort",
        -9.348840265242965
      ],
      [
        "▁présent",
        -9.34917794609683
      ],
      [
        "▁jeunes",
        -9.349929124545305
      ],
      [
        "▁fecc",
        -9.350407844580765
      ],
      [
        "▁Mes",
        -9.35055956888687
      ],
      [
        "nu",
        -9.350755688089665
      ],
      [
        "▁l'air",
        -9.35137076850384
      ],
      [
        "▁diggu",
        -9.351398058474349
      ],
      [
        "▁x",
        -9.353530803052731
      ],
      [
        "aux",
        -9.35487069479991
      ],
      [
        "té",
        -9.355965980273446
      ],
      [
        "▁defee",
        -9.357028610214345
      ],
      [
        "▁xeex",
        -9.359178269884303
      ],
      [
        "▁Ni",
        -9.36091189165212
      ],
      [
        "▁Booy",
        -9.366302218544426
      ],
      [
        "bu",
        -9.373141953596868
      ],
      [
        "▁case",
        -9.37376305313607
      ],
      [
        "▁tudd",
        -9.374919558758595
      ],
      [
        "▁eux",
        -9.37493002491165
      ],
      [
        "▁m'",
        -9.375478886620408
      ],
      [
        "▁xel",
        -9.375690849830729
      ],
      [
        "▁Liggéey",
        -9.37575140608386
      ],
      [
        "▁natte",
        -9.377616867648237
      ],
      [
        "▁bëñ",
        -9.378631254095412
      ],
      [
        "▁xonq",
        -9.378641416362056
      ],
      [
        "vent",
        -9.37867224258363
      ],
      [
        "▁ragal",
        -9.378833695084728
      ],
      [
        "▁marmite",
        -9.378909290232547
      ],
      [
        "▁l'herbe",
        -9.378924949462018
      ],
      [
        "▁commerce",
        -9.3790429936156
      ],
      [
        "▁question",
        -9.37904502314133
      ],
      [
        "▁Maintenant",
        -9.379143498155615
      ],
      [
        "▁simplement",
        -9.37916273316668
      ],
      [
        "▁complètement",
        -9.379253284866017
      ],
      [
        "▁Keneen",
        -9.379341629786865
      ],
      [
        "▁far",
        -9.38047307405775
      ],
      [
        "▁fàtte",
        -9.381596796895652
      ],
      [
        "▁nekkoon",
        -9.382191841995681
      ],
      [
        "▁Vo",
        -9.382352386268396
      ],
      [
        "▁aime",
        -9.38252267075319
      ],
      [
        "▁jooju",
        -9.382831286810426
      ],
      [
        "▁Au",
        -9.383215315870482
      ],
      [
        "▁connais",
        -9.383837943873427
      ],
      [
        "▁circoncis",
        -9.385460826090885
      ],
      [
        "▁visage",
        -9.38551169229337
      ],
      [
        "▁n'aime",
        -9.385605727981641
      ],
      [
        "▁rey",
        -9.386806931209513
      ],
      [
        "▁ndab",
        -9.387214950563543
      ],
      [
        "'habitude",
        -9.38736157790842
      ],
      [
        "▁Samba",
        -9.387600802503357
      ],
      [
        "▁Ñi",
        -9.389605794310532
      ],
      [
        "▁puisse",
        -9.391647743138712
      ],
      [
        "▁séy",
        -9.391822967762389
      ],
      [
        "▁gor",
        -9.394975173611764
      ],
      [
        "▁damm",
        -9.396754396497798
      ],
      [
        "▁Ndar",
        -9.397590000373615
      ],
      [
        "▁biens",
        -9.398017197949203
      ],
      [
        "▁fukk",
        -9.401870494026744
      ],
      [
        "▁yàqu",
        -9.402174437207966
      ],
      [
        "▁tombe",
        -9.40358404318316
      ],
      [
        "▁Voil",
        -9.404346286051018
      ],
      [
        "▁Kañ",
        -9.405068480362726
      ],
      [
        "▁Kër",
        -9.40520679327238
      ],
      [
        "▁t'",
        -9.406848658348874
      ],
      [
        "▁hommes",
        -9.409151084101078
      ],
      [
        "▁buur",
        -9.409496638145908
      ],
      [
        "▁taat",
        -9.410004870083746
      ],
      [
        "▁Fan",
        -9.413462848262569
      ],
      [
        "ub",
        -9.4142200039955
      ],
      [
        "▁lutte",
        -9.416566452815555
      ],
      [
        "aat",
        -9.417567261514439
      ],
      [
        "vez",
        -9.422699666355241
      ],
      [
        "▁portes",
        -9.42410527683149
      ],
      [
        "▁seule",
        -9.424741370126737
      ],
      [
        "ab",
        -9.42533745060053
      ],
      [
        "▁arbre",
        -9.426403516097633
      ],
      [
        "▁Leur",
        -9.426536504116468
      ],
      [
        "▁sorte",
        -9.428963227971071
      ],
      [
        "▁joue",
        -9.429827137320663
      ],
      [
        "▁tué",
        -9.429889039360091
      ],
      [
        "▁long",
        -9.431281063488324
      ],
      [
        "▁Arrête",
        -9.431318752577116
      ],
      [
        "▁mouillé",
        -9.431455739304605
      ],
      [
        "▁au-dessus",
        -9.431602388970404
      ],
      [
        "▁don",
        -9.432144339051044
      ],
      [
        "▁force",
        -9.433166398124838
      ],
      [
        "▁xa",
        -9.433181101419317
      ],
      [
        "▁tollu",
        -9.433715680009133
      ],
      [
        "ième",
        -9.434938836717347
      ],
      [
        "▁langue",
        -9.436983693966367
      ],
      [
        "▁Ici",
        -9.438615817915936
      ],
      [
        "▁defal",
        -9.439704662742988
      ],
      [
        "▁tere",
        -9.440400240999441
      ],
      [
        "▁Ndakaaru",
        -9.441039632304543
      ],
      [
        "▁trouver",
        -9.44226639429609
      ],
      [
        "▁mari",
        -9.442533830232065
      ],
      [
        "▁saa",
        -9.443612421163389
      ],
      [
        "▁golo",
        -9.443934602449549
      ],
      [
        "▁Danu",
        -9.444245762929475
      ],
      [
        "▁bien.",
        -9.445431689698498
      ],
      [
        "▁appelle",
        -9.447546589321297
      ],
      [
        "▁voyage",
        -9.449119524860253
      ],
      [
        "▁pot",
        -9.4491809707575
      ],
      [
        "▁Fi",
        -9.449992962877841
      ],
      [
        "vais",
        -9.452459086172471
      ],
      [
        "▁ñaan",
        -9.453528053894281
      ],
      [
        "aar",
        -9.453749700036102
      ],
      [
        "▁jar",
        -9.454314401445323
      ],
      [
        "koon",
        -9.454448272355684
      ],
      [
        "▁Dëkk",
        -9.454793049085332
      ],
      [
        "▁baobab",
        -9.455054993564538
      ],
      [
        "▁day",
        -9.456577720554623
      ],
      [
        "▁guddi",
        -9.456803579796151
      ],
      [
        "▁non",
        -9.456996349222093
      ],
      [
        "▁jaan",
        -9.458158361704704
      ],
      [
        "▁Gor",
        -9.461157830255559
      ],
      [
        "▁yàq",
        -9.463177896845215
      ],
      [
        "▁bëggul",
        -9.463795716611823
      ],
      [
        "▁lanu",
        -9.463854315591748
      ],
      [
        "▁gros",
        -9.466426135627016
      ],
      [
        "ni",
        -9.468619144229868
      ],
      [
        "▁Woto",
        -9.470701282660317
      ],
      [
        "▁nez",
        -9.47094343765011
      ],
      [
        "m.",
        -9.471163202965169
      ],
      [
        "▁Teg",
        -9.471889824807768
      ],
      [
        "▁V",
        -9.472134185846624
      ],
      [
        "▁Mbaa",
        -9.473202837928968
      ],
      [
        "▁fit",
        -9.473477320291249
      ],
      [
        "▁mo",
        -9.473808032105792
      ],
      [
        "▁étai",
        -9.474081636310238
      ],
      [
        "▁mbaam",
        -9.476834575057413
      ],
      [
        "n.",
        -9.476911444736306
      ],
      [
        "▁Enlève",
        -9.478238038125912
      ],
      [
        "avais",
        -9.48084943212275
      ],
      [
        "▁prière",
        -9.483230526102174
      ],
      [
        "▁voici",
        -9.483560728536899
      ],
      [
        "▁jëkkër",
        -9.483977866288766
      ],
      [
        "▁plein",
        -9.484569210405489
      ],
      [
        "▁montre",
        -9.485679098925168
      ],
      [
        "▁rapide",
        -9.485888909063625
      ],
      [
        "▁préfère",
        -9.486864812465948
      ],
      [
        "▁caillé",
        -9.486892915696497
      ],
      [
        "▁tranquille",
        -9.48709157511935
      ],
      [
        "▁grand-père",
        -9.487191715440524
      ],
      [
        "▁màngo",
        -9.48720216480044
      ],
      [
        "▁Laobe",
        -9.488288870115
      ],
      [
        "▁bépp",
        -9.488350294251433
      ],
      [
        "▁mburu",
        -9.488906338898518
      ],
      [
        "▁meew",
        -9.488933936047815
      ],
      [
        "▁mépp",
        -9.488943901665936
      ],
      [
        "...",
        -9.489952004206785
      ],
      [
        "▁mbir",
        -9.490291152344467
      ],
      [
        "▁entendu",
        -9.492197223880192
      ],
      [
        "▁donner",
        -9.492327589244091
      ],
      [
        "▁dégg",
        -9.49247992703692
      ],
      [
        "▁Jénda",
        -9.492771582799193
      ],
      [
        "▁d'ici",
        -9.494336372889189
      ],
      [
        "▁travers",
        -9.494517437814785
      ],
      [
        "▁relations",
        -9.494576214578338
      ],
      [
        "▁apporté",
        -9.495154938173549
      ],
      [
        "▁près",
        -9.495476566265147
      ],
      [
        "▁arachides",
        -9.496569230223894
      ],
      [
        "xanaa",
        -9.497210546556435
      ],
      [
        "▁bant",
        -9.498328535456372
      ],
      [
        "▁ñoom",
        -9.498495665659274
      ],
      [
        "ji",
        -9.498703754376159
      ],
      [
        "▁premi",
        -9.499446432107145
      ],
      [
        "▁daje",
        -9.500772143158633
      ],
      [
        "▁xaw",
        -9.50093957804111
      ],
      [
        "▁argent",
        -9.501064312898663
      ],
      [
        "▁gars",
        -9.50281277825059
      ],
      [
        "▁jouer",
        -9.503757084866919
      ],
      [
        "▁ng",
        -9.503830350095257
      ],
      [
        "▁jàmm",
        -9.504592663607886
      ],
      [
        "ici",
        -9.504810066030414
      ],
      [
        "▁s'i",
        -9.504941355117309
      ],
      [
        "▁ñaw",
        -9.505267133979212
      ],
      [
        "▁seeti",
        -9.505348392361249
      ],
      [
        "▁battu",
        -9.50657022294873
      ],
      [
        "▁feu",
        -9.507893827590777
      ],
      [
        "aire",
        -9.508513330823988
      ],
      [
        "▁Sée",
        -9.508719363725216
      ],
      [
        "▁bo",
        -9.509727843522995
      ],
      [
        "▁Doom",
        -9.510443103638533
      ],
      [
        "ment.",
        -9.510808975030276
      ],
      [
        "eurs",
        -9.512448005115735
      ],
      [
        "▁yar",
        -9.512624998840984
      ],
      [
        "dinaa",
        -9.513095169568697
      ],
      [
        "▁jël",
        -9.515356190348708
      ],
      [
        "▁tëb",
        -9.516540301272144
      ],
      [
        "▁ñor",
        -9.516558038897369
      ],
      [
        "▁dàq",
        -9.516624485429311
      ],
      [
        "▁peau",
        -9.517994552682948
      ],
      [
        "▁dromadaire",
        -9.518168023490148
      ],
      [
        "▁sér",
        -9.51822655444603
      ],
      [
        "▁n'avai",
        -9.521525861834062
      ],
      [
        "▁gudd",
        -9.52329803081448
      ],
      [
        "▁ñaaw",
        -9.524072727398977
      ],
      [
        "▁guy",
        -9.525780670720533
      ],
      [
        "▁dellusi",
        -9.529532567348891
      ],
      [
        "ooy",
        -9.530343832467532
      ],
      [
        "▁adulte",
        -9.530847217780936
      ],
      [
        "▁tour",
        -9.532792734801
      ],
      [
        "▁Re",
        -9.53467830965868
      ],
      [
        "cc",
        -9.53627074662047
      ],
      [
        "ñoo",
        -9.538026909443081
      ],
      [
        "-ci",
        -9.540549315718483
      ],
      [
        "t-il",
        -9.540623705096948
      ],
      [
        "▁morom",
        -9.54074765093468
      ],
      [
        "étais",
        -9.541677075959495
      ],
      [
        "▁jëkk",
        -9.541965887661032
      ],
      [
        "▁màtt",
        -9.544159661982988
      ],
      [
        "▁Êt",
        -9.54421306228652
      ],
      [
        "▁gerte",
        -9.54448524382335
      ],
      [
        "▁Saint-Louis",
        -9.544550108960363
      ],
      [
        "▁am-",
        -9.54474035073399
      ],
      [
        "▁morceau",
        -9.544928383526285
      ],
      [
        "▁Picc",
        -9.545148929405693
      ],
      [
        "▁corps",
        -9.545280759169888
      ],
      [
        "▁varan",
        -9.54536465068846
      ],
      [
        "▁journée",
        -9.545585510573414
      ],
      [
        "▁Tabaski",
        -9.545602669331748
      ],
      [
        "▁nombreux",
        -9.545735554570026
      ],
      [
        "▁ngelaw",
        -9.54577858335412
      ],
      [
        "▁colère",
        -9.545885220335826
      ],
      [
        "▁d'Omar",
        -9.546059758287587
      ],
      [
        "▁soient",
        -9.546128257854827
      ],
      [
        "▁Mënuma",
        -9.546462839721263
      ],
      [
        "▁tire",
        -9.546476921394634
      ],
      [
        "▁derrière",
        -9.54706273573013
      ],
      [
        "at",
        -9.547277701712474
      ],
      [
        "▁longue",
        -9.547430565044063
      ],
      [
        "▁pars",
        -9.547543765667509
      ],
      [
        "▁partira",
        -9.547868455278943
      ],
      [
        "▁petite",
        -9.548436212575405
      ],
      [
        "▁Kaay",
        -9.548504010827479
      ],
      [
        "▁séché",
        -9.548657577650143
      ],
      [
        "▁walla",
        -9.54912311770474
      ],
      [
        "▁Combi",
        -9.549773824038462
      ],
      [
        "▁pourquoi",
        -9.5502484413517
      ],
      [
        "▁miir",
        -9.555898528653163
      ],
      [
        "▁bal",
        -9.556619103918539
      ],
      [
        "ël",
        -9.556904787323717
      ],
      [
        "▁calme",
        -9.556923514652812
      ],
      [
        "▁dellu",
        -9.55777892063255
      ],
      [
        "▁plat",
        -9.558473342291432
      ],
      [
        "▁sàkk",
        -9.559861364682572
      ],
      [
        "▁dirige",
        -9.56054055656565
      ],
      [
        "▁jëkka",
        -9.560707767333124
      ],
      [
        "▁Passe",
        -9.561076102813397
      ],
      [
        "fin",
        -9.561599399552124
      ],
      [
        "▁xob",
        -9.561627304579304
      ],
      [
        "▁mot",
        -9.56227808624783
      ],
      [
        "▁café",
        -9.562356989983499
      ],
      [
        "▁prochain",
        -9.562931963462978
      ],
      [
        "▁garder",
        -9.564957312991776
      ],
      [
        "▁Defa",
        -9.567046566644771
      ],
      [
        "▁sortir",
        -9.568005541727914
      ],
      [
        "▁mii",
        -9.569839716912535
      ],
      [
        "▁maître",
        -9.570059559480457
      ],
      [
        "▁bees",
        -9.571431229669255
      ],
      [
        "▁Moytul",
        -9.574882848223726
      ],
      [
        "▁Kan",
        -9.576306285626558
      ],
      [
        "▁Mets-",
        -9.577118898714732
      ],
      [
        "▁Ave",
        -9.577189373554717
      ],
      [
        "▁taw",
        -9.579686043587497
      ],
      [
        "▁bëre",
        -9.582841928471112
      ],
      [
        "▁wutal",
        -9.583080835774942
      ],
      [
        "▁vendu",
        -9.585597449690283
      ],
      [
        "où",
        -9.585608901509525
      ],
      [
        "▁fou",
        -9.58622905781788
      ],
      [
        "jj",
        -9.586241491846824
      ],
      [
        "▁lañ",
        -9.587761080344052
      ],
      [
        "▁pense",
        -9.590023338553838
      ],
      [
        "▁moomu",
        -9.590043701813133
      ],
      [
        "▁jur",
        -9.591071452044268
      ],
      [
        "▁naaj",
        -9.591798980508973
      ],
      [
        "rent",
        -9.593945897258738
      ],
      [
        "▁tëgg",
        -9.594289666548553
      ],
      [
        "oi",
        -9.59693514423055
      ],
      [
        "èrent",
        -9.598817562834274
      ],
      [
        "vient",
        -9.599655928844053
      ],
      [
        "▁tàng",
        -9.602186168025023
      ],
      [
        "▁jën",
        -9.604421391141383
      ],
      [
        "▁lal",
        -9.605153034265697
      ],
      [
        "▁jaa",
        -9.605817723233155
      ],
      [
        "la.",
        -9.606162511047083
      ],
      [
        "▁to",
        -9.607382956466624
      ],
      [
        "▁Moussa",
        -9.607804731705068
      ],
      [
        "▁<mask>",
        -9.60780695134153
      ],
      [
        "▁Mecque",
        -9.607808245068412
      ],
      [
        "▁l'école",
        -9.607923562203826
      ],
      [
        "▁dernier",
        -9.607933302690647
      ],
      [
        "▁j'irai",
        -9.608165425441594
      ],
      [
        "▁ndaje",
        -9.608258803635323
      ],
      [
        "▁rue",
        -9.608372977513655
      ],
      [
        "▁fay",
        -9.608708495084647
      ],
      [
        "▁xalaat",
        -9.608864154707245
      ],
      [
        "▁Appelle",
        -9.60902500315813
      ],
      [
        "▁caabi",
        -9.60926515860968
      ],
      [
        "▁demkoon",
        -9.609730043977134
      ],
      [
        "▁dehors",
        -9.610221988089334
      ],
      [
        "▁commencé",
        -9.611231840249253
      ],
      [
        "▁wàll",
        -9.611992382314316
      ],
      [
        "▁woowu",
        -9.61199919728795
      ],
      [
        "▁cha",
        -9.61229187233319
      ],
      [
        "▁agsee",
        -9.612875048787277
      ],
      [
        "▁pleurer",
        -9.61330545551085
      ],
      [
        "▁ekool",
        -9.613423558221998
      ],
      [
        "▁Doo",
        -9.613609505033914
      ],
      [
        "a.",
        -9.613622018941083
      ],
      [
        "▁laisser",
        -9.61472230992577
      ],
      [
        "▁sànni",
        -9.615232105327621
      ],
      [
        "aale",
        -9.615776740109249
      ],
      [
        "▁Kii",
        -9.615852382595902
      ],
      [
        "▁quel",
        -9.616768785415564
      ],
      [
        "▁portent",
        -9.617629823861606
      ],
      [
        ":",
        -9.618947910450409
      ],
      [
        "'entrée",
        -9.619399885949951
      ],
      [
        "▁partis",
        -9.619716853384562
      ],
      [
        "▁Xamu",
        -9.61997541139727
      ],
      [
        "▁parles",
        -9.621136156877059
      ],
      [
        "▁oreilles",
        -9.621746081836488
      ],
      [
        "▁garde",
        -9.622062464784847
      ],
      [
        "▁parents",
        -9.622667042202895
      ],
      [
        "▁ferai",
        -9.623437289776032
      ],
      [
        "▁sorti",
        -9.624050905858535
      ],
      [
        "▁jaam",
        -9.625023992067035
      ],
      [
        "▁cuit",
        -9.626082465487647
      ],
      [
        "▁poissons",
        -9.626347926267227
      ],
      [
        "▁gàtt",
        -9.62751626162634
      ],
      [
        "▁amoon",
        -9.62757101299692
      ],
      [
        "àpp",
        -9.62832749159379
      ],
      [
        "▁fekke",
        -9.629238803495001
      ],
      [
        "▁Toi",
        -9.629736044671041
      ],
      [
        "gal",
        -9.630033443565608
      ],
      [
        "▁ra",
        -9.6311450640449
      ],
      [
        "▁Yaw",
        -9.631823579743827
      ],
      [
        "▁Seeta",
        -9.632908837539674
      ],
      [
        "▁Mënul",
        -9.635129376388944
      ],
      [
        "▁julli",
        -9.63657403989146
      ],
      [
        "▁kanam.",
        -9.637578189372032
      ],
      [
        "▁gar",
        -9.639717711042186
      ],
      [
        "▁Achète",
        -9.640293261508623
      ],
      [
        "ng",
        -9.6415244948038
      ],
      [
        "▁Foo",
        -9.642543977474485
      ],
      [
        "▁doomam",
        -9.643716784592497
      ],
      [
        "ottali",
        -9.646347712007033
      ],
      [
        "▁mesure",
        -9.647960978976275
      ],
      [
        "oor",
        -9.648317203866448
      ],
      [
        "▁for",
        -9.650179425565192
      ],
      [
        "▁acheter",
        -9.651682571494069
      ],
      [
        "▁leer",
        -9.652241923993095
      ],
      [
        "▁xamul",
        -9.65229637218388
      ],
      [
        "▁pantalon",
        -9.654825014344862
      ],
      [
        "▁xeet",
        -9.655163715854695
      ],
      [
        "▁mbaa",
        -9.655998440526805
      ],
      [
        "▁Aw",
        -9.656341755749583
      ],
      [
        "▁Noo",
        -9.657070047820257
      ],
      [
        "▁sens",
        -9.657573396650362
      ],
      [
        "mb",
        -9.65910044666277
      ],
      [
        "▁fil",
        -9.659120655847987
      ],
      [
        "▁séen",
        -9.660758036469714
      ],
      [
        "ure",
        -9.661317852534777
      ],
      [
        "▁bés",
        -9.661693439028575
      ],
      [
        "▁ñan",
        -9.662211203317314
      ],
      [
        "wu",
        -9.663389376233308
      ],
      [
        "▁Par",
        -9.664291005371759
      ],
      [
        "▁moy",
        -9.665080034513597
      ],
      [
        "▁wër",
        -9.665683317578232
      ],
      [
        "saŋ",
        -9.666973965829168
      ],
      [
        "▁wér",
        -9.667422395379733
      ],
      [
        "▁pax",
        -9.669731763093738
      ],
      [
        "▁commence",
        -9.670373186671474
      ],
      [
        "▁bas",
        -9.672190501656226
      ],
      [
        "▁taxa",
        -9.672457457582219
      ],
      [
        "-il",
        -9.672519414309118
      ],
      [
        "▁bakkan",
        -9.672588720543944
      ],
      [
        "▁kay",
        -9.672672845753508
      ],
      [
        "▁xëcc",
        -9.673059628637436
      ],
      [
        "▁Nu",
        -9.673228186690832
      ],
      [
        "▁marche",
        -9.673444430929948
      ],
      [
        "▁Ñów",
        -9.673666945258097
      ],
      [
        "▁Bala",
        -9.673817624340279
      ],
      [
        "▁ndey",
        -9.67416029843258
      ],
      [
        "▁Aucun",
        -9.674240912574716
      ],
      [
        "▁fleuve",
        -9.674312459343643
      ],
      [
        "▁Seigneur",
        -9.674516292056822
      ],
      [
        "▁d'argent",
        -9.674524087991113
      ],
      [
        "▁renversé",
        -9.67454550755355
      ],
      [
        "▁Xaj",
        -9.674563873131511
      ],
      [
        "▁appelé",
        -9.674571422529144
      ],
      [
        "▁fourneau",
        -9.674593716998864
      ],
      [
        "▁déjeuner",
        -9.674649288243312
      ],
      [
        "▁baaraam",
        -9.674907374522903
      ],
      [
        "▁wadd",
        -9.67490940506113
      ],
      [
        "▁préparé",
        -9.67505735298228
      ],
      [
        "▁facile",
        -9.675112569706648
      ],
      [
        "▁fatigué",
        -9.675225506619872
      ],
      [
        "▁nang",
        -9.675848327438054
      ],
      [
        "▁élevé",
        -9.678613170572973
      ],
      [
        "▁alal",
        -9.678822151953508
      ],
      [
        "▁dirait",
        -9.678919449379743
      ],
      [
        "▁brousse",
        -9.679440225763173
      ],
      [
        "▁Buur",
        -9.679600414677726
      ],
      [
        "auras",
        -9.679857717442003
      ],
      [
        "▁Njaay",
        -9.679934368020191
      ],
      [
        "▁poudre",
        -9.680060057513675
      ],
      [
        "▁avez",
        -9.681708891641833
      ],
      [
        "▁suukar",
        -9.68289923542107
      ],
      [
        "te.",
        -9.683414680701304
      ],
      [
        "eel",
        -9.68344241101534
      ],
      [
        "▁bëggoon",
        -9.684221404365283
      ],
      [
        "▁rendu",
        -9.684679136706327
      ],
      [
        "▁fusil",
        -9.685161125938652
      ],
      [
        "óon",
        -9.6857242606505
      ],
      [
        "▁Ñii",
        -9.68585402574679
      ],
      [
        "▁compte",
        -9.686310748021615
      ],
      [
        "▁elles",
        -9.689629497856787
      ],
      [
        "▁kaas",
        -9.689840661997929
      ],
      [
        "ependant",
        -9.690964229827781
      ],
      [
        "▁nawet",
        -9.69147854270224
      ],
      [
        "▁gaal",
        -9.691792781441425
      ],
      [
        "▁taxul",
        -9.691834258117886
      ],
      [
        "tôt",
        -9.6928040482451
      ],
      [
        "▁coucher",
        -9.693338610732205
      ],
      [
        "▁ren",
        -9.694858823011694
      ],
      [
        "indil",
        -9.69509154067897
      ],
      [
        "▁Ya",
        -9.695116398863746
      ],
      [
        "▁jóg",
        -9.696563580365362
      ],
      [
        "▁Nag",
        -9.697432506377602
      ],
      [
        "▁lan",
        -9.697494758291672
      ],
      [
        "ka",
        -9.698145449370436
      ],
      [
        "▁xóot",
        -9.698809353211061
      ],
      [
        "▁noo",
        -9.703165620772939
      ],
      [
        "▁ëe",
        -9.703219594278819
      ],
      [
        "▁Naan",
        -9.70368509432355
      ],
      [
        "aa",
        -9.703938242795754
      ],
      [
        "▁sew",
        -9.706647834187363
      ],
      [
        "▁entré",
        -9.70707549255464
      ],
      [
        "▁Laisse",
        -9.709386031776889
      ],
      [
        "▁Dina",
        -9.709578595789361
      ],
      [
        "▁affaires",
        -9.712681142098289
      ],
      [
        "des",
        -9.713911400431034
      ],
      [
        "▁doigt",
        -9.714089516006647
      ],
      [
        "▁bul",
        -9.715707484739415
      ],
      [
        "▁leneen",
        -9.715792150857446
      ],
      [
        "▁Dis",
        -9.715915716760192
      ],
      [
        "▁bëtt",
        -9.71649536679248
      ],
      [
        "▁ña",
        -9.719008554212154
      ],
      [
        "▁tenir",
        -9.72295055368618
      ],
      [
        "▁bâton",
        -9.72594882729133
      ],
      [
        "kk",
        -9.727414331088278
      ],
      [
        "▁fasse",
        -9.729773630018517
      ],
      [
        "▁branche",
        -9.729979326002379
      ],
      [
        "▁Toute",
        -9.730438205418489
      ],
      [
        "▁clé",
        -9.732630680138664
      ],
      [
        "▁rend",
        -9.73287784680685
      ],
      [
        "ëkk",
        -9.733078092628423
      ],
      [
        "▁rester",
        -9.734395197541781
      ],
      [
        "▁touche",
        -9.734438188846868
      ],
      [
        "óor",
        -9.734934661736599
      ],
      [
        "ngi",
        -9.737205160654511
      ],
      [
        "▁Lekk",
        -9.739805561011725
      ],
      [
        "▁mar",
        -9.74059702302583
      ],
      [
        "▁Ñoo",
        -9.740803654257057
      ],
      [
        "sieur",
        -9.742810753354881
      ],
      [
        "▁jee",
        -9.74291969359203
      ],
      [
        "▁jolie",
        -9.743483683526062
      ],
      [
        "▁Nd",
        -9.7440373028764
      ],
      [
        "▁tëdd",
        -9.744293683983651
      ],
      [
        "▁déglu",
        -9.744731858393642
      ],
      [
        "▁ëtt",
        -9.744963155058333
      ],
      [
        "▁Yow",
        -9.745197413361048
      ],
      [
        "▁wirgo",
        -9.745449986896372
      ],
      [
        "▁Fomp",
        -9.745459126798213
      ],
      [
        "▁Kawlax",
        -9.745578371660383
      ],
      [
        "▁jamano",
        -9.745581245602542
      ],
      [
        "▁faudra",
        -9.745590098376956
      ],
      [
        "▁cadeau",
        -9.745663511773317
      ],
      [
        "▁bërëb",
        -9.745672638220237
      ],
      [
        "▁animaux",
        -9.745680855122382
      ],
      [
        "▁Kaolack",
        -9.745685811022877
      ],
      [
        "▁L'oiseau",
        -9.745773571058617
      ],
      [
        "▁Ceux-là",
        -9.745871089920797
      ],
      [
        "▁farine",
        -9.745941669560214
      ],
      [
        "▁l'endroit",
        -9.745965661091553
      ],
      [
        "▁ceinture",
        -9.746014765659707
      ],
      [
        "▁këll",
        -9.746056251689346
      ],
      [
        "▁tay",
        -9.746060609954412
      ],
      [
        "▁manière",
        -9.746258269503901
      ],
      [
        "▁kayit",
        -9.746272556341419
      ],
      [
        "▁vieux",
        -9.746428660281255
      ],
      [
        "▁sàmm",
        -9.746485003571074
      ],
      [
        "▁bukki",
        -9.746860669969752
      ],
      [
        "▁Musaa",
        -9.746901052823505
      ],
      [
        "▁propre",
        -9.747375906432142
      ],
      [
        "▁Booba",
        -9.747938679092435
      ],
      [
        "▁Yéen",
        -9.748401182141743
      ],
      [
        "▁lim",
        -9.74889179677189
      ],
      [
        "eeku",
        -9.748906732059137
      ],
      [
        "▁Suba",
        -9.750071049513679
      ],
      [
        "▁pe",
        -9.75149372760613
      ],
      [
        "▁l'âne",
        -9.752534654868033
      ],
      [
        "▁entier",
        -9.753592201062915
      ],
      [
        "▁Noona",
        -9.753814676522875
      ],
      [
        "▁menn",
        -9.75419462925419
      ],
      [
        "▁bëy",
        -9.754226984701173
      ],
      [
        "▁ron",
        -9.755315283980115
      ],
      [
        "▁weñ",
        -9.755671856884295
      ],
      [
        "▁baat",
        -9.755702092745777
      ],
      [
        "▁genn",
        -9.75644086153979
      ],
      [
        "▁yaw",
        -9.75775797727903
      ],
      [
        "▁muus",
        -9.75779143009595
      ],
      [
        "▁rappelle",
        -9.757813166183142
      ],
      [
        "ug",
        -9.760352954358197
      ],
      [
        "▁fond",
        -9.760933935942617
      ],
      [
        "▁viennent",
        -9.761140919118574
      ],
      [
        "▁sotti",
        -9.76124332999374
      ],
      [
        "▁lampe",
        -9.761378246050361
      ],
      [
        "▁regarde",
        -9.762214196480935
      ],
      [
        "▁Moi",
        -9.762656823539974
      ],
      [
        "▁gaawa",
        -9.769125182997046
      ],
      [
        "▁ràbb",
        -9.76969940273716
      ],
      [
        "▁garçon",
        -9.769773915350873
      ],
      [
        "f.",
        -9.770699216638727
      ],
      [
        "▁njaay",
        -9.774454361242668
      ],
      [
        "▁jaune",
        -9.774610280262056
      ],
      [
        "▁mille",
        -9.77521412304218
      ],
      [
        "▁fóot",
        -9.776244469994595
      ],
      [
        "▁Ñaa",
        -9.778888631140623
      ],
      [
        "▁filles",
        -9.78009297148029
      ],
      [
        "▁yéeg",
        -9.782463637244522
      ],
      [
        "woo",
        -9.782496736010241
      ],
      [
        "▁sor",
        -9.783215041710887
      ],
      [
        "▁sii",
        -9.784903331576842
      ],
      [
        "▁Ña",
        -9.785332431631831
      ],
      [
        "▁crain",
        -9.785748255869898
      ],
      [
        "▁mb",
        -9.78657781572843
      ],
      [
        "▁mur",
        -9.78912371467369
      ],
      [
        "▁cou",
        -9.793454527563764
      ],
      [
        "▁tux",
        -9.793483944464295
      ],
      [
        "▁entrer",
        -9.793704169492727
      ],
      [
        "▁Dégg",
        -9.793864510986525
      ],
      [
        "▁teel",
        -9.795897759835379
      ],
      [
        "▁coupe",
        -9.798100642356294
      ],
      [
        "▁liggéeye",
        -9.798693492210028
      ],
      [
        "▁po",
        -9.799676533595907
      ],
      [
        "▁ñuul.",
        -9.801120090009501
      ],
      [
        "▁remis",
        -9.801383531814155
      ],
      [
        "▁As",
        -9.804319756930665
      ],
      [
        "▁repas",
        -9.80509783714736
      ],
      [
        "éeréer",
        -9.805103895711952
      ],
      [
        "oivent",
        -9.805174914699675
      ],
      [
        "'en",
        -9.805175260599833
      ],
      [
        "▁frère",
        -9.805338870383324
      ],
      [
        "▁ser",
        -9.805565346928546
      ],
      [
        "raada",
        -9.806414603274932
      ],
      [
        "▁tirer",
        -9.806421481518058
      ],
      [
        "▁charge",
        -9.808894242598324
      ],
      [
        "▁lonk",
        -9.81010257304797
      ],
      [
        "▁chèvre",
        -9.810430632359424
      ],
      [
        "▁bleu",
        -9.810458744345693
      ],
      [
        "▁reconnais",
        -9.810925676717677
      ],
      [
        "▁naaw",
        -9.81118409647369
      ],
      [
        "▁mette",
        -9.811246614252223
      ],
      [
        "ui",
        -9.812162246219266
      ],
      [
        "▁Là",
        -9.814971813357495
      ],
      [
        "▁feeñ",
        -9.816224463381207
      ],
      [
        "▁tard",
        -9.816287839702383
      ],
      [
        "▁vivre",
        -9.816893486425936
      ],
      [
        "▁tolloo",
        -9.8170354217378
      ],
      [
        "▁soog",
        -9.81826425171225
      ],
      [
        "us",
        -9.819291061512278
      ],
      [
        "▁Qu'",
        -9.819620508894488
      ],
      [
        "gg",
        -9.820803302246269
      ],
      [
        "▁wàññi",
        -9.822101635612007
      ],
      [
        "▁piège",
        -9.822155782257889
      ],
      [
        "▁Wolof",
        -9.822192036838276
      ],
      [
        "▁début",
        -9.822214442273932
      ],
      [
        "▁canari",
        -9.82222948476571
      ],
      [
        "▁Lawbe",
        -9.822278922155498
      ],
      [
        "▁mbedd",
        -9.822281890960284
      ],
      [
        "▁choisi",
        -9.82231830179375
      ],
      [
        "▁wacc",
        -9.822394826722325
      ],
      [
        "▁soudain",
        -9.822412141625941
      ],
      [
        "▁mosquée",
        -9.822416990993183
      ],
      [
        "▁théière",
        -9.822463033749582
      ],
      [
        "▁chevaux",
        -9.822495009565284
      ],
      [
        "▁enceinte",
        -9.82249825927271
      ],
      [
        "▁Waxtaan",
        -9.822572872050014
      ],
      [
        "▁dernière",
        -9.822582879893483
      ],
      [
        "▁l'eff",
        -9.822593211898038
      ],
      [
        "pas",
        -9.822594915642826
      ],
      [
        "▁l'esprit",
        -9.822595651072492
      ],
      [
        "▁diggante",
        -9.822618981526816
      ],
      [
        "▁prix",
        -9.822787503225149
      ],
      [
        "▁vérité",
        -9.82297146315258
      ],
      [
        "▁demandé",
        -9.822972657557028
      ],
      [
        "▁bool",
        -9.823005339881117
      ],
      [
        "▁dootul",
        -9.823030065275173
      ],
      [
        "▁grosse",
        -9.823333847301422
      ],
      [
        "▁mbër",
        -9.823400525371918
      ],
      [
        "▁Weer",
        -9.823867411316293
      ],
      [
        "▁resté",
        -9.824085506185423
      ],
      [
        "▁sàcc",
        -9.824110574690256
      ],
      [
        "▁fetal",
        -9.824423103663332
      ],
      [
        "▁tissu",
        -9.824442132397966
      ],
      [
        "▁màgget",
        -9.824549014117927
      ],
      [
        "▁féete",
        -9.824590478324893
      ],
      [
        "▁tank",
        -9.825374770271777
      ],
      [
        "▁tàmbalee",
        -9.825631801180505
      ],
      [
        "▁Voi",
        -9.825850277903891
      ],
      [
        "▁yég",
        -9.826842637952897
      ],
      [
        "▁xeer",
        -9.828972807870258
      ],
      [
        "▁Waaye",
        -9.829123175980367
      ],
      [
        "▁booba",
        -9.830283927266825
      ],
      [
        "▁caillou",
        -9.830703961442783
      ],
      [
        "▁allait",
        -9.830923360357872
      ],
      [
        "▁Yeen",
        -9.830982095155116
      ],
      [
        "▁coupé",
        -9.831810037777739
      ],
      [
        "▁monter",
        -9.833636192260075
      ],
      [
        "▁rek",
        -9.834282069173572
      ],
      [
        "▁ubbi",
        -9.834341211080401
      ],
      [
        "▁pu",
        -9.834788204774789
      ],
      [
        "▁panier",
        -9.835132381807464
      ],
      [
        "▁vieille",
        -9.835206495990288
      ],
      [
        "▁perdu",
        -9.83538418284233
      ],
      [
        "▁màndi",
        -9.835671837204602
      ],
      [
        "▁entra",
        -9.836819246218859
      ],
      [
        "▁Bii",
        -9.83684472422948
      ],
      [
        "▁Bët",
        -9.838924637941721
      ],
      [
        "▁quatre",
        -9.838943052047854
      ],
      [
        "▁Dé",
        -9.839027135503834
      ],
      [
        "▁gendarmes",
        -9.839365578266763
      ],
      [
        "▁per",
        -9.842628453800902
      ],
      [
        "▁jeté",
        -9.842933947073913
      ],
      [
        "▁l'an",
        -9.844192256264662
      ],
      [
        "▁Bunt",
        -9.844326259754931
      ],
      [
        "▁dur",
        -9.8447847342553
      ],
      [
        "▁kilo",
        -9.845004684719388
      ],
      [
        "dit",
        -9.847842344954726
      ],
      [
        "▁envoyé",
        -9.847850074793595
      ],
      [
        "▁prêt",
        -9.848273173295917
      ],
      [
        "▁Ra",
        -9.848710932532413
      ],
      [
        "▁i",
        -9.848866115780588
      ],
      [
        "ire",
        -9.848995336040678
      ],
      [
        "▁Jaay",
        -9.849702315730692
      ],
      [
        "▁diw",
        -9.851328206208798
      ],
      [
        "▁dund",
        -9.85135504166639
      ],
      [
        "▁nanu",
        -9.852745184905142
      ],
      [
        "mal",
        -9.853839855282846
      ],
      [
        "▁ventre",
        -9.854672302957223
      ],
      [
        "▁habit",
        -9.855926349999464
      ],
      [
        "▁gënal",
        -9.856600307341507
      ],
      [
        "'avoir",
        -9.857279203397185
      ],
      [
        "▁doigts",
        -9.85728558963928
      ],
      [
        "▁laisses",
        -9.858346534458498
      ],
      [
        "▁commencer",
        -9.859081263762103
      ],
      [
        "▁jour.",
        -9.859522122155209
      ],
      [
        "▁set",
        -9.8595558730472
      ],
      [
        "▁queue",
        -9.860258920574928
      ],
      [
        "el",
        -9.861852429531979
      ],
      [
        "▁dig",
        -9.863012327828901
      ],
      [
        "▁raxas",
        -9.863188653056717
      ],
      [
        "▁Seet",
        -9.86493935132335
      ],
      [
        "▁wone",
        -9.866434475114568
      ],
      [
        "▁Xaw",
        -9.867040053401652
      ],
      [
        "▁Ki",
        -9.867219471988522
      ],
      [
        "▁vi",
        -9.86802390841838
      ],
      [
        "▁clair",
        -9.868887654921306
      ],
      [
        "bi.",
        -9.869858824524677
      ],
      [
        "▁maisons",
        -9.870069722179736
      ],
      [
        "▁ëmb",
        -9.870444566379001
      ],
      [
        "▁diis",
        -9.871339787873598
      ],
      [
        "▁see",
        -9.871970045110817
      ],
      [
        "▁denc",
        -9.879161333442061
      ],
      [
        "▁sort",
        -9.879330422148392
      ],
      [
        "▁chasse",
        -9.879680766146759
      ],
      [
        "▁demander",
        -9.880502142399619
      ],
      [
        "▁yokk",
        -9.88153246864781
      ],
      [
        "▁booy",
        -9.881549773091589
      ],
      [
        "sa",
        -9.881666127670583
      ],
      [
        "▁profond",
        -9.88198140530556
      ],
      [
        "-je",
        -9.882018168589243
      ],
      [
        "▁ŋgii",
        -9.882051978281112
      ],
      [
        "eer",
        -9.884032317103149
      ],
      [
        "alal",
        -9.884298677942594
      ],
      [
        "▁dëgër",
        -9.885927092268494
      ],
      [
        "▁Mag",
        -9.886962317727082
      ],
      [
        "▁calebasse",
        -9.88699912938544
      ],
      [
        "aayu",
        -9.888879979155337
      ],
      [
        "▁sel",
        -9.890809863360884
      ],
      [
        "▁D'",
        -9.891219432408471
      ],
      [
        "▁champs",
        -9.8916331997215
      ],
      [
        "▁chaise",
        -9.89208999189712
      ],
      [
        "om",
        -9.892251558215957
      ],
      [
        "▁monde.",
        -9.892849287345118
      ],
      [
        "deur",
        -9.893088624738377
      ],
      [
        "▁blancs",
        -9.893962529928737
      ],
      [
        "▁ferme",
        -9.894112811968494
      ],
      [
        "gu",
        -9.895678833418467
      ],
      [
        "▁gaañ",
        -9.89652264616368
      ],
      [
        "▁j'en",
        -9.8970911159527
      ],
      [
        "▁saw",
        -9.898993946491684
      ],
      [
        "▁yax",
        -9.899901251049359
      ],
      [
        "▁sopp",
        -9.900699217773484
      ],
      [
        "▁lourd",
        -9.901303650887911
      ],
      [
        "rai",
        -9.90137997235131
      ],
      [
        "▁jub",
        -9.90142657140311
      ],
      [
        "at.",
        -9.903410912248885
      ],
      [
        "▁néew",
        -9.904137545872478
      ],
      [
        "▁sûr",
        -9.9048623629552
      ],
      [
        "▁Mbë",
        -9.904986871115517
      ],
      [
        "▁grâce",
        -9.90530737788853
      ],
      [
        "▁Homme",
        -9.905311430051748
      ],
      [
        "▁Ganaar",
        -9.905472468849723
      ],
      [
        "▁yaakaar",
        -9.905533329198487
      ],
      [
        "▁baptême",
        -9.90554328518153
      ],
      [
        "▁veulent",
        -9.905558112398804
      ],
      [
        "▁guerre",
        -9.905583824801411
      ],
      [
        "▁banqaas",
        -9.905605630224622
      ],
      [
        "▁chapeau",
        -9.905625659331802
      ],
      [
        "▁ñeex",
        -9.905647591612762
      ],
      [
        "▁caractère",
        -9.90568765773547
      ],
      [
        "▁toppatoo",
        -9.90569504878271
      ],
      [
        "▁s'appelle",
        -9.905717032358893
      ],
      [
        "▁nourriture",
        -9.905745088876102
      ],
      [
        "▁téere",
        -9.90593919699792
      ],
      [
        "▁chaleur",
        -9.905964808716318
      ],
      [
        "▁mbokk",
        -9.905979018997687
      ],
      [
        "▁saabu",
        -9.906326653832561
      ],
      [
        "▁fâché",
        -9.906514600667935
      ],
      [
        "▁Ë",
        -9.90664789275855
      ],
      [
        "▁attend",
        -9.907446810670097
      ],
      [
        "▁xamante",
        -9.9080841249973
      ],
      [
        "portant",
        -9.908146935619103
      ],
      [
        "▁tant",
        -9.908391181897592
      ],
      [
        "▁Noonu",
        -9.910146313816023
      ],
      [
        "▁venus",
        -9.910411463599441
      ],
      [
        "▁savon",
        -9.911308474935757
      ],
      [
        "▁linge",
        -9.911657547598665
      ],
      [
        "▁failli",
        -9.911719943514672
      ],
      [
        "▁cuir",
        -9.911791214531092
      ],
      [
        "▁vendre",
        -9.912094739917432
      ],
      [
        "▁foo",
        -9.912188616592093
      ],
      [
        "-tu",
        -9.912622191454762
      ],
      [
        "▁paille",
        -9.91311753170129
      ],
      [
        "▁donc",
        -9.913216835201688
      ],
      [
        "▁c'était",
        -9.913417432513569
      ],
      [
        "▁googu",
        -9.914070807972207
      ],
      [
        "▁yaayam",
        -9.91419062331214
      ],
      [
        "▁Sunu",
        -9.914572319335868
      ],
      [
        "▁tresses",
        -9.914830465025306
      ],
      [
        "iez",
        -9.91488126695618
      ],
      [
        "▁couleurs",
        -9.914898341741754
      ],
      [
        "ité",
        -9.915320269891795
      ],
      [
        "▁Jaam",
        -9.915486735336286
      ],
      [
        "▁ndënd",
        -9.915959755941287
      ],
      [
        "▁digg",
        -9.916219349336167
      ],
      [
        "▁chant",
        -9.919425009493438
      ],
      [
        "▁waañ",
        -9.919686740886986
      ],
      [
        "▁boire",
        -9.920281356728887
      ],
      [
        "▁Màng",
        -9.920790204059424
      ],
      [
        "▁Yen",
        -9.921129510092634
      ],
      [
        "▁heures",
        -9.922647004480599
      ],
      [
        "▁jafe",
        -9.922753212441844
      ],
      [
        "▁tuur",
        -9.922856853870934
      ],
      [
        "▁court",
        -9.923258337493019
      ],
      [
        "▁battre",
        -9.924588307205513
      ],
      [
        "▁sedd",
        -9.925517658443338
      ],
      [
        "▁existe",
        -9.926366495353866
      ],
      [
        "▁manque",
        -9.927181145495231
      ],
      [
        "▁Faat",
        -9.927549176987958
      ],
      [
        "▁front",
        -9.927780059163725
      ],
      [
        "▁ira",
        -9.929548912116136
      ],
      [
        "▁jëf",
        -9.93168229360853
      ],
      [
        "▁voudrai",
        -9.9332896532379
      ],
      [
        "▁boole",
        -9.934745311414964
      ],
      [
        "▁Lan",
        -9.935154950849203
      ],
      [
        "▁wuti",
        -9.935249802533335
      ],
      [
        "▁nooy",
        -9.935651115873764
      ],
      [
        "▁couche",
        -9.938712340348536
      ],
      [
        "▁Po",
        -9.938917274717099
      ],
      [
        "▁fee",
        -9.938984897721658
      ],
      [
        "▁d'a",
        -9.939085223865733
      ],
      [
        "▁ré",
        -9.939675116373378
      ],
      [
        "▁Wa",
        -9.939690362231229
      ],
      [
        "▁Cere",
        -9.940242721503282
      ],
      [
        "y,",
        -9.94106825801059
      ],
      [
        "oujours",
        -9.943790106752244
      ],
      [
        "▁sab",
        -9.944312319746372
      ],
      [
        "▁sarax",
        -9.945302584164384
      ],
      [
        "▁large",
        -9.945569347637047
      ],
      [
        "▁Avan",
        -9.947238214067546
      ],
      [
        "▁d'all",
        -9.947240504119979
      ],
      [
        "bal",
        -9.948193214121163
      ],
      [
        "▁Buy",
        -9.948404372703852
      ],
      [
        "▁laal",
        -9.948984287029374
      ],
      [
        "▁parole",
        -9.949051210029873
      ],
      [
        "▁venue",
        -9.950254442134975
      ],
      [
        "▁cordes",
        -9.952598936981406
      ],
      [
        "yan",
        -9.952688767861718
      ],
      [
        "▁naat",
        -9.952912028960522
      ],
      [
        "ier",
        -9.95375598930895
      ],
      [
        "▁extr",
        -9.954506227027025
      ],
      [
        "▁mba",
        -9.956528021298316
      ],
      [
        "▁Diw",
        -9.957977886639851
      ],
      [
        "és",
        -9.958142881677446
      ],
      [
        "▁pourrai",
        -9.959521524802192
      ],
      [
        "▁abal",
        -9.961729339225974
      ],
      [
        "▁d'en",
        -9.96235814440954
      ],
      [
        "▁rapport",
        -9.963870619522968
      ],
      [
        "▁téye",
        -9.964301057289426
      ],
      [
        "▁Wool",
        -9.96690687870716
      ],
      [
        "▁tali",
        -9.967257667909665
      ],
      [
        "▁Sérère",
        -9.967413553924505
      ],
      [
        "▁xas",
        -9.967639545127406
      ],
      [
        "▁fruit",
        -9.967844514467934
      ],
      [
        "▁jéle",
        -9.967861115846572
      ],
      [
        "▁banc",
        -9.968425845786829
      ],
      [
        "▁in",
        -9.968722090343974
      ],
      [
        "▁mbaar",
        -9.969308960042117
      ],
      [
        "▁parties",
        -9.96950430578469
      ],
      [
        "▁takku",
        -9.969876600527844
      ],
      [
        "▁arrivés",
        -9.971877621839752
      ],
      [
        "rait",
        -9.974384446255522
      ],
      [
        "▁yomb",
        -9.975073366630197
      ],
      [
        "▁Pose",
        -9.975572602400273
      ],
      [
        "▁col",
        -9.975856348067884
      ],
      [
        "▁yeew",
        -9.976391925067386
      ],
      [
        "▁danu",
        -9.976878180660076
      ],
      [
        "▁No",
        -9.977250635327529
      ],
      [
        "▁conçue",
        -9.977634669790982
      ],
      [
        "▁livre",
        -9.977678800109771
      ],
      [
        "▁seau",
        -9.977762431259412
      ],
      [
        "or",
        -9.978055476024974
      ],
      [
        "▁dënn",
        -9.978488801120507
      ],
      [
        "▁gas",
        -9.97914742510983
      ],
      [
        "▁Defe",
        -9.980151566110168
      ],
      [
        "▁»,",
        -9.980883804744362
      ],
      [
        "▁baña",
        -9.983752911315749
      ],
      [
        "û",
        -9.985032982545373
      ],
      [
        "▁envoyée",
        -9.985277989052403
      ],
      [
        "▁nañ",
        -9.98571485080154
      ],
      [
        "▁d'autre",
        -9.98659630055323
      ],
      [
        "▁maternel",
        -9.987587048405281
      ],
      [
        "ré",
        -9.988398263824216
      ],
      [
        "▁alla",
        -9.98910930863865
      ],
      [
        "▁këram",
        -9.994979516502356
      ],
      [
        "▁doomu",
        -9.99537179621008
      ],
      [
        "▁naqar",
        -9.99554025912104
      ],
      [
        "▁Ceeb",
        -9.995866328725903
      ],
      [
        "▁époux",
        -9.995974901826143
      ],
      [
        "▁Ëllëg",
        -9.996001886262437
      ],
      [
        "▁Màkka",
        -9.996072470871946
      ],
      [
        "▁furno",
        -9.996092981314657
      ],
      [
        "▁junni",
        -9.996158493688112
      ],
      [
        "▁Xammee",
        -9.996193275717914
      ],
      [
        "▁l'aube",
        -9.996205481540319
      ],
      [
        "▁ndigg",
        -9.996214557576629
      ],
      [
        "▁tam-tam",
        -9.996224201784354
      ],
      [
        "▁période",
        -9.996225639982455
      ],
      [
        "▁gëléem",
        -9.996225829353522
      ],
      [
        "▁contient",
        -9.996244850817826
      ],
      [
        "▁tamarin",
        -9.996258672771026
      ],
      [
        "▁gazelle",
        -9.996315062024433
      ],
      [
        "▁bâtiment",
        -9.996352602600087
      ],
      [
        "▁palais",
        -9.996352995417467
      ],
      [
        "▁rëcc",
        -9.996361802301541
      ],
      [
        "▁bouteille",
        -9.996365309099225
      ],
      [
        "▁Casamance",
        -9.996366916350429
      ],
      [
        "▁Pourtant",
        -9.996372022451133
      ],
      [
        "▁brusquement",
        -9.996458329565456
      ],
      [
        "prit",
        -9.996468088770829
      ],
      [
        "▁bracelet",
        -9.996523047259045
      ],
      [
        "▁assurément",
        -9.99666404676638
      ],
      [
        "▁toogukaay",
        -9.996820633887166
      ],
      [
        "añ",
        -9.996997371495157
      ],
      [
        "eu",
        -9.99710683146067
      ],
      [
        "▁Jàppal",
        -9.997227283596636
      ],
      [
        "▁morceaux",
        -9.99729831114362
      ],
      [
        "▁mujje",
        -9.99781835362761
      ],
      [
        "▁enlevé",
        -9.997867397675886
      ],
      [
        "▁njiit",
        -9.997962101398933
      ],
      [
        "▁dog",
        -9.998086613180357
      ],
      [
        "▁Gën",
        -9.998133408557441
      ],
      [
        "▁dessous",
        -9.998545245972483
      ],
      [
        "▁mee",
        -9.998828426692013
      ],
      [
        "▁seetaan",
        -9.999042920859642
      ],
      [
        "▁monte",
        -9.999226072761493
      ],
      [
        "▁Bëy",
        -9.999245114738345
      ],
      [
        "▁foofa",
        -9.99944357909011
      ],
      [
        "▁l'on",
        -9.999552792377346
      ],
      [
        "▁réveillé",
        -9.999836375156825
      ],
      [
        "▁autrement",
        -10.000018319301898
      ],
      [
        "▁n'irai",
        -10.000100974797828
      ],
      [
        "▁moins",
        -10.000460269593017
      ],
      [
        "▁palme",
        -10.000789742587685
      ],
      [
        "'asseoir",
        -10.000947020033491
      ],
      [
        "▁Baax",
        -10.00216179356871
      ],
      [
        "eaucoup",
        -10.002370934263563
      ],
      [
        "▁Bon",
        -10.002782012440681
      ],
      [
        "▁ballon",
        -10.002985536456782
      ],
      [
        "▁fesses",
        -10.004579913764466
      ],
      [
        "▁kañ",
        -10.00492148688593
      ],
      [
        "▁Gu",
        -10.005528477809712
      ],
      [
        "▁tiré",
        -10.005954607492118
      ],
      [
        "▁Ch",
        -10.006112061976822
      ],
      [
        "▁mou",
        -10.00623341959328
      ],
      [
        "▁parlé",
        -10.006539077711835
      ],
      [
        "▁'",
        -10.007824695288818
      ],
      [
        "▁takk-der",
        -10.008197860793793
      ],
      [
        "▁tudde",
        -10.008565590834259
      ],
      [
        "▁fleurs",
        -10.008626765030193
      ],
      [
        "▁tontu",
        -10.009584479514494
      ],
      [
        "▁yéene",
        -10.010442842465519
      ],
      [
        "▁jéndal",
        -10.010504122861084
      ],
      [
        "uy",
        -10.010812537030679
      ],
      [
        "ch",
        -10.012554184786179
      ],
      [
        "▁baŋ",
        -10.012571200392465
      ],
      [
        "▁danse",
        -10.012685588130616
      ],
      [
        "▁vaccin",
        -10.013957222110085
      ],
      [
        "▁bassine",
        -10.014748293574373
      ],
      [
        "▁prenne",
        -10.015163080438871
      ],
      [
        "ler",
        -10.015228645234119
      ],
      [
        "▁Tool",
        -10.017294390478986
      ],
      [
        "▁construi",
        -10.01975623947698
      ],
      [
        "▁mariée",
        -10.019841952070552
      ],
      [
        "▁adultes",
        -10.021183732129817
      ],
      [
        "▁présente",
        -10.022455596400306
      ],
      [
        "uur",
        -10.022883938521318
      ],
      [
        "▁Ka",
        -10.022957218821897
      ],
      [
        "▁Abal",
        -10.02318853658206
      ],
      [
        "▁Donne-",
        -10.025024651816304
      ],
      [
        "▁paan",
        -10.025479875409678
      ],
      [
        "▁Xan",
        -10.026588518075627
      ],
      [
        "▁talisman",
        -10.029371255418116
      ],
      [
        "▁sonn",
        -10.029408782488739
      ],
      [
        "àll",
        -10.030789065488458
      ],
      [
        "ations",
        -10.031529370817127
      ],
      [
        "aller",
        -10.032506499452735
      ],
      [
        "▁ñam",
        -10.03266851984292
      ],
      [
        "▁noire.",
        -10.033198093360568
      ],
      [
        "▁ceci",
        -10.033441244160779
      ],
      [
        "enn",
        -10.033716340503414
      ],
      [
        "llions",
        -10.035900984956127
      ],
      [
        "▁ñee",
        -10.036558052890314
      ],
      [
        "▁verres",
        -10.037560472504058
      ],
      [
        "▁partes",
        -10.038282321800452
      ],
      [
        "▁combi",
        -10.041080464688518
      ],
      [
        "▁jam",
        -10.042594512564163
      ],
      [
        "▁pañe",
        -10.04288758044002
      ],
      [
        "▁nàmp",
        -10.043015008805215
      ],
      [
        "▁waxal",
        -10.043436928511442
      ],
      [
        "lever",
        -10.043512666778938
      ],
      [
        "▁xat",
        -10.044708733490758
      ],
      [
        "▁Ren",
        -10.04715181826825
      ],
      [
        "▁viendrai",
        -10.047558355077875
      ],
      [
        "▁Nee",
        -10.048084095013019
      ],
      [
        "▁noon",
        -10.04836186371919
      ],
      [
        "▁ñàkk",
        -10.048611936328825
      ],
      [
        "▁classe",
        -10.050533929799993
      ],
      [
        "▁Won",
        -10.05157168762215
      ],
      [
        "▁ndaa",
        -10.05334084205174
      ],
      [
        "part",
        -10.053836242965932
      ],
      [
        "▁Bés",
        -10.055131275136644
      ],
      [
        "▁ngaa",
        -10.056039167131399
      ],
      [
        "▁voulai",
        -10.056979971699285
      ],
      [
        "▁rab",
        -10.057165713864146
      ],
      [
        "▁malheur",
        -10.057640291062235
      ],
      [
        "▁natt",
        -10.060264740275066
      ],
      [
        "près",
        -10.061056612508732
      ],
      [
        "waay",
        -10.061396290106275
      ],
      [
        "▁réveille",
        -10.061743970643153
      ],
      [
        "▁maladie",
        -10.061942126146803
      ],
      [
        "▁tôt",
        -10.063352716977734
      ],
      [
        "▁égarée",
        -10.06517733602924
      ],
      [
        "▁balle",
        -10.065988361302272
      ],
      [
        "▁arriva",
        -10.066649537622038
      ],
      [
        "▁teint",
        -10.066998398487783
      ],
      [
        "▁tàkk",
        -10.067911399742446
      ],
      [
        "▁pro",
        -10.069089057343499
      ],
      [
        "▁attends",
        -10.07056637784344
      ],
      [
        "▁jeu",
        -10.07253438021927
      ],
      [
        "▁Tay",
        -10.073068429676773
      ],
      [
        "▁visite",
        -10.078268868762107
      ],
      [
        "▁mangue",
        -10.078523041508966
      ],
      [
        "▁trait",
        -10.078994929024653
      ],
      [
        "▁bor",
        -10.079218882504982
      ],
      [
        "▁fale",
        -10.079685146014654
      ],
      [
        "faire",
        -10.08064757052008
      ],
      [
        "▁wóor",
        -10.080710453708862
      ],
      [
        "▁dëkke",
        -10.08100030478343
      ],
      [
        "▁palissade",
        -10.083149618489525
      ],
      [
        "▁aucun",
        -10.084906971800953
      ],
      [
        "▁tombée",
        -10.086449976906337
      ],
      [
        "▁vin",
        -10.08986350156699
      ],
      [
        "ru",
        -10.090489148003519
      ],
      [
        "▁n'es",
        -10.090901485904608
      ],
      [
        "▁jog",
        -10.092506954993889
      ],
      [
        "▁comporte",
        -10.09358215977052
      ],
      [
        "▁rônier",
        -10.094084444534122
      ],
      [
        "▁manioc",
        -10.094086840474555
      ],
      [
        "▁Allez",
        -10.094087872522248
      ],
      [
        "▁dispute",
        -10.0940930051817
      ],
      [
        "▁U2",
        -10.09410541963333
      ],
      [
        "▁Regarde",
        -10.094119161577334
      ],
      [
        "▁Coran",
        -10.094145325496685
      ],
      [
        "▁bébé",
        -10.094162534276311
      ],
      [
        "▁Fatim",
        -10.094178161068118
      ],
      [
        "▁Allons",
        -10.094214250655252
      ],
      [
        "▁subë",
        -10.094233044734224
      ],
      [
        "▁plage",
        -10.094294703628265
      ],
      [
        "▁Génn",
        -10.0944156589612
      ],
      [
        "▁frappé",
        -10.094419564194197
      ],
      [
        "▁d'oeil",
        -10.094431835100764
      ],
      [
        "▁maye",
        -10.094461381050042
      ],
      [
        "▁Xoolal",
        -10.094582553031374
      ],
      [
        "▁gauche",
        -10.09479091371452
      ],
      [
        "▁piment",
        -10.09483077474666
      ],
      [
        "▁tefes",
        -10.09487939570032
      ],
      [
        "▁Chacun",
        -10.094953533356518
      ],
      [
        "▁épuisé",
        -10.095155474975066
      ],
      [
        "▁Jénd",
        -10.095178493228342
      ],
      [
        "▁Puisse",
        -10.09520949377027
      ],
      [
        "▁seetsi",
        -10.095278530462561
      ],
      [
        "autour",
        -10.095906003381536
      ],
      [
        "▁Prophète",
        -10.096064504417596
      ],
      [
        "▁perroquet",
        -10.09610773176717
      ],
      [
        "▁récipient",
        -10.096109704857145
      ],
      [
        "▁peinture",
        -10.096139883572212
      ],
      [
        "▁protection",
        -10.096168746298316
      ],
      [
        "▁compagnie",
        -10.096202624534511
      ],
      [
        "▁foyer",
        -10.096470081734118
      ],
      [
        "▁bale",
        -10.096579819481708
      ],
      [
        "▁Gaynde",
        -10.096613971839112
      ],
      [
        "▁Yaay",
        -10.096892545078559
      ],
      [
        "▁nombre",
        -10.096917687326819
      ],
      [
        "▁machine",
        -10.097596550465989
      ],
      [
        "▁tàmbali",
        -10.098088573481904
      ],
      [
        "▁Julli",
        -10.098124193746818
      ],
      [
        "sse",
        -10.099223480035718
      ],
      [
        "▁laissé",
        -10.09942107865774
      ],
      [
        "▁honnête",
        -10.099550554885353
      ],
      [
        "▁pri",
        -10.09957821131225
      ],
      [
        "▁couvre",
        -10.09958923153842
      ],
      [
        "dd",
        -10.09973628191968
      ],
      [
        "▁toilettes",
        -10.100060522705846
      ],
      [
        "▁jariñ",
        -10.100251618284123
      ],
      [
        "▁yewwu",
        -10.100357754103765
      ],
      [
        "▁voulu",
        -10.100927291746682
      ],
      [
        "▁faisait",
        -10.102161653010201
      ],
      [
        "▁ngoon",
        -10.10231497262963
      ],
      [
        "'enfant",
        -10.102428851920724
      ],
      [
        "▁sèche",
        -10.10256603708738
      ],
      [
        "▁dajale",
        -10.102886191709183
      ],
      [
        "▁vrai",
        -10.103078551274281
      ],
      [
        "▁jàll",
        -10.103104074501754
      ],
      [
        "leur",
        -10.103277859859645
      ],
      [
        "amaan",
        -10.104581362122453
      ],
      [
        "▁d'Europe",
        -10.10522510315451
      ],
      [
        "▁emport",
        -10.10560505784877
      ],
      [
        "▁couché",
        -10.1057385589951
      ],
      [
        "▁courage",
        -10.105867798679522
      ],
      [
        "▁école",
        -10.106461956963827
      ],
      [
        "▁boutique",
        -10.106636045384835
      ],
      [
        "▁Tëgg",
        -10.106903022144849
      ],
      [
        "▁couper",
        -10.107774533997544
      ],
      [
        "▁nul",
        -10.107911070820926
      ],
      [
        "▁chante",
        -10.107967176643148
      ],
      [
        "▁taa",
        -10.108141985417296
      ],
      [
        "▁butéel",
        -10.108564845238426
      ],
      [
        "▁ñëwul",
        -10.109068105507234
      ],
      [
        "tion",
        -10.109371960714542
      ],
      [
        "▁ub",
        -10.109374752756898
      ],
      [
        "▁Amuloo",
        -10.109491171946093
      ],
      [
        "▁wanag",
        -10.109753781574883
      ],
      [
        "▁démb",
        -10.10983410361158
      ],
      [
        "▁Xel",
        -10.109993440180853
      ],
      [
        "▁âge",
        -10.110002155598114
      ],
      [
        "▁amatul",
        -10.110375073252229
      ],
      [
        "▁sox",
        -10.110752633503722
      ],
      [
        "▁bokku",
        -10.112440239517388
      ],
      [
        "▁soi",
        -10.113876940346355
      ],
      [
        "▁mangues",
        -10.114933909034411
      ],
      [
        "▁té",
        -10.115093150174896
      ],
      [
        "able",
        -10.118831319178378
      ],
      [
        "▁daaw",
        -10.119180551177742
      ],
      [
        "lóor",
        -10.11955546168939
      ],
      [
        "▁jan",
        -10.119817841627906
      ],
      [
        "▁arrêt",
        -10.120228021004785
      ],
      [
        "▁ame",
        -10.12124839446774
      ],
      [
        "ju",
        -10.121556702441154
      ],
      [
        "s-moi",
        -10.12194523060606
      ],
      [
        "▁pourra",
        -10.122112712826585
      ],
      [
        "▁Dinga",
        -10.122732374750361
      ],
      [
        "▁warul",
        -10.123092475823018
      ],
      [
        "▁droite",
        -10.123221512762466
      ],
      [
        "▁I",
        -10.125076073800553
      ],
      [
        "▁sore",
        -10.125386986503505
      ],
      [
        "▁baxa",
        -10.127025050156098
      ],
      [
        "àcc",
        -10.128029062772868
      ],
      [
        "▁sortes",
        -10.129114628874392
      ],
      [
        "▁t'avai",
        -10.129415892014988
      ],
      [
        "▁verra",
        -10.129491591828454
      ],
      [
        "▁vit",
        -10.130203517918806
      ],
      [
        "▁finira",
        -10.130320089924737
      ],
      [
        "▁tient",
        -10.130719367142312
      ],
      [
        "▁jotee",
        -10.13288615369232
      ],
      [
        "▁hier",
        -10.132955783868582
      ],
      [
        "erai",
        -10.133066555054372
      ],
      [
        "▁Naar",
        -10.133122922477458
      ],
      [
        "wal",
        -10.13335717563224
      ],
      [
        "▁attaché",
        -10.133960231559458
      ],
      [
        "▁devrai",
        -10.135143349951928
      ],
      [
        "▁siis",
        -10.135571787016477
      ],
      [
        "▁të",
        -10.13707125825084
      ],
      [
        "▁L'un",
        -10.13805126651442
      ],
      [
        "▁hache",
        -10.138228751485654
      ],
      [
        "▁nekkul",
        -10.138316565345857
      ],
      [
        "▁sag",
        -10.138645180230338
      ],
      [
        "▁maanaa",
        -10.142551071095388
      ],
      [
        "▁vends",
        -10.143481168295747
      ],
      [
        "▁laax",
        -10.144113754514857
      ],
      [
        "▁depui",
        -10.145897716670625
      ],
      [
        "▁taille",
        -10.146196976715467
      ],
      [
        "intention",
        -10.148768557738597
      ],
      [
        "▁chaud",
        -10.149260720795509
      ],
      [
        "tt",
        -10.151186515950704
      ],
      [
        "▁bavard",
        -10.151429238852065
      ],
      [
        "▁ét",
        -10.155669897536963
      ],
      [
        "▁poussé",
        -10.156505339957071
      ],
      [
        "eau",
        -10.15705002058961
      ],
      [
        "yu",
        -10.157818738025554
      ],
      [
        "▁préparer",
        -10.157829242752452
      ],
      [
        "▁gris",
        -10.159807113091194
      ],
      [
        "▁nég",
        -10.160227970794233
      ],
      [
        "lal",
        -10.161962777716672
      ],
      [
        "▁tiens",
        -10.163629749569974
      ],
      [
        "▁peut-",
        -10.164865226475827
      ],
      [
        "nit",
        -10.166371525529103
      ],
      [
        "son",
        -10.166986344685746
      ],
      [
        "▁joli",
        -10.167059877677598
      ],
      [
        "C",
        -10.168085551645746
      ],
      [
        "▁lance",
        -10.168112161803304
      ],
      [
        "▁cas",
        -10.16843821617174
      ],
      [
        "▁Mb",
        -10.168985292648141
      ],
      [
        "▁brave",
        -10.16992809955716
      ],
      [
        "▁individu",
        -10.170762218962626
      ],
      [
        "andoo",
        -10.171450367614312
      ],
      [
        "▁Mar",
        -10.173299205090533
      ],
      [
        "fi",
        -10.173744230251065
      ],
      [
        "▁Yóbbul",
        -10.174327046530706
      ],
      [
        "▁cordon",
        -10.174787068799173
      ],
      [
        "▁tàmm",
        -10.174794779600353
      ],
      [
        "▁Attache",
        -10.17662103546845
      ],
      [
        "de.",
        -10.177533279887776
      ],
      [
        "▁wàcc",
        -10.178084324942553
      ],
      [
        "▁policier",
        -10.180460101897243
      ],
      [
        "▁finir",
        -10.180664627825276
      ],
      [
        "▁retour",
        -10.180821973020654
      ],
      [
        "▁haute",
        -10.181196444337292
      ],
      [
        "▁sang",
        -10.181546385958306
      ],
      [
        "em",
        -10.183551623027789
      ],
      [
        "toi",
        -10.183959262626619
      ],
      [
        "▁fiir",
        -10.1858815514153
      ],
      [
        "▁Ak",
        -10.185988239252382
      ],
      [
        "▁tar",
        -10.188305142995846
      ],
      [
        "▁poulet",
        -10.190475082225037
      ],
      [
        "aurait",
        -10.1905341249513
      ],
      [
        "▁papier",
        -10.19272609924945
      ],
      [
        "es-tu",
        -10.193071579695584
      ],
      [
        "óo",
        -10.195611680298635
      ],
      [
        "laa",
        -10.195760524080878
      ],
      [
        "▁sell",
        -10.196887619226686
      ],
      [
        "ssent",
        -10.19753632550677
      ],
      [
        "▁Koo",
        -10.198667634573994
      ],
      [
        "▁malade",
        -10.198861998309907
      ],
      [
        "▁Waxa",
        -10.199559866180294
      ],
      [
        "ût",
        -10.200039785085336
      ],
      [
        "▁musulman",
        -10.205195000121595
      ],
      [
        "▁ramadan",
        -10.205195030936602
      ],
      [
        "▁docteur",
        -10.205195136063208
      ],
      [
        "▁Là-bas",
        -10.2051964408683
      ],
      [
        "▁délicieux",
        -10.2051966348412
      ],
      [
        "▁lessive",
        -10.205198303632368
      ],
      [
        "▁Mbubb",
        -10.20519844780194
      ],
      [
        "▁abandonné",
        -10.205198646960602
      ],
      [
        "▁propriétaire",
        -10.205199090576475
      ],
      [
        "▁charbon",
        -10.20520046559181
      ],
      [
        "▁d'abord",
        -10.205200657916091
      ],
      [
        "▁jeûne",
        -10.205201298335835
      ],
      [
        "▁forêt",
        -10.205207790146485
      ],
      [
        "▁njég",
        -10.205208774107772
      ],
      [
        "▁lu-tax",
        -10.20521079216708
      ],
      [
        "▁nouveau",
        -10.205221544774512
      ],
      [
        "▁beurre",
        -10.205223092904282
      ],
      [
        "▁manguier",
        -10.205223278397373
      ],
      [
        "▁nourrisson",
        -10.205229337931263
      ],
      [
        "▁présence",
        -10.205234607057388
      ],
      [
        "▁genoux",
        -10.205241003007478
      ],
      [
        "▁marchandise",
        -10.205288243379787
      ],
      [
        "▁noix",
        -10.205308098144187
      ],
      [
        "▁l'aumône",
        -10.205317838221223
      ],
      [
        "▁rëdd",
        -10.205319394880505
      ],
      [
        "▁honte",
        -10.205404481125393
      ],
      [
        "▁blessé",
        -10.205447980129037
      ],
      [
        "▁tabac",
        -10.205634217319009
      ],
      [
        "▁pouvoir",
        -10.205688541238889
      ],
      [
        "▁Gorée",
        -10.20569828130236
      ],
      [
        "▁Demain",
        -10.205704079295153
      ],
      [
        "▁xayma",
        -10.205852934590945
      ],
      [
        "▁sàq",
        -10.205911339636506
      ],
      [
        "▁Eux",
        -10.206044906145873
      ],
      [
        "u-nekk",
        -10.206194679597843
      ],
      [
        "▁tubay",
        -10.206211895910812
      ],
      [
        "▁piqué",
        -10.206226180026968
      ],
      [
        "▁matinée",
        -10.206245935876678
      ],
      [
        "▁courant",
        -10.206261425395525
      ],
      [
        "▁appris",
        -10.206275595582994
      ],
      [
        "▁camp",
        -10.20631102760063
      ],
      [
        "▁l'alcool",
        -10.206330626156351
      ],
      [
        "▁dërëm",
        -10.20645163027288
      ],
      [
        "▁doktoor",
        -10.206466056336584
      ],
      [
        "▁fanaan",
        -10.206574590423534
      ],
      [
        "▁voix",
        -10.20658599015691
      ],
      [
        "▁wépp",
        -10.206750999186267
      ],
      [
        "▁Laobé",
        -10.206779277843376
      ],
      [
        "▁pressé",
        -10.206975534622979
      ],
      [
        "▁reconnu",
        -10.20715687022794
      ],
      [
        "▁jinne",
        -10.207232706552517
      ],
      [
        "▁partout",
        -10.207685668937811
      ],
      [
        "▁grains",
        -10.207708051564705
      ],
      [
        "▁Néeg",
        -10.20790356483655
      ],
      [
        "▁Géj",
        -10.207954435800472
      ],
      [
        "▁Bëgguma",
        -10.208043658526703
      ],
      [
        "▁jaŋg",
        -10.208051876088087
      ],
      [
        "▁pourtant",
        -10.208094153123634
      ],
      [
        "▁séq",
        -10.208995840313788
      ],
      [
        "▁ŋgoon",
        -10.209281908317687
      ],
      [
        "▁Tugal",
        -10.2092924322513
      ],
      [
        "▁allon",
        -10.209496259551948
      ],
      [
        "spère",
        -10.21072604219101
      ],
      [
        "▁parlait",
        -10.21074661224928
      ],
      [
        "▁Foofa",
        -10.210950825443273
      ],
      [
        "▁fumée",
        -10.21131427917769
      ],
      [
        "▁déggoo",
        -10.211332650843904
      ],
      [
        "▁dessiné",
        -10.211948723514082
      ],
      [
        "▁pré",
        -10.212005949583176
      ],
      [
        "▁mana",
        -10.212007416463464
      ],
      [
        "▁xamoon",
        -10.212357804390214
      ],
      [
        "▁feneen",
        -10.213022759426313
      ],
      [
        "▁rencontrer",
        -10.213033142918693
      ],
      [
        "▁méchant",
        -10.21313925139877
      ],
      [
        "▁sommeil",
        -10.213783315022141
      ],
      [
        "▁taaru",
        -10.213975695880935
      ],
      [
        "▁Muu",
        -10.214566979121114
      ],
      [
        "▁Wut",
        -10.214603390185077
      ],
      [
        "yi",
        -10.215066166268446
      ],
      [
        "eras",
        -10.215644463406367
      ],
      [
        "seras",
        -10.216107113427313
      ],
      [
        "▁reew",
        -10.216356133208762
      ],
      [
        "▁faral",
        -10.216362680278227
      ],
      [
        "▁habite",
        -10.216522315692742
      ],
      [
        "▁neexee",
        -10.216531397084818
      ],
      [
        "▁soigner",
        -10.217352724295843
      ],
      [
        "▁wat",
        -10.217372301822303
      ],
      [
        "▁dessin",
        -10.217516823443031
      ],
      [
        "rie",
        -10.218285488284417
      ],
      [
        "▁kawar",
        -10.218360127299928
      ],
      [
        "▁détourn",
        -10.218376198199483
      ],
      [
        "▁kafe",
        -10.218480819066867
      ],
      [
        "▁pierres",
        -10.218818387204584
      ],
      [
        "qu",
        -10.219103003932332
      ],
      [
        "▁bekk",
        -10.219633710903809
      ],
      [
        "▁travaille",
        -10.21994019784568
      ],
      [
        "▁fenn",
        -10.220609526734961
      ],
      [
        "▁jeux",
        -10.221657245984751
      ],
      [
        "▁comprend",
        -10.221921974316478
      ],
      [
        "maa",
        -10.22237988731542
      ],
      [
        "▁hyène",
        -10.222432571377503
      ],
      [
        "▁amené",
        -10.223521582019416
      ],
      [
        "▁sog",
        -10.223705236397787
      ],
      [
        "▁salle",
        -10.224133033142916
      ],
      [
        "▁thé",
        -10.224434806565387
      ],
      [
        "ire.",
        -10.22466782702932
      ],
      [
        "▁ñówee",
        -10.224701187832592
      ],
      [
        "▁veau",
        -10.225540091115823
      ],
      [
        "▁Baay",
        -10.225600336357987
      ],
      [
        "▁sou",
        -10.226093212558528
      ],
      [
        "▁juste",
        -10.226576604121416
      ],
      [
        "on.",
        -10.226646109044719
      ],
      [
        "▁Parle",
        -10.228012464843047
      ],
      [
        "▁Lui",
        -10.22817448314008
      ],
      [
        "▁foule",
        -10.228250324158738
      ],
      [
        "▁bou",
        -10.228847667428756
      ],
      [
        "guloo",
        -10.229324587292375
      ],
      [
        "▁tuuru",
        -10.229348669527482
      ],
      [
        "▁contes",
        -10.229487503291715
      ],
      [
        "▁weesu",
        -10.229555916015375
      ],
      [
        "▁Bërë",
        -10.230085174005662
      ],
      [
        "▁faisan",
        -10.230120114756655
      ],
      [
        "▁devenu",
        -10.230364582266676
      ],
      [
        "▁gàdd",
        -10.2310072316909
      ],
      [
        "▁dég",
        -10.232492148382605
      ],
      [
        "▁d'arachides",
        -10.234435387053786
      ],
      [
        "▁mord",
        -10.234608963299772
      ],
      [
        "▁waaja",
        -10.236291417480853
      ],
      [
        "ans",
        -10.236436728324358
      ],
      [
        "▁Yóbbu",
        -10.237100579652486
      ],
      [
        "▁liir",
        -10.237738090757006
      ],
      [
        "▁bitik",
        -10.23854327459696
      ],
      [
        "▁cercle",
        -10.239060809465435
      ],
      [
        "▁defare",
        -10.239681493181457
      ],
      [
        "qu'il",
        -10.23983101687825
      ],
      [
        "▁ans",
        -10.240173548692573
      ],
      [
        "▁dër",
        -10.24095747173272
      ],
      [
        "▁guró",
        -10.241785876613484
      ],
      [
        "▁solo",
        -10.242181589437836
      ],
      [
        "▁Woo",
        -10.242436791339756
      ],
      [
        "▁verse",
        -10.242497992851657
      ],
      [
        "▁ëllëg",
        -10.242632669545833
      ],
      [
        "ter",
        -10.242891426397268
      ],
      [
        "▁teey",
        -10.242975219412301
      ],
      [
        "▁feras",
        -10.243237112090187
      ],
      [
        "▁indil",
        -10.243512579774753
      ],
      [
        "ur.",
        -10.244849180947957
      ],
      [
        "▁dix",
        -10.245709895715574
      ],
      [
        "dul",
        -10.245939282919693
      ],
      [
        "issant",
        -10.246078360812081
      ],
      [
        "▁tasse",
        -10.250223953209662
      ],
      [
        "▁viennes",
        -10.250720940264495
      ],
      [
        "▁më",
        -10.251252007897506
      ],
      [
        "▁ailleurs",
        -10.251555159410849
      ],
      [
        "▁allez",
        -10.253379621996693
      ],
      [
        "▁vide",
        -10.253817160700958
      ],
      [
        "▁boot",
        -10.25463035375947
      ],
      [
        "▁wees",
        -10.254942376149927
      ],
      [
        "▁duré",
        -10.255710675562518
      ],
      [
        "▁iras",
        -10.257772253459738
      ],
      [
        "▁pan",
        -10.260109890636045
      ],
      [
        "ali",
        -10.261091912251313
      ],
      [
        "▁bain",
        -10.262336340755763
      ],
      [
        "▁face",
        -10.262591108539329
      ],
      [
        "▁mënee",
        -10.262740607038653
      ],
      [
        "▁chance",
        -10.262834873639429
      ],
      [
        "▁Donne-m",
        -10.264252505868058
      ],
      [
        "▁raw",
        -10.264261047420199
      ],
      [
        "▁sert",
        -10.264930163372899
      ],
      [
        "aŋ",
        -10.267441480808898
      ],
      [
        "▁wala",
        -10.267750464488685
      ],
      [
        "▁paroles",
        -10.267912974541094
      ],
      [
        "rendre",
        -10.268492513349418
      ],
      [
        "tax",
        -10.270383901840129
      ],
      [
        "nte",
        -10.27098701117046
      ],
      [
        "seront",
        -10.272537317724401
      ],
      [
        "▁tubaab",
        -10.272643936179412
      ],
      [
        "tant",
        -10.272795861423567
      ],
      [
        "ar.",
        -10.27304424059609
      ],
      [
        "▁tàll",
        -10.2730882297823
      ],
      [
        "▁mode",
        -10.273145730861817
      ],
      [
        "▁difficile",
        -10.274127204505382
      ],
      [
        "▁celle",
        -10.27471995493781
      ],
      [
        "▁jë",
        -10.274838780898751
      ],
      [
        "▁deme",
        -10.275875277960107
      ],
      [
        "ez-",
        -10.276563896704634
      ],
      [
        "▁wee",
        -10.278482794232854
      ],
      [
        "▁Wo",
        -10.280594696524547
      ],
      [
        "lle",
        -10.280685041399275
      ],
      [
        "▁cuillère",
        -10.2813729079847
      ],
      [
        "▁griot",
        -10.284055828096589
      ],
      [
        "▁con",
        -10.284926527561993
      ],
      [
        "▁riir",
        -10.285683818211723
      ],
      [
        "waan",
        -10.285939741420465
      ],
      [
        "ées",
        -10.286063647073716
      ],
      [
        "▁mënu",
        -10.286754647460862
      ],
      [
        "▁foi",
        -10.28711805467911
      ],
      [
        "▁meññ",
        -10.287234316704561
      ],
      [
        "▁be",
        -10.288826091847149
      ],
      [
        "▁noirs",
        -10.290487265072047
      ],
      [
        "▁domaine",
        -10.290670419008942
      ],
      [
        "julli",
        -10.290995145970427
      ],
      [
        "im",
        -10.291213575375034
      ],
      [
        "▁condition",
        -10.291721976167734
      ],
      [
        "▁jàngal",
        -10.293185844858318
      ],
      [
        "▁nemm",
        -10.29328359421705
      ],
      [
        "▁tekki",
        -10.29442082105168
      ],
      [
        "aate",
        -10.29453972359257
      ],
      [
        "▁suur",
        -10.296088433700811
      ],
      [
        "▁Me",
        -10.297508105592918
      ],
      [
        "▁mbe",
        -10.298794480076314
      ],
      [
        "▁pén",
        -10.29901351747476
      ],
      [
        "clin",
        -10.299265724543538
      ],
      [
        "▁n'étai",
        -10.299284560510069
      ],
      [
        "cation",
        -10.300361988089255
      ],
      [
        "▁tëral",
        -10.300884413266015
      ],
      [
        "▁réunis",
        -10.302196915950985
      ],
      [
        "▁yeb",
        -10.30356559164236
      ],
      [
        "▁nouvelle",
        -10.305803701182313
      ],
      [
        "▁descend",
        -10.30685501989687
      ],
      [
        "ement.",
        -10.307000193236302
      ],
      [
        "▁léeb",
        -10.307270356701757
      ],
      [
        "▁aveugle",
        -10.308050255611843
      ],
      [
        "▁pardonne",
        -10.308200674760576
      ],
      [
        "oy",
        -10.308545929246964
      ],
      [
        "▁këpp",
        -10.31102929265625
      ],
      [
        "atu",
        -10.314949925597613
      ],
      [
        "▁filet",
        -10.315241765452502
      ],
      [
        "sant",
        -10.31528108042778
      ],
      [
        "▁nëbb",
        -10.31638330335022
      ],
      [
        "▁soigne",
        -10.316786634727128
      ],
      [
        "▁Jàng",
        -10.317236607567839
      ],
      [
        "▁Mets-l",
        -10.317483926724229
      ],
      [
        "lé",
        -10.318280565210351
      ],
      [
        "ance",
        -10.319138984447015
      ],
      [
        "▁sabar",
        -10.31949716796056
      ],
      [
        "ient",
        -10.321390996833681
      ],
      [
        "▁laxas",
        -10.32303261362176
      ],
      [
        "▁ber",
        -10.323360089580104
      ],
      [
        "▁xal",
        -10.324359800646603
      ],
      [
        "▁Attend",
        -10.324724603906915
      ],
      [
        "gul",
        -10.324790963542288
      ],
      [
        "▁protège",
        -10.325885242456854
      ],
      [
        "▁teew",
        -10.325982350163555
      ],
      [
        "▁coy",
        -10.327909281616254
      ],
      [
        "▁reer",
        -10.328121937042933
      ],
      [
        "▁revienne",
        -10.328207921028852
      ],
      [
        "góor",
        -10.328735012560156
      ],
      [
        "▁sóob",
        -10.330053508268644
      ],
      [
        "▁cérémonie",
        -10.330194973538127
      ],
      [
        "▁Soudain",
        -10.330194992181077
      ],
      [
        "▁poitrine",
        -10.33019500018379
      ],
      [
        "▁marigot",
        -10.330195472140211
      ],
      [
        "▁reçoi",
        -10.330195730547645
      ],
      [
        "▁djinn",
        -10.330196578802227
      ],
      [
        "▁travaux",
        -10.33019977499507
      ],
      [
        "▁marabout",
        -10.33020039850245
      ],
      [
        "▁tubéy",
        -10.330201514251618
      ],
      [
        "▁fagot",
        -10.330204804993457
      ],
      [
        "▁conversation",
        -10.330213629500095
      ],
      [
        "▁palanteer",
        -10.33021912370397
      ],
      [
        "▁vaisselle",
        -10.33021997955295
      ],
      [
        "▁compris",
        -10.330223974747236
      ],
      [
        "▁pièce",
        -10.330225874850223
      ],
      [
        "▁l'heure",
        -10.330233479802507
      ],
      [
        "▁tàccu",
        -10.330240749702027
      ],
      [
        "▁magasin",
        -10.330245175485304
      ],
      [
        "▁Prête",
        -10.330265301951897
      ],
      [
        "▁troupeau",
        -10.33028047627327
      ],
      [
        "▁radio",
        -10.330299019245942
      ],
      [
        "▁l'écart",
        -10.330315047977818
      ],
      [
        "▁tâche",
        -10.33032759059155
      ],
      [
        "▁région",
        -10.330343630394387
      ],
      [
        "▁d'esprit",
        -10.330348400755224
      ],
      [
        "▁gueule",
        -10.330352715994005
      ],
      [
        "▁l'instant",
        -10.330370436501767
      ],
      [
        "▁njëg",
        -10.330378447935878
      ],
      [
        "▁ancêtres",
        -10.330388488254401
      ],
      [
        "▁Vas-y",
        -10.33042653442489
      ],
      [
        "▁creux",
        -10.330452741462139
      ],
      [
        "▁mortier",
        -10.330458156806438
      ],
      [
        "▁Ramasse",
        -10.330479619982063
      ],
      [
        "▁clef",
        -10.33056928058953
      ],
      [
        "▁Wàcc",
        -10.330581432106472
      ],
      [
        "▁cuuj",
        -10.330584063710516
      ],
      [
        "▁lui-même",
        -10.33060870557355
      ],
      [
        "▁ngénte",
        -10.330622949092696
      ],
      [
        "▁ñeme",
        -10.330799677893374
      ],
      [
        "▁Xaar",
        -10.330811143114651
      ],
      [
        "▁qu'Omar",
        -10.330826556915667
      ],
      [
        "▁paternelle",
        -10.330840789070194
      ],
      [
        "▁ndànk",
        -10.330876397731679
      ],
      [
        "▁publique",
        -10.33089943733577
      ],
      [
        "▁Jabar",
        -10.330905241076398
      ],
      [
        "▁làmp",
        -10.330912629449399
      ],
      [
        "▁Montre-",
        -10.331099762261198
      ],
      [
        "▁bientôt",
        -10.33110583604919
      ],
      [
        "▁supporter",
        -10.331145708792898
      ],
      [
        "▁meetar",
        -10.331152834235906
      ],
      [
        "▁sauf",
        -10.331430157614445
      ],
      [
        "▁sàngara",
        -10.331527821806429
      ],
      [
        "▁L'enfant",
        -10.331661034562233
      ],
      [
        "▁dépouille",
        -10.331791299396615
      ],
      [
        "▁xef",
        -10.332033896765713
      ],
      [
        "▁fépp",
        -10.332211787700068
      ],
      [
        "Il",
        -10.332314536633003
      ],
      [
        "▁ñii",
        -10.332332012497359
      ],
      [
        "▁fourmi",
        -10.332367537314582
      ],
      [
        "▁yëf",
        -10.332406207822288
      ],
      [
        "▁Lave",
        -10.332606506204966
      ],
      [
        "▁coow",
        -10.33265966979617
      ],
      [
        "▁l'oreille",
        -10.332842683657102
      ],
      [
        "▁mbaxana",
        -10.332944470910036
      ],
      [
        "war",
        -10.333022536853834
      ],
      [
        "▁Nettoie",
        -10.333133191880446
      ],
      [
        "▁samp",
        -10.33332658313298
      ],
      [
        "▁rencontre",
        -10.33349937866243
      ],
      [
        "▁frais",
        -10.33352712219123
      ],
      [
        "▁certain",
        -10.333576267181739
      ],
      [
        "▁H",
        -10.33366066501157
      ],
      [
        "▁soldats",
        -10.333864874575298
      ],
      [
        "▁paquet",
        -10.334113382296513
      ],
      [
        "▁surtout",
        -10.33420023589618
      ],
      [
        "▁coudre",
        -10.334253768237856
      ],
      [
        "▁blesser",
        -10.33437184784886
      ],
      [
        "▁oiseau",
        -10.334796290451429
      ],
      [
        "▁ressemblent",
        -10.33480677188275
      ],
      [
        "▁goutte",
        -10.334968650795773
      ],
      [
        "▁fasu",
        -10.334995706758775
      ],
      [
        "▁canne",
        -10.335060582580713
      ],
      [
        "▁grossesse",
        -10.335146486055129
      ],
      [
        "àgg",
        -10.335202846754935
      ],
      [
        "▁nde",
        -10.335505857848927
      ],
      [
        "▁làkk",
        -10.335627421001032
      ],
      [
        "▁voitures",
        -10.335734940404274
      ],
      [
        "▁pleut",
        -10.335809902581218
      ],
      [
        "ki",
        -10.336277792272082
      ],
      [
        "▁nombreuses",
        -10.336883592532459
      ],
      [
        "▁Golo",
        -10.336905680408103
      ],
      [
        "▁tàngal",
        -10.338094598464401
      ],
      [
        "▁nettali",
        -10.338290237727325
      ],
      [
        "▁Co",
        -10.338568600024908
      ],
      [
        "▁rëbb",
        -10.338783147743232
      ],
      [
        "▁goro",
        -10.339938586720866
      ],
      [
        "▁crâne",
        -10.340581401924743
      ],
      [
        "▁dugal",
        -10.340793535587721
      ],
      [
        "▁e",
        -10.34132130691112
      ],
      [
        "▁Marie",
        -10.341408775225688
      ],
      [
        "éwël",
        -10.341563628756132
      ],
      [
        "▁dex",
        -10.341565419415767
      ],
      [
        "▁époque",
        -10.341786892430685
      ],
      [
        "ière",
        -10.34179425070694
      ],
      [
        "▁abattu",
        -10.342114997913047
      ],
      [
        "▁graisse",
        -10.342589701899103
      ],
      [
        "▁bënn",
        -10.34439671588665
      ],
      [
        "▁Kookule",
        -10.344482920066026
      ],
      [
        "ces",
        -10.344873315891025
      ],
      [
        "ge",
        -10.34488217239981
      ],
      [
        "▁intimes",
        -10.344973742711886
      ],
      [
        "ça",
        -10.345695520282783
      ],
      [
        "wuma",
        -10.345712451822573
      ],
      [
        "▁pose",
        -10.345745551698633
      ],
      [
        "-bët",
        -10.346203964559608
      ],
      [
        "▁oeufs",
        -10.346260551112767
      ],
      [
        "▁lutteurs",
        -10.346442720639
      ],
      [
        "eelu",
        -10.346529448959439
      ],
      [
        "▁souffle",
        -10.346567030241951
      ],
      [
        "▁instant",
        -10.34661911358526
      ],
      [
        "▁tomba",
        -10.347566085896853
      ],
      [
        "▁kanamam",
        -10.347830737285133
      ],
      [
        "▁levé",
        -10.348130323939701
      ],
      [
        "▁bëggée",
        -10.348203951927136
      ],
      [
        "▁nuyu",
        -10.349706948756037
      ],
      [
        "▁cor",
        -10.349951167613687
      ],
      [
        "-gaa",
        -10.350303010111759
      ],
      [
        "▁chèvres",
        -10.350376958872214
      ],
      [
        "▁ñag",
        -10.35046388608771
      ],
      [
        "▁refuse",
        -10.351248410661228
      ],
      [
        "▁tukki",
        -10.351615741734474
      ],
      [
        "▁suite",
        -10.351994717361254
      ],
      [
        "▁kaa",
        -10.352152855380863
      ],
      [
        "▁pleine",
        -10.352338246491556
      ],
      [
        "▁cultive",
        -10.35262269822739
      ],
      [
        "▁fatt",
        -10.353263780997521
      ],
      [
        "▁jaambur",
        -10.353333157911276
      ],
      [
        "▁gale",
        -10.3533698374567
      ],
      [
        "▁regardes",
        -10.353631737092787
      ],
      [
        "▁grosses",
        -10.354063770765253
      ],
      [
        "vement",
        -10.354256817003986
      ],
      [
        "▁rentré",
        -10.354283640880901
      ],
      [
        "ton",
        -10.354421872803194
      ],
      [
        "▁Ami",
        -10.35589115233846
      ],
      [
        "▁conduit",
        -10.356550339582599
      ],
      [
        "▁dirai",
        -10.356816309359576
      ],
      [
        "▁jàppe",
        -10.357310399122698
      ],
      [
        "▁Taw",
        -10.357762121174098
      ],
      [
        "▁veille",
        -10.358298621167911
      ],
      [
        "▁Takk",
        -10.358828509348504
      ],
      [
        "▁frappe",
        -10.358846592744648
      ],
      [
        "▁falu",
        -10.359257092344555
      ],
      [
        "▁vus",
        -10.360023794881435
      ],
      [
        "▁yër",
        -10.360155162999552
      ],
      [
        "▁U",
        -10.360683410718146
      ],
      [
        "▁gejje",
        -10.361461721583868
      ],
      [
        "▁jiit",
        -10.362369429422117
      ],
      [
        "lli",
        -10.362524003818336
      ],
      [
        "▁bande",
        -10.36359390919297
      ],
      [
        "▁ñàkka",
        -10.364664199716248
      ],
      [
        "▁aucune",
        -10.364707110674928
      ],
      [
        "andiku",
        -10.364753280684962
      ],
      [
        "▁Mba",
        -10.367266765062583
      ],
      [
        "ne.",
        -10.367528899833435
      ],
      [
        "▁unique",
        -10.368200290233037
      ],
      [
        "▁tànn",
        -10.368630652322567
      ],
      [
        "v",
        -10.368721721597826
      ],
      [
        "▁saal",
        -10.369498996526744
      ],
      [
        "occasion",
        -10.370573890064014
      ],
      [
        "▁tekk",
        -10.370682377423567
      ],
      [
        "▁pouvai",
        -10.370757896507996
      ],
      [
        "▁tama",
        -10.371833349742307
      ],
      [
        "▁tase",
        -10.371884542137135
      ],
      [
        "▁fume",
        -10.372014138181475
      ],
      [
        "ion",
        -10.372850791014537
      ],
      [
        "'est-ce",
        -10.37352324257159
      ],
      [
        "▁course",
        -10.374205662573566
      ],
      [
        "▁lenn",
        -10.374657290795328
      ],
      [
        "▁Wu",
        -10.375121210553221
      ],
      [
        "individu",
        -10.375145918193036
      ],
      [
        "▁tàgg",
        -10.377433606575945
      ],
      [
        "▁màgga",
        -10.377812909612409
      ],
      [
        "os",
        -10.377882961938647
      ],
      [
        "▁griots",
        -10.378580317734185
      ],
      [
        "agul",
        -10.38083134543996
      ],
      [
        "▁nj",
        -10.381891166067943
      ],
      [
        "▁jus",
        -10.383563817044319
      ],
      [
        "▁Bar",
        -10.383720951224143
      ],
      [
        "▁suma",
        -10.383855984170303
      ],
      [
        "mment",
        -10.383966929195505
      ],
      [
        "▁L'e",
        -10.388654510848566
      ],
      [
        "▁wex",
        -10.388759109222994
      ],
      [
        "▁ŋ",
        -10.389765077947258
      ],
      [
        "▁Mer",
        -10.39022409755759
      ],
      [
        "'arbre",
        -10.390978634752189
      ],
      [
        "▁ciel",
        -10.392298236822338
      ],
      [
        "▁joo",
        -10.393964628880955
      ],
      [
        "▁vue",
        -10.394682352622699
      ],
      [
        "▁accroché",
        -10.39531249086865
      ],
      [
        "▁fui",
        -10.395672901683726
      ],
      [
        "ulli",
        -10.395746618172897
      ],
      [
        "▁déeg",
        -10.397367863695875
      ],
      [
        "▁vert",
        -10.397506492284196
      ],
      [
        "▁Ngela",
        -10.399430242943737
      ],
      [
        "▁Sé",
        -10.40019697008647
      ],
      [
        "▁baag",
        -10.401097435618949
      ],
      [
        "▁port",
        -10.405077390857143
      ],
      [
        "tout",
        -10.405997078433394
      ],
      [
        "▁drap",
        -10.40641422426562
      ],
      [
        "▁sain",
        -10.406479194577809
      ],
      [
        "▁bé",
        -10.406504046015442
      ],
      [
        "too",
        -10.407991189859658
      ],
      [
        "▁partage",
        -10.408275213608727
      ],
      [
        "▁sokolaa",
        -10.408316225844196
      ],
      [
        "▁Éta",
        -10.408751469984978
      ],
      [
        "▁lutter",
        -10.40911152660331
      ],
      [
        "▁étalé",
        -10.410358541748638
      ],
      [
        "▁Yàllaa",
        -10.410418998764191
      ],
      [
        "▁recouvr",
        -10.410758954878741
      ],
      [
        "▁projet",
        -10.410783307582635
      ],
      [
        "▁dëkku",
        -10.4122353690206
      ],
      [
        "▁forme",
        -10.412735884987734
      ],
      [
        "▁voie",
        -10.412760148122466
      ],
      [
        "▁Mo",
        -10.413927941271774
      ],
      [
        "▁traîne",
        -10.414288284433438
      ],
      [
        "▁ras",
        -10.414437877470247
      ],
      [
        "▁bes",
        -10.415850874877648
      ],
      [
        "▁yaru",
        -10.416496733375578
      ],
      [
        "▁xare",
        -10.416997328371927
      ],
      [
        "▁cin",
        -10.417164685185568
      ],
      [
        "▁bel",
        -10.417214908899652
      ],
      [
        "▁moto",
        -10.41773281394623
      ],
      [
        "aatu",
        -10.418872044785104
      ],
      [
        "▁mës",
        -10.419064771278803
      ],
      [
        "▁achète",
        -10.419554477975984
      ],
      [
        "'y",
        -10.420639270070716
      ],
      [
        "▁mûr",
        -10.420979841505801
      ],
      [
        "▁lax",
        -10.421185573979676
      ],
      [
        "▁talismans",
        -10.422082036630908
      ],
      [
        "▁daj",
        -10.422154082607289
      ],
      [
        "▁sec",
        -10.422509497660236
      ],
      [
        "▁dootu",
        -10.42278802668847
      ],
      [
        "▁retrouver",
        -10.42388796754024
      ],
      [
        "▁Saa",
        -10.42529773555383
      ],
      [
        "▁cherché",
        -10.425328515132747
      ],
      [
        "▁noor",
        -10.427435125529595
      ],
      [
        "▁ñent",
        -10.428197675495047
      ],
      [
        "ère.",
        -10.428283968077178
      ],
      [
        "▁aay",
        -10.428727843630313
      ],
      [
        "père",
        -10.431203221262765
      ],
      [
        "▁mbo",
        -10.432391348803634
      ],
      [
        "▁cultiv",
        -10.433455402863206
      ],
      [
        "koo",
        -10.434099732204347
      ],
      [
        "▁mbal",
        -10.435779730346143
      ],
      [
        "ends-moi",
        -10.438635816008436
      ],
      [
        "▁Té",
        -10.439454899212048
      ],
      [
        "▁poche",
        -10.44038897799023
      ],
      [
        "▁dunde",
        -10.441098363099778
      ],
      [
        "tul",
        -10.441371079999328
      ],
      [
        "▁solide",
        -10.44466410562383
      ],
      [
        "éel",
        -10.44479406690906
      ],
      [
        "▁connaît",
        -10.446438344231634
      ],
      [
        "▁mbaal",
        -10.447562248906916
      ],
      [
        "▁ño",
        -10.448142986479919
      ],
      [
        "▁pay",
        -10.448475373439061
      ],
      [
        "▁oui",
        -10.45114232351493
      ],
      [
        "▁condui",
        -10.451699677190215
      ],
      [
        "▁jubal",
        -10.452121039519538
      ],
      [
        "ller",
        -10.452214923980097
      ],
      [
        "vant",
        -10.452858562553992
      ],
      [
        "envie",
        -10.453164247900215
      ],
      [
        "▁Ber",
        -10.455119141418436
      ],
      [
        "ë",
        -10.455198329813461
      ],
      [
        "▁pou",
        -10.455366937735057
      ],
      [
        "▁lutteur",
        -10.457067239388682
      ],
      [
        "▁ro",
        -10.457816428937983
      ],
      [
        "▁wan",
        -10.458806904323277
      ],
      [
        "nge",
        -10.459569952894558
      ],
      [
        "▁cure",
        -10.461298118472678
      ],
      [
        "tante",
        -10.461344499495565
      ],
      [
        "▁bula",
        -10.461484268279728
      ],
      [
        "▁rends",
        -10.462273274055566
      ],
      [
        "▁oreille",
        -10.46503385124523
      ],
      [
        "lante",
        -10.466208189722337
      ],
      [
        "▁coule",
        -10.466313152847032
      ],
      [
        "is-lui",
        -10.467406791382762
      ],
      [
        "▁yalwaan",
        -10.467425793821937
      ],
      [
        "▁serais",
        -10.468078317707969
      ],
      [
        "eux-tu",
        -10.468192407387022
      ],
      [
        "▁fen",
        -10.468220181888004
      ],
      [
        "▁wuy",
        -10.468635860384458
      ],
      [
        "▁waaj",
        -10.46884821459653
      ],
      [
        "▁van",
        -10.470777134369005
      ],
      [
        "ille.",
        -10.470809429803428
      ],
      [
        "▁profit",
        -10.471055251824007
      ],
      [
        "▁forox",
        -10.471415952976079
      ],
      [
        "▁ñen",
        -10.471445221317348
      ],
      [
        "▁prête",
        -10.473015751285836
      ],
      [
        "▁excréments",
        -10.47305212130959
      ],
      [
        "▁céréales",
        -10.47305216137941
      ],
      [
        "▁jachère",
        -10.47305280136739
      ],
      [
        "▁dimanche",
        -10.47305290222582
      ],
      [
        "▁foulard",
        -10.473053169612605
      ],
      [
        "▁pèlerin",
        -10.473053306429312
      ],
      [
        "▁épaules",
        -10.473053539057602
      ],
      [
        "▁Deŋk",
        -10.473054111435491
      ],
      [
        "▁crème",
        -10.473054262966915
      ],
      [
        "▁waa-jur",
        -10.47305494510805
      ],
      [
        "▁Japon",
        -10.473055007111043
      ],
      [
        "▁construction",
        -10.473055119686265
      ],
      [
        "▁ablutions",
        -10.473055341511014
      ],
      [
        "▁cimetière",
        -10.473056470092688
      ],
      [
        "▁ensuite",
        -10.473056684032004
      ],
      [
        "▁yeksi",
        -10.473056942487743
      ],
      [
        "▁Sapoŋ",
        -10.473058543957588
      ],
      [
        "▁Ainsi",
        -10.473058837615648
      ],
      [
        "▁Kaasamaas",
        -10.473060067355572
      ],
      [
        "▁trahi",
        -10.473064788487767
      ],
      [
        "▁Cayor",
        -10.473077260917522
      ],
      [
        "▁atteint",
        -10.473079010780905
      ],
      [
        "▁Jëkkër",
        -10.473080538246872
      ],
      [
        "▁Alxuraan",
        -10.473085852054183
      ],
      [
        "▁Palais",
        -10.47308886661416
      ],
      [
        "▁poussière",
        -10.473092863308208
      ],
      [
        "▁crédit",
        -10.473095313307537
      ],
      [
        "▁lislaam",
        -10.473095569413715
      ],
      [
        "▁sauvage",
        -10.473103556554465
      ],
      [
        "▁Suukar",
        -10.473107793269007
      ],
      [
        "▁réussi",
        -10.473114644169856
      ],
      [
        "▁plaisir",
        -10.473119352218841
      ],
      [
        "▁grand-mère",
        -10.473122707714856
      ],
      [
        "▁l'abri",
        -10.47312835708855
      ],
      [
        "▁piquant",
        -10.473132355906412
      ],
      [
        "▁bougie",
        -10.473137425067586
      ],
      [
        "▁Réew",
        -10.473170782731138
      ],
      [
        "▁jumeaux",
        -10.47318601607433
      ],
      [
        "▁poussin",
        -10.47318953977895
      ],
      [
        "▁ndeyjoor",
        -10.473198453867358
      ],
      [
        "▁jëfandikoo",
        -10.473212204664279
      ],
      [
        "▁diir",
        -10.473219418067343
      ],
      [
        "▁Raxas",
        -10.473225903306709
      ],
      [
        "▁daqaar",
        -10.473238525939921
      ],
      [
        "▁xottiku",
        -10.473245183102176
      ],
      [
        "▁l'argile",
        -10.473284893831243
      ],
      [
        "▁lentement",
        -10.473292794365356
      ],
      [
        "▁tàyyi",
        -10.473303924601618
      ],
      [
        "▁tilim",
        -10.473335945225857
      ],
      [
        "▁lièvre",
        -10.473349850996659
      ],
      [
        "▁jaaxal",
        -10.473358770329384
      ],
      [
        "▁l'après-midi",
        -10.47336989962791
      ],
      [
        "▁lëndëm",
        -10.47337530339526
      ],
      [
        "▁létt",
        -10.47337777547601
      ],
      [
        "▁Tiens",
        -10.473398214823764
      ],
      [
        "▁menace",
        -10.473409358592615
      ],
      [
        "▁xàmmee",
        -10.473418183387968
      ],
      [
        "ine",
        -10.473502331061894
      ],
      [
        "▁téeméer",
        -10.4735182142033
      ],
      [
        "▁wàcce",
        -10.473568711616318
      ],
      [
        "▁l'âge",
        -10.473580996821244
      ],
      [
        "▁pauvre",
        -10.473586888158502
      ],
      [
        "▁poing",
        -10.473610575397366
      ],
      [
        "▁voulais",
        -10.473694530145305
      ],
      [
        "▁oublié",
        -10.473731254388435
      ],
      [
        "▁tenait",
        -10.473756101021298
      ],
      [
        "▁jinax",
        -10.473765804655729
      ],
      [
        "▁Ubbi",
        -10.473790298400917
      ],
      [
        "▁Dencal",
        -10.473892045714303
      ],
      [
        "▁travailleurs",
        -10.473919679895001
      ],
      [
        "▁Tànk",
        -10.473998182380399
      ],
      [
        "▁Nj",
        -10.474028594866759
      ],
      [
        "▁libre",
        -10.474045398168421
      ],
      [
        "▁jàdd",
        -10.474103718468722
      ],
      [
        "▁l'affaire",
        -10.474150245568898
      ],
      [
        "▁fourchu",
        -10.474233475414904
      ],
      [
        "▁dirigeant",
        -10.474242313436825
      ],
      [
        "▁voyant",
        -10.474262843492525
      ],
      [
        "▁jublu",
        -10.474438841843664
      ],
      [
        "▁mbëtt",
        -10.474466655412659
      ],
      [
        "▁téj",
        -10.474490536177663
      ],
      [
        "▁créé",
        -10.474611485759684
      ],
      [
        "▁creusé",
        -10.474658619196171
      ],
      [
        "▁njël",
        -10.474671069352015
      ],
      [
        "avec",
        -10.47511183985823
      ],
      [
        "▁lettre",
        -10.475219765352051
      ],
      [
        "▁foq",
        -10.475341065918611
      ],
      [
        "▁Këram",
        -10.475375028150586
      ],
      [
        "▁sëriñ",
        -10.475422170409768
      ],
      [
        "▁waxaale",
        -10.47554784436118
      ],
      [
        "▁brûlé",
        -10.475684405605618
      ],
      [
        "▁alkaati",
        -10.475685834639002
      ],
      [
        "tiennent",
        -10.475819221179279
      ],
      [
        "▁lëf",
        -10.475995928790654
      ],
      [
        "▁recherche",
        -10.476000684522157
      ],
      [
        "▁serré",
        -10.47607813039086
      ],
      [
        "▁romb",
        -10.476105792432062
      ],
      [
        "▁cim",
        -10.476166509984425
      ],
      [
        "▁gumba",
        -10.476187084679125
      ],
      [
        "▁Pa",
        -10.476204311471971
      ],
      [
        "▁nuy",
        -10.476243216554725
      ],
      [
        "▁ayib",
        -10.476435952710474
      ],
      [
        "▁Gore",
        -10.47649604929836
      ],
      [
        "▁respect",
        -10.47663148656368
      ],
      [
        "▁kë",
        -10.476736716886482
      ],
      [
        "ëpp",
        -10.477219813385677
      ],
      [
        "▁chargé",
        -10.477264616110798
      ],
      [
        "▁cacher",
        -10.477310248735025
      ],
      [
        "▁fudd",
        -10.477327963640318
      ],
      [
        "▁gardé",
        -10.477330200434633
      ],
      [
        "àŋŋ",
        -10.477418892474432
      ],
      [
        "▁ru",
        -10.477461775518794
      ],
      [
        "▁nàmpal",
        -10.477758633317574
      ],
      [
        "▁xiif",
        -10.477796973881155
      ],
      [
        "▁collé",
        -10.477866760824332
      ],
      [
        "▁futt",
        -10.477912972165306
      ],
      [
        "▁sagar",
        -10.477958262362527
      ],
      [
        "▁tày",
        -10.47807346295855
      ],
      [
        "▁Foofu",
        -10.478292682234635
      ],
      [
        "▁vis",
        -10.478359844879833
      ],
      [
        "▁montar",
        -10.478563562269574
      ],
      [
        "▁maman",
        -10.478760855703854
      ],
      [
        "▁xeeñ",
        -10.478764302180018
      ],
      [
        "▁coton",
        -10.478903052746489
      ],
      [
        "ñeen",
        -10.479087243451582
      ],
      [
        "▁wéy",
        -10.479130969597582
      ],
      [
        "▁saxaar",
        -10.479177056937743
      ],
      [
        "▁tresser",
        -10.4791832402106
      ],
      [
        "▁xalam",
        -10.479317920453916
      ],
      [
        "▁jàkka",
        -10.479673222656142
      ],
      [
        "▁dépend",
        -10.479875570649776
      ],
      [
        "▁Mbaam",
        -10.479991550663957
      ],
      [
        "▁amour",
        -10.48021657038426
      ],
      [
        "▁rus",
        -10.480922858090555
      ],
      [
        "▁voleur",
        -10.480961062301986
      ],
      [
        "àjj",
        -10.480989587835122
      ],
      [
        "▁saay",
        -10.480999788329525
      ],
      [
        "▁kaani",
        -10.481105456802652
      ],
      [
        "▁Takkal",
        -10.48117357045198
      ],
      [
        "▁jabaram",
        -10.481193229157205
      ],
      [
        "▁annonce",
        -10.481272241969082
      ],
      [
        "▁apporter",
        -10.481563932134302
      ],
      [
        "▁Paak",
        -10.48223076746025
      ],
      [
        "▁Xii",
        -10.482291627413154
      ],
      [
        "▁défait",
        -10.482447377738776
      ],
      [
        "▁cours",
        -10.482497110773263
      ],
      [
        "▁Yoon",
        -10.482601983517526
      ],
      [
        "▁noces",
        -10.483249682789092
      ],
      [
        "▁guéri",
        -10.483631032440798
      ],
      [
        "▁saaga",
        -10.483699542546274
      ],
      [
        "▁taq",
        -10.483895709761164
      ],
      [
        "▁doyul",
        -10.483964330942769
      ],
      [
        "▁demuloo",
        -10.484028267079042
      ],
      [
        "▁digne",
        -10.484256177557464
      ],
      [
        "z-",
        -10.484299300066482
      ],
      [
        "▁descendre",
        -10.48435889393042
      ],
      [
        "▁kàddu",
        -10.484802026030673
      ],
      [
        "▁gifle",
        -10.485398906697451
      ],
      [
        "▁durer",
        -10.48540681804294
      ],
      [
        "▁voisins",
        -10.486354045466364
      ],
      [
        "ression",
        -10.487383393125768
      ],
      [
        "▁mouches",
        -10.487717073568847
      ],
      [
        "▁clôture",
        -10.489490892025213
      ],
      [
        "▁Tire",
        -10.490030026479005
      ],
      [
        "▁darab",
        -10.490062020305624
      ],
      [
        "▁ñooñu",
        -10.490248621282843
      ],
      [
        "ca",
        -10.490290315358038
      ],
      [
        "▁retraite",
        -10.490538548401739
      ],
      [
        "▁mënuloo",
        -10.490836651801043
      ],
      [
        "▁trempé",
        -10.491954205663005
      ],
      [
        "▁niveau",
        -10.492144071356536
      ],
      [
        "▁teggi",
        -10.49354670778882
      ],
      [
        "▁fatigue",
        -10.493644435012063
      ],
      [
        "▁Ban",
        -10.493688240089849
      ],
      [
        "▁dey",
        -10.493731502896932
      ],
      [
        "▁santé",
        -10.494148786683983
      ],
      [
        "▁s'agi",
        -10.494274429212311
      ],
      [
        "▁élu",
        -10.494474836958023
      ],
      [
        "▁forgeron",
        -10.494490633069375
      ],
      [
        "▁bett",
        -10.494512657301021
      ],
      [
        "▁préserve",
        -10.494616308315514
      ],
      [
        "▁fàttali",
        -10.494816083287823
      ],
      [
        "▁kes",
        -10.495006054138855
      ],
      [
        "▁yenn",
        -10.495021972390417
      ],
      [
        "▁manche",
        -10.495200535785331
      ],
      [
        "▁làmb",
        -10.495349332712228
      ],
      [
        "▁vivres",
        -10.495503858913809
      ],
      [
        "▁rouler",
        -10.495850717563078
      ],
      [
        "▁gëm",
        -10.496743045862573
      ],
      [
        "▁ñaxtu",
        -10.49763588175457
      ],
      [
        "▁pêche",
        -10.498283180350453
      ],
      [
        "▁plaie",
        -10.499044347206677
      ],
      [
        "era",
        -10.499128235620939
      ],
      [
        "▁fasses",
        -10.499614180123585
      ],
      [
        "▁Jambaa",
        -10.499903659976242
      ],
      [
        "▁tomates",
        -10.499920399570465
      ],
      [
        "▁avions",
        -10.500020242896486
      ],
      [
        "▁taxawal",
        -10.500155555870322
      ],
      [
        "▁Bo",
        -10.500399564640201
      ],
      [
        "▁ndaama",
        -10.50050278150191
      ],
      [
        "ussi",
        -10.501299888414017
      ],
      [
        "▁couvrir",
        -10.501374697253473
      ],
      [
        "▁Verse",
        -10.501461627908611
      ],
      [
        "▁proche",
        -10.503434066824951
      ],
      [
        "▁won",
        -10.503682300384396
      ],
      [
        "▁hôtes",
        -10.503705925490493
      ],
      [
        "▁jënd",
        -10.50387325254338
      ],
      [
        "▁njariñ",
        -10.504671734038427
      ],
      [
        "▁Car",
        -10.504834391345394
      ],
      [
        "moon",
        -10.505144807806866
      ],
      [
        "▁qu'en",
        -10.50534147916822
      ],
      [
        "▁confie",
        -10.505795866688231
      ],
      [
        "▁pique",
        -10.505917584766948
      ],
      [
        "▁roñ",
        -10.505959224275513
      ],
      [
        "▁secoue",
        -10.506873870626977
      ],
      [
        "▁fe",
        -10.507066784563643
      ],
      [
        "▁Ngo",
        -10.50735232039465
      ],
      [
        "▁règles",
        -10.50756903529081
      ],
      [
        "▁vertes",
        -10.50795536683722
      ],
      [
        "vaient",
        -10.509119813755007
      ],
      [
        "▁pareil",
        -10.509313421461565
      ],
      [
        "▁coups",
        -10.510018657260094
      ],
      [
        "▁neexul",
        -10.510802061541803
      ],
      [
        "▁tenue",
        -10.510989815307191
      ],
      [
        "▁d'entre",
        -10.511593472032423
      ],
      [
        "▁we",
        -10.511619699638093
      ],
      [
        "▁Ndeg",
        -10.512274764683436
      ],
      [
        "kh",
        -10.512288835739861
      ],
      [
        "▁jénde",
        -10.513166463763259
      ],
      [
        "▁ñe",
        -10.51366218204711
      ],
      [
        "aal",
        -10.513760980554725
      ],
      [
        "▁at",
        -10.514417479194874
      ],
      [
        "▁lang",
        -10.514722806685773
      ],
      [
        "▁boit",
        -10.515245838083306
      ],
      [
        "▁paye",
        -10.515352291918113
      ],
      [
        "▁pile",
        -10.515405545870953
      ],
      [
        "wax",
        -10.516648742523296
      ],
      [
        "▁soup",
        -10.517832230557204
      ],
      [
        "▁biig",
        -10.518746715641964
      ],
      [
        "▁wane",
        -10.521108882679531
      ],
      [
        "▁n'aurai",
        -10.521154090529127
      ],
      [
        "▁géej",
        -10.5218588494708
      ],
      [
        "▁brûle",
        -10.522425404178462
      ],
      [
        "▁rob",
        -10.522464076689314
      ],
      [
        "▁état",
        -10.522665221468923
      ],
      [
        "▁Gi",
        -10.522710083666524
      ],
      [
        "▁Gée",
        -10.523699447121539
      ],
      [
        "ral",
        -10.523851975284108
      ],
      [
        "▁Ñaan",
        -10.525167869189257
      ],
      [
        "▁xaalisam",
        -10.525991051599913
      ],
      [
        "▁récite",
        -10.526253868551201
      ],
      [
        "▁ex",
        -10.526267487856499
      ],
      [
        "▁muur",
        -10.52662251559787
      ],
      [
        "▁Solda",
        -10.527196631067126
      ],
      [
        "▁jóo",
        -10.52722256928075
      ],
      [
        "▁rempli",
        -10.527437001868153
      ],
      [
        "▁To",
        -10.528704461102933
      ],
      [
        "▁rapporte",
        -10.528821017087948
      ],
      [
        "▁étranger",
        -10.530160027460928
      ],
      [
        "▁tel",
        -10.530555975862859
      ],
      [
        "atul",
        -10.530970986458252
      ],
      [
        "▁querelle",
        -10.531286588065456
      ],
      [
        "▁Coupe",
        -10.53204978747556
      ],
      [
        "▁dë",
        -10.5337243522816
      ],
      [
        "▁jote",
        -10.533752026317865
      ],
      [
        "▁Xamul",
        -10.534032610923719
      ],
      [
        "elles",
        -10.53502864961622
      ],
      [
        "▁ñooña",
        -10.535182990964639
      ],
      [
        "▁tàpp",
        -10.536142142705314
      ],
      [
        "▁jëmm",
        -10.536985491262724
      ],
      [
        "▁J'e",
        -10.537552561111598
      ],
      [
        "▁chiens",
        -10.537636894252415
      ],
      [
        "ŋga",
        -10.537771181133987
      ],
      [
        "▁xo",
        -10.539233533191469
      ],
      [
        "▁Jé",
        -10.541604603856623
      ],
      [
        "▁wonn",
        -10.541686963336657
      ],
      [
        "teem",
        -10.542060331188624
      ],
      [
        "▁petites",
        -10.542875480494445
      ],
      [
        "▁Bàyyi",
        -10.542991756211176
      ],
      [
        "bb",
        -10.543173330395401
      ],
      [
        "▁enseigne",
        -10.543922519971904
      ],
      [
        "▁rire",
        -10.544256569334253
      ],
      [
        "▁ci.",
        -10.544354488198014
      ],
      [
        "▁liggéeyam",
        -10.54572118262414
      ],
      [
        "ve",
        -10.545876014695324
      ],
      [
        "st-ce",
        -10.545970656985707
      ],
      [
        "-en",
        -10.546327610696771
      ],
      [
        "endant",
        -10.546391496433289
      ],
      [
        "▁rentre",
        -10.546720358152362
      ],
      [
        "▁faite",
        -10.546832367093394
      ],
      [
[...]
