{
  "version": "1.0",
  "truncation": null,
  "padding": null,
  "added_tokens": [
    {
      "id": 0,
      "content": "<cls>",
      "single_word": false,
      "lstrip": false,
      "rstrip": false,
      "normalized": false,
      "special": true
    },
    {
      "id": 1,
      "content": "<sep>",
      "single_word": false,
      "lstrip": false,
      "rstrip": false,
      "normalized": false,
      "special": true
    },
    {
      "id": 2,
      "content": "<unk>",
      "single_word": false,
      "lstrip": false,
      "rstrip": false,
      "normalized": false,
      "special": true
    },
    {
      "id": 3,
      "content": "<pad>",
      "single_word": false,
      "lstrip": false,
      "rstrip": false,
      "normalized": false,
      "special": true
    },
    {
      "id": 4,
      "content": "<mask>",
      "single_word": false,
      "lstrip": false,
      "rstrip": false,
      "normalized": false,
      "special": true
    },
    {
      "id": 5,
      "content": "<s>",
      "single_word": false,
      "lstrip": false,
      "rstrip": false,
      "normalized": false,
      "special": true
    },
    {
      "id": 6,
      "content": "</s>",
      "single_word": false,
      "lstrip": false,
      "rstrip": false,
      "normalized": false,
      "special": true
    }
  ],
  "normalizer": {
    "type": "Replace",
    "pattern": {
      "String": " {2,}"
    },
    "content": " "
  },
  "pre_tokenizer": {
    "type": "Metaspace",
    "replacement": "▁",
    "add_prefix_space": true
  },
  "post_processor": null,
  "decoder": {
    "type": "Metaspace",
    "replacement": "▁",
    "add_prefix_space": true
  },
  "model": {
    "type": "Unigram",
    "unk_id": 2,
    "vocab": [
      [
        "<cls>",
        0.0
      ],
      [
        "<sep>",
        0.0
      ],
      [
        "<unk>",
        0.0
      ],
      [
        "<pad>",
        0.0
      ],
      [
        "<mask>",
        0.0
      ],
      [
        "<s>",
        0.0
      ],
      [
        "</s>",
        0.0
      ],
      [
        ",",
        -2.9742394001129107
      ],
      [
        "▁",
        -3.0269133651528968
      ],
      [
        ".",
        -3.425264089146099
      ],
      [
        "s",
        -4.1325076681439645
      ],
      [
        "▁de",
        -4.1470117387358405
      ],
      [
        "▁la",
        -4.267691877258579
      ],
      [
        "e",
        -4.6144733729206875
      ],
      [
        "▁ci",
        -4.712514117151965
      ],
      [
        "y",
        -4.725951627185403
      ],
      [
        "i",
        -4.880033196615877
      ],
      [
        "a",
        -4.997546303707152
      ],
      [
        "u",
        -5.041735069532538
      ],
      [
        "▁a",
        -5.121025976025828
      ],
      [
        "▁les",
        -5.242172038744138
      ],
      [
        "▁à",
        -5.257479991744356
      ],
      [
        "▁mu",
        -5.304714687468999
      ],
      [
        "▁ma",
        -5.346617651133191
      ],
      [
        "r",
        -5.354732334237836
      ],
      [
        "▁des",
        -5.367713178376933
      ],
      [
        "!",
        -5.373117614580096
      ],
      [
        "▁qui",
        -5.381237802020059
      ],
      [
        "▁le",
        -5.390903764814373
      ],
      [
        "▁ni",
        -5.397715987788556
      ],
      [
        "t",
        -5.432864700343316
      ],
      [
        "▁que",
        -5.4866899553274235
      ],
      [
        "?",
        -5.488408995045536
      ],
      [
        "▁ba",
        -5.495043484962834
      ],
      [
        "▁di",
        -5.507982001264937
      ],
      [
        "▁na",
        -5.553683262620145
      ],
      [
        "▁pas",
        -5.553733462846073
      ],
      [
        "▁du",
        -5.55562377084154
      ],
      [
        "ak",
        -5.561540477327141
      ],
      [
        "▁ne",
        -5.57273620864365
      ],
      [
        "▁ko",
        -5.599855391038978
      ],
      [
        "▁un",
        -5.659923724775099
      ],
      [
        "▁bi",
        -5.683251977808437
      ],
      [
        "▁dem",
        -5.690531938213173
      ],
      [
        "▁gi",
        -5.711140156537909
      ],
      [
        "n",
        -5.750717311578012
      ],
      [
        "▁yi",
        -5.758588209153838
      ],
      [
        "▁dans",
        -5.8075882240009875
      ],
      [
        "'est",
        -5.818827325043491
      ],
      [
        "▁en",
        -5.867590492149412
      ],
      [
        "▁ñu",
        -5.891303125796631
      ],
      [
        "l",
        -5.932843104247064
      ],
      [
        "▁est",
        -5.965851795835305
      ],
      [
        "▁yu",
        -5.969929708635796
      ],
      [
        "▁C",
        -6.000025607771018
      ],
      [
        "▁bu",
        -6.040386296151304
      ],
      [
        "▁fa",
        -6.08659761099342
      ],
      [
        "▁naa",
        -6.097952863332091
      ],
      [
        "▁woon",
        -6.108306953119222
      ],
      [
        "▁te",
        -6.119160924182144
      ],
      [
        "▁sama",
        -6.140120583087809
      ],
      [
        "▁seen",
        -6.1470165270561195
      ],
      [
        "et",
        -6.15857466668518
      ],
      [
        "▁pour",
        -6.165380371370342
      ],
      [
        ":",
        -6.228143174951294
      ],
      [
        "▁daan",
        -6.234027306055127
      ],
      [
        "▁qu'il",
        -6.254506293973358
      ],
      [
        "oon",
        -6.281761448886835
      ],
      [
        "une",
        -6.287053352921742
      ],
      [
        "▁sa",
        -6.306953808359139
      ],
      [
        "▁je",
        -6.314514298110612
      ],
      [
        "▁ce",
        -6.3190636866431324
      ],
      [
        "▁au",
        -6.333375019708837
      ],
      [
        "▁ŋga",
        -6.337490656687265
      ],
      [
        "▁ca",
        -6.3382633471951335
      ],
      [
        "▁doon",
        -6.339693336377227
      ],
      [
        "k",
        -6.340943835593127
      ],
      [
        "▁Je",
        -6.352971294710811
      ],
      [
        "▁par",
        -6.373021372394983
      ],
      [
        "à",
        -6.40227902282715
      ],
      [
        "é",
        -6.403566525904917
      ],
      [
        "▁lu",
        -6.405664620110531
      ],
      [
        "▁mon",
        -6.412443526659506
      ],
      [
        "▁père",
        -6.438900423987063
      ],
      [
        "ent",
        -6.4521093606989615
      ],
      [
        "▁vu",
        -6.45414648902028
      ],
      [
        "▁ngi",
        -6.462641740451835
      ],
      [
        "▁leen",
        -6.484270535237673
      ],
      [
        "▁Baay",
        -6.498678372516951
      ],
      [
        "le",
        -6.5072525939615
      ],
      [
        "▁il",
        -6.509921605698046
      ],
      [
        "▁wax",
        -6.516486191974583
      ],
      [
        "▁mi",
        -6.521504488655
      ],
      [
        "▁l'",
        -6.537636767126212
      ],
      [
        "am",
        -6.577231702004235
      ],
      [
        "▁avec",
        -6.580745778756473
      ],
      [
        "▁sur",
        -6.585816696668894
      ],
      [
        "▁se",
        -6.594694159314719
      ],
      [
        "▁été",
        -6.596163369328634
      ],
      [
        "al",
        -6.596983074214346
      ],
      [
        "es",
        -6.59714196396227
      ],
      [
        "▁Afrig",
        -6.600993048644685
      ],
      [
        "▁c",
        -6.621436064868846
      ],
      [
        "▁sont",
        -6.639181537621802
      ],
      [
        "▁ya",
        -6.648510728914133
      ],
      [
        "▁Gis",
        -6.6531174103849535
      ],
      [
        "er",
        -6.6578165668314195
      ],
      [
        "▁homme",
        -6.659055341926152
      ],
      [
        "▁son",
        -6.668950705506649
      ],
      [
        "m",
        -6.680540917370123
      ],
      [
        "▁nit",
        -6.68940209856802
      ],
      [
        "▁sax",
        -6.689731511198645
      ],
      [
        "▁Tu",
        -6.707389694080209
      ],
      [
        "ait",
        -6.730409083984935
      ],
      [
        "▁L'homme",
        -6.731424085341383
      ],
      [
        "▁d",
        -6.74610961887601
      ],
      [
        "▁lui",
        -6.7567079730401245
      ],
      [
        "«",
        -6.771314330225678
      ],
      [
        "nt",
        -6.774965805796214
      ],
      [
        "▁nga",
        -6.778117284658315
      ],
      [
        "▁ay",
        -6.781359114266171
      ],
      [
        "▁tu",
        -6.788686862646969
      ],
      [
        "g",
        -6.796747503056732
      ],
      [
        "▁J'ai",
        -6.813212166688021
      ],
      [
        "▁su",
        -6.819429175760056
      ],
      [
        "les",
        -6.821516303136564
      ],
      [
        "▁si",
        -6.821522106501393
      ],
      [
        "▁gis",
        -6.822778927077593
      ],
      [
        "ul",
        -6.832082477676981
      ],
      [
        "▁nu",
        -6.838493125463073
      ],
      [
        "▁ñëw",
        -6.843039461624614
      ],
      [
        "▁moo",
        -6.845282913579665
      ],
      [
        "que",
        -6.8475670826644865
      ],
      [
        "▁moom",
        -6.867973307216275
      ],
      [
        "▁d'un",
        -6.873606384660849
      ],
      [
        "▁avait",
        -6.891052620656053
      ],
      [
        "▁nous",
        -6.9015571684036345
      ],
      [
        "▁plus",
        -6.90548630141834
      ],
      [
        "▁kenn",
        -6.912689421070119
      ],
      [
        "▁li",
        -6.929840362041102
      ],
      [
        "-",
        -6.9542817858848345
      ],
      [
        "▁tout",
        -6.955812430593594
      ],
      [
        "b",
        -6.959907009460467
      ],
      [
        "▁benn",
        -6.96359590290605
      ],
      [
        "▁am",
        -6.964726449350133
      ],
      [
        "▁góor",
        -6.974082570977788
      ],
      [
        "▁l'homme",
        -6.977725181627375
      ],
      [
        "▁mel",
        -6.979382018983877
      ],
      [
        "it",
        -6.992934233346606
      ],
      [
        "▁n",
        -6.997009070362461
      ],
      [
        "il",
        -7.003893436966226
      ],
      [
        "▁def",
        -7.0105073138900496
      ],
      [
        "▁l",
        -7.0120414499970956
      ],
      [
        "▁biir",
        -7.015809913889894
      ],
      [
        "▁ku",
        -7.021486657687355
      ],
      [
        "▁enfants",
        -7.021532306287801
      ],
      [
        "▁nag",
        -7.027463484165313
      ],
      [
        "▁may",
        -7.051492654594669
      ],
      [
        "▁s",
        -7.053473535635587
      ],
      [
        "▁Ci",
        -7.058723309484188
      ],
      [
        "▁autre",
        -7.06769674052371
      ],
      [
        "▁La",
        -7.074972011779666
      ],
      [
        "s.",
        -7.100965192268148
      ],
      [
        "d",
        -7.107712061166593
      ],
      [
        "▁bëgg",
        -7.11204659457056
      ],
      [
        "ment",
        -7.122502790244311
      ],
      [
        "▁Le",
        -7.124626383774427
      ],
      [
        "ette",
        -7.129537794861454
      ],
      [
        "▁mère",
        -7.132145731849533
      ],
      [
        "▁d'",
        -7.133420724522186
      ],
      [
        "▁ces",
        -7.134380624537126
      ],
      [
        "▁parti",
        -7.138504545192325
      ],
      [
        "▁A",
        -7.1415841255401284
      ],
      [
        "▁gu",
        -7.143853537299191
      ],
      [
        "▁fi",
        -7.147583334743533
      ],
      [
        "▁rekk",
        -7.147653113475218
      ],
      [
        "▁comme",
        -7.150073778925734
      ],
      [
        "▁dara",
        -7.150101361970659
      ],
      [
        "oo",
        -7.172403539465673
      ],
      [
        "te",
        -7.1796074667928185
      ],
      [
        "ee",
        -7.18512633354891
      ],
      [
        "▁nekk",
        -7.197287744226411
      ],
      [
        "▁xam",
        -7.207021553330959
      ],
      [
        "▁dal",
        -7.22276764590129
      ],
      [
        "▁moi",
        -7.226253996336432
      ],
      [
        "▁ju",
        -7.23449718610645
      ],
      [
        "▁Su",
        -7.236684536488999
      ],
      [
        "▁ji",
        -7.245125521272723
      ],
      [
        "▁me",
        -7.246490148517362
      ],
      [
        "▁m",
        -7.253500236924113
      ],
      [
        "▁fu",
        -7.261653672426739
      ],
      [
        "▁xale",
        -7.2680023957213455
      ],
      [
        "▁mbaa",
        -7.268681385066393
      ],
      [
        "ñ",
        -7.26918882884489
      ],
      [
        "▁san",
        -7.270978451408205
      ],
      [
        "▁ki",
        -7.281588179912757
      ],
      [
        "▁c'est",
        -7.284374506430396
      ],
      [
        "▁mën",
        -7.284955866686448
      ],
      [
        "▁D",
        -7.294014804670574
      ],
      [
        "▁ndax",
        -7.301138039201452
      ],
      [
        "leurs",
        -7.307521324417106
      ],
      [
        "x",
        -7.3083239733354874
      ],
      [
        "di",
        -7.314051391643907
      ],
      [
        "ant",
        -7.322878258917562
      ],
      [
        "▁pays",
        -7.330262720833378
      ],
      [
        "▁ou",
        -7.33704224757729
      ],
      [
        "▁gën",
        -7.339932338058433
      ],
      [
        "▁était",
        -7.344995297102849
      ],
      [
        "s-tu",
        -7.346751274254397
      ],
      [
        "▁même",
        -7.347955301700511
      ],
      [
        "▁dëkk",
        -7.3578226581155874
      ],
      [
        "▁jigéen",
        -7.367908239894324
      ],
      [
        "▁kër",
        -7.368625333242687
      ],
      [
        "être",
        -7.369201850516302
      ],
      [
        "▁maison",
        -7.37028910862885
      ],
      [
        "▁y",
        -7.3757528483860675
      ],
      [
        "▁ñi",
        -7.380931846106145
      ],
      [
        "▁laa",
        -7.384318015322827
      ],
      [
        "on",
        -7.393183753952512
      ],
      [
        "o",
        -7.39442679036456
      ],
      [
        "ont",
        -7.4020219162769925
      ],
      [
        "ils",
        -7.402986018198768
      ],
      [
        "▁lépp",
        -7.403825786820778
      ],
      [
        "en",
        -7.411391992732568
      ],
      [
        "▁Ma",
        -7.413570710797477
      ],
      [
        "ay",
        -7.441143353781118
      ],
      [
        "▁ŋgi",
        -7.451048091188395
      ],
      [
        "▁xar",
        -7.4569976243835105
      ],
      [
        "eneen",
        -7.457083858245571
      ],
      [
        "▁là",
        -7.4613340040455105
      ],
      [
        "ses",
        -7.469964422386288
      ],
      [
        "woon",
        -7.480023709860668
      ],
      [
        "▁Li",
        -7.481594716877019
      ],
      [
        "▁parle",
        -7.494726019730532
      ],
      [
        "re",
        -7.497564121695897
      ],
      [
        "▁baax",
        -7.497993864367109
      ],
      [
        "▁Mu",
        -7.5008924051437535
      ],
      [
        "▁L",
        -7.508065013146236
      ],
      [
        "▁walla",
        -7.511911446413872
      ],
      [
        "▁war",
        -7.514357420626139
      ],
      [
        "▁J",
        -7.5166439918667844
      ],
      [
        "▁yaay",
        -7.5207351975255
      ],
      [
        "▁loolu",
        -7.523515286867413
      ],
      [
        "▁fait",
        -7.525632099485191
      ],
      [
        "ŋ",
        -7.528539199702258
      ],
      [
        "▁Waaye",
        -7.529684188756004
      ],
      [
        "▁Te",
        -7.530746739886002
      ],
      [
        "aient",
        -7.542949390668667
      ],
      [
        "est",
        -7.546390219179135
      ],
      [
        "▁t",
        -7.563107971482327
      ],
      [
        "▁À",
        -7.565253510386232
      ],
      [
        "▁guerre",
        -7.572649197588547
      ],
      [
        ")",
        -7.575300017201272
      ],
      [
        "▁lool",
        -7.577106380161528
      ],
      [
        "▁demee",
        -7.5827707186995035
      ],
      [
        "un",
        -7.582964555752111
      ],
      [
        "▁yoon",
        -7.586624962354215
      ],
      [
        "▁yooyu",
        -7.591031476870598
      ],
      [
        "▁sunu",
        -7.596974598558849
      ],
      [
        "▁cela",
        -7.5971160526096115
      ],
      [
        "▁ñaar",
        -7.603639649096607
      ],
      [
        "▁ka",
        -7.609028709803944
      ],
      [
        "▁temps",
        -7.613485747209671
      ],
      [
        "▁bés",
        -7.614680917056014
      ],
      [
        "▁monde",
        -7.616566385353273
      ],
      [
        "▁mag",
        -7.625655096934457
      ],
      [
        "▁vie",
        -7.626268726396699
      ],
      [
        "▁man",
        -7.6264204166388065
      ],
      [
        "▁Ogosaa",
        -7.6318034030779955
      ],
      [
        "▁celui-là",
        -7.63207030817331
      ],
      [
        "▁j'a",
        -7.6420825732161335
      ],
      [
        "▁leur",
        -7.650189303670306
      ],
      [
        "e.",
        -7.6514475073527635
      ],
      [
        "▁teg",
        -7.659917026191017
      ],
      [
        "▁G",
        -7.660453223761579
      ],
      [
        "ci",
        -7.6706698066413
      ],
      [
        "▁n'a",
        -7.67102481082281
      ],
      [
        "▁Ce",
        -7.67155117009502
      ],
      [
        "ée",
        -7.67351405751943
      ],
      [
        "▁partir",
        -7.675368544441961
      ],
      [
        "is",
        -7.675598383080039
      ],
      [
        "▁aussi",
        -7.675620031762284
      ],
      [
        "▁Mais",
        -7.676584679222575
      ],
      [
        "▁xel",
        -7.677313433332289
      ],
      [
        "▁gone",
        -7.677722774874137
      ],
      [
        "ne",
        -7.685240769601338
      ],
      [
        "▁mais",
        -7.688019647908293
      ],
      [
        "▁fekk",
        -7.70002539656278
      ],
      [
        "▁Maa",
        -7.701441393759267
      ],
      [
        "▁ñoom",
        -7.707001247636637
      ],
      [
        "▁jusqu'",
        -7.710675198750439
      ],
      [
        "ma",
        -7.718890174154389
      ],
      [
        "▁Tugal",
        -7.721635676235534
      ],
      [
        "▁yépp",
        -7.722744380503238
      ],
      [
        "▁Du",
        -7.723076239972793
      ],
      [
        "▁femme",
        -7.726229413708392
      ],
      [
        "▁f",
        -7.734054656472378
      ],
      [
        "▁réew",
        -7.744633451932732
      ],
      [
        "▁S",
        -7.744852827376453
      ],
      [
        "▁doŋŋ",
        -7.745370169541454
      ],
      [
        "▁as",
        -7.746062388539494
      ],
      [
        "▁cha",
        -7.747864091589207
      ],
      [
        "▁yaram",
        -7.748202727985593
      ],
      [
        "▁mouton",
        -7.748427866115648
      ],
      [
        "▁b",
        -7.748444555794347
      ],
      [
        "▁venu",
        -7.756152632270766
      ],
      [
        "▁tax",
        -7.761877144512644
      ],
      [
        "▁Dem",
        -7.763103106140367
      ],
      [
        "▁bopp",
        -7.769194170121121
      ],
      [
        "▁doole",
        -7.773353925838276
      ],
      [
        "▁De",
        -7.775223011584958
      ],
      [
        "▁chose",
        -7.776286304684132
      ],
      [
        "▁O",
        -7.779860807115881
      ],
      [
        "▁vous",
        -7.779943296746961
      ],
      [
        "▁bien",
        -7.780826189551119
      ],
      [
        "▁part",
        -7.786984498191584
      ],
      [
        "la",
        -7.796461596836469
      ],
      [
        "▁lañu",
        -7.797772153138645
      ],
      [
        "▁va",
        -7.800117948628497
      ],
      [
        "▁dit",
        -7.801304238457646
      ],
      [
        "▁yëg",
        -7.802998447381695
      ],
      [
        "▁soo",
        -7.8051125083862285
      ],
      [
        "yeek",
        -7.80574600306613
      ],
      [
        "▁toi",
        -7.808827467921111
      ],
      [
        "▁tey",
        -7.816388978438749
      ],
      [
        "▁(",
        -7.81802970154186
      ],
      [
        "▁jëm",
        -7.819815904034354
      ],
      [
        "▁voilà",
        -7.820404445277721
      ],
      [
        "▁l'intérieur",
        -7.820733807632463
      ],
      [
        "▁réer",
        -7.821870466615924
      ],
      [
        "▁koo",
        -7.822726370470193
      ],
      [
        "▁Quel",
        -7.825746742132898
      ],
      [
        "▁ànd",
        -7.828482546558298
      ],
      [
        "▁it",
        -7.830639970972191
      ],
      [
        "▁demul",
        -7.839745258317452
      ],
      [
        "▁nataal",
        -7.846683819711651
      ],
      [
        "▁boobu",
        -7.8476675985091005
      ],
      [
        "▁tou",
        -7.85575317172823
      ],
      [
        "▁En",
        -7.858311149982112
      ],
      [
        "▁amul",
        -7.864329470463094
      ],
      [
        "▁p",
        -7.865324718109312
      ],
      [
        "▁ñoo",
        -7.8656074177793585
      ],
      [
        "és",
        -7.869626543150391
      ],
      [
        "▁n'",
        -7.873149763912772
      ],
      [
        "▁k",
        -7.873177114080141
      ],
      [
        "▁jamono",
        -7.873663862843638
      ],
      [
        "▁encore",
        -7.873702875989258
      ],
      [
        "▁N",
        -7.877145777895784
      ],
      [
        "c",
        -7.8819719980788285
      ],
      [
        "ù",
        -7.882777653681323
      ],
      [
        "▁dont",
        -7.883156607361419
      ],
      [
        "w",
        -7.889681481513484
      ],
      [
        "▁ndaw",
        -7.9005112767982055
      ],
      [
        "▁Cet",
        -7.90225345400647
      ],
      [
        "de",
        -7.902907690299957
      ],
      [
        "▁xare",
        -7.916329023617095
      ],
      [
        "▁at",
        -7.919247224761074
      ],
      [
        "▁àddina",
        -7.923148658814535
      ],
      [
        "▁gens",
        -7.932037383898948
      ],
      [
        "▁liggéey",
        -7.932438218118998
      ],
      [
        "▁Mon",
        -7.933790408584137
      ],
      [
        "▁veux",
        -7.934577863416587
      ],
      [
        "f",
        -7.935064817940081
      ],
      [
        "tre",
        -7.9373099839128125
      ],
      [
        "▁Moo",
        -7.943527706248696
      ],
      [
        "▁ga",
        -7.950307830718607
      ],
      [
        "▁waay",
        -7.9510085485757305
      ],
      [
        "▁ag",
        -7.951459798635316
      ],
      [
        "▁toog",
        -7.953434680988396
      ],
      [
        "eux",
        -7.956851910829254
      ],
      [
        "▁saa",
        -7.9625419493060745
      ],
      [
        "▁sous",
        -7.970268797744502
      ],
      [
        "▁ŋgeen",
        -7.974181041554087
      ],
      [
        "▁wër",
        -7.976162769698692
      ],
      [
        "▁peut-",
        -7.977155235822506
      ],
      [
        "▁rien",
        -7.980151822035496
      ],
      [
        "ngir",
        -7.984204395042708
      ],
      [
        ";",
        -7.985962823942227
      ],
      [
        "▁nañu",
        -7.989327667975882
      ],
      [
        "▁suuf",
        -7.989361738305645
      ],
      [
        "▁jamais",
        -7.989623327702843
      ],
      [
        "▁doute",
        -7.989680448484663
      ],
      [
        "ce",
        -7.989698145571489
      ],
      [
        "▁ñépp",
        -7.989759454434353
      ],
      [
        "▁xarit",
        -7.990028460607382
      ],
      [
        "eek",
        -7.992769443696739
      ],
      [
        "tu",
        -7.9933623703090895
      ],
      [
        "épp",
        -8.00036820282238
      ],
      [
        "▁ja",
        -8.004377449491315
      ],
      [
        "ions",
        -8.008309773344482
      ],
      [
        "▁naan",
        -8.012935127854245
      ],
      [
        "▁mes",
        -8.019454417889376
      ],
      [
        "▁corps",
        -8.021318665145484
      ],
      [
        "▁Ndax",
        -8.021793197603607
      ],
      [
        "▁bët",
        -8.025491508240503
      ],
      [
        "...",
        -8.027497480449064
      ],
      [
        "kat",
        -8.027702683862636
      ],
      [
        "▁i",
        -8.038368785676417
      ],
      [
        "▁M",
        -8.041437603377577
      ],
      [
        "▁P",
        -8.043740711576682
      ],
      [
        "▁àll",
        -8.04581642870715
      ],
      [
        "▁waa",
        -8.048218897608862
      ],
      [
        "▁jóge",
        -8.049897085033868
      ],
      [
        "▁mbir",
        -8.051685424581953
      ],
      [
        "▁jour",
        -8.052846194832638
      ],
      [
        "▁c'étai",
        -8.053045817533292
      ],
      [
        "▁Kamerun",
        -8.053106331698956
      ],
      [
        "▁léeg-léeg",
        -8.053248293870563
      ],
      [
        "▁dégg",
        -8.055448776420668
      ],
      [
        "▁génn",
        -8.060128200112686
      ],
      [
        "▁dex",
        -8.060377870977769
      ],
      [
        "▁Tubaab",
        -8.062590425402252
      ],
      [
        "ñu",
        -8.070780812504218
      ],
      [
        "▁kow",
        -8.080076838985791
      ],
      [
        "▁faire",
        -8.081745269133561
      ],
      [
        "▁loin",
        -8.086069768456088
      ],
      [
        "▁wi",
        -8.086202227577559
      ],
      [
        "▁l'autre",
        -8.086722370802136
      ],
      [
        "▁foofu",
        -8.087127008926753
      ],
      [
        "▁da",
        -8.08867348391262
      ],
      [
        "▁Ñu",
        -8.101327079646973
      ],
      [
        "ation",
        -8.104443928103256
      ],
      [
        "▁Xar",
        -8.10910094989805
      ],
      [
        "▁loxo",
        -8.1111830884646
      ],
      [
        "▁nañ",
        -8.11732608645743
      ],
      [
        "▁vois",
        -8.118129387729237
      ],
      [
        "▁m'a",
        -8.12079376363226
      ],
      [
        "▁quelque",
        -8.126269959383233
      ],
      [
        "▁Comme",
        -8.126356618131707
      ],
      [
        "▁Xam",
        -8.126887315293395
      ],
      [
        "▁terre",
        -8.133936269549665
      ],
      [
        "▁fois",
        -8.137494155094034
      ],
      [
        "▁Ku",
        -8.149095510754957
      ],
      [
        "▁Fa",
        -8.153976250571603
      ],
      [
        "▁jot",
        -8.155079384600803
      ],
      [
        "▁femmes",
        -8.1555611963614
      ],
      [
        "▁être",
        -8.1557250778346
      ],
      [
        "▁qu'elle",
        -8.157272342153528
      ],
      [
        "▁boppam",
        -8.15794295363623
      ],
      [
        "▁personne",
        -8.164238544224615
      ],
      [
        "▁Si",
        -8.164662769949576
      ],
      [
        "▁dugg",
        -8.165534787774222
      ],
      [
        "▁néeg",
        -8.173153328016769
      ],
      [
        "▁yaa",
        -8.179708448327215
      ],
      [
        "▁dañu",
        -8.18111507579222
      ],
      [
        "▁non",
        -8.191431893436981
      ],
      [
        "▁l'Afrique",
        -8.193692416703197
      ],
      [
        "▁peu",
        -8.19758680641238
      ],
      [
        "▁noonu",
        -8.198527511829289
      ],
      [
        "▁années",
        -8.19895748413218
      ],
      [
        "▁Da",
        -8.199245310262944
      ],
      [
        "▁ňu",
        -8.207689933985407
      ],
      [
        "▁itam",
        -8.208455450177604
      ],
      [
        "▁dund",
        -8.211146757989846
      ],
      [
        "▁re",
        -8.216573192039558
      ],
      [
        "▁Lu",
        -8.216787097886268
      ],
      [
        "▁daw",
        -8.221518792926641
      ],
      [
        "▁Ba",
        -8.222158417193585
      ],
      [
        "▁Am",
        -8.222981193840065
      ],
      [
        "▁ban",
        -8.225350811608315
      ],
      [
        "▁Loolu",
        -8.231906039750625
      ],
      [
        "▁dëgg",
        -8.234314267239029
      ],
      [
        "▁crois",
        -8.234823177875805
      ],
      [
        "▁Tout",
        -8.23500522533444
      ],
      [
        "▁Qui",
        -8.235024582496964
      ],
      [
        "▁Bu",
        -8.235323609111889
      ],
      [
        "▁Sée",
        -8.235533406750541
      ],
      [
        "▁Ogoja",
        -8.238224475299116
      ],
      [
        "▁Afrique",
        -8.239679503465226
      ],
      [
        "▁Ni",
        -8.242125477319197
      ],
      [
        "▁bañ",
        -8.243183705377687
      ],
      [
        "▁avant",
        -8.246368200131194
      ],
      [
        "▁neex",
        -8.256966459322049
      ],
      [
        "▁bare",
        -8.258521847596736
      ],
      [
        "▁garab",
        -8.259048434574453
      ],
      [
        "▁F",
        -8.259367922847575
      ],
      [
        "▁veut",
        -8.260779287552852
      ],
      [
        "▁gii",
        -8.271828442260276
      ],
      [
        "▁tamit",
        -8.27188297438367
      ],
      [
        "▁deux",
        -8.272478391875076
      ],
      [
        "▁moutons",
        -8.273570669021048
      ],
      [
        "▁jooju",
        -8.275234400236716
      ],
      [
        "▁ab",
        -8.27526793143341
      ],
      [
        "▁après",
        -8.27907932232176
      ],
      [
        "▁mas",
        -8.279856679624064
      ],
      [
        "ni",
        -8.280130287059137
      ],
      [
        "fa",
        -8.282799369184925
      ],
      [
        "▁so",
        -8.282821185785735
      ],
      [
        "▁médecin",
        -8.284585080160983
      ],
      [
        "▁entre",
        -8.284669241371041
      ],
      [
        "▁amis",
        -8.285975308161907
      ],
      [
        "rès",
        -8.28663290126152
      ],
      [
        "▁wu",
        -8.286716607663472
      ],
      [
        "▁Bi",
        -8.287418687807618
      ],
      [
        "▁solo",
        -8.288960475462396
      ],
      [
        "▁kooku",
        -8.290287151658037
      ],
      [
        "▁jaar",
        -8.303028374505324
      ],
      [
        "▁nuit",
        -8.304109183415564
      ],
      [
        "▁n'es",
        -8.305042514655826
      ],
      [
        "▁ñ",
        -8.306851686718122
      ],
      [
        "▁Soo",
        -8.308666453957024
      ],
      [
        "▁fàww",
        -8.313088875963976
      ],
      [
        "▁matin",
        -8.313448514033443
      ],
      [
        "▁Cameroun",
        -8.313573701255933
      ],
      [
        "▁g",
        -8.313971545192164
      ],
      [
        "▁daanaka",
        -8.31451559518882
      ],
      [
        "▁voir",
        -8.31681774590961
      ],
      [
        "▁j",
        -8.319516770130582
      ],
      [
        "▁ginnaaw",
        -8.319666408954014
      ],
      [
        "▁Sa",
        -8.320853717798283
      ],
      [
        "▁maa",
        -8.326686544393585
      ],
      [
        "lu",
        -8.334121559687393
      ],
      [
        "▁fii",
        -8.335470370133796
      ],
      [
        "▁ña",
        -8.341031049138175
      ],
      [
        "▁boo",
        -8.344464130380665
      ],
      [
        "at",
        -8.34730846088259
      ],
      [
        "ale",
        -8.351900412397036
      ],
      [
        "▁dé",
        -8.352772181246149
      ],
      [
        "j",
        -8.353717693916352
      ],
      [
        "▁Vous",
        -8.356443826299211
      ],
      [
        "▁taxaw",
        -8.356556080431162
      ],
      [
        "▁celui",
        -8.35716006404488
      ],
      [
        "▁pouvait",
        -8.359665653383635
      ],
      [
        "▁qu'on",
        -8.360117534302812
      ],
      [
        "▁noppi",
        -8.361508989061711
      ],
      [
        "▁yeneen",
        -8.361640793811874
      ],
      [
        "▁mer",
        -8.362990575715688
      ],
      [
        "▁Sama",
        -8.367689984905596
      ],
      [
        "ante",
        -8.370382483702318
      ],
      [
        "um",
        -8.374781645591618
      ],
      [
        "-là",
        -8.37479223848347
      ],
      [
        "▁E",
        -8.37571146453971
      ],
      [
        "▁nee",
        -8.377746163576104
      ],
      [
        "afa",
        -8.378632358724108
      ],
      [
        "▁Na",
        -8.380527827272525
      ],
      [
        "▁tudd",
        -8.382570708819603
      ],
      [
        "uñu",
        -8.383385007197688
      ],
      [
        "▁jël",
        -8.387256276867143
      ],
      [
        "▁vers",
        -8.392167760561708
      ],
      [
        "▁Que",
        -8.393695130454702
      ],
      [
        "▁dee",
        -8.398005911661663
      ],
      [
        "▁Naka",
        -8.401996760142708
      ],
      [
        "▁France",
        -8.40207987608337
      ],
      [
        "▁yaakaar",
        -8.402207897523251
      ],
      [
        "▁ceux-là",
        -8.402289859325979
      ],
      [
        "▁devant",
        -8.405602591633295
      ],
      [
        "▁Xale",
        -8.406832745774118
      ],
      [
        "▁aucun",
        -8.408270709885318
      ],
      [
        "▁xamul",
        -8.408891635480536
      ],
      [
        "▁sol",
        -8.409662934805958
      ],
      [
        "▁Man",
        -8.410058921723582
      ],
      [
        "▁ñuul",
        -8.410201227537295
      ],
      [
        "▁aujourd'hui",
        -8.412209597199732
      ],
      [
        "▁B",
        -8.4125746449524
      ],
      [
        "▁metti",
        -8.415723914851126
      ],
      [
        "h",
        -8.416478685191478
      ],
      [
        "▁gaal",
        -8.419725173321776
      ],
      [
        "▁fàttaliku",
        -8.42848462369371
      ],
      [
        "▁kan",
        -8.432069906958146
      ],
      [
        "▁fas",
        -8.43235141898372
      ],
      [
        "▁elle",
        -8.435060555390303
      ],
      [
        "▁lan",
        -8.440639355131452
      ],
      [
        "▁qu'",
        -8.441795601898608
      ],
      [
        "▁dañ",
        -8.4448324061038
      ],
      [
        "▁hommes",
        -8.446764523667595
      ],
      [
        "▁forêt",
        -8.449478595841125
      ],
      [
        "▁Wànte",
        -8.4495108343183
      ],
      [
        "▁là-bas",
        -8.44960944956589
      ],
      [
        "▁Dan",
        -8.449653742197594
      ],
      [
        "▁xalaat",
        -8.44974485560321
      ],
      [
        "autour",
        -8.450525095927249
      ],
      [
        "▁donné",
        -8.457341303572251
      ],
      [
        "▁l'a",
        -8.459763233418368
      ],
      [
        "▁For",
        -8.459823229682382
      ],
      [
        "▁puis",
        -8.467688055754355
      ],
      [
        "▁travers",
        -8.46924885997909
      ],
      [
        "▁seul",
        -8.471002299178515
      ],
      [
        "▁xol",
        -8.471047677583162
      ],
      [
        "▁bout",
        -8.472602960763387
      ],
      [
        "▁no",
        -8.474670801259794
      ],
      [
        "▁village",
        -8.47691741398575
      ],
      [
        "▁haut",
        -8.478711055960611
      ],
      [
        "▁fan",
        -8.480692220846317
      ],
      [
        "▁case",
        -8.481372231701917
      ],
      [
        "leen",
        -8.481632469555679
      ],
      [
        "▁tànk",
        -8.483572502470732
      ],
      [
        "▁passé",
        -8.48550015683158
      ],
      [
        "▁So",
        -8.48595700668464
      ],
      [
        "▁Ken",
        -8.487874934543116
      ],
      [
        "▁dóor",
        -8.48945512137763
      ],
      [
        "ook",
        -8.490575172443865
      ],
      [
        "nu",
        -8.491938849782095
      ],
      [
        "▁autres",
        -8.493431403244772
      ],
      [
        "▁dana",
        -8.493765598075822
      ],
      [
        "▁bii",
        -8.498534720092692
      ],
      [
        "igéen",
        -8.499271176691233
      ],
      [
        "▁Móris",
        -8.499390117916056
      ],
      [
        "▁soleil",
        -8.499551418640218
      ],
      [
        "▁n'étai",
        -8.50166779880835
      ],
      [
        "▁Niseryaa",
        -8.503246195991904
      ],
      [
        "▁jeex",
        -8.50528415162726
      ],
      [
        "▁yàgg",
        -8.505456745574676
      ],
      [
        "▁topp",
        -8.507982027360715
      ],
      [
        "▁guddi",
        -8.509521917606673
      ],
      [
        "▁lañ",
        -8.510203897263253
      ],
      [
        "▁d'autres",
        -8.512411810686924
      ],
      [
        "▁bord",
        -8.523543695950774
      ],
      [
        "▁n'avai",
        -8.5245763129025
      ],
      [
        "▁leer",
        -8.526028914220444
      ],
      [
        "vaient",
        -8.52789399500562
      ],
      [
        "▁fin",
        -8.528694047596321
      ],
      [
        "eurs",
        -8.528798960382474
      ],
      [
        "▁C'étai",
        -8.531949545785073
      ],
      [
        "▁route",
        -8.536779802519796
      ],
      [
        "▁Quan",
        -8.537179051869957
      ],
      [
        "▁s'",
        -8.540076448064896
      ],
      [
        "ou",
        -8.54398625825116
      ],
      [
        "▁Nigeria",
        -8.552188801598435
      ],
      [
        "▁souviens",
        -8.552192866737975
      ],
      [
        "▁question",
        -8.552260785357603
      ],
      [
        "▁grand-mère",
        -8.552344680195588
      ],
      [
        "▁quelqu'un",
        -8.552372997291215
      ],
      [
        "▁doom-aadama",
        -8.552388350863065
      ],
      [
        "▁seulement",
        -8.552758971540358
      ],
      [
        "▁Keneen",
        -8.552798367316587
      ],
      [
        "▁Bansoo",
        -8.55387922818522
      ],
      [
        "▁réy",
        -8.556165062723997
      ],
      [
        "▁jaay",
        -8.556735391091877
      ],
      [
        "▁Yaa",
        -8.558898560528739
      ],
      [
        "▁Waa",
        -8.560012054850525
      ],
      [
        "in",
        -8.561591894632517
      ],
      [
        "▁xonq",
        -8.561893271719564
      ],
      [
        "▁maam",
        -8.563730780981704
      ],
      [
        "▁daal",
        -8.565001667559013
      ],
      [
        "▁vo",
        -8.565623186447803
      ],
      [
        "▁sorte",
        -8.567549626013493
      ],
      [
        "▁pu",
        -8.567684671800471
      ],
      [
        "aan",
        -8.568093762042022
      ],
      [
        "▁lii",
        -8.569349504742606
      ],
      [
        "▁door",
        -8.571323538079202
      ],
      [
        "na",
        -8.57183691171131
      ],
      [
        "▁day",
        -8.57308590024796
      ],
      [
        "▁égaré",
        -8.575600188509739
      ],
      [
        "▁dellu",
        -8.57655841119212
      ],
      [
        "▁Bëgg",
        -8.576653986541942
      ],
      [
        "ax",
        -8.578145549153126
      ],
      [
        "▁jàpp",
        -8.579062398050946
      ],
      [
        "▁sui",
        -8.580015765271815
      ],
      [
        "iers",
        -8.581903354572836
      ],
      [
        "▁Au",
        -8.582013200842503
      ],
      [
        "▁jox",
        -8.584693761350005
      ],
      [
        "té",
        -8.588311637726257
      ],
      [
        "▁in",
        -8.589141550825707
      ],
      [
        "▁rivière",
        -8.59194548141889
      ],
      [
        "▁ville",
        -8.595590222987276
      ],
      [
        "▁lion",
        -8.596607727494899
      ],
      [
        "si",
        -8.599865474691743
      ],
      [
        "▁yee",
        -8.60095310825213
      ],
      [
        "▁bon",
        -8.601180659707413
      ],
      [
        "▁Samba",
        -8.60748266728078
      ],
      [
        "▁S'il",
        -8.607510814904973
      ],
      [
        "▁cheval",
        -8.607544075932868
      ],
      [
        "▁njëkk",
        -8.607799851766606
      ],
      [
        "▁nettali",
        -8.607862957220023
      ],
      [
        "▁gaa",
        -8.609444566357226
      ],
      [
        "▁fourmis",
        -8.609826540359409
      ],
      [
        "▁vache",
        -8.610452691923944
      ],
      [
        "▁aperç",
        -8.612711384733784
      ],
      [
        "▁Y",
        -8.613750691606855
      ],
      [
        "▁soir",
        -8.6143839726354
      ],
      [
        "vait",
        -8.615998904315063
      ],
      [
        "▁Laobe",
        -8.616742160872535
      ],
      [
        "▁murs",
        -8.617066354534192
      ],
      [
        "▁faj",
        -8.619228993530541
      ],
      [
        "▁regard",
        -8.622999893573363
      ],
      [
        "▁enfant",
        -8.623665267932466
      ],
      [
        "ux",
        -8.623820913260595
      ],
      [
        "▁Seet",
        -8.627180046431508
      ],
      [
        "▁ta",
        -8.628831757189218
      ],
      [
        "▁ëpp",
        -8.633371715840452
      ],
      [
        "▁étai",
        -8.634316810412738
      ],
      [
        "ées",
        -8.634353213351883
      ],
      [
        "koon",
        -8.63568565267661
      ],
      [
        "'exil",
        -8.6373547209735
      ],
      [
        "▁jiit",
        -8.639881442471625
      ],
      [
        "▁quan",
        -8.641429497035547
      ],
      [
        "▁gàtt",
        -8.646030460485292
      ],
      [
        "▁seet",
        -8.652613693438548
      ],
      [
        "▁dëkki",
        -8.653289465500322
      ],
      [
        "béré",
        -8.657567553943252
      ],
      [
        "elle",
        -8.661149321814847
      ],
      [
        "▁n'ai",
        -8.66157647977163
      ],
      [
        "▁dina",
        -8.663286032807168
      ],
      [
        "▁wut",
        -8.663383119601686
      ],
      [
        "▁Banso",
        -8.66404617922773
      ],
      [
        "▁Mi",
        -8.664344299517769
      ],
      [
        "▁bàyyi",
        -8.664679164650853
      ],
      [
        "▁Alors",
        -8.666095470546875
      ],
      [
        "▁tàmbal",
        -8.666205695115636
      ],
      [
        "▁gunóor",
        -8.666279013459869
      ],
      [
        "▁Àngalteer",
        -8.666443580409421
      ],
      [
        "▁Àngale",
        -8.666942011942561
      ],
      [
        "▁gee",
        -8.669282844735928
      ],
      [
        "▁weex",
        -8.671872792591532
      ],
      [
        "▁plaine",
        -8.672608499415832
      ],
      [
        "tôt",
        -8.67486911901227
      ],
      [
        "▁mujje",
        -8.675376426501074
      ],
      [
        "▁quelle",
        -8.675872296428604
      ],
      [
        "▁Elle",
        -8.67648495786617
      ],
      [
        "▁doomu",
        -8.676505804371914
      ],
      [
        "▁W",
        -8.676994675638484
      ],
      [
        "avoir",
        -8.677797703930743
      ],
      [
        "▁tel",
        -8.678254146664734
      ],
      [
        "ez",
        -8.679067216804796
      ],
      [
        "▁peau",
        -8.6804111923565
      ],
      [
        "wul",
        -8.681058018317218
      ],
      [
        "▁w",
        -8.683568203899448
      ],
      [
        "▁amoon",
        -8.685171128931778
      ],
      [
        "▁toit",
        -8.688023210204694
      ],
      [
        "tte",
        -8.688051416439418
      ],
      [
        "▁Pour",
        -8.69197031043914
      ],
      [
        "ans",
        -8.695054405911861
      ],
      [
        "ir",
        -8.695075025731185
      ],
      [
        "▁voyage",
        -8.695707441802387
      ],
      [
        "▁grand",
        -8.696274803291242
      ],
      [
        "▁Ay",
        -8.697219271054887
      ],
      [
        "-na",
        -8.698930425882661
      ],
      [
        "ient",
        -8.700315326835334
      ],
      [
        "▁bokk",
        -8.706571794640062
      ],
      [
        "▁baay",
        -8.707100849513358
      ],
      [
        "▁masu",
        -8.710224872892862
      ],
      [
        "▁moment",
        -8.713418980636403
      ],
      [
        "▁dama",
        -8.714818370224485
      ],
      [
        "uma",
        -8.718574632282671
      ],
      [
        "▁dox",
        -8.719165491178533
      ],
      [
        "an",
        -8.719785632483092
      ],
      [
        "▁Ca",
        -8.72179485291697
      ],
      [
        "▁waaj",
        -8.723036051724662
      ],
      [
        "▁Bamenda",
        -8.724942709332286
      ],
      [
        "▁lorsqu",
        -8.726273175096678
      ],
      [
        "àddaay",
        -8.727306851954932
      ],
      [
        "▁way-jur",
        -8.72744069710397
      ],
      [
        "▁Kooku",
        -8.728267811477313
      ],
      [
        "▁dunyaa",
        -8.728701485384647
      ],
      [
        "▁l'Ouest",
        -8.728720669108432
      ],
      [
        "▁téere",
        -8.729633800052245
      ],
      [
        "▁do",
        -8.730840515363415
      ],
      [
        "▁demkoon",
        -8.731285660102774
      ],
      [
        "loo",
        -8.731913362643894
      ],
      [
        "▁contre",
        -8.734144747480459
      ],
      [
        "▁Cela",
        -8.735706013196644
      ],
      [
        "▁reste",
        -8.736417613689255
      ],
      [
        "▁Kon",
        -8.736816396410582
      ],
      [
        "▁ans",
        -8.7371546384827
      ],
      [
        "▁côté",
        -8.737948625677856
      ],
      [
        "faral",
        -8.73874561434901
      ],
      [
        "▁kii",
        -8.740110841252914
      ],
      [
        "▁leneen",
        -8.743060550409464
      ],
      [
        "▁ñàkk",
        -8.748584536780903
      ],
      [
        "▁mal",
        -8.748773060915592
      ],
      [
        "▁toute",
        -8.749679980540801
      ],
      [
        "▁parler",
        -8.749958571205266
      ],
      [
        "▁laaj",
        -8.753262476342039
      ],
      [
        "▁yeux",
        -8.7576784776024
      ],
      [
        "▁Sur",
        -8.761785032803328
      ],
      [
        "▁R",
        -8.76339924611084
      ],
      [
        "quelle",
        -8.766383889094667
      ],
      [
        "quoi",
        -8.76665253464063
      ],
      [
        "▁nun",
        -8.769089735337776
      ],
      [
        "▁mot",
        -8.769434308233647
      ],
      [
        "ère",
        -8.769704638693973
      ],
      [
        "▁ami",
        -8.771371808830818
      ],
      [
        "▁Di",
        -8.771455419886784
      ],
      [
        "▁Ra",
        -8.77301106329924
      ],
      [
        "▁won",
        -8.774100479582867
      ],
      [
        "▁grande",
        -8.775321447401279
      ],
      [
        "vent",
        -8.777124301737086
      ],
      [
        "▁moomu",
        -8.778285443855452
      ],
      [
        "▁jours",
        -8.77957594882013
      ],
      [
        "▁vrai",
        -8.781022589197942
      ],
      [
        "enn",
        -8.781932455427198
      ],
      [
        "▁ét",
        -8.785638392821271
      ],
      [
        "aux",
        -8.788288795689622
      ],
      [
        "▁doom",
        -8.788470162450334
      ],
      [
        "▁quel",
        -8.790727070432325
      ],
      [
        "se",
        -8.790883175096743
      ],
      [
        "ement",
        -8.791025393263567
      ],
      [
        "▁rafet",
        -8.794025291555352
      ],
      [
        "▁Yaw",
        -8.79500927332491
      ],
      [
        "▁House",
        -8.795020059904257
      ],
      [
        "▁làrme",
        -8.795070002109279
      ],
      [
        "▁jéem",
        -8.795159268355604
      ],
      [
        "▁violence",
        -8.795279310201808
      ],
      [
        "▁doktoor",
        -8.795333068610237
      ],
      [
        "▁l'eau",
        -8.795383103172338
      ],
      [
        "▁moroom",
        -8.795456023098657
      ],
      [
        "▁simplement",
        -8.795651688296022
      ],
      [
        "▁seetlu",
        -8.795868256293916
      ],
      [
        "▁yaatu",
        -8.79797671284071
      ],
      [
        "▁cause",
        -8.79810308138167
      ],
      [
        "▁ňaar",
        -8.799343234123185
      ],
      [
        "▁gént",
        -8.799675017999306
      ],
      [
        "▁bëggul",
        -8.800517644620104
      ],
      [
        "▁Noonu",
        -8.801660954864461
      ],
      [
        "▁niroo",
        -8.802007456167708
      ],
      [
        "▁ceux",
        -8.8039298823639
      ],
      [
        "▁deret",
        -8.805238461345551
      ],
      [
        "ons",
        -8.806771976724415
      ],
      [
        "▁dame",
        -8.807611194705649
      ],
      [
        "▁parte",
        -8.809319800758553
      ],
      [
        "▁L'",
        -8.810872571532604
      ],
      [
        "▁long",
        -8.81108955925086
      ],
      [
        "▁gaynde",
        -8.81276077469856
      ],
      [
        "▁ciel",
        -8.814497736704075
      ],
      [
        "▁feebar",
        -8.817872441433414
      ],
      [
        "▁v",
        -8.818359814559749
      ],
      [
        "p",
        -8.820438747038482
      ],
      [
        "ek",
        -8.8217674374367
      ],
      [
        "or",
        -8.82395642235797
      ],
      [
        "▁fille",
        -8.826452858774953
      ],
      [
        "▁villages",
        -8.826659027888669
      ],
      [
        "avons",
        -8.826992980641217
      ],
      [
        "▁tudde",
        -8.827738812609788
      ],
      [
        "▁mii",
        -8.828276788010962
      ],
      [
        "▁jii",
        -8.83045111042237
      ],
      [
        "▁xaw",
        -8.832021575964696
      ],
      [
        "▁fut",
        -8.833398402366116
      ],
      [
        "▁aurait",
        -8.839419508582615
      ],
      [
        "▁we",
        -8.839853376974109
      ],
      [
        "▁l'ai",
        -8.843488608642783
      ],
      [
        "ng",
        -8.845970725462337
      ],
      [
        "aat",
        -8.847022834366433
      ],
      [
        "▁doi",
        -8.847807623335653
      ],
      [
        "ais",
        -8.850068547025884
      ],
      [
        "▁souvenir",
        -8.850125339048589
      ],
      [
        "▁pa",
        -8.855195706501338
      ],
      [
        "kk",
        -8.857415769924097
      ],
      [
        "▁X",
        -8.859898653308388
      ],
      [
        "▁K",
        -8.860652882225327
      ],
      [
        "▁jeune",
        -8.865131151566246
      ],
      [
        "▁faa",
        -8.865374579375798
      ],
      [
        "▁vécu",
        -8.86615842358809
      ],
      [
        "▁Aucun",
        -8.866312552415629
      ],
      [
        "▁jardin",
        -8.866399614915206
      ],
      [
        "▁parles",
        -8.866404141420714
      ],
      [
        "▁tangor",
        -8.866441292119669
      ],
      [
        "▁mémoire",
        -8.86648908377898
      ],
      [
        "▁famille",
        -8.866489906712445
      ],
      [
        "▁Celui-là",
        -8.866595399910027
      ],
      [
        "▁tollu",
        -8.86666418191033
      ],
      [
        "▁Saint-Louis",
        -8.866701110168895
      ],
      [
        "▁Waaw",
        -8.866754714910593
      ],
      [
        "▁gaaw",
        -8.866859349524466
      ],
      [
        "▁celui-ci",
        -8.866930054317633
      ],
      [
        "armée",
        -8.867164993734768
      ],
      [
        "▁l'hôpital",
        -8.867175567427712
      ],
      [
        "▁Qu'il",
        -8.867241864898208
      ],
      [
        "▁wóor",
        -8.86785047245637
      ],
      [
        "▁manière",
        -8.867944434596714
      ],
      [
        "▁séen",
        -8.868307268389493
      ],
      [
        "▁heures",
        -8.868459194933909
      ],
      [
        "▁bois",
        -8.868468953564868
      ],
      [
        "me",
        -8.86872254873148
      ],
      [
        "mu",
        -8.870213607082786
      ],
      [
        "▁taxoon",
        -8.870255594279014
      ],
      [
        "▁mépp",
        -8.870973936431422
      ],
      [
        "▁Yàlla",
        -8.871790631493692
      ],
      [
        "▁Ndar",
        -8.872757212969628
      ],
      [
        "ra",
        -8.872792629311334
      ],
      [
        "ur",
        -8.872851924049598
      ],
      [
        "▁s'il",
        -8.873209142021016
      ],
      [
        "▁tuuti",
        -8.873631484840198
      ],
      [
        "óon",
        -8.874734890335448
      ],
      [
        "▁Dama",
        -8.875534955306321
      ],
      [
        "ns",
        -8.876117426021708
      ],
      [
        "▁soit",
        -8.876732714907694
      ],
      [
        "▁Ben",
        -8.878068453620596
      ],
      [
        "▁montagnes",
        -8.880414338417872
      ],
      [
        "naa",
        -8.882480456038873
      ],
      [
        "atum",
        -8.883299712662382
      ],
      [
        "kki",
        -8.886202577857201
      ],
      [
        "▁romb",
        -8.887746349399386
      ],
      [
        "▁sore",
        -8.89005880320752
      ],
      [
        "nga",
        -8.890462326342904
      ],
      [
        "ël",
        -8.89046552073571
      ],
      [
        "▁mort",
        -8.892928075025942
      ],
      [
        "▁dexu",
        -8.893561906387845
      ],
      [
        "▁Kan",
        -8.895005993232735
      ],
      [
        "kër",
        -8.89598757704648
      ],
      [
        "eur",
        -8.896512228339645
      ],
      [
        "▁defe",
        -8.897800531796953
      ],
      [
        "▁defar",
        -8.898659016073145
      ],
      [
        "▁song",
        -8.899683577070942
      ],
      [
        "voir",
        -8.900813362875958
      ],
      [
        "age",
        -8.903278959764677
      ],
      [
        "▁Wax",
        -8.903954146606662
      ],
      [
        "▁dire",
        -8.904156377970587
      ],
      [
        "▁toutes",
        -8.905335619304845
      ],
      [
        "maa",
        -8.908111271257056
      ],
      [
        "▁vient",
        -8.909032162565865
      ],
      [
        "▁fàtte",
        -8.909352607282365
      ],
      [
        "▁travail",
        -8.909600030995902
      ],
      [
        "▁connu",
        -8.910762532741721
      ],
      [
        "ri",
        -8.915594827132061
      ],
      [
        "▁plu",
        -8.915633353357517
      ],
      [
        "▁dellusi",
        -8.915647701776615
      ],
      [
        "▁près",
        -8.919587847547346
      ],
      [
        "▁ndox",
        -8.920210755791306
      ],
      [
        "▁dëkke",
        -8.924141094980902
      ],
      [
        "▁fond",
        -8.92989082339433
      ],
      [
        "▁mënoo",
        -8.933604490700853
      ],
      [
        "q",
        -8.935600889949484
      ],
      [
        "▁tàng",
        -8.941272243550955
      ],
      [
        "▁weesoo",
        -8.943164241313537
      ],
      [
        "▁Mbaa",
        -8.943190638050682
      ],
      [
        "▁liberté",
        -8.94324629363898
      ],
      [
        "▁gis-gis",
        -8.94327930793662
      ],
      [
        "▁Peut-",
        -8.943306691255705
      ],
      [
        "▁diiwaan",
        -8.943347176673495
      ],
      [
        "▁sedd",
        -8.943382744578113
      ],
      [
        "▁britannique",
        -8.943452747678126
      ],
      [
        "▁asamaan",
        -8.943499661517935
      ],
      [
        "▁tard",
        -8.943865756574784
      ],
      [
        "▁Yéen",
        -8.943951027551915
      ],
      [
        "▁surtout",
        -8.944158934450543
      ],
      [
        "▁Bés",
        -8.944324444110965
      ],
      [
        "▁ubbi",
        -8.944686048176887
      ],
      [
        "▁lequel",
        -8.944833581045335
      ],
      [
        "▁Maurice",
        -8.945525037754182
      ],
      [
        "▁Ibo",
        -8.94658575779767
      ],
      [
        "▁xelam",
        -8.946878858206114
      ],
      [
        "ň",
        -8.948600958842114
      ],
      [
        "▁Jox",
        -8.951509410417247
      ],
      [
        "▁acheté",
        -8.952315169074787
      ],
      [
        "▁peut",
        -8.952432224160297
      ],
      [
        "▁xeet",
        -8.953028282388887
      ],
      [
        "▁Frãs",
        -8.953121181600283
      ],
      [
        "uy",
        -8.95612236502389
      ],
      [
        "as",
        -8.95732150332582
      ],
      [
        "▁àgg",
        -8.95752900380625
      ],
      [
        "▁ici",
        -8.957947869387498
      ],
      [
        "▁biti",
        -8.958258387647406
      ],
      [
        "▁Bamendaa",
        -8.95870624432873
      ],
      [
        "tes",
        -8.959022691930318
      ],
      [
        "▁miir",
        -8.959063393750045
      ],
      [
        "▁T",
        -8.959775873626386
      ],
      [
        "▁trop",
        -8.960426093731005
      ],
      [
        "▁réewu",
        -8.963226416583366
      ],
      [
        "▁partie",
        -8.964041081968478
      ],
      [
        "▁viendra",
        -8.964051734620092
      ],
      [
        "em",
        -8.965580242217278
      ],
      [
        "st-ce",
        -8.969426742091443
      ],
      [
        "▁mat",
        -8.969949206420644
      ],
      [
        "▁suba",
        -8.973206412391775
      ],
      [
        "▁grands",
        -8.973345000746493
      ],
      [
        "r.",
        -8.975881210524456
      ],
      [
        "▁bant",
        -8.976605667661065
      ],
      [
        "▁An",
        -8.977560423447686
      ],
      [
        "aa",
        -8.977727401199559
      ],
      [
        "▁parlait",
        -8.978760059068895
      ],
      [
        "▁port",
        -8.97927070434589
      ],
      [
        "▁pars",
        -8.983614742011055
      ],
      [
        "▁forme",
        -8.984359519714097
      ],
      [
        "▁tali",
        -8.98525839230521
      ],
      [
        "du",
        -8.989741467103489
      ],
      [
        "▁aller",
        -8.992913179244312
      ],
      [
        "▁fo",
        -8.993723462865463
      ],
      [
        "▁allé",
        -8.997180370304733
      ],
      [
        "▁carte",
        -8.998107216790205
      ],
      [
        "yan",
        -8.998817868369152
      ],
      [
        "aire",
        -8.99908619695192
      ],
      [
        "bi",
        -8.999308033412627
      ],
      [
        "▁coup",
        -9.001117681973529
      ],
      [
        "▁noir",
        -9.002218232229854
      ],
      [
        "▁choses",
        -9.00345773808817
      ],
      [
        "▁vienne",
        -9.004374490636248
      ],
      [
        "▁May",
        -9.00450555150478
      ],
      [
        "▁bee",
        -9.00458702398499
      ],
      [
        "▁gudd",
        -9.008813337537527
      ],
      [
        "▁lanu",
        -9.009638664728845
      ],
      [
        "▁main",
        -9.009884261613244
      ],
      [
        "ug",
        -9.010449115372971
      ],
      [
        "▁s'en",
        -9.011844626715622
      ],
      [
        "▁D'",
        -9.011925157720778
      ],
      [
        "▁googu",
        -9.01409643905544
      ],
      [
        "estr",
        -9.01470218536172
      ],
      [
        "▁fàttali",
        -9.015507378235359
      ],
      [
        "▁passe",
        -9.018051158935974
      ],
      [
        "▁qu'un",
        -9.01918687047393
      ],
      [
        "▁baa",
        -9.019790606472448
      ],
      [
        "▁paix",
        -9.024723075615155
      ],
      [
        "▁lekk",
        -9.025768664530792
      ],
      [
        "▁point",
        -9.026103064847394
      ],
      [
        "▁Homme",
        -9.026214386375194
      ],
      [
        "▁Lawbe",
        -9.02627878064989
      ],
      [
        "▁déglu",
        -9.026388267413878
      ],
      [
        "▁Cherche",
        -9.026403688726798
      ],
      [
        "▁delloo",
        -9.026450117490306
      ],
      [
        "▁soldaar",
        -9.026492453206206
      ],
      [
        "▁xar-kanam",
        -9.02653584011721
      ],
      [
        "▁mellentaan",
        -9.026561151490768
      ],
      [
        "▁boroom",
        -9.026577988437424
      ],
      [
        "▁passage",
        -9.026647301733458
      ],
      [
        "▁Jaam",
        -9.026771490710392
      ],
      [
        "▁Defe",
        -9.026824431523382
      ],
      [
        "▁yuuxu",
        -9.027045399283633
      ],
      [
        "▁appris",
        -9.027322632962418
      ],
      [
        "▁sori",
        -9.027404325739598
      ],
      [
        "▁tëj",
        -9.02749073661266
      ],
      [
        "▁Wall",
        -9.027738444794322
      ],
      [
        "▁xanaa",
        -9.028824271057873
      ],
      [
        "▁Demal",
        -9.030414648857551
      ],
      [
        "▁ngoon",
        -9.031047043596148
      ],
      [
        "▁Moom",
        -9.032241011130715
      ],
      [
        "▁kàddu",
        -9.032286062363223
      ],
      [
        "beek",
        -9.032987309046455
      ],
      [
        "▁baat",
        -9.033353571986929
      ],
      [
        "▁beneen",
        -9.033391828588165
      ],
      [
        "▁jëkk",
        -9.034244795259417
      ],
      [
        "▁semble",
        -9.034258511637786
      ],
      [
        "▁nangu",
        -9.034562487730158
      ],
      [
        "▁qu",
        -9.03461538875662
      ],
      [
        "fin",
        -9.034896489461639
      ],
      [
        "▁géej",
        -9.035061974658282
      ],
      [
        "▁celle",
        -9.035301097625526
      ],
      [
        "▁Seen",
        -9.035545810054224
      ],
      [
        "óor",
        -9.042698177648578
      ],
      [
        "▁lieu",
        -9.043236938134413
      ],
      [
        "▁jënd",
        -9.04419581874101
      ],
      [
        "▁neen",
        -9.046048726967909
      ],
      [
        "▁marche",
        -9.04783142591318
      ],
      [
        "ité",
        -9.04816234203654
      ],
      [
        "iy",
        -9.04845197692675
      ],
      [
        "▁doomi",
        -9.049446939166572
      ],
      [
        "est-ce",
        -9.049698339314636
      ],
      [
        "▁Là",
        -9.04984563932142
      ],
      [
        "ku",
        -9.051475329459711
      ],
      [
        "▁bari",
        -9.053748022395961
      ],
      [
        "▁sang",
        -9.0543016283322
      ],
      [
        "▁n'en",
        -9.057733865590906
      ],
      [
        "▁fleuves",
        -9.058568089689206
      ],
      [
        "▁jant",
        -9.059481970792055
      ],
      [
        "▁duñu",
        -9.060254801716367
      ],
      [
        "ati",
        -9.062952528467187
      ],
      [
        "▁nanu",
        -9.062963254462487
      ],
      [
        "▁wone",
        -9.06333985480865
      ],
      [
        "▁po",
        -9.068632877712984
      ],
      [
        "▁mêmes",
        -9.070706779605882
      ],
      [
        "avait",
        -9.07435485593085
      ],
      [
        "▁ŋgii",
        -9.08002957201903
      ],
      [
        "des",
        -9.080646870031948
      ],
      [
        "je",
        -9.085759245337334
      ],
      [
        "▁tur",
        -9.087736078009467
      ],
      [
        "ub",
        -9.088599213757309
      ],
      [
        "▁yem",
        -9.09183062589932
      ],
      [
        "▁Ñ",
        -9.092077787379058
      ],
      [
        "▁pres",
        -9.095167311562697
      ],
      [
        "▁jàng",
        -9.09563478170361
      ],
      [
        "▁sais",
        -9.097528202336788
      ],
      [
        "▁dayo",
        -9.098137426837727
      ],
      [
        "▁noo",
        -9.09833932741998
      ],
      [
        "iez",
        -9.100099335901827
      ],
      [
        "▁serai",
        -9.104048624816382
      ],
      [
        "▁mar",
        -9.105561927898755
      ],
      [
        "▁petit",
        -9.109145899053575
      ],
      [
        "▁regarde",
        -9.111889482486093
      ],
      [
        "▁doxandéem",
        -9.113643254452604
      ],
      [
        "▁Guyane",
        -9.115497842801112
      ],
      [
        "▁rawati",
        -9.115501299184148
      ],
      [
        "▁Xammee",
        -9.115532336724568
      ],
      [
        "▁frère",
        -9.11556061427462
      ],
      [
        "▁Kër",
        -9.115604825680906
      ],
      [
        "▁force",
        -9.115705267014393
      ],
      [
        "-ci",
        -9.115727546008841
      ],
      [
        "▁xéy",
        -9.115857898738192
      ],
      [
        "▁Moonte",
        -9.116260930179884
      ],
      [
        "▁kese",
        -9.116456179717558
      ],
      [
        "▁raison",
        -9.116613497182133
      ],
      [
        "▁jéggi",
        -9.116727761562151
      ],
      [
        "▁yëkkati",
        -9.117120911860606
      ],
      [
        "▁Guwiyaan",
        -9.117183668332252
      ],
      [
        "▁poste",
        -9.117220680075999
      ],
      [
        "▁d'Ogoja",
        -9.117250442978111
      ],
      [
        "▁bëj-saalum",
        -9.117272955207591
      ],
      [
        "▁longue",
        -9.117303243936057
      ],
      [
        "▁faisait",
        -9.117385810956213
      ],
      [
        "▁xeer",
        -9.117409115693544
      ],
      [
        "▁silence",
        -9.117623006317594
      ],
      [
        "▁fépp",
        -9.117884583537789
      ],
      [
        "▁Moi",
        -9.118144746989717
      ],
      [
        "▁debout",
        -9.118780128861669
      ],
      [
        "▁t'a",
        -9.119185095070003
      ],
      [
        "▁yóbbu",
        -9.119314589119023
      ],
      [
        "▁bateau",
        -9.11969819896496
      ],
      [
        "▁feneen",
        -9.119923163875477
      ],
      [
        "▁bépp",
        -9.12009119707022
      ],
      [
        "▁dàll",
        -9.121368836911717
      ],
      [
        "▁cuir",
        -9.12322005612573
      ],
      [
        "▁yaw",
        -9.123321975792612
      ],
      [
        "▁dëkku",
        -9.124974239835584
      ],
      [
        "▁d'Europe",
        -9.125526136297685
      ],
      [
        "▁màgget",
        -9.126044067857084
      ],
      [
        "▁xaar",
        -9.126094337814543
      ],
      [
        "biy",
        -9.126527677144226
      ],
      [
        "▁Sud",
        -9.126835441664202
      ],
      [
        "▁tund",
        -9.126884392410389
      ],
      [
        "▁sortir",
        -9.127301151163797
      ],
      [
        "uis",
        -9.127868586369594
      ],
      [
        "▁l'un",
        -9.128128150863267
      ],
      [
        "▁kilifa",
        -9.128849847506435
      ],
      [
        "▁toujours",
        -9.12934562083912
      ],
      [
        "▁Koo",
        -9.129521576318172
      ],
      [
        "▁kanam",
        -9.13178997525021
      ],
      [
        "»",
        -9.13335628938766
      ],
      [
        "▁cour",
        -9.134098096979367
      ],
      [
        "▁arbres",
        -9.13510297432959
      ],
      [
        "▁Daan",
        -9.136237080973608
      ],
      [
        "près",
        -9.138933148102256
      ],
      [
        "▁miin",
        -9.139649970393773
      ],
      [
        "kati",
        -9.139779672309091
      ],
      [
        "▁teel",
        -9.14119967488486
      ],
      [
        "▁roi",
        -9.141712112233451
      ],
      [
        "▁Quelle",
        -9.14178720336091
      ],
      [
        "▁sàkk",
        -9.14254550123663
      ],
      [
        "▁takk",
        -9.144553233977808
      ],
      [
        "▁avions",
        -9.144985265841544
      ],
      [
        "▁per",
        -9.15312358769662
      ],
      [
        "▁fees",
        -9.158070039181238
      ],
      [
        "een",
        -9.1624959171948
      ],
      [
        "waat",
        -9.162606445249878
      ],
      [
        "kkali",
        -9.170332069936922
      ],
      [
        "▁daa",
        -9.170868250591953
      ],
      [
        "▁égarée",
        -9.17106542912815
      ],
      [
        "▁porte",
        -9.173184411609643
      ],
      [
        "▁ragal",
        -9.174225620591324
      ],
      [
        "lle",
        -9.175109016896593
      ],
      [
        "nte",
        -9.176147105618893
      ],
      [
        "li",
        -9.176325165703382
      ],
      [
        "ure",
        -9.177402835481002
      ],
      [
        "▁fleuve",
        -9.177662152857737
      ],
      [
        "naka",
        -9.180214600279193
      ],
      [
        "▁livre",
        -9.180406977811664
      ],
      [
        "and",
        -9.187022721570036
      ],
      [
        "▁première",
        -9.191785636336935
      ],
      [
        "▁photo",
        -9.19213951263065
      ],
      [
        "▁doy",
        -9.19294814766901
      ],
      [
        "▁Foo",
        -9.193865302251357
      ],
      [
        "▁Nga",
        -9.195217899322603
      ],
      [
        "▁deme",
        -9.195377011430853
      ],
      [
        "▁partis",
        -9.199275331327645
      ],
      [
        "▁bind",
        -9.20422546475248
      ],
      [
        "▁kook",
        -9.20518029109948
      ],
      [
        "réer",
        -9.205237409338821
      ],
      [
        "▁vi",
        -9.20798354065845
      ],
      [
        "▁të",
        -9.209274178030308
      ],
      [
        "bu",
        -9.209854176265075
      ],
      [
        "▁tii",
        -9.214049995854467
      ],
      [
        "▁pirogue",
        -9.215489780841766
      ],
      [
        "▁Moussa",
        -9.215490247308884
      ],
      [
        "▁lumière",
        -9.215491993904996
      ],
      [
        "▁nouveau",
        -9.215492562799517
      ],
      [
        "▁mbóot",
        -9.215566207980771
      ],
      [
        "▁chevaux",
        -9.21557103411365
      ],
      [
        "▁façon",
        -9.215576771693732
      ],
      [
        "▁Nord",
        -9.21560368007424
      ],
      [
        "▁Ñàkk",
        -9.215617229929318
      ],
      [
        "▁subë",
        -9.215621330639806
      ],
      [
        "▁téye",
        -9.215633757894144
      ],
      [
        "▁sentiment",
        -9.215678395309212
      ],
      [
        "▁Fatim",
        -9.215741059120964
      ],
      [
        "▁ngelaw",
        -9.215811542023788
      ],
      [
        "▁manger",
        -9.216066402894995
      ],
      [
        "▁metit",
        -9.216183550638622
      ],
      [
        "▁Gone",
        -9.216517572270469
      ],
      [
        "▁voix",
        -9.217008720768558
      ],
      [
        "▁vieille",
        -9.21743984147456
      ],
      [
        "ar",
        -9.217589076483026
      ],
      [
        "▁xuus",
        -9.217623066782735
      ],
      [
        "▁l'enfant",
        -9.217735177677348
      ],
      [
        "▁chez",
        -9.218133051916643
      ],
      [
        "▁moins",
        -9.218530087940232
      ],
      [
        "▁jege",
        -9.219821427605325
      ],
      [
        "-t-il",
        -9.221076691531197
      ],
      [
        "▁Voil",
        -9.221192321590612
      ],
      [
        "us",
        -9.22167758886196
      ],
      [
        "ngi",
        -9.222258619093717
      ],
      [
        "atim",
        -9.22233351002247
      ],
      [
        "▁woo",
        -9.222380558307592
      ],
      [
        "▁ñëwul",
        -9.224320099155447
      ],
      [
        "▁fenn",
        -9.22447367434193
      ],
      [
        "▁bras",
        -9.224874357260521
      ],
      [
        "▁maanaa",
        -9.225846587874438
      ],
      [
        "▁lesquel",
        -9.225913188984093
      ],
      [
        "▁daj",
        -9.22774419270727
      ],
      [
        "atul",
        -9.228146503520321
      ],
      [
        "▁meloon",
        -9.228211404136108
      ],
      [
        "▁endroit",
        -9.22942731613966
      ],
      [
        "▁buur",
        -9.230286977992275
      ],
      [
        "▁pieds",
        -9.23062603110441
      ],
      [
        "▁gor",
        -9.230668469941252
      ],
      [
        "▁naaj",
        -9.231396708077977
      ],
      [
        "▁neneen",
        -9.233875811495123
      ],
      [
        "▁joor",
        -9.235028983862456
      ],
      [
        "▁wetu",
        -9.235653554745909
      ],
      [
        "▁Non",
        -9.235844467920227
      ],
      [
        "-tu",
        -9.239405547364298
      ],
      [
        "tion",
        -9.24132350439759
      ],
      [
        "é.",
        -9.243309963208482
      ],
      [
        "▁wet",
        -9.243759884139726
      ],
      [
        "▁mains",
        -9.246520687454193
      ],
      [
        "▁garabi",
        -9.248683067248283
      ],
      [
        "▁partes",
        -9.253561383373594
      ],
      [
        "▁doo",
        -9.254354687880115
      ],
      [
        "▁tere",
        -9.255921924651938
      ],
      [
        "ès",
        -9.25744421022538
      ],
      [
        "pendan",
        -9.2582759712752
      ],
      [
        "▁weer",
        -9.258335265883218
      ],
      [
        "▁wuti",
        -9.259000367690817
      ],
      [
        "▁fil",
        -9.259640815220935
      ],
      [
        "▁Loo",
        -9.26858682137864
      ],
      [
        "▁Xa",
        -9.269480720210979
      ],
      [
        "▁Ne",
        -9.273677558488465
      ],
      [
        "pp",
        -9.275148603822245
      ],
      [
        "▁arrivé",
        -9.275598296093337
      ],
      [
        "▁janoo",
        -9.27711137839054
      ],
      [
        "gi",
        -9.279177174133707
      ],
      [
        "▁Ou",
        -9.279473212122443
      ],
      [
        "▁connais",
        -9.288220072080785
      ],
      [
        "▁yab",
        -9.288977122720631
      ],
      [
        "wu",
        -9.289545969765012
      ],
      [
        "▁jan",
        -9.289761317885485
      ],
      [
        "▁tefes",
        -9.290153041602423
      ],
      [
        "▁sera",
        -9.290981785183904
      ],
      [
        "▁xool",
        -9.29226430631287
      ],
      [
        "▁partira",
        -9.293571516257398
      ],
      [
        "▁Saa",
        -9.29763558999198
      ],
      [
        "▁vas",
        -9.301199417140804
      ],
      [
        "▁Par",
        -9.306427976067935
      ],
      [
        "▁Fi",
        -9.307965325884558
      ],
      [
        "woo",
        -9.310872377420512
      ],
      [
        "▁petite",
        -9.316840829302373
      ],
      [
        "û",
        -9.317048296929983
      ],
      [
        "▁tekk",
        -9.317500425351732
      ],
      [
        "ukki",
        -9.317875449843095
      ],
      [
        "▁nom",
        -9.322734347023319
      ],
      [
        "-il",
        -9.32334718327595
      ],
      [
        "▁lit",
        -9.32373066657243
      ],
      [
        "▁dënn",
        -9.325546455148903
      ],
      [
        "▁Aujourd'hui",
        -9.326600876525308
      ],
      [
        "▁bëj-gànnaar",
        -9.326600876735405
      ],
      [
        "▁wëndéelu",
        -9.326600876773632
      ],
      [
        "▁Biyaafaraa",
        -9.32660087734494
      ],
      [
        "▁lëndëm",
        -9.32660089398154
      ],
      [
        "▁sowu-jant",
        -9.326601298890314
      ],
      [
        "▁société",
        -9.32660234611362
      ],
      [
        "▁bànneex",
        -9.326602426221156
      ],
      [
        "▁Jamono",
        -9.326603430335963
      ],
      [
        "▁Ainsi",
        -9.326608436716612
      ],
      [
        "▁Nataal",
        -9.326610331323948
      ],
      [
        "▁Sérère",
        -9.326612925586076
      ],
      [
        "▁diggante",
        -9.326616439700626
      ],
      [
        "▁Déedéet",
        -9.32663572989496
      ],
      [
        "▁Almaañ",
        -9.326639549173345
      ],
      [
        "▁cosaan",
        -9.326660411645719
      ],
      [
        "▁d'Afrique",
        -9.326784081001428
      ],
      [
        "▁l'âge",
        -9.326828814546694
      ],
      [
        "▁Teewul",
        -9.327009274733273
      ],
      [
        "▁longtemps",
        -9.327193281620316
      ],
      [
        "▁chaleur",
        -9.327241989098551
      ],
      [
        "▁parfois",
        -9.32736632303012
      ],
      [
        "▁gisaat",
        -9.327832997522254
      ],
      [
        "▁marché",
        -9.327903675393383
      ],
      [
        "▁loxoom",
        -9.328155733645698
      ],
      [
        "▁pourtant",
        -9.328244999091059
      ],
      [
        "ts",
        -9.32824776388523
      ],
      [
        "▁Ñoom",
        -9.328431024482702
      ],
      [
        "▁fanaan",
        -9.328505969386615
      ],
      [
        "▁d'herbes",
        -9.328696737004714
      ],
      [
        "▁aw",
        -9.328968964819053
      ],
      [
        "▁yëngu",
        -9.329564249152076
      ],
      [
        "▁jaŋg",
        -9.329707751524241
      ],
      [
        "▁parlé",
        -9.329867592156978
      ],
      [
        "▁assis",
        -9.330090979792459
      ],
      [
        "▁jàll",
        -9.330120924353833
      ],
      [
        "▁tukki",
        -9.330258390152668
      ],
      [
        "venir",
        -9.330450675262659
      ],
      [
        "▁insectes",
        -9.330757698008178
      ],
      [
        "▁couleur",
        -9.330967197721868
      ],
      [
        "▁Niis",
        -9.331109354853343
      ],
      [
        "▁savane",
        -9.331380451904794
      ],
      [
        "▁gro",
        -9.33183174054383
      ],
      [
        "▁train",
        -9.332257996777702
      ],
      [
        "ance",
        -9.332986838694282
      ],
      [
        "▁yit",
        -9.333024020201618
      ],
      [
        "▁alors",
        -9.33439789868382
      ],
      [
        "▁ŋgoon",
        -9.334496687333019
      ],
      [
        "▁étions",
        -9.334603893741306
      ],
      [
        "▁këram",
        -9.334759635725888
      ],
      [
        "▁côte",
        -9.33609807570651
      ],
      [
        "▁lieux",
        -9.33662400926961
      ],
      [
        "▁Doo",
        -9.336627072555583
      ],
      [
        "▁booba",
        -9.337643331821454
      ],
      [
        "▁telle",
        -9.339851405806304
      ],
      [
        "▁garçons",
        -9.340745261001768
      ],
      [
        "▁donc",
        -9.342052160021947
      ],
      [
        "▁enfance",
        -9.343809178650439
      ],
      [
        "▁bo",
        -9.343825177034521
      ],
      [
        "▁rek",
        -9.344695384325107
      ],
      [
        "▁Noon",
        -9.347343337764014
      ],
      [
        "▁demande",
        -9.348015421857905
      ],
      [
        "▁ñaan",
        -9.34875005334553
      ],
      [
        "▁lakk",
        -9.349768557330263
      ],
      [
        "▁r",
        -9.350550714684275
      ],
      [
        "▁ñooñu",
        -9.350750665673479
      ],
      [
        "▁avais",
        -9.355530988248143
      ],
      [
        "▁Alma",
        -9.355773730749464
      ],
      [
        "▁j'",
        -9.357619505427632
      ],
      [
        "▁waral",
        -9.359681316711715
      ],
      [
        "▁routes",
        -9.360453134214687
      ],
      [
        "i.",
        -9.360678950680672
      ],
      [
        "ewul",
        -9.36068182362144
      ],
      [
        "▁tan",
        -9.36096971627244
      ],
      [
        "mi",
        -9.361010028875528
      ],
      [
        "▁J'",
        -9.36197371105992
      ],
      [
        "▁gan",
        -9.364687337018342
      ],
      [
        "aller",
        -9.368673058321743
      ],
      [
        "▁seule",
        -9.36972677286997
      ],
      [
        "▁viennes",
        -9.370901981650986
      ],
      [
        "▁kee",
        -9.371109070025561
      ],
      [
        "▁yére",
        -9.372375299378378
      ],
      [
        "▁Ña",
        -9.373070188227604
      ],
      [
        "ata",
        -9.381852914264146
      ],
      [
        "▁donne",
        -9.383057588294179
      ],
      [
        "▁Bon",
        -9.387807656961217
      ],
      [
        "▁alal",
        -9.38795972754515
      ],
      [
        "▁froid",
        -9.388671951549423
      ],
      [
        "ti",
        -9.389038377449614
      ],
      [
        "ppelle",
        -9.390498983404767
      ],
      [
        "▁tool",
        -9.39056595734672
      ],
      [
        "▁es",
        -9.391854910868892
      ],
      [
        "▁co",
        -9.394269010542999
      ],
      [
        "▁pris",
        -9.398088793546707
      ],
      [
        "▁kon",
        -9.399484951659423
      ],
      [
        "▁wa",
        -9.399933396578522
      ],
      [
        "▁entier",
        -9.400132153673418
      ],
      [
        "▁samp",
        -9.400642221516488
      ],
      [
        "▁gise",
        -9.401064297683794
      ],
      [
        "▁waxtaan",
        -9.401341914302389
      ],
      [
        "▁tàkk",
        -9.40219970177265
      ],
      [
        "▁rêve",
        -9.40342637947693
      ],
      [
        "▁rey",
        -9.404459074418586
      ],
      [
        "▁nature",
        -9.408824026026442
      ],
      [
        "▁ira",
        -9.411231794442257
      ],
      [
        "▁wute",
        -9.414886206759963
      ],
      [
        "▁eu",
        -9.420908600641866
      ],
      [
        "▁africain",
        -9.421634205032134
      ],
      [
        "▁nii",
        -9.424303813912587
      ],
      [
        "▁Ya",
        -9.429929764483777
      ],
      [
        "▁montagne",
        -9.430070178358507
      ],
      [
        "▁montre",
        -9.4338514878029
      ],
      [
        "▁daawu",
        -9.434020688921276
      ],
      [
        "▁eux",
        -9.434279223630174
      ],
      [
        "▁rouge",
        -9.434309115632114
      ],
      [
        "▁m'en",
        -9.434545787528249
      ],
      [
        "▁mo",
        -9.435018595252009
      ],
      [
        "▁visage",
        -9.435415910581714
      ],
      [
        "▁garçon",
        -9.435814002875917
      ],
      [
        "▁Go",
        -9.435847304893073
      ],
      [
        "▁vent",
        -9.436100189614208
      ],
      [
        "tant",
        -9.436190138207586
      ],
      [
        "▁feu",
        -9.437316179029327
      ],
      [
        "▁yar",
        -9.439926901199193
      ],
      [
        "▁pro",
        -9.441598462186764
      ],
      [
        "▁nopp",
        -9.441763615828137
      ],
      [
        "gré",
        -9.442480347826894
      ],
      [
        "ko",
        -9.443104971216806
      ],
      [
        "▁Ri",
        -9.443108043808365
      ],
      [
        "▁d'a",
        -9.44474674947809
      ],
      [
        "▁tay",
        -9.447390548373747
      ],
      [
        "▁feeñ",
        -9.448549355128671
      ],
      [
        "▁dagg",
        -9.449134385535174
      ],
      [
        "mbaar",
        -9.449675672878898
      ],
      [
        "▁Ta",
        -9.449696714631935
      ],
      [
        "▁yilif",
        -9.449935484194292
      ],
      [
        "▁yegg",
        -9.450155602108556
      ],
      [
        "añoo",
        -9.451012036455616
      ],
      [
        "▁Victoria",
        -9.4516008765347
      ],
      [
        "▁Léeg-léeg",
        -9.451600876546316
      ],
      [
        "▁médicaments",
        -9.451600876862184
      ],
      [
        "▁kéemaane",
        -9.45160087854336
      ],
      [
        "▁xàmmee",
        -9.451601389431042
      ],
      [
        "▁chaussettes",
        -9.45160390804995
      ],
      [
        "▁Legoos",
        -9.451606666450669
      ],
      [
        "▁xaalis",
        -9.451608316498934
      ],
      [
        "▁Monsieur",
        -9.451617782331082
      ],
      [
        "▁puissance",
        -9.45163042309748
      ],
      [
        "▁Réew",
        -9.451638833406614
      ],
      [
        "▁L'Afrique",
        -9.45164376477252
      ],
      [
        "▁keroog",
        -9.45165483260417
      ],
      [
        "▁janeer",
        -9.451656280518366
      ],
      [
        "▁làmp",
        -9.451658032627279
      ],
      [
        "▁yëngal",
        -9.451661419135561
      ],
      [
        "▁blanche",
        -9.45168003376791
      ],
      [
        "▁feuilles",
        -9.451733092617339
      ],
      [
        "▁l'amour",
        -9.451740194120152
      ],
      [
        "▁jàmm",
        -9.451761521539396
      ],
      [
        "▁douceur",
        -9.451834718932405
      ],
      [
        "▁région",
        -9.451927125442817
      ],
      [
        "▁Dëkk",
        -9.451995954008398
      ],
      [
        "▁dernier",
        -9.452020133383467
      ],
      [
        "▁plein",
        -9.452061319834488
      ],
      [
        "▁Officer",
        -9.452071939912216
      ],
      [
        "▁fajkat",
        -9.4521285411354
      ],
      [
        "▁gémmiñ",
        -9.452195861497586
      ],
      [
        "▁cherche",
        -9.452238858149935
      ],
      [
        "▁sànni",
        -9.452249279459366
      ],
      [
        "▁Musaa",
        -9.453633670004333
      ],
      [
        "▁Buur",
        -9.45367090948428
      ],
      [
        "▁wow",
        -9.453750327507143
      ],
      [
        "▁Nice",
        -9.454015975851163
      ],
      [
        "z",
        -9.45429869779614
      ],
      [
        "▁meubles",
        -9.454317499031147
      ],
      [
        "▁salle",
        -9.456047209911748
      ],
      [
        "▁Kookule",
        -9.456487183956092
      ],
      [
        "▁proche",
        -9.456571554387757
      ],
      [
        "▁départ",
        -9.456903735766026
      ],
      [
        "▁Woo",
        -9.456937574991855
      ],
      [
        "▁Mën",
        -9.456947539529398
      ],
      [
        "oŋ",
        -9.457647306279348
      ],
      [
        "▁bonne",
        -9.45790826480234
      ],
      [
        "▁riir",
        -9.458388869196025
      ],
      [
        "▁tubaab",
        -9.458901034165326
      ],
      [
        "▁faut",
        -9.46005668867793
      ],
      [
        "▁prend",
        -9.460080132207565
      ],
      [
        "▁waxtu",
        -9.46178264228078
      ],
      [
        "▁sew",
        -9.462223840416677
      ],
      [
        "▁compte",
        -9.463628697172233
      ],
      [
        "▁ex",
        -9.463980008681315
      ],
      [
        "▁hautes",
        -9.464237352819467
      ],
      [
        "▁goût",
        -9.46471617798803
      ],
      [
        "▁ainsi",
        -9.464999169073021
      ],
      [
        "▁cœur",
        -9.466095998967631
      ],
      [
        "▁sauvages",
        -9.466659348679007
      ],
      [
        "▁màggat",
        -9.467170764256862
      ],
      [
        "ture",
        -9.467179865134556
      ],
      [
        "▁bunt",
        -9.467193047897585
      ],
      [
        "▁Sunu",
        -9.46952869987577
      ],
      [
        "▁noms",
        -9.469882045802882
      ],
      [
        "▁Oui",
        -9.470021490243882
      ],
      [
        "oom",
        -9.471022173915912
      ],
      [
        "ooy",
        -9.471437953590552
      ],
      [
        "▁unique",
        -9.472406076190838
      ],
      [
        "▁chambre",
        -9.473084386959023
      ],
      [
        "▁pouvai",
        -9.473154254270586
      ],
      [
        "▁bir",
        -9.47328310837943
      ],
      [
        "▁bëggée",
        -9.47379009130552
      ],
      [
        "▁t'ai",
        -9.477189158866034
      ],
      [
        "el",
        -9.478623537363134
      ],
      [
        "▁dalal",
        -9.479190265948777
      ],
      [
        "▁photos",
        -9.481965078453094
      ],
      [
        "ez-vous",
        -9.485405752972236
      ],
      [
        "▁waar",
        -9.487024250772706
      ],
      [
        "▁noirs",
        -9.48927334762926
      ],
      [
        "▁teew",
        -9.489382732311324
      ],
      [
        "▁petits",
        -9.492407337830318
      ],
      [
        "▁Boo",
        -9.492573940261476
      ],
      [
        "▁inter",
        -9.493154951121824
      ],
      [
        "▁instant",
        -9.493762274765782
      ],
      [
        "▁No",
        -9.494770617230655
      ],
      [
        "▁diis",
        -9.497869277062991
      ],
      [
        "▁bees",
        -9.499964873726638
      ],
      [
        "▁Dañ",
        -9.503705204773237
      ],
      [
        "▁sonal",
        -9.50398860156601
      ],
      [
        "nd",
        -9.506236155367842
      ],
      [
        "aw",
        -9.506790583005527
      ],
      [
        "▁sago",
        -9.508634793097064
      ],
      [
        "ta",
        -9.50888958705561
      ],
      [
        "m.",
        -9.509027764201564
      ],
      [
        "impression",
        -9.509628676739755
      ],
      [
        "▁yenu",
        -9.51013736313074
      ],
      [
        "▁jusqu'au",
        -9.513249924975018
      ],
      [
        "istrict",
        -9.515694233644169
      ],
      [
        "ñeen",
        -9.515861778855673
      ],
      [
        "eŋ",
        -9.518385811225443
      ],
      [
        "nce",
        -9.51880540832668
      ],
      [
        "ba",
        -9.522330393298754
      ],
      [
        "▁raconte",
        -9.522349341811683
      ],
      [
        "okk",
        -9.524852267856968
      ],
      [
        "▁guy",
        -9.525122599982135
      ],
      [
        "ré",
        -9.526193059472753
      ],
      [
        "▁fee",
        -9.528630184903548
      ],
      [
        "▁nëbb",
        -9.529439236846015
      ],
      [
        "ral",
        -9.530158650317354
      ],
      [
        "▁parc",
        -9.531203960778688
      ],
      [
        "mes",
        -9.533600188168808
      ],
      [
        "▁pënd",
        -9.53435727414643
      ],
      [
        "▁devai",
        -9.534762617391323
      ],
      [
        "ables",
        -9.535509714894596
      ],
      [
        "▁noon",
        -9.53772613432988
      ],
      [
        "▁Pe",
        -9.54032170022392
      ],
      [
        "▁dénd",
        -9.542912273262306
      ],
      [
        "ëgg",
        -9.546439223960476
      ],
      [
        "ine",
        -9.546853447908424
      ],
      [
        "▁jeu",
        -9.546934078789487
      ],
      [
        "llait",
        -9.551197679043021
      ],
      [
        "▁retour",
        -9.552089849382982
      ],
      [
        "▁tar",
        -9.553290430504639
      ],
      [
        "▁êtes",
        -9.553485469987272
      ],
      [
        "▁peur",
        -9.557896694250337
      ],
      [
        "▁cours",
        -9.561344941415117
      ],
      [
        "▁rëdd",
        -9.562329619162039
      ],
      [
        "▁sant",
        -9.564266864956952
      ],
      [
        "▁scorpion",
        -9.566008255011344
      ],
      [
        "▁Laob",
        -9.569536599779088
      ],
      [
        "▁Me",
        -9.569903477139867
      ],
      [
        "▁nan",
        -9.573245337184858
      ],
      [
        "dé",
        -9.574239830305576
      ],
      [
        "gu",
        -9.576064108262948
      ],
      [
        "▁vivre",
        -9.576688894425962
      ],
      [
        "▁tày",
        -9.578353433127578
      ],
      [
        "était",
        -9.58159448757216
      ],
      [
        "▁pied",
        -9.588490483073663
      ],
      [
        "▁blanc",
        -9.590190220883782
      ],
      [
        "▁palanteer",
        -9.593063446199485
      ],
      [
        "▁on",
        -9.593918616896495
      ],
      [
        "▁simple",
        -9.593943054914263
      ],
      [
        "▁gouvernement",
        -9.594458019439136
      ],
      [
        "▁sukkuraat",
        -9.594458019666973
      ],
      [
        "▁loppitaan",
        -9.59445802019393
      ],
      [
        "▁bonheur",
        -9.594458136638277
      ],
      [
        "▁difficile",
        -9.59445816841001
      ],
      [
        "▁Ayijoo",
        -9.594458426583486
      ],
      [
        "▁boeuf",
        -9.594458734778947
      ],
      [
        "▁tôle",
        -9.59445880808483
      ],
      [
        "▁màrse",
        -9.594459730083383
      ],
      [
        "▁premier",
        -9.594462019810425
      ],
      [
        "▁Óbudu",
        -9.594467114831144
      ],
      [
        "▁solitude",
        -9.59446932546577
      ],
      [
        "▁wurus",
        -9.594472471772011
      ],
      [
        "▁mauvais",
        -9.594478128301942
      ],
      [
        "▁Deŋk",
        -9.5944807507207
      ],
      [
        "▁mourir",
        -9.594495459097075
      ],
      [
        "▁xëcc",
        -9.594503388150738
      ],
      [
        "▁l'Angleterre",
        -9.594562540496181
      ],
      [
        "▁juddoo",
        -9.594572160732831
      ],
      [
        "▁yeksi",
        -9.594586460838116
      ],
      [
        "▁woto",
        -9.594588324869276
      ],
      [
        "▁beaucoup",
        -9.594590242318752
      ],
      [
        "▁rëcc",
        -9.594594475821488
      ],
      [
        "▁campement",
        -9.594627550281514
      ],
      [
        "▁plateaux",
        -9.594665841650718
      ],
      [
        "▁croyai",
        -9.594670463987576
      ],
      [
        "▁dëgër",
        -9.594684675862991
      ],
      [
        "▁simoŋ",
        -9.59470143758561
      ],
      [
        "▁tëdd",
        -9.594749038300604
      ],
      [
        "▁ensemble",
        -9.594782637781279
      ],
      [
        "▁nelaw",
        -9.59488866516282
      ],
      [
        "▁d'abord",
        -9.594899425212763
      ],
      [
        "mettre",
        -9.595246532029892
      ],
      [
        "▁jàppale",
        -9.59531740114305
      ],
      [
        "▁au-de",
        -9.59544817091626
      ],
      [
        "▁large",
        -9.595676778967686
      ],
      [
        "▁courant",
        -9.595879641494642
      ],
      [
        "▁raglu",
        -9.595888934558817
      ],
      [
        "▁immense",
        -9.595919119859483
      ],
      [
        "▁bett",
        -9.596278122731254
      ],
      [
        "▁yëf",
        -9.596283591465548
      ],
      [
        "▁wépp",
        -9.596328579356998
      ],
      [
        "▁mucc",
        -9.596379689357333
      ],
      [
        "▁nuages",
        -9.59642989824744
      ],
      [
        "▁images",
        -9.596666083791426
      ],
      [
        "ndant",
        -9.596815994151644
      ],
      [
        "▁Ó",
        -9.596980383455799
      ],
      [
        "▁depuis",
        -9.597111604424926
      ],
      [
        "▁reconnu",
        -9.597155705195101
      ],
      [
        "▁Ayaa",
        -9.597364379589129
      ],
      [
        "▁ňuul",
        -9.597644184174056
      ],
      [
        "▁palmes",
        -9.597668745685784
      ],
      [
        "▁Parle",
        -9.598316941868891
      ],
      [
        "▁Fais",
        -9.598451239298864
      ],
      [
        "▁dehors",
        -9.59871406371956
      ],
      [
        "▁époque",
        -9.598790506991158
      ],
      [
        "▁woowe",
        -9.598953520169609
      ],
      [
        "▁naqadi",
        -9.599108937882637
      ],
      [
        "▁ventre",
        -9.599125844492859
      ],
      [
        "▁àngale",
        -9.599223427639666
      ],
      [
        "▁kowam",
        -9.59982024436549
      ],
      [
        "▁accroché",
        -9.601079373850787
      ],
      [
        "▁termites",
        -9.60123101709068
      ],
      [
        "▁district",
        -9.601523894342641
      ],
      [
        "▁màndi",
        -9.601929022123485
      ],
      [
        "ag",
        -9.601981935233752
      ],
      [
        "▁seng",
        -9.602044358558878
      ],
      [
        "▁vaste",
        -9.602199732355182
      ],
      [
        "▁be",
        -9.602559502999283
      ],
      [
        "▁lonk",
        -9.60278342641935
      ],
      [
        "▁fuir",
        -9.604139499997972
      ],
      [
        "▁sowu",
        -9.604188103441002
      ],
      [
        "▁Foofu",
        -9.604745004689619
      ],
      [
        "▁mukk",
        -9.605834464882888
      ],
      [
        "▁âge",
        -9.606491135499256
      ],
      [
        "▁porteurs",
        -9.607136517068078
      ],
      [
        "os",
        -9.607497615273095
      ],
      [
        "▁Fekk",
        -9.60769242871669
      ],
      [
        "▁foo",
        -9.607904101048295
      ],
      [
        "▁voit",
        -9.608836729410742
      ],
      [
        "▁soppi",
        -9.608854974044638
      ],
      [
        "odeur",
        -9.609751048848844
      ],
      [
        "▁anglaise",
        -9.61106654076055
      ],
      [
        "▁t'",
        -9.611810831737817
      ],
      [
        "▁ndey",
        -9.612816705940977
      ],
      [
        "lli",
        -9.613838288325422
      ],
      [
        "▁comment",
        -9.615474050418273
      ],
      [
        "ry",
        -9.615616425738931
      ],
      [
        "▁chemins",
        -9.615626219929448
      ],
      [
        "ji",
        -9.615636108589161
      ],
      [
        "▁masuma",
        -9.6177188262103
      ],
      [
        "▁arrivés",
        -9.617774594987802
      ],
      [
        "ukaay",
        -9.6179969967565
      ],
      [
        "▁viennent",
        -9.618072690143153
      ],
      [
        "▁Nu",
        -9.618277807420299
      ],
      [
        "▁buntu",
        -9.618380378043046
      ],
      [
        "ër",
        -9.620644530312221
      ],
      [
        "▁parents",
        -9.621712528342043
      ],
      [
        "▁Yo",
        -9.62198539500005
      ],
      [
        "ga",
        -9.622115659062041
      ],
      [
        "▁jafe",
        -9.622613083351252
      ],
      [
        "▁doxe",
        -9.623027091220651
      ],
      [
        "▁e",
        -9.623390280775652
      ],
      [
        "'habitude",
        -9.625853972133589
      ],
      [
        "▁cru",
        -9.626719889772865
      ],
      [
        "geen",
        -9.62685284049621
      ],
      [
        "▁jeunes",
        -9.627165523522493
      ],
      [
        "▁mb",
        -9.627523934841768
      ],
      [
        "▁Ki",
        -9.629259315298393
      ],
      [
        "▁premières",
        -9.630154166571536
      ],
      [
        "ch",
        -9.631478664438303
      ],
      [
        "▁coloniale",
        -9.631499563602482
      ],
      [
        "autorité",
        -9.632461372239481
      ],
      [
        "▁jàn",
        -9.634515166491688
      ],
      [
        "yu",
        -9.636026552959228
      ],
      [
        "▁all",
        -9.638191624704277
      ],
      [
        "▁yat",
        -9.638803570433428
      ],
      [
        "▁siiw",
        -9.64444442975797
      ],
      [
        "au",
        -9.645343917576538
      ],
      [
        "nde",
        -9.64573267507597
      ],
      [
        "rait",
        -9.646866180508148
      ],
      [
        "▁der",
        -9.647226447884588
      ],
      [
        "▁ñibbi",
        -9.64799597745806
      ],
      [
        "▁l'é",
        -9.649266485385457
      ],
      [
        "t.",
        -9.649451189760057
      ],
      [
        "ût",
        -9.64952568118318
      ],
      [
        "ces",
        -9.6500213663506
      ],
      [
        "▁yaak",
        -9.650251337626038
      ],
      [
        "▁teewu",
        -9.651825111360674
      ],
      [
        "▁wan",
        -9.653887354152772
      ],
      [
        "▁kay",
        -9.654368241685894
      ],
      [
        "▁woy",
        -9.65440269022194
      ],
      [
        "maana",
        -9.659120410418293
      ],
      [
        "▁vais",
        -9.659393145789446
      ],
      [
        "▁con",
        -9.660883998843731
      ],
      [
        "▁dakk",
        -9.661031004019677
      ],
      [
        "▁t'en",
        -9.661803157240664
      ],
      [
        "▁mbë",
        -9.662800839906186
      ],
      [
        "▁crise",
        -9.663873438678422
      ],
      [
        "▁taxu",
        -9.66770820741687
      ],
      [
        "▁fall",
        -9.669689157009852
      ],
      [
        "quel",
        -9.671377884260776
      ],
      [
        "son",
        -9.671710744971662
      ],
      [
        "▁provi",
        -9.672055167707972
      ],
      [
        "▁donn",
        -9.672243473439606
      ],
      [
        "▁togg",
        -9.672384225840698
      ],
      [
        "▁nañoo",
        -9.67294421422609
      ],
      [
        "-je",
        -9.676317972391825
      ],
      [
        "kom",
        -9.677062899390386
      ],
      [
        "▁enfant-",
        -9.680278288343407
      ],
      [
        "▁kowe",
        -9.680745662341087
      ],
      [
        "▁chasse",
        -9.680749663213575
      ],
      [
        "▁Nda",
        -9.6815685094602
      ],
      [
        "▁ven",
        -9.681802136177364
      ],
      [
        "été",
        -9.683869019456301
      ],
      [
        "▁Nko",
        -9.68518816684503
      ],
      [
        "▁raay",
        -9.687648647257701
      ],
      [
        "àll",
        -9.688768349813149
      ],
      [
        "▁arrivée",
        -9.689567300449154
      ],
      [
        "▁men",
        -9.691069094914953
      ],
      [
        "▁traverse",
        -9.691286961698156
      ],
      [
        "use",
        -9.691394944543553
      ],
      [
        "▁sor",
        -9.692441849622696
      ],
      [
        "-fu",
        -9.693300581544932
      ],
      [
        "▁refuse",
        -9.69559683663281
      ],
      [
        "aay",
        -9.695989554145964
      ],
      [
        "▁Ka",
        -9.696954737689852
      ],
      [
        "ŋga",
        -9.698946850294993
      ],
      [
        "▁Cha",
        -9.701444098268755
      ],
      [
        "▁l'entr",
        -9.702107594989085
      ],
      [
        "▁jàngal",
        -9.702482710716115
      ],
      [
        "▁rencontre",
        -9.705271446247986
      ],
      [
        "entiers",
        -9.705304653735826
      ],
      [
        "▁V",
        -9.709574430175351
      ],
      [
        "▁duma",
        -9.709585340305729
      ],
      [
        "▁Waxa",
        -9.71017400594016
      ],
      [
        "▁jànq",
        -9.711062306583067
      ],
      [
        "vient",
        -9.712703890727928
      ],
      [
        "▁mënu",
        -9.712788719699756
      ],
      [
        "▁xa",
        -9.715536310511087
      ],
      [
        "▁voul",
        -9.717526991958401
      ],
      [
        "▁d'autre",
        -9.717764028505535
      ],
      [
        "▁boue",
        -9.720085857142926
      ],
      [
        "▁tas",
        -9.720606724164806
      ],
      [
        "êtes",
        -9.721701091979352
      ],
      [
        "aata",
        -9.723421380662446
      ],
      [
        "▁fût",
        -9.72388137114422
      ],
      [
        "▁Ja",
        -9.726703935309743
      ],
      [
        "▁jo",
        -9.727152414206476
      ],
      [
        "▁colonial",
        -9.727735706233926
      ],
      [
        "vant",
        -9.728391602786543
      ],
      [
        "neen",
        -9.728428482867795
      ],
      [
        "▁kàttan",
        -9.73075945103173
      ],
      [
        "▁ñooña",
        -9.734023249143089
      ],
      [
        "▁ressenti",
        -9.73490537208462
      ],
      [
        "▁toogu",
        -9.73509487236665
      ],
      [
        "▁destin",
        -9.736104595466225
      ],
      [
        "▁Ar",
        -9.739654963688313
      ],
      [
        "▁éta",
        -9.74150732998369
      ],
      [
        "ëf",
        -9.741795629773863
      ],
      [
        "▁gardé",
        -9.741807363008103
      ],
      [
        "▁anglais",
        -9.741859732262153
      ],
      [
        "ya",
        -9.741875107519403
      ],
      [
        "sait",
        -9.74373029248583
      ],
      [
        "▁maladie",
        -9.744453457980633
      ],
      [
        "▁dun",
        -9.750521126950064
      ],
      [
        "▁étranger",
        -9.750797138687602
      ],
      [
        "▁chemin",
        -9.753512676389965
      ],
      [
        "▁doomi-",
        -9.753883323927708
      ],
      [
        "x-ci",
        -9.75632896530036
      ],
      [
        "part",
        -9.757128399226474
      ],
      [
        "ter",
        -9.758499491268722
      ],
      [
        "▁souffle",
        -9.758839354843628
      ],
      [
        "▁I",
        -9.75964452549577
      ],
      [
        "▁juum",
        -9.760294052006747
      ],
      [
        "▁nja",
        -9.760740215337538
      ],
      [
        "8",
        -9.76110370410461
      ],
      [
        "▁Wiktoryaa",
        -9.761124686058272
      ],
      [
        "▁dëggëntaan",
        -9.761124686205575
      ],
      [
        "▁gàncax",
        -9.76112468677659
      ],
      [
        "▁Mellentaan",
        -9.761124686826781
      ],
      [
        "▁petorool",
        -9.761124700501567
      ],
      [
        "▁officer",
        -9.761124711350188
      ],
      [
        "▁territoire",
        -9.761124712053027
      ],
      [
        "▁auparavant",
        -9.761124758566
      ],
      [
        "▁jaxasoo",
        -9.761124804474486
      ],
      [
        "▁dëgg-dëgg",
        -9.761124834144448
      ],
      [
        "▁ponkal",
        -9.76112499498166
      ],
      [
        "▁ngëlén",
        -9.761125310629787
      ],
      [
        "▁règle",
        -9.761126015547084
      ],
      [
        "▁Yaakaar",
        -9.761127628898596
      ],
      [
        "▁chemise",
        -9.761128992865284
      ],
      [
        "▁Lagos",
        -9.761129197814823
      ],
      [
        "▁désert",
        -9.761130118747097
      ],
      [
        "▁000",
        -9.761130624471761
      ],
      [
        "▁Africains",
        -9.761131066194322
      ],
      [
        "▁vingt",
        -9.761131613249843
      ],
      [
        "▁contact",
        -9.761132783755103
      ],
      [
        "▁Wolof",
        -9.761136982474254
      ],
      [
        "▁Waxtaan",
        -9.761137590335794
      ],
      [
        "▁pierre",
        -9.761143587373589
      ],
      [
        "▁werante",
        -9.761145636613936
      ],
      [
        "▁xibaar",
        -9.761150437127744
      ],
      [
        "▁vérité",
        -9.76115366571292
      ],
      [
        "▁féete",
        -9.761156361117578
      ],
      [
        "▁baaraam",
        -9.761159508294144
      ],
      [
        "▁cheveux",
        -9.761161243842606
      ],
      [
        "▁visite",
        -9.761161764805411
      ],
      [
        "▁l'époque",
        -9.761173486031215
      ],
      [
        "▁d'autrefois",
        -9.76118075431201
      ],
      [
        "▁réalité",
        -9.761188930004591
      ],
      [
        "▁jumtukaay",
        -9.76119967734392
      ],
      [
        "▁jékkee-j",
        -9.761204420746635
      ],
      [
        "▁mbedd",
        -9.761205708075824
      ],
      [
        "▁servir",
        -9.761217419617475
      ],
      [
        "▁frontière",
        -9.761244023260026
      ],
      [
        "▁légère",
        -9.761264484430292
      ],
      [
        "▁cofeel",
        -9.76130877224718
      ],
      [
        "▁kawas",
        -9.76131503956665
      ],
      [
        "▁tàngaay",
        -9.761331771624828
      ],
      [
        "àkk",
        -9.761376374021982
      ],
      [
        "▁herbes",
        -9.761439664622444
      ],
      [
        "▁Tugël",
        -9.761442271422284
      ],
      [
        "▁njabootam",
        -9.761447652766511
      ],
      [
        "▁début",
        -9.761458657204695
      ],
      [
        "▁caaxaan",
        -9.76149840442844
      ],
      [
        "▁rêvé",
        -9.76150562874552
      ],
      [
        "▁jabar",
        -9.761507371707273
      ],
      [
        "▁Génn",
        -9.761510159875618
      ],
      [
        "▁gunge",
        -9.761546058265838
      ],
      [
        "▁place",
        -9.761593891142795
      ],
      [
        "▁tàmm",
        -9.761632353274994
      ],
      [
        "▁j'imagine",
        -9.761652640643343
      ],
      [
        "▁meňň",
        -9.761667404877297
      ],
      [
        "▁dajale",
        -9.761670731450566
      ],
      [
        "waa",
        -9.761703642136194
      ],
      [
        "▁d'esprit",
        -9.76171189227388
      ],
      [
        "▁seetaan",
        -9.761899145736082
      ],
      [
        "▁voiture",
        -9.76190507574942
      ],
      [
        "▁commun",
        -9.761924157493164
      ],
      [
        "▁Donne",
        -9.76195833187143
      ],
      [
        "▁connaissent",
        -9.762028736847281
      ],
      [
        "▁yéeg",
        -9.762029295544941
      ],
      [
        "▁jëfandikoo",
        -9.762030651488912
      ],
      [
        "▁masques",
        -9.762035815228497
      ],
      [
        "▁journée",
        -9.762087574500041
      ],
      [
        "▁revenir",
        -9.762117513294154
      ],
      [
        "▁jàkk",
        -9.76230718355356
      ],
      [
        "▁bouche",
        -9.762311685882874
      ],
      [
        "▁sëkk",
        -9.762320409453002
      ],
      [
        "▁wéet",
        -9.762464940827646
      ],
      [
        "▁arrêté",
        -9.76256297754514
      ],
      [
        "▁travailleurs",
        -9.762622151147756
      ],
      [
        "▁lonet",
        -9.762672715871227
      ],
      [
        "▁mangé",
        -9.762675784775048
      ],
      [
        "▁askan",
        -9.762826073797207
      ],
      [
        "▁njël",
        -9.763019386077023
      ],
      [
        "▁néew",
        -9.763132741923751
      ],
      [
        "▁ressens",
        -9.763316690901135
      ],
      [
        "▁kukk",
        -9.76349479751298
      ],
      [
        "▁brousse",
        -9.763520975233419
      ],
      [
        "▁partout",
        -9.76352521688074
      ],
      [
        "▁agsi",
        -9.763579637917374
      ],
      [
        "▁autre-là",
        -9.763725957122675
      ],
      [
        "▁entend",
        -9.764084606391515
      ],
      [
        "▁fow",
        -9.764286309892025
      ],
      [
        "▁H",
        -9.76462537057809
      ],
      [
        "▁doonkoon",
        -9.764849747616537
      ],
      [
        "▁habitants",
        -9.764925074491675
      ],
      [
        "▁laisser",
        -9.764947486704331
      ],
      [
        "▁tolloo",
        -9.76517895841378
      ],
      [
        "▁malade",
        -9.765352581189555
      ],
      [
        "▁courir",
        -9.765365766665576
      ],
      [
        "▁L'un",
        -9.765388274224524
      ],
      [
        "▁l'aventure",
        -9.765909425415977
      ],
      [
        "▁tontu",
        -9.765924942174063
      ],
      [
        "▁xeex",
        -9.766178061609653
      ],
      [
        "▁jeeg",
        -9.766759618299595
      ],
      [
        "▁muur",
        -9.767150755700701
      ],
      [
        "▁cuisine",
        -9.768053499758793
      ],
      [
        "▁soosu",
        -9.768064355562128
      ],
      [
        "▁aime",
        -9.76809271595831
      ],
      [
        "▁propre",
        -9.76812159582884
      ],
      [
        "▁écrit",
        -9.76973633887426
      ],
      [
        "▁tata",
        -9.77034088268451
      ],
      [
        "▁taamu",
        -9.771153955419656
      ],
      [
        "▁yéemu",
        -9.771459737833414
      ],
      [
        "▁juróomi",
        -9.771817618655076
      ],
      [
        "qui",
        -9.77202310039901
      ],
      [
        "▁yéene",
        -9.772338339258972
      ],
      [
        "ène",
        -9.772623740077524
      ],
      [
        "▁Obudu",
        -9.77309131800143
      ],
      [
        "▁reer",
        -9.774320976862825
      ],
      [
        "▁démb",
        -9.775179989499286
      ],
      [
        "▁sës",
        -9.775687057958379
      ],
      [
        "▁Port",
        -9.776478876778219
      ],
      [
        "▁Ñoo",
        -9.777297147080176
      ],
      [
        "▁thé",
        -9.778583251230353
      ],
      [
        "▁sens",
        -9.778973636797119
      ],
      [
        "▁objets",
        -9.77953510899451
      ],
      [
        "▁yeew",
        -9.78002026586408
      ],
      [
        "ngóor",
        -9.780411908772411
      ],
      [
        "▁jambes",
        -9.780613332556445
      ],
      [
        "▁droit",
        -9.78090798238835
      ],
      [
        "▁histoire",
        -9.78098222033342
      ],
      [
        "▁jotee",
        -9.781334467031813
      ],
      [
        "▁humaine",
        -9.781727641032035
      ],
      [
        "▁sanc",
        -9.781974280652872
      ],
      [
        "▁danga",
        -9.78229799805982
      ],
      [
        "▁africaine",
        -9.782462404746312
      ],
      [
        "▁tiit",
        -9.782817372822194
      ],
      [
        "▁Fii",
        -9.782876353744498
      ],
      [
        "▁habit",
        -9.783195912709783
      ],
      [
        "▁vêtu",
        -9.783596194281964
      ],
      [
        "▁visages",
        -9.78360535051083
      ],
      [
        "▁surga",
        -9.784224643535946
      ],
      [
        "▁certaine",
        -9.784419735789662
      ],
      [
        "▁woowu",
        -9.785394821639201
      ],
      [
        "▁Yara",
        -9.785982631054978
      ],
      [
        "rends",
        -9.787134019790997
      ],
      [
        "▁yen",
        -9.787286822239599
      ],
      [
        "▁jag",
        -9.787363884754113
      ],
      [
        "▁fer",
        -9.788187868003158
      ],
      [
        "▁Afrigam",
        -9.789129657374453
      ],
      [
        "▁tours",
        -9.789299587949698
      ],
      [
        "▁dawal",
        -9.790515560404243
      ],
      [
        "▁Ko",
        -9.791008977190835
      ],
      [
        "▁neex.",
        -9.791801770286002
      ],
      [
        "▁tekki",
        -9.79184743933769
      ],
      [
        "▁Mag",
        -9.791883611827567
      ],
      [
        "▁ressentir",
        -9.792452315576845
      ],
      [
        "ton",
        -9.794551713199535
      ],
      [
        "▁waxoon",
        -9.79617878231083
      ],
      [
        "▁déet",
        -9.798131178778902
      ],
      [
        "ndax",
        -9.798479446248562
      ],
      [
        "▁présent",
        -9.79887014255418
      ],
      [
        "▁française",
        -9.800098382661314
      ],
      [
        "▁commence",
        -9.800312461538635
      ],
      [
        "▁Quelque",
        -9.80248033218013
      ],
      [
        "▁cas",
        -9.80296174889125
      ],
      [
        "▁naissance",
        -9.803575640877122
      ],
      [
        "moon",
        -9.803641427016181
      ],
      [
        "▁më",
        -9.805857739500286
      ],
      [
        "père",
        -9.806246302664984
      ],
      [
        "▁Com",
        -9.806393481788092
      ],
      [
        "▁coono",
        -9.806520466513271
      ],
      [
        "▁soup",
        -9.806844763716475
      ],
      [
        "▁dikk",
        -9.807458234328804
      ],
      [
        "▁nguuru",
        -9.807858396415671
      ],
      [
        "▁yax",
        -9.807962346582077
      ],
      [
        "instant",
        -9.809351646945208
      ],
      [
        "▁màndarga",
        -9.809665304268012
      ],
      [
        "▁Dis",
        -9.812410357628666
      ],
      [
        "▁rivières",
        -9.812562723332322
      ],
      [
        "▁waroo",
        -9.813081712299025
      ],
      [
        "▁portes",
        -9.81389663712067
      ],
      [
        "▁souhaite",
        -9.815863807569254
      ],
      [
        "▁coups",
        -9.81717158205387
      ],
      [
        "ai",
        -9.81761917817017
      ],
      [
        "image",
        -9.819043023428225
      ],
      [
        "umes",
        -9.820257609149353
      ],
      [
        "elles",
        -9.820803714489347
      ],
      [
        "▁ng",
        -9.822126992258074
      ],
      [
        "▁sain",
        -9.822567584804633
      ],
      [
        "▁féex",
        -9.823243581785482
      ],
      [
        "▁h",
        -9.826871046465708
      ],
      [
        "▁ñooñ",
        -9.827604860772063
      ],
      [
        "▁allai",
        -9.828457919890063
      ],
      [
        "▁far",
        -9.830320519338096
      ],
      [
        "▁tab",
        -9.830416686451368
      ],
      [
        "▁car",
        -9.831233193136423
      ],
      [
        "éel",
        -9.8326207708975
      ],
      [
        "▁tànki",
        -9.833444575466233
      ],
      [
        "▁aurais",
        -9.834744562703994
      ],
      [
        "▁fais",
        -9.835562228274107
      ],
      [
        "'individu",
        -9.836161318247909
      ],
      [
        "-y",
        -9.83617480050404
      ],
      [
        "▁Abo",
        -9.836470392430002
      ],
      [
        "▁dan",
        -9.83648964761461
      ],
      [
        "éri",
        -9.838258886278947
      ],
      [
        "exe",
        -9.838399885596834
      ],
      [
        "aanaka",
        -9.840017642767732
      ],
      [
        "▁mari",
        -9.842306269204627
      ],
      [
        "▁devenu",
        -9.848256705241713
      ],
      [
        "▁në",
        -9.849568855123929
      ],
      [
        "▁àpp",
        -9.850341771449253
      ],
      [
        "▁Dana",
        -9.85123061237366
      ],
      [
        "▁serais",
        -9.855839047548914
      ],
      [
        "▁ch",
        -9.855865439317641
      ],
      [
        "▁xet",
        -9.856335463360637
      ],
      [
        "▁sou",
        -9.861804874323028
      ],
      [
        "▁maître",
        -9.863988777827249
      ],
      [
        "▁ton",
        -9.864531173595434
      ],
      [
        "ieux",
        -9.865294960881096
      ],
      [
        "sant",
        -9.865331311835195
      ],
      [
        "▁amen",
        -9.871321176684834
      ],
      [
        "▁danu",
        -9.874122996217105
      ],
      [
        "▁Ngi",
        -9.875488309643428
      ],
      [
        "kkal",
        -9.876232635755148
      ],
      [
        "▁ñeme",
        -9.876337255091558
      ],
      [
        "tation",
        -9.877605004091736
      ],
      [
        "ous",
        -9.880298852147455
      ],
      [
        "▁Ho",
        -9.885112712524085
      ],
      [
        "óo",
        -9.885205253905045
      ],
      [
        "▁cinq",
        -9.887203005042046
      ],
      [
        "▁champ",
        -9.889463674107164
      ],
      [
        "▁prêt",
        -9.891742478585108
      ],
      [
        "▁j'en",
        -9.891897867604825
      ],
      [
        "▁pe",
        -9.895317159236894
      ],
      [
        "▁Liggéey",
        -9.897369078259228
      ],
      [
        "▁Wa",
        -9.898292796063254
      ],
      [
        "▁s'ét",
        -9.899726537651562
      ],
      [
        "▁jou",
        -9.900265831122518
      ],
      [
        "▁pou",
        -9.902834492770355
      ],
      [
        "t-il",
        -9.905181111303559
      ],
      [
        "▁jar",
        -9.905189929612144
      ],
      [
        "▁nguur",
        -9.906984286530232
      ],
      [
        "▁rage",
        -9.907561265218213
      ],
      [
        "entre",
        -9.908926781722613
      ],
      [
        "oy",
        -9.910043911656404
      ],
      [
        "▁bes",
        -9.910261074425343
      ],
      [
        "▁Jo",
        -9.910562173529378
      ],
      [
        "▁dinaa",
        -9.910900234323682
      ],
      [
        "oir",
        -9.911801559928584
      ],
      [
        "▁tee",
        -9.912994260901852
      ],
      [
        "▁Mar",
        -9.914265155575306
      ],
      [
        "▁hu",
        -9.915507785727698
      ],
      [
        "▁français",
        -9.915517829298327
      ],
      [
        "t-ce",
        -9.918241055073631
      ],
      [
        "0",
        -9.918830594072128
      ],
      [
        "▁new",
        -9.920351405765944
      ],
      [
        "▁ressemble",
        -9.921012453646776
      ],
      [
        "n.",
        -9.921440962069784
      ],
      [
        "▁viens",
        -9.921799134595236
      ],
      [
        "▁taw",
        -9.92223857889321
      ],
      [
        "ers",
        -9.922548534391852
      ],
      [
        "▁chaud",
        -9.92276946486733
      ],
      [
        "gal",
        -9.925731564410427
      ],
      [
        "ption",
        -9.927094688211268
      ],
      [
        "co",
        -9.927370437508609
      ],
      [
        "ju",
        -9.927824982397224
      ],
      [
        "▁bâton",
        -9.9278498326573
      ],
      [
        "▁fur",
        -9.929123407877846
      ],
      [
        "▁set",
        -9.929821823906341
      ],
      [
        "cc",
        -9.930218382583138
      ],
      [
        "▁mba",
        -9.930893350687192
      ],
      [
        "▁jur",
        -9.930907240469594
      ],
      [
        "▁garde",
        -9.933344187646409
      ],
      [
        "▁daawul",
        -9.936115978938126
      ],
      [
        "▁sauvage",
        -9.9365928773333
      ],
      [
        "nitu",
        -9.938295215228342
      ],
      [
        "▁làq",
        -9.939202564112154
      ],
      [
        "C",
        -9.93976039866
      ],
      [
        "▁ser",
        -9.940065245009208
      ],
      [
        "ande",
        -9.940267024109856
      ],
      [
        "▁not",
        -9.940422212868468
      ],
      [
        "▁Tou",
        -9.940925485867414
      ],
      [
        "andoo",
        -9.941093020136202
      ],
      [
        "laam",
        -9.943129177568306
      ],
      [
        "▁beau",
        -9.943833664743526
      ],
      [
        "▁frapp",
        -9.943940258090215
      ],
      [
        "▁sopp",
        -9.946240520408264
      ],
      [
        "▁x",
        -9.948478889529735
      ],
      [
        "euse",
        -9.949127370503192
      ],
      [
        "▁suiv",
        -9.950539247171085
      ],
      [
        "▁Xare",
        -9.95082378901298
      ],
      [
        "▁chang",
        -9.952279872898472
      ],
      [
        "ches",
        -9.952534327228333
      ],
      [
        "▁trouve",
        -9.952602029434788
      ],
      [
        "ll",
        -9.952743327790884
      ],
      [
        "▁këru",
        -9.952748939733876
      ],
      [
        "▁màgge",
        -9.95390031415981
      ],
      [
        "▁Ji",
        -9.954233721811795
      ],
      [
        "▁entendu",
        -9.957232700861926
      ],
      [
        "▁l'ét",
        -9.95785598237136
      ],
      [
        "▁camerounais",
        -9.961124686060751
      ],
      [
        "”",
        -9.961124686098179
      ],
      [
        "▁Southampton",
        -9.961124686098179
      ],
      [
        "▁Sefiriis",
        -9.961124686102798
      ],
      [
        "▁Georgetown",
        -9.961124686140082
      ],
      [
        "▁bûcheron",
        -9.961124686145766
      ],
      [
        "▁njàqare",
        -9.96112468625757
      ],
      [
        "▁Adekunle",
        -9.961124686363359
      ],
      [
        "▁Abaakaliki",
        -9.961124694908417
      ],
      [
        "▁termitières",
        -9.961124697422793
      ],
      [
        "▁photographi",
        -9.961124703128403
      ],
      [
        "▁biafrais",
        -9.961124711816579
      ],
      [
        "▁Biafra",
        -9.96112472834714
      ],
      [
        "▁“",
        -9.961124859983578
      ],
      [
        "▁Yoruba",
        -9.961124957235215
      ],
      [
        "▁grand-père",
        -9.96112530137447
      ],
      [
        "▁continent",
        -9.96112539579327
      ],
      [
        "▁Anglais",
        -9.961125797921653
      ],
      [
        "▁Sorstaawun",
        -9.961126061448912
      ],
      [
        "▁probable",
        -9.961128396552855
      ],
      [
        "▁rejoindre",
        -9.961129586442977
      ],
      [
        "▁chaussures",
        -9.96113054178683
      ],
      [
        "▁service",
        -9.96113150691859
      ],
      [
        "▁Moontin",
        -9.961133460444177
      ],
      [
        "▁métier",
        -9.96113578850666
      ],
      [
        "▁ndóol",
        -9.961137747487752
      ],
      [
        "▁Cross",
        -9.96113794981756
      ],
      [
        "▁collines",
        -9.961140916681531
      ],
      [
        "▁branche",
        -9.961141171967835
      ],
      [
        "▁kalaate",
        -9.961144040755308
      ],
      [
        "▁terrible",
        -9.961145511474403
      ],
      [
        "▁Guddi",
        -9.961145643881318
      ],
      [
        "▁compris",
        -9.961146142127648
      ],
      [
        "▁tronc",
        -9.961146762971318
      ],
      [
        "▁alkol",
        -9.961147208685698
      ],
      [
        "▁retraite",
        -9.961149618787108
      ],
      [
        "▁brûlure",
        -9.961153860392427
      ],
      [
        "▁ndànk",
        -9.961156331672885
      ],
      [
        "▁poussière",
        -9.961163149809456
      ],
      [
        "▁karaw",
        -9.961166363695227
      ],
      [
        "▁fecc",
        -9.961193959869098
      ],
      [
        "▁adulte",
        -9.961196303890036
      ],
      [
        "▁xaaju",
        -9.96119956220024
      ],
      [
        "▁Qu'est-ce",
        -9.961210931796256
      ],
      [
        "▁gànnaay",
        -9.961220129653187
      ],
      [
        "▁taabal",
        -9.961232901389401
      ],
      [
        "▁doxantu",
        -9.961234578545659
      ],
      [
        "▁Ceux-là",
        -9.961240703144643
      ],
      [
        "▁noyyi",
        -9.961253035809591
      ],
      [
        "▁gentil",
        -9.961254976209368
      ],
      [
        "▁làquji",
        -9.961265021248424
      ],
      [
        "▁séchée",
        -9.961301043092414
      ],
      [
        "▁lui-même",
        -9.961319180570616
      ],
      [
        "▁fauve",
        -9.96132267045076
      ],
      [
        "science",
        -9.961336013982184
      ],
      [
        "▁Pourtant",
        -9.961343297529504
      ],
      [
        "▁rares",
        -9.961385687401132
      ],
      [
        "▁fetal",
        -9.961389944687202
      ],
      [
        "▁lampe",
        -9.961400116194117
      ],
      [
        "▁naqar",
        -9.961401279027703
      ],
      [
        "▁j'étais",
        -9.961403839466929
      ],
      [
        "-tiir",
        -9.96140462664961
      ],
      [
        "▁ondul",
        -9.961405668131857
      ],
      [
        "▁l'argent",
        -9.961434213127092
      ],
      [
        "▁juste",
        -9.961506003413044
      ],
      [
        "ññ",
        -9.961514837509188
      ],
      [
        "▁soppiku",
        -9.96158947303269
      ],
      [
        "▁courage",
        -9.961613125491674
      ],
      [
        "▁colère",
        -9.961632960494294
      ],
      [
        "▁fruit",
        -9.961641262878091
      ],
      [
        "▁hutte",
        -9.961650811685429
      ],
      [
        "▁mbégte",
        -9.961873084528937
      ],
      [
        "▁awsa",
        -9.96188124426477
      ],
      [
        "▁assez",
        -9.961910991530683
      ],
      [
        "▁ndab",
        -9.961919223932453
      ],
      [
        "▁mbind",
        -9.962039364597702
      ],
      [
        "▁yàlla",
        -9.962041530596817
      ],
      [
        "▁fey",
        -9.96204395459218
      ],
      [
        "▁brave",
        -9.962078640764156
      ],
      [
        "▁connaissais",
        -9.962130444018925
      ],
      [
        "▁vivant",
        -9.962224439796532
      ],
      [
        "▁précédé",
        -9.962240691487123
      ],
      [
        "▁dékku",
        -9.962381159724895
      ],
      [
        "▁fortune",
        -9.962581935483882
      ],
      [
        "▁ŋgoogule",
        -9.962608226233701
      ],
      [
        "▁oncle",
        -9.96261809973436
      ],
      [
        "▁delsi",
        -9.962942873250656
      ],
      [
        "▁apporté",
        -9.96308099777595
      ],
      [
        "▁pince",
        -9.963200584702122
      ],
      [
        "▁juddu",
        -9.963223092096607
      ],
      [
        "▁sàcc",
        -9.963263976536865
      ],
      [
        "▁sensation",
        -9.963328628024573
      ],
      [
        "▁volets",
        -9.963373221262124
      ],
      [
        "▁fitna",
        -9.963409422504698
      ],
      [
        "▁Ñe",
        -9.96345479307056
      ],
      [
        "▁cacher",
        -9.96357053384033
      ],
      [
        "▁yàpp",
        -9.963641609189409
      ],
      [
        "▁jouer",
        -9.963658268992342
      ],
      [
        "▁comprends",
        -9.963665048666085
      ],
      [
        "▁sotti",
        -9.963869278054132
      ],
      [
        "▁sombre",
        -9.96396393189669
      ],
      [
        "▁daaneel",
        -9.963981968281237
      ],
      [
        "▁gàddaay",
        -9.964054214609293
      ],
      [
        "▁parole",
        -9.964948132438755
      ],
      [
        "▁doomam",
        -9.965149960928505
      ],
      [
        "▁njiit",
        -9.965385842978868
      ],
      [
        "▁Ñooñu",
        -9.966086799173436
      ],
      [
        "▁daanu",
        -9.96633875235958
      ],
      [
        "▁d'eux",
        -9.96656069292065
      ],
      [
        "▁yëgaat",
        -9.96670672885637
      ],
      [
        "▁fort",
        -9.967349930660513
      ],
      [
        "▁resté",
        -9.967496599491227
      ],
      [
        "▁simis",
        -9.967576204077298
      ],
      [
        "nore",
        -9.967686711400775
      ],
      [
        "▁kookee",
        -9.967813104661293
      ],
      [
        "qu'un",
        -9.967929440863294
      ],
      [
        "▁jooy",
        -9.96818419782575
      ],
      [
        "▁clair",
        -9.968414104560091
      ],
      [
        "▁Gan",
        -9.968419591376952
      ],
      [
        "▁douce",
        -9.968736914618129
      ],
      [
        "▁ëmb",
        -9.969907420285427
      ],
      [
        "ion",
        -9.969930185517336
      ],
      [
        "▁allemande",
        -9.970092425934304
      ],
      [
        "▁xaritam",
        -9.970578454708743
      ],
      [
        "ati-",
        -9.970621946859907
      ],
      [
        "▁wér",
        -9.971185097383483
      ],
      [
        "▁après-midi",
        -9.971786857677914
      ],
      [
        "▁vide",
        -9.972216429374239
      ],
      [
        "sa",
        -9.97228959565523
      ],
      [
        "aale",
        -9.972465412313069
      ],
      [
        "▁nouvelles",
        -9.972741616437824
      ],
      [
        "▁mesure",
        -9.972840417751598
      ],
      [
        "▁rire",
        -9.973267803339319
      ],
      [
        "▁buum",
        -9.973508968475162
      ],
      [
        "▁njort",
        -9.974569587912061
      ],
      [
        "▁melax",
        -9.974636148957089
      ],
      [
        "▁dàtt",
        -9.974732990008667
      ],
      [
        "▁nijaay",
        -9.975296955023834
      ],
      [
        "▁différent",
        -9.976943355029727
      ],
      [
        "▁jigéen.",
        -9.97708200327276
      ],
      [
        "▁guyy",
        -9.977320176083925
      ],
      [
        "ble",
        -9.977423610983488
      ],
      [
        "▁tawat",
        -9.97745927953125
      ],
      [
        "▁savoir",
        -9.977617867662753
      ],
      [
        "▁revienne",
        -9.978149695133645
      ],
      [
        "▁militaires",
        -9.979333747266722
      ],
      [
        "▁Aiya",
        -9.980641863642587
      ],
      [
        "'imagine",
        -9.980732718223235
      ],
      [
        "▁hamacs",
        -9.981000234360016
      ],
      [
        "▁couch",
        -9.981249093515082
      ],
      [
        "▁joge",
        -9.981290272590382
      ],
      [
        "kóon",
        -9.981558989815351
      ],
      [
        "▁dàq",
        -9.981942511988002
      ],
      [
        "▁pans",
        -9.982184808666235
      ],
      [
        "ca",
        -9.982325489947197
      ],
      [
        "▁Fo",
        -9.98249049944053
      ],
      [
        "▁forte",
        -9.982966032732044
      ],
      [
        "▁dëkkoon",
        -9.983144549266026
      ],
      [
        "oit",
        -9.983414774422897
      ],
      [
        "▁éclat",
        -9.983426450900627
      ],
      [
        "▁goog",
        -9.983493842708514
      ],
      [
        "able",
        -9.983530227223108
      ],
      [
        "ique",
        -9.984037331147862
      ],
      [
        "lon",
        -9.984503777587788
      ],
      [
        "su",
        -9.98484796592947
      ],
      [
        "▁wóolu",
        -9.985602225927133
      ],
      [
        "▁cons",
        -9.986107899870026
      ],
      [
        "▁mënuma",
        -9.986515593623583
      ],
      [
        "▁blancs",
        -9.986671104520696
      ],
      [
        "▁charge",
        -9.986698509607178
      ],
      [
        "▁lire",
        -9.987098181320322
      ],
      [
        "▁pos",
        -9.987193831110439
      ],
      [
        "▁làqu",
        -9.987310050814996
      ],
      [
        "▁yéeme",
        -9.989175920653963
      ],
      [
        "▁laissé",
        -9.989449129556016
      ],
      [
        "indre",
        -9.989529229408443
      ],
      [
        "▁dugal",
        -9.99034444464046
      ],
      [
        "▁égale",
        -9.990461019350782
      ],
      [
        "▁ñaa",
        -9.990617383057229
      ],
      [
        "▁laine",
        -9.990873931888395
      ],
      [
        "▁avance",
        -9.990888186167206
      ],
      [
        "▁naaxi",
        -9.990893680064444
      ],
      [
        "▁mé",
        -9.990911007378557
      ],
      [
        "▁feeñu",
        -9.991272899704144
      ],
      [
        "ok",
        -9.991313756655298
      ],
      [
        "▁saba",
        -9.991832775214636
      ],
      [
        "ois",
        -9.992062781326496
      ],
      [
        "kaay",
        -9.99279480871064
      ],
      [
        "▁rive",
        -9.992962790590225
      ],
      [
        "▁devenus",
        -9.99481771742747
      ],
      [
        "▁nak",
        -9.995100908457786
      ],
      [
        "▁waru",
        -9.995139860982537
      ],
      [
        "▁eusse",
        -9.99567068679288
      ],
      [
        "▁pis",
        -9.99713686004684
      ],
      [
        "▁tiis",
        -9.999674022742521
      ],
      [
        "▁àtte",
        -9.999731733056203
      ],
      [
        "▁accompagn",
        -9.999895064018052
      ],
      [
        "▁niir",
        -10.001243220608579
      ],
      [
        "▁rappelle",
        -10.00132442147224
      ],
      [
        "▁tour",
        -10.002180763544253
      ],
      [
        "▁dois",
        -10.002674896394913
      ],
      [
        "avez",
        -10.003148476946478
      ],
      [
        "andis",
        -10.003218723397845
      ],
      [
        "▁wàcce",
        -10.003385056915226
      ],
      [
        "▁scorpions",
        -10.004067839288602
      ],
      [
        "▁ra",
        -10.004873205196873
      ],
      [
        "▁jaam",
        -10.006253849715849
      ],
      [
        "▁mënee",
        -10.007310318328758
      ],
      [
        "milie",
        -10.007440289316643
      ],
      [
        "▁wutal",
        -10.008599512376891
      ],
      [
        "▁soi",
        -10.008687313905762
      ],
      [
        "connais",
        -10.00875725603208
      ],
      [
        "ool",
        -10.009352712150598
      ],
      [
        "▁somme",
        -10.009665443501284
      ],
      [
        "▁retourne",
        -10.009822592466183
      ],
      [
        "our",
        -10.010163982254024
      ],
      [
        "▁donner",
        -10.011271449839544
      ],
      [
        "▁troupeau",
        -10.011994371167981
      ],
      [
        "▁entré",
        -10.012662363051565
      ],
      [
        "▁pluie",
        -10.013576306653754
      ],
      [
        "tendre",
        -10.013765787688044
      ],
      [
        "-mo",
        -10.014017795696898
      ],
      [
        "fi",
        -10.014177011621992
      ],
      [
        "▁ro",
        -10.015860118587169
      ],
      [
        "▁pareil",
        -10.016547683780185
      ],
      [
        "angoisse",
        -10.016579894361438
      ],
      [
        "googule",
        -10.016866421629697
      ],
      [
        "nn",
        -10.016990888240453
      ],
      [
        "ŋŋ",
        -10.01724073013097
      ],
      [
        "ici",
        -10.017933055430218
      ],
      [
        "▁kookuu",
        -10.018185411365515
      ],
      [
        "▁désir",
        -10.019361860646557
      ],
      [
        "vec",
        -10.02036253434455
      ],
      [
        "sse",
        -10.022346381256773
      ],
      [
        "▁armé",
        -10.0226302258672
      ],
      [
        "▁Yen",
        -10.023245434799353
      ],
      [
        "x.",
        -10.023535195195235
      ],
      [
        "eef",
        -10.02418004575992
      ],
      [
        "▁baxa",
        -10.02870797579473
      ],
      [
        "▁Mas",
        -10.029490434250098
      ],
      [
        "▁dur",
        -10.029524177123523
      ],
      [
        "▁wà",
        -10.029651916226651
      ],
      [
        "ñoo",
        -10.030530326768998
      ],
      [
        "ï",
        -10.032864488083705
      ],
      [
        "▁seuls",
        -10.034174290476507
      ],
      [
        "▁fit",
        -10.03533259882944
      ],
      [
        "▁Mii",
        -10.036193205294824
      ],
      [
        "▁saf",
        -10.037839553647492
      ],
      [
        "▁sub",
        -10.03815522999523
      ],
      [
        "rie",
        -10.038180120791877
      ],
      [
        "▁l'avai",
        -10.038277569934946
      ],
      [
        "aatu",
        -10.038390668432175
      ],
      [
        "▁batt",
        -10.040198613789185
      ],
      [
        "▁néegu-",
        -10.040420453309293
      ],
      [
        "ins",
        -10.040889437242148
      ],
      [
        "egarde",
        -10.041218891560018
      ],
      [
        "▁croi",
        -10.042060187689074
      ],
      [
        "ières",
        -10.042161025464392
      ],
      [
        "▁plan",
        -10.042668734784382
      ],
      [
        "tal",
        -10.044338093016687
      ],
      [
        "▁ndo",
        -10.046024930435555
      ],
      [
        "▁mënut",
        -10.046437910963215
      ],
      [
        "▁léeb",
        -10.0465566771481
      ],
      [
        "gé",
        -10.049197408599937
      ],
      [
        "tam",
        -10.049480258402722
      ],
      [
        "ard",
        -10.052327506165057
      ],
      [
        "ille",
        -10.054490351938526
      ],
      [
        "▁prise",
        -10.054893863719336
      ],
      [
        "▁At",
        -10.05583077795233
      ],
      [
        "▁cherch",
        -10.05633582624826
      ],
      [
        "▁nourri",
        -10.057282001506039
      ],
      [
        "hier",
        -10.0575533038651
      ],
      [
        "▁deey",
        -10.058458570000216
      ],
      [
        "ka",
        -10.061577449183211
      ],
      [
        "ënd",
        -10.06199390403484
      ],
      [
        "▁cercl",
        -10.066093475181692
      ],
      [
        "▁sorti",
        -10.067416862878801
      ],
      [
        "▁maîtres",
        -10.068675041059645
      ],
      [
        "▁Daŋg",
        -10.068968122677662
      ],
      [
        "koo",
        -10.069855271817975
      ],
      [
        "rt",
        -10.074153769435528
      ],
      [
        "▁Sor",
        -10.074706654483425
      ],
      [
        "sses",
        -10.07698692254565
      ],
      [
        "tions",
        -10.077355422331207
      ],
      [
        "▁vari",
        -10.07772245131732
      ],
      [
        "ve",
        -10.077815648858735
      ],
      [
        "▁grandi",
        -10.079126070507582
      ],
      [
        "waale",
        -10.082167707775142
      ],
      [
        "▁pourra",
        -10.082247191852302
      ],
      [
        "▁Xe",
        -10.084083688361133
      ],
      [
        "▁(ce",
        -10.084296701269786
      ],
      [
        "▁cou",
        -10.0849704039298
      ],
      [
        "▁gisu",
        -10.086559738441432
      ],
      [
        "▁ré",
        -10.087956829986172
      ],
      [
        "▁table",
        -10.088170812361893
      ],
      [
        "éeri",
        -10.089929499323093
      ],
      [
        "ombre",
        -10.092074844100901
      ],
      [
        "eel",
        -10.092079541726934
      ],
      [
        "▁moomee",
        -10.092351652979868
      ],
      [
        "lé",
        -10.09445752778144
      ],
      [
        "waan",
        -10.095018514374527
      ],
      [
        "espère",
        -10.096670622570553
      ],
      [
        "▁pensé",
        -10.100298202525616
      ],
      [
        "▁pré",
        -10.101125491286904
      ],
      [
        "'occupa",
        -10.103644249912719
      ],
      [
        "–",
        -10.106637166740008
      ],
      [
        "aar",
        -10.107000233002363
      ],
      [
        "roule",
        -10.10706532171261
      ],
      [
        "celle",
        -10.107152625687242
      ],
      [
        "tends",
        -10.107742705891619
      ],
      [
        "▁mill",
        -10.108491155454951
      ],
      [
        "▁n'as",
        -10.108907845394764
      ],
      [
        "▁impression",
        -10.109852852427139
      ],
      [
        "▁xamu",
        -10.111248822540873
      ],
      [
        "▁d'or",
        -10.112297631584523
      ],
      [
        "v",
        -10.112334542969815
      ],
      [
        "éy",
        -10.114302485645128
      ],
      [
        "▁lim",
        -10.118679578969429
      ],
      [
        "▁dis",
        -10.118863836666875
      ],
      [
        "ier",
        -10.119355050998447
      ],
      [
        "ire",
        -10.121132322418802
      ],
      [
        "▁faf",
        -10.12430207704659
      ],
      [
        "'appartien",
        -10.125324018749414
      ],
      [
        "eu",
        -10.125497657273428
      ],
      [
        "▁amour",
        -10.125565091291788
      ],
      [
        "ourquoi",
        -10.126825661355305
      ],
      [
        "ça",
        -10.127854183351467
      ],
      [
        "▁yemu",
        -10.128061577406523
      ],
      [
        "▁pouss",
        -10.128092397443345
      ],
      [
        "ssent",
        -10.12852708543598
      ],
      [
        "allaient",
        -10.13396652049377
      ],
      [
        "war",
        -10.134564721454215
      ],
      [
        "▁pourrai",
        -10.135856023282997
      ],
      [
        "porter",
        -10.136772356295875
      ],
      [
        "▁alla",
        -10.13812976548855
      ],
      [
        "aayu",
        -10.138305900477594
      ],
      [
        "▁individu",
        -10.140057519687184
      ],
      [
        "▁wor",
        -10.140320540747101
      ],
      [
        "res",
        -10.14135550414751
      ],
      [
        "▁m'",
        -10.142342802930466
      ],
      [
        "▁trou",
        -10.142928895003424
      ],
      [
        "▁see",
        -10.145469082798387
      ],
      [
        "▁découvert",
        -10.146887377887612
      ],
      [
        "fu",
        -10.146951618159395
      ],
      [
        "auté",
        -10.148359613303057
      ],
      [
        "isme",
        -10.148485627807538
      ],
      [
        "▁Daawu",
        -10.148512985895884
      ],
      [
        "toon",
        -10.1494891847956
      ],
      [
        "jafe",
        -10.14962007145431
      ],
      [
        "▁suffi",
        -10.150387657503014
      ],
      [
        "ro",
        -10.154285757066237
      ],
      [
        "▁auto",
        -10.15485520139297
      ],
      [
        "▁jaa",
        -10.156069911494484
      ],
      [
        "▁quitte",
        -10.157390753147217
      ],
      [
        "▁wàcc",
        -10.159781911768683
      ],
      [
        "ément",
        -10.160683720305869
      ],
      [
        "con",
        -10.161670559832952
      ],
      [
        "pas",
        -10.161845493431814
      ],
      [
        "ète",
        -10.16351736428356
      ],
      [
        "be",
        -10.163868606298955
      ],
      [
        "▁qua",
        -10.167296737611892
      ],
      [
        "▁Leur",
        -10.168381048105351
      ],
      [
        "▁waxe",
        -10.169082108301245
      ],
      [
        "▁yéem",
        -10.169375872086766
      ],
      [
        "▁fenêtre",
        -10.169570673886179
      ],
      [
        "tul",
        -10.169571576495901
      ],
      [
        "▁rëbb",
        -10.173420072679555
      ],
      [
        "aires",
        -10.173556295517223
      ],
      [
        "▁couvert",
        -10.173911825941687
      ],
      [
        "sement",
        -10.174577205506871
      ],
      [
        "om",
        -10.177733400113693
      ],
      [
        "▁coupé",
        -10.17792545897138
      ],
      [
        "▁toj",
        -10.178523096546163
      ],
      [
        "▁cont",
        -10.17871078024423
      ],
      [
        "▁Aw",
        -10.178800091139898
      ],
      [
        "▁d'Ar",
        -10.180025534606294
      ],
      [
        "ish",
        -10.181853235252273
      ],
      [
        "▁arbre",
        -10.182113609658211
      ],
      [
        "▁yàq",
        -10.18280609951336
      ],
      [
        "ttes",
        -10.18290294005076
      ],
      [
        "deux",
        -10.185165289090486
      ],
      [
        "àcc",
        -10.187000068218573
      ],
      [
        "sion",
        -10.187023590400942
      ],
      [
        "▁U",
        -10.188521886212492
      ],
      [
        "▁rue",
        -10.189011372050517
      ],
      [
        "ékk",
        -10.189408593898747
      ],
      [
        "boo",
        -10.189999583522475
      ],
      [
        "-do",
        -10.190608506664553
      ],
      [
        "▁soxna",
        -10.190698135326928
      ],
      [
        "▁indi",
        -10.191982149959243
      ],
      [
        "▁tête",
        -10.192228594807567
      ],
      [
        "ëpp",
        -10.192264373686712
      ],
      [
        "▁kàdd",
        -10.192548885780713
      ],
      [
        "bon",
        -10.193356807700727
      ],
      [
        "▁général",
        -10.193783083312585
      ],
      [
        "▁reconna",
        -10.19389068309357
      ],
      [
        "▁Moka",
        -10.194133520822175
      ],
      [
        "▁naŋg",
        -10.194838084146799
      ],
      [
        "▁décor",
        -10.196194759870119
      ],
      [
        "▁xii",
        -10.197540771535953
      ],
      [
        "▁dure",
        -10.197689125538721
      ],
      [
        "bët",
        -10.197781374041591
      ],
      [
        "aas",
        -10.198239618192158
      ],
      [
        "▁sembl",
        -10.198943755994618
      ],
      [
        "rète",
        -10.199781284468589
      ],
      [
        "▁fui",
        -10.2005930925888
      ],
      [
        "▁taax",
        -10.202018788853671
      ],
      [
        "▁gëm",
        -10.203244848898693
      ],
      [
        "▁com",
        -10.20522703588903
      ],
      [
        "óoy",
        -10.205834465249433
      ],
      [
        "▁Bul",
        -10.206565562802458
      ],
      [
        "rage",
        -10.206879612952033
      ],
      [
        "ange",
        -10.207403317833366
      ],
      [
        "-d",
        -10.207859591809813
      ],
      [
        "▁jooja",
        -10.207907217469849
      ],
      [
        "ee.",
        -10.208238823947374
      ],
      [
        "yaa",
        -10.20963608240542
      ],
      [
        "▁natt",
        -10.210368246927684
      ],
      [
        "▁été.",
        -10.210390738196946
      ],
      [
        "ddina",
        -10.210424833353859
      ],
      [
        "▁Qu'",
        -10.210676523688669
      ],
      [
        "▁xërëm",
        -10.210963002584585
      ],
      [
        "▁sau",
        -10.211060485717285
      ],
      [
        "2",
        -10.211120233178772
      ],
      [
        "▁dóomu-taal",
        -10.211124686058227
      ],
      [
        "▁trapèze",
        -10.2111246860587
      ],
      [
        "▁Bërëtaañ",
        -10.211124686059424
      ],
      [
        "▁ndànk-ndànk",
        -10.211124686061044
      ],
      [
        "…",
        -10.211124686098179
      ],
      [
        "▁junniy-junni",
        -10.211124686107569
      ],
      [
        "▁Ahidjo",
        -10.21112468613373
      ],
      [
        "▁béjjén",
        -10.211124686437628
      ],
      [
        "▁discipline",
        -10.21112468648431
      ],
      [
        "▁1948",
        -10.211124686694442
      ],
      [
        "▁lorgnons",
        -10.211124686849725
      ],
      [
        "▁1928",
        -10.211124686946109
      ],
      [
        "▁tés-tés",
        -10.211124688518657
      ],
      [
        "▁électri",
        -10.211124691350964
      ],
      [
        "▁éprouv",
        -10.21112469239849
      ],
      [
        "▁l'extérieur",
        -10.21112469282571
      ],
      [
        "▁grâce",
        -10.211124693690017
      ],
      [
        "▁tekk-tekkaaral",
        -10.211124695358105
      ],
      [
        "▁proximité",
        -10.211124698217557
      ],
      [
        "▁Harcourt",
        -10.211124703592818
      ],
      [
        "▁rajaxe",
        -10.211124706678648
      ],
      [
        "▁saxaaru-géej",
        -10.21112471498828
      ],
      [
        "▁caravane",
        -10.211124742904948
      ],
      [
        "▁Bretagne",
        -10.211124750207883
      ],
      [
        "▁officier",
        -10.211124812291848
      ],
      [
        "▁BBC",
        -10.211124828702504
      ],
      [
        "▁Kalabaar",
        -10.211124839635273
      ],
      [
        "▁sibbiru",
        -10.211124868729211
      ],
      [
        "▁Voyage",
        -10.21112493564415
      ],
      [
        "▁trésor",
        -10.211125046190894
      ],
      [
        "▁Jeffries",
        -10.211125143625338
      ],
      [
        "▁présence",
        -10.211125149697551
      ],
      [
        "▁excessive",
        -10.21112516607345
      ],
      [
        "▁cliché",
        -10.211125281542188
      ],
      [
        "▁Calabar",
        -10.211125707231067
      ],
      [
        "▁pénétr",
        -10.211125842873836
      ],
      [
        "▁règne",
        -10.211125899828495
      ],
      [
        "▁alentour",
        -10.211126038766755
      ],
      [
        "▁extraordinaire",
        -10.211126914678426
      ],
      [
        "▁Birayim",
        -10.211128274978039
      ],
      [
        "▁ruisseau",
        -10.211128766091337
      ],
      [
        "▁l'abri",
        -10.21112902502341
      ],
      [
        "▁radio",
        -10.211129063113702
      ],
      [
        "▁ëlëk",
        -10.211129999510288
      ],
      [
        "▁ndanka",
        -10.211130129059985
      ],
      [
        "▁Chuku",
        -10.211130685893437
      ],
      [
        "▁tropicale",
        -10.211131468986096
      ],
      [
        "▁yëngatu",
        -10.211132417826146
      ],
      [
        "▁assiette",
        -10.211133055480108
      ],
      [
        "▁kilomet",
        -10.211134226986836
      ],
      [
        "▁légende",
        -10.211137331571132
      ],
      [
        "▁répond",
        -10.211140197420638
      ],
      [
        "▁ràññe",
        -10.211140476215762
      ],
      [
        "▁chacun",
        -10.211142230331554
      ],
      [
        "▁obsession",
        -10.211142389473467
      ],
      [
        "▁veulent",
        -10.211143136643514
      ],
      [
        "▁décrit",
        -10.211145894559735
      ],
      [
        "▁guyaab",
        -10.211147344825392
      ],
      [
        "▁1968",
        -10.211150545474995
      ],
      [
        "▁entouré",
        -10.21115084756745
      ],
      [
        "▁bakkan",
        -10.211152324504674
      ],
      [
        "▁Kipli",
        -10.211153487595439
      ],
      [
        "▁mbindeef",
        -10.211155364005347
      ],
      [
        "▁l'aube",
        -10.211162139908096
      ],
      [
        "▁fauteuil",
        -10.211162606743333
      ],
      [
        "▁poitrine",
        -10.211168628029762
      ],
      [
        "▁caract",
        -10.211171799700194
      ],
      [
        "▁jërr",
        -10.21117811092771
      ],
      [
        "▁possible",
        -10.211193177702626
      ],
      [
        "▁fonction",
        -10.211200262803082
      ],
      [
        "▁coow",
        -10.211201006827848
      ],
      [
        "▁Confi",
        -10.211205255826732
      ],
      [
        "▁firndeel",
        -10.211229448437217
      ],
      [
        "▁maintenant",
        -10.211233747166006
      ],
      [
        "▁interdit",
        -10.211233753675375
      ],
      [
        "▁habituellement",
        -10.211236228152634
      ],
      [
        "▁naître",
        -10.21124348933981
      ],
      [
        "▁l'après-midi",
        -10.211247439917273
      ],
      [
        "▁Gaynd",
        -10.211247513743427
      ],
      [
        "▁l'hum",
        -10.211252840450875
      ],
      [
        "▁effect",
        -10.211266546207723
      ],
      [
        "▁dëll",
        -10.211272668743668
      ],
      [
        "▁Agsil",
        -10.211274989008627
      ],
      [
        "▁heureux",
        -10.21128874662471
      ],
      [
        "▁foudre",
        -10.211292413579017
      ],
      [
        "▁comprendre",
        -10.211292752242764
      ],
      [
        "▁perdre",
        -10.211312852628048
      ],
      [
        "▁bënn",
        -10.21133172652614
      ],
      [
        "▁ňàkk",
        -10.211336070563352
      ],
      [
        "▁maasaloo",
        -10.211346646520724
      ],
      [
        "▁dëppoo",
        -10.21135743649298
      ],
      [
        "▁penku",
        -10.211358150297398
      ],
      [
        "▁lentement",
        -10.211368693380862
      ],
      [
        "▁vieillard",
        -10.211393554921425
      ],
      [
        "▁fièvre",
        -10.21140193212771
      ],
      [
        "▁charme",
        -10.211415768169417
      ],
      [
        "▁frappions",
        -10.211439789417112
      ],
      [
        "▁Demuloo",
        -10.211451349660976
      ],
      [
        "▁fureur",
        -10.211460114447402
      ],
      [
        "▁meetar",
        -10.211463770674648
      ],
      [
        "▁contraire",
        -10.2114921663424
      ],
      [
        "▁weesu",
        -10.211504013774938
      ],
      [
        "▁capable",
        -10.211521832142516
      ],
      [
        "▁daŋar",
        -10.21152197500716
      ],
      [
        "▁pension",
        -10.211529984934707
      ],
      [
        "▁móobal",
        -10.211534585128607
      ],
      [
        "▁Bateri",
        -10.211544160191542
      ],
      [
        "▁pegg",
        -10.211585105127593
      ],
      [
        "▁miirloo",
        -10.211592269288385
      ],
      [
        "▁Alfa",
        -10.211642920582248
      ],
      [
        "▁raxas",
        -10.21165360755424
      ],
      [
        "▁dijj",
        -10.211729333666568
      ],
      [
        "▁bruit",
        -10.211736454973064
      ],
      [
        "▁soxor",
        -10.211787172251926
      ],
      [
        "▁ràpp",
        -10.211798943428809
      ],
      [
        "▁l'indépendance",
        -10.211832599206032
      ],
      [
        "empire",
        -10.211839542105777
      ],
      [
        "▁absent",
        -10.211876932590654
      ],
      [
        "▁nangoo",
        -10.211877660302267
      ],
      [
        "▁lëmm",
        -10.211956468780395
      ],
      [
        "▁commencé",
        -10.211959050336754
      ],
      [
        "▁Looloo",
        -10.211993010417304
      ],
      [
        "▁Mbam",
        -10.212016204323884
      ],
      [
        "▁yemale",
        -10.212019967530845
      ],
      [
        "▁d'eau",
        -10.212073821110714
      ],
      [
        "▁disparu",
        -10.2121007982973
      ],
      [
        "▁flamme",
        -10.212241283732132
      ],
      [
        "▁soxal",
        -10.212249953797778
      ],
      [
        "▁certainement",
        -10.212274755405192
      ],
      [
        "▁accepté",
        -10.212329332901557
      ],
      [
        "▁tubay",
        -10.212359617072273
      ],
      [
        "▁nàññ",
        -10.212412185832532
      ],
      [
        "▁Joor",
        -10.212448685015373
      ],
      [
        "▁dikkul",
        -10.212518323193649
      ],
      [
        "▁surveill",
        -10.212585263217418
      ],
      [
        "▁brûlant",
        -10.21271734899926
      ],
      [
        "▁Demkoon",
        -10.212757682586881
      ],
      [
        "▁muraille",
        -10.212787352314843
      ],
      [
        "▁Demuma",
        -10.212828486408279
      ],
      [
        "▁sooke",
        -10.212958664867015
      ],
      [
        "▁raconté",
        -10.212969629511012
      ],
      [
        "▁Banyo",
        -10.212982958438653
      ],
      [
        "▁tabax",
        -10.213008280614947
      ],
      [
        "▁peine",
        -10.213092428144515
      ],
      [
        "▁màtt",
        -10.213168340077491
      ],
      [
        "▁gosse",
        -10.213208351151081
      ],
      [
        "▁soirée",
        -10.213333685424438
      ],
      [
        "▁élevé",
        -10.213359300276156
      ],
      [
        "▁voudrait",
        -10.213366877023523
      ],
      [
        "▁portale",
        -10.21355577151735
      ],
      [
        "▁marqué",
        -10.213826911513731
      ],
      [
        "▁Bamako",
        -10.213860144770056
      ],
      [
        "▁revenu",
        -10.213884504459209
      ],
      [
        "▁échappé",
        -10.213940435607652
      ],
      [
        "▁aigu",
        -10.214006798235884
      ],
      [
        "▁dég",
        -10.21402322910081
      ],
      [
        "▁jé",
        -10.214083497076752
      ],
      [
        "▁juges",
        -10.21409495968489
      ],
      [
        "▁mbooloo",
        -10.214131808433478
      ],
      [
        "▁matinée",
        -10.21430612431281
      ],
      [
        "▁diggu",
        -10.214538501530857
      ],
      [
        "tt",
        -10.214801191087066
      ],
      [
        "▁kookale",
        -10.214802242820152
      ],
      [
        "▁oublier",
        -10.215073646075048
      ],
      [
        "▁yeggee",
        -10.215093159241954
      ],
      [
        "▁remis",
        -10.21512738460033
      ],
      [
        "▁causé",
        -10.215395100776881
      ],
      [
        "▁Mbir",
        -10.215633351510684
      ],
      [
        "ien",
        -10.21583576555658
      ],
      [
        "▁móol",
        -10.216000067163575
      ],
      [
        "▁Dégg",
        -10.216055260787249
      ],
      [
        "▁cré",
        -10.216537984314474
      ],
      [
        "▁tëgg",
        -10.216567316497793
      ],
      [
        "▁way-juram",
        -10.216605176171822
      ],
      [
        "▁Ñaar",
        -10.216799870004895
      ],
      [
        "▁Amin",
        -10.216806212096511
      ],
      [
        "▁d'habitude",
        -10.217375583589565
      ],
      [
        "▁waaxu",
        -10.217486439825402
      ],
      [
        "itié",
        -10.217548010651397
      ],
      [
        "▁oreilles",
        -10.218063143592978
      ],
      [
        "▁Tann",
        -10.21807762369844
      ],
      [
        "▁joow",
        -10.218507830800942
      ],
      [
        "▁sœurs",
        -10.219085366620225
      ],
      [
        "▁fameuse",
        -10.21957145943765
      ],
      [
        "▁n'importe",
        -10.219837781558091
      ],
      [
        "▁créé",
        -10.220137302560726
      ],
      [
        "▁jàppoon",
        -10.220319802795183
      ],
      [
        "ama",
        -10.220348065137939
      ],
      [
        "▁ràkkaaju",
        -10.22071277473901
      ],
      [
        "▁cultive",
        -10.22079653708718
      ],
      [
        "▁col",
        -10.221111240824088
      ],
      [
        "▁install",
        -10.221520281862377
      ],
      [
        "pe",
        -10.222213134089202
      ],
      [
        "àww",
        -10.222310500106015
      ],
      [
        "tiens",
        -10.222528625133071
      ],
      [
        "▁jog",
        -10.223046294688967
      ],
      [
        "▁jë",
        -10.223220161921283
      ],
      [
        "▁secondes",
        -10.223570570224302
      ],
      [
        "▁baň",
        -10.223580979584021
      ],
      [
        "▁vagues",
        -10.223603493190872
      ],
      [
        "▁Éta",
        -10.22364680127194
      ],
      [
        "▁taille",
        -10.223735393822155
      ],
      [
        "▁dundam",
        -10.223890041183601
      ],
      [
        "▁càkk",
        -10.223946879820401
      ],
      [
        "▁pétrole",
        -10.224970024769204
      ],
      [
        "▁woowa",
        -10.225046812699478
      ],
      [
        "▁xobi",
        -10.225572697612007
      ],
      [
        "▁toogoon",
        -10.225607806502413
      ],
      [
        "▁pri",
        -10.225653789258816
      ],
      [
        "▁cr",
        -10.225925015558728
      ],
      [
        "▁conduis",
        -10.2259465977051
      ],
      [
        "▁battu",
        -10.22596679420669
      ],
      [
        "▁to",
        -10.226099219384508
      ],
      [
        "▁Foof",
        -10.226801978989984
      ],
      [
        "▁golf",
        -10.226837998395368
      ],
      [
        "▁noire",
        -10.226948752709045
      ],
      [
        "▁julli",
        -10.226956278968503
      ],
      [
        "lal",
        -10.22704569767949
      ],
      [
        "▁parl",
        -10.227256999896719
      ],
      [
        "▁genn",
        -10.22725776250777
      ],
      [
        "armes",
        -10.227359906641283
      ],
      [
        "▁kilomètres",
        -10.227765023975392
      ],
      [
        "▁Europe",
        -10.228216943889588
      ],
      [
        "▁ñaaw",
        -10.228221708452269
      ],
      [
        "▁sell",
        -10.22829704462269
      ],
      [
        "▁grise",
        -10.2283907875027
      ],
      [
        "▁rendu",
        -10.228524603146893
      ],
      [
        "▁way-",
        -10.228639870181318
      ],
      [
        "▁tegu",
        -10.228652082868653
      ],
      [
        "▁sipp",
        -10.228705093410529
      ],
      [
        "▁Mokaa",
        -10.228816476848767
      ],
      [
        "▁n'ira",
        -10.230270871648178
      ],
      [
        "▁jeux",
        -10.230872673910518
      ],
      [
        "▁diine",
        -10.231260179065597
      ],
      [
        "▁mêl",
        -10.231865435645457
      ],
      [
        "▁kaki",
        -10.23197291203687
      ],
      [
        "▁demuñu",
        -10.232066800467079
      ],
      [
        "▁ňa",
        -10.232354011952268
      ],
      [
        "▁chef",
        -10.233810162800268
      ],
      [
        "▁répu",
        -10.236114416949171
      ],
      [
        "▁partent",
        -10.236866525288981
      ],
      [
        "'arachide",
        -10.236966767372987
      ],
      [
        "▁faax",
        -10.237560509249974
      ],
      [
        "▁maladies",
        -10.237805788145714
      ],
      [
        "▁accepter",
        -10.237967687519058
      ],
      [
        "alal",
        -10.239397596299884
      ],
      [
        "▁xamoon",
        -10.239645673292237
      ],
      [
        "▁fen",
        -10.239822644729378
      ],
      [
        "▁d'enfants",
        -10.24111343605739
      ],
      [
        "▁lal",
        -10.241395688696775
      ],
      [
        "▁marque",
        -10.24150568145452
      ],
      [
        "'orage",
        -10.241591524513943
      ],
      [
        "▁Gu",
        -10.242306125901177
      ],
      [
        "▁imagin",
        -10.242749379777985
      ],
      [
        "▁Combi",
        -10.244112500169384
      ],
      [
        "ures",
        -10.244168816559316
      ],
      [
        "gante",
        -10.244315922063667
      ],
      [
        "▁kayit",
        -10.244833329418668
      ],
      [
        "▁tama",
        -10.24497110558611
      ],
      [
        "▁libre",
        -10.245116460197318
      ],
      [
        "▁passer",
        -10.246429225595294
      ],
      [
        "▁wàll",
        -10.247497580394624
      ],
      [
        "u.",
        -10.247960282494034
      ],
      [
        "▁instants",
        -10.248825074385273
      ],
      [
        "▁méngale",
        -10.24902504079999
      ],
      [
        "▁sida",
        -10.24951785776712
      ],
      [
        "ards",
        -10.250738193907607
      ],
      [
        "commencer",
        -10.251074752741927
      ],
      [
        "▁rajo",
        -10.25241431198845
      ],
      [
        "▁Jam",
        -10.254490936477486
      ],
      [
        "▁jaaxa",
        -10.25487766018509
      ],
      [
        "▁étrange",
        -10.255332387963318
      ],
      [
        "▁bâtons",
        -10.255482751144577
      ],
      [
        "▁rëbbi",
        -10.255810910956766
      ],
      [
        "nge",
        -10.256780203857728
      ],
      [
        "▁diir",
        -10.257510879820016
      ],
      [
        "rent",
        -10.258292318506523
      ],
      [
        "▁compl",
        -10.258486739689625
      ],
      [
        "▁idée",
        -10.259463002361848
      ],
      [
        "▁lenn",
        -10.259826537442263
      ],
      [
        "-tuut",
        -10.260689397499625
      ],
      [
        "▁jafee",
        -10.260815760974001
      ],
      [
        "▁Doon",
        -10.262101549587456
      ],
      [
        "oroom",
        -10.262818199024608
      ],
      [
        "▁tra",
        -10.263642367788151
      ],
      [
        "u-",
        -10.264518950307862
      ],
      [
        "▁tus",
        -10.266865978206527
      ],
      [
        "-lu",
        -10.267046880033444
      ],
      [
        "▁Dina",
        -10.269028428108342
      ],
      [
        "▁qu'en",
        -10.26932236687547
      ],
      [
        "ëtt",
        -10.269366915572828
      ],
      [
        "'exerce",
        -10.269452425347316
      ],
      [
        "euses",
        -10.271092745952249
      ],
      [
        "▁kooka",
        -10.271287796270965
      ],
      [
        "▁rend",
        -10.273197112792628
      ],
      [
        "▁exerc",
        -10.274550456385633
      ],
      [
        "mère",
        -10.274917776193103
      ],
      [
        "ŋgeen",
        -10.275035141359465
      ],
      [
        "▁Dañu",
        -10.277245169039643
      ],
      [
        "▁ñetti",
        -10.278140350337628
      ],
      [
        "▁El",
        -10.278576469793009
      ],
      [
        "ë",
        -10.279385119180631
      ],
      [
        "▁découverte",
        -10.280549094824357
      ],
      [
        "▁xóot",
        -10.281461030812258
      ],
      [
        "▁cord",
        -10.284329794695903
      ],
      [
        "▁accepte",
        -10.284725929938975
      ],
      [
        "monter",
        -10.286754320302256
      ],
      [
        "ru",
        -10.287532371479633
      ],
      [
        "▁demain",
        -10.287673635627723
      ],
      [
        "▁yooy",
        -10.288123676776744
      ],
      [
        "▁Kakaa",
        -10.289312370115706
      ],
      [
        "▁tableau",
        -10.29010426295132
      ],
      [
        "arrière",
        -10.29111723914508
      ],
      [
        "cteur",
        -10.293000821263899
      ],
      [
        "▁nag.",
        -10.293358104990235
      ],
      [
        "laay",
        -10.29340793630613
      ],
      [
        "▁char",
        -10.295593608687486
      ],
      [
        "▁muus",
        -10.296286609540726
      ],
      [
        "▁manque",
        -10.296336519107049
      ],
      [
        "uni",
        -10.29637769548145
      ],
      [
        "▁tëwa",
        -10.297476919719989
      ],
      [
        "faites",
        -10.29748923497807
      ],
      [
        "exemple",
        -10.297640529981347
      ],
      [
        "oindre",
        -10.297868546128633
      ],
      [
        "▁ñe",
        -10.29819069255942
      ],
      [
        "eut",
        -10.298217396261474
      ],
      [
        "▁s'installe",
        -10.300051309771893
      ],
      [
        "aurais",
        -10.300142603195983
      ],
      [
        "venus",
        -10.300708000605091
      ],
      [
        "▁xaj",
        -10.3008887280982
      ],
      [
        "galu",
        -10.301540284383107
      ],
      [
        "▁sañ",
        -10.302137058194914
      ],
      [
        "▁guis",
        -10.302645046115812
      ],
      [
        "resse",
        -10.304140470213186
      ],
      [
        "▁cee",
        -10.304999493017034
      ],
      [
        "▁waxi",
        -10.305575941922498
      ],
      [
        "▁mbemb",
        -10.306786867223408
      ],
      [
        "▁njàmba",
        -10.308115265073285
      ],
      [
        "▁kà",
        -10.308909908566504
      ],
      [
        "▁sib",
        -10.309781462275405
      ],
      [
        "stique",
        -10.309872261247198
      ],
      [
        "hôpital",
        -10.310677507678776
      ],
      [
        "▁cartes",
        -10.311731212969072
      ],
      [
        "▁Mari",
        -10.313111761036948
      ],
      [
        "▁voici",
        -10.314300398894447
      ],
      [
        "▁seetu",
        -10.315945047547268
      ],
      [
        "▁àndal",
        -10.316328134369073
      ],
      [
        "ke",
        -10.317113254191208
      ],
      [
        "▁l'inst",
        -10.319713473941759
      ],
      [
        "igne",
        -10.320473191350603
      ],
      [
        "▁nuits",
        -10.322068145352109
      ],
      [
        "-f",
        -10.322411950544447
      ],
      [
        "▁Gisu",
        -10.322429039560197
      ],
      [
        "▁xoole",
        -10.323823402202443
      ],
      [
        "▁entrai",
        -10.326721569016684
      ],
      [
        "▁ressembl",
        -10.327356577953097
      ],
      [
        "ar.",
        -10.328336234692706
      ],
      [
        "oire",
        -10.328817953065643
      ],
      [
        "umeur",
        -10.332097433614535
      ],
      [
        "▁Certain",
        -10.33649968163622
      ],
      [
        "▁aventure",
        -10.34036885751678
      ],
      [
        "▁voyai",
        -10.341398612873515
      ],
      [
        "▁sec",
        -10.342269509611882
      ],
      [
        "▁yatt",
        -10.343630159381133
      ],
      [
        "▁accompagne",
        -10.345402865694652
      ],
      [
        "▁n'e",
        -10.346921808380564
      ],
      [
        "g.",
        -10.34715653784492
      ],
      [
        "▁Masu",
        -10.347189804757159
      ],
      [
        "oog",
        -10.34786800704417
      ],
      [
        "ser",
        -10.348081702669319
      ],
      [
        "bar",
        -10.348229858766663
      ],
      [
        "ii",
        -10.349042562119998
      ],
      [
        "▁guerr",
        -10.34922456156031
      ],
      [
        "daa",
        -10.35009755398753
      ],
      [
        "rai",
        -10.350954763508883
      ],
      [
        "▁n'aurai",
        -10.35350988304264
      ],
      [
        "▁yaroo",
        -10.353906173142029
      ],
      [
        "▁yare",
        -10.354338561551245
      ],
      [
        "ière",
        -10.354366499930654
      ],
      [
        "▁demb",
        -10.355440387527391
      ],
      [
        "aloon",
        -10.356955238292286
      ],
      [
        "▁racont",
        -10.35781476667934
      ],
      [
        "▁milli",
        -10.3588987068891
      ],
      [
        "lieu",
        -10.35930098556432
      ],
      [
        "▁jam",
        -10.361927473541
      ],
      [
        "ations",
        -10.36196796904085
      ],
      [
        "antee",
        -10.363217863454771
      ],
      [
        "▁jàppe",
        -10.364640358606255
      ],
      [
        "▁ñaw",
        -10.36541096222457
      ],
      [
        "3",
        -10.366658958349218
      ],
      [
        "00",
        -10.366757057389421
      ],
      [
        "▁jógee",
        -10.366931635651536
      ],
      [
        "ait-il",
        -10.366935267439565
      ],
      [
        "▁Leer",
        -10.367212352050291
      ],
      [
        "ailles",
        -10.369309838845256
      ],
      [
        "rass",
        -10.370381868809785
      ],
      [
        "acc",
        -10.37078268492343
      ],
      [
        "noo",
        -10.37273623433357
      ],
      [
        "▁nju",
        -10.373539912292843
      ],
      [
        "llemands",
        -10.373913780311508
      ],
      [
        "-kow",
        -10.37673652851705
      ],
      [
        "▁Jë",
        -10.376857281183025
      ],
      [
        "▁ger",
        -10.377365206713597
      ],
      [
        "ston",
        -10.377897782037014
      ],
      [
        "▁her",
        -10.37798626503912
      ],
      [
        "▁Ch",
        -10.379090937283467
      ],
      [
        "omment",
        -10.380564823596412
      ],
      [
        "ieuse",
        -10.381060861342238
      ],
      [
        "st",
        -10.381436446923214
      ],
      [
        "▁retrouve",
        -10.382566676558188
      ],
      [
        "▁devenue",
        -10.382952559590374
      ],
      [
        "rrière",
        -10.38298887661103
      ],
      [
        "▁tàll",
        -10.384305000751048
      ],
      [
        "ekk",
        -10.384687815999298
      ],
      [
        "àngi",
        -10.384798210700668
      ],
      [
        "eau",
        -10.38575825228046
      ],
      [
        "▁l'an",
        -10.386616524184506
      ],
      [
        "nnee",
        -10.386709709625528
      ],
      [
        "men",
        -10.386820603372081
      ],
      [
        "▁continu",
        -10.387519322502413
      ],
      [
        "ell",
        -10.388044109694668
      ],
      [
        "▁pé",
        -10.388566390431041
      ],
      [
        "urs",
        -10.38994608338554
      ],
      [
        "ndait",
        -10.390016052587832
      ],
      [
        "chercher",
        -10.393458193698057
      ],
      [
        "▁mur",
        -10.394174394269525
      ],
      [
        "▁Se",
        -10.394289750602798
      ],
      [
        "▁yóbba",
        -10.394576507156462
      ],
      [
        "▁nd",
        -10.395708287088677
      ],
      [
        "▁màng",
        -10.39663604852901
      ],
      [
        "▁dig",
        -10.397931128085013
      ],
      [
        "jaa",
        -10.398216861824427
      ],
      [
        "▁lect",
        -10.398530457195946
      ],
      [
        "▁cent",
        -10.40167593356831
      ],
      [
        "enti",
        -10.402412213263828
      ],
      [
        "uits",
        -10.402494049470791
      ],
      [
        "▁Ng",
        -10.408184071091538
      ],
      [
        "▁touch",
        -10.408289532700017
      ],
      [
        "▁xer",
        -10.40902674762093
      ],
      [
        "ww",
        -10.412179209541641
      ],
      [
        "▁arrive",
        -10.41498651157673
      ],
      [
        "peur",
        -10.415404448049918
      ],
      [
        "àbbe",
        -10.41576256878067
      ],
      [
        "cation",
        -10.41632934008034
      ],
      [
        "wuñu",
        -10.417355660247235
      ],
      [
        "eelu",
        -10.41763259858212
      ],
      [
        "▁arriv",
        -10.418151065007109
      ],
      [
        "ab",
        -10.418185586159364
      ],
      [
        "▁newu",
        -10.419225274928923
      ],
      [
        "▁dib",
        -10.419325813565663
      ],
      [
        "▁neexu",
        -10.420935473685084
      ],
      [
        "▁ouverte",
        -10.421131175227666
      ],
      [
        "▁ndeysaan.",
        -10.423787168463857
      ],
      [
        "feebar",
        -10.424216726061326
      ],
      [
        "weer",
        -10.42454534589954
      ],
      [
        "▁tran",
        -10.424888888271823
      ],
      [
        "cher",
        -10.425773900107949
      ],
      [
        "ssu",
        -10.425925227402283
      ],
      [
        "▁déci",
        -10.427508290061368
      ],
      [
        "▁médecine",
        -10.428239934785294
      ],
      [
        "▁isolé",
        -10.428782914452789
      ],
      [
        "▁ñàkku",
        -10.429352468973768
      ],
      [
        "▁var",
        -10.43380049144891
      ],
      [
        "ňň",
        -10.433833335422412
      ],
      [
        "▁voi",
        -10.433909968807434
      ],
      [
        "▁tam",
        -10.434266946477752
      ],
      [
        "xam",
        -10.435097499835852
      ],
      [
        "sus",
        -10.43572530624472
      ],
      [
        "ànte",
        -10.438511127469509
      ],
      [
        "ie",
        -10.441481470972132
      ],
      [
        "▁cris",
        -10.44214427236907
      ],
      [
        "▁appelle",
        -10.44355933407839
      ],
      [
        "▁xolu",
        -10.444507864860139
      ],
      [
        "▁leçon",
        -10.44478277876441
      ],
      [
        "▁J'es",
        -10.447511065713448
      ],
      [
        "▁l'in",
        -10.44853902154676
      ],
      [
        "▁Waxu",
        -10.454727341795477
      ],
      [
        "kke",
        -10.457991235156072
      ],
      [
        "ànd",
        -10.459251349380377
      ],
      [
        "ivement",
        -10.459570294218445
      ],
      [
        "vais",
        -10.45990210761221
      ],
      [
        "▁lawoon",
        -10.460160236467857
      ],
      [
        "▁kaa",
        -10.460891306483681
      ],
      [
        "▁fowe",
        -10.461346673869457
      ],
      [
        "han",
        -10.462791547663738
      ],
      [
        "▁laisse",
        -10.466414736219644
      ],
      [
        "manche",
        -10.46731575338404
      ],
      [
        "▁form",
        -10.467606204858832
      ],
      [
        "▁Deg",
        -10.468162427714836
      ],
      [
        "▁Co",
        -10.468787179137944
      ],
      [
        "ailleurs",
        -10.46941494748755
      ],
      [
        "▁coll",
        -10.470431111661371
      ],
      [
        "fal",
        -10.471693896559133
      ],
      [
        "ddi",
        -10.472808076199302
      ],
      [
        "heure",
        -10.472810987540521
      ],
      [
        "▁ai",
        -10.47399435452397
      ],
      [
        "▁ouvert",
        -10.475501501143434
      ],
      [
        "▁daju",
        -10.476149683600106
      ],
      [
        "▁dunde",
        -10.476173807591628
      ],
      [
        "▁xe",
        -10.477591524541737
      ],
      [
        "▁armée",
        -10.47910788483097
      ],
      [
        "▁coupe",
        -10.481494378700514
      ],
      [
        "▁tegoo",
        -10.481649245931784
      ],
      [
        "elu",
        -10.483031868954956
      ],
      [
        "▁partirai",
        -10.483257820430243
      ],
      [
        "▁danañ",
        -10.483305310924779
      ],
      [
        "▁moustiquaire",
        -10.484016222661156
      ],
      [
        "▁xat",
        -10.485074619016993
      ],
      [
        "▁miroir",
        -10.487657479646415
      ],
      [
        "ver",
        -10.487772364163483
      ],
      [
        "▁mont",
        -10.489564003067535
      ],
      [
        "▁jubal",
        -10.489841077992496
      ],
      [
        "▁écout",
        -10.490896806899086
      ],
      [
        "stitué",
        -10.49132333128179
      ],
      [
        "ages",
        -10.49358503372789
      ],
      [
        "▁certain",
        -10.493987778990563
      ],
      [
        "▁méng",
        -10.494569347173437
      ],
      [
        "dée",
        -10.496881507597939
      ],
      [
        "rëb",
        -10.499539823056502
      ],
      [
        "▁trace",
        -10.499663301608381
      ],
      [
        "▁gr",
        -10.49969849421992
      ],
      [
        "A",
        -10.499791224188618
      ],
      [
        "▁l'est",
        -10.499852850934293
      ],
      [
        "étendue",
        -10.499898137655908
      ],
      [
        "xe",
        -10.50051658648867
      ],
      [
        "▁Noo",
        -10.500910083122307
      ],
      [
        "▁lë",
        -10.501113139241534
      ],
      [
        "▁humain",
        -10.501129348296853
      ],
      [
        "it.",
        -10.5011865659319
      ],
      [
        "▁dinañ",
        -10.50219994416184
      ],
      [
        "bokk",
        -10.503985969775435
      ],
      [
        "arrivée",
        -10.504217354228418
      ],
      [
        "▁ancien",
        -10.50462690686036
      ],
      [
        "▁doxal",
        -10.506164871731679
      ],
      [
        "ñ.",
        -10.507258324754316
      ],
      [
        "▁ño",
        -10.508299075722498
      ],
      [
        "▁dootu",
        -10.508585221518281
      ],
      [
        "▁connaît",
        -10.50860405603496
      ],
      [
        "urant",
        -10.509145104585867
      ],
      [
        "▁jambe",
        -10.510751517861676
      ],
      [
        "▁rituel",
        -10.512317039860655
      ],
      [
        "▁Laaj",
        -10.512432948752824
      ],
      [
        "abax",
        -10.512667962687166
      ],
      [
        "▁militaire",
        -10.512920433316937
      ],
      [
        "tin",
        -10.514647759277624
      ],
      [
        "▁yëge",
        -10.517166352828323
      ],
      [
        "▁jooj",
        -10.517299930652667
      ],
      [
        "i-",
        -10.51737951247326
      ],
      [
        "▁bleu",
        -10.52037824979267
      ],
      [
        "▁viendr",
        -10.522418559822501
      ],
      [
        "dar",
        -10.5232770614315
      ],
      [
        "tait",
        -10.52392808202354
      ],
      [
        "▁sàpp",
        -10.52471545329781
      ],
      [
        "▁ñett",
        -10.525151107722923
      ],
      [
        "▁distance",
        -10.525460559501713
      ],
      [
        "tuñu",
        -10.526522134773096
      ],
      [
        "▁É",
        -10.526746478361746
      ],
      [
        "▁xob",
        -10.526980213920803
      ],
      [
        "▁seconde",
        -10.527425353573463
      ],
      [
        "▁Ro",
        -10.52765271598123
      ],
      [
        "▁vague",
        -10.528214270552647
      ],
      [
        "▁fatigu",
        -10.528428493985457
      ],
      [
        "▁bavarda",
        -10.528500951988052
      ],
      [
        "construi",
        -10.52934683805386
      ],
      [
        "▁ver",
        -10.529847215673021
      ],
      [
        "rois",
        -10.530459016217291
      ],
      [
        "▁civil",
        -10.53152337732448
      ],
      [
        "▁amu",
        -10.532362406135018
      ],
      [
        "▁envahi",
        -10.532538061794124
      ],
      [
        "▁naqad",
        -10.532609325501115
      ],
      [
        "nit",
        -10.532865599764593
      ],
      [
        "▁cor",
        -10.532881336020173
      ],
      [
        "'enfant",
        -10.534073565336307
      ],
      [
        "▁Baal",
        -10.534269879327992
      ],
      [
        "da",
        -10.534379229738239
      ],
      [
        "▁Yooy",
        -10.535359884913081
      ],
      [
        "▁wë",
        -10.536329672677049
      ],
      [
        "jënd",
        -10.536518922172059
      ],
      [
        "▁fulla",
        -10.537025150894333
      ],
      [
        "▁connaiss",
        -10.537165913295603
      ],
      [
        "▁anim",
        -10.537465076609227
      ],
      [
        "▁l'imp",
        -10.539216212443627
      ],
      [
        "ème",
        -10.539803788197514
      ],
      [
        "▁Bien",
        -10.5399228116415
      ],
      [
        "-elle",
        -10.540067829545752
      ],
      [
        "bul",
        -10.54060079304213
      ],
      [
        "▁bri",
        -10.540862780616557
      ],
      [
        "▁Doom",
        -10.541262998635576
      ],
      [
        "ême",
        -10.541454232824552
      ],
      [
        "tuaire",
        -10.54175438967897
      ],
      [
        "àtt",
        -10.541799205105512
      ],
      [
        "▁Babungo",
        -10.54206012421105
      ],
      [
        "▁trente",
        -10.542347810110506
      ],
      [
        "▁Seeti",
        -10.542569519266413
      ],
      [
        "▁remonte",
        -10.543636012084445
      ],
      [
        "Abakaliki",
        -10.54367839043244
      ],
      [
        "▁taal",
        -10.543734362139945
      ],
      [
        "4",
        -10.544458017610118
      ],
      [
        "▁l'Adamawa",
        -10.54445801939489
      ],
      [
        "▁États-Unis",
        -10.544458019400608
      ],
      [
        "▁roppëlaan",
        -10.544458019407436
      ],
      [
        "▁mettee-metti",
        -10.544458019438366
      ],
      [
        "▁invisible",
        -10.544458019438977
      ],
      [
        "▁privilèges",
        -10.544458019442024
      ],
      [
        "▁Français",
        -10.54445801947293
      ],
      [
        "▁dankalikoo",
        -10.544458019549491
      ],
      [
        "▁dysenterie",
        -10.544458019590008
      ],
      [
        "▁caricatural",
        -10.544458019673163
      ],
      [
        "▁impeccable",
        -10.544458020040022
      ],
      [
        "▁incapable",
        -10.544458020088927
      ],
      [
        "▁Poor-Arkuur",
        -10.5444580202534
      ],
      [
        "▁ëllëg",
        -10.544458022345715
      ],
      [
        "▁jekk-jekkal",
        -10.544458023737425
      ],
      [
        "▁sukkandik",
        -10.54445802475152
      ],
      [
        "▁dispensaire",
        -10.544458028758074
      ],
      [
        "▁j'ignore",
        -10.544458030308277
      ],
      [
        "▁s'éloigne",
        -10.544458033840062
      ],
      [
        "▁sañ-sañ",
        -10.544458043051574
      ],
      [
        "▁ridicule",
        -10.544458049357065
      ],
      [
        "▁fréquenta",
        -10.544458049569274
      ],
      [
        "▁Là-bas",
        -10.544458050111922
      ],
      [
        "▁d'alcool",
        -10.544458050197674
      ],
      [
        "▁Fields",
        -10.54445805092686
      ],
      [
        "▁Aadamawa",
        -10.544458054830251
      ],
      [
        "▁bànxaas",
        -10.544458064697173
      ],
      [
        "▁njoowaan",
        -10.544458083134266
      ],
      [
        "▁plaît",
        -10.54445808686216
      ],
      [
        "▁physique",
        -10.544458097453944
      ],
      [
        "▁d'opération",
        -10.544458101335694
      ],
      [
        "▁Bénuwe",
        -10.544458131830996
      ],
      [
        "▁lézard",
        -10.544458133128378
      ],
      [
        "▁latérite",
        -10.544458176814643
      ],
      [
        "▁affluent",
        -10.54445817897349
      ],
      [
        "▁serviteurs",
        -10.54445819186544
      ],
      [
        "▁Bénoué",
        -10.544458197923744
      ],
      [
        "▁waxambaane",
        -10.544458203558701
      ],
      [
        "calpel",
        -10.544458206973253
      ],
      [
        "▁bataaxal",
        -10.544458220565549
      ],
      [
        "▁alkaati",
        -10.54445823296826
      ],
      [
        "▁chirurgi",
        -10.54445828002171
      ],
      [
        "▁dog-dog",
        -10.54445828526183
      ],
      [
        "▁jaar-jaar",
        -10.544458299944003
      ],
      [
        "▁tribales",
        -10.544458382191952
      ],
      [
        "▁sèche",
        -10.544458402719746
      ],
      [
        "▁hasard",
        -10.544458434910233
      ],
      [
        "▁étouffante",
        -10.544458546641362
      ],
      [
        "▁ófise",
        -10.544458553447994
      ],
      [
        "▁d'Européens",
        -10.544458580634473
      ],
      [
        "▁pelouse",
        -10.544458654487494
      ],
      [
        "▁Tàngaay",
        -10.544458828864474
      ],
      [
        "▁gàngiri",
        -10.544459006661846
      ],
      [
        "▁habillé",
        -10.544459079954889
      ],
      [
        "▁xam-xam",
        -10.544459125350622
      ],
      [
        "▁Algérie",
        -10.544459172271877
      ],
      [
        "▁brindille",
        -10.544459288304285
      ],
      [
        "▁cafards",
        -10.544459316641627
      ],
      [
        "▁manifesta",
        -10.544459342320337
      ],
      [
        "▁trône",
        -10.544459562172495
      ],
      [
        "▁Sahara",
        -10.544459598648189
      ],
      [
        "▁ceinture",
        -10.544459776920453
      ],
      [
        "▁recouvert",
        -10.544460225584107
      ],
      [
        "▁dispañseer",
        -10.544460643092886
      ],
      [
        "▁respire",
        -10.54446071041319
      ],
      [
        "▁biiru-ta",
        -10.544460756982401
      ],
      [
        "▁pikiir",
        -10.544461055508295
      ],
      [
        "▁réponse",
        -10.544461114469144
      ],
      [
        "▁camarades",
        -10.544461233720087
      ],
      [
        "▁banlieue",
        -10.544461256403167
      ],
      [
        "▁suppose",
        -10.54446127743477
      ],
      [
        "▁lëkkale",
        -10.54446147871058
      ],
      [
        "pérer",
        -10.544461869352556
      ],
      [
        "▁coiff",
        -10.544462134436584
      ],
      [
        "▁visible",
        -10.544462909859568
      ],
      [
        "▁policier",
        -10.544463872251125
      ],
      [
        "▁Indiens",
        -10.544464001501346
      ],
      [
        "▁callweer",
        -10.54446417237807
      ],
      [
        "▁craquelée",
        -10.544464502612321
      ],
      [
        "▁quartier",
        -10.544464595901998
      ],
      [
        "considéra",
        -10.544464848193723
      ],
      [
        "▁résignation",
        -10.544465382690698
      ],
      [
        "▁minuscule",
        -10.54446575556346
      ],
      [
        "▁popula",
        -10.544466576090956
      ],
      [
        "▁Fàttewu",
        -10.544466979506726
      ],
      [
        "▁meilleur",
        -10.544466998012817
      ],
      [
        "▁soixante",
        -10.544467043926096
      ],
      [
        "▁politique",
        -10.544467435455365
      ],
      [
        "▁répandu",
        -10.544467819416706
      ],
      [
        "▁consacré",
        -10.544468124060343
      ],
      [
        "▁réccu",
        -10.544468249802517
      ],
      [
        "▁mébét",
        -10.544468511607452
      ],
      [
        "▁vaisselle",
        -10.54446856375971
      ],
      [
        "▁galeries",
        -10.544470090288813
      ],
      [
        "▁Saawusamton",
        -10.544470216105545
      ],
      [
        "▁njariñ",
        -10.544470744024155
      ],
      [
        "▁Faranse",
        -10.54447103157251
      ],
      [
        "▁procur",
        -10.544471591863939
      ],
      [
        "▁yalwaan",
        -10.544471669319826
      ],
      [
        "▁Polisoŋ",
        -10.544472554197046
      ],
      [
        "▁reetaan",
        -10.544474546198986
      ],
      [
        "▁ténia",
        -10.544477036071632
      ],
      [
        "▁Téere",
        -10.544477166473458
      ],
      [
        "▁jaabante",
        -10.54447910346969
      ],
      [
        "▁Riwër",
        -10.544488503411804
      ],
      [
        "▁Fiild",
        -10.54448993167059
      ],
      [
        "▁propos",
        -10.54449127862648
      ],
      [
        "▁piège",
        -10.544492291450984
      ],
      [
        "▁colonisation",
        -10.54449479305778
      ],
      [
        "▁justifi",
        -10.544496644615252
      ],
      [
        "▁ŋgoogu",
        -10.544505502217918
      ],
      [
        "▁contrebas",
        -10.54450676025695
      ],
      [
        "▁ŋàññ",
        -10.544522804273143
      ],
      [
        "▁toppatoo",
        -10.544527541352966
      ],
      [
        "▁Alseri",
        -10.544528114009795
      ],
      [
        "▁colonne",
        -10.544529783557088
      ],
      [
        "▁yàkkamt",
        -10.54453221174725
      ],
      [
        "voûte",
        -10.54453764570594
      ],
      [
        "▁River",
        -10.544543361646033
      ],
      [
        "▁sculptés",
        -10.544544613474278
      ],
      [
        "▁bref",
        -10.54455216842484
      ],
      [
        "▁défens",
        -10.544555712712327
      ],
      [
        "▁repris",
        -10.544558662057874
      ],
      [
        "▁noyyee",
        -10.54455875066471
      ],
      [
        "▁(car",
        -10.544563562591321
      ],
      [
        "▁gorilles",
        -10.544566611889659
      ],
      [
        "▁rapporté",
        -10.544570966040522
      ],
      [
        "▁xélu",
        -10.544572684977465
      ],
      [
        "obscur",
        -10.544574019577555
      ],
      [
        "▁douleur",
        -10.544587697517187
      ],
      [
        "▁l'inter",
        -10.544590782227687
      ],
      [
        "▁sept",
        -10.544600988098932
      ],
      [
        "▁foyer",
        -10.54460227849254
      ],
      [
        "▁lançai",
        -10.544603863487295
      ],
      [
        "▁juróom-benn",
        -10.544620779416148
      ],
      [
        "▁m'a-t-",
        -10.5446283264461
      ],
      [
        "▁ruqu-géeju",
        -10.544631568294902
      ],
      [
        "▁Yéesu",
        -10.54463318468939
      ],
      [
        "▁mbagg",
        -10.544642097435853
      ],
      [
        "▁sóob",
        -10.544651997576802
      ],
      [
        "▁Dellu",
        -10.544652258800468
      ],
      [
        "▁ginnax",
        -10.544656347169633
      ],
      [
        "▁yendoo",
        -10.544669587115601
      ],
      [
        "▁vieillesse",
        -10.544670477921533
      ],
      [
        "▁plaintes",
        -10.544676449614965
      ],
      [
        "▁xàmb",
        -10.544678794343875
      ],
      [
        "▁saŋx",
        -10.544685273942129
      ],
      [
        "▁palais",
        -10.544686265743634
      ],
      [
        "▁wecc",
        -10.544688156830617
      ],
      [
        "▁soppikoo",
        -10.544692089729423
      ],
      [
        "▁qu'aucun",
        -10.544693519041456
      ],
      [
        "▁iróko",
        -10.544712386053561
      ],
      [
        "▁Partout",
        -10.544730779086333
      ],
      [
        "▁terrain",
        -10.544735768375695
      ],
      [
        "▁fomp",
        -10.544737429202783
      ],
      [
        "▁allumette",
        -10.544739146415804
      ],
      [
        "▁l'enthousiasme",
        -10.544740455772558
      ],
      [
        "▁l'horreur",
        -10.544755154181185
      ],
      [
        "paradis",
        -10.5447620649601
      ],
      [
        "▁généreux",
        -10.544765833552058
[...]
