{
  "version": "1.0",
  "truncation": null,
  "padding": null,
  "added_tokens": [
    {
      "id": 0,
      "content": "<cls>",
      "single_word": false,
      "lstrip": false,
      "rstrip": false,
      "normalized": false,
      "special": true
    },
    {
      "id": 1,
      "content": "<sep>",
      "single_word": false,
      "lstrip": false,
      "rstrip": false,
      "normalized": false,
      "special": true
    },
    {
      "id": 2,
      "content": "<unk>",
      "single_word": false,
      "lstrip": false,
      "rstrip": false,
      "normalized": false,
      "special": true
    },
    {
      "id": 3,
      "content": "<pad>",
      "single_word": false,
      "lstrip": false,
      "rstrip": false,
      "normalized": false,
      "special": true
    },
    {
      "id": 4,
      "content": "<mask>",
      "single_word": false,
      "lstrip": false,
      "rstrip": false,
      "normalized": false,
      "special": true
    },
    {
      "id": 5,
      "content": "<s>",
      "single_word": false,
      "lstrip": false,
      "rstrip": false,
      "normalized": false,
      "special": true
    },
    {
      "id": 6,
      "content": "</s>",
      "single_word": false,
      "lstrip": false,
      "rstrip": false,
      "normalized": false,
      "special": true
    }
  ],
  "normalizer": {
    "type": "Replace",
    "pattern": {
      "String": " {2,}"
    },
    "content": " "
  },
  "pre_tokenizer": {
    "type": "Metaspace",
    "replacement": "▁",
    "add_prefix_space": true
  },
  "post_processor": null,
  "decoder": {
    "type": "Metaspace",
    "replacement": "▁",
    "add_prefix_space": true
  },
  "model": {
    "type": "Unigram",
    "unk_id": 2,
    "vocab": [
      [
        "<cls>",
        0.0
      ],
      [
        "<sep>",
        0.0
      ],
      [
        "<unk>",
        0.0
      ],
      [
        "<pad>",
        0.0
      ],
      [
        "<mask>",
        0.0
      ],
      [
        "<s>",
        0.0
      ],
      [
        "</s>",
        0.0
      ],
      [
        "▁",
        -2.5690644949182238
      ],
      [
        ".",
        -3.5218474478959196
      ],
      [
        "?",
        -3.91308775058494
      ],
      [
        "!",
        -3.979912724590444
      ],
      [
        "s",
        -4.061043291301396
      ],
      [
        ",",
        -4.217617305141629
      ],
      [
        "i",
        -4.587185170762178
      ],
      [
        "▁de",
        -4.612574576071501
      ],
      [
        "u",
        -4.640300753398498
      ],
      [
        "▁!",
        -4.686104835116776
      ],
      [
        "e",
        -4.6922435796867985
      ],
      [
        "▁la",
        -4.740225603930551
      ],
      [
        "'est",
        -4.753165569547137
      ],
      [
        "▁dem",
        -4.809169857354161
      ],
      [
        "r",
        -4.828813550310279
      ],
      [
        "t",
        -4.908851157512681
      ],
      [
        "a",
        -4.942262977576764
      ],
      [
        "▁pas",
        -4.971204734939046
      ],
      [
        "n",
        -5.014295657987301
      ],
      [
        "▁qui",
        -5.031232778673729
      ],
      [
        "▁C",
        -5.039299162626643
      ],
      [
        "▁que",
        -5.0601882683435315
      ],
      [
        "▁gi",
        -5.136697369263807
      ],
      [
        "▁na",
        -5.212293440244433
      ],
      [
        "▁õga",
        -5.234877930288191
      ],
      [
        "▁est",
        -5.29110771279395
      ],
      [
        "▁G",
        -5.318253244829224
      ],
      [
        "óor",
        -5.341360982248719
      ],
      [
        "▁un",
        -5.415614015048028
      ],
      [
        "▁vu",
        -5.428268854118507
      ],
      [
        "▁naa",
        -5.452230875632813
      ],
      [
        "▁ne",
        -5.454691461621329
      ],
      [
        "▁homme",
        -5.501459166462619
      ],
      [
        "▁Il",
        -5.5379043900228755
      ],
      [
        "▁ce",
        -5.549121713162587
      ],
      [
        "▁Gis",
        -5.565149856173924
      ],
      [
        "le",
        -5.593904386489925
      ],
      [
        "▁Tu",
        -5.626207922752037
      ],
      [
        "▁été",
        -5.627523165508274
      ],
      [
        "l",
        -5.641310231082091
      ],
      [
        "er",
        -5.642152751578363
      ],
      [
        "▁L'homme",
        -5.658866913706807
      ],
      [
        "▁tu",
        -5.690995212246021
      ],
      [
        "▁à",
        -5.703303542464237
      ],
      [
        "▁a",
        -5.753624911683314
      ],
      [
        "▁ci",
        -5.809245241721644
      ],
      [
        "▁wax",
        -5.811943007362852
      ],
      [
        "y",
        -5.823313910810488
      ],
      [
        "é",
        -5.842150721426221
      ],
      [
        "▁Je",
        -5.868522280825003
      ],
      [
        "▁J'a",
        -5.871583148288764
      ],
      [
        "▁le",
        -5.876341483403298
      ],
      [
        "et",
        -5.88658541798474
      ],
      [
        "▁ñëw",
        -5.898465329647404
      ],
      [
        "▁l'homme",
        -5.9036662181420185
      ],
      [
        "▁nit",
        -5.911340692751821
      ],
      [
        "▁mu",
        -5.9162657210021035
      ],
      [
        "▁te",
        -5.980615603716143
      ],
      [
        "▁góor",
        -5.990723298233012
      ],
      [
        "▁se",
        -6.005342085597519
      ],
      [
        "x",
        -6.020751003268514
      ],
      [
        "▁les",
        -6.040291228440374
      ],
      [
        "▁c",
        -6.042254226053362
      ],
      [
        "al",
        -6.042636891334528
      ],
      [
        "▁qu'il",
        -6.084818651142887
      ],
      [
        "▁Nit",
        -6.093865145290767
      ],
      [
        "▁di",
        -6.1118103113898465
      ],
      [
        "à",
        -6.114220242178797
      ],
      [
        "▁cet",
        -6.130608356913436
      ],
      [
        "▁en",
        -6.137300840946731
      ],
      [
        "▁parti",
        -6.140885248173145
      ],
      [
        "▁ba",
        -6.192125952972222
      ],
      [
        "▁autre",
        -6.232681926205899
      ],
      [
        "▁tout",
        -6.250475919739727
      ],
      [
        "c",
        -6.259284729291789
      ],
      [
        "▁yi",
        -6.282155379806356
      ],
      [
        "▁õgi",
        -6.291667485669988
      ],
      [
        "eneen",
        -6.3154204900498225
      ],
      [
        "▁ki",
        -6.331891612269618
      ],
      [
        "▁sont",
        -6.336500791103782
      ],
      [
        "..",
        -6.361945499026767
      ],
      [
        "▁gis",
        -6.365680966289384
      ],
      [
        "▁bëgg",
        -6.366799213942729
      ],
      [
        "▁woon",
        -6.386128734436067
      ],
      [
        "▁as",
        -6.423179531460417
      ],
      [
        "▁xale",
        -6.448346313960906
      ],
      [
        "▁bi",
        -6.460440584111094
      ],
      [
        "▁xar",
        -6.464610459822502
      ],
      [
        "▁je",
        -6.494927812809301
      ],
      [
        "▁du",
        -6.496146447091135
      ],
      [
        "▁n",
        -6.510463496674648
      ],
      [
        "▁là",
        -6.527774755059795
      ],
      [
        "ci",
        -6.534129860234554
      ],
      [
        "▁ka",
        -6.536461265347549
      ],
      [
        "▁pour",
        -6.537023730913528
      ],
      [
        "re",
        -6.54439708098595
      ],
      [
        "▁celui-là",
        -6.544776220470716
      ],
      [
        "▁A",
        -6.549230263310452
      ],
      [
        "▁parle",
        -6.558597168746568
      ],
      [
        "oon",
        -6.560508380749574
      ],
      [
        "▁nag",
        -6.563332740671012
      ],
      [
        "▁Dem",
        -6.571186883455841
      ],
      [
        "▁il",
        -6.57996143140473
      ],
      [
        "▁mi",
        -6.605461867976247
      ],
      [
        "▁des",
        -6.606100910069271
      ],
      [
        "▁mouton",
        -6.613173109597857
      ],
      [
        "m",
        -6.613389752630595
      ],
      [
        "woon",
        -6.6146579317664145
      ],
      [
        "▁d",
        -6.616877305800376
      ],
      [
        "▁lui",
        -6.625066279864502
      ],
      [
        "▁la.",
        -6.648940047733342
      ],
      [
        "▁toi",
        -6.650092763741986
      ],
      [
        "▁voilà",
        -6.661562766220843
      ],
      [
        "o",
        -6.664638908758986
      ],
      [
        "▁biir",
        -6.680093198541523
      ],
      [
        "▁l'intérieur",
        -6.68700548750979
      ],
      [
        "▁ma",
        -6.700526738118826
      ],
      [
        "-",
        -6.703281079761725
      ],
      [
        "▁s",
        -6.713682623277089
      ],
      [
        "▁ji",
        -6.721216550429764
      ],
      [
        "▁partir",
        -6.72399657947766
      ],
      [
        "▁l",
        -6.724206301059482
      ],
      [
        "il",
        -6.746606967519401
      ],
      [
        "que",
        -6.757931527048973
      ],
      [
        "▁ag",
        -6.760692576162844
      ],
      [
        "épp",
        -6.7621721614111445
      ],
      [
        "▁quelqu'un",
        -6.7658033510271185
      ],
      [
        "▁fi",
        -6.769486482118567
      ],
      [
        "▁venu",
        -6.77008592433957
      ],
      [
        "▁demee",
        -6.7713539176419495
      ],
      [
        "▁demul",
        -6.793180417876061
      ],
      [
        "▁kenn",
        -6.79370319837171
      ],
      [
        "▁moi",
        -6.7968676881612415
      ],
      [
        "▁sa",
        -6.8053282586559805
      ],
      [
        "▁enfants",
        -6.827597529209123
      ],
      [
        "▁k",
        -6.834946708506795
      ],
      [
        "▁J",
        -6.851474114222993
      ],
      [
        "▁laa",
        -6.8514938758115775
      ],
      [
        "tu",
        -6.863595802226481
      ],
      [
        "▁ami",
        -6.8647387838827765
      ],
      [
        "▁moom",
        -6.8673418618701145
      ],
      [
        "▁Quel",
        -6.870892037322531
      ],
      [
        "être",
        -6.874039422115647
      ],
      [
        "▁O",
        -6.8782537297370645
      ],
      [
        "▁jigéen",
        -6.881709932619241
      ],
      [
        "▁Ci",
        -6.882949083216719
      ],
      [
        "▁dit",
        -6.887219736162999
      ],
      [
        "▁Cet",
        -6.8901121822400375
      ],
      [
        "▁chose",
        -6.892208202214235
      ],
      [
        "▁fait",
        -6.8927365173487125
      ],
      [
        "▁fa",
        -6.895493876710675
      ],
      [
        "▁waa",
        -6.901459972841677
      ],
      [
        "f",
        -6.921710060563931
      ],
      [
        "s-t",
        -6.922777625116003
      ],
      [
        "ak",
        -6.933182131583415
      ],
      [
        "▁vous",
        -6.9339203651820505
      ],
      [
        "▁õgeen",
        -6.934124645187456
      ],
      [
        "une",
        -6.934255269035555
      ],
      [
        "te",
        -6.941351896884596
      ],
      [
        "▁aussi",
        -6.9444064335577025
      ],
      [
        "▁n'a",
        -6.947859157678831
      ],
      [
        "ment",
        -6.9491581291716935
      ],
      [
        "▁peut-",
        -6.949790912633161
      ],
      [
        "▁femme",
        -6.9566876715178205
      ],
      [
        "▁dans",
        -6.961916849165615
      ],
      [
        "▁ñi",
        -6.964639455015638
      ],
      [
        "ù",
        -6.966769888700493
      ],
      [
        "-là",
        -6.966860286397863
      ],
      [
        "▁celui",
        -6.977210265370786
      ],
      [
        "▁foofu",
        -6.983974065459559
      ],
      [
        "▁ave",
        -7.00019116258286
      ],
      [
        "▁Le",
        -7.006083003864697
      ],
      [
        "▁si",
        -7.007896317295627
      ],
      [
        "▁ku",
        -7.008389651341375
      ],
      [
        "▁xarit",
        -7.014159260602183
      ],
      [
        "▁où",
        -7.018496354715181
      ],
      [
        "▁Xar",
        -7.019991850400107
      ],
      [
        "▁veux",
        -7.0208838710081505
      ],
      [
        "▁Ce",
        -7.0386259773615905
      ],
      [
        "▁E",
        -7.0392457469228225
      ],
      [
        "nt",
        -7.051817935966679
      ],
      [
        "▁réer",
        -7.055137465619865
      ],
      [
        "▁part",
        -7.056486661132768
      ],
      [
        "▁nda",
        -7.062835412369597
      ],
      [
        "▁m",
        -7.072105291474063
      ],
      [
        "▁Fa",
        -7.077924295411405
      ],
      [
        "▁par",
        -7.078119772519244
      ],
      [
        "▁L",
        -7.083748983891935
      ],
      [
        "▁là-bas",
        -7.085091583360662
      ],
      [
        "▁Qui",
        -7.090467846321927
      ],
      [
        "d",
        -7.0908957625298505
      ],
      [
        "on",
        -7.0926545345886165
      ],
      [
        "w",
        -7.095539413273119
      ],
      [
        "▁Les",
        -7.096166448459469
      ],
      [
        "est",
        -7.103323866245281
      ],
      [
        "▁kooku",
        -7.106788635889309
      ],
      [
        "▁Sée",
        -7.113302764978712
      ],
      [
        "ez",
        -7.121000866211382
      ],
      [
        "ont",
        -7.124655232845172
      ],
      [
        "▁soo",
        -7.136638338153761
      ],
      [
        "ne",
        -7.145964103195405
      ],
      [
        "oo",
        -7.1484907338564545
      ],
      [
        "-ci",
        -7.15212986419597
      ],
      [
        "▁b",
        -7.158807918990982
      ],
      [
        "▁moutons",
        -7.164433621086067
      ],
      [
        "voir",
        -7.16536386923623
      ],
      [
        "▁gens",
        -7.1663719021869845
      ],
      [
        "▁ni",
        -7.176768036314881
      ],
      [
        "ent",
        -7.183754333483271
      ],
      [
        "▁veut",
        -7.185868850991654
      ],
      [
        "ay",
        -7.186531845362575
      ],
      [
        "ir",
        -7.189284733071512
      ],
      [
        "is",
        -7.193221325453591
      ],
      [
        "▁Su",
        -7.193709383501993
      ],
      [
        "it",
        -7.20367247663717
      ],
      [
        "▁maison",
        -7.205562714197855
      ],
      [
        "▁personne",
        -7.20823951675793
      ],
      [
        "▁Que",
        -7.213978851584342
      ],
      [
        "▁manière",
        -7.220490886609891
      ],
      [
        "▁Na",
        -7.222837036115763
      ],
      [
        "▁fu",
        -7.222900794132405
      ],
      [
        "▁So",
        -7.223256731005241
      ],
      [
        "▁ceux-là",
        -7.2484193165044655
      ],
      [
        "▁alors",
        -7.248431821871451
      ],
      [
        "▁D",
        -7.254169193418333
      ],
      [
        "▁ya",
        -7.2553354666178915
      ],
      [
        "▁F",
        -7.258140505556426
      ],
      [
        "▁moo",
        -7.2658692863134
      ],
      [
        "▁ñu",
        -7.274498516626588
      ],
      [
        "▁j",
        -7.276891879934908
      ],
      [
        "g",
        -7.281711525575096
      ],
      [
        "▁Maa",
        -7.289501023643615
      ],
      [
        "▁araf",
        -7.293056627538309
      ],
      [
        "▁Vous",
        -7.293176684522743
      ],
      [
        "▁man",
        -7.295198004396645
      ],
      [
        "▁nak",
        -7.29701331213028
      ],
      [
        "▁itam",
        -7.300944300085454
      ],
      [
        "na",
        -7.309679181651772
      ],
      [
        "▁baax",
        -7.311938214940506
      ],
      [
        "quel",
        -7.337667024685135
      ],
      [
        "▁jusqu'",
        -7.33957103070547
      ],
      [
        "▁l'autre",
        -7.341476768848548
      ],
      [
        "faire",
        -7.341644093655378
      ],
      [
        "▁celui-ci",
        -7.3424793871422995
      ],
      [
        "▁yépp",
        -7.342619805420282
      ],
      [
        "▁K",
        -7.343277428816163
      ],
      [
        "▁y",
        -7.348833203907409
      ],
      [
        "▁doon",
        -7.352142712919079
      ],
      [
        "ul",
        -7.357337695949278
      ],
      [
        "▁aller",
        -7.3601469569982445
      ],
      [
        "▁bon",
        -7.3684299155744934
      ],
      [
        "▁dee",
        -7.370529957694803
      ],
      [
        "es",
        -7.37148463752677
      ],
      [
        "▁su",
        -7.37202444213178
      ],
      [
        "koon",
        -7.377353647110442
      ],
      [
        "▁Du",
        -7.382480745770803
      ],
      [
        "▁être",
        -7.387787705517529
      ],
      [
        "▁dana",
        -7.398495473621246
      ],
      [
        "▁S",
        -7.404306738978303
      ],
      [
        "en",
        -7.408030067261802
      ],
      [
        "ée",
        -7.408864608104134
      ],
      [
        "▁vois",
        -7.418107541744689
      ],
      [
        "▁quelle",
        -7.425165871613605
      ],
      [
        "uñu",
        -7.42952232363651
      ],
      [
        "▁Va",
        -7.438785984324436
      ],
      [
        "▁doõõ",
        -7.442974834996475
      ],
      [
        "▁donné",
        -7.443518678460121
      ],
      [
        "▁Keneen",
        -7.445239549064766
      ],
      [
        "▁Te",
        -7.4454281662336514
      ],
      [
        "▁lequel",
        -7.445535369521216
      ],
      [
        "▁t",
        -7.449154114776405
      ],
      [
        "dre",
        -7.449198787112342
      ],
      [
        "▁son",
        -7.4505165582417625
      ],
      [
        "▁Yaa",
        -7.453361574103871
      ],
      [
        "▁croi",
        -7.453965785527733
      ],
      [
        "▁tou",
        -7.470272896549142
      ],
      [
        "ç",
        -7.47441936271308
      ],
      [
        "▁ca",
        -7.481234209842771
      ],
      [
        "kat",
        -7.482640832001142
      ],
      [
        "p",
        -7.485194923316794
      ],
      [
        "or",
        -7.494724565878686
      ],
      [
        "▁La",
        -7.4955081733372895
      ],
      [
        "▁ñoo",
        -7.49570716896565
      ],
      [
        "▁soi",
        -7.495997214015896
      ],
      [
        "▁lion",
        -7.49706691439895
      ],
      [
        "▁rekk",
        -7.498675108143022
      ],
      [
        "▁Samba",
        -7.498675824354908
      ],
      [
        "▁cheval",
        -7.498853565727204
      ],
      [
        "▁Xale",
        -7.499022990531277
      ],
      [
        "▁égaré",
        -7.500152997929286
      ],
      [
        "▁Nda",
        -7.504628805849903
      ],
      [
        "▁mais",
        -7.505554449508731
      ],
      [
        "▁Laobe",
        -7.50732593825977
      ],
      [
        "▁es",
        -7.508373647983731
      ],
      [
        "un",
        -7.526771143874969
      ],
      [
        "▁kan",
        -7.529775394599849
      ],
      [
        "▁seul",
        -7.5326664932449905
      ],
      [
        "▁ou",
        -7.533789202209119
      ],
      [
        "▁leen",
        -7.5341953019086345
      ],
      [
        "ël",
        -7.536128683527408
      ],
      [
        "▁t'a",
        -7.541340400352366
      ],
      [
        "s.",
        -7.54144031326134
      ],
      [
        "ce",
        -7.5469471115463005
      ],
      [
        "près",
        -7.5482441160363525
      ],
      [
        "▁comme",
        -7.55404326517826
      ],
      [
        "▁Moo",
        -7.5551290149923584
      ],
      [
        "▁rien",
        -7.558086509070179
      ],
      [
        "▁ñépp",
        -7.558192200007513
      ],
      [
        "▁moment",
        -7.558276210484957
      ],
      [
        "▁Mais",
        -7.558730857117253
      ],
      [
        "▁mépp",
        -7.560932557256189
      ],
      [
        "▁yooyu",
        -7.561321389318731
      ],
      [
        "▁f",
        -7.561554578685826
      ],
      [
        "▁gii",
        -7.5616473766179215
      ],
      [
        "▁kër",
        -7.564665285187836
      ],
      [
        "▁ñan",
        -7.567267973577847
      ],
      [
        "▁Waa",
        -7.569971175826407
      ],
      [
        "▁autres",
        -7.5722782882478175
      ],
      [
        "▁fut",
        -7.572893409043317
      ],
      [
        "▁bien",
        -7.580457200906171
      ],
      [
        "▁Mi",
        -7.580944148910398
      ],
      [
        "▁Bëgg",
        -7.584825809435502
      ],
      [
        "▁dul",
        -7.58485643053765
      ],
      [
        "▁Seet",
        -7.586489900688497
      ],
      [
        "▁Ma",
        -7.602391181257339
      ],
      [
        "▁d'",
        -7.602413333281597
      ],
      [
        "k",
        -7.6110456797346515
      ],
      [
        "▁n'es",
        -7.611960420131817
      ],
      [
        "igéen",
        -7.618681857322553
      ],
      [
        "▁Un",
        -7.61925535591117
      ],
      [
        "ale",
        -7.619365638568219
      ],
      [
        "▁benn",
        -7.620605225925344
      ],
      [
        "▁vache",
        -7.620788319144765
      ],
      [
        "▁sax",
        -7.621335960659684
      ],
      [
        "▁génn",
        -7.621833071529909
      ],
      [
        "▁dara",
        -7.622135875653344
      ],
      [
        "▁demkoon",
        -7.6268199851608784
      ],
      [
        "yan",
        -7.62801844245825
      ],
      [
        "▁cha",
        -7.631005577475159
      ],
      [
        "▁Ndar",
        -7.632669432063595
      ],
      [
        "▁cela",
        -7.634224453365086
      ],
      [
        "▁lañu",
        -7.63481687033651
      ],
      [
        "▁quelque",
        -7.6414941192522505
      ],
      [
        "▁parte",
        -7.643704265351479
      ],
      [
        "▁l'",
        -7.643716994956309
      ],
      [
        "ement",
        -7.645230260942368
      ],
      [
        "▁gan",
        -7.649363606744771
      ],
      [
        "ette",
        -7.653984701903418
      ],
      [
        "▁fii",
        -7.660962090089951
      ],
      [
        "mi",
        -7.662663031493463
      ],
      [
        "ante",
        -7.665842991533578
      ],
      [
        "▁même",
        -7.665910079094914
      ],
      [
        "▁w",
        -7.6659253843234385
      ],
      [
        "▁Si",
        -7.666736724414065
      ],
      [
        "▁Y",
        -7.673075983558902
      ],
      [
        "▁De",
        -7.673130810040648
      ],
      [
        "ation",
        -7.6802707151236
      ],
      [
        "▁Kooku",
        -7.6859607483317385
      ],
      [
        "▁Ba",
        -7.6878311596926086
      ],
      [
        "▁Yaw",
        -7.691653723654248
      ],
      [
        "▁Ya",
        -7.701414816720021
      ],
      [
        "▁nee",
        -7.704315015504077
      ],
      [
        "▁Da",
        -7.706979677219504
      ],
      [
        "▁n'",
        -7.707428899614271
      ],
      [
        "aper",
        -7.707501670502925
      ],
      [
        "▁xam",
        -7.711046614232199
      ],
      [
        "b",
        -7.7221323529080035
      ],
      [
        "té",
        -7.73775607534706
      ],
      [
        "▁da",
        -7.739581815002531
      ],
      [
        "▁fas",
        -7.75110798639407
      ],
      [
        "▁l'a",
        -7.75481391124842
      ],
      [
        "▁au",
        -7.756050003437586
      ],
      [
        "▁do",
        -7.756510178309269
      ],
      [
        "▁S'il",
        -7.757188810821819
      ],
      [
        "▁Aucun",
        -7.757397356238624
      ],
      [
        "▁habitant",
        -7.757850315816307
      ],
      [
        "▁nul",
        -7.757920016815322
      ],
      [
        "▁Celui-là",
        -7.7580363588053505
      ],
      [
        "▁simplement",
        -7.758053914032808
      ],
      [
        "▁gaynde",
        -7.76058190795129
      ],
      [
        "▁liggéey",
        -7.7609341511969925
      ],
      [
        "▁bañ",
        -7.761372689786111
      ],
      [
        "▁pars",
        -7.762145153717809
      ],
      [
        "▁endroit",
        -7.762910134808974
      ],
      [
        "▁dame",
        -7.764790952765197
      ],
      [
        "an",
        -7.765648428398787
      ],
      [
        "▁Tout",
        -7.765730007942111
      ],
      [
        "▁voir",
        -7.767136318136785
      ],
      [
        "▁jeune",
        -7.772831346529948
      ],
      [
        "▁dé",
        -7.773353367017579
      ],
      [
        "elle",
        -7.774098528916208
      ],
      [
        "▁d'autres",
        -7.775828322952183
      ],
      [
        "ant",
        -7.787805816132008
      ],
      [
        "fin",
        -7.795339455454603
      ],
      [
        "▁Bi",
        -7.799388433228087
      ],
      [
        "in",
        -7.80050570780627
      ],
      [
        "▁no",
        -7.806701504706737
      ],
      [
        "▁vas",
        -7.808201757474668
      ],
      [
        "di",
        -7.80988239011924
      ],
      [
        "▁avait",
        -7.813092013200784
      ],
      [
        ":",
        -7.83042887078809
      ],
      [
        "▁jëm",
        -7.8330607383330175
      ],
      [
        "ar",
        -7.833258325269096
      ],
      [
        "▁matin",
        -7.8341436774087505
      ],
      [
        "▁encore",
        -7.834279007106794
      ],
      [
        "▁Qu'il",
        -7.83452695525142
      ],
      [
        "▁Saint-Louis",
        -7.834533236406056
      ],
      [
        "▁Yéen",
        -7.835208081798084
      ],
      [
        "▁Mu",
        -7.8365285885989575
      ],
      [
        "ul.",
        -7.838014416522933
      ],
      [
        "▁bëggul",
        -7.838561552544556
      ],
      [
        "▁kii",
        -7.838730219899981
      ],
      [
        "▁nañu",
        -7.839950213479858
      ],
      [
        "▁def",
        -7.842055067237682
      ],
      [
        "▁viendra",
        -7.84732505469365
      ],
      [
        "▁À",
        -7.848549489525061
      ],
      [
        "▁wall",
        -7.8600840781280175
      ],
      [
        "▁re",
        -7.861695056315735
      ],
      [
        "▁Di",
        -7.862361286976338
      ],
      [
        "▁Wax",
        -7.8655049672739885
      ],
      [
        "▁ici",
        -7.866432967951225
      ],
      [
        "▁ban",
        -7.874856143660695
      ],
      [
        "▁bii",
        -7.875238201579142
      ],
      [
        "▁bu",
        -7.878160312505486
      ],
      [
        "▁li",
        -7.882356273924723
      ],
      [
        "▁femmes",
        -7.885561088338477
      ],
      [
        "▁va",
        -7.886213258305421
      ],
      [
        "▁étai",
        -7.886233527076648
      ],
      [
        "waay",
        -7.886247985777255
      ],
      [
        "▁qu'",
        -7.888753110996802
      ],
      [
        "ñ",
        -7.891290697016796
      ],
      [
        "▁plus",
        -7.892682199878088
      ],
      [
        "▁dugg",
        -7.8954468067238555
      ],
      [
        "▁aux",
        -7.895538274917123
      ],
      [
        "é.",
        -7.896014152141269
      ],
      [
        "▁vienne",
        -7.898344019894598
      ],
      [
        "ère",
        -7.8986070191370255
      ],
      [
        "▁toog",
        -7.899244087518352
      ],
      [
        "ser",
        -7.899768456987576
      ],
      [
        "▁Ken",
        -7.899956265617545
      ],
      [
        "▁Quelle",
        -7.901758558398752
      ],
      [
        "age",
        -7.902168974591525
      ],
      [
        "▁rafet",
        -7.9074139168036
      ],
      [
        "▁am",
        -7.909493318974196
      ],
      [
        "▁Jox",
        -7.916661122728212
      ],
      [
        "▁Lawbe",
        -7.917248618241256
      ],
      [
        "▁Cherche",
        -7.917509352683274
      ],
      [
        "▁R",
        -7.917586443069038
      ],
      [
        "▁question",
        -7.917643905253625
      ],
      [
        "▁Defe",
        -7.917834572896268
      ],
      [
        "▁yaw",
        -7.919699854094828
      ],
      [
        "tre",
        -7.91972227032821
      ],
      [
        "aay",
        -7.919959916457598
      ],
      [
        "▁bépp",
        -7.920935742403063
      ],
      [
        "▁Demal",
        -7.924702227332624
      ],
      [
        "▁noonu",
        -7.927885238793386
      ],
      [
        "▁gee",
        -7.929895833331658
      ],
      [
        "▁doom",
        -7.930049078733486
      ],
      [
        "▁l'un",
        -7.935848875041609
      ],
      [
        "me",
        -7.936449688020822
      ],
      [
        "▁sur",
        -7.939091461000118
      ],
      [
        "▁leneen",
        -7.9423400626522085
      ],
      [
        "enn",
        -7.943352179358338
      ],
      [
        "ier",
        -7.943637920776056
      ],
      [
        "▁d'un",
        -7.9458763964758905
      ],
      [
        "fois",
        -7.950255393797466
      ],
      [
        "ter",
        -7.952538051768391
      ],
      [
        "and",
        -7.955690173489167
      ],
      [
        "▁parles",
        -7.95651921973243
      ],
      [
        "▁õgii",
        -7.962800647323093
      ],
      [
        "▁quel",
        -7.965858591932227
      ],
      [
        "óon",
        -7.96608971436075
      ],
      [
        "ais",
        -7.969900061361706
      ],
      [
        "▁na.",
        -7.970144926738792
      ],
      [
        "am",
        -7.972817842913613
      ],
      [
        "ou",
        -7.976757907501581
      ],
      [
        "▁daõ",
        -7.979364358139012
      ],
      [
        "s-",
        -7.981564441801035
      ],
      [
        "▁j'a",
        -7.99175705920017
      ],
      [
        "eux",
        -7.992800987150739
      ],
      [
        "fa",
        -7.993808318048856
      ],
      [
        "les",
        -7.994762495813855
      ],
      [
        "▁P",
        -7.9991326138518986
      ],
      [
        "▁p",
        -8.000664329465724
      ],
      [
        "▁qu",
        -8.004321230945584
      ],
      [
        "▁Sa",
        -8.00489172576119
      ],
      [
        "▁égarée",
        -8.005450530517901
      ],
      [
        "ee",
        -8.00631883450843
      ],
      [
        "▁petit",
        -8.007807802771062
      ],
      [
        "▁ainsi",
        -8.007810318850508
      ],
      [
        "▁Homme",
        -8.007810992537594
      ],
      [
        "▁Moussa",
        -8.007992162614801
      ],
      [
        "▁Xammee",
        -8.008006056759195
      ],
      [
        "▁Alors",
        -8.008059093321238
      ],
      [
        "▁jaõg",
        -8.008436015141486
      ],
      [
        "▁daa",
        -8.009498361203002
      ],
      [
        "▁g",
        -8.009590321789792
      ],
      [
        "▁dañu",
        -8.011591449721829
      ],
      [
        "naa",
        -8.013480887935945
      ],
      [
        "▁néeg",
        -8.014847106722222
      ],
      [
        "▁Nou",
        -8.01511124880223
      ],
      [
        "▁fille",
        -8.017104959228863
      ],
      [
        "▁Ra",
        -8.017287306072884
      ],
      [
        "▁ira",
        -8.024249082724282
      ],
      [
        "éew",
        -8.025044064317283
      ],
      [
        "▁partira",
        -8.030327119365246
      ],
      [
        "▁defe",
        -8.032034228946728
      ],
      [
        "▁toute",
        -8.033846788644885
      ],
      [
        "est-ce",
        -8.03413150193056
      ],
      [
        "▁ja",
        -8.037935032364068
      ],
      [
        "▁may",
        -8.040566344246361
      ],
      [
        "▁loolu",
        -8.0449717387231
      ],
      [
        "▁wa",
        -8.049882371836414
      ],
      [
        "▁cause",
        -8.054647018349147
      ],
      [
        "▁C'",
        -8.062150925859358
      ],
      [
        "▁Li",
        -8.06800512663608
      ],
      [
        "▁Bu",
        -8.069336279098202
      ],
      [
        "réer",
        -8.076149454160703
      ],
      [
        "▁M",
        -8.077650564319164
      ],
      [
        "vais",
        -8.082174836943231
      ],
      [
        "▁ta",
        -8.083128557862173
      ],
      [
        "oi",
        -8.085416315145348
      ],
      [
        "▁v",
        -8.087885802961019
      ],
      [
        "ax",
        -8.088258556171649
      ],
      [
        "▁celle",
        -8.09534552986978
      ],
      [
        "▁parl",
        -8.10307620189479
      ],
      [
        "esquel",
        -8.103419618291888
      ],
      [
        "atim",
        -8.104621425192231
      ],
      [
        "▁subë",
        -8.107293554933472
      ],
      [
        "▁lan",
        -8.107503553409934
      ],
      [
        "▁d'Europe",
        -8.107910551723492
      ],
      [
        "▁ñenn",
        -8.107913971478826
      ],
      [
        "▁ensemble",
        -8.107915938409263
      ],
      [
        "▁Fatim",
        -8.108111362809872
      ],
      [
        "▁pourtant",
        -8.108115588136165
      ],
      [
        "▁ndaw",
        -8.109625257372395
      ],
      [
        "▁Xam",
        -8.109938031493746
      ],
      [
        "▁serai",
        -8.112017036028961
      ],
      [
        "▁sortir",
        -8.113112057155593
      ],
      [
        "▁yeneen",
        -8.115367362596778
      ],
      [
        "▁biti",
        -8.121002024640893
      ],
      [
        "pp",
        -8.122560174081789
      ],
      [
        "▁aujourd'hui",
        -8.124173961807266
      ],
      [
        "▁Koo",
        -8.125831910489271
      ],
      [
        "▁sama",
        -8.1264526092308
      ],
      [
        "▁ñooñu",
        -8.128569248414756
      ],
      [
        "▁Man",
        -8.128843582661464
      ],
      [
        "▁Mon",
        -8.129077145270534
      ],
      [
        "▁xa",
        -8.134410882694183
      ],
      [
        "C",
        -8.13697866380852
      ],
      [
        "▁Voil",
        -8.13833793225243
      ],
      [
        "▁partes",
        -8.139075606779528
      ],
      [
        "as-",
        -8.141193283345142
      ],
      [
        "ii",
        -8.14139062099672
      ],
      [
        "▁so",
        -8.146449752112037
      ],
      [
        "▁fil",
        -8.148138116036035
      ],
      [
        "▁mbaa",
        -8.152324070556244
      ],
      [
        "▁V",
        -8.153217308860208
      ],
      [
        "de",
        -8.156081606508478
      ],
      [
        "▁pay",
        -8.172966385692527
      ],
      [
        "ñu",
        -8.180107836930436
      ],
      [
        "▁ñëwul",
        -8.180405986199768
      ],
      [
        "▁Ñ",
        -8.18528310875954
      ],
      [
        "q",
        -8.187988265059355
      ],
      [
        "uma",
        -8.194865093668572
      ],
      [
        "è",
        -8.195257402984668
      ],
      [
        "óo",
        -8.195821241186742
      ],
      [
        "tal",
        -8.202635442216202
      ],
      [
        "▁N",
        -8.204096926220878
      ],
      [
        "▁ñooña",
        -8.207626004825034
      ],
      [
        "▁prend",
        -8.21621742963661
      ],
      [
        "▁dëkk",
        -8.216563268348715
      ],
      [
        "▁jam",
        -8.216607914565586
      ],
      [
        "▁seet",
        -8.217239492603237
      ],
      [
        "▁Musaa",
        -8.217271699112647
      ],
      [
        "▁acheté",
        -8.218431858053517
      ],
      [
        "▁Sérère",
        -8.218468505226337
      ],
      [
        "▁Tay",
        -8.21852740009252
      ],
      [
        "▁jii",
        -8.219649286603474
      ],
      [
        "nd",
        -8.223619409341374
      ],
      [
        "▁s'en",
        -8.223941036808975
      ],
      [
        "▁Woo",
        -8.224303420514145
      ],
      [
        "▁õgoon",
        -8.22458728257495
      ],
      [
        "▁Noonu",
        -8.229047159211117
      ],
      [
        "▁tay",
        -8.230113475491153
      ],
      [
        "▁vient",
        -8.231107019086823
      ],
      [
        "▁enfant",
        -8.234465224385799
      ],
      [
        "▁Ne",
        -8.234960611431008
      ],
      [
        "▁gu",
        -8.23713306660168
      ],
      [
        "aan",
        -8.237208648091556
      ],
      [
        "'habitude",
        -8.238420491042126
      ],
      [
        "▁Là",
        -8.238959977940425
      ],
      [
        "▁W",
        -8.240254495280247
      ],
      [
        "▁seen",
        -8.24168495225874
      ],
      [
        "ka",
        -8.2430968386516
      ],
      [
        "▁téer",
        -8.244116043228807
      ],
      [
        "▁ch",
        -8.245259948155573
      ],
      [
        "▁bokk",
        -8.246812257984583
      ],
      [
        "oom",
        -8.246846330788907
      ],
      [
        "eur",
        -8.247104373223827
      ],
      [
        "'étai",
        -8.247331849790648
      ],
      [
        "▁viennes",
        -8.247703254549041
      ],
      [
        "ver",
        -8.248772553147575
      ],
      [
        "▁ñ",
        -8.250719540345345
      ],
      [
        "ma",
        -8.25399625646849
      ],
      [
        "ile",
        -8.262829932921123
      ],
      [
        "kk",
        -8.263131764395483
      ],
      [
        "▁d'a",
        -8.263208579582265
      ],
      [
        "▁daf",
        -8.265287314666278
      ],
      [
        "▁d'autre",
        -8.267955334094534
      ],
      [
        "▁ay",
        -8.27430357799333
      ],
      [
        "z",
        -8.282441271004714
      ],
      [
        "ait",
        -8.286425497382544
      ],
      [
        "▁demande",
        -8.287930020505367
      ],
      [
        "▁Comme",
        -8.289184275276602
      ],
      [
        "▁eû",
        -8.29360732138849
      ],
      [
        "ag",
        -8.29610764679365
      ],
      [
        "mer",
        -8.296122256006829
      ],
      [
        "▁travail",
        -8.296519000793298
      ],
      [
        "aaw",
        -8.297920633796359
      ],
      [
        "t-il",
        -8.298088517990958
      ],
      [
        "▁avais",
        -8.299800987167737
      ],
      [
        "▁parti.",
        -8.305128144446114
      ],
      [
        "▁Doo",
        -8.309691904458873
      ],
      [
        "▁sort",
        -8.321746257456642
      ],
      [
        "▁woo",
        -8.321832528828214
      ],
      [
        "▁av",
        -8.324529276972783
      ],
      [
        "▁arrivé",
        -8.326602735325608
      ],
      [
        "een",
        -8.327924016857654
      ],
      [
        "▁Noon",
        -8.329180486665308
      ],
      [
        "õga",
        -8.331202288135366
      ],
      [
        "▁mo",
        -8.337077443662741
      ],
      [
        "▁lieu",
        -8.33902098985472
      ],
      [
        "▁Par",
        -8.340758766929271
      ],
      [
        "▁boeuf",
        -8.340783077357868
      ],
      [
        "▁moontin",
        -8.340786085256065
      ],
      [
        "▁chevaux",
        -8.340792453242575
      ],
      [
        "▁entier",
        -8.341072335007464
      ],
      [
        "▁Loolu",
        -8.341166260571155
      ],
      [
        "▁Waaye",
        -8.341233370498939
      ],
      [
        "▁surtout",
        -8.341622389503268
      ],
      [
        "ces",
        -8.341927819168147
      ],
      [
        "▁allé",
        -8.342670961472155
      ],
      [
        "ance",
        -8.3428193894991
      ],
      [
        "▁moomu",
        -8.34684440206036
      ],
      [
        "▁Kookule",
        -8.346925577361988
      ],
      [
        "▁Toi",
        -8.349441148731593
      ],
      [
        "ire",
        -8.351275100364235
      ],
      [
        "▁Qu",
        -8.352898739626777
      ],
      [
        "able",
        -8.355698517213995
      ],
      [
        "▁May",
        -8.356003916642278
      ],
      [
        "▁ñaar",
        -8.356420746538298
      ],
      [
        "▁cas",
        -8.360258429270827
      ],
      [
        "▁celles-",
        -8.367816313376464
      ],
      [
        "st-ce",
        -8.370399499640264
      ],
      [
        "▁bëggée",
        -8.371190623782242
      ],
      [
        "rir",
        -8.373243406655765
      ],
      [
        "at",
        -8.375295620496864
      ],
      [
        "tte",
        -8.376785500624596
      ],
      [
        "taan",
        -8.377528098793237
      ],
      [
        "▁lu",
        -8.378542020492208
      ],
      [
        "▁cherche",
        -8.378552414636218
      ],
      [
        "leen",
        -8.378678705925822
      ],
      [
        "▁kookuu",
        -8.383349693865796
      ],
      [
        "sieur",
        -8.388011006456862
      ],
      [
        "▁soir",
        -8.388714377087688
      ],
      [
        "▁Loo",
        -8.39319792766997
      ],
      [
        "▁parler",
        -8.39676494016967
      ],
      [
        "▁connais",
        -8.398970717675656
      ],
      [
        "cher",
        -8.402382137411886
      ],
      [
        "h",
        -8.40251773674089
      ],
      [
        "con",
        -8.410222253934755
      ],
      [
        "▁bir",
        -8.412633881769677
      ],
      [
        "G",
        -8.413503366016421
      ],
      [
        "▁wu",
        -8.415298743164165
      ],
      [
        "ppelle",
        -8.416128242802465
      ],
      [
        "▁tes",
        -8.418709090573948
      ],
      [
        "ête",
        -8.42472575964176
      ],
      [
        "▁Ou",
        -8.425351253311241
      ],
      [
        "▁nañu.",
        -8.428691244481092
      ],
      [
        "▁choses",
        -8.429384956616598
      ],
      [
        "ndoo",
        -8.434991640030942
      ],
      [
        "▁don",
        -8.440046576008179
      ],
      [
        "lu",
        -8.441911993806734
      ],
      [
        "▁it",
        -8.443978224373232
      ],
      [
        "ku",
        -8.445419337734657
      ],
      [
        "▁be",
        -8.451607886005805
      ],
      [
        "▁Laob",
        -8.460364583967742
      ],
      [
        "▁s'",
        -8.46625423062468
      ],
      [
        "▁L'",
        -8.469541032303935
      ],
      [
        "ien",
        -8.470611208855335
      ],
      [
        "▁foofa",
        -8.471747251796778
      ],
      [
        "▁ànd",
        -8.47301989084839
      ],
      [
        "la",
        -8.47642533821935
      ],
      [
        "-t",
        -8.47879458247594
      ],
      [
        "▁n'ai",
        -8.47978286728399
      ],
      [
        "▁nous",
        -8.480976721134772
      ],
      [
        "▁allai",
        -8.482950438772416
      ],
      [
        "▁yeksi",
        -8.483639999810693
      ],
      [
        "▁Ainsi",
        -8.483646955015972
      ],
      [
        "▁Mbaa",
        -8.48368174755025
      ],
      [
        "ëf",
        -8.483710445503476
      ],
      [
        "▁Deõk",
        -8.483716489639392
      ],
      [
        "▁gentil",
        -8.483779644821373
      ],
      [
        "▁gémin",
        -8.483882807699164
      ],
      [
        "▁dellusi",
        -8.484273391520452
      ],
      [
        "▁l'enfant",
        -8.484556771754212
      ],
      [
        "▁tày",
        -8.485548755148741
      ],
      [
        "▁yenn",
        -8.486212390958592
      ],
      [
        "▁lëf",
        -8.48663427591642
      ],
      [
        "▁reste",
        -8.487412475659179
      ],
      [
        "▁mère",
        -8.487491377533674
      ],
      [
        "▁wépp",
        -8.487984506597229
      ],
      [
        "▁nd",
        -8.488092160576988
      ],
      [
        "▁êtes",
        -8.490488723055716
      ],
      [
        "▁Moom",
        -8.49116970047135
      ],
      [
        "▁Cela",
        -8.491378310469631
      ],
      [
        "▁celui-là.",
        -8.492203157521832
      ],
      [
        "mps",
        -8.492589399120172
      ],
      [
        "▁ville",
        -8.492731047183746
      ],
      [
        "▁dogal",
        -8.493406037324018
      ],
      [
        "▁Foofu",
        -8.493523511193455
      ],
      [
        "iez",
        -8.495718671840844
      ],
      [
        "çon",
        -8.499635296022173
      ],
      [
        "▁beau",
        -8.500265296525832
      ],
      [
        "aw",
        -8.500753739093287
      ],
      [
        "▁amen",
        -8.501909077453032
      ],
      [
        "▁cou",
        -8.50245173286886
      ],
      [
        "▁arrivés",
        -8.503444642108029
      ],
      [
        "▁co",
        -8.505050215976006
      ],
      [
        "▁entre",
        -8.515751083621684
      ],
      [
        "individu",
        -8.51741143177495
      ],
      [
        "▁bare",
        -8.518293824711094
      ],
      [
        "as",
        -8.518688312409646
      ],
      [
        "aale",
        -8.519055467184868
      ],
      [
        "▁yee",
        -8.523116863704658
      ],
      [
        "ule",
        -8.525756448231428
      ],
      [
        "▁B",
        -8.533549033558781
      ],
      [
        "gi",
        -8.534208884601295
      ],
      [
        "▁Ben",
        -8.536113091672888
      ],
      [
        "▁kuu",
        -8.546858911343659
      ],
      [
        "▁m'a",
        -8.549043130577024
      ],
      [
        "▁vers",
        -8.55156607360075
      ],
      [
        "ité",
        -8.552264436227757
      ],
      [
        "ënd",
        -8.552727163457142
      ],
      [
        "▁porte",
        -8.552819567869198
      ],
      [
        "là",
        -8.55458581714653
      ],
      [
        "▁san",
        -8.557286023350574
      ],
      [
        "▁jooju",
        -8.55793713500675
      ],
      [
        "éel",
        -8.55916965736963
      ],
      [
        "ñee",
        -8.562314886270066
      ],
      [
        "▁mour",
        -8.562916100206612
      ],
      [
        "ux",
        -8.564869402339982
      ],
      [
        "connais",
        -8.565136365877686
      ],
      [
        "▁ña",
        -8.565178561476142
      ],
      [
        "▁Ch",
        -8.565715213993816
      ],
      [
        "▁alli",
        -8.567600324834505
      ],
      [
        "▁homme.",
        -8.570495329068534
      ],
      [
        "▁loola",
        -8.571251126134984
      ],
      [
        "▁veni",
        -8.571592005621126
      ],
      [
        "▁X",
        -8.572548405969052
      ],
      [
        "▁tax",
        -8.577347877995155
      ],
      [
        "ur",
        -8.580219218291802
      ],
      [
        "ë",
        -8.58117070538311
      ],
      [
        "▁yu",
        -8.586876509231985
      ],
      [
        "▁wan",
        -8.591831584873354
      ],
      [
        "▁Moi",
        -8.592497472293436
      ],
      [
        "▁daw",
        -8.60044308424961
      ],
      [
        "▁far",
        -8.602715293763787
      ],
      [
        "▁individu",
        -8.611836868657027
      ],
      [
        "iller",
        -8.612936391869844
      ],
      [
        "▁partis",
        -8.617931793124198
      ],
      [
        "▁Men",
        -8.626015125405189
      ],
      [
        "▁livre",
        -8.631007755706651
      ],
      [
        "▁partie",
        -8.63420431769297
      ],
      [
        "▁fan",
        -8.63619779158731
      ],
      [
        "gal",
        -8.647923311499692
      ],
      [
        "ambaar",
        -8.650192884601362
      ],
      [
        "▁Aujourd'hui",
        -8.650306215718121
      ],
      [
        "▁goroõ",
        -8.650306709054696
      ],
      [
        "▁d'esprit",
        -8.650353330307347
      ],
      [
        "▁Génn",
        -8.650360303030943
      ],
      [
        "▁fortune",
        -8.650375222785232
      ],
      [
        "▁amour",
        -8.650559619946197
      ],
      [
        "▁Waxtaan",
        -8.650644461896608
      ],
      [
        "▁phon",
        -8.650667725032779
      ],
      [
        "▁suuf",
        -8.65076808339886
      ],
      [
        "▁Donne",
        -8.651052674187152
      ],
      [
        "▁ceux-ci",
        -8.651272732938047
      ],
      [
        "▁L'un",
        -8.651753513103525
      ],
      [
        "▁doonkoon",
        -8.65179919536802
      ],
      [
        "▁Tugël",
        -8.651849199768327
      ],
      [
        "▁dëgg",
        -8.652007182822203
      ],
      [
        "▁dagg",
        -8.653546970983871
      ],
      [
        "▁Waaw",
        -8.65363815005364
      ],
      [
        "▁n'étai",
        -8.655464827282547
      ],
      [
        "▁fépp",
        -8.657890255359142
      ],
      [
        "▁boo",
        -8.661633974035585
      ],
      [
        "ût",
        -8.66171778744868
      ],
      [
        "▁fenn",
        -8.661819587121446
      ],
      [
        "▁më",
        -8.663070226174721
      ],
      [
        "▁sain",
        -8.66345527584391
      ],
      [
        "▁mag",
        -8.665443294302953
      ],
      [
        "se",
        -8.66587515079365
      ],
      [
        "▁autre-là",
        -8.667767179816646
      ],
      [
        "là.",
        -8.667784365068517
      ],
      [
        "▁deux",
        -8.670939921203262
      ],
      [
        "▁wet",
        -8.671963639877715
      ],
      [
        "▁croyai",
        -8.672992746997778
      ],
      [
        "▁jaambur",
        -8.676509648233594
      ],
      [
        "▁boobu",
        -8.677128747185158
      ],
      [
        "▁certaine",
        -8.678527393089176
      ],
      [
        "▁gor",
        -8.680426402889893
      ],
      [
        "▁ñaan",
        -8.683658679582315
      ],
      [
        "▁kook",
        -8.684809458994883
      ],
      [
        "▁Dana",
        -8.686261040232033
      ],
      [
        "▁wàn",
        -8.687016868959255
      ],
      [
        "ient",
        -8.688361802228695
      ],
      [
        "▁pu",
        -8.694289886685915
      ],
      [
        "▁kon",
        -8.695517888571054
      ],
      [
        "▁lekk",
        -8.69710863780793
      ],
      [
        "▁Ki",
        -8.69980141468262
      ],
      [
        "▁att",
        -8.700761831658706
      ],
      [
        "estime",
        -8.701213901912094
      ],
      [
        "▁Dan",
        -8.70277017635568
      ],
      [
        "▁aime",
        -8.703526604565944
      ],
      [
        "▁t'",
        -8.703774888604205
      ],
      [
        "▁pi",
        -8.705164795341952
      ],
      [
        "▁J'",
        -8.708578880157663
      ],
      [
        "moi",
        -8.709142423149704
      ],
      [
        "▁partis.",
        -8.709256138326966
      ],
      [
        "▁alal",
        -8.709371726772758
      ],
      [
        "▁aurai",
        -8.71215864365547
      ],
      [
        "ici",
        -8.720399478373698
      ],
      [
        "▁yaa",
        -8.723174692888012
      ],
      [
        "▁ko",
        -8.724367548999428
      ],
      [
        "▁leer",
        -8.727080815666099
      ],
      [
        "▁Daõg",
        -8.727384404355721
      ],
      [
        "▁yooya",
        -8.728467616860609
      ],
      [
        "▁sopp",
        -8.72912022334453
      ],
      [
        "▁Dis",
        -8.73531150554868
      ],
      [
        "ñaan",
        -8.738818186687775
      ],
      [
        "ide",
        -8.74118932244303
      ],
      [
        "ner",
        -8.743512055268662
      ],
      [
        "wal",
        -8.745816711363426
      ],
      [
        "góor",
        -8.745894288525104
      ],
      [
        "▁n'avai",
        -8.746491544052564
      ],
      [
        "ons",
        -8.747596886620109
      ],
      [
        "▁jooj",
        -8.753508820195885
      ],
      [
        "ré",
        -8.754872832026892
      ],
      [
        "acher",
        -8.757280398984905
      ],
      [
        "ion",
        -8.757559961418398
      ],
      [
        "eel",
        -8.759058803374128
      ],
      [
        "▁me",
        -8.760193992106695
      ],
      [
        "per",
        -8.762100764885139
      ],
      [
        "▁joo",
        -8.769982896734813
      ],
      [
        "▁vo",
        -8.770080151457753
      ],
      [
        "▁devan",
        -8.773164402137402
      ],
      [
        "mb",
        -8.777467557684195
      ],
      [
        "nce",
        -8.782017224584067
      ],
      [
        "▁r",
        -8.786941657688427
      ],
      [
        "ller",
        -8.789640985564377
      ],
      [
        "nde",
        -8.794746406630441
      ],
      [
        "▁change",
        -8.79649356609584
      ],
      [
        "sse",
        -8.799341152051705
      ],
      [
        "▁mën",
        -8.801398059367068
      ],
      [
        "▁dey",
        -8.801616138329729
      ],
      [
        "▁Ñe",
        -8.80313542686953
      ],
      [
        "▁Sur",
        -8.805119112392834
      ],
      [
        "▁pa",
        -8.81348694256012
      ],
      [
        "▁voici",
        -8.814250333048461
      ],
      [
        "▁mii",
        -8.814429505006906
      ],
      [
        "▁leur",
        -8.82202691454351
      ],
      [
        "▁con",
        -8.82418938432237
      ],
      [
        "▁lool",
        -8.831495241899653
      ],
      [
        "▁n'e",
        -8.83897315259985
      ],
      [
        "▁l'extérieur",
        -8.85030621567823
      ],
      [
        "«",
        -8.85030621571812
      ],
      [
        "»",
        -8.85030621571812
      ],
      [
        "▁auparavant",
        -8.85030621574478
      ],
      [
        "▁bûcheron",
        -8.85030621584793
      ],
      [
        "▁grâce",
        -8.8503062361863
      ],
      [
        "▁maître",
        -8.850306313563328
      ],
      [
        "▁baobab",
        -8.850306393299505
      ],
      [
        "▁morceau",
        -8.85030658589294
      ],
      [
        "▁accepte",
        -8.850307884580024
      ],
      [
        "▁raññe",
        -8.850308658441719
      ],
      [
        "▁Moontin",
        -8.850309095844027
      ],
      [
        "▁mâle",
        -8.850312505508713
      ],
      [
        "▁xaalis",
        -8.850344613629826
      ],
      [
        "pendan",
        -8.850425762359306
      ],
      [
        "▁prêt",
        -8.850436823568298
      ],
      [
        "▁concert",
        -8.850461310019242
      ],
      [
        "▁retourne",
        -8.850469931709538
      ],
      [
        "▁mesure",
        -8.850504464924626
      ],
      [
        "▁Ceux-là",
        -8.850537040797647
      ],
      [
        "▁parents",
        -8.850605899510995
      ],
      [
        "▁courage",
        -8.850631087959567
      ],
      [
        "▁jabar",
        -8.850661579493442
      ],
      [
        "▁taxaw",
        -8.85070202556679
      ],
      [
        "▁revienne",
        -8.851062970747488
      ],
      [
        "▁saõx",
        -8.851241149563663
      ],
      [
        "▁Ñii",
        -8.851349922949137
      ],
      [
        "▁õgoogule",
        -8.852196210986923
      ],
      [
        "▁côt",
        -8.852508403780778
      ],
      [
        "▁pou",
        -8.852762503247632
      ],
      [
        "▁travailleurs",
        -8.852817203114622
      ],
      [
        "▁gën",
        -8.85282800896184
      ],
      [
        "▁wér",
        -8.853181295626474
      ],
      [
        "▁unique",
        -8.853512228251287
      ],
      [
        "▁Foo",
        -8.854115186268515
      ],
      [
        "▁reconnu",
        -8.855495735302581
      ],
      [
        "▁ñuul",
        -8.855568874763515
      ],
      [
        "▁donc",
        -8.856006300837068
      ],
      [
        "je",
        -8.85661978061568
      ],
      [
        "▁nekk",
        -8.856841983602035
      ],
      [
        "varié",
        -8.858932072829983
      ],
      [
        "▁eusse",
        -8.860358291561381
      ],
      [
        "▁jou",
        -8.860722687452204
      ],
      [
        "▁goree",
        -8.86086354808784
      ],
      [
        "▁refuser",
        -8.860962076100481
      ],
      [
        "raî",
        -8.862026341430221
      ],
      [
        "▁Dama",
        -8.863117820217361
      ],
      [
        "▁noppi",
        -8.864108583131783
      ],
      [
        "▁deey",
        -8.86487041164386
      ],
      [
        "googule",
        -8.865018000878024
      ],
      [
        "▁Am",
        -8.865208846662282
      ],
      [
        "▁buur",
        -8.867014879815375
      ],
      [
        "▁ñooñ",
        -8.869940771901796
      ],
      [
        "ri",
        -8.873906210115697
      ],
      [
        "▁paroles",
        -8.874415317111982
      ],
      [
        "▁kooka",
        -8.876733189554587
      ],
      [
        "▁wër",
        -8.879946443946494
      ],
      [
        "egarde",
        -8.883561720727654
      ],
      [
        "ruit",
        -8.883978774431645
      ],
      [
        "▁été.",
        -8.885318332681175
      ],
      [
        "vait",
        -8.88749918091074
      ],
      [
        "▁mbë",
        -8.889913083462462
      ],
      [
        "au",
        -8.891143813995535
      ],
      [
        "▁ga",
        -8.892382451869782
      ],
      [
        "v",
        -8.894276739631376
      ],
      [
        "▁ree",
        -8.895478448461434
      ],
      [
        "▁fo",
        -8.897046583291427
      ],
      [
        "▁souhaite",
        -8.899654524260116
      ],
      [
        "▁ñibbi",
        -8.899984641630855
      ],
      [
        "ai",
        -8.902302748830413
      ],
      [
        "▁roi",
        -8.905164978807644
      ],
      [
        "▁Tou",
        -8.91096971809501
      ],
      [
        "ji",
        -8.911987492672699
      ],
      [
        "teur",
        -8.916784372119055
      ],
      [
        "▁Ta",
        -8.920531666691625
      ],
      [
        "bi",
        -8.921249456409074
      ],
      [
        "lors",
        -8.921599248413877
      ],
      [
        "▁cu",
        -8.922160151172555
      ],
      [
        "▁n'as",
        -8.923618994091951
      ],
      [
        "▁mau",
        -8.927582545859666
      ],
      [
        "▁mon",
        -8.931046131493622
      ],
      [
        "▁plante",
        -8.932566722668584
      ],
      [
        "▁sou",
        -8.93448681058448
      ],
      [
        "rends",
        -8.939811309893619
      ],
      [
        "▁mou",
        -8.941356247527743
      ],
      [
        "ure",
        -8.942187302911755
      ],
      [
        "qui",
        -8.944322598696964
      ],
      [
        "kóon",
        -8.944694649869394
      ],
      [
        "oir",
        -8.944801113718754
      ],
      [
        "▁Waxa",
        -8.945254269771526
      ],
      [
        "▁bou",
        -8.945948272399972
      ],
      [
        "ssion",
        -8.947876904229158
      ],
      [
        "▁sorti",
        -8.948675664109958
      ],
      [
        "▁Com",
        -8.952062266974455
      ],
      [
        "▁Lu",
        -8.953554502243685
      ],
      [
        "▁T",
        -8.955263574935232
      ],
      [
        "▁fe",
        -8.957772541825639
      ],
      [
        "▁h",
        -8.961493596485715
      ],
      [
        "▁s'a",
        -8.962395734696045
      ],
      [
        "▁addu",
        -8.96544790107765
      ],
      [
        "▁puis",
        -8.971643478413451
      ],
      [
        "rait",
        -8.971982052958577
      ],
      [
        "▁alla",
        -8.972070231145867
      ],
      [
        "▁mes",
        -8.976057539954107
      ],
      [
        "cer",
        -8.976795728064253
      ],
      [
        "bët",
        -8.979332989593185
      ],
      [
        "▁to",
        -8.986556796360198
      ],
      [
        "õ",
        -8.986707364986966
      ],
      [
        "▁Wa",
        -8.986746102114692
      ],
      [
        "om",
        -8.991400747758924
      ],
      [
        "cas",
        -8.99269191446608
      ],
      [
        "▁kee",
        -8.993942752466854
      ],
      [
        "▁yar",
        -8.996231314520456
      ],
      [
        "rent",
        -8.997854247916344
      ],
      [
        "appartien",
        -9.00099609375003
      ],
      [
        "▁men",
        -9.006265671774889
      ],
      [
        "▁vi",
        -9.015243139922044
      ],
      [
        "▁Go",
        -9.026079616766818
      ],
      [
        "ñu.",
        -9.031027629841748
      ],
      [
        "espè",
        -9.031586497744863
      ],
      [
        "cc",
        -9.033446730182073
      ],
      [
        "of",
        -9.036141751527783
      ],
      [
        "▁fen",
        -9.040104955674126
      ],
      [
        "▁saf",
        -9.04242436160242
      ],
      [
        "obul",
        -9.042472574188402
      ],
      [
        "-il",
        -9.043038374847704
      ],
      [
        "quo",
        -9.044063036506286
      ],
      [
        "igne",
        -9.045423712087697
      ],
      [
        "nte",
        -9.047657446840974
      ],
      [
        "▁wà",
        -9.049720960103246
      ],
      [
        "▁enfant-",
        -9.052713012917788
      ],
      [
        "▁H",
        -9.053234277152475
      ],
      [
        "▁war",
        -9.059974832391964
      ],
      [
        "▁gisu",
        -9.062887817752301
      ],
      [
        "▁pla",
        -9.062955912088345
      ],
      [
        "▁Õg",
        -9.063496026659847
      ],
      [
        "nité",
        -9.064389391057405
      ],
      [
        "par",
        -9.066239126192515
      ],
      [
        "▁ju",
        -9.067991558661028
      ],
      [
        "▁regard",
        -9.072129139701483
      ],
      [
        "min",
        -9.072545669078895
      ],
      [
        "-sa",
        -9.072923478140927
      ],
      [
        "ër",
        -9.077840937544051
      ],
      [
        "▁ren",
        -9.082488170639124
      ],
      [
        "▁met",
        -9.095978391236825
      ],
      [
        "tive",
        -9.098056492941039
      ],
      [
        "▁wàl",
        -9.098197529654886
      ],
      [
        "▁pro",
        -9.099110805495275
      ],
      [
        ")",
        -9.10030621571812
      ],
      [
        "▁habituellement",
        -9.100306325707255
      ],
      [
        "▁entrefaites",
        -9.100306351418187
      ],
      [
        "▁totalité",
        -9.100306386645107
      ],
      [
        "▁meilleur",
        -9.100306442203618
      ],
      [
        "▁(",
        -9.100306489694944
      ],
      [
        "▁naqadi",
        -9.100306657341182
      ],
      [
        "▁Ñëw",
        -9.100307067196152
      ],
      [
        "▁dehors",
        -9.100307081145784
      ],
      [
        "▁Birayim",
        -9.10030773152817
      ],
      [
        "▁région",
        -9.100308891657619
      ],
      [
        "▁phonéti",
        -9.100310891472281
      ],
      [
        "▁trépi",
        -9.10032247441684
      ],
      [
        "▁science",
        -9.100327698159829
      ],
      [
        "▁ëlëk",
        -9.100329761465435
      ],
      [
        "▁veulent",
        -9.100333518498484
      ],
      [
        "▁chambre",
        -9.100351210669702
      ],
      [
        "▁montrer",
        -9.100355544626046
      ],
      [
        "▁Alfa",
        -9.100367326693272
      ],
      [
        "▁garçon",
        -9.100388334751413
      ],
      [
        "▁cadeau",
        -9.100392430974942
      ],
      [
        "▁donne",
        -9.10041431543443
      ],
      [
        "▁marchand",
        -9.100484968078309
      ],
      [
        "▁Gaynd",
        -9.100623541490204
      ],
      [
        "▁nourri",
        -9.100628192780817
      ],
      [
        "▁NGo",
        -9.100647999138303
      ],
      [
        "▁Tann",
        -9.100771274978442
      ],
      [
        "▁servi",
        -9.100784458146974
      ],
      [
        "▁vrai",
        -9.100854434522372
      ],
      [
        "▁grand",
        -9.100997780115213
      ],
      [
        "▁assis",
        -9.101028416112982
      ],
      [
        "▁Saint-Louisien",
        -9.101202220615944
      ],
      [
        "▁somme",
        -9.101266615304521
      ],
      [
        "▁Qu'",
        -9.101682658653527
      ],
      [
        "▁libre",
        -9.101837815715541
      ],
      [
        "▁në",
        -9.101886849481076
      ],
      [
        "▁noble",
        -9.102116474644568
      ],
      [
        "▁Ñooñu",
        -9.10215053959713
      ],
      [
        "▁rang",
        -9.102193923813637
      ],
      [
        "▁Demuma",
        -9.102222324932427
      ],
      [
        "▁séex",
        -9.102248330967301
      ],
      [
        "▁occ",
        -9.102483470750087
      ],
      [
        "▁wàññ",
        -9.102827981167144
      ],
      [
        "j",
        -9.103602638319497
      ],
      [
        "▁viennent",
        -9.104349971469512
      ],
      [
        "▁fra",
        -9.105033673849725
      ],
      [
        "ûr",
        -9.105369947249319
      ],
      [
        "▁champ",
        -9.105729657219978
      ],
      [
        "▁kookale",
        -9.105959504482191
      ],
      [
        "▁Demkoon",
        -9.10603326797765
      ],
      [
        "▁suba",
        -9.106154682656946
      ],
      [
        "▁cacher",
        -9.106220601205388
      ],
      [
        "▁voisin",
        -9.106292799176561
      ],
      [
        "▁wày",
        -9.106299151447924
      ],
      [
        "▁guy",
        -9.106780120485347
      ],
      [
        "▁e",
        -9.106852030189534
      ],
      [
        "▁jëf",
        -9.106992623030223
      ],
      [
        "▁serais",
        -9.107049537161947
      ],
      [
        "▁d'habitude",
        -9.10715546017838
      ],
      [
        "▁magg",
        -9.107699283958066
      ],
      [
        "▁jog",
        -9.10852346877952
      ],
      [
        "▁gaa",
        -9.10938858315259
      ],
      [
        "'agit",
        -9.110895102580212
      ],
      [
        "onde",
        -9.111054878546728
      ],
      [
        "▁terre",
        -9.111131671188268
      ],
      [
        "▁mor",
        -9.111175384616432
      ],
      [
        "▁manque",
        -9.111337455284993
      ],
      [
        "▁ñaaw",
        -9.112116220023921
      ],
      [
        "▁pris",
        -9.112247011571997
      ],
      [
        "▁add",
        -9.113035806203653
      ],
      [
        "▁trouver",
        -9.113131704374702
      ],
      [
        "▁fon",
        -9.113357975242256
      ],
      [
        "▁j'",
        -9.11370609757442
      ],
      [
        "▁partez",
        -9.114861140879238
      ],
      [
        "'ailleurs",
        -9.114997743513316
      ],
      [
        "▁t'en",
        -9.116479657176352
      ],
      [
        "▁Ni",
        -9.116685985294918
      ],
      [
        "▁rappel",
        -9.11675420579428
      ],
      [
        "▁Yee",
        -9.117436905013339
      ],
      [
        "▁naõg",
        -9.117876154428927
      ],
      [
        "▁Kan",
        -9.11997775041314
      ],
      [
        "▁Nil",
        -9.120918981310073
      ],
      [
        "▁après",
        -9.1240104209541
      ],
      [
        "▁jur",
        -9.12553289006783
      ],
      [
        "ral",
        -9.132886050858747
      ],
      [
        "▁dét",
        -9.134883864726122
      ],
      [
        "▁n'ira",
        -9.139586657318835
      ],
      [
        "▁demuñu",
        -9.143855008998344
      ],
      [
        "ous",
        -9.144740774037281
      ],
      [
        "▁bor",
        -9.145230234399492
      ],
      [
        "▁demain",
        -9.14573657298196
      ],
      [
        "▁daj",
        -9.146597078393935
      ],
      [
        "el",
        -9.147324987852102
      ],
      [
        "▁peu",
        -9.147462167121375
      ],
      [
        "▁four",
        -9.148339144644392
      ],
      [
        "▁kaw",
        -9.148426555179322
      ],
      [
        "▁bra",
        -9.14867096999876
      ],
      [
        "e.",
        -9.14872907518836
      ],
      [
        "ñi",
        -9.14941839313468
      ],
      [
        "biir",
        -9.149780364765093
      ],
      [
        "▁kile",
        -9.150212994694039
      ],
      [
        "aar",
        -9.155913916857077
      ],
      [
        "▁ñaa",
        -9.155916462389033
      ],
      [
        "▁désir",
        -9.156070944601478
      ],
      [
        "▁doi",
        -9.157160289535017
      ],
      [
        "▁maigre",
        -9.157558545910348
      ],
      [
        "▁goog",
        -9.159652828593913
      ],
      [
        "▁Sama",
        -9.16235723292964
      ],
      [
        "vous",
        -9.162928985313497
      ],
      [
        "▁demb",
        -9.168830487854645
      ],
      [
        "▁noona",
        -9.169113200785064
      ],
      [
        "tout",
        -9.170447565513763
      ],
      [
        "hoisi",
        -9.170827449690767
      ],
      [
        "▁ven",
        -9.171148809382606
      ],
      [
        "▁lanu",
        -9.173391458051354
      ],
      [
        "▁bout",
        -9.173974673064937
      ],
      [
        "▁connaiss",
        -9.17452156699956
      ],
      [
        "lé",
        -9.17661650297726
      ],
      [
        "▁comm",
        -9.177591364588666
      ],
      [
        "▁fer",
        -9.177898260471961
      ],
      [
        "▁appelle",
        -9.179517906399635
      ],
      [
        "▁s'es",
        -9.186259764112378
      ],
      [
        "afa",
        -9.187580683380947
      ],
      [
        "cle",
        -9.19095742515816
      ],
      [
        "▁piqu",
        -9.193009357638267
      ],
      [
        "▁tel",
        -9.19434842317202
      ],
      [
        "▁set",
        -9.194540937530162
      ],
      [
        "▁bavard",
        -9.196132114313418
      ],
      [
        "addu",
        -9.19814217457136
      ],
      [
        "baat",
        -9.19944121583308
      ],
      [
        "▁Ñu",
        -9.199884594995275
      ],
      [
        "vé",
        -9.200543278044398
      ],
      [
        "ence",
        -9.20167718539711
      ],
      [
        "▁të",
        -9.205830549041975
      ],
      [
        "▁lawoon",
        -9.207563218701349
      ],
      [
        "ber",
        -9.208466954907353
      ],
      [
        "▁mba",
        -9.20948941499586
      ],
      [
        "ày",
        -9.209612790162785
      ],
      [
        "▁maye",
        -9.209776893331538
      ],
      [
        "õgeen",
        -9.211053169242275
      ],
      [
        "▁heure",
        -9.213209045825545
      ],
      [
        "▁Me",
        -9.214147136438783
      ],
      [
        "▁maa",
        -9.215531890205495
      ],
      [
        "▁To",
        -9.215718299723845
      ],
      [
        "es.",
        -9.219077718827705
      ],
      [
        "sses",
        -9.219685533928368
      ],
      [
        "▁jar",
        -9.219819943847135
      ],
      [
        "▁ex",
        -9.219918929871492
      ],
      [
        "▁dog",
        -9.221640345634945
      ],
      [
        "▁confie",
        -9.224217165393352
      ],
      [
        "▁Kaj",
        -9.23124849256024
      ],
      [
        "▁pars.",
        -9.23318737101769
      ],
      [
        "▁haut",
        -9.233882404654004
      ],
      [
        "aux",
        -9.234270940471072
      ],
      [
        "▁mal",
        -9.234458403946984
      ],
      [
        "▁Lo",
        -9.236526019752967
      ],
      [
        "▁Ña",
        -9.236754437843839
      ],
      [
        "ez.",
        -9.240073997485059
      ],
      [
        "▁jë",
        -9.242650997125839
      ],
      [
        "sembl",
        -9.243523840217632
      ],
      [
        "▁plu",
        -9.243608730992143
      ],
      [
        "▁veu",
        -9.24420520670536
      ],
      [
        "ge",
        -9.248147049588361
      ],
      [
        "che",
        -9.25241894925712
      ],
      [
        "▁po",
        -9.257468732560314
      ],
      [
        "lles",
        -9.259278260152064
      ],
      [
        "ëcc",
        -9.260412031186409
      ],
      [
        "▁fui",
        -9.261325668451684
      ],
      [
        "wul",
        -9.265661218117577
      ],
      [
        "▁ñaana",
        -9.269453756934098
      ],
      [
        "nent",
        -9.269660916832047
      ],
      [
        "nt.",
        -9.27024372715176
      ],
      [
        "pay",
        -9.270520513163616
      ],
      [
        "▁foof",
        -9.273434594173292
      ],
      [
        "rie",
        -9.274101847404244
      ],
      [
        "gul",
        -9.281845169310927
      ],
      [
        "atu",
        -9.282688840625685
      ],
      [
        "uire",
        -9.28659670804297
      ],
      [
        "▁rem",
        -9.286728051743866
      ],
      [
        "▁confi",
        -9.286842699870915
      ],
      [
        "▁ré",
        -9.289908221774397
      ],
      [
        "tes",
        -9.291884886638234
      ],
      [
        "uloo",
        -9.292417298955101
      ],
      [
        "▁pai",
        -9.295443352241815
      ],
      [
        "ve",
        -9.297364504017299
      ],
      [
        "▁pie",
        -9.298277154328169
      ],
      [
        "▁Jë",
        -9.29913650191244
      ],
      [
        "▁naw",
        -9.299667672721927
      ],
      [
        "▁mêmes",
        -9.301428207513508
      ],
      [
        "▁nëw",
        -9.302129515393668
      ],
      [
        "▁mange",
        -9.305818036857438
      ],
      [
        "▁doo",
        -9.306466778655098
      ],
      [
        "▁gé",
        -9.307119546936251
      ],
      [
        "nda",
        -9.307389616981496
      ],
      [
        "alheureusement",
        -9.307398846092017
      ],
      [
        "▁waxal",
        -9.316723984852468
      ],
      [
        "▁mang",
        -9.31726756338098
      ],
      [
        "▁ñj",
        -9.318016247206415
      ],
      [
        "▁cour",
        -9.319421401338424
      ],
      [
        "▁trai",
        -9.32072304495971
      ],
      [
        "▁õga.",
        -9.320824178404647
      ],
      [
        "▁ser",
        -9.322334039119642
      ],
      [
        "abar",
        -9.32598452686828
      ],
      [
        "bou",
        -9.326964003880617
      ],
      [
        "donner",
        -9.329316294749244
      ],
      [
        "▁sui",
        -9.33488761204567
      ],
      [
        "▁daaw",
        -9.337014706799717
      ],
      [
        "▁sañ",
        -9.337186371951223
      ],
      [
        "▁õg",
        -9.338613818183722
      ],
      [
        "clair",
        -9.340796757705917
      ],
      [
        "▁voul",
        -9.349754423694305
      ],
      [
        "aller",
        -9.350640536919528
      ],
      [
        "mporte",
        -9.35371074778725
      ],
      [
        "ler",
        -9.35459443035298
      ],
      [
        "▁batt",
        -9.355180070516473
      ],
      [
        "uff",
        -9.359878756222864
      ],
      [
        "▁désire",
        -9.361961303940044
      ],
      [
        "vent",
        -9.36242109479237
      ],
      [
        "▁ton",
        -9.363522033960308
      ],
      [
        "▁arr",
        -9.363551187901223
      ],
      [
        "▁Bul",
        -9.36406438879767
      ],
      [
        "▁éle",
        -9.366291404338748
      ],
      [
        "ave",
        -9.367194211900404
      ],
      [
        "onore",
        -9.369491670869472
      ],
      [
        "use",
        -9.3701461443645
      ],
      [
        "▁part.",
        -9.370907061766015
      ],
      [
        "▁Liggéey",
        -9.378376826017117
      ],
      [
        "nn",
        -9.388549645819857
      ],
      [
        "ouille",
        -9.389097948498552
      ],
      [
        "▁gr",
        -9.38925533280691
      ],
      [
        "▁Seeti",
        -9.392306748456326
      ],
      [
        "oudre",
        -9.394257715777286
      ],
      [
        "▁raõ",
        -9.396701602395886
      ],
      [
        "▁kookee",
        -9.403037592844806
      ],
      [
        "ois",
        -9.403125219695108
      ],
      [
        "▁eux",
        -9.404086275131249
      ],
      [
        "ëgg",
        -9.404268782717455
      ],
      [
        "bouche",
        -9.40427068335142
      ],
      [
        "rëb",
        -9.405791034164885
      ],
      [
        "▁too",
        -9.40638626147872
      ],
      [
        "'enfant",
        -9.406883316287082
      ],
      [
        "▁che",
        -9.407001726534327
      ],
      [
        "ó",
        -9.40937595462009
      ],
      [
        "▁mb",
        -9.409616652491831
      ],
      [
        "õk",
        -9.410085092467394
      ],
      [
        "▁Yooy",
        -9.412797876946716
      ],
      [
        "▁nopp",
        -9.414326503692081
      ],
      [
        "gne",
        -9.414650377916832
      ],
      [
        "bo",
        -9.41467369797396
      ],
      [
        "▁we",
        -9.415987614668184
      ],
      [
        "▁déj",
        -9.417468594579969
      ],
      [
        "▁vill",
        -9.41786245515343
      ],
      [
        "▁nii",
        -9.424377304301672
      ],
      [
        "fi",
        -9.426433508775792
      ],
      [
        "▁feneen",
        -9.426564412770126
      ],
      [
        "▁Gisu",
        -9.429275970193304
      ],
      [
        "onfie",
        -9.430391361258566
      ],
      [
        "chance",
        -9.431554824175198
      ],
      [
        "▁impoli",
        -9.43363726237341
      ],
      [
        "▁substitu",
        -9.43363957444426
      ],
      [
        "considér",
        -9.43363958985837
      ],
      [
        "▁fâch",
        -9.43363976831778
      ],
      [
        "▁gaddaay",
        -9.433639769046925
      ],
      [
        "▁Certaine",
        -9.433639818402668
      ],
      [
        "▁connaît",
        -9.433639874492332
      ],
      [
        "▁humain",
        -9.433639974255097
      ],
      [
        "▁quémande",
        -9.433640029434137
      ],
      [
        "▁appelé",
        -9.433640425266523
      ],
      [
        "▁humid",
        -9.433640619717847
      ],
      [
        "▁messager",
        -9.433640824230439
      ],
      [
        "▁gëléem",
        -9.433641031188388
      ],
      [
        "▁posséd",
        -9.433646498976076
      ],
      [
        "▁lutteur",
        -9.433646971341147
      ],
      [
        "échapp",
        -9.43364928205094
      ],
      [
        "▁oreille",
        -9.433650719006039
      ],
      [
        "▁instant",
        -9.433658959198599
      ],
      [
        "▁jóg",
        -9.433665498348562
      ],
      [
        "▁ressemble",
        -9.433677528684175
      ],
      [
        "▁cultive",
        -9.433682043322948
      ],
      [
        "▁trahi",
        -9.433684281482234
      ],
      [
        "▁xott",
        -9.433698036268412
      ],
      [
        "▁Yaakaar",
        -9.43371240104932
      ],
      [
        "▁chameau",
        -9.433723930810178
      ],
      [
        "▁défini",
        -9.433732101879059
      ],
      [
        "▁paresseu",
        -9.433733477439212
      ],
      [
        "▁poulet",
        -9.43374525827141
      ],
      [
        "▁Peul",
        -9.433749132189192
      ],
      [
        "▁honore",
        -9.43375906847236
      ],
      [
        "▁Peut-",
        -9.433797968587722
      ],
      [
        "▁Autre",
        -9.433826414717696
      ],
      [
        "▁initi",
        -9.433863555853174
      ],
      [
        "frayer",
        -9.433909381781163
      ],
      [
        "énégal",
        -9.433963642689628
      ],
      [
        "▁secour",
        -9.434041753774395
      ],
      [
        "▁Qu'est-ce",
        -9.434075938656216
      ],
      [
        "▁dikkul",
        -9.434117903045152
      ],
      [
        "▁jalou",
        -9.434145744091598
      ],
      [
        "▁interdi",
        -9.434251774886153
      ],
      [
        "▁ë",
        -9.434286989081532
      ],
      [
        "▁Sëri",
        -9.43431274653834
      ],
      [
        "▁l'argent",
        -9.434321471403408
      ],
      [
        "▁carac",
        -9.434362537546036
      ],
      [
        "▁céex",
        -9.434366764423528
      ],
      [
        "▁tambour",
        -9.434440460124472
      ],
      [
        "▁pousse",
        -9.434594837743226
      ],
      [
        "▁trou",
        -9.43459696762148
      ],
      [
        "▁googu",
        -9.434602797778707
      ],
      [
        "▁Abal",
        -9.434844069005855
      ],
      [
        "▁õgoogu",
        -9.435035012976023
      ],
      [
        "▁xéew",
        -9.43521651738463
      ],
      [
        "èvre",
        -9.43526210098867
      ],
      [
        "▁frapp",
        -9.435348179041103
      ],
      [
        "▁bopp",
        -9.435718378950067
      ],
      [
        "▁vérité",
        -9.435862669638121
      ],
      [
        "▁crain",
        -9.436011260882367
      ],
      [
        "▁jambaar",
        -9.436317977598687
      ],
      [
        "▁Pour",
        -9.436339490007214
      ],
      [
        "▁debout",
        -9.436416041931798
      ],
      [
        "▁yëf",
        -9.436955899681674
      ],
      [
        "▁jiital",
        -9.437072808733786
      ],
      [
        "▁Ici",
        -9.437269072182628
      ],
      [
        "▁jox",
        -9.437947109115456
      ],
      [
        "▁wex",
        -9.438126467314769
      ],
      [
        "▁form",
        -9.438366942741304
      ],
      [
        "llez",
        -9.438889773273008
      ],
      [
        "▁beg",
        -9.439387739047893
      ],
      [
        "▁juge",
        -9.439481421093912
      ],
      [
        "▁eff",
        -9.439807492661897
      ],
      [
        "▁waxaale",
        -9.43981394182938
      ],
      [
        "▁sëgg",
        -9.440069807019174
      ],
      [
        "▁contre",
        -9.440599104482637
      ],
      [
        "eku",
        -9.441414700271427
      ],
      [
        "▁d'entre",
        -9.441626743118503
      ],
      [
        "▁fem",
        -9.441737143180948
      ],
      [
        "ique",
        -9.442326069496195
      ],
      [
        "▁salu",
        -9.442352321908466
      ],
      [
        "▁méchant",
        -9.44237534876269
      ],
      [
        "▁clé",
        -9.44243984544918
      ],
      [
        "▁refuse",
        -9.443213842566761
      ],
      [
        "kki",
        -9.443304703865902
      ],
      [
        "▁rentrer",
        -9.444016114077316
      ],
      [
        "▁wóo",
        -9.445472109739459
      ],
      [
        "ëkk",
        -9.445902480784932
      ],
      [
        "▁arrive",
        -9.44636243300126
      ],
      [
        "▁Ngo",
        -9.446601919512444
      ],
      [
        "▁dents",
        -9.446766769191655
      ],
      [
        "▁enfant-là",
        -9.447800114648427
      ],
      [
        "▁juut",
        -9.448765026020912
      ],
      [
        "▁amoon",
        -9.449564450378917
      ],
      [
        "éné",
        -9.449691438763587
      ],
      [
        "▁provi",
        -9.449712427766357
      ],
      [
        "▁passé",
        -9.449771512205372
      ],
      [
        "rach",
        -9.449794373018086
      ],
      [
        "▁naaru",
        -9.449859149138994
      ],
      [
        "▁laid",
        -9.450837626994963
      ],
      [
        "oow",
        -9.458109754558912
      ],
      [
        "ôt",
        -9.458127094127402
      ],
      [
        "▁gen",
        -9.45918599407172
      ],
      [
        "▁bâti",
        -9.459460436459965
      ],
      [
        "olal",
        -9.461971464292477
      ],
      [
        "▁yaru",
        -9.462307135191185
      ],
      [
        "▁Lui",
        -9.46287192785334
      ],
      [
        "▁gaaw",
        -9.463327064165748
      ],
      [
        "▁aji",
        -9.464785344621617
      ],
      [
        "▁Waxu",
        -9.466095181755135
      ],
      [
        "▁kookee.",
        -9.468102461813734
      ],
      [
        "▁feneen.",
        -9.469480642356395
      ],
      [
        "▁homme-ci",
        -9.46977332308239
      ],
      [
        "▁taf",
        -9.469932906412584
      ],
      [
        "▁général",
        -9.470600798621325
      ],
      [
        "ncer",
        -9.470915112065612
      ],
      [
        "lam",
        -9.471558011978875
      ],
      [
        "oupe",
        -9.471865323726277
      ],
      [
        "▁bonul",
        -9.473920946694822
      ],
      [
        "▁épo",
        -9.474798737805017
      ],
      [
        "tendu",
        -9.475974794819173
      ],
      [
        "▁booba",
        -9.476191047954305
      ],
      [
        "▁regarde",
        -9.476269342127607
      ],
      [
        "lo",
        -9.478530662693469
      ],
      [
        "join",
        -9.480025969999836
      ],
      [
        "▁daal",
        -9.483238766101014
      ],
      [
        "▁ànda",
        -9.483547711182277
      ],
      [
        "▁law",
        -9.483597212048142
      ],
      [
        "▁daawul",
        -9.484250830931906
      ],
      [
        "neen",
        -9.484470533616223
      ],
      [
        "ëri",
        -9.48473725625122
      ],
      [
        "mal",
        -9.485415639457779
      ],
      [
        "▁coule",
        -9.48576868924861
      ],
      [
        "▁defar",
        -9.486948758376831
      ],
      [
        "▁Õgo",
        -9.487200635160633
      ],
      [
        "▁déey",
        -9.487428157376272
      ],
      [
        "▁woowu",
        -9.488201293648476
      ],
      [
        "réci",
        -9.488984371853826
      ],
      [
        "▁noir",
        -9.48913168980343
      ],
      [
        "ñëw",
        -9.49105386788462
      ],
      [
        "▁woowa",
        -9.492579836827385
      ],
      [
        "▁buu",
        -9.492660263860687
      ],
      [
        "▁waxtu",
        -9.492941267990426
      ],
      [
        "▁attend",
        -9.493636361293738
      ],
      [
        "tan",
        -9.495265851199092
      ],
      [
        "▁faj",
        -9.496179340926547
      ],
      [
        "gël",
        -9.496743753606445
      ],
      [
        "▁boot",
        -9.497884629172658
      ],
      [
        "▁Kook",
        -9.504574835824423
      ],
      [
        "▁Celui",
        -9.506053844210642
      ],
      [
        "▁looli",
        -9.506862933862449
      ],
      [
        "eegu",
        -9.507060672785379
      ],
      [
        "▁taille",
        -9.50868192995469
      ],
      [
        "agoni",
        -9.510148314049683
      ],
      [
        "▁n'aur",
        -9.510405102017955
      ],
      [
        "▁xaj",
        -9.511719320699562
      ],
      [
        "lusi",
        -9.514351653681906
      ],
      [
        "mu",
        -9.514818135321041
      ],
      [
        "▁dois",
        -9.518613318933548
      ],
      [
        "▁jà",
        -9.519080300040041
      ],
      [
        "▁sol",
        -9.523789328555248
      ],
      [
        "▁amee",
        -9.524727592301794
      ],
      [
        "agg",
        -9.525172893266706
      ],
      [
        "▁bax",
        -9.527412048414403
      ],
      [
        "▁ubb",
        -9.534381803420459
      ],
      [
        "ain",
        -9.535439101827611
      ],
      [
        "▁Defa",
        -9.536048343323362
      ],
      [
        "▁wàñ",
        -9.539569457141257
      ],
      [
        "▁Mets",
        -9.539709283864516
      ],
      [
        "▁muu",
        -9.540366562431874
      ],
      [
        "▁ndem",
        -9.54098632652396
      ],
      [
        "cul",
        -9.542639744748428
      ],
      [
        "us",
        -9.542665307602833
      ],
      [
        "ëju",
        -9.54358546695303
      ],
      [
        "tonner",
        -9.544790448226088
      ],
      [
        "▁vou",
        -9.544851996625916
      ],
      [
        "▁nooni",
        -9.546672065999395
      ],
      [
        "tion",
        -9.547039201602637
      ],
      [
        "▁lekku",
        -9.549310072879228
      ],
      [
        "▁Waxul",
        -9.549851509305634
      ],
      [
        "▁gra",
        -9.550987761708615
      ],
      [
        "▁gri",
        -9.551544435745104
      ],
      [
        "▁reew",
        -9.552072017454714
      ],
      [
        "aamu",
        -9.553026560421555
      ],
      [
        "▁xee",
        -9.554456502153458
      ],
      [
        "ais-t",
        -9.554864064934492
      ],
      [
        "▁partai",
        -9.555658106534514
      ],
      [
        "▁tor",
        -9.555899256519163
      ],
      [
        "▁sau",
        -9.558795602796017
      ],
      [
        "lou",
        -9.559029017955202
      ],
      [
        "▁xer",
        -9.559800496924012
      ],
      [
        "tuel",
        -9.560969097456416
      ],
      [
        "▁verr",
        -9.562368929023712
      ],
      [
        "ton",
        -9.563913841376753
      ],
      [
        "▁éclat",
        -9.564665688041753
      ],
      [
        "eau",
        -9.569778427961051
      ],
      [
        "ulte",
        -9.571273892677736
      ],
      [
        "▁ver",
        -9.571456383313919
      ],
      [
        "elui-ci",
        -9.572663179165042
      ],
      [
        "▁ñar",
        -9.573350665462183
      ],
      [
        "▁Jée",
        -9.57449558435053
      ],
      [
        "▁bo",
        -9.574900120467053
      ],
      [
        "uufu",
        -9.578607562367786
      ],
      [
        "ord",
        -9.580087269009628
      ],
      [
        "▁xamul",
        -9.58141865546132
      ],
      [
        "'aumône",
        -9.583780583573743
      ],
      [
        "▁sii",
        -9.583810024863059
      ],
      [
        "eut",
        -9.584631264511708
      ],
      [
        "bëgg",
        -9.587785388423574
      ],
      [
        "▁x",
        -9.58899308777723
      ],
      [
        "▁Nee",
        -9.58909929936989
      ],
      [
        "ajoo",
        -9.589292522007282
      ],
      [
        "▁fad",
        -9.594499057155224
      ],
      [
        "ki",
        -9.595292141236218
      ],
      [
        "ef",
        -9.596319255854842
      ],
      [
        "▁bala",
        -9.597696706808634
      ],
      [
        "▁s'i",
        -9.600667778786939
      ],
      [
        "andi",
        -9.601808891216466
      ],
      [
        "ta",
        -9.603909192370352
      ],
      [
        "entre",
        -9.613560153886056
      ],
      [
        "avait",
        -9.615660633241632
      ],
      [
        "▁ñe",
        -9.616287234682876
      ],
      [
        "olo",
        -9.617196313889918
      ],
      [
        "▁gisóo",
        -9.62181342539518
      ],
      [
        "off",
        -9.622680411968814
      ],
      [
        "▁jo",
        -9.626921626865553
      ],
      [
        "aat",
        -9.627013245790021
      ],
      [
        "▁pl",
        -9.627754669951116
      ],
      [
        "-lu",
        -9.627870095483694
      ],
      [
        "nu",
        -9.632743863210088
      ],
      [
        "man",
        -9.634688275158842
      ],
      [
        "▁bant",
        -9.63551352803876
      ],
      [
        "▁fus",
        -9.636371158202786
      ],
      [
        "tën",
        -9.63653613119115
      ],
      [
        "son",
        -9.637083648357143
      ],
      [
        "fic",
        -9.637594084629507
      ],
      [
        "couv",
        -9.637610828382462
      ],
      [
        "alal",
        -9.64102084473971
      ],
      [
        "ange",
        -9.64172000683636
      ],
      [
        "gam",
        -9.644930549188743
      ],
      [
        "nañu",
        -9.648854569973627
      ],
      [
        "dans",
        -9.6513204319282
      ],
      [
        "▁abs",
        -9.652148417193816
      ],
      [
        "▁mir",
        -9.65353823267245
      ],
      [
        "▁and",
        -9.65615294209326
      ],
      [
        "▁nde",
        -9.656540795159135
      ],
      [
        "óom",
        -9.657037546857714
      ],
      [
        "▁donner",
        -9.6572981526462
      ],
      [
        "▁mil",
        -9.657969056483164
      ],
      [
        "dab",
        -9.659608001067882
      ],
      [
        "ooñii",
        -9.659849210571513
      ],
      [
        "▁Nag",
        -9.660451677870258
      ],
      [
        "oolal",
        -9.661946402877877
      ],
      [
        "õ-daõ",
        -9.664488226881057
      ],
      [
        "▁d'o",
        -9.665145840621213
      ],
      [
        "été",
        -9.666650019860073
      ],
      [
        "ooy",
        -9.668297999238678
      ],
      [
        "der",
        -9.669629703974792
      ],
      [
        "▁dend",
        -9.670642140325825
      ],
      [
        "▁ru",
        -9.670777747398141
      ],
      [
        "▁causer",
        -9.675270815909338
      ],
      [
        "▁sout",
        -9.675536174717422
      ],
      [
        "war",
        -9.679264579567057
      ],
      [
        "▁waaj",
        -9.68082019119799
      ],
      [
        "▁dag",
        -9.681995629851984
      ],
      [
        "▁sage",
        -9.682227587992344
      ],
      [
        "▁haute",
        -9.68292353326044
      ],
      [
        "ra",
        -9.68709586064124
      ],
      [
        "▁pré",
        -9.688809894549367
      ],
      [
        "autrefois",
        -9.689896652683641
      ],
      [
        "▁parla",
        -9.692420686738425
      ],
      [
        "propr",
        -9.69315382353793
      ],
      [
        "õx",
        -9.695515846005545
      ],
      [
        "ande",
        -9.701082144317555
      ],
      [
        "irai",
        -9.702016437196855
      ],
      [
        "ti",
        -9.703390282495894
      ],
      [
        "▁See",
        -9.70361397623895
      ],
      [
        "heur",
        -9.710521649140452
      ],
      [
        "apprécie",
        -9.711964401314468
      ],
      [
        "orte",
        -9.715158653333926
      ],
      [
        "▁wo",
        -9.716555880835667
      ],
      [
        "fu",
        -9.71832394061345
      ],
      [
        "plat",
        -9.721090347551204
      ],
      [
        "bien",
        -9.722080733057071
      ],
      [
        "rveille",
        -9.722958669548305
      ],
      [
        "homme",
        -9.723634801324724
      ],
      [
        "▁ceet",
        -9.728507431428927
      ],
      [
        "car",
        -9.730188893197148
      ],
      [
        "kër",
        -9.732787364420538
      ],
      [
        "aaye",
        -9.733304664875842
      ],
      [
        "▁entra",
        -9.734066190686283
      ],
      [
        "onte",
        -9.740866062129182
      ],
      [
        "mo",
        -9.741414222574534
      ],
      [
        "ba",
        -9.742726892840448
      ],
      [
        "ignore",
        -9.742742132706221
      ],
      [
        "▁waar",
        -9.74454651626724
      ],
      [
        "▁nu",
        -9.746834157809301
      ],
      [
        "'en",
        -9.750788165588595
      ],
      [
        "ns",
        -9.75125963686825
      ],
      [
        "étend",
        -9.757651824115712
      ],
      [
        "▁bouche",
        -9.763190369140617
      ],
      [
        "▁wàt",
        -9.765644762710947
      ],
      [
        "ñj",
        -9.768391462147962
      ],
      [
        "erre",
        -9.76883404802633
      ],
      [
        "long",
        -9.771113027632184
      ],
      [
        "▁cherch",
        -9.772701908515987
      ],
      [
        "añc",
        -9.772829526121663
      ],
      [
        "wuñu",
        -9.775535711849473
      ],
      [
        "▁retrou",
        -9.775885143133852
      ],
      [
        "offe",
        -9.777717923924978
      ],
      [
        "▁seme",
        -9.778059245443497
      ],
      [
        "▁vend",
        -9.778133507404316
      ],
      [
        "part",
        -9.779631294026768
      ],
      [
        "ntu",
        -9.780236810437701
      ],
      [
        "▁dam",
        -9.781713939090222
      ],
      [
        "▁fat",
        -9.784271875074204
      ],
      [
        "▁tiit",
        -9.786121715691287
      ],
      [
        "sonne",
        -9.786288441628534
      ],
      [
        "acc",
        -9.789898302244874
      ],
      [
        "i.",
        -9.790764192501648
      ],
      [
        "▁pr",
        -9.791036117954665
      ],
      [
        "bal",
        -9.793560647597575
      ],
      [
        "▁fro",
        -9.796003911287873
      ],
      [
        "▁dép",
        -9.800520339480569
      ],
      [
        "bokk",
        -9.801636478015947
      ],
      [
        "ubb",
        -9.802195962636421
      ],
      [
        "õg",
        -9.802275711672953
      ],
      [
        "▁bà",
        -9.80372557389483
      ],
      [
        "▁mos",
        -9.806675761858996
      ],
      [
        "▁laõ",
        -9.812149907876922
      ],
      [
        "▁aba",
        -9.812583470033665
      ],
      [
        "▁Nu",
        -9.81280560619691
      ],
      [
        "▁ratt",
        -9.812993187462132
      ],
      [
        "eux-ci",
        -9.814738788788214
      ],
      [
        "-to",
        -9.81795170117246
      ],
      [
        "▁all",
        -9.821179346310556
      ],
      [
        "▁Ñaa",
        -9.821263107479906
      ],
      [
        "illes",
        -9.823819320350594
      ],
      [
        "nit",
        -9.827465826924445
      ],
      [
        "-même",
        -9.830430814239365
      ],
      [
        "▁Ko",
        -9.830978896212116
      ],
      [
        "cun",
        -9.835389761127239
      ],
      [
        "opp",
        -9.837104565348035
      ],
      [
        "rain",
        -9.839893516009123
      ],
      [
        "nement",
        -9.840461622761154
      ],
      [
        "▁fee",
        -9.844338513341427
      ],
      [
        "ie",
        -9.8451156648625
      ],
      [
        "▁nan",
        -9.84874422156418
      ],
      [
        "▁xama",
        -9.852044836380978
      ],
      [
        "itu",
        -9.85407461702641
      ],
      [
        "▁danse",
        -9.854130454353212
      ],
      [
        "▁õgeen.",
        -9.854219710433114
      ],
      [
        "ttache",
        -9.855486100077767
      ],
      [
        "iè",
        -9.855698184611754
      ],
      [
        "▁cons",
        -9.858089489394882
      ],
      [
        "▁sais",
        -9.858634673434135
      ],
      [
        "eeku",
        -9.858993810638548
      ],
      [
        "ches",
        -9.860159698699423
      ],
      [
        "▁parole",
        -9.867388945638934
      ],
      [
        "hi",
        -9.870720615910663
      ],
      [
        "õ-raõ",
        -9.873251915771744
      ],
      [
        "▁saw",
        -9.874072273378204
      ],
      [
        "▁év",
        -9.875095397419107
      ],
      [
        "yaal",
        -9.879844067746317
      ],
      [
        "onvers",
        -9.886476516748083
      ],
      [
        "▁march",
        -9.886806115176427
      ],
      [
        "be",
        -9.887206385850405
      ],
      [
        "ê",
        -9.88765672724709
      ],
      [
        "▁wal",
        -9.891088020571546
      ],
      [
        "sax",
        -9.894567606105905
      ],
      [
        "wé",
        -9.895213394416624
      ],
      [
        "▁Foof",
        -9.89842035486022
      ],
      [
        "▁connaisse",
        -9.899395548712397
      ],
      [
        "nir",
        -9.90003834371788
      ],
      [
        "▁ob",
        -9.90128196989898
      ],
      [
        "▁écla",
        -9.901548096566637
      ],
      [
        "inter",
        -9.901622396029328
      ],
      [
        "▁n'ir",
        -9.903318427568085
      ],
      [
        "▁arriv",
        -9.904444472108386
      ],
      [
        "▁rép",
        -9.905626788045405
      ],
      [
        "▁gaynd",
        -9.906744682958381
      ],
      [
        "▁viendr",
        -9.90762209419609
      ],
      [
        "▁file",
        -9.908674457299782
      ],
      [
        "▁õgoo",
        -9.909082361402442
      ],
      [
        "▁trouve",
        -9.91024932824927
      ],
      [
        "arab",
        -9.911500485122941
      ],
      [
        "▁disp",
        -9.91163894951191
      ],
      [
        "▁voya",
        -9.911820802839513
      ],
      [
        "▁brave",
        -9.912654849311089
      ],
      [
        "▁pri",
        -9.91293421276886
      ],
      [
        "▁qu'e",
        -9.918188902458589
      ],
      [
        "▁go",
        -9.92103686204467
      ],
      [
        "▁bëggu",
        -9.921951900248406
      ],
      [
        "kkan",
        -9.922559243338165
      ],
      [
        "▁partent",
        -9.924938409155526
      ],
      [
        "vu",
        -9.925232089516573
      ],
      [
        "rappe",
        -9.925772430545063
      ],
      [
        "bre",
        -9.925877437988243
      ],
      [
        "▁dañ",
        -9.926917534390277
      ],
      [
        "▁génér",
        -9.927255193280422
      ],
      [
        "rica",
        -9.92853649052799
      ],
      [
        "wande",
        -9.93190331623621
      ],
      [
        "ivre",
        -9.933278994246145
      ],
      [
        "▁descend",
        -9.933301855283633
      ],
      [
        "É",
        -9.933639549051453
      ],
      [
        "▁Niominka.",
        -9.933639549090914
      ],
      [
        "▁apiko-",
        -9.933639550772256
      ],
      [
        "▁bëkknéeg",
        -9.933639610741771
      ],
      [
        "▁yalwaan",
        -9.933639828678475
      ],
      [
        "▁médian",
        -9.933639893968435
      ],
      [
        "▁respire",
        -9.933640003095565
      ],
      [
        "▁émigr",
        -9.933640881819674
      ],
      [
        "▁résidu",
        -9.933640920881352
      ],
      [
        "▁brûl",
        -9.933640959783002
      ],
      [
        "▁contact",
        -9.933641557205181
      ],
      [
        "▁gaññ",
        -9.933641832794644
      ],
      [
        "▁compagn",
        -9.933641865311591
      ],
      [
        "▁sablonneu",
        -9.933643628064704
      ],
      [
        "▁turbulen",
        -9.933644356765791
      ],
      [
        "▁apico",
        -9.933644531804523
      ],
      [
        "▁wërsëg",
        -9.93364524574356
      ],
      [
        "Mark",
        -9.933645836312472
      ],
      [
        "▁Dites-l",
        -9.933649243268054
      ],
      [
        "▁xarxarle",
        -9.933649771464948
      ],
      [
        "▁écorc",
        -9.933650012957557
      ],
      [
        "nnobli",
        -9.933652047062955
      ],
      [
        "▁jeûne",
        -9.933652947496627
      ],
      [
        "▁figure",
        -9.933653518197987
      ],
      [
        "▁fattalik",
        -9.933655078038898
      ],
      [
        "▁warugar",
        -9.93365882577709
      ],
      [
        "▁construct",
        -9.933665416744715
      ],
      [
        "impolitesse",
        -9.933667489520925
      ],
      [
        "▁limite",
        -9.933675627018918
      ],
      [
        "▁lâche",
        -9.933679560701695
      ],
      [
        "▁crisp",
        -9.933682962596215
      ],
      [
        "▁maccaat",
        -9.933694446535092
      ],
      [
        "▁propos",
        -9.933706354134173
      ],
      [
        "▁yeggee",
        -9.933722387033907
      ],
      [
        "▁déchi",
        -9.933739464291966
      ],
      [
        "▁portion",
        -9.933756257573805
      ],
      [
        "▁wecci",
        -9.93375730928149
      ],
      [
        "▁excessive",
        -9.933772900584312
      ],
      [
        "▁s'assi",
        -9.9337731096245
      ],
      [
        "▁soleil",
        -9.933789292286443
      ],
      [
        "▁pioche",
        -9.933792094985428
      ],
      [
        "▁L'endroit",
        -9.933801119848468
      ],
      [
        "▁droit",
        -9.933809446233422
      ],
      [
        "▁guéri",
        -9.933813588369096
      ],
      [
        "▁weddi",
        -9.933876790511889
      ],
      [
        "▁mutuelle",
        -9.933896371082676
      ],
      [
        "▁Dellu",
        -9.933925795101715
      ],
      [
        "▁savant",
        -9.93395689026904
      ],
      [
        "▁redress",
        -9.933966588419084
      ],
      [
        "▁Wutël",
        -9.933988129937077
      ],
      [
        "▁gabb",
        -9.933996140643979
      ],
      [
        "▁descendra",
        -9.933996796623713
      ],
      [
        "▁Ibra",
        -9.934080260881187
      ],
      [
        "▁bënn",
        -9.934116823155215
      ],
      [
        "▁j'apprécie",
        -9.934143495251982
      ],
      [
        "▁Musta",
        -9.934145937840745
      ],
      [
        "▁étudi",
        -9.934214304059985
      ],
      [
        "▁d'ét",
        -9.934222993150655
      ],
      [
        "à-bas",
        -9.934261713571326
      ],
      [
        "▁simule",
        -9.934343146313648
      ],
      [
        "▁désert",
        -9.934347448842887
      ],
      [
        "▁jéex",
        -9.934545201129723
      ],
      [
        "▁vous-même",
        -9.934639746650285
      ],
      [
        "ovin",
        -9.934671022650267
      ],
      [
        "▁moi-même",
        -9.934694455872258
      ],
      [
        "▁xool",
        -9.934727438047556
      ],
      [
        "▁coppeeku",
        -9.934806465629825
      ],
      [
        "▁ganaar",
        -9.934813462940932
      ],
      [
        "▁soxor",
        -9.934878050038561
      ],
      [
        "▁toi-même",
        -9.934883633418371
      ],
      [
        "▁s'asse",
        -9.934997001347416
      ],
      [
        "▁ndogal",
        -9.935248188445952
      ],
      [
        "▁présen",
        -9.93526372039443
      ],
      [
        "▁L'autre",
        -9.935348889570216
      ],
      [
        "▁année",
        -9.93538813331756
      ],
      [
        "lle",
        -9.935610909756178
      ],
      [
        "▁vien",
        -9.93565022527289
      ],
      [
        "▁tayel",
        -9.935674924626483
      ],
      [
        "▁raison",
        -9.935771906069188
      ],
      [
        "▁cohabitent",
        -9.935942166599897
      ],
      [
        "▁s'ex",
        -9.936019488200536
      ],
      [
        "▁Lebou",
        -9.936146033034639
      ],
      [
        "▁Bu-l",
        -9.936258477393547
      ],
      [
        "▁nëb",
        -9.93637845972917
      ],
      [
        "▁sëg",
        -9.936748288381809
      ],
      [
        "▁foofile",
        -9.936796540176077
      ],
      [
        "▁yeg",
        -9.93692705580746
      ],
      [
        "▁segg",
        -9.936955450989322
      ],
      [
        "▁certainement",
        -9.937049024961734
      ],
      [
        "▁doomam",
        -9.937072754418628
      ],
      [
        "▁concurrence",
        -9.937093606895095
      ],
      [
        "▁gro",
        -9.937115056714944
      ],
      [
        "gëñ",
        -9.937141720182389
      ],
      [
        "▁t'aurai",
        -9.93714654400813
      ],
      [
        "▁s'exil",
        -9.937185717613751
      ],
      [
        "▁renvers",
        -9.937361433709587
      ],
      [
        "▁affi",
        -9.937424381082526
      ],
      [
        "▁patien",
        -9.937566794974565
      ],
      [
        "▁ardo",
        -9.937575430522744
      ],
      [
        "rrière",
        -9.937612193849027
      ],
      [
        "▁poli",
        -9.937864604958305
      ],
      [
        "▁dawul",
        -9.938078690173356
      ],
      [
        "▁raf",
        -9.93825969585922
      ],
      [
        "▁sortie",
        -9.93844228359042
      ],
      [
        "▁genre",
        -9.938654884549518
      ],
      [
        "cider",
        -9.938692244151243
      ],
      [
        "▁bris",
        -9.939276797238032
      ],
      [
        "▁souffle",
        -9.939496756249977
      ],
      [
        "▁lib",
        -9.939549763640713
      ],
      [
        "▁gosse",
        -9.939590202579632
      ],
      [
        "▁travailler",
        -9.939668302124417
      ],
      [
        "▁tâche",
        -9.940319896806198
      ],
      [
        "▁s'épan",
        -9.940603132473518
      ],
      [
        "▁ricane",
        -9.940950938551712
      ],
      [
        "▁Kaay",
        -9.941086040831205
      ],
      [
        "▁méchan",
        -9.94120555956458
      ],
      [
        "▁yéen",
        -9.941244042722499
      ],
      [
        "▁bouger",
        -9.941472164162303
      ],
      [
        "▁s'enf",
        -9.941854769750966
      ],
      [
        "gor",
        -9.94205526500819
      ],
      [
        "▁dikk",
        -9.942358479217118
      ],
      [
        "▁travaillait",
        -9.942365486843558
      ],
      [
        "▁avare",
        -9.942391982728378
      ],
      [
        "▁n'allai",
        -9.942666875824955
      ],
      [
        "écéd",
        -9.942768665774642
      ],
      [
        "▁samp",
        -9.942904807354727
      ],
      [
        "▁liggéeykat",
        -9.94315508986739
      ],
      [
        "ëyn",
        -9.943255388821129
      ],
      [
        "▁wenn",
        -9.943279133999601
      ],
      [
        "▁avant",
        -9.943366756150104
      ],
      [
        "▁ouvr",
        -9.943704427193675
      ],
      [
        "▁noyy",
        -9.94370476328256
      ],
      [
        "▁partons",
        -9.943961408790784
      ],
      [
        "▁vertu",
        -9.944315272948767
      ],
      [
        "▁peut",
        -9.944677163177543
      ],
      [
        "paci",
        -9.944833524335905
      ],
      [
        "époque",
        -9.945281371369633
      ],
      [
        "ière-",
        -9.945304684380371
      ],
      [
        "▁xaritam",
        -9.945334598248593
      ],
      [
        "▁cemp",
        -9.945417927566606
      ],
      [
        "▁Amin",
        -9.945963916486159
      ],
      [
        "ooku",
        -9.94681883466499
      ],
      [
        "affaire",
        -9.947035796395662
      ],
      [
        "▁jëment",
        -9.947316492380699
      ],
      [
        "ersonne",
        -9.947405648321169
      ],
      [
        "▁sop",
        -9.947749114810351
      ],
      [
        "tifie",
        -9.94813661439351
      ],
      [
        "romp",
        -9.948341425547465
      ],
      [
        "▁voulez",
        -9.94849776265234
      ],
      [
        "▁dindi",
        -9.948639349435304
      ],
      [
        "mp",
        -9.94871353623525
      ],
      [
        "▁ab",
        -9.948737663388602
      ],
      [
        "âg",
        -9.94886885964028
      ],
      [
        "xaw",
        -9.949342643577843
      ],
      [
        "▁xajj",
        -9.949474401800106
      ],
      [
        "▁jour",
        -9.949947534336653
      ],
      [
        "ogal",
        -9.950332530498097
      ],
      [
        "▁kanda",
        -9.950367343889937
      ],
      [
        "▁lieux",
        -9.95077711668035
      ],
      [
        "▁bëtt",
        -9.952676441097745
      ],
      [
        "▁tra",
        -9.953959486475778
      ],
      [
        "▁jusqu'ici",
        -9.95407507035058
      ],
      [
        "pas",
        -9.954150984330571
      ],
      [
        "▁série",
        -9.955188305698293
      ],
      [
        "▁élu",
        -9.955372553180892
      ],
      [
        "▁wol",
        -9.956219757870553
      ],
      [
        "dresse",
        -9.956643900951443
      ],
      [
        "▁arg",
        -9.957078458069411
      ],
      [
        "▁nuy",
        -9.957102463716902
      ],
      [
        "▁disc",
        -9.957345000154096
      ],
      [
        "▁vis",
        -9.95788603777199
      ],
      [
        "ttends",
        -9.958273025543281
      ],
      [
        "▁àndal",
        -9.958550069056162
      ],
      [
        "▁Daawul",
        -9.958688674288826
      ],
      [
        "▁envie",
        -9.958819227686384
      ],
      [
        "▁Leur",
        -9.959163269160019
      ],
      [
        "▁yab",
        -9.959795609852321
      ],
      [
        "spér",
        -9.95986021887843
      ],
      [
        "▁goo",
        -9.959921695075016
      ],
      [
        "▁acid",
        -9.962800154743675
      ],
      [
        "▁fatta",
        -9.962847959278443
      ],
      [
        "▁tamm",
        -9.964013274336416
      ],
      [
        "otti",
        -9.964881223389371
      ],
      [
        "▁mpa",
        -9.964898839356547
      ],
      [
        "bu",
        -9.965000492305167
      ],
      [
        "▁allez",
        -9.966403552318386
      ],
      [
        "▁répét",
        -9.966744183156495
      ],
      [
        "▁aucun",
        -9.966931566950027
      ],
      [
        "▁seri",
        -9.96903241452777
      ],
      [
        "▁Yooyu",
        -9.969864197969923
      ],
      [
        "▁tuuru",
        -9.970257058945371
      ],
      [
        "jambe",
        -9.971258844883621
      ],
      [
        "▁braves",
        -9.97133432244037
      ],
      [
        "▁muñ",
        -9.971414665106595
      ],
      [
        "▁gaal",
        -9.971605338057753
      ],
      [
        "▁lionne",
        -9.971654704048296
      ],
      [
        "lott",
        -9.972219924565174
      ],
      [
        "▁jours",
        -9.973674387595327
      ],
      [
        "▁bande",
        -9.974933306436336
      ],
      [
        "▁koo",
        -9.975484293949378
      ],
      [
        "nstru",
        -9.976002755350532
      ],
      [
        "▁ado",
        -9.976382511819596
      ],
      [
        "▁pair",
        -9.976526014351883
      ],
      [
        "▁soppe",
        -9.976625173414643
      ],
      [
        "▁waru",
        -9.976719495317608
      ],
      [
        "▁doyu",
        -9.977533055003214
      ],
      [
        "▁partent.",
        -9.979255822940807
      ],
      [
        "ëlé",
        -9.980098393399029
      ],
      [
        "▁yaay",
        -9.98035315319931
      ],
      [
        "▁morts",
        -9.981146223736154
      ],
      [
        "▁par-là",
        -9.981647108175135
      ],
      [
        "qu",
        -9.981778945756917
      ],
      [
        "▁wàll",
        -9.981984917701642
      ],
      [
        "aa",
        -9.98247519942228
      ],
      [
        "▁tooy",
        -9.982670973747856
      ],
      [
        "▁vieille",
        -9.98378011915196
      ],
      [
        "inq",
        -9.98393514805868
      ],
      [
        "▁l'ét",
        -9.983958751430102
      ],
      [
        "dem",
        -9.984008591018274
      ],
      [
        "▁envo",
        -9.984024661717514
      ],
      [
        "▁soppal",
        -9.984092774240617
      ],
      [
        "▁ceux",
        -9.984615016009263
      ],
      [
        "▁Dent",
        -9.986017062662775
      ],
      [
        "▁fût",
        -9.986059533947023
      ],
      [
        "oyager",
        -9.986602676525916
      ],
      [
        "▁indig",
        -9.987286346427805
      ],
      [
        "àll",
        -9.988058239715734
      ],
      [
        "pho",
        -9.988064473801828
      ],
      [
        "▁pur",
        -9.988302465480857
      ],
      [
        "▁ma.",
        -9.989063706101652
      ],
      [
        "▁voit",
        -9.989526287461626
      ],
      [
        "▁bë",
        -9.990933843498382
      ],
      [
        "▁foo",
        -9.991003639090733
      ],
      [
        "▁Pr",
        -9.991371151407531
      ],
      [
        "ëbb",
        -9.992754527612039
      ],
      [
        "ec",
        -9.993094543582119
      ],
      [
        "▁ailleurs",
        -9.993142059315261
      ],
      [
        "▁mer",
        -9.995707334395913
      ],
      [
        "▁jale",
        -9.997431074524798
      ],
      [
        "▁gar",
        -9.998483394990753
      ],
      [
        "rage",
        -10.002084785637384
      ],
      [
        "▁Bë",
        -10.00227488665651
      ],
      [
        "▁bëggé",
        -10.002402385378623
      ],
      [
        "▁ëñ",
        -10.00288290243642
      ],
      [
        "▁Xa",
        -10.004700919198317
      ],
      [
        "▁xew",
        -10.004737359496325
      ],
      [
        "èv",
        -10.004877971199742
      ],
      [
        "▁Bon",
        -10.005133656758456
      ],
      [
        "awbe",
        -10.007587597790229
      ],
      [
        "▁livres",
        -10.00789333184609
      ],
      [
        "ni",
        -10.008754471258571
      ],
      [
        "cond",
        -10.010193783577304
      ],
      [
        "rdo",
        -10.010518038062866
      ],
      [
        "urus",
        -10.010777611890793
      ],
      [
        "▁rafetul",
        -10.010821866045616
      ],
      [
        "▁bër",
        -10.011172332958068
      ],
      [
        "dd",
        -10.011456833570772
      ],
      [
        "▁yi.",
        -10.011495752177991
      ],
      [
        "▁jambuur",
        -10.01332675568939
      ],
      [
        "li",
        -10.013453005218182
      ],
      [
        "▁waalo",
        -10.0154790233883
      ],
      [
        "ès",
        -10.016293192249321
      ],
      [
        "▁ép",
        -10.016650923734112
      ],
      [
        "bóol",
        -10.016690341343132
      ],
      [
        "▁tam",
        -10.016790040441553
      ],
      [
        "▁oos",
        -10.017846286518122
      ],
      [
        "▁mort",
        -10.020737422919154
      ],
      [
        "mar",
        -10.022523918869815
      ],
      [
        "trer",
        -10.023231365558948
      ],
      [
        "▁wuut",
        -10.023327981069787
      ],
      [
        "▁õgë",
        -10.023879575729037
      ],
      [
        "▁t'e",
        -10.023941608736802
      ],
      [
        "xam",
        -10.0248963824599
      ],
      [
        "iggéeykat",
        -10.025972287505201
      ],
      [
        "lóo",
        -10.031654853379031
      ],
      [
        "▁reeaa",
        -10.032533754858578
      ],
      [
        "▁Leb",
        -10.033636378365998
      ],
      [
        "▁desquel",
        -10.034141961622165
      ],
      [
        "▁Ñen",
        -10.0355690690543
      ],
      [
        "cien",
        -10.037091991984216
      ],
      [
        "odd",
        -10.038080051126753
      ],
      [
        "▁wut",
        -10.038496272095308
      ],
      [
        "▁Be",
        -10.038932942513936
      ],
      [
        "ine",
        -10.039813623810513
      ],
      [
        "eex",
        -10.040967156315958
      ],
      [
        "▁Sen",
        -10.041022557183014
      ],
      [
        "▁colle",
        -10.042689745443068
      ],
      [
        "wu",
        -10.043490770409607
      ],
      [
        "urre",
        -10.046203884178073
      ],
      [
        "▁éc",
        -10.047847856746381
      ],
      [
        "▁vil",
        -10.048399982190134
      ],
      [
        "ërëm",
        -10.049641947193136
      ],
      [
        "óox",
        -10.052363895396496
      ],
      [
        "▁xal",
        -10.052543309178102
      ],
      [
        "▁fal",
        -10.054343613661587
      ],
      [
        "▁voici.",
        -10.054688155883367
      ],
      [
        "▁donn",
        -10.05493956835982
      ],
      [
        "▁wi",
        -10.05538921659258
      ],
      [
        "hme",
        -10.05638951233758
      ],
      [
        "rme",
        -10.05744882508528
      ],
      [
        "▁nëbb",
        -10.059749784861795
      ],
      [
        "éer",
        -10.064088955323392
      ],
      [
        "si",
        -10.066505998802842
      ],
      [
        "tière",
        -10.070096830344943
      ],
      [
        "rç",
        -10.071238918365877
      ],
      [
        "▁fot",
        -10.074271966580778
      ],
      [
        "▁coy",
        -10.07518379751497
      ],
      [
        "ause",
        -10.077920276730731
      ],
      [
        "ers",
        -10.07908598244185
      ],
      [
        "▁toogu",
        -10.080173838814867
      ],
      [
        "▁dar",
        -10.08442101550671
      ],
      [
        "épuis",
        -10.086857350179056
      ],
      [
        "du",
        -10.087899033529428
      ],
      [
        "-le",
        -10.08932019218238
      ],
      [
        "édu",
        -10.090263405243519
      ],
      [
        "▁l'as",
        -10.092840285369553
      ],
      [
        "af",
        -10.093323081132022
      ],
      [
        "▁xañ",
        -10.094931947943131
      ],
      [
        "'étudiant",
        -10.095415845838641
      ],
      [
        "▁bul",
        -10.096782696952321
      ],
      [
        "if",
        -10.097402364133412
      ],
      [
        "▁seeta",
        -10.099596255003696
      ],
      [
        "▁noo",
        -10.101984953723731
      ],
      [
        "raayim",
        -10.102767442993466
      ],
      [
        "▁née",
        -10.104450760394188
      ],
      [
        "▁lé",
        -10.10495701929277
      ],
      [
        "ages",
        -10.105120770538027
      ],
      [
        "▁abal",
        -10.105582805085541
      ],
      [
        "iche",
        -10.105725120077643
      ],
      [
        "▁Té",
        -10.10594310130358
      ],
      [
        "mm",
        -10.106246656447727
      ],
      [
        "ëg",
        -10.107637985636632
      ],
      [
        "lui",
        -10.10821266175619
      ],
      [
        "▁duggo",
        -10.109248683462427
      ],
      [
        "gii",
        -10.110540688414778
      ],
      [
        "▁étend",
        -10.112555852669946
      ],
      [
        "▁travaill",
        -10.114227636460773
      ],
      [
        "aisse",
        -10.115356840158574
      ],
      [
        "▁chang",
        -10.117152333145977
      ],
      [
        "▁dée",
        -10.121718130690828
      ],
      [
        "uter",
        -10.12405503817771
      ],
      [
        "tant",
        -10.126993566698532
      ],
      [
        "▁ñuu",
        -10.131803947828399
      ],
      [
        "aison",
        -10.13226149780636
      ],
      [
        "▁dem-",
        -10.132563950314864
      ],
      [
        "▁él",
        -10.133607274469078
      ],
      [
        "'impo",
        -10.134096454626851
      ],
      [
        "trait",
        -10.134293343340023
      ],
      [
        "▁voie",
        -10.135907562520433
      ],
      [
        "▁voulai",
        -10.136113148933594
      ],
      [
        "▁meneen",
        -10.139490143741087
      ],
      [
        "▁reveni",
        -10.139528515483304
      ],
      [
        "efois",
        -10.140870421201946
      ],
      [
        "õõ",
        -10.141500359086
      ],
      [
        "longe",
        -10.144471542384153
      ],
      [
        "▁tere",
        -10.145560300108938
      ],
      [
        "▁pui",
        -10.148385892009056
      ],
      [
        "cet",
        -10.149578835367324
      ],
      [
        "▁Set",
        -10.15149934264488
      ],
      [
        "▁ñooñe",
        -10.152261034431044
      ],
      [
        "▁jiit",
        -10.156872353011918
      ],
      [
        "▁Naa",
        -10.158305099445291
      ],
      [
        "▁feeñ",
        -10.158386188472997
      ],
      [
        "▁Yen",
        -10.16196637059022
      ],
      [
        "▁n'i",
        -10.162572047474296
      ],
      [
        "▁safa",
        -10.16382580898018
      ],
      [
        "ab",
        -10.163880078365741
      ],
      [
        "ddu",
        -10.16481905758877
      ],
      [
        "ati",
        -10.166272001626425
      ],
      [
        "▁Ceux-",
        -10.16666013271873
      ],
      [
        "▁reewa",
        -10.16697001833721
      ],
      [
        "▁tis",
        -10.167523806357586
      ],
      [
        "▁ignor",
        -10.169572018277629
      ],
      [
        "▁aille",
        -10.169784207655082
      ],
      [
        "▁ño",
        -10.170843872219175
      ],
      [
        "▁oblig",
        -10.173616951366927
      ],
      [
        "trouvé",
        -10.174051271998328
      ],
      [
        "cci",
        -10.175905728554605
      ],
      [
        "▁rentr",
        -10.177499754460353
      ],
      [
        "dence",
        -10.183424500009862
      ],
      [
        "abal",
        -10.186282040886152
      ],
      [
        "ool",
        -10.187354402671678
      ],
      [
        "ent.",
        -10.187411014420432
      ],
      [
        "'esp",
        -10.187883360938567
      ],
      [
        "ol",
        -10.189796706733828
      ],
      [
        "anche",
        -10.190924700154397
      ],
      [
        "▁gëmm",
        -10.191511742004286
      ],
      [
        "axul",
        -10.19373018692778
      ],
      [
        "pt",
        -10.196922273986381
      ],
      [
        "▁Ño",
        -10.198530834964531
      ],
      [
        "veille",
        -10.199061623151193
      ],
      [
        "ye",
        -10.199419554546502
      ],
      [
        "▁fou",
        -10.199610467250501
      ],
      [
        "▁l'e",
        -10.199679803314515
      ],
      [
        "▁d'an",
        -10.201338382883636
      ],
      [
        "▁mu.",
        -10.201428188164416
      ],
      [
        "ppartien",
        -10.203259345556269
      ],
      [
        "lumine",
        -10.210436558547984
      ],
      [
        "qu'il",
        -10.212382673770756
      ],
      [
        "sul",
        -10.212396460729924
      ],
      [
        "onc",
        -10.21255094449931
      ],
      [
        "aññi",
        -10.21714074926727
      ],
      [
        "▁ri",
        -10.219579729638633
      ],
      [
        "▁rag",
        -10.223261938817577
      ],
      [
        "outer",
        -10.225264183865246
      ],
      [
        "▁ndo",
        -10.225599553257938
      ],
      [
        "▁pourri",
        -10.226199543907972
      ],
      [
        "presse",
        -10.23184535884895
      ],
      [
        "da",
        -10.232539560590128
      ],
      [
        "▁jiy",
        -10.233362595219658
      ],
      [
        "int",
        -10.234443637855495
      ],
      [
        "lan",
        -10.242512663183522
      ],
      [
        "▁ét",
        -10.251712836882218
      ],
      [
        "▁Ai",
        -10.252049683809444
      ],
      [
        "▁lal",
        -10.253414217815118
      ],
      [
        "▁õgii.",
        -10.253879052729054
      ],
      [
        "▁dent",
        -10.264375937054693
      ],
      [
        "tance",
        -10.26483596617778
      ],
      [
        "uy",
        -10.268364108611474
      ],
      [
        "▁Xan",
        -10.271023052962088
      ],
      [
        "étai",
        -10.274612325065537
      ],
      [
        "▁demi",
        -10.284510326277811
      ],
      [
        "tac",
        -10.28919623877966
      ],
      [
        "elqu'un",
        -10.295045907236714
      ],
      [
        "▁lama",
        -10.295533081350786
      ],
      [
        "▁sor",
        -10.297148953941928
      ],
      [
        "leurs",
        -10.301855767818257
      ],
      [
        "ke",
        -10.31057825124903
      ],
      [
        "▁s'é",
        -10.312102624790041
      ],
      [
        "▁demand",
        -10.312504256111488
      ],
      [
        "gir",
        -10.31476018484004
      ],
      [
        "J",
        -10.315739126077311
      ],
      [
        "ñoo",
        -10.315830948540738
      ],
      [
        "aye",
        -10.317397714613701
      ],
      [
        "sard",
        -10.319236250969803
      ],
      [
        "ttais",
        -10.31996420474688
      ],
      [
        "▁cl",
        -10.320434600741432
      ],
      [
        "▁Die",
        -10.321216717468806
      ],
      [
        "▁tawa",
        -10.321358318610264
      ],
      [
        "▁mar",
        -10.324916625116868
      ],
      [
        "app",
        -10.325700261861188
      ],
      [
        "t.",
        -10.326561201401491
      ],
      [
        "nee",
        -10.328469215865937
      ],
      [
        "▁off",
        -10.330504417182595
      ],
      [
        "▁ava",
        -10.331822415797033
      ],
      [
        "ng",
        -10.333251641508092
      ],
      [
        "ina",
        -10.335934243757126
      ],
      [
        "▁é",
        -10.335982960729103
      ],
      [
        "▁Mas",
        -10.336086859286647
      ],
      [
        "orsqu",
        -10.33902646357964
      ],
      [
        "ffi",
        -10.340057079295823
      ],
      [
        "▁tus",
        -10.340514285207034
      ],
      [
        "▁ñja",
        -10.343101008991447
      ],
      [
        "▁yooy",
        -10.345370494832574
      ],
      [
        "▁accompagn",
        -10.345692265815947
      ],
      [
        "▁jee",
        -10.350841054890346
      ],
      [
        "yi",
        -10.350967493877741
      ],
      [
        "▁Laa",
        -10.351898489295795
      ],
      [
        "▁len",
        -10.352772544775272
      ],
      [
        "▁poi",
        -10.356228731040234
      ],
      [
        "bili",
        -10.356469429794949
      ],
      [
        "▁daawu",
        -10.357746002128968
      ],
      [
        "gu",
        -10.359923695078725
      ],
      [
        "ard",
        -10.360006330735414
      ],
      [
        "▁Bëggu",
        -10.362621281591261
      ],
      [
        "squel",
        -10.362623092223737
      ],
      [
        "▁Yo",
        -10.363329642231152
      ],
      [
        "▁Che",
        -10.363559212479238
      ],
      [
        "▁accompagne",
        -10.36458378840628
      ],
      [
        "ind",
        -10.367077565412073
      ],
      [
        "ekk",
        -10.367312343800666
      ],
      [
        "▁vent",
        -10.37044080980719
      ],
      [
        "attrape",
        -10.370620352894864
      ],
      [
        "▁jaa",
        -10.370940893285264
      ],
      [
        "ndal",
        -10.372104709632321
      ],
      [
        "▁évi",
        -10.376083322941138
      ],
      [
        "met",
        -10.377446287604744
      ],
      [
        "▁ins",
        -10.378025076267715
      ],
      [
        "nation",
        -10.378677085731425
      ],
      [
        "▁tak",
        -10.381255464044111
      ],
      [
        "▁Don",
        -10.382220492378476
      ],
      [
        "▁ha",
        -10.3833352206104
      ],
      [
        "yul",
        -10.384251248727269
      ],
      [
        "▁couv",
        -10.384858725329497
      ],
      [
        "▁vac",
        -10.38895681954692
      ],
      [
        "▁jeu",
        -10.39181767881421
      ],
      [
        "ch",
        -10.394493205622037
      ],
      [
        "nter",
        -10.397661650229928
      ],
      [
        "▁lit",
        -10.403550002313924
      ],
      [
        "▁bel",
        -10.403727435032339
      ],
      [
        "▁suc",
        -10.404410291147391
      ],
      [
        "▁sép",
        -10.406265066492006
      ],
      [
        "quelle",
        -10.41060085104278
      ],
      [
        "▁lekka",
        -10.410810659334874
      ],
      [
        "▁noon",
        -10.41504955340457
      ],
      [
        "bon",
        -10.418108297857895
      ],
      [
        "▁wé",
        -10.419897887232723
      ],
      [
        "iy",
        -10.421786664543752
      ],
      [
        "-j",
        -10.423305219567903
      ],
      [
        "'euss",
        -10.430332896402575
      ],
      [
        "vers",
        -10.430686755566878
      ],
      [
        "▁suu",
        -10.431037121897592
      ],
      [
        "tóo",
        -10.43222921379308
      ],
      [
        "▁char",
        -10.432913937447978
      ],
      [
        "▁ng",
        -10.43412736437292
      ],
      [
        "▁pil",
        -10.44493401943153
      ],
      [
        "éeg",
        -10.445210200717757
      ],
      [
        "aõõ-",
        -10.446114262536739
      ],
      [
        "▁Saa",
        -10.454738721339425
      ],
      [
        "añ",
        -10.455051396888479
      ],
      [
        "▁vaca",
        -10.455775312079776
      ],
      [
        "▁lumi",
        -10.459004343272657
      ],
      [
        "▁Tug",
        -10.464378642606528
      ],
      [
        "▁jaõ",
        -10.466251273467073
      ],
      [
        "aumône",
        -10.46675800130938
      ],
      [
        "▁Gë",
        -10.471494171619742
      ],
      [
        "▁Celui-",
        -10.472546543304745
      ],
      [
        "dac",
        -10.47274264021497
      ],
      [
        "▁gëm",
        -10.473435383913825
      ],
      [
        "yóo",
        -10.47408056467834
      ],
      [
        "nche",
        -10.47476929728194
      ],
      [
        "ari",
        -10.474776509602657
      ],
      [
        "étour",
        -10.477937862782252
      ],
      [
        "tend",
        -10.479178504166992
      ],
      [
        "▁acc",
        -10.482807667121591
      ],
      [
        "▁plant",
        -10.483109334206812
      ],
      [
        "▁sawa",
        -10.484653394783827
      ],
      [
        "ger",
        -10.48684423293269
      ],
      [
        "veux",
        -10.489063252173327
      ],
      [
        "ins",
        -10.492170295476626
      ],
      [
        "▁jig",
        -10.494064057065156
      ],
      [
        "▁or",
        -10.497828881733152
      ],
      [
        "▁rentre",
        -10.498578345315455
      ],
      [
        "▁bavarda",
        -10.50088597782974
      ],
      [
        "indé",
        -10.504004023225793
      ],
      [
        "ah",
        -10.511961730499936
      ],
      [
        "llum",
        -10.513570847913398
      ],
      [
        "tt",
        -10.516773898555686
      ],
      [
        "▁ple",
        -10.521377125060933
      ],
      [
        "▁lo",
        -10.527546748785687
      ],
      [
        "▁nob",
        -10.531278967292288
      ],
      [
        "va",
        -10.538358621271001
      ],
      [
        "ima",
        -10.542966411805095
      ],
      [
        "▁passe",
        -10.54584636941065
      ],
      [
        "▁obligat",
        -10.551201671164701
      ],
      [
        "▁xaa",
        -10.554434908432627
      ],
      [
        "loo",
        -10.558902778301036
      ],
      [
        "muloo",
        -10.561841555368103
      ],
      [
        "ole",
        -10.564024001193152
      ],
      [
        "▁Bule",
        -10.58172378491326
      ],
      [
        "▁fab",
        -10.58188457973654
      ],
      [
        "▁ra",
        -10.582616240604231
      ],
      [
        "▁Ve",
        -10.583458837415794
      ],
      [
        "axkoon",
        -10.583813417291893
      ],
      [
        "▁õ",
        -10.585910672826882
      ],
      [
        "▁bouch",
        -10.594899695259016
      ],
      [
        "▁Voi",
        -10.59578044817455
      ],
      [
        "▁ni.",
        -10.597763492128305
      ],
      [
        "▁Ñoo",
        -10.598045217764914
      ],
      [
        "luka",
        -10.598128536258846
      ],
      [
        "▁itt",
        -10.598337582895274
      ],
      [
        "▁yoo",
        -10.598458272970808
      ],
      [
        "▁voi",
        -10.600334014142465
      ],
      [
        "tient",
        -10.602334538799106
      ],
      [
        "éem",
        -10.602344209180444
      ],
      [
        "▁l'ac",
        -10.605658576625947
      ],
      [
        "▁ter",
        -10.608573882960899
      ],
      [
        "▁sóo",
        -10.610098764996739
      ],
      [
        "étudiant",
        -10.61053218981686
      ],
      [
        "▁cult",
        -10.614544280601695
      ],
      [
        "▁Xarit",
        -10.617754669526581
      ],
      [
        "cous",
        -10.621151445076645
      ],
      [
        "ibbisi",
        -10.62201729051008
      ],
      [
        "woo",
        -10.622327300471996
      ],
      [
        "▁souhait",
        -10.623410274132434
      ],
      [
        "jal",
        -10.623769638691426
      ],
      [
        "▁ina",
        -10.626070775614433
      ],
      [
        "▁reven",
        -10.632981639157276
      ],
      [
        "mes",
        -10.636716184003888
      ],
      [
        "co",
        -10.639437705213005
      ],
      [
        "ayim",
        -10.640702210013648
      ],
      [
        "▁hon",
        -10.641457059287871
      ],
      [
        "daõ",
        -10.642355335220138
      ],
      [
        "▁m'as",
        -10.643465997948152
      ],
      [
        "ñca",
        -10.645254658202624
      ],
      [
        "▁taõ",
        -10.645799120949338
      ],
      [
        "▁sp",
        -10.646878582471755
      ],
      [
        "▁act",
        -10.647144644234922
      ],
      [
        "argent",
        -10.64870642891607
      ],
      [
        "▁dég",
        -10.648720543153033
      ],
      [
        "▁maigr",
        -10.650953207104363
      ],
      [
        "stin",
        -10.651049608553567
      ],
      [
        "wax",
        -10.652556656318033
      ],
      [
        "▁fà",
        -10.654713344909961
      ],
      [
        "▁lë",
        -10.659439630243089
      ],
      [
        "où",
        -10.662721272039043
      ],
      [
        "lop",
        -10.663122094158066
      ],
      [
        "oy",
        -10.665022041724
      ],
      [
        "▁woow",
        -10.665056657478791
      ],
      [
        "aujourd'hui",
        -10.666384162157103
      ],
      [
        "▁brou",
        -10.666646031263788
      ],
      [
        "-r",
        -10.669436257950302
      ],
      [
        "xal",
        -10.670179058164319
      ],
      [
        "daay",
        -10.670374385327765
      ],
      [
        "alé",
        -10.670709574776389
      ],
      [
        "▁Se",
        -10.672628110347242
      ],
      [
        "iitël",
        -10.67494046363969
      ],
      [
        "onne",
        -10.675750406639102
      ],
      [
        "bbël",
        -10.678633207510893
      ],
      [
        "u.",
        -10.679601290872895
      ],
      [
        "ond",
        -10.680667825191234
      ],
      [
        "ëm",
        -10.682517707812119
      ],
      [
        "viendra",
        -10.687780198870549
      ],
      [
        "enfant",
        -10.693802531811286
      ],
      [
        "▁sera",
        -10.694154853071659
      ],
      [
        "gis",
        -10.694769245624842
      ],
      [
        "mule",
        -10.697788726225921
      ],
      [
        "▁d'au",
        -10.69805254485079
      ],
      [
        "'il",
        -10.699014870186858
      ],
      [
        "▁certain",
        -10.699044888087254
      ],
      [
        "ñii",
        -10.69929823995256
      ],
      [
        "moon",
        -10.70061330359517
      ],
      [
        "▁dig",
        -10.703752328395266
      ],
      [
        "▁reconn",
        -10.70420905873558
      ],
      [
        "yy",
        -10.70738272825906
      ],
      [
        "aladie",
        -10.709867912924302
      ],
      [
        "enie",
        -10.711295937284362
      ],
      [
        "gée",
        -10.712094390576752
      ],
      [
        "eillir",
        -10.714430543090742
      ],
      [
        "inte",
        -10.716771626626311
      ],
      [
        "bëggée",
        -10.71774768287852
      ],
      [
        "geen",
        -10.7177868494412
      ],
      [
        "▁tag",
        -10.720078834541843
      ],
      [
        "▁laq",
        -10.720214334769178
      ],
      [
        "jaambur",
        -10.720698837455222
      ],
      [
        "▁bule",
        -10.721331387303678
      ],
      [
        "ur.",
        -10.721411680448774
      ],
      [
        "▁yaak",
        -10.725804695502838
      ],
      [
        "▁aim",
        -10.728971226631547
      ],
      [
        "H",
        -10.731333472061346
      ],
      [
        "jeune",
        -10.732567671780073
      ],
      [
        "▁Est",
        -10.733933433136784
      ],
      [
        "a.",
        -10.73790928183889
      ],
      [
        "um",
        -10.73816465190374
      ],
      [
        "õgoo",
        -10.739052991705462
      ],
      [
        "pose",
        -10.74276094140555
      ],
      [
        "uel",
        -10.743286713393951
      ],
      [
        "demain",
        -10.743704920875066
      ],
      [
        "▁Re",
        -10.749606788756438
      ],
      [
        "ccu",
        -10.750245339558434
      ],
      [
        "att",
        -10.751011514228027
      ],
      [
        "wër",
        -10.752727564634714
      ],
      [
        "▁naa.",
        -10.75284991915223
      ],
      [
        "waalo",
        -10.75492692503976
      ],
      [
        "▁croya",
        -10.755292857706861
      ],
      [
        "defar",
        -10.756299477516915
      ],
      [
        "▁baa",
        -10.757830375007144
      ],
      [
        "▁fac",
        -10.758774996952335
      ],
      [
        "naiss",
        -10.760942966836042
      ],
      [
        "jambuur",
        -10.76165228554649
      ],
      [
        "xe",
        -10.764253099239797
      ],
      [
        "▁Ag",
        -10.766255380432858
      ],
      [
        "▁kat",
        -10.772267956988419
      ],
      [
        "â",
        -10.77338593809879
      ],
      [
        "marche",
        -10.774450358099358
      ],
      [
        "pter",
        -10.779613374933104
      ],
      [
        "▁Ka",
        -10.781665563968387
      ],
      [
        "xew",
        -10.781965851172519
      ],
      [
        "▁waxi",
        -10.783268085077575
      ],
      [
        "▁Xo",
        -10.785674449484368
      ],
      [
        "▁éta",
        -10.788396929443792
      ],
      [
        "më",
        -10.795384403470562
      ],
      [
        "contr",
        -10.796348126879371
      ],
      [
        "ape",
        -10.797335928084305
      ],
      [
        "cu",
        -10.799340018057022
      ],
      [
        "sage",
        -10.800653969828655
      ],
      [
        "▁wañ",
        -10.800798325758132
      ],
      [
        "rab",
        -10.801423468122488
      ],
      [
        "gg",
        -10.801710439741209
      ],
      [
        "ac",
        -10.805852901728969
      ],
      [
        "éralement",
        -10.80664114567228
      ],
      [
        "kaw",
        -10.808559246404071
      ],
      [
        "bul",
        -10.810182194161277
      ],
      [
        "rrache",
        -10.812357921085603
      ],
      [
        "indig",
        -10.813375437446547
      ],
      [
        "▁personn",
        -10.814464701888241
      ],
      [
        "▁kañ",
        -10.817692298450623
      ],
      [
        "accompagne",
        -10.818116547165955
      ],
      [
        "nañu.",
        -10.819732867841012
      ],
      [
        "▁refus",
        -10.821132588841538
      ],
      [
        "xor",
        -10.821329338087178
      ],
      [
        "vis",
        -10.821378537549615
      ],
      [
        "▁lée",
        -10.822143154187856
      ],
      [
        "ô",
        -10.822249142709543
      ],
      [
        "▁dis",
        -10.82583693668996
      ],
      [
        "▁ass",
        -10.829825528131463
      ],
      [
        "▁bât",
        -10.83240804305517
      ],
      [
        "▁fû",
        -10.833501503656683
      ],
      [
        "▁dés",
        -10.83473293585881
      ],
      [
        "jóo",
        -10.836890267069508
      ],
      [
        "illir",
        -10.839497989428228
      ],
      [
        "veni",
        -10.841429097997663
      ],
      [
        "ajj",
        -10.842006172687855
      ],
      [
        "quant",
        -10.842107281504807
      ],
      [
        "▁com",
        -10.843116554143503
      ],
      [
        "▁pardon",
        -10.843322098993648
      ],
      [
        "jud",
        -10.843572498801219
      ],
      [
        "ph",
        -10.847279613579122
      ],
      [
        "obligat",
        -10.847770281462825
      ],
      [
        "▁s'im",
        -10.848547599649857
      ],
      [
        "éen",
        -10.849955055643667
      ],
      [
        "▁Fo",
        -10.850700361169272
      ],
      [
        "kkat",
        -10.85381785229625
      ],
      [
        "auf",
        -10.854651367066047
      ],
      [
        "▁Gisul",
        -10.856681756690703
      ],
      [
        "jiit",
        -10.858893449281359
      ],
      [
        "emuloo",
        -10.860062347363408
      ],
      [
        "boot",
        -10.860448918292589
      ],
      [
        "dé",
        -10.861714507891227
      ],
      [
        "épi",
        -10.862451209988407
      ],
      [
        "bë",
        -10.864200889658559
      ],
      [
        "▁pos",
        -10.866354896330623
      ],
      [
        "▁Ñé",
        -10.86876418929102
      ],
      [
        "jar",
        -10.870627218049407
      ],
      [
        "▁dan",
        -10.871514544547223
      ],
      [
        "▁Daawu",
        -10.873198549335672
      ],
      [
        "▁br",
        -10.875253002495567
      ],
      [
        "ww",
        -10.878724493607324
      ],
      [
        "▁uuf",
        -10.878892733244228
      ],
      [
        "▁Né",
        -10.882218347601247
      ],
      [
        "▁s'e",
        -10.886281051772658
      ],
      [
        "yee",
        -10.889809969717492
      ],
      [
        "nif",
        -10.893406988715014
      ],
      [
        "rais",
        -10.894202079660536
      ],
      [
        "ggi",
        -10.90125292630271
      ],
      [
        "aajo",
        -10.90197639143598
      ],
      [
        "▁brav",
        -10.902117297013616
      ],
      [
        "'aurai",
        -10.90659067915165
      ],
      [
        "▁Àn",
        -10.907345560869796
      ],
      [
        "▁U",
        -10.907870154048753
      ],
      [
        "mbour",
        -10.911791424366807
      ],
      [
        "▁deg",
        -10.91179772729487
      ],
      [
        "itam",
        -10.912143549290885
      ],
      [
        "iter",
        -10.913146548711644
      ],
      [
        "▁caus",
        -10.914329013362156
      ],
      [
        "▁piq",
        -10.91605646584497
      ],
      [
        "dam",
        -10.917193538626915
      ],
      [
        "▁travailleur",
        -10.917527658915281
      ],
      [
        "▁bouge",
        -10.917717971130843
      ],
      [
        "▁jé",
        -10.917824465257425
      ],
      [
        "▁Yée",
        -10.920593379879646
      ],
      [
        "kon",
        -10.920862522070347
      ],
      [
        "▁déte",
        -10.92091949939258
      ],
      [
        "urtout",
        -10.921062658248955
      ],
      [
        "stru",
        -10.922231911008986
      ],
      [
        "▁souff",
        -10.922981584420892
      ],
      [
        "▁s'épa",
        -10.924364123668711
      ],
      [
        "▁concurren",
        -10.924879255206637
      ],
      [
        "▁vie",
        -10.924905724411973
      ],
      [
        "óol",
        -10.92559190799926
      ],
      [
        "▁tâ",
        -10.925813603320915
      ],
      [
        "-jam",
        -10.926085361233637
      ],
      [
        "▁wuu",
        -10.926131232551073
      ],
      [
        "dul",
        -10.927059424524742
      ],
      [
        "▁tuur",
        -10.92754424847785
      ],
      [
        "▁vérit",
        -10.927736403905051
      ],
      [
        "bax",
        -10.92800558651256
      ],
      [
        "arlat",
        -10.928108500297563
      ],
      [
        "'autre",
        -10.928142023369977
      ],
      [
        "▁cohabite",
        -10.9281676559897
      ],
      [
        "'habi",
        -10.929197971114696
      ],
      [
        "▁tal",
        -10.929821375014576
      ],
      [
        "▁revien",
        -10.931155430682931
      ],
      [
        "▁seu",
        -10.931428038697971
      ],
      [
        "ctive",
        -10.931830125169245
      ],
      [
        "abille",
        -10.932288268635368
      ],
      [
        "usqu'ici",
        -10.932538770004086
      ],
      [
        "àññ",
        -10.932926835300144
      ],
      [
        "▁simple",
        -10.933013189859432
      ],
      [
        "▁revi",
        -10.933048174798897
      ],
      [
        "esprit",
        -10.933232439645497
      ],
      [
        "ême",
        -10.93332305659939
      ],
      [
        "▁excessi",
        -10.933371763091332
      ],
      [
        "politesse",
        -10.933591382335468
      ],
      [
        "▁accomp",
        -10.933625725690096
      ],
      [
        "]",
        -10.933639549051453
      ],
      [
        "ä",
        -10.933639549051453
      ],
      [
        "ï",
        -10.933639549051453
      ],
      [
        "[",
        -10.933639549051453
      ],
      [
        "▁habitue",
        -10.933639698182347
      ],
      [
        "déed",
        -10.933886281280781
      ],
      [
        "▁dind",
        -10.934683571373725
      ],
      [
        "véri",
        -10.936448224121207
      ],
      [
        "▁Musa",
        -10.937649915484746
      ],
      [
        "vid",
        -10.937850910695406
      ],
      [
        "'affai",
        -10.937887075769355
      ],
      [
        "▁Pou",
        -10.938237777597104
      ],
      [
        "▁chev",
        -10.938362632116824
      ],
      [
        "igno",
        -10.939460956851129
      ],
      [
        "tëli",
        -10.939914527630929
      ],
      [
        "abb",
        -10.940177049800521
      ],
      [
        "habite",
        -10.940331843252862
      ],
      [
        "oobu",
        -10.940978609200211
      ],
      [
        "▁n'av",
        -10.941417856223499
      ],
      [
        "ddoo",
        -10.94327648739686
      ],
      [
        "▁õgee",
        -10.943410010567487
      ],
      [
        "ouge",
        -10.943802224887158
      ],
      [
        "▁l'h",
        -10.943918357000758
      ],
      [
        "▁exce",
        -10.944332378679636
      ],
      [
        "▁coh",
        -10.944802753886513
      ],
      [
        "▁mê",
        -10.945515884027879
      ],
      [
        "▁kë",
        -10.946661532800395
      ],
      [
        "googee",
        -10.947000402573563
      ],
      [
        "▁fatt",
        -10.94734631540354
      ],
      [
        "▁dellu",
        -10.947746346029607
      ],
      [
        "▁Wut",
        -10.948613026768895
      ],
      [
        "▁Part",
        -10.949270451472245
      ],
      [
        "em-",
        -10.949910815014308
      ],
      [
        "étud",
        -10.950205006613594
      ],
      [
        "ace",
        -10.950855161106789
      ],
      [
        "▁coppe",
        -10.952100945751713
      ],
      [
        "ambour",
        -10.95312146915853
      ],
      [
        "glóo",
        -10.953829692095308
      ],
      [
        "nière",
        -10.954237273976798
      ],
      [
        "▁rap",
        -10.954257188614378
      ],
      [
        "▁obs",
        -10.956000365181556
      ],
      [
        "▁jaam",
        -10.956713508700334
      ],
      [
        "latan",
        -10.957139894583488
      ],
      [
        "miné",
        -10.957521956110648
      ],
      [
        "▁macc",
        -10.95815266631183
      ],
      [
        "▁d'h",
        -10.95833948681509
      ],
      [
        "▁l'ar",
        -10.958608783394503
      ],
      [
        "▁conce",
        -10.95914362729965
      ],
      [
        "▁indi",
        -10.959492413842298
      ],
      [
        "rtis",
        -10.960704704138532
      ],
      [
        "ogu",
        -10.961095385322562
      ],
      [
        "ective",
        -10.961627707237373
      ],
      [
        "▁lem",
        -10.963087380361042
      ],
      [
        "laire",
        -10.963336090122162
      ],
      [
        "añu",
        -10.96350225756116
      ],
      [
        "cole",
        -10.96522201418206
      ],
      [
        "arti",
        -10.96759094045744
      ],
      [
        "isine",
        -10.967600996897694
      ],
      [
        "omme",
        -10.969232330573693
      ],
      [
        "ents",
        -10.969244533315022
      ],
      [
        "▁Atte",
        -10.97036756812184
      ],
      [
        "▁Ca",
        -10.97132406447171
      ],
      [
        "divi",
        -10.971760049490612
      ],
      [
        "▁copp",
        -10.971819707223979
      ],
      [
        "impl",
        -10.972026592775551
      ],
      [
        "ez-",
        -10.972061165647323
      ],
      [
        "▁prol",
        -10.972995323454048
      ],
      [
        "oncer",
        -10.97352232917035
      ],
      [
        "ff",
        -10.974631882634277
      ],
      [
        "alla",
        -10.97502676438458
      ],
      [
        "▁fata",
        -10.977211996584995
      ],
      [
        "llu",
        -10.978239633027302
      ],
      [
        "njam",
        -10.978895219005992
      ],
      [
        "'ai",
        -10.98160372633848
      ],
      [
        "res",
        -10.98227064481497
      ],
      [
        "itude",
        -10.98303454685459
      ],
      [
        "eddi",
        -10.984312277879155
      ],
      [
        "▁déf",
        -10.98490010998502
      ],
      [
        "▁appr",
        -10.985550643532877
      ],
      [
        "nég",
        -10.986622268197255
      ],
      [
        "up",
        -10.989162568847977
      ],
      [
        "abi",
        -10.990270502646126
      ],
      [
        "rvit",
        -10.99196990980109
      ],
      [
        "érit",
        -10.992222936462813
      ],
      [
        "tif",
        -10.993063736257017
      ],
      [
        "enu",
        -10.993258478254052
      ],
      [
        "oogu",
        -10.993260386739314
      ],
      [
        "dant",
        -10.993760189783035
      ],
      [
        "▁dev",
        -10.994285925004867
      ],
      [
        "▁l'é",
        -10.995525926878674
      ],
      [
        "fka",
        -10.996142787481288
      ],
      [
        "rès",
        -10.998713402487459
      ],
      [
        "attali",
        -10.999143090379508
      ],
      [
        "ogul",
        -11.000557357854776
      ],
      [
        "▁I",
        -11.00189122380625
      ],
      [
        "vo",
        -11.002313154535532
      ],
      [
        "autre",
        -11.004832684678231
      ],
      [
        "ctif",
        -11.005526120979704
      ],
      [
        "▁cop",
        -11.005657926423648
      ],
      [
        "égal",
        -11.005763711806162
      ],
      [
        "isson",
        -11.006214022755877
      ],
      [
        "rê",
        -11.006328629216686
      ],
      [
        "hé",
        -11.007590160764114
      ],
      [
        "noir",
        -11.008193493348704
      ],
      [
        "ours",
        -11.008687189317577
      ],
      [
        "ço",
        -11.008983144173117
      ],
      [
        "▁leq",
        -11.010118052413464
      ],
      [
        "▁Gan",
        -11.010321203762592
      ],
      [
        "bri",
        -11.010473188093918
      ],
      [
        "ewande",
        -11.011307093424703
      ],
      [
        "▁atte",
        -11.016238272799153
      ],
      [
        "awar",
        -11.017444677847164
      ],
      [
        "góon",
        -11.02164884009089
      ],
      [
        "fal",
        -11.025119090360679
      ],
      [
        "▁xe",
        -11.025833833915978
      ],
      [
        "alo",
        -11.027604514889706
      ],
      [
        "raõõ",
        -11.027975267598888
      ],
      [
        "lait",
        -11.030156154905772
      ],
      [
        "alik",
        -11.030187473412301
      ],
      [
        "assé",
        -11.032428236378959
      ],
      [
        "née",
        -11.034251789632082
      ],
      [
        "bli",
        -11.03465394829814
      ],
      [
        "▁travaillai",
        -11.03484011937624
      ],
      [
        "bout",
        -11.040597490471324
      ],
      [
        "-xa",
        -11.04111366863275
      ],
      [
        "▁gos",
        -11.043745880802375
      ],
      [
        "entré",
        -11.046566085055797
      ],
      [
        "exil",
        -11.04701067427856
      ],
      [
        "▁ad",
        -11.050085815030805
      ],
      [
        "ect",
        -11.050440668644937
      ],
      [
        "prié",
        -11.050586689532532
      ],
      [
        "'aime",
        -11.05256778934905
      ],
      [
        "kku",
        -11.053544232420426
      ],
      [
        "gay",
        -11.05504376049683
      ],
      [
        "▁ap",
        -11.056599622076048
      ],
      [
        "por",
        -11.05974178006979
      ],
      [
        "ëggu",
        -11.06045771381587
      ],
      [
        "▁rée",
        -11.061103096146086
      ],
      [
        "ous-même",
        -11.06134528505951
      ],
      [
        "adi",
        -11.062261641755418
      ],
      [
        "âl",
        -11.065234693803209
      ],
      [
        "egg",
        -11.067044799494866
      ],
      [
        "r.",
        -11.069642000091758
      ],
      [
        "▁gén",
        -11.070145932023024
      ],
      [
        "ér",
        -11.070327731815345
      ],
      [
        "▁ense",
        -11.077706391936404
      ],
      [
        "ici.",
        -11.083203204463512
      ],
      [
        "▁Sér",
        -11.083301367302301
      ],
      [
        "riv",
        -11.084079831638569
      ],
      [
        "jambaa",
        -11.085241290780216
      ],
      [
        "lum",
        -11.08615547994549
      ],
      [
        "euse",
        -11.087845200727703
      ],
      [
        "uite",
        -11.092719035634227
      ],
      [
        "nversé",
        -11.09585966688184
      ],
      [
        "▁dim",
        -11.096442091995836
      ],
      [
        "▁choi",
        -11.097038761441173
      ],
      [
        "▁juu",
        -11.098328490895794
      ],
      [
        "erai",
        -11.100961356497413
      ],
      [
        "amant",
        -11.10269756752374
      ],
      [
        "empi",
        -11.106366675207777
      ],
      [
        "aõk",
        -11.111049716823212
      ],
      [
        "oint",
        -11.112559588768312
      ],
      [
        "▁kaa",
        -11.114024271836655
      ],
      [
        "▁reg",
        -11.114670618319948
      ],
      [
        "saw",
        -11.115125991183671
      ],
      [
        "▁contr",
        -11.115306777343541
      ],
      [
        "▁Ji",
        -11.116146342916045
      ],
      [
        "iden",
        -11.121974780788864
      ],
      [
        "ex",
        -11.13130357040772
      ],
      [
        "▁rë",
        -11.13823358191355
      ],
      [
        "uve",
        -11.140277232407996
      ],
      [
        "▁déc",
        -11.140709179396527
      ],
      [
        "ut",
        -11.143109808520673
      ],
      [
        "▁jus",
        -11.149807164713458
      ],
      [
        "▁poss",
        -11.154208715467686
      ],
      [
        "émi",
        -11.154222123044296
      ],
      [
        "▁atti",
        -11.15425978066555
      ],
      [
        "sa",
        -11.155257073247714
      ],
      [
        "ang",
        -11.156550928603
      ],
      [
        "▁sér",
        -11.157162087628198
      ],
      [
        "▁nj",
        -11.157169445236665
      ],
      [
        "▁comp",
        -11.157309158527053
      ],
      [
        "yent",
        -11.158205294784
      ],
      [
        "obal",
        -11.158666611489068
      ],
      [
        "aww",
        -11.163142431639011
      ],
      [
        "xar",
        -11.164026969738668
      ],
      [
        "mée",
        -11.16639079096846
      ],
      [
        "auc",
        -11.169725853604687
      ],
      [
        "uche",
        -11.175302511674442
      ],
      [
        "toi",
        -11.175492620862732
      ],
      [
        "▁rés",
        -11.17916627011263
      ],
      [
        "▁vieill",
        -11.180945916924658
      ],
      [
        "biti",
        -11.181279260747587
      ],
      [
        "nnée",
        -11.183218289622138
      ],
      [
        "▁õgoog",
        -11.18416203593039
      ],
      [
        "mos",
        -11.187668673504422
      ],
      [
        "etourne",
        -11.1921944887259
      ],
      [
        "mbre",
        -11.194358439640931
      ],
      [
        "hère",
        -11.201716303786856
      ],
      [
        "anaa",
        -11.203582882128204
      ],
      [
        "▁om",
        -11.206929141202684
      ],
      [
        "appelle",
        -11.217012193960334
      ],
      [
        "▁dém",
        -11.217858008759768
      ],
      [
        "▁fais",
        -11.22213262434087
      ],
      [
        "▁Av",
        -11.226103212535756
      ],
      [
        "oxor",
        -11.231670742069172
      ],
      [
        "▁terr",
        -11.235518052460135
      ],
      [
        "naissa",
        -11.242767008888102
      ],
      [
        "▁conn",
        -11.24308874692185
      ],
      [
        "▁lig",
        -11.244401283568113
      ],
      [
        "ndi",
        -11.247691797861066
      ],
      [
        "▁atten",
        -11.247931200972138
      ],
      [
        "▁trav",
        -11.251086347875678
      ],
      [
        "rère",
        -11.252149407797765
      ],
      [
        "uu",
        -11.262760205474363
      ],
      [
        "arée",
        -11.265546746285288
      ],
      [
        "▁ub",
        -11.27232164721688
      ],
      [
        "rte",
        -11.275303026249738
      ],
      [
        "L'homme",
        -11.279774705579552
      ],
      [
        "▁sé",
        -11.288562175092437
      ],
      [
        "mine",
        -11.292920050686096
      ],
      [
        "oppi",
        -11.297037983112668
      ],
      [
        "▁chau",
        -11.299331610755772
      ],
      [
        "sé",
        -11.302535638504423
      ],
      [
        "llusi",
        -11.303035261241469
      ],
      [
        "▁vert",
        -11.303987253714645
      ],
      [
        "nore",
        -11.305475702805925
      ],
      [
        "tudi",
        -11.31136793724664
      ],
      [
        "à-",
        -11.312596452032937
      ],
      [
        "ons.",
        -11.329779231224839
      ],
      [
        "▁jama",
        -11.333863094025977
      ],
      [
        "oppeeku",
        -11.334711594919005
      ],
      [
        "onnai",
        -11.335648919911815
      ],
      [
        "ifie",
        -11.337449932188514
      ],
      [
        "'argent",
        -11.337541794465361
      ],
      [
        "▁noy",
        -11.343671036594838
      ],
      [
        "▁xamu",
        -11.344513751500752
      ],
      [
        "pi",
        -11.34859549087726
      ],
      [
        "▁mooma",
        -11.352109633454198
      ],
      [
        "▁ai",
        -11.35284570088594
      ],
      [
        "uleen",
        -11.353759290313192
      ],
      [
        "sag",
        -11.358999658478258
      ],
      [
        "▁Mus",
        -11.36356775131074
      ],
      [
        "▁gent",
        -11.36919556125714
      ],
      [
        "rousse",
        -11.371751320172638
      ],
      [
        "▁yo",
        -11.37266319163576
      ],
      [
        "▁marche",
        -11.374387908540623
      ],
      [
        "▁fort",
        -11.374445419478533
      ],
      [
        "▁inter",
        -11.375960289063984
      ],
      [
        "yil",
        -11.377197153182099
      ],
      [
        "caa",
        -11.380770056136662
      ],
      [
        "goo",
        -11.384672303065194
      ],
      [
        "aõx",
        -11.385500424485327
      ],
      [
        "alli",
        -11.391389945194485
      ],
      [
        "ggoo",
        -11.393904671426471
      ],
      [
        "illi",
        -11.395128438560942
      ],
      [
        "▁enc",
        -11.397360226812818
      ],
      [
        "ata",
        -11.398364489562779
      ],
      [
        "eek",
        -11.398752865565365
      ],
      [
        "drai",
        -11.403494229277182
      ],
      [
        "▁mé",
        -11.405741453201852
      ],
      [
        "Gis",
        -11.405927051261703
      ],
      [
        "lqu'un",
        -11.408311184241272
      ],
      [
        "jug",
        -11.411543425306
      ],
      [
        "lie",
        -11.413969556261332
      ],
      [
        "nko",
        -11.414733680879623
      ],
      [
        "▁nou",
        -11.419034540852852
      ],
      [
        "▁fit",
        -11.419262091758705
      ],
      [
        "quit",
        -11.421828053040514
      ],
      [
        "▁cont",
        -11.422982948656639
      ],
      [
        "oure",
        -11.424351921479776
      ],
      [
        "roir",
        -11.426200251958432
      ],
      [
        "des",
        -11.42765499985535
      ],
      [
        "boi",
        -11.433114343255582
      ],
      [
        "bab",
        -11.43373872243445
      ],
      [
        "coute",
        -11.436338350756207
      ],
      [
        "aakaar",
        -11.437483389197089
      ],
      [
        "▁seco",
        -11.441229192779817
      ],
      [
        "▁es-",
        -11.44567433834275
      ],
      [
        "▁tà",
        -11.453949117288175
      ],
      [
        "-là.",
        -11.45689903929333
      ],
      [
        "okka",
        -11.460926452962918
      ],
      [
        "▁Sé",
        -11.461013218374852
      ],
      [
        "ses",
        -11.465339251330484
      ],
      [
        "aal",
        -11.465580645463282
      ],
      [
        "▁env",
        -11.467643674930395
      ],
      [
        "olul",
        -11.470947505523178
      ],
      [
        "aucun",
        -11.474863741494417
      ],
      [
        "▁góo",
        -11.47701708252112
      ],
      [
        "yer",
        -11.479110448132152
      ],
      [
        "▁yée",
        -11.480573207939203
      ],
      [
        "jeu",
        -11.481021872625018
      ],
      [
        "lig",
        -11.487277285487528
      ],
      [
        "né",
        -11.489170850094903
      ],
      [
        "mee",
        -11.49649268390294
      ],
      [
        "▁ana",
        -11.499182541564453
      ],
      [
        "L",
        -11.504648641325698
      ],
      [
        "ein",
        -11.504667439353538
      ],
      [
        "▁soppa",
        -11.507193689642389
      ],
      [
        "uf",
        -11.511715809541391
      ],
      [
        "sent",
        -11.512301991540804
      ],
      [
        "▁sub",
        -11.515405951983888
      ],
      [
        "ndée",
        -11.516173978637772
      ],
      [
        "▁pres",
        -11.517686340854937
      ],
      [
        "ors",
        -11.520909868755199
      ],
      [
        "▁app",
        -11.52748252178131
      ],
      [
        "ot",
        -11.528293065707961
      ],
      [
        "▁pre",
        -11.528916363551366
      ],
      [
        "tée",
        -11.529926271944596
      ],
      [
        "l.",
        -11.533986678864627
      ],
      [
        "'ici",
        -11.545267841223929
      ],
      [
        "ëñ",
        -11.546474904923244
      ],
      [
        "mande",
        -11.547380392592252
      ],
      [
        "qu'un",
        -11.547457520907612
      ],
      [
        "O",
        -11.548344426576232
      ],
      [
        "su",
        -11.551679109983656
      ],
      [
        "es-",
        -11.562569639019674
      ],
      [
        "▁mënk",
        -11.565573331464387
      ],
      [
        "uis",
        -11.569794729829395
      ],
      [
        "ourri",
        -11.573526212711233
      ],
      [
        "aõ",
        -11.5748034906116
      ],
      [
        "culte",
        -11.58201910401451
      ],
      [
        "lir",
        -11.584182058760092
      ],
      [
        "▁lak",
        -11.585663955528315
      ],
      [
        "▁Ho",
        -11.589511865936258
      ],
      [
        "aka",
        -11.59234093036141
      ],
      [
        "Il",
        -11.60027706535657
      ],
      [
        "op",
        -11.607619750688109
      ],
      [
        "▁d'i",
        -11.611830707209528
      ],
      [
        "▁qu'est",
        -11.615485022229834
      ],
      [
        "▁jée",
        -11.618146897411554
      ],
      [
        "▁éte",
        -11.621310357708955
      ],
      [
        "▁ye",
        -11.623474074101834
      ],
      [
        "▁tii",
        -11.627472585826705
      ],
      [
        "-ce",
        -11.633587109008563
      ],
      [
        "▁on",
        -11.635279033820584
      ],
      [
        "aajoo",
        -11.639809200965619
      ],
      [
        "user",
        -11.65079242274132
      ],
      [
        "ga",
        -11.650945614093414
      ],
      [
        "▁Wu",
        -11.651105744470415
      ],
      [
        "ges",
        -11.657387543369799
      ],
      [
        "n.",
        -11.660188487462703
      ],
      [
        "▁foofi",
        -11.660351530677714
      ],
      [
        "asse",
        -11.660461317797363
      ],
      [
        "tam",
        -11.661199703178918
      ],
      [
        "lecti",
        -11.668562301845434
      ],
      [
        "mul",
        -11.672327099170406
      ],
      [
        "oit",
        -11.6728341561398
      ],
      [
        "ami",
        -11.68063578339726
      ],
      [
        "ager",
        -11.692672920200708
      ],
      [
        "lheureusement",
        -11.696685614141082
      ],
      [
        "nez",
        -11.69890056776136
      ],
      [
        "dit",
        -11.702333551946097
      ],
      [
        "▁reco",
        -11.709196147344166
      ],
      [
        "ten",
        -11.715590039563963
      ],
      [
        "oxoo",
        -11.719707406532086
      ],
      [
        "▁moomi",
        -11.721932806793369
      ],
      [
        "irent",
        -11.731424795464541
      ],
      [
        "▁fet",
        -11.73737898079865
      ],
      [
        "alis",
        -11.739699545607694
      ],
      [
        "ouver",
        -11.741091141024352
      ],
      [
        "ar.",
        -11.756239784795884
      ],
      [
        "oui",
        -11.759151161624885
      ],
      [
        "▁ten",
        -11.760875348147925
      ],
      [
        "▁quan",
        -11.766783734294451
      ],
      [
        "aurai",
        -11.778319766981138
      ],
      [
        "▁chan",
        -11.779003215959563
      ],
      [
        "aide",
        -11.784983481551475
      ],
      [
        "▁cla",
        -11.788759939167669
      ],
      [
        "tés",
        -11.79476867562002
      ],
      [
        "esse",
        -11.795068074463668
      ],
      [
        "l'homme",
        -11.800181189986056
      ],
      [
        "em",
        -11.800222833748306
      ],
      [
        "Tu",
        -11.807025225455511
      ],
      [
        "boo",
        -11.811581394049584
      ],
      [
        "▁ar",
        -11.813480025638942
      ],
      [
        "ive",
        -11.819567857765865
      ],
      [
        "pl",
        -11.82634799184803
      ],
      [
        "gar",
        -11.827154710745656
      ],
      [
        "▁fai",
        -11.828049428371678
      ],
      [
        "erie",
        -11.832795189363534
      ],
      [
        "▁voil",
        -11.833248953647841
      ],
      [
        "rête",
        -11.83336273592515
      ],
      [
        "▁waxe",
        -11.835534757809953
      ],
      [
        "'apprécie",
        -11.836326282408024
      ],
      [
        "lal",
        -11.842725118606944
      ],
      [
        "▁elle",
        -11.844803355555074
      ],
      [
        "okk",
        -11.846680210878406
      ],
      [
        "rge",
        -11.851938206473278
      ],
      [
        "fini",
        -11.861230537675343
      ],
      [
        "ets-t",
        -11.86236163578082
      ],
      [
        "ñc",
        -11.865623556460022
      ],
      [
        "erc",
        -11.866367300915117
      ],
      [
        "róo",
        -11.867338458054608
      ],
      [
        "nar",
        -11.873137651247028
      ],
      [
        "▁ment",
        -11.876438614265236
      ],
      [
        "▁lam",
        -11.876735314324726
      ],
      [
        "tourne",
        -11.886493021386922
      ],
      [
        "rer",
        -11.89021081404902
      ],
      [
        "st",
        -11.899511729608738
      ],
      [
        "t-ce",
        -11.902795640299138
      ],
      [
        "▁bar",
        -11.913892168853675
      ],
      [
        "tali",
        -11.916001908101514
      ],
      [
        "▁Bo",
        -11.916523681671762
      ],
      [
        "aaré",
        -11.922978903397711
      ],
      [
        "▁tend",
        -11.923415034255981
      ],
      [
        "gee",
        -11.924970317863568
      ],
      [
        "aill",
        -11.940840593266078
      ],
      [
        "uwu",
        -11.960946448174552
      ],
      [
        "ayer",
        -11.96551318080601
      ],
      [
        "▁né",
        -11.970450837005766
      ],
      [
        "▁qu'i",
        -11.979846379046208
      ],
      [
        "▁prop",
        -11.980193107523121
      ],
      [
        "mati",
        -11.988855934945885
      ],
      [
        "▁Ke",
        -11.994011690449664
      ],
      [
        "do",
        -11.998893274286141
      ],
      [
        "▁Dema",
        -12.00126291423021
      ],
      [
        "▁an",
        -12.002190474797205
      ],
      [
        "▁entr",
        -12.016147790953514
      ],
      [
        "ûte",
        -12.020573734289437
      ],
      [
        "qué",
        -12.026412280321207
      ],
      [
        "he",
        -12.04492468321251
      ],
      [
        "ya",
        -12.046259327933292
      ],
      [
        "▁Wan",
        -12.058060590426084
      ],
      [
        "uvr",
        -12.058158226874863
      ],
      [
        "▁sat",
        -12.059113804985692
      ],
      [
        "ssent",
        -12.0766633369273
      ],
      [
        "▁naar",
        -12.0873928233316
      ],
      [
        "ouve",
        -12.087691354427442
      ],
      [
        "▁bët",
        -12.097703655154952
      ],
      [
        "ental",
        -12.112643791202068
      ],
      [
        "tin",
        -12.112887951692617
      ],
      [
        "▁bat",
        -12.128809745942533
      ],
      [
        "J'a",
        -12.135530507835547
      ],
      [
        "les-",
        -12.13697473507992
      ],
      [
        "kule",
        -12.14111987384601
      ],
      [
        "yé",
        -12.14542484910876
      ],
      [
        "akk",
        -12.153249200395901
      ],
      [
        "nag",
        -12.164516637194462
      ],
      [
        "daõõ",
        -12.166965568489266
      ],
      [
        "tala",
        -12.167856892881284
      ],
      [
        "aggi",
        -12.175730758453462
      ],
      [
        "awaay",
        -12.179566686132542
      ],
      [
        "entrer",
        -12.180527152506787
      ],
      [
        "amul",
        -12.182826974510473
      ],
      [
        "aõg",
        -12.18374838974818
      ],
      [
        "parti",
        -12.199699541690062
      ],
      [
        "▁in",
        -12.201085386365268
      ],
      [
        "▁d'es",
        -12.2138833003782
      ],
      [
        "may",
        -12.225387512148439
      ],
      [
        "oi-même",
        -12.225935849891513
      ],
      [
        "ll",
        -12.232981085871428
      ],
      [
        "rée",
        -12.239456267755443
      ],
      [
        "▁nie",
        -12.249136774693108
      ],
      [
        "essa",
        -12.27206535156898
      ],
      [
        "joo",
        -12.276237920783025
      ],
      [
        "ttu",
        -12.280283791626704
      ],
      [
        "▁Fat",
        -12.281279858483147
      ],
      [
        "hie",
        -12.292203773012925
      ],
      [
        "▁car",
        -12.309527929854983
      ],
      [
        "Y",
        -12.312057877272325
      ],
      [
        "À",
        -12.312157877272325
      ],
      [
        "Q",
        -12.312257877272325
      ],
      [
        "I",
        -12.312357877272325
      ],
      [
        "Õ",
        -12.312457877272324
      ],
      [
        "T",
        -12.312557877272326
      ],
      [
        "'",
        -12.312657877272326
      ],
      [
        "î",
        -12.312757877272325
      ],
      [
        "P",
        -12.312857877272325
      ],
      [
        "F",
        -12.312957877272325
      ],
      [
        "A",
        -12.313057877272325
      ],
      [
        "B",
        -12.313157877272324
      ],
      [
        "S",
        -12.313257877272324
      ],
      [
        "K",
        -12.313357877272326
      ],
      [
        "X",
        -12.313457877272326
      ],
      [
        "(",
        -12.313557877272325
      ],
      [
        "M",
        -12.313657877272325
      ],
      [
        "Ñ",
        -12.313757877272325
      ],
      [
        "V",
        -12.313857877272325
      ],
      [
        "W",
        -12.313957877272324
      ],
      [
        "▁sar",
        -12.314015902876275
      ],
      [
        "U",
        -12.314057877272324
      ],
      [
        "û",
        -12.314157877272326
      ],
      [
        "D",
        -12.314257877272325
      ],
      [
        "N",
        -12.314357877272325
      ],
      [
        "R",
        -12.314457877272325
      ],
      [
        "E",
        -12.314457877272325
      ]
    ]
  }
}