{
  "version": "1.0",
  "truncation": null,
  "padding": null,
  "added_tokens": [
    {
      "id": 0,
      "content": "<cls>",
      "single_word": false,
      "lstrip": false,
      "rstrip": false,
      "normalized": false,
      "special": true
    },
    {
      "id": 1,
      "content": "<sep>",
      "single_word": false,
      "lstrip": false,
      "rstrip": false,
      "normalized": false,
      "special": true
    },
    {
      "id": 2,
      "content": "<unk>",
      "single_word": false,
      "lstrip": false,
      "rstrip": false,
      "normalized": false,
      "special": true
    },
    {
      "id": 3,
      "content": "<pad>",
      "single_word": false,
      "lstrip": false,
      "rstrip": false,
      "normalized": false,
      "special": true
    },
    {
      "id": 4,
      "content": "<mask>",
      "single_word": false,
      "lstrip": false,
      "rstrip": false,
      "normalized": false,
      "special": true
    },
    {
      "id": 5,
      "content": "<s>",
      "single_word": false,
      "lstrip": false,
      "rstrip": false,
      "normalized": false,
      "special": true
    },
    {
      "id": 6,
      "content": "</s>",
      "single_word": false,
      "lstrip": false,
      "rstrip": false,
      "normalized": false,
      "special": true
    }
  ],
  "normalizer": {
    "type": "Replace",
    "pattern": {
      "String": " {2,}"
    },
    "content": " "
  },
  "pre_tokenizer": {
    "type": "Metaspace",
    "replacement": "▁",
    "add_prefix_space": true
  },
  "post_processor": null,
  "decoder": {
    "type": "Metaspace",
    "replacement": "▁",
    "add_prefix_space": true
  },
  "model": {
    "type": "Unigram",
    "unk_id": 2,
    "vocab": [
      [
        "<cls>",
        0.0
      ],
      [
        "<sep>",
        0.0
      ],
      [
        "<unk>",
        0.0
      ],
      [
        "<pad>",
        0.0
      ],
      [
        "<mask>",
        0.0
      ],
      [
        "<s>",
        0.0
      ],
      [
        "</s>",
        0.0
      ],
      [
        ",",
        -2.988734810794158
      ],
      [
        ".",
        -3.259467290465807
      ],
      [
        "s",
        -4.012996307589388
      ],
      [
        "▁de",
        -4.101597053402445
      ],
      [
        "▁",
        -4.125524873833591
      ],
      [
        "▁la",
        -4.177760783589716
      ],
      [
        "▁ci",
        -4.542582556366748
      ],
      [
        "y",
        -4.610422669082178
      ],
      [
        "▁a",
        -4.699630944964312
      ],
      [
        "e",
        -4.722792509244521
      ],
      [
        "▁!",
        -4.763061725524509
      ],
      [
        "▁?",
        -4.871669338612164
      ],
      [
        "i",
        -4.983277157847001
      ],
      [
        "▁et",
        -5.039931378644111
      ],
      [
        "▁à",
        -5.102733213301576
      ],
      [
        "▁les",
        -5.1227764849203945
      ],
      [
        "▁des",
        -5.150551059214298
      ],
      [
        "▁un",
        -5.20593482632134
      ],
      [
        "▁qui",
        -5.230592315303426
      ],
      [
        "u",
        -5.230783906311544
      ],
      [
        "▁le",
        -5.245385205274929
      ],
      [
        "▁mu",
        -5.301024698682522
      ],
      [
        "▁ni",
        -5.313467257408625
      ],
      [
        "▁na",
        -5.336930354892782
      ],
      [
        "r",
        -5.351553877591924
      ],
      [
        "▁ne",
        -5.388490970756122
      ],
      [
        "▁ma",
        -5.392128292438292
      ],
      [
        "▁que",
        -5.40264054655927
      ],
      [
        "▁bi",
        -5.444653484091478
      ],
      [
        "▁di",
        -5.456755920184354
      ],
      [
        "▁ko",
        -5.468009399865894
      ],
      [
        "▁du",
        -5.470353341186001
      ],
      [
        "▁ba",
        -5.47740460091508
      ],
      [
        "▁ak",
        -5.530213429877735
      ],
      [
        "▁pas",
        -5.637722652760025
      ],
      [
        "▁est",
        -5.656608575635776
      ],
      [
        "▁ñu",
        -5.675208597716336
      ],
      [
        "a",
        -5.693021641070632
      ],
      [
        "▁yu",
        -5.694760004855284
      ],
      [
        "▁gi",
        -5.705648958751857
      ],
      [
        "▁en",
        -5.721490770886805
      ],
      [
        "▁yi",
        -5.736012478060132
      ],
      [
        "▁bu",
        -5.744529912997686
      ],
      [
        "▁il",
        -5.764212025903494
      ],
      [
        "▁dem",
        -5.765333665497961
      ],
      [
        "t",
        -5.777751537262258
      ],
      [
        "▁dans",
        -5.7850168626428955
      ],
      [
        "▁Il",
        -5.8045764647797045
      ],
      [
        "▁ay",
        -5.813416765339799
      ],
      [
        "▁naa",
        -5.976502832572472
      ],
      [
        "▁ngi",
        -6.014426757914128
      ],
      [
        "▁ce",
        -6.043981926188635
      ],
      [
        "▁am",
        -6.060741741384751
      ],
      [
        "▁C'est",
        -6.070519525204674
      ],
      [
        "▁fa",
        -6.0718584210480575
      ],
      [
        "▁seen",
        -6.0831540111644005
      ],
      [
        "▁te",
        -6.092077530761809
      ],
      [
        "▁lu",
        -6.098143239645218
      ],
      [
        "▁pour",
        -6.102466951687091
      ],
      [
        "une",
        -6.131187669457067
      ],
      [
        "n",
        -6.138809140910192
      ],
      [
        "▁woon",
        -6.167119451868667
      ],
      [
        "oon",
        -6.242311536300648
      ],
      [
        "▁ca",
        -6.245288282034443
      ],
      [
        "▁sama",
        -6.245661244647002
      ],
      [
        "▁y",
        -6.247536439489892
      ],
      [
        "▁se",
        -6.26035996385627
      ],
      [
        "▁au",
        -6.265047820771475
      ],
      [
        "▁sur",
        -6.296094924436349
      ],
      [
        "▁vu",
        -6.304713518701821
      ],
      [
        "▁qu'il",
        -6.309550451976891
      ],
      [
        "▁je",
        -6.322718727895441
      ],
      [
        "▁sont",
        -6.33816056978112
      ],
      [
        ":",
        -6.34026243017338
      ],
      [
        "▁sa",
        -6.352484805626482
      ],
      [
        "▁daan",
        -6.355587784464933
      ],
      [
        "▁avec",
        -6.377989050531734
      ],
      [
        "▁gis",
        -6.397152784703436
      ],
      [
        "ent",
        -6.40625502301944
      ],
      [
        "▁doon",
        -6.409558440855972
      ],
      [
        "▁Je",
        -6.415272172579742
      ],
      [
        "al",
        -6.41541446704565
      ],
      [
        "▁nag",
        -6.433518052894775
      ],
      [
        "▁ŋga",
        -6.445832009847953
      ],
      [
        "▁xam",
        -6.45055311473279
      ],
      [
        "▁mi",
        -6.451360590800208
      ],
      [
        "▁leen",
        -6.460198888577582
      ],
      [
        "▁par",
        -6.467139344225603
      ],
      [
        "▁mon",
        -6.523440941216414
      ],
      [
        "▁père",
        -6.53072020009065
      ],
      [
        "é",
        -6.548344451277007
      ],
      [
        "▁l'",
        -6.562985623523514
      ],
      [
        "▁Góo",
        -6.573964883150526
      ],
      [
        "▁tu",
        -6.588241034100107
      ],
      [
        "▁nit",
        -6.5974153894909
      ],
      [
        "▁nekk",
        -6.601708023956376
      ],
      [
        "▁wax",
        -6.602694941294686
      ],
      [
        "nt",
        -6.610687679952141
      ],
      [
        "▁Baay",
        -6.6166949939920725
      ],
      [
        "▁si",
        -6.61770183962924
      ],
      [
        "▁nga",
        -6.632595754686537
      ],
      [
        "▁mel",
        -6.634625836984171
      ],
      [
        "ul",
        -6.6365974954763445
      ],
      [
        "▁benn",
        -6.6377703588789085
      ],
      [
        "l",
        -6.643977292212158
      ],
      [
        "▁Gis",
        -6.6617714050136545
      ],
      [
        "am",
        -6.663975005970242
      ],
      [
        "▁été",
        -6.6670096785398405
      ],
      [
        "▁ya",
        -6.6731860679869754
      ],
      [
        "er",
        -6.682102419360008
      ],
      [
        "▁sax",
        -6.695823355338885
      ],
      [
        "▁où",
        -6.713055654769093
      ],
      [
        "▁Afrig",
        -6.714923419137674
      ],
      [
        "▁moom",
        -6.720798154904458
      ],
      [
        "▁moo",
        -6.721325036365381
      ],
      [
        "▁c",
        -6.721688808429918
      ],
      [
        "le",
        -6.722501308589235
      ],
      [
        "▁homme",
        -6.731595083069932
      ],
      [
        "▁son",
        -6.743165468590272
      ],
      [
        "▁nu",
        -6.772960494063247
      ],
      [
        "ait",
        -6.774122904726722
      ],
      [
        "▁Tu",
        -6.790985962798996
      ],
      [
        "k",
        -6.809275178049874
      ],
      [
        "▁lui",
        -6.812002251080306
      ],
      [
        "▁def",
        -6.8164915625599996
      ],
      [
        "▁plus",
        -6.826033068964318
      ],
      [
        "▁li",
        -6.84006003245384
      ],
      [
        "▁biir",
        -6.845700401635804
      ],
      [
        "▁L'homme",
        -6.849337771760048
      ],
      [
        "▁J'ai",
        -6.858119295422889
      ],
      [
        "te",
        -6.869864168228082
      ],
      [
        "ee",
        -6.873245141771304
      ],
      [
        "▁photo",
        -6.8836649253435445
      ],
      [
        "▁ku",
        -6.884067278948758
      ],
      [
        "▁su",
        -6.889110841674765
      ],
      [
        "«",
        -6.893987748633506
      ],
      [
        "▁»",
        -6.894028080421729
      ],
      [
        "▁ñëw",
        -6.900817249095838
      ],
      [
        "▁La",
        -6.904430300570052
      ],
      [
        "▁c'est",
        -6.91317521565624
      ],
      [
        "▁tout",
        -6.931106776852291
      ],
      [
        "ant",
        -6.949883024457187
      ],
      [
        "▁d'un",
        -6.951606613446798
      ],
      [
        "▁d'",
        -6.95587633728662
      ],
      [
        "▁avait",
        -6.963029536993379
      ],
      [
        "▁Le",
        -6.973578218035415
      ],
      [
        "-",
        -6.9868794839112045
      ],
      [
        "▁ab",
        -6.987218446710407
      ],
      [
        "▁kenn",
        -6.989829230432339
      ],
      [
        "▁cet",
        -6.99946456262601
      ],
      [
        "▁nous",
        -7.000016886606801
      ],
      [
        "▁mën",
        -7.001311207588806
      ],
      [
        "▁Ci",
        -7.002431672601544
      ],
      [
        "▁gu",
        -7.003931373210447
      ],
      [
        "▁góor",
        -7.010103625685859
      ],
      [
        "▁Les",
        -7.012122561777541
      ],
      [
        "▁ou",
        -7.022088589734889
      ],
      [
        "▁nataal",
        -7.041317128566283
      ],
      [
        "▁leur",
        -7.060010423537509
      ],
      [
        "b",
        -7.066377765226307
      ],
      [
        "▁fi",
        -7.068771999516564
      ],
      [
        "▁bii",
        -7.071122518362878
      ],
      [
        "oo",
        -7.072895512505654
      ],
      [
        "d",
        -7.077894314263649
      ],
      [
        "es",
        -7.084812954353714
      ],
      [
        "ñ",
        -7.0848442570379335
      ],
      [
        "▁autre",
        -7.088180979469563
      ],
      [
        "▁enfants",
        -7.088280800422909
      ],
      [
        "▁l'homme",
        -7.095671946761535
      ],
      [
        "▁may",
        -7.098824201717061
      ],
      [
        "ment",
        -7.101611984594632
      ],
      [
        "▁ñi",
        -7.124147357456329
      ],
      [
        "▁ces",
        -7.132450182946561
      ],
      [
        "▁dal",
        -7.136691375347265
      ],
      [
        "g",
        -7.1420260599940395
      ],
      [
        "ette",
        -7.146283283841264
      ],
      [
        "▁aussi",
        -7.153189556566817
      ],
      [
        "m",
        -7.156553070486302
      ],
      [
        "▁on",
        -7.163014548371946
      ],
      [
        "▁bëgg",
        -7.163319885454891
      ],
      [
        "▁it",
        -7.170104019144287
      ],
      [
        "▁comme",
        -7.1760476105860524
      ],
      [
        "▁rekk",
        -7.177293981647309
      ],
      [
        "▁s",
        -7.181513603585076
      ],
      [
        "▁san",
        -7.183437533088746
      ],
      [
        "▁ju",
        -7.206900079060081
      ],
      [
        "que",
        -7.210884540811192
      ],
      [
        "▁mère",
        -7.214815426911841
      ],
      [
        "▁lool",
        -7.221555566941218
      ],
      [
        "▁me",
        -7.2278201288309125
      ],
      [
        "▁Nit",
        -7.228082124906426
      ],
      [
        "▁Sur",
        -7.230803444781793
      ],
      [
        "▁dëkk",
        -7.231593105364353
      ],
      [
        "▁ji",
        -7.242332709830744
      ],
      [
        "▁teg",
        -7.260363530651489
      ],
      [
        "▁fu",
        -7.261720329689934
      ],
      [
        "▁A",
        -7.266265142662146
      ],
      [
        "▁là",
        -7.267338551258167
      ],
      [
        "▁ñaar",
        -7.267679861803109
      ],
      [
        "▁daf",
        -7.268118585591562
      ],
      [
        "▁parti",
        -7.273951359703289
      ],
      [
        "▁dara",
        -7.278203369504837
      ],
      [
        "▁moi",
        -7.292632775247671
      ],
      [
        "▁kër",
        -7.294901520409245
      ],
      [
        "▁laa",
        -7.299577211208219
      ],
      [
        "x",
        -7.305789095673489
      ],
      [
        "▁maison",
        -7.307027192427521
      ],
      [
        "▁même",
        -7.313022561196434
      ],
      [
        "▁Am",
        -7.3180379358735
      ],
      [
        "à",
        -7.323108890270106
      ],
      [
        "▁boo",
        -7.326609656946846
      ],
      [
        "▁ki",
        -7.329159450833552
      ],
      [
        "▁gën",
        -7.337988300763588
      ],
      [
        "▁Ce",
        -7.342147870483492
      ],
      [
        "▁pays",
        -7.344840128704877
      ],
      [
        "▁xale",
        -7.3487925166897075
      ],
      [
        "▁jigéen",
        -7.3570492013966335
      ],
      [
        "di",
        -7.362348108966859
      ],
      [
        "▁–",
        -7.363073150123207
      ],
      [
        "▁Nataal",
        -7.363075724279535
      ],
      [
        "▁mbaa",
        -7.372370732651514
      ],
      [
        "▁ñoo",
        -7.375537461636928
      ],
      [
        "▁ndax",
        -7.379330415151834
      ],
      [
        "▁Su",
        -7.3882013648555835
      ],
      [
        "▁était",
        -7.4092968415451494
      ],
      [
        "▁n'es",
        -7.410903256628024
      ],
      [
        "▁À",
        -7.4321747913835035
      ],
      [
        "▁war",
        -7.434506690005249
      ],
      [
        "▁chose",
        -7.46826032676526
      ],
      [
        "▁lépp",
        -7.471171255060022
      ],
      [
        "▁d",
        -7.476156868371253
      ],
      [
        "s-tu",
        -7.484490010573026
      ],
      [
        "▁walla",
        -7.48731426380454
      ],
      [
        "▁Un",
        -7.488114202004781
      ],
      [
        "▁Mu",
        -7.490279476313174
      ],
      [
        "▁vois",
        -7.490901941230167
      ],
      [
        "▁weex",
        -7.503894736939531
      ],
      [
        "▁qu'on",
        -7.504579065320906
      ],
      [
        "eneen",
        -7.505125779893637
      ],
      [
        "▁D",
        -7.512279175817622
      ],
      [
        "▁man",
        -7.513319839809849
      ],
      [
        "▁Ma",
        -7.51861239092432
      ],
      [
        "▁baax",
        -7.520384821178914
      ],
      [
        "▁j'ai",
        -7.520917764871567
      ],
      [
        "▁De",
        -7.525421541765092
      ],
      [
        "▁n",
        -7.5360881167582106
      ],
      [
        "▁Li",
        -7.538105469860333
      ],
      [
        "▁l'intérieur",
        -7.538143604745178
      ],
      [
        "▁loolu",
        -7.546044992549394
      ],
      [
        "ŋ",
        -7.554801231294931
      ],
      [
        "▁bien",
        -7.565136420845468
      ],
      [
        "▁ŋgi",
        -7.5662073659197695
      ],
      [
        "▁xar",
        -7.573076620715433
      ],
      [
        "▁mag",
        -7.573099291751426
      ],
      [
        "▁Waaye",
        -7.573552691839326
      ],
      [
        "▁dañ",
        -7.574060067048218
      ],
      [
        "▁fait",
        -7.576648569779396
      ],
      [
        "▁parle",
        -7.584253693384713
      ],
      [
        "▁Te",
        -7.59227212465085
      ],
      [
        "▁yaay",
        -7.598336187994548
      ],
      [
        "re",
        -7.600530752257452
      ],
      [
        "▁En",
        -7.605352029682178
      ],
      [
        "▁aux",
        -7.6091355674388375
      ],
      [
        "▁très",
        -7.610223141461114
      ],
      [
        "▁réew",
        -7.61182448148681
      ],
      [
        "▁ñoom",
        -7.611835185257094
      ],
      [
        "▁garab",
        -7.613336748448833
      ],
      [
        "▁yoon",
        -7.614710597296874
      ],
      [
        "▁koo",
        -7.628040383725096
      ],
      [
        "▁yooyu",
        -7.629400149726257
      ],
      [
        "s.",
        -7.635267952303395
      ],
      [
        ")",
        -7.640283200211584
      ],
      [
        "ée",
        -7.640793085040691
      ],
      [
        "▁néeg",
        -7.6418446997346585
      ],
      [
        "▁cela",
        -7.648925702631087
      ],
      [
        "leurs",
        -7.651616681686592
      ],
      [
        "▁deux",
        -7.655680546215265
      ],
      [
        "▁J",
        -7.664038118330339
      ],
      [
        "▁dul",
        -7.664955075865011
      ],
      [
        "▁couleur",
        -7.664962662100556
      ],
      [
        "▁monde",
        -7.668534805732531
      ],
      [
        "▁mais",
        -7.672452155591888
      ],
      [
        "'est",
        -7.677709866659828
      ],
      [
        "▁demee",
        -7.677778123751485
      ],
      [
        "▁vie",
        -7.684431342053502
      ],
      [
        "▁ont",
        -7.6865735192028914
      ],
      [
        "▁Waaw",
        -7.686644590186045
      ],
      [
        ";",
        -7.68792609945715
      ],
      [
        "▁vous",
        -7.687940191073401
      ],
      [
        "▁Mais",
        -7.6886005914527935
      ],
      [
        "▁guerre",
        -7.689109271001362
      ],
      [
        "▁sunu",
        -7.689201946303695
      ],
      [
        "▁Maa",
        -7.692451824201486
      ],
      [
        "▁ag",
        -7.69638119036115
      ],
      [
        "▁lañu",
        -7.69809407612956
      ],
      [
        "▁l",
        -7.700520826850271
      ],
      [
        "▁P",
        -7.7030713039363725
      ],
      [
        "▁yépp",
        -7.709681602644049
      ],
      [
        "it",
        -7.711753981205367
      ],
      [
        "▁yiy",
        -7.718419055490085
      ],
      [
        "▁bés",
        -7.721920830873289
      ],
      [
        "▁porte",
        -7.723447313052736
      ],
      [
        "▁ka",
        -7.725687088235951
      ],
      [
        "▁sol",
        -7.728007331201956
      ],
      [
        "▁temps",
        -7.729113250257912
      ],
      [
        "▁suuf",
        -7.729245175746874
      ],
      [
        "▁yi.",
        -7.731346361537162
      ],
      [
        "▁G",
        -7.73419078496025
      ],
      [
        "▁jusqu'",
        -7.736374071909789
      ],
      [
        "▁part",
        -7.739811848412334
      ],
      [
        "▁gone",
        -7.742875182886258
      ],
      [
        "aient",
        -7.74906852273851
      ],
      [
        "▁toog",
        -7.749760856050006
      ],
      [
        "▁Ogosaa",
        -7.750444192823864
      ],
      [
        "▁tamit",
        -7.750497018684342
      ],
      [
        "▁celui-là",
        -7.750560030986952
      ],
      [
        "▁maa",
        -7.762875441534621
      ],
      [
        "▁tax",
        -7.767076284413428
      ],
      [
        "▁lii",
        -7.767490416467003
      ],
      [
        "▁dit",
        -7.767746343751244
      ],
      [
        "▁venu",
        -7.773672722586634
      ],
      [
        "▁femme",
        -7.776161692948173
      ],
      [
        "w",
        -7.77683690890471
      ],
      [
        "▁va",
        -7.778993487501144
      ],
      [
        "▁at",
        -7.7810611397916425
      ],
      [
        "▁la.",
        -7.787963674239794
      ],
      [
        "▁Ñu",
        -7.788428649324169
      ],
      [
        "▁xel",
        -7.792827390313152
      ],
      [
        "▁fekk",
        -7.794386668350192
      ],
      [
        "▁Du",
        -7.7945080617984726
      ],
      [
        "▁ndaw",
        -7.794523047051828
      ],
      [
        "▁Cet",
        -7.795853157736849
      ],
      [
        "...",
        -7.798259094467632
      ],
      [
        "▁L",
        -7.801360772729935
      ],
      [
        "▁partir",
        -7.802332194537934
      ],
      [
        "▁bopp",
        -7.807711178156689
      ],
      [
        "▁n'a",
        -7.809900953726929
      ],
      [
        "▁soo",
        -7.81319925311112
      ],
      [
        "▁k",
        -7.81585875700495
      ],
      [
        "▁quelque",
        -7.817457293036959
      ],
      [
        "▁yaram",
        -7.817846733512858
      ],
      [
        "▁noppi",
        -7.818354996111317
      ],
      [
        "▁ga",
        -7.825534475689239
      ],
      [
        "▁waay",
        -7.826829641005217
      ],
      [
        "is",
        -7.8291937341415325
      ],
      [
        "▁ànd",
        -7.836493863779885
      ],
      [
        "▁Tugal",
        -7.840510425803256
      ],
      [
        "▁cha",
        -7.842359129195474
      ],
      [
        "tte",
        -7.842906240887256
      ],
      [
        "▁Dem",
        -7.846250830310816
      ],
      [
        "▁tey",
        -7.850024352664089
      ],
      [
        "▁jëm",
        -7.851736292617115
      ],
      [
        "▁O",
        -7.851910531008348
      ],
      [
        "▁tou",
        -7.852477444844951
      ],
      [
        "▁as",
        -7.85945976205115
      ],
      [
        "e,",
        -7.859905341698799
      ],
      [
        "▁doŋŋ",
        -7.864227698908641
      ],
      [
        "▁gens",
        -7.864739368584275
      ],
      [
        "▁mouton",
        -7.865723326971127
      ],
      [
        "o",
        -7.867640870523152
      ],
      [
        "▁j'",
        -7.869761519477761
      ],
      [
        "▁ñuul",
        -7.872446744738493
      ],
      [
        "▁àll",
        -7.873183621202714
      ],
      [
        "woon",
        -7.877863278036709
      ],
      [
        "▁naan",
        -7.886269656743329
      ],
      [
        "▁doole",
        -7.8889022555213355
      ],
      [
        "▁wër",
        -7.889692207857427
      ],
      [
        "▁être",
        -7.898476733310507
      ],
      [
        "eek",
        -7.900149233167955
      ],
      [
        "▁yëg",
        -7.904951833637817
      ],
      [
        "▁toi",
        -7.9103635879055965
      ],
      [
        "▁nañ",
        -7.912299573293515
      ],
      [
        "▁ñax",
        -7.913541802323525
      ],
      [
        "▁encore",
        -7.913613227173947
      ],
      [
        "▁boobu",
        -7.913818804653659
      ],
      [
        "▁faire",
        -7.914227739027147
      ],
      [
        "▁wi",
        -7.916028105296745
      ],
      [
        "▁(",
        -7.917692718235755
      ],
      [
        "▁réer",
        -7.91878475920999
      ],
      [
        "▁amul",
        -7.921114394693168
      ],
      [
        "▁saa",
        -7.921296566802328
      ],
      [
        "tu",
        -7.926016017031965
      ],
      [
        "▁n'",
        -7.926436121072398
      ],
      [
        "▁kow",
        -7.927623157336088
      ],
      [
        "um",
        -7.931019017215165
      ],
      [
        "▁rafet",
        -7.935898799302899
      ],
      [
        "▁demul",
        -7.936401553685952
      ],
      [
        "▁voilà",
        -7.939245846327443
      ],
      [
        "▁veux",
        -7.939659490778816
      ],
      [
        "▁m",
        -7.944249255056237
      ],
      [
        "▁Moo",
        -7.945095276726385
      ],
      [
        "yeek",
        -7.945101740378686
      ],
      [
        "▁Si",
        -7.946221714316328
      ],
      [
        "▁S",
        -7.953558270740318
      ],
      [
        "és",
        -7.956879774781413
      ],
      [
        "▁peu",
        -7.958852149533675
      ],
      [
        "tre",
        -7.964422353992489
      ],
      [
        "▁jamono",
        -7.965545237250193
      ],
      [
        "▁qu'elle",
        -7.965696708714825
      ],
      [
        "▁dont",
        -7.966611260009866
      ],
      [
        "▁daal",
        -7.968139646858759
      ],
      [
        "▁nañu",
        -7.9742602536003755
      ],
      [
        "▁t",
        -7.978569980930327
      ],
      [
        "▁Quel",
        -7.9829649643467775
      ],
      [
        "▁p",
        -7.989564014883175
      ],
      [
        "▁ñépp",
        -7.992737867932815
      ],
      [
        "▁Nou",
        -7.993953026216243
      ],
      [
        "vait",
        -7.994276512232797
      ],
      [
        "▁semble",
        -8.001332910809822
      ],
      [
        "▁dañu",
        -8.00216377382958
      ],
      [
        "▁liggéey",
        -8.015656273143609
      ],
      [
        "ù",
        -8.018029137011265
      ],
      [
        "▁xare",
        -8.019889002696633
      ],
      [
        "▁l'autre",
        -8.020363424359823
      ],
      [
        "▁Ndax",
        -8.020887057861588
      ],
      [
        "▁Mon",
        -8.021013442188623
      ],
      [
        "▁Comme",
        -8.021135783749441
      ],
      [
        "kat",
        -8.023380204105013
      ],
      [
        "▁itam",
        -8.024853631802339
      ],
      [
        "▁l'a",
        -8.037613324549328
      ],
      [
        "▁ban",
        -8.041543004064529
      ],
      [
        "▁àddina",
        -8.0441297004848
      ],
      [
        "▁taxaw",
        -8.046287445396603
      ],
      [
        "▁bët",
        -8.04820559399483
      ],
      [
        "▁génn",
        -8.04920725863613
      ],
      [
        "▁lañ",
        -8.051964412548152
      ],
      [
        "▁rien",
        -8.052272048129087
      ],
      [
        "ions",
        -8.06136525650068
      ],
      [
        "▁loxo",
        -8.06174716256193
      ],
      [
        "▁m'a",
        -8.062859513255683
      ],
      [
        "▁dex",
        -8.067670763008755
      ],
      [
        "▁sui",
        -8.069586598180418
      ],
      [
        "ante",
        -8.071062510793496
      ],
      [
        "▁femmes",
        -8.073340703999275
      ],
      [
        "ses",
        -8.073662794942313
      ],
      [
        "▁Ba",
        -8.076641704692172
      ],
      [
        "eux",
        -8.076827906234522
      ],
      [
        "▁xonq",
        -8.07833729427522
      ],
      [
        "ak",
        -8.07860551108223
      ],
      [
        "▁corps",
        -8.078633061877277
      ],
      [
        "épp",
        -8.079800420796182
      ],
      [
        "▁ŋgeen",
        -8.080029643635903
      ],
      [
        "▁Xam",
        -8.080480316901124
      ],
      [
        "▁mes",
        -8.08271674142252
      ],
      [
        "▁peut",
        -8.086166901899905
      ],
      [
        "▁waa",
        -8.09467910168968
      ],
      [
        "▁jóge",
        -8.098110642415723
      ],
      [
        "▁jot",
        -8.09858879272086
      ],
      [
        "▁xarit",
        -8.10441437650657
      ],
      [
        "▁jamais",
        -8.108649125336154
      ],
      [
        "▁doute",
        -8.10874743848218
      ],
      [
        "quelle",
        -8.111908920056726
      ],
      [
        "▁sous",
        -8.111998280469223
      ],
      [
        "on",
        -8.11568271540451
      ],
      [
        "▁yaa",
        -8.115706201983215
      ],
      [
        "▁personne",
        -8.121235501290517
      ],
      [
        "▁elle",
        -8.121466576322266
      ],
      [
        "▁neex",
        -8.123359105208804
      ],
      [
        "▁dugg",
        -8.132458476168997
      ],
      [
        "'",
        -8.136895172363317
      ],
      [
        "▁ja",
        -8.140489870501739
      ],
      [
        "▁noonu",
        -8.14176146499041
      ],
      [
        "ation",
        -8.144906918509964
      ],
      [
        "▁dégg",
        -8.145655072044992
      ],
      [
        "▁jour",
        -8.14912481146393
      ],
      [
        "▁nii",
        -8.158248783855784
      ],
      [
        "▁mbir",
        -8.16767105779267
      ],
      [
        "▁sorte",
        -8.170706469297425
      ],
      [
        "▁kaw",
        -8.170941297251577
      ],
      [
        "▁léeg-léeg",
        -8.172144306868539
      ],
      [
        "▁Kamerun",
        -8.172144307084888
      ],
      [
        "▁là-bas",
        -8.172144307846771
      ],
      [
        "▁Tubaab",
        -8.17334376777718
      ],
      [
        "▁terre",
        -8.174280911900546
      ],
      [
        "▁bari",
        -8.1747038866382
      ],
      [
        "▁Lu",
        -8.180620894719556
      ],
      [
        "▁wu",
        -8.184944205813242
      ],
      [
        "▁B",
        -8.186025514813934
      ],
      [
        "ma",
        -8.192523178593945
      ],
      [
        "▁N",
        -8.19547272573748
      ],
      [
        "▁jël",
        -8.196177252125684
      ],
      [
        "▁ginnaaw",
        -8.201381784128506
      ],
      [
        "uñu",
        -8.202849652896866
      ],
      [
        "▁loin",
        -8.205475904182865
      ],
      [
        "▁foofu",
        -8.205619442681524
      ],
      [
        "▁fois",
        -8.206493189347892
      ],
      [
        "ale",
        -8.209063840765737
      ],
      [
        "▁d'autres",
        -8.209402203893292
      ],
      [
        "▁f",
        -8.210247039182118
      ],
      [
        "▁Bu",
        -8.214467456845552
      ],
      [
        "▁Lii",
        -8.219373550202473
      ],
      [
        "▁bare",
        -8.219953705486784
      ],
      [
        "▁nee",
        -8.223982141852952
      ],
      [
        "▁C",
        -8.227349364109312
      ],
      [
        "▁quan",
        -8.229192635911392
      ],
      [
        "▁daa",
        -8.22988436670314
      ],
      [
        "▁re",
        -8.231292830615308
      ],
      [
        "▁Xar",
        -8.23382404921947
      ],
      [
        "▁fii",
        -8.236558348751782
      ],
      [
        "▁Fa",
        -8.237216631909131
      ],
      [
        "▁ai",
        -8.237555368609046
      ],
      [
        "▁da",
        -8.237692581018702
      ],
      [
        "▁yeneen",
        -8.23869367164553
      ],
      [
        "▁bois",
        -8.240098542293746
      ],
      [
        "▁waaw",
        -8.241562843284735
      ],
      [
        "▁Et",
        -8.242562753696479
      ],
      [
        "▁jaar",
        -8.244717073356902
      ],
      [
        "▁Ku",
        -8.245385671504
      ],
      [
        "▁étai",
        -8.26051098734525
      ],
      [
        "▁dox",
        -8.266598510451972
      ],
      [
        "▁'",
        -8.271379996868916
      ],
      [
        "▁peut-être",
        -8.276313536475866
      ],
      [
        "▁c'était",
        -8.276744790112204
      ],
      [
        "▁daw",
        -8.278070050524034
      ],
      [
        "▁Daf",
        -8.278284364365081
      ],
      [
        "▁boppam",
        -8.278539539065134
      ],
      [
        "▁crois",
        -8.278883158864293
      ],
      [
        "▁non",
        -8.279723862206666
      ],
      [
        "▁entre",
        -8.279755155271616
      ],
      [
        "▁arbres",
        -8.28348296310548
      ],
      [
        "f",
        -8.285054108163598
      ],
      [
        "en",
        -8.287543640315958
      ],
      [
        "▁voir",
        -8.288090270004227
      ],
      [
        "▁route",
        -8.29472776963118
      ],
      [
        "pendant",
        -8.295723793049168
      ],
      [
        "▁dee",
        -8.295748455978115
      ],
      [
        "▁l'Afrique",
        -8.312711721571736
      ],
      [
        "▁veut",
        -8.312732050496397
      ],
      [
        "▁Loolu",
        -8.312910694223568
      ],
      [
        "▁ňu",
        -8.313355581376205
      ],
      [
        "▁années",
        -8.314271108602757
      ],
      [
        "▁xaw",
        -8.315607368820938
      ],
      [
        "▁Sée",
        -8.316674429958049
      ],
      [
        "▁Tout",
        -8.318270818390712
      ],
      [
        "▁in",
        -8.319257363884269
      ],
      [
        "c",
        -8.31974268554728
      ],
      [
        "▁devant",
        -8.320171197811217
      ],
      [
        "e.",
        -8.32086186965623
      ],
      [
        "▁mer",
        -8.325167319852907
      ],
      [
        "▁chambre",
        -8.32910197638769
      ],
      [
        "▁dund",
        -8.331729128005499
      ],
      [
        "▁yoo",
        -8.336849841236596
      ],
      [
        "▁gii",
        -8.341342095894444
      ],
      [
        "▁Mi",
        -8.343800656250767
      ],
      [
        "▁travers",
        -8.344715553614051
      ],
      [
        "▁Qui",
        -8.351173260033278
      ],
      [
        "▁Ogoja",
        -8.351173260051384
      ],
      [
        "▁Afrique",
        -8.351173264492452
      ],
      [
        "▁forêt",
        -8.351174172510845
      ],
      [
        "▁dëgg",
        -8.351402673066726
      ],
      [
        "▁après",
        -8.351596416792326
      ],
      [
        "▁Oui",
        -8.35379617373045
      ],
      [
        "▁avant",
        -8.355395803736746
      ],
      [
        "▁Ni",
        -8.355986572610208
      ],
      [
        "▁bañ",
        -8.363579037529128
      ],
      [
        "▁ans",
        -8.363736998407356
      ],
      [
        "ce",
        -8.366792256884269
      ],
      [
        "▁rouge",
        -8.369604494682639
      ],
      [
        "▁wet",
        -8.37465151332642
      ],
      [
        "▁nuit",
        -8.375446514474653
      ],
      [
        "▁Bi",
        -8.37619867355811
      ],
      [
        "▁haut",
        -8.378118830786947
      ],
      [
        "▁solo",
        -8.384008393036117
      ],
      [
        "▁lal",
        -8.385926952439998
      ],
      [
        "▁moutons",
        -8.388595394269219
      ],
      [
        "▁Man",
        -8.389879075407906
      ],
      [
        "▁kooku",
        -8.390315113768278
      ],
      [
        "▁celui",
        -8.390830389945602
      ],
      [
        "▁topp",
        -8.3911654370263
      ],
      [
        "▁daanaka",
        -8.391458844498612
      ],
      [
        "▁contre",
        -8.391469588792269
      ],
      [
        "▁jooju",
        -8.39178263608202
      ],
      [
        "▁Ceci",
        -8.391870898927223
      ],
      [
        "▁vers",
        -8.391939772088472
      ],
      [
        "▁Ca",
        -8.394250207329714
      ],
      [
        "▁On",
        -8.39527620713364
      ],
      [
        "ont",
        -8.395585348100466
      ],
      [
        "▁bunt",
        -8.40238723477155
      ],
      [
        "ées",
        -8.402712979683134
      ],
      [
        "▁amis",
        -8.407278262499002
      ],
      [
        "▁mas",
        -8.408825765667801
      ],
      [
        "▁blanche",
        -8.411581391753613
      ],
      [
        "et",
        -8.414826049891904
      ],
      [
        "▁case",
        -8.4158486130503
      ],
      [
        "▁médecin",
        -8.420337411871706
      ],
      [
        "▁tànk",
        -8.420520553471615
      ],
      [
        "▁F",
        -8.420947043593921
      ],
      [
        "▁Soo",
        -8.422578519762244
      ],
      [
        "▁g",
        -8.422834183070112
      ],
      [
        "▁eux",
        -8.427094722161183
      ],
      [
        "eurs",
        -8.428530279407024
      ],
      [
        "-là",
        -8.42860046986818
      ],
      [
        "▁France",
        -8.432844647344695
      ],
      [
        "▁Vous",
        -8.432845005392501
      ],
      [
        "▁beaucoup",
        -8.432851890411348
      ],
      [
        "▁Cameroun",
        -8.43285205071004
      ],
      [
        "▁fàww",
        -8.432885818903294
      ],
      [
        "▁ceux-là",
        -8.433052435084598
      ],
      [
        "▁matin",
        -8.433297449865998
      ],
      [
        "▁voit",
        -8.433571240835796
      ],
      [
        "▁Sama",
        -8.433682661208733
      ],
      [
        "▁Y",
        -8.439133368815364
      ],
      [
        "▁Xale",
        -8.440940844973625
      ],
      [
        "▁pouvait",
        -8.441567136178616
      ],
      [
        "▁nuy",
        -8.44461588891146
      ],
      [
        "▁E",
        -8.444660460526649
      ],
      [
        "▁metti",
        -8.44588544346404
      ],
      [
        "▁day",
        -8.449659996990617
      ],
      [
        "▁vo",
        -8.454990630093294
      ],
      [
        "▁blanc",
        -8.455814784259326
      ],
      [
        "▁lan",
        -8.46026841116111
      ],
      [
        "▁autres",
        -8.464251034488415
      ],
      [
        "▁Dan",
        -8.46549527409849
      ],
      [
        "quoi",
        -8.473746447241307
      ],
      [
        "▁fas",
        -8.4742917559043
      ],
      [
        "▁quelqu'un",
        -8.47635382249565
      ],
      [
        "▁kan",
        -8.4790270473568
      ],
      [
        "▁ceux",
        -8.480093702571097
      ],
      [
        "▁Na",
        -8.480713746046716
      ],
      [
        "▁wàn",
        -8.4810985923641
      ],
      [
        "▁M",
        -8.484291739936292
      ],
      [
        "▁noir",
        -8.485257504111864
      ],
      [
        "vaient",
        -8.486386995589573
      ],
      [
        "autour",
        -8.488208206244476
      ],
      [
        "▁jàpp",
        -8.489559278051566
      ],
      [
        "▁Sa",
        -8.492231057374482
      ],
      [
        "▁quelle",
        -8.495354667166437
      ],
      [
        "ook",
        -8.49677748151974
      ],
      [
        "enn",
        -8.499624121768194
      ],
      [
        "▁s'",
        -8.503035021658834
      ],
      [
        "▁personnes",
        -8.50337608621416
      ],
      [
        "▁xol",
        -8.503529552914571
      ],
      [
        "▁fàttaliku",
        -8.503683359754975
      ],
      [
        "kk",
        -8.506175345497622
      ],
      [
        "iers",
        -8.506486370235585
      ],
      [
        "▁Ay",
        -8.511455630857155
      ],
      [
        "ek",
        -8.511559926927362
      ],
      [
        "▁tudd",
        -8.513182616830056
      ],
      [
        "uma",
        -8.514363929275795
      ],
      [
        "ug",
        -8.514963524733279
      ],
      [
        "h",
        -8.515826477640193
      ],
      [
        "▁Que",
        -8.519909365575945
      ],
      [
        "▁yaakaar",
        -8.521779599226289
      ],
      [
        "▁Naka",
        -8.521819132048543
      ],
      [
        "▁au-dessus",
        -8.521916567358236
      ],
      [
        "▁verre",
        -8.521945808119161
      ],
      [
        "▁Pour",
        -8.522095963469734
      ],
      [
        "▁port",
        -8.52219618053682
      ],
      [
        "▁aucun",
        -8.52269020099638
      ],
      [
        "▁Elle",
        -8.522843947424468
      ],
      [
        "▁aujourd'hui",
        -8.523429422277514
      ],
      [
        "aat",
        -8.523835515623972
      ],
      [
        "▁lequel",
        -8.523854987128686
      ],
      [
        "▁donné",
        -8.523976313625072
      ],
      [
        "▁dóor",
        -8.52453310354269
      ],
      [
        "▁bout",
        -8.525136531791762
      ],
      [
        "▁es",
        -8.526425243380405
      ],
      [
        "▁gaal",
        -8.526527306838279
      ],
      [
        "▁qu'",
        -8.5278110211098
      ],
      [
        "▁ici",
        -8.527846937143238
      ],
      [
        "▁enfant",
        -8.531805768401368
      ],
      [
        "aan",
        -8.534897696808192
      ],
      [
        "▁xamul",
        -8.535244285756425
      ],
      [
        "▁dana",
        -8.54285742878727
      ],
      [
        "▁puis",
        -8.544626282197449
      ],
      [
        "▁So",
        -8.554131563341588
      ],
      [
        "▁bokk",
        -8.555000910494147
      ],
      [
        "▁leer",
        -8.556648573305974
      ],
      [
        "▁posé",
        -8.559662122274112
      ],
      [
        "▁passé",
        -8.560762539330334
      ],
      [
        "▁say",
        -8.565557123138712
      ],
      [
        "▁Wànte",
        -8.569391823758753
      ],
      [
        "▁soleil",
        -8.569399493399464
      ],
      [
        "▁milieu",
        -8.569408255824877
      ],
      [
        "▁xalaat",
        -8.569473068092922
      ],
      [
        "▁tali",
        -8.569535818411454
      ],
      [
        "▁yàgg",
        -8.57002499081366
      ],
      [
        "▁coté",
        -8.570075614558574
      ],
      [
        "▁Ken",
        -8.570608669195792
      ],
      [
        "▁soit",
        -8.571200230695148
      ],
      [
        "▁C'étai",
        -8.571644420199174
      ],
      [
        "▁Waa",
        -8.573444639081409
      ],
      [
        "avoir",
        -8.573623494242952
      ],
      [
        "▁For",
        -8.575131643623958
      ],
      [
        "ata",
        -8.58090486747647
      ],
      [
        "▁hommes",
        -8.583785715981922
      ],
      [
        "▁Au",
        -8.58665670021442
      ],
      [
        "-il",
        -8.59212787545144
      ],
      [
        "▁pu",
        -8.59319021701948
      ],
      [
        "▁defar",
        -8.595625024429907
      ],
      [
        "-ci",
        -8.597049981155537
      ],
      [
        "▁village",
        -8.599484825820266
      ],
      [
        "▁seul",
        -8.604372960057521
      ],
      [
        "▁fan",
        -8.60448507472832
      ],
      [
        "koon",
        -8.60498246173313
      ],
      [
        "▁gaa",
        -8.606172502772832
      ],
      [
        "▁jox",
        -8.60744807177935
      ],
      [
        "▁ëpp",
        -8.611008091854854
      ],
      [
        "ne",
        -8.612092718222936
      ],
      [
        "▁passe",
        -8.615680936532748
      ],
      [
        "▁fin",
        -8.616120770829955
      ],
      [
        "▁Seet",
        -8.617112939266566
      ],
      [
        "▁bind",
        -8.617753727762627
      ],
      [
        "igéen",
        -8.619263884102041
      ],
      [
        "▁Móris",
        -8.61939178135479
      ],
      [
        "▁Bëgg",
        -8.619512132962393
      ],
      [
        "▁seulement",
        -8.619956598758897
      ],
      [
        "▁Niseryaa",
        -8.620067080827074
      ],
      [
        "▁bord",
        -8.620540680735887
      ],
      [
        "▁weer",
        -8.620807759812239
      ],
      [
        "▁debout",
        -8.620814641729256
      ],
      [
        "il",
        -8.620907427678542
      ],
      [
        "▁Quan",
        -8.62159543525794
      ],
      [
        "▁J'",
        -8.62240108331868
      ],
      [
        "▁réy",
        -8.622761785212013
      ],
      [
        "▁jeex",
        -8.622802262975858
      ],
      [
        "▁jaay",
        -8.62467237780118
      ],
      [
        "▁murs",
        -8.624964355502126
      ],
      [
        "▁guddi",
        -8.625240946486652
      ],
      [
        "ez",
        -8.62741574373416
      ],
      [
        "té",
        -8.639346070292389
      ],
      [
        "ine",
        -8.641583478347307
      ],
      [
        "▁vrai",
        -8.649016598802891
      ],
      [
        "▁n'étai",
        -8.649123770821872
      ],
      [
        "geen",
        -8.64924227467376
      ],
      [
        "ir",
        -8.653372592098806
      ],
      [
        "▁ñàkk",
        -8.653399755510502
      ],
      [
        "▁seet",
        -8.658115191144487
      ],
      [
        "kki",
        -8.660966540095915
      ],
      [
        "in",
        -8.663033244904017
      ],
      [
        "▁regard",
        -8.66403420943177
      ],
      [
        "▁reste",
        -8.670215603388307
      ],
      [
        "▁souviens",
        -8.67202335974181
      ],
      [
        "▁grand-mère",
        -8.672023375280297
      ],
      [
        "▁doom-aadama",
        -8.672035680981448
      ],
      [
        "▁Nigeria",
        -8.672036005805664
      ],
      [
        "▁question",
        -8.672054342625172
      ],
      [
        "▁gàtt",
        -8.672063415758577
      ],
      [
        "▁dellu",
        -8.672291811159118
      ],
      [
        "▁wéy",
        -8.672361780799887
      ],
      [
        "▁Bansoo",
        -8.672410785795378
      ],
      [
        "▁Cela",
        -8.672516760040793
      ],
      [
        "▁Keneen",
        -8.672587886556066
      ],
      [
        "▁beneen",
        -8.67262677417847
      ],
      [
        "▁ressemble",
        -8.672965211034729
      ],
      [
        "▁manière",
        -8.673515757334737
      ],
      [
        "▁Yaa",
        -8.673851373110999
      ],
      [
        "▁côté",
        -8.674041658096396
      ],
      [
        "j",
        -8.674491236893296
      ],
      [
        "▁door",
        -8.675976727338897
      ],
      [
        "▁bon",
        -8.677361231924268
      ],
      [
        "▁baay",
        -8.684635272478713
      ],
      [
        "▁yee",
        -8.686094199926359
      ],
      [
        "▁ndox",
        -8.687277158712309
      ],
      [
        "▁poisson",
        -8.690767957854066
      ],
      [
        "▁Wax",
        -8.691078874411053
      ],
      [
        "▁n'avai",
        -8.693142567113686
      ],
      [
        "▁fo",
        -8.693700785771503
      ],
      [
        "loo",
        -8.697074793811517
      ],
      [
        "wul",
        -8.697233237516304
      ],
      [
        "▁jiit",
        -8.699578197029895
      ],
      [
        "▁kii",
        -8.700081947333441
      ],
      [
        "▁maam",
        -8.701017997126716
      ],
      [
        "▁Ben",
        -8.70106359752973
      ],
      [
        "▁ville",
        -8.704776364635903
      ],
      [
        "▁bay",
        -8.707056456602706
      ],
      [
        "▁rivière",
        -8.709032323572975
      ],
      [
        "▁voyage",
        -8.7123014220887
      ],
      [
        "ux",
        -8.714561659176251
      ],
      [
        "▁faj",
        -8.71638421273242
      ],
      [
        "▁lay",
        -8.717838966857222
      ],
      [
        "▁aw",
        -8.721503101353266
      ],
      [
        "▁dina",
        -8.722461836465042
      ],
      [
        "▁dé",
        -8.72390382718907
      ],
      [
        "lu",
        -8.724869651692002
      ],
      [
        "▁faa",
        -8.726684248048048
      ],
      [
        "▁bàyyi",
        -8.727182829629037
      ],
      [
        "▁quel",
        -8.727428900611255
      ],
      [
        "▁Laobe",
        -8.727579187601608
      ],
      [
        "▁njëkk",
        -8.727579487906855
      ],
      [
        "▁S'il",
        -8.727581722461945
      ],
      [
        "▁séen",
        -8.727606314516569
      ],
      [
        "▁Samba",
        -8.727606553681031
      ],
      [
        "▁cheval",
        -8.72762944639548
      ],
      [
        "béré",
        -8.727674251215445
      ],
      [
        "▁l'eau",
        -8.7277904294538
      ],
      [
        "▁xeer",
        -8.727801324420277
      ],
      [
        "▁nettali",
        -8.727832705710403
      ],
      [
        "▁téere",
        -8.728048114909681
      ],
      [
        "▁dénk",
        -8.728343049151247
      ],
      [
        "▁yor",
        -8.729128577727783
      ],
      [
        "▁fourmis",
        -8.729293177257187
      ],
      [
        "▁gee",
        -8.729598756336388
      ],
      [
        "▁soir",
        -8.72962130192465
      ],
      [
        "▁mot",
        -8.730091924797373
      ],
      [
        "▁ubbi",
        -8.730872425546432
      ],
      [
        "▁vache",
        -8.731696227710971
      ],
      [
        "▁yeux",
        -8.734372057206556
      ],
      [
        "▁près",
        -8.73537666298802
      ],
      [
        "'exil",
        -8.73741688531185
      ],
      [
        "▁tudde",
        -8.739113922495594
      ],
      [
        "▁aller",
        -8.740793297340145
      ],
      [
        "▁eu",
        -8.744673220691567
      ],
      [
        "▁n'ai",
        -8.74521762320205
      ],
      [
        "▁tel",
        -8.746730837884831
      ],
      [
        "ukaay",
        -8.748631641492217
      ],
      [
        "ng",
        -8.748857399540338
      ],
      [
        "▁égaré",
        -8.753927305443618
      ],
      [
        "▁ña",
        -8.755111287783652
      ],
      [
        "▁long",
        -8.757414342639429
      ],
      [
        "▁dëkki",
        -8.759435005262482
      ],
      [
        "▁moment",
        -8.765826749861327
      ],
      [
        "ci",
        -8.767519925489045
      ],
      [
        "▁no",
        -8.769005236996671
      ],
      [
        "▁montre",
        -8.769010954925832
      ],
      [
        "▁lion",
        -8.769061689437649
      ],
      [
        "▁lanu",
        -8.769074752706302
      ],
      [
        "▁toute",
        -8.772198102740568
      ],
      [
        "▁Di",
        -8.775678983407031
      ],
      [
        "▁grande",
        -8.775836165257738
      ],
      [
        "nu",
        -8.777001434947316
      ],
      [
        "▁mal",
        -8.778252479448298
      ],
      [
        "▁aperç",
        -8.780559769040305
      ],
      [
        "am.",
        -8.781255659761241
      ],
      [
        "▁Banso",
        -8.785968692597745
      ],
      [
        "▁Àngalteer",
        -8.786402444563821
      ],
      [
        "▁Alors",
        -8.78640256654895
      ],
      [
        "▁tàmbal",
        -8.786405195528662
      ],
      [
        "▁gunóor",
        -8.786424939113761
      ],
      [
        "▁Àngale",
        -8.786456674512134
      ],
      [
        "▁peau",
        -8.786462424573918
      ],
      [
        "▁dàll",
        -8.786572693688598
      ],
      [
        "▁seetlu",
        -8.786624514609715
      ],
      [
        "▁Ñoom",
        -8.786891734548472
      ],
      [
        "▁so",
        -8.78696212898756
      ],
      [
        "▁mii",
        -8.787434591172778
      ],
      [
        "▁plaine",
        -8.787632504423165
      ],
      [
        "▁yaatu",
        -8.788399377331856
      ],
      [
        "▁doomu",
        -8.790132381988117
      ],
      [
        "▁kanam",
        -8.790490692189957
      ],
      [
        "▁dama",
        -8.792344357379037
      ],
      [
        "▁lit",
        -8.792628643800676
      ],
      [
        "▁toit",
        -8.794512986518667
      ],
      [
        "▁mujje",
        -8.796194512483304
      ],
      [
        "▁maanaa",
        -8.7967340256712
      ],
      [
        "▁miir",
        -8.797809680295453
      ],
      [
        "▁gaynde",
        -8.797887850904926
      ],
      [
        "▁Ra",
        -8.797968831832348
      ],
      [
        "▁assis",
        -8.799801962956597
      ],
      [
        "▁bant",
        -8.800939426283607
      ],
      [
        "▁mains",
        -8.801396004824504
      ],
      [
        "▁wut",
        -8.80258974027719
      ],
      [
        "▁W",
        -8.803586874867229
      ],
      [
        "▁ñ",
        -8.805623116475859
      ],
      [
        "▁nun",
        -8.81275184132621
      ],
      [
        "▁l'ai",
        -8.81587135021232
      ],
      [
        "tôt",
        -8.81731072068866
      ],
      [
        "▁amoon",
        -8.818061114006705
      ],
      [
        "-na",
        -8.820018008235406
      ],
      [
        "▁aurait",
        -8.82045433730066
      ],
      [
        "em",
        -8.823446315599
      ],
      [
        "▁grand",
        -8.825364213916947
      ],
      [
        "▁plu",
        -8.828919507989939
      ],
      [
        "▁lorsqu",
        -8.829926194122745
      ],
      [
        "▁doom",
        -8.83416806462794
      ],
      [
        "▁waaj",
        -8.836409368873296
      ],
      [
        "ère",
        -8.837088044515188
      ],
      [
        "être",
        -8.837780041858961
      ],
      [
        "?",
        -8.840255750368966
      ],
      [
        "▁t'a",
        -8.84204260228076
      ],
      [
        "▁way-jur",
        -8.846197572967808
      ],
      [
        "faral",
        -8.846964669884223
      ],
      [
        "▁Kooku",
        -8.848499927984978
      ],
      [
        "àddaay",
        -8.84870398159121
      ],
      [
        "▁<mask>",
        -8.848902444557591
      ],
      [
        "▁jardin",
        -8.848903155432252
      ],
      [
        "▁l'Ouest",
        -8.848953554308004
      ],
      [
        "▁moroom",
        -8.849007591982975
      ],
      [
        "▁dunyaa",
        -8.849054209101785
      ],
      [
        "▁xeet",
        -8.849505292639314
      ],
      [
        "▁tuuti",
        -8.849704155179296
      ],
      [
        "▁Kon",
        -8.849900802070472
      ],
      [
        "▁takk",
        -8.850725774524768
      ],
      [
        "▁Moom",
        -8.851387241875447
      ],
      [
        "▁leneen",
        -8.85203406069953
      ],
      [
        "▁ko.",
        -8.852815867156544
      ],
      [
        "▁demkoon",
        -8.853079141596876
      ],
      [
        "▁K",
        -8.853253478466515
      ],
      [
        "▁moomu",
        -8.85371721900925
      ],
      [
        "▁laaj",
        -8.856326929367636
      ],
      [
        "▁montagnes",
        -8.858648738705842
      ],
      [
        "▁fut",
        -8.86330283287256
      ],
      [
        "▁jeune",
        -8.86479835072215
      ],
      [
        "▁parler",
        -8.865888931957564
      ],
      [
        "▁nos",
        -8.869493834348757
      ],
      [
        "▁Bamenda",
        -8.87105773872857
      ],
      [
        "▁wone",
        -8.87159319828297
      ],
      [
        "maa",
        -8.873992597634416
      ],
      [
        "▁gudd",
        -8.877341091816636
      ],
      [
        "ub",
        -8.880077012279575
      ],
      [
        "armée",
        -8.885755896335716
      ],
      [
        "▁Fu",
        -8.887102603777521
      ],
      [
        "▁jours",
        -8.88891380647227
      ],
      [
        "▁Boo",
        -8.889370814890189
      ],
      [
        "▁ami",
        -8.890382133532087
      ],
      [
        "▁mat",
        -8.891164991748804
      ],
      [
        "ur",
        -8.891280944875131
      ],
      [
        "▁L'",
        -8.891304429006867
      ],
      [
        "▁won",
        -8.892245452571782
      ],
      [
        "leen",
        -8.892868194623423
      ],
      [
        "voir",
        -8.89419152119999
      ],
      [
        "▁yére",
        -8.896552040363709
      ],
      [
        "age",
        -8.896568644722528
      ],
      [
        "▁Va",
        -8.897381557739495
      ],
      [
        "ngir",
        -8.899886356424503
      ],
      [
        "ra",
        -8.902617606011315
      ],
      [
        "▁parte",
        -8.902804892583847
      ],
      [
        "▁fond",
        -8.905998288736255
      ],
      [
        "▁defe",
        -8.907151374589176
      ],
      [
        "▁garde",
        -8.907431056336478
      ],
      [
        "▁partie",
        -8.910210913179316
      ],
      [
        "▁ta",
        -8.914243666380207
      ],
      [
        "▁trouve",
        -8.914910558083482
      ],
      [
        "▁lieu",
        -8.914992950413282
      ],
      [
        "▁tollu",
        -8.915569199835769
      ],
      [
        "▁violence",
        -8.915569882810287
      ],
      [
        "▁House",
        -8.91558424988783
      ],
      [
        "▁làrme",
        -8.915592623600977
      ],
      [
        "▁doktoor",
        -8.91559492014079
      ],
      [
        "▁Aucun",
        -8.915604424133505
      ],
      [
        "▁ëe",
        -8.915608486164345
      ],
      [
        "▁jéem",
        -8.915609960173546
      ],
      [
        "▁Celui-là",
        -8.915618667616828
      ],
      [
        "▁yónnee",
        -8.915940008620144
      ],
      [
        "▁simplement",
        -8.915947769898045
      ],
      [
        "▁Yaw",
        -8.915952376879321
      ],
      [
        "▁gént",
        -8.916039032329659
      ],
      [
        "▁trop",
        -8.916484097839179
      ],
      [
        "▁cause",
        -8.916574192754089
      ],
      [
        "▁salle",
        -8.91669251840614
      ],
      [
        "▁Ak",
        -8.91708495855844
      ],
      [
        "avons",
        -8.917385454137333
      ],
      [
        "▁ňaar",
        -8.917402959536206
      ],
      [
        "▁deret",
        -8.917463386770738
      ],
      [
        "▁s'il",
        -8.918238153487575
      ],
      [
        "▁ñan",
        -8.918415557094756
      ],
      [
        "▁Noonu",
        -8.918883135349953
      ],
      [
        "▁dame",
        -8.918970777996234
      ],
      [
        "▁feebar",
        -8.91969405157976
      ],
      [
        "▁boog",
        -8.92013543616292
      ],
      [
        "▁Kan",
        -8.921294626778108
      ],
      [
        "▁romb",
        -8.921567284445183
      ],
      [
        "▁ciel",
        -8.922007057408885
      ],
      [
        "▁portent",
        -8.922411638897488
      ],
      [
        "▁dire",
        -8.922492260012522
      ],
      [
        "▁bëggul",
        -8.922514662432343
      ],
      [
        "▁doomi",
        -8.922882046200467
      ],
      [
        "▁allé",
        -8.923456336323799
      ],
      [
        "▁marche",
        -8.923737172364518
      ],
      [
        "estr",
        -8.924052119968117
      ],
      [
        "▁buntu",
        -8.92974076717
      ],
      [
        "▁neen",
        -8.937744361264807
      ],
      [
        "▁song",
        -8.93853113627093
      ],
      [
        "▁niroo",
        -8.94135832199183
      ],
      [
        "▁villages",
        -8.94297988684051
      ],
      [
        "▁jii",
        -8.94346674577965
      ],
      [
        "▁tur",
        -8.948415428393716
      ],
      [
        "▁blancs",
        -8.94914802535855
      ],
      [
        "eur",
        -8.950224504483566
      ],
      [
        "▁fàtte",
        -8.953605466864385
      ],
      [
        "▁baa",
        -8.957617670816903
      ],
      [
        "▁marché",
        -8.957811411937866
      ],
      [
        "▁jolie",
        -8.96343545576246
      ],
      [
        "▁travail",
        -8.96366037570811
      ],
      [
        "ň",
        -8.964661785198322
      ],
      [
        "▁souvenir",
        -8.966640612104332
      ],
      [
        "▁Par",
        -8.978258235189958
      ],
      [
        "at",
        -8.978502353442428
      ],
      [
        "▁parles",
        -8.97909533440917
      ],
      [
        "▁néegu",
        -8.983081373844271
      ],
      [
        "óon",
        -8.983467588583615
      ],
      [
        "▁portes",
        -8.98453613110086
      ],
      [
        "▁Saint-Louis",
        -8.986997682856146
      ],
      [
        "▁endroit",
        -8.986997787553364
      ],
      [
        "▁Yàlla",
        -8.986998987808219
      ],
      [
        "▁famille",
        -8.986999050436427
      ],
      [
        "▁mémoire",
        -8.987000296215019
      ],
      [
        "▁togg",
        -8.987001776150722
      ],
      [
        "▁vécu",
        -8.987021980089553
      ],
      [
        "▁diiwaan",
        -8.987036906221658
      ],
      [
        "▁ngelaw",
        -8.987067738811932
      ],
      [
        "▁tangor",
        -8.987188853264795
      ],
      [
        "▁celui-ci",
        -8.987247457390488
      ],
      [
        "▁l'hôpital",
        -8.987402443699844
      ],
      [
        "▁Seen",
        -8.987424850597128
      ],
      [
        "▁Qu'il",
        -8.987471310470728
      ],
      [
        "▁heures",
        -8.987617826080081
      ],
      [
        "▁wóor",
        -8.987906052318946
      ],
      [
        "▁gaaw",
        -8.987922204585704
      ],
      [
        "▁trois",
        -8.987981580564645
      ],
      [
        "▁mépp",
        -8.98803843745958
      ],
      [
        "aire",
        -8.988365421820887
      ],
      [
        "▁Dama",
        -8.990276010490579
      ],
      [
        "▁Ndar",
        -8.990796974317249
      ],
      [
        "▁bras",
        -8.991080925474954
      ],
      [
        "▁Wall",
        -8.991153193401614
      ],
      [
        "▁taxoon",
        -8.993382632480767
      ],
      [
        "▁gendarmes",
        -8.994002513989376
      ],
      [
        "ati",
        -8.994257740427436
      ],
      [
        "▁Là",
        -8.99770745226387
      ],
      [
        "▁An",
        -8.999293257185563
      ],
      [
        "▁s'en",
        -8.999644261308148
      ],
      [
        "▁celle",
        -8.99969063408836
      ],
      [
        "▁parlait",
        -9.001062510382058
      ],
      [
        "▁vient",
        -9.00420062261696
      ],
      [
        "▁googu",
        -9.005860629096556
      ],
      [
        "▁Nga",
        -9.00830631397375
      ],
      [
        "ité",
        -9.009460808818885
      ],
      [
        "les",
        -9.010779870677167
      ],
      [
        "▁masu",
        -9.01102013384501
      ],
      [
        "▁petit",
        -9.011671351281256
      ],
      [
        "ñu",
        -9.013556166571277
      ],
      [
        "▁Mën",
        -9.014589852926033
      ],
      [
        "▁sore",
        -9.016248598150016
      ],
      [
        "▁mort",
        -9.016528723436656
      ],
      [
        "▁tabax",
        -9.01664663929319
      ],
      [
        "▁pres",
        -9.018350302618375
      ],
      [
        "▁j",
        -9.018731780977998
      ],
      [
        "▁toutes",
        -9.021539592701993
      ],
      [
        "▁appelle",
        -9.023997093492396
      ],
      [
        "▁noirs",
        -9.024883905293606
      ],
      [
        "ons",
        -9.024928565824599
      ],
      [
        "▁noo",
        -9.027157892337327
      ],
      [
        "▁connu",
        -9.027825962424483
      ],
      [
        "▁vieille",
        -9.028159680848251
      ],
      [
        "ance",
        -9.028761148502507
      ],
      [
        "▁dellusi",
        -9.029243108465737
      ],
      [
        "▁we",
        -9.029818042979922
      ],
      [
        "▁forme",
        -9.036914568697927
      ],
      [
        "▁xool",
        -9.037980693381321
      ],
      [
        "▁Bamendaa",
        -9.038181293809945
      ],
      [
        "▁àgg",
        -9.044548552790717
      ],
      [
        "▁dëkku",
        -9.046082504330192
      ],
      [
        "▁dëkke",
        -9.047305042864657
      ],
      [
        "où",
        -9.048070066659273
      ],
      [
        "q",
        -9.052744805514724
      ],
      [
        "ri",
        -9.05309288036212
      ],
      [
        "▁tàng",
        -9.06091179997837
      ],
      [
        "▁doi",
        -9.062826161779395
      ],
      [
        "▁britannique",
        -9.063920759577517
      ],
      [
        "▁liberté",
        -9.063920762443164
      ],
      [
        "▁palais",
        -9.063921443087242
      ],
      [
        "▁weesoo",
        -9.063921706163608
      ],
      [
        "▁sucre",
        -9.06392323895399
      ],
      [
        "▁soldaar",
        -9.063923333118725
      ],
      [
        "▁wirgo",
        -9.063924347110392
      ],
      [
        "▁Mbaa",
        -9.063926000976135
      ],
      [
        "▁théière",
        -9.063942258877109
      ],
      [
        "▁tëdd",
        -9.063944318257736
      ],
      [
        "▁gis-gis",
        -9.063997456198003
      ],
      [
        "▁jëkk",
        -9.064169684155445
      ],
      [
        "▁surtout",
        -9.064173353328597
      ],
      [
        "▁Yéen",
        -9.064243701146639
      ],
      [
        "▁sedd",
        -9.064321969595253
      ],
      [
        "▁asamaan",
        -9.064328690534586
      ],
      [
        "▁tard",
        -9.064574811909461
      ],
      [
        "▁Maurice",
        -9.064629891181266
      ],
      [
        "▁Jox",
        -9.064709636785135
      ],
      [
        "▁Bés",
        -9.064832779538467
      ],
      [
        "▁Ibo",
        -9.064883157644745
      ],
      [
        "▁Frãs",
        -9.06499264392577
      ],
      [
        "▁ainsi",
        -9.065007915698343
      ],
      [
        "▁tëj",
        -9.065244998391393
      ],
      [
        "▁acheté",
        -9.065410164951635
      ],
      [
        "▁café",
        -9.066906739394984
      ],
      [
        "▁sàkk",
        -9.067408986317686
      ],
      [
        "▁ça",
        -9.067462817898152
      ],
      [
        "▁viendra",
        -9.0676595215771
      ],
      [
        "ël",
        -9.068770172170494
      ],
      [
        "▁d'herbes",
        -9.06973030766285
      ],
      [
        "▁xelam",
        -9.06999542338395
      ],
      [
        "st-ce",
        -9.070342508264224
      ],
      [
        "▁suba",
        -9.071433407652606
      ],
      [
        "▁habits",
        -9.072126830628186
      ],
      [
        "▁jënd",
        -9.074746700932664
      ],
      [
        "▁jant",
        -9.075627762403805
      ],
      [
        "▁ñuul.",
        -9.075800987973357
      ],
      [
        "▁choses",
        -9.0768427555344
      ],
      [
        "atum",
        -9.077222007379072
      ],
      [
        "atul",
        -9.07837959852393
      ],
      [
        "▁nanu",
        -9.078751358579837
      ],
      [
        "▁bee",
        -9.082539082214316
      ],
      [
        "▁pars",
        -9.082702351243631
      ],
      [
        "▁deme",
        -9.083177814472169
      ],
      [
        "▁Da",
        -9.087030198582877
      ],
      [
        "▁grands",
        -9.087949110514286
      ],
      [
        "▁yit",
        -9.090449406458765
      ],
      [
        "▁per",
        -9.091764409696129
      ],
      [
        "▁Quelle",
        -9.09315451972838
      ],
      [
        "▁biti",
        -9.09336035745934
      ],
      [
        "or",
        -9.098039106900304
      ],
      [
        "▁wetu",
        -9.098178099800165
      ],
      [
        "waat",
        -9.104824782940288
      ],
      [
        "fin",
        -9.105851522106693
      ],
      [
        "▁Me",
        -9.105854699514806
      ],
      [
        "▁l'un",
        -9.106287922338648
      ],
      [
        "me",
        -9.108681600031504
      ],
      [
        "os",
        -9.110359633829017
      ],
      [
        "▁qu'un",
        -9.11063100287059
      ],
      [
        "▁sori",
        -9.111388915192027
      ],
      [
        "▁lekk",
        -9.112621348670494
      ],
      [
        "▁baat",
        -9.113460627021986
      ],
      [
        "si",
        -9.113682491383171
      ],
      [
        "▁May",
        -9.11385320523557
      ],
      [
        "▁b",
        -9.118768490350202
      ],
      [
        "▁ñii",
        -9.12156853860279
      ],
      [
        "▁yem",
        -9.121655234895972
      ],
      [
        "▁carte",
        -9.123633083482517
      ],
      [
        "▁fille",
        -9.124244775854697
      ],
      [
        "▁vienne",
        -9.12573301737904
      ],
      [
        "un",
        -9.126211135575941
      ],
      [
        "▁kaa",
        -9.12729947015997
      ],
      [
        "de",
        -9.128685461729532
      ],
      [
        "!",
        -9.128719822036938
      ],
      [
        "▁garçon",
        -9.129333249810358
      ],
      [
        "vant",
        -9.129557579243981
      ],
      [
        "ais",
        -9.13189568768713
      ],
      [
        "▁ŋgii",
        -9.132174843565384
      ],
      [
        "na",
        -9.133085186709817
      ],
      [
        "▁D'",
        -9.135186424302459
      ],
      [
        "▁main",
        -9.136648036544795
      ],
      [
        "▁fàttali",
        -9.137364293504795
      ],
      [
        "▁daj",
        -9.139605583701806
      ],
      [
        "▁coup",
        -9.14142466058144
      ],
      [
        "woo",
        -9.141724979440243
      ],
      [
        "▁Cherche",
        -9.1472541001541
      ],
      [
        "▁mellentaan",
        -9.147254103482005
      ],
      [
        "▁xar-kanam",
        -9.14725411724773
      ],
      [
        "▁Homme",
        -9.147254257980556
      ],
      [
        "▁géej",
        -9.147254380700591
      ],
      [
        "▁làmp",
        -9.147254547436285
      ],
      [
        "▁région",
        -9.14725563322351
      ],
      [
        "▁xanaa",
        -9.14728285889569
      ],
      [
        "▁kese",
        -9.147300042422739
      ],
      [
        "▁Kër",
        -9.14730288442151
      ],
      [
        "▁déglu",
        -9.147314893720456
      ],
      [
        "▁boroom",
        -9.147325504556344
      ],
      [
        "▁herbes",
        -9.14733263185472
      ],
      [
        "▁paix",
        -9.147335139267124
      ],
      [
        "▁Lawbe",
        -9.147349817244192
      ],
      [
        "▁manger",
        -9.147377671296205
      ],
      [
        "▁delloo",
        -9.147411419503188
      ],
      [
        "▁Ceux-là",
        -9.14741158831555
      ],
      [
        "▁passage",
        -9.147462285482312
      ],
      [
        "▁longue",
        -9.147484787010312
      ],
      [
        "▁yuuxu",
        -9.147520144613985
      ],
      [
        "▁derrière",
        -9.147576008406624
      ],
      [
        "▁ngoon",
        -9.14802447932136
      ],
      [
        "▁appris",
        -9.148129825284352
      ],
      [
        "▁envoyée",
        -9.148186861471384
      ],
      [
        "'était",
        -9.148323955350325
      ],
      [
        "▁takk-der",
        -9.148415552942856
      ],
      [
        "▁nangu",
        -9.148433354192473
      ],
      [
        "▁Jaam",
        -9.148931392196019
      ],
      [
        "▁kàddu",
        -9.149139066468361
      ],
      [
        "▁n'en",
        -9.149182460204715
      ],
      [
        "▁màgget",
        -9.149898203519275
      ],
      [
        "▁Defe",
        -9.150293488883063
      ],
      [
        "▁large",
        -9.1506801367244
      ],
      [
        "▁màggat",
        -9.151885850490318
      ],
      [
        "▁Demal",
        -9.153262195903611
      ],
      [
        "▁yaw",
        -9.154026079484117
      ],
      [
        "▁duñu",
        -9.157290145866094
      ],
      [
        "▁X",
        -9.158444380490838
      ],
      [
        "est-ce",
        -9.160608672210483
      ],
      [
        "▁Ñ",
        -9.160701838862355
      ],
      [
        "▁couleurs",
        -9.1608737378283
      ],
      [
        "▁pieds",
        -9.160948335948612
      ],
      [
        "beek",
        -9.162674522027544
      ],
      [
        "▁jan",
        -9.16314256983561
      ],
      [
        "▁fees",
        -9.163468783087426
      ],
      [
        "belle",
        -9.1681031063901
      ],
      [
        "▁fleuves",
        -9.169342071678464
      ],
      [
        "▁San",
        -9.174583053525588
      ],
      [
        "lli",
        -9.176250435402201
      ],
      [
        "▁jàng",
        -9.17786598898316
      ],
      [
        "▁sang",
        -9.181473069807232
      ],
      [
        "llait",
        -9.187799790032765
      ],
      [
        "eut-être",
        -9.187951878799545
      ],
      [
        "▁Moi",
        -9.19002447456877
      ],
      [
        "▁doxandéem",
        -9.190163520865989
      ],
      [
        "▁sais",
        -9.191715191277959
      ],
      [
        "▁Ña",
        -9.193803553773376
      ],
      [
        "▁mêmes",
        -9.194519969487335
      ],
      [
        "▁égarée",
        -9.195756421943102
      ],
      [
        "▁roi",
        -9.204297251410402
      ],
      [
        "▁conçue",
        -9.204449315581922
      ],
      [
        "vent",
        -9.206394533590192
      ],
      [
        "▁doy",
        -9.207691612186183
      ],
      [
        "aa",
        -9.210695678473702
      ],
      [
        "▁mis",
        -9.211706041809034
      ],
      [
        "ils",
        -9.212289473541167
      ],
      [
        "▁vent",
        -9.21335030550945
      ],
      [
        "▁fleuve",
        -9.214521109594086
      ],
      [
        "kër",
        -9.215592325597314
      ],
      [
        "▁séché",
        -9.216509160529142
      ],
      [
        "▁première",
        -9.217283120906933
      ],
      [
        "▁yab",
        -9.217687996414202
      ],
      [
        "uis",
        -9.22125177249064
      ],
      [
        "ement",
        -9.221850274538514
      ],
      [
        "ppelle",
        -9.227977382542186
      ],
      [
        "▁Koo",
        -9.229651210719176
      ],
      [
        "▁dayo",
        -9.234177103895155
      ],
      [
        "▁dagg",
        -9.235112892703171
      ],
      [
        "▁d'Ogoja",
        -9.238163183819186
      ],
      [
        "▁bëj-saalum",
        -9.238163183823477
      ],
      [
        "▁Guwiyaan",
        -9.238163188864117
      ],
      [
        "▁yëkkati",
        -9.238163266152565
      ],
      [
        "▁Guyane",
        -9.2381644706899
      ],
      [
        "▁lumière",
        -9.238164621711697
      ],
      [
        "zone",
        -9.238166449605878
      ],
      [
        "▁tiim",
        -9.238169855848538
      ],
      [
        "▁rawati",
        -9.238170154393563
      ],
      [
        "▁frère",
        -9.23818123770268
      ],
      [
        "▁Xammee",
        -9.238185050706045
      ],
      [
        "▁téye",
        -9.238190920318797
      ],
      [
        "▁d'Europe",
        -9.238199241374812
      ],
      [
        "▁force",
        -9.238210772671534
      ],
      [
        "▁chevaux",
        -9.238212042899889
      ],
      [
        "▁feuilles",
        -9.238218434549289
      ],
      [
        "▁yéeg",
        -9.238234596322748
      ],
      [
        "▁raison",
        -9.238306587328225
      ],
      [
        "▁jàll",
        -9.238357922477848
      ],
      [
        "▁Gone",
        -9.238427173624085
      ],
      [
        "▁Moonte",
        -9.23843289076915
      ],
      [
        "-tu",
        -9.238447024167758
      ],
      [
        "je",
        -9.238453333631487
      ],
      [
        "▁jéggi",
        -9.238615973754031
      ],
      [
        "▁poste",
        -9.238671558602523
      ],
      [
        "▁chez",
        -9.23873978728456
      ],
      [
        "▁bépp",
        -9.238802311274249
      ],
      [
        "▁tàll",
        -9.238883911886326
      ],
      [
        "▁silence",
        -9.238946241943239
      ],
      [
        "▁toogukaay",
        -9.238957866591678
      ],
      [
        "▁xéy",
        -9.239056416923463
      ],
      [
        "▁kilifa",
        -9.23907285593743
      ],
      [
        "▁fépp",
        -9.239169341061388
      ],
      [
        "▁faisait",
        -9.239269181967625
      ],
      [
        "▁bateau",
        -9.239287450510426
      ],
      [
        "▁toujours",
        -9.23944007235339
      ],
      [
        "▁xaar",
        -9.239514349348875
      ],
      [
        "▁fenn",
        -9.239551971698942
      ],
      [
        "▁rëdd",
        -9.239564233701667
      ],
      [
        "▁faut",
        -9.239677358640867
      ],
      [
        "▁yóbbu",
        -9.239932131062087
      ],
      [
        "▁feneen",
        -9.239960648849957
      ],
      [
        "▁Ñii",
        -9.240598068415363
      ],
      [
        "kati",
        -9.240845838440132
      ],
      [
        "▁teel",
        -9.24102609423912
      ],
      [
        "▁sortir",
        -9.241596839662572
      ],
      [
        "▁Loo",
        -9.241999753412252
      ],
      [
        "yan",
        -9.242832143199436
      ],
      [
        "▁ñetti",
        -9.243381494952683
      ],
      [
        "▁Sud",
        -9.243707350452995
      ],
      [
        "▁avions",
        -9.244385687996722
      ],
      [
        "iez",
        -9.244799913498696
      ],
      [
        "▁cuir",
        -9.245517920781143
      ],
      [
        "▁woo",
        -9.245748543087036
      ],
      [
        "naa",
        -9.24583807699652
      ],
      [
        "▁miin",
        -9.24595700558762
      ],
      [
        "▁pierres",
        -9.246629058006114
      ],
      [
        "▁tund",
        -9.249612207540881
      ],
      [
        "▁tàkk",
        -9.250933742064982
      ],
      [
        "▁baxa",
        -9.25247400115089
      ],
      [
        "▁tay",
        -9.254649023724205
      ],
      [
        "▁seule",
        -9.254860563890318
      ],
      [
        "▁të",
        -9.254910135799143
      ],
      [
        "▁Xa",
        -9.2557972326527
      ],
      [
        "▁Ne",
        -9.257281510758336
      ],
      [
        "▁naaj",
        -9.266027232400155
      ],
      [
        "▁ira",
        -9.267385535589744
      ],
      [
        "▁Bon",
        -9.2684350098537
      ],
      [
        "▁vi",
        -9.27163093678746
      ],
      [
        "ul.",
        -9.275343303098673
      ],
      [
        "▁petite",
        -9.2775351062034
      ],
      [
        "▁ragal",
        -9.278205356774038
      ],
      [
        "▁fais",
        -9.280966096405407
      ],
      [
        "▁sera",
        -9.284935819417054
      ],
      [
        "▁partis",
        -9.292422380442806
      ],
      [
        "▁toogu",
        -9.294678083578024
      ],
      [
        "nga",
        -9.2971824525243
      ],
      [
        "▁po",
        -9.29830544610672
      ],
      [
        "▁...",
        -9.299638124112919
      ],
      [
        "ique",
        -9.299885384357287
      ],
      [
        "tant",
        -9.300038557975025
      ],
      [
        "naka",
        -9.300388402517125
      ],
      [
        "▁Go",
        -9.300833587841442
      ],
      [
        "▁dexu",
        -9.302182526249533
      ],
      [
        "ture",
        -9.302319842111624
      ],
      [
        "▁cases",
        -9.302921150981941
      ],
      [
        "kkali",
        -9.303340383784956
      ],
      [
        "▁cuisine",
        -9.304008334042898
      ],
      [
        "rait",
        -9.305186635958147
      ],
      [
        "▁réewu",
        -9.305318985837202
      ],
      [
        "▁cons",
        -9.306861908568465
      ],
      [
        "▁point",
        -9.308631123846416
      ],
      [
        "▁tan",
        -9.312791641848712
      ],
      [
        "aller",
        -9.31545502043155
      ],
      [
        "▁arbre",
        -9.315964021449979
      ],
      [
        "▁Ceux",
        -9.316966629216004
      ],
      [
        "▁livre",
        -9.31943814144175
      ],
      [
        "▁tere",
        -9.31966719853823
      ],
      [
        "▁feu",
        -9.33182298522028
      ],
      [
        "▁Foo",
        -9.332459208782135
      ],
      [
        "▁Ta",
        -9.333435743254238
      ],
      [
        "▁Daan",
        -9.336355524982894
      ],
      [
        "▁kook",
        -9.337877104191532
      ],
      [
        "▁compl",
        -9.337891025705488
      ],
      [
        "▁Moussa",
        -9.338163187919635
      ],
      [
        "▁pirogue",
        -9.338163191267492
      ],
      [
        "▁nouveau",
        -9.338163349026459
      ],
      [
        "▁chaussures",
        -9.33816485429674
      ],
      [
        "▁samp",
        -9.338165895104517
      ],
      [
        "▁mbóot",
        -9.338190233791998
      ],
      [
        "▁Nord",
        -9.338210076810288
      ],
      [
        "▁Ñàkk",
        -9.338221420337511
      ],
      [
        "▁l'enfant",
        -9.33823299065743
      ],
      [
        "▁subë",
        -9.338237721299746
      ],
      [
        "▁sentiment",
        -9.3382515313432
      ],
      [
        "▁façon",
        -9.338306912901624
      ],
      [
        "▁train",
        -9.338307184325329
      ],
      [
        "▁tubaab",
        -9.338308966978705
      ],
      [
        "▁voix",
        -9.338312591350942
      ],
      [
        "▁diggante",
        -9.338330596583997
      ],
      [
        "▁jëfandikoo",
        -9.338381207493375
      ],
      [
        "▁Fatim",
        -9.338422775824007
      ],
      [
        "-fu",
        -9.338570723679883
      ],
      [
        "▁Voil",
        -9.338620445926878
      ],
      [
        "▁danga",
        -9.338648382840718
      ],
      [
        "▁metit",
        -9.338692615929338
      ],
      [
        "oŋ",
        -9.338699115811036
      ],
      [
        "▁loxoom",
        -9.338729122763162
      ],
      [
        "▁fanaan",
        -9.338841040939887
      ],
      [
        "▁gor",
        -9.338894112535838
      ],
      [
        "▁moins",
        -9.339071961237766
      ],
      [
        "▁bonne",
        -9.339145000014732
      ],
      [
        "▁morceau",
        -9.33925171300727
      ],
      [
        "▁jege",
        -9.339871571516396
      ],
      [
        "atim",
        -9.339910521048438
      ],
      [
        "▁xuus",
        -9.3403787740663
      ],
      [
        "▁njiit",
        -9.340503788014152
      ],
      [
        "▁Non",
        -9.341153620730768
      ],
      [
        "▁fer",
        -9.3413224660148
      ],
      [
        "▁nul",
        -9.341868583625953
      ],
      [
        "▁neneen",
        -9.343578469358324
      ],
      [
        "▁feeñ",
        -9.34388050935835
      ],
      [
        "▁buur",
        -9.345117221231728
      ],
      [
        "ral",
        -9.345165844055899
      ],
      [
        "▁joor",
        -9.346053988623574
      ],
      [
        "▁noon",
        -9.346759257590662
      ],
      [
        "mettre",
        -9.346958825238103
      ],
      [
        "▁fils",
        -9.348448790250577
      ],
      [
        "▁T",
        -9.349183983094756
      ],
      [
        "▁jeu",
        -9.35027197337515
      ],
      [
        "▁wuti",
        -9.351099950642638
      ],
      [
        "▁hautes",
        -9.351333051117129
      ],
      [
        "▁telle",
        -9.351464271166464
      ],
      [
        "▁men",
        -9.352002895930074
      ],
      [
        "ewul",
        -9.352232587656143
      ],
      [
        "▁partira",
        -9.353297253418766
      ],
      [
        "▁connais",
        -9.356528850876668
      ],
      [
        "venir",
        -9.356636985464572
      ],
      [
        "▁Fan",
        -9.359224196285675
      ],
      [
        "wu",
        -9.359493206542894
      ],
      [
        "▁kon",
        -9.360247004389322
      ],
      [
        "▁garçons",
        -9.360289040123119
      ],
      [
        "▁Ou",
        -9.365475381125782
      ],
      [
        "▁eû",
        -9.365740663853119
      ],
      [
        "lle",
        -9.366298940376119
      ],
      [
        "▁meloon",
        -9.36798475870127
      ],
      [
        "▁Fi",
        -9.36809756685075
      ],
      [
        "▁xëcc",
        -9.368754435969537
      ],
      [
        "▁s'agi",
        -9.369092332955725
      ],
      [
        "▁ñëwul",
        -9.369136270278986
      ],
      [
        "▁gan",
        -9.371436085373784
      ],
      [
        "▁tefes",
        -9.373470833467668
      ],
      [
        "▁partes",
        -9.374432497888375
      ],
      [
        "▁ex",
        -9.378941756398982
      ],
      [
        "▁avais",
        -9.379025160670274
      ],
      [
        "aw",
        -9.379059515686688
      ],
      [
        "▁do",
        -9.379068662896728
      ],
      [
        "▁garabi",
        -9.380258352693483
      ],
      [
        "euse",
        -9.382914265079226
      ],
      [
        "eŋ",
        -9.38370472086622
      ],
      [
        "▁arrivé",
        -9.38919323928699
      ],
      [
        "▁soi",
        -9.391608667643492
      ],
      [
        "▁Saa",
        -9.39169471631237
      ],
      [
        "▁doo",
        -9.392951502168863
      ],
      [
        "▁R",
        -9.392988632000137
      ],
      [
        "▁Ki",
        -9.394774157478242
      ],
      [
        "ès",
        -9.398053110300495
      ],
      [
        "▁cour",
        -9.401191864742637
      ],
      [
        "▁table",
        -9.409553496593976
      ],
      [
        "▁jusqu'au",
        -9.40959321640319
      ],
      [
        "ète",
        -9.409840769828396
      ],
      [
        "▁kee",
        -9.40990689257043
      ],
      [
        "éy",
        -9.416410623095334
      ],
      [
        "▁pris",
        -9.416487758925584
      ],
      [
        "▁froid",
        -9.416519381303253
      ],
      [
        "▁entrai",
        -9.423167556393468
      ],
      [
        "tes",
        -9.425597499795991
      ],
      [
        "▁bol",
        -9.427686364962742
      ],
      [
        "mbaar",
        -9.428449782180813
      ],
      [
        "▁nom",
        -9.429596209548068
      ],
      [
        "réer",
        -9.429723120712332
      ],
      [
        "▁visage",
        -9.430711819106834
      ],
      [
        "▁waxtaan",
        -9.431428859927312
      ],
      [
        "'avez",
        -9.433270480705067
      ],
      [
        "▁bool",
        -9.434194861764022
      ],
      [
        "okk",
        -9.43874945909228
      ],
      [
        "quel",
        -9.439593774964084
      ],
      [
        "▁pou",
        -9.443300746678325
      ],
      [
        "û",
        -9.4457144545784
      ],
      [
        "▁entier",
        -9.445860780803958
      ],
      [
        "▁ét",
        -9.446020856845497
      ],
      [
        "▁dënn",
        -9.44618431196007
      ],
      [
        "▁foo",
        -9.446870852422094
      ],
      [
        "▁tekk",
        -9.446889500782245
      ],
      [
        "▁ton",
        -9.447212704743453
      ],
      [
        "▁palanteer",
        -9.447556778825094
      ],
      [
        "▁ciment",
        -9.447920674787998
      ],
      [
        "▁yegg",
        -9.448542262478126
      ],
      [
        "▁juste",
        -9.448659140914716
      ],
      [
        "▁Sénégal",
        -9.448848404040486
      ],
      [
        "▁drap",
        -9.448943456412543
      ],
      [
        "éjà",
        -9.449018100517666
      ],
      [
        "▁Aujourd'hui",
        -9.449274294933133
      ],
      [
        "▁Biyaafaraa",
        -9.449274294938679
      ],
      [
        "▁wëndéelu",
        -9.449274294946184
      ],
      [
        "▁médicaments",
        -9.449274294983606
      ],
      [
        "▁d'Afrique",
        -9.449274295182926
      ],
      [
        "▁bëj-gànnaar",
        -9.449274295263622
      ],
      [
        "▁yëngu",
        -9.449274295523736
      ],
      [
        "▁savane",
        -9.449274296636098
      ],
      [
        "▁lëndëm",
        -9.449274297195657
      ],
      [
        "▁Senegaal",
        -9.449274307254763
      ],
      [
        "▁sowu-jant",
        -9.449274312717677
      ],
      [
        "▁société",
        -9.449274321752345
      ],
      [
        "▁bànneex",
        -9.44927432816503
      ],
      [
        "▁Jamono",
        -9.449274392802126
      ],
      [
        "▁reconna",
        -9.449274427345882
      ],
      [
        "▁jàmm",
        -9.449274672477321
      ],
      [
        "▁Ainsi",
        -9.449277188626503
      ],
      [
        "▁paaka",
        -9.449278253965225
      ],
      [
        "▁yow",
        -9.449278846997627
      ],
      [
        "▁comport",
        -9.449280255120387
      ],
      [
        "▁lampe",
        -9.449283988539507
      ],
      [
        "▁insectes",
        -9.449284711610852
      ],
      [
        "▁cosaan",
        -9.449289312819594
      ],
      [
        "▁Sérère",
        -9.449291360413271
      ],
      [
        "▁Almaañ",
        -9.449299181401319
      ],
      [
        "▁Déedéet",
        -9.449313431288664
      ],
      [
        "▁l'âge",
        -9.449313861175256
      ],
      [
        "▁chaleur",
        -9.449321198108702
      ],
      [
        "▁naqar",
        -9.449323403571498
      ],
      [
        "▁baraada",
        -9.449356795224592
      ],
      [
        "-t-il",
        -9.449374376133049
      ],
      [
        "▁longtemps",
        -9.449379160230128
      ],
      [
        "▁parfois",
        -9.449393060843976
      ],
      [
        "▁wanag",
        -9.449401743104135
      ],
      [
        "▁Ici",
        -9.449413734360757
      ],
      [
        "▁wow",
        -9.44943808925577
      ],
      [
        "▁gémmiñ",
        -9.449564192712117
      ],
      [
        "▁woowe",
        -9.449570202356465
      ],
      [
        "▁ràbb",
        -9.449658094940826
      ],
      [
        "▁étions",
        -9.449714260216139
      ],
      [
        "▁Toi",
        -9.449773414129167
      ],
      [
        "▁Teewul",
        -9.449824014932831
      ],
      [
        "▁ŋgoon",
        -9.449853504037693
      ],
      [
        "▁jaŋg",
        -9.450079627041436
      ],
      [
        "▁weñ",
        -9.450489740694536
      ],
      [
        "▁nan",
        -9.450557628948278
      ],
      [
        "▁parlé",
        -9.450691078920627
      ],
      [
        "▁sànni",
        -9.450735395963566
      ],
      [
        "▁côte",
        -9.450749853382185
      ],
      [
        "▁alors",
        -9.450844054367654
      ],
      [
        "▁donc",
        -9.450879028922689
      ],
      [
        "▁yar",
        -9.45095270975615
      ],
      [
        "▁Niis",
        -9.451006171508993
      ],
      [
        "▁mar",
        -9.451087917128923
      ],
      [
        "▁booba",
        -9.451903378532469
      ],
      [
        "▁demande",
        -9.451917722728526
      ],
      [
        "▁place",
        -9.452150669105567
      ],
      [
        "▁pourtant",
        -9.452207056766284
      ],
      [
        "▁tukki",
        -9.452222313359833
      ],
      [
        "ëgg",
        -9.45222479534643
      ],
      [
        "▁Doo",
        -9.452411344709112
      ],
      [
        "▁rek",
        -9.452468263805926
      ],
      [
        "▁meubles",
        -9.452749903172556
      ],
      [
        "▁mucc",
        -9.453101923043642
      ],
      [
        "▁ñooñu",
        -9.453299532898088
      ],
      [
        "▁gisaat",
        -9.453729415106638
      ],
      [
        "▁lakk",
        -9.453794277799252
      ],
      [
        "▁ñaan",
        -9.454262767463998
      ],
      [
        "▁objets",
        -9.454428098310775
      ],
      [
        "oom",
        -9.454455660370119
      ],
      [
        "▁Alma",
        -9.454617176560355
      ],
      [
        "▁bula",
        -9.455782753286329
      ],
      [
        "▁lieux",
        -9.455819885759528
      ],
      [
        "▁enfance",
        -9.45605709381055
      ],
      [
        "▁ceci",
        -9.456602929979375
      ],
      [
        "▁Fii",
        -9.457433651203544
      ],
      [
        "nde",
        -9.457538462566648
      ],
      [
        "▁Noon",
        -9.457574883242232
      ],
      [
        "ton",
        -9.458275383559684
      ],
      [
        "▁sew",
        -9.458668370954939
      ],
      [
        "▁fleurs",
        -9.458718535291569
      ],
      [
        "▁alal",
        -9.459587551166486
      ],
      [
        "▁donne",
        -9.45960707915724
      ],
      [
        "▁Tay",
        -9.461092505857913
      ],
      [
        "▁bâtons",
        -9.461133309640982
      ],
      [
        "▁m'en",
        -9.462016794078862
      ],
      [
        "▁fukk",
        -9.464801053413616
      ],
      [
        "▁këram",
        -9.469833542769337
      ],
      [
        "Après",
        -9.471278893429938
      ],
      [
        "▁ra",
        -9.475157761857309
      ],
      [
        "▁viennes",
        -9.47870770004728
      ],
      [
        "▁bees",
        -9.481436779850089
      ],
      [
        "▁serai",
        -9.481837964393852
      ],
      [
        "▁petits",
        -9.482575751919649
      ],
      [
        "▁Nda",
        -9.482889668387934
      ],
      [
        "▁jeunes",
        -9.486347485363444
      ],
      [
        "ter",
        -9.48713082755084
      ],
      [
        "▁waral",
        -9.487565210435063
      ],
      [
        "▁rey",
        -9.487608915071101
      ],
      [
        "▁vas",
        -9.496118627703352
      ],
      [
        "el",
        -9.496141817508002
      ],
      [
        "▁teew",
        -9.504419570173827
      ],
      [
        "es.",
        -9.504930914937422
      ],
      [
        "▁yat",
        -9.505502806922358
      ],
      [
        "▁routes",
        -9.507457386097762
      ],
      [
        "aale",
        -9.508101604832781
      ],
      [
        "ti",
        -9.508563390700994
      ],
      [
        "▁kay",
        -9.510027051254138
      ],
      [
        "een",
        -9.511650273112965
      ],
      [
        "part",
        -9.514369501541807
      ],
      [
        "ëf",
        -9.51621715731098
      ],
      [
        "tendre",
        -9.516432693476101
      ],
      [
        "ou",
        -9.518279652831962
      ],
      [
        "▁dakk",
        -9.52039914188375
      ],
      [
        "▁Ñoo",
        -9.520528437511015
      ],
      [
        "▁fee",
        -9.521007417731315
      ],
      [
        "▁Ya",
        -9.52214643239905
      ],
      [
        "▁sou",
        -9.522476076482995
      ],
      [
        "▁gise",
        -9.522926458584408
      ],
      [
        "▁Ri",
        -9.522927643196375
      ],
      [
        "▁wute",
        -9.523066660587974
      ],
      [
        "pp",
        -9.52559281788658
      ],
      [
        "▁wa",
        -9.528699582133855
      ],
      [
        "▁tas",
        -9.529824916690867
      ],
      [
        "▁bleu",
        -9.530649375651146
      ],
      [
        "aux",
        -9.531823270831712
      ],
      [
        "z",
        -9.53692152563301
      ],
      [
        "▁far",
        -9.538946909225215
      ],
      [
        "▁rêve",
        -9.540247241424414
      ],
      [
        "▁set",
        -9.540951484809222
      ],
      [
        "an",
        -9.542586738758393
      ],
      [
        "▁nature",
        -9.54291874655969
      ],
      [
        "▁j'en",
        -9.545821734199112
      ],
      [
        "▁tool",
        -9.54599110947284
      ],
      [
        "ngi",
        -9.546410089021858
      ],
      [
        "▁elles",
        -9.547409313856253
      ],
      [
        "▁janoo",
        -9.547792006229013
      ],
      [
        "impression",
        -9.547931399364515
      ],
      [
        "▁wan",
        -9.551502267955115
      ],
      [
        "▁tête",
        -9.551561741181152
      ],
      [
        "▁africain",
        -9.552932630800257
      ],
      [
        "dé",
        -9.553238626897905
      ],
      [
        "▁pied",
        -9.555491640974036
      ],
      [
        "▁montagne",
        -9.555594636417851
      ],
      [
        "▁gardé",
        -9.556307883082656
      ],
      [
        "▁Re",
        -9.557478338679402
      ],
      [
        "▁tóo",
        -9.562258080212576
      ],
      [
        "▁v",
        -9.56391544432406
      ],
      [
        "▁guy",
        -9.56406985078172
      ],
      [
        "maana",
        -9.56452204815266
      ],
      [
        "▁nopp",
        -9.564538346370853
      ],
      [
        "▁jën",
        -9.565796035220373
      ],
      [
        "mi",
        -9.568229294205643
      ],
      [
        "▁instant",
        -9.570616704537246
      ],
      [
        "gré",
        -9.571349376951428
      ],
      [
        "▁not",
        -9.57136512626097
      ],
      [
        "▁yilif",
        -9.57187394614822
      ],
      [
        "ax",
        -9.57280258056257
      ],
      [
        "▁Victoria",
        -9.574274294942239
      ],
      [
        "▁L'Afrique",
        -9.57427429494231
      ],
      [
        "▁Léeg-léeg",
        -9.574274294949213
      ],
      [
        "▁kéemaane",
        -9.574274295116528
      ],
      [
        "▁yëngal",
        -9.574274295292843
      ],
      [
        "▁mauvais",
        -9.57427429584171
      ],
      [
        "▁xàmmee",
        -9.574274297925138
      ],
      [
        "▁assurément",
        -9.574274302494393
      ],
      [
        "▁accroché",
        -9.57427430722311
      ],
      [
        "▁ensemble",
        -9.57427430804144
      ],
      [
        "▁pantalon",
        -9.574274446721983
      ],
      [
        "▁Monsieur",
        -9.574274458368006
      ],
      [
        "▁xaalis",
        -9.574274748073568
      ],
      [
        "▁Laobé",
        -9.574274851664462
      ],
      [
        "▁chaussettes",
        -9.574276020694413
      ],
      [
        "▁Legoos",
        -9.57428128414059
      ],
      [
        "▁présent",
        -9.574290494486362
      ],
      [
        "▁janeer",
        -9.574298377258902
      ],
      [
        "▁puissance",
        -9.574300223951997
      ],
      [
        "▁palaat",
        -9.574301649596665
      ],
      [
        "▁keroog",
        -9.574304897847929
      ],
      [
        "▁plein",
        -9.574309235532587
      ],
      [
        "▁Réew",
        -9.574310327494727
      ],
      [
        "▁dernier",
        -9.574314520037557
      ],
      [
        "▁l'amour",
        -9.574331876228397
      ],
      [
        "▁sant",
        -9.574343170528229
      ],
      [
        "▁frontière",
        -9.574356475379975
      ],
      [
        "▁douceur",
        -9.574392552494798
      ],
      [
        "▁colère",
        -9.574431382836558
      ],
      [
        "▁départ",
        -9.574479275743464
      ],
      [
        "▁lonk",
        -9.574564071677559
      ],
      [
        "▁Musaa",
        -9.57461691613986
      ],
      [
        "▁proche",
        -9.574619036242431
      ],
      [
        "▁bouche",
        -9.574624593069831
      ],
      [
        "▁Officer",
        -9.574637181194039
      ],
      [
        "▁Dëkk",
        -9.574687670965671
      ],
      [
        "▁dénd",
        -9.574909149501021
      ],
      [
        "▁fajkat",
        -9.575084682559483
      ],
      [
        "▁Nice",
        -9.57524608739219
      ],
      [
        "▁genn",
        -9.575278027708023
      ],
      [
        "▁bekk",
        -9.57564580116089
      ],
      [
        "▁prend",
        -9.575711134488978
      ],
      [
        "▁goût",
        -9.576090730521669
      ],
      [
        "▁cœur",
        -9.576092010200654
      ],
      [
        "▁Buur",
        -9.576502322807226
      ],
      [
        "▁yëf",
        -9.576531056044928
      ],
      [
        "▁Dañ",
        -9.576596674756484
      ],
      [
        "▁riir",
        -9.576823470097661
      ],
      [
        "▁yenu",
        -9.576840358881721
      ],
      [
        "▁gejje",
        -9.57687679415335
      ],
      [
        "▁l'entr",
        -9.57700680308597
      ],
      [
        "▁Kookule",
        -9.577040065227166
      ],
      [
        "▁Cha",
        -9.577371018778404
      ],
      [
        "▁viennent",
        -9.57844647978208
      ],
      [
        "▁Sunu",
        -9.5786424761152
      ],
      [
        "▁compte",
        -9.578672141768305
      ],
      [
        "▁ndey",
        -9.578922266938294
      ],
      [
        "▁sës",
        -9.579493434235818
      ],
      [
        "▁car",
        -9.580926547964287
      ],
      [
        "▁unique",
        -9.581069801831655
      ],
      [
        "▁mill",
        -9.581079667856091
      ],
      [
        "▁Wu",
        -9.581226684905426
      ],
      [
        "▁regarder",
        -9.581637408741198
      ],
      [
        "istrict",
        -9.581715582661904
      ],
      [
        "▁waxtu",
        -9.581938109129926
      ],
      [
        "▁raay",
        -9.58204560566201
      ],
      [
        "▁boy",
        -9.582912372126778
      ],
      [
        "▁tar",
        -9.583267814234214
      ],
      [
        "umes",
        -9.58380762672142
      ],
      [
        "▁bëggée",
        -9.583915852001725
      ],
      [
        "▁parents",
        -9.584605907245459
      ],
      [
        "▁jaune",
        -9.586685087107686
      ],
      [
        "▁sauvages",
        -9.586732242770438
      ],
      [
        "▁cherche",
        -9.587651315649698
      ],
      [
        "▁six",
        -9.58773468638373
      ],
      [
        "▁t'ai",
        -9.589725368308788
      ],
      [
        "▁êtes",
        -9.590281395515783
      ],
      [
        "▁noms",
        -9.59527660098691
      ],
      [
        "▁waar",
        -9.59745873492714
      ],
      [
        "du",
        -9.599590684428458
      ],
      [
        "as",
        -9.601821225308658
      ],
      [
        "ables",
        -9.602176239555723
      ],
      [
        "▁Nu",
        -9.605117094381168
      ],
      [
        "▁kaas",
        -9.606179976910402
      ],
      [
        "ez-vous",
        -9.607036050023762
      ],
      [
        "▁Woo",
        -9.607376800945161
      ],
      [
        "▁beau",
        -9.608489491383725
      ],
      [
        "▁diis",
        -9.609884500034964
      ],
      [
        "▁Vas",
        -9.613665830365367
      ],
      [
        "▁inter",
        -9.618721901733172
      ],
      [
        "use",
        -9.619842879953733
      ],
      [
        "▁peur",
        -9.620094038119241
      ],
      [
        "▁max",
        -9.621847786678925
      ],
      [
        "▁sor",
        -9.622915011308432
      ],
      [
        "▁Jën",
        -9.627842772060854
      ],
      [
        "▁sokolaa",
        -9.629555088466867
      ],
      [
        "nce",
        -9.630303650651442
      ],
      [
        "▁dalal",
        -9.630905807686805
      ],
      [
        "▁conti",
        -9.631090775379452
      ],
      [
        "cc",
        -9.632607889850402
      ],
      [
        "▁t'en",
        -9.633010833952863
      ],
      [
        "▁raconte",
        -9.633917530131669
      ],
      [
        "▁sonal",
        -9.634268844614228
      ],
      [
        "▁daawu",
        -9.635222843682547
      ],
      [
        "tion",
        -9.636378722053301
      ],
      [
        "▁noire.",
        -9.636842793876001
      ],
      [
        "▁luy",
        -9.638134908260232
      ],
      [
        "ient",
        -9.640661802135426
      ],
      [
        "garde",
        -9.641286321303527
      ],
      [
        "▁loo",
        -9.644134181562487
      ],
      [
        "ble",
        -9.644313905590977
      ],
      [
        "r.",
        -9.645149407841025
      ],
      [
        "▁lesquel",
        -9.649982834671103
      ],
      [
        "▁Tey",
        -9.65385462676582
      ],
      [
        "▁tub",
        -9.65779476831245
      ],
      [
        "kaay",
        -9.6621302534138
      ],
      [
        "▁yii",
        -9.66302844419419
      ],
      [
        "▁tày",
        -9.665811927500915
      ],
      [
        "▁retour",
        -9.670511941766922
      ],
      [
        "kom",
        -9.67149414244327
      ],
      [
        "▁pro",
        -9.673215977213598
      ],
      [
        "▁hu",
        -9.674628819973016
      ],
      [
        "bée",
        -9.677067054407262
      ],
      [
        "ke",
        -9.678403839275017
      ],
      [
        "p",
        -9.678452085844832
      ],
      [
        "▁cee",
        -9.679230551275687
      ],
      [
        "ay",
        -9.683019481431526
      ],
      [
        "oivent",
        -9.684390311099047
      ],
      [
        "▁jur",
        -9.684413867547107
      ],
      [
        "▁siy",
        -9.68486122500638
      ],
      [
        "nn",
        -9.686870127544676
      ],
      [
        "▁ré",
        -9.688552773671859
      ],
      [
        "▁dessin",
        -9.688893220901104
      ],
      [
        "▁në",
        -9.689179056044075
      ],
      [
        "autorité",
        -9.689713383011823
      ],
      [
        "▁met",
        -9.689841362891931
      ],
      [
        "▁gris",
        -9.69420439931879
      ],
      [
        "▁scorpion",
        -9.694589075772962
      ],
      [
        "▁français",
        -9.695971508390716
      ],
      [
        "▁vivre",
        -9.696933657337548
      ],
      [
        "▁Tou",
        -9.697840122934416
      ],
      [
        "ngóor",
        -9.6982272375339
      ],
      [
        "▁nëbb",
        -9.698393674778272
      ],
      [
        "la",
        -9.69966200276688
      ],
      [
        "▁pënd",
        -9.699908643759832
      ],
      [
        "ji",
        -9.701022383963664
      ],
      [
        "▁H",
        -9.70257476304114
      ],
      [
        "▁ñett",
        -9.70887605191841
      ],
      [
        "▁jafe",
        -9.71042401018847
      ],
      [
        "▁muur",
        -9.710629729955022
      ],
      [
        "▁jàkk",
        -9.71257708477047
      ],
      [
        "▁askan",
        -9.713400109668527
      ],
      [
        "▁pom",
        -9.714985969346818
      ],
      [
        "▁simple",
        -9.716490476536586
      ],
      [
        "▁pouvai",
        -9.716694555274184
      ],
      [
        "▁gouvernement",
        -9.717131437805225
      ],
      [
        "▁calebasse",
        -9.717131438303467
      ],
      [
        "▁gàncax",
        -9.71713143946279
      ],
      [
        "▁màndarga",
        -9.717131439572855
      ],
      [
        "▁rëcc",
        -9.717131440172588
      ],
      [
        "▁Óbudu",
        -9.717131443361463
      ],
      [
        "▁solitude",
        -9.717131447987352
      ],
      [
        "▁màrse",
        -9.717131451707383
      ],
      [
        "▁difficile",
        -9.717131455312337
      ],
      [
        "▁Ó",
        -9.717131455371689
      ],
      [
        "▁immense",
        -9.71713145777897
      ],
      [
        "▁Casamance",
        -9.717131459449504
      ],
      [
        "▁âge",
        -9.717131478517977
      ],
      [
        "▁époque",
        -9.717131480001049
      ],
      [
        "▁tôle",
        -9.717131483615992
      ],
      [
        "▁loppitaan",
        -9.717131487978978
      ],
      [
        "▁Liggéey",
        -9.71713149372073
      ],
      [
        "▁reconnu",
        -9.71713149789325
      ],
      [
        "▁bonheur",
        -9.71713152264796
      ],
      [
        "▁premier",
        -9.717131531915312
      ],
      [
        "▁Ayijoo",
        -9.717131550663751
      ],
      [
        "▁boeuf",
        -9.717131577599094
      ],
      [
        "▁sukkuraat",
        -9.717131671767188
      ],
      [
        "▁Yaakaar",
        -9.717131801959024
      ],
      [
        "▁dehors",
        -9.717132025836458
      ],
      [
        "▁visite",
        -9.71713529362988
      ],
      [
        "▁assiette",
        -9.71713537326537
      ],
      [
        "▁yànj",
        -9.71713614000813
      ],
      [
        "▁wurus",
        -9.7171367251622
      ],
      [
        "▁Deŋk",
        -9.717138269813931
      ],
      [
        "▁suukër",
        -9.717141633531673
      ],
      [
        "▁pañe",
        -9.717142695690137
      ],
      [
        "▁bâtiment",
        -9.717148182678631
      ],
      [
        "▁simoŋ",
        -9.717162118096596
      ],
      [
        "▁réalité",
        -9.717164249865727
      ],
      [
        "▁bett",
        -9.717166767594364
      ],
      [
        "▁mourir",
        -9.717174053148787
      ],
      [
        "▁Palais",
        -9.717181157971574
      ],
      [
        "▁dëgër",
        -9.717191188616127
      ],
      [
        "▁woto",
        -9.717191506116038
      ],
      [
        "▁juddoo",
        -9.71719941386606
      ],
      [
        "▁servir",
        -9.717203797184236
      ],
      [
        "▁mbedd",
        -9.717205753875241
      ],
      [
        "▁nelaw",
        -9.717206992063357
      ],
      [
        "▁campement",
        -9.717233867929094
      ],
      [
        "▁d'abord",
        -9.71723711304882
      ],
      [
        "▁croyai",
        -9.717242498130215
      ],
      [
        "▁l'Angleterre",
        -9.717258234925321
      ],
      [
        "▁yeksi",
        -9.717300284244562
      ],
      [
        "▁Fekk",
        -9.717300584356988
      ],
      [
        "▁plateaux",
        -9.717304115179727
      ],
      [
        "▁màndi",
        -9.717315041441763
      ],
      [
        "▁dessus",
        -9.71732422659897
      ],
      [
        "▁xeex",
        -9.71732577950287
      ],
      [
        "▁droit",
        -9.71736102093873
      ],
      [
        "kàlla",
        -9.717445077094423
      ],
      [
        "▁sowu",
        -9.717517219858374
      ],
      [
        "▁wépp",
        -9.717545583603384
      ],
      [
        "uukar",
        -9.717546286928455
      ],
      [
        "▁dajale",
        -9.717636873947033
      ],
      [
        "▁reçu",
        -9.71763734470163
      ],
      [
        "▁raglu",
        -9.71763742264393
      ],
      [
        "-do",
        -9.717869347875792
      ],
      [
        "▁Ayaa",
        -9.717872538007654
      ],
      [
        "odeur",
        -9.717912280113232
      ],
      [
        "▁jeeg",
        -9.717927579751048
      ],
      [
        "▁images",
        -9.71797272625529
      ],
      [
        "▁lëf",
        -9.718019242479937
      ],
      [
        "▁Pël",
        -9.71805255201174
      ],
      [
        "thme",
        -9.718055761249857
      ],
      [
        "▁porteurs",
        -9.718071950121338
      ],
      [
        "▁jàppale",
        -9.718183121979623
      ],
      [
        "ñeen",
        -9.718234768535105
      ],
      [
        "▁më",
        -9.718466775072379
      ],
      [
        "▁moto",
        -9.718539314360441
      ],
      [
        "▁Plu",
        -9.718658731890931
      ],
      [
        "▁ensuite",
        -9.718698232112798
      ],
      [
        "▁sens",
        -9.718766033086121
      ],
      [
        "▁depuis",
        -9.718785693112705
      ],
      [
        "▁couteau",
        -9.718820774017606
      ],
      [
        "▁courant",
        -9.718842911794352
      ],
      [
        "▁propre",
        -9.718854819545816
      ],
      [
        "▁ventre",
        -9.71908857869348
      ],
      [
        "▁woy",
        -9.719127506559424
      ],
      [
        "▁palmes",
        -9.719180752404952
      ],
      [
        "▁vêtu",
        -9.719248561989845
      ],
      [
        "▁termites",
        -9.719414237923033
      ],
      [
        "▁wàll",
        -9.719440595160934
      ],
      [
        "▁nuages",
        -9.719607999453718
      ],
      [
        "▁denc",
        -9.71996994913375
      ],
      [
        "▁Fais",
        -9.720027045052765
      ],
      [
        "▁Parle",
        -9.720036411985452
      ],
      [
        "▁naqadi",
        -9.72003877633834
      ],
      [
        "▁kukk",
        -9.720238663503965
      ],
      [
        "▁tour",
        -9.720270021580603
      ],
      [
        "-je",
        -9.720345147583442
      ],
      [
        "▁laisser",
        -9.72100422565141
      ],
      [
        "▁vais",
        -9.721175872232354
      ],
      [
        "▁vaste",
        -9.721285950597608
      ],
      [
        "▁district",
        -9.721312911179806
      ],
      [
        "▁Foofu",
        -9.721582483574648
      ],
      [
        "▁chaise",
        -9.722066907459876
      ],
      [
        "▁sorti",
        -9.7220999874256
      ],
      [
        "▁seng",
        -9.722112999593799
      ],
      [
        "▁àngale",
        -9.722142034284191
      ],
      [
        "▁d'eux",
        -9.722492305328275
      ],
      [
        "▁danu",
        -9.722643829175055
      ],
      [
        "▁dirait",
        -9.722805083662283
      ],
      [
        "▁xoolee",
        -9.723165579000518
      ],
      [
        "▁chasse",
        -9.723400669907416
      ],
      [
        "▁soppi",
        -9.723959926908835
      ],
      [
        "▁fuir",
        -9.724157093455135
      ],
      [
        "▁cours",
        -9.724354634903857
      ],
      [
        "▁jag",
        -9.725398259412717
      ],
      [
        "▁cru",
        -9.72712288440107
      ],
      [
        "▁ňuul",
        -9.727467044546106
      ],
      [
        "espère",
        -9.728234053892395
      ],
      [
        "▁wane",
        -9.728477238822997
      ],
      [
        "exe",
        -9.72917399796999
      ],
      [
        "▁provi",
        -9.729814354491284
      ],
      [
        "▁jàn",
        -9.730575812843247
      ],
      [
        "▁anglaise",
        -9.731711361641914
      ],
      [
        "▁defare",
        -9.732175069713753
      ],
      [
        "▁mukk",
        -9.732429867430692
      ],
      [
        "▁yaak",
        -9.733556102445412
      ],
      [
        "▁kowam",
        -9.733638362547113
      ],
      [
        "▁chemins",
        -9.735100808928816
      ],
      [
        "▁mbë",
        -9.735333962794726
      ],
      [
        "▁comment",
        -9.735506310836543
      ],
      [
        "lo",
        -9.735632783097289
      ],
      [
        "-mo",
        -9.736001419439283
      ],
      [
        "▁regardes",
        -9.736197740586388
      ],
      [
        "▁coloniale",
        -9.736831619001798
      ],
      [
        "oir",
        -9.737469346665701
      ],
      [
        "▁photos",
        -9.73826760503612
      ],
      [
        "▁française",
        -9.738747927838334
      ],
      [
        "▁ñibbi",
        -9.740966361716865
      ],
      [
        "▁arrivés",
        -9.743272004039131
      ],
      [
        "▁gros",
        -9.745402340331465
      ],
      [
        "▁doxe",
        -9.745724098685363
      ],
      [
        "▁wutal",
        -9.746262581932449
      ],
      [
        "▁crise",
        -9.746270541844716
      ],
      [
        "▁tànki",
        -9.747673141543572
      ],
      [
        "▁Yan",
        -9.749531084581202
      ],
      [
        "▁premières",
        -9.751797953061741
      ],
      [
        "▁refuse",
        -9.752060487332487
      ],
      [
        "▁siiw",
        -9.760187385884402
      ],
      [
        "▁aar",
        -9.7603071490622
      ],
      [
        "▁ñen",
        -9.762017936541765
      ],
      [
        "▁waxoon",
        -9.76293259302597
      ],
      [
        "aay",
        -9.764027803899943
      ],
      [
        "▁bo",
        -9.764880097872645
      ],
      [
        "ns",
        -9.76539123397312
      ],
      [
        "▁all",
        -9.766551579196275
      ],
      [
        "▁lim",
        -9.769290781170064
      ],
      [
        "▁commence",
        -9.77006831287412
      ],
      [
        "▁mari",
        -9.771624392122543
      ],
      [
        "▁saba",
        -9.771795020586463
      ],
      [
        "▁jàngal",
        -9.77222860892127
      ],
      [
        "▁donn",
        -9.776250384565387
      ],
      [
        "sse",
        -9.776561996688761
      ],
      [
        "aanaka",
        -9.778335779831124
      ],
      [
        "ande",
        -9.779939255801228
      ],
      [
        "rie",
        -9.780186416090693
      ],
      [
        "▁ñooña",
        -9.780735774707814
      ],
      [
        "▁ven",
        -9.784802478583352
      ],
      [
        "éeri",
        -9.786329556884485
      ],
      [
        "▁L'un",
        -9.786349127851624
      ],
      [
        "▁arrivée",
        -9.786544257199601
      ],
      [
        "▁parc",
        -9.790337804078803
      ],
      [
        "▁Ji",
        -9.790420293266148
      ],
      [
        "vient",
        -9.791589151432433
      ],
      [
        "▁masuma",
        -9.792587735284549
      ],
      [
        "▁boue",
        -9.793715664302072
      ],
      [
        "ku",
        -9.794944307809669
      ],
      [
        "▁l'avai",
        -9.797675811044265
      ],
      [
        "sait",
        -9.798352517843583
      ],
      [
        "óor",
        -9.798834293063338
      ],
      [
        "▁jo",
        -9.79915597266398
      ],
      [
        "▁ndi",
        -9.800026520718964
      ],
      [
        "tends",
        -9.801025709837052
      ],
      [
        "ni",
        -9.802687390921877
      ],
      [
        "▁taabal",
        -9.803490681370118
      ],
      [
        "▁jànq",
        -9.803675528906936
      ],
      [
        "▁dàq",
        -9.80412507888123
      ],
      [
        "li",
        -9.805117647822433
      ],
      [
        "ches",
        -9.805706072025778
      ],
      [
        "▁kowe",
        -9.807466527030305
      ],
      [
        "▁nak",
        -9.808080481503856
      ],
      [
        "est",
        -9.80830224294026
      ],
      [
        "▁rue",
        -9.808865847672761
      ],
      [
        "▁fall",
        -9.809086415103621
      ],
      [
        "▁No",
        -9.81370465970763
      ],
      [
        "mu",
        -9.81592572235514
      ],
      [
        "▁Jo",
        -9.816507505808817
      ],
      [
        "image",
        -9.81872649937558
      ],
      [
        "▁noire",
        -9.81954208453972
      ],
      [
        "▁nañoo",
        -9.820301420188187
      ],
      [
        "▁kàttan",
        -9.820953450734333
      ],
      [
        "ure",
        -9.82108050480041
      ],
      [
        "-elle",
        -9.821842790169326
      ],
      [
        "▁ressenti",
        -9.822421439282204
      ],
      [
        "ññ",
        -9.822601314038938
      ],
      [
        "niki",
        -9.825807510367776
      ],
      [
        "près",
        -9.827383392180577
      ],
      [
        "sin",
        -9.827622325858698
      ],
      [
        "ool",
        -9.829080703680576
      ],
      [
        "aas",
        -9.829105716472753
      ],
      [
        "▁faite",
        -9.831050072741753
      ],
      [
        "eel",
        -9.831121374851866
      ],
      [
        "▁taal",
        -9.833802974102433
      ],
      [
        "▁xamant",
        -9.838885638128172
      ],
      [
        "ène",
        -9.841823048601231
      ],
      [
        "andoo",
        -9.842883905814427
      ],
      [
        "▁nja",
        -9.842957603018062
      ],
      [
        "ici",
        -9.850295461069846
      ],
      [
        "endant",
        -9.850542130053837
      ],
      [
        "▁Mas",
        -9.852251345798933
      ],
      [
        "▁mb",
        -9.853347041645282
      ],
      [
        "▁tab",
        -9.854279936105243
      ],
      [
        "▁pa",
        -9.855328574109285
      ],
      [
        "▁destin",
        -9.86042610633436
      ],
      [
        "ngui",
        -9.861470218440749
      ],
      [
        "▁Ka",
        -9.861700652041616
      ],
      [
        "▁fenêtre",
        -9.862276231475624
      ],
      [
        "▁d'autre",
        -9.863055673612978
      ],
      [
        "▁l'ét",
        -9.863599674272498
      ],
      [
        "▁colonial",
        -9.863683651853735
      ],
      [
        "▁coupé",
        -9.863844409165933
      ],
      [
        "▁chef",
        -9.86396779914148
      ],
      [
        "▁maladie",
        -9.864376342542316
      ],
      [
        "▁duma",
        -9.864767097145952
      ],
      [
        "▁chemin",
        -9.8654618461026
      ],
      [
        "▁habit",
        -9.86643162415076
      ],
      [
        "▁anglais",
        -9.866849266881392
      ],
      [
        "ar",
        -9.867012360719292
      ],
      [
        "▁étranger",
        -9.867519568446573
      ],
      [
        "'individu",
        -9.868760163116336
      ],
      [
        "ŋŋ",
        -9.870326022687161
      ],
      [
        "▁regarde",
        -9.871267583919886
      ],
      [
        "▁juróom",
        -9.874167966002329
      ],
      [
        "x-ci",
        -9.875216401935107
      ],
      [
        "▁xob",
        -9.875895391843738
      ],
      [
        "▁sago",
        -9.876094852993031
      ],
      [
        "▁sopp",
        -9.87625869644493
      ],
      [
        "▁bir",
        -9.877198993116338
      ],
      [
        "▁suñ",
        -9.87784413798229
      ],
      [
        "▁V",
        -9.877885130192166
      ],
      [
        "bu",
        -9.8786041959034
      ],
      [
        "▁frapp",
        -9.882010062470332
      ],
      [
        "▁aime",
        -9.882220479190378
      ],
      [
        "▁tiit",
        -9.882436254556568
      ],
      [
        "▁féex",
        -9.882615846695145
      ],
      [
        "añse",
        -9.882720391914331
      ],
      [
        "▁chapeau",
        -9.883057740803688
      ],
      [
        "errière",
        -9.88318313856578
      ],
      [
        "▁mbind",
        -9.883772641388127
      ],
      [
        "8",
        -9.88377532640588
      ],
      [
        "▁accompagné",
        -9.883798104466065
      ],
      [
        "▁Wiktoryaa",
        -9.883798104466075
      ],
      [
        "▁auparavant",
        -9.883798104471433
      ],
      [
        "▁dëggëntaan",
        -9.883798104495714
      ],
      [
        "▁petorool",
        -9.883798104501562
      ],
      [
        "▁Mellentaan",
        -9.883798104830289
      ],
      [
        "▁territoire",
        -9.88379810680312
      ],
      [
        "▁dóomu-taal",
        -9.883798109571893
      ],
      [
        "▁dëgg-dëgg",
        -9.883798111316521
      ],
      [
        "▁règle",
        -9.883798112661037
      ],
      [
        "▁officer",
        -9.883798114504511
      ],
      [
        "▁rideau",
        -9.883798118754598
      ],
      [
        "▁l'époque",
        -9.883798122938966
      ],
      [
        "▁ngëlén",
        -9.883798123086597
      ],
      [
        "▁ponkal",
        -9.88379813273319
      ],
      [
        "▁jaxasoo",
        -9.883798140802725
      ],
      [
        "▁chemise",
        -9.88379819772938
      ],
      [
        "▁coiff",
        -9.883798240988657
      ],
      [
        "▁veulent",
        -9.883798439560461
      ],
      [
        "▁tàmm",
        -9.88379847226613
      ],
      [
        "▁chacun",
        -9.883798517511103
      ],
      [
        "▁caaxaan",
        -9.883798647710949
      ],
      [
        "▁rêvé",
        -9.883798738680175
      ],
      [
        "▁désert",
        -9.883798775808106
      ],
      [
        "▁adulte",
        -9.883798974231393
      ],
      [
        "▁vingt",
        -9.883799240234273
      ],
      [
        "▁000",
        -9.883799344847883
      ],
      [
        "▁Waxtaan",
        -9.88380015959686
      ],
      [
        "▁ressens",
        -9.88380125200121
      ],
      [
        "▁féete",
        -9.883801862188834
      ],
      [
        "▁Africains",
        -9.883802612590236
      ],
      [
        "▁xibaar",
        -9.883803210642325
      ],
      [
        "▁Génn",
        -9.883803681275301
      ],
      [
        "▁Lagos",
        -9.883804156561396
      ],
      [
        "▁d'autrefois",
        -9.883804350927553
      ],
      [
        "▁contact",
        -9.883810522336365
      ],
      [
        "▁jékkee-j",
        -9.883813283852803
      ],
      [
        "▁njël",
        -9.883813783599376
      ],
      [
        "▁Wolof",
        -9.883813996359493
      ],
      [
        "▁lonet",
        -9.883814574434847
      ],
      [
        "▁construction",
        -9.883816208067351
      ],
      [
        "▁fetal",
        -9.88381681246468
      ],
      [
        "▁vérité",
        -9.883817476906298
      ],
      [
        "▁commun",
        -9.883818292595516
      ],
      [
        "▁égale",
        -9.883819625284477
      ],
      [
        "▁séq",
        -9.88382121988758
      ],
      [
        "▁domaine",
        -9.883832175091683
      ],
      [
        "▁cheveux",
        -9.883835097590818
      ],
      [
        "▁jumtukaay",
        -9.883839380541284
      ],
      [
        "▁peinture",
        -9.883847353723569
      ],
      [
        "▁werante",
        -9.883861883729377
      ],
      [
        "▁léeb",
        -9.88387814034154
      ],
      [
        "▁début",
        -9.88388576165252
      ],
      [
        "▁mbokk",
        -9.883901491723675
      ],
      [
        "▁sotti",
        -9.883914201223822
      ],
      [
        "▁j'imagine",
        -9.883920420463818
      ],
      [
        "▁Port",
        -9.883947444096828
      ],
      [
        "▁gox",
        -9.883954680547413
      ],
      [
        "▁cofeel",
        -9.883962167696225
      ],
      [
        "▁Donne",
        -9.883977810850448
      ],
      [
        "▁jabar",
        -9.88397926656814
      ],
      [
        "▁légère",
        -9.883984890132385
      ],
      [
        "▁d'esprit",
        -9.883992503181995
      ],
      [
        "▁wéet",
        -9.88402117586183
      ],
      [
        "existe",
        -9.8840677669605
      ],
      [
        "▁sëkk",
        -9.884114576613996
      ],
      [
        "▁courir",
        -9.884162956494727
      ],
      [
        "▁chocolatée",
        -9.884184501048392
      ],
      [
        "▁meňň",
        -9.88420386244599
      ],
      [
        "▁Tugël",
        -9.884314917483795
      ],
      [
        "▁partout",
        -9.884343467662095
      ],
      [
        "▁taamu",
        -9.884371433980814
      ],
      [
        "▁njabootam",
        -9.884409361534336
      ],
      [
        "▁seetaan",
        -9.88449210838681
      ],
      [
        "▁gunge",
        -9.884501352605549
      ],
      [
        "▁journée",
        -9.884604673027509
      ],
      [
        "▁malade",
        -9.884631953437845
      ],
      [
        "▁Aro",
        -9.884682783948533
      ],
      [
        "▁certainement",
        -9.884735071840218
      ],
      [
        "▁kawas",
        -9.884751610722859
      ],
      [
        "▁baaraam",
        -9.884784258759925
      ],
      [
        "▁revenir",
        -9.884844452637287
      ],
      [
        "▁connaissent",
        -9.884906693300112
      ],
      [
        "▁coucher",
        -9.884934351488214
      ],
      [
        "▁l'aventure",
        -9.884968674553154
      ],
      [
        "▁jouer",
        -9.88500963606976
      ],
      [
        "▁brousse",
        -9.885122053708258
      ],
      [
        "▁tàngaay",
        -9.885158712606707
      ],
      [
        "▁tata",
        -9.885166322333136
      ],
      [
        "▁mangé",
        -9.885169036591178
      ],
      [
        "lon",
        -9.885233739059178
      ],
      [
        "▁taaru",
        -9.885480832293746
      ],
      [
        "▁néew",
        -9.885615701226351
      ],
      [
        "▁taw",
        -9.885630968451329
      ],
      [
        "▁ñor",
        -9.88570959756612
      ],
      [
        "▁comprends",
        -9.885727916972083
      ],
      [
        "▁travailleurs",
        -9.885780851515547
      ],
      [
        "▁déet",
        -9.885846237042452
      ],
      [
        "▁écrit",
        -9.885921363040396
      ],
      [
        "▁habitants",
        -9.886029540192931
      ],
      [
        "▁tolloo",
        -9.886169997903796
      ],
      [
        "▁démb",
        -9.8862908324175
      ],
      [
        "▁Obudu",
        -9.886331664728655
      ],
      [
        "▁histoire",
        -9.88633379522495
      ],
      [
        "▁agsi",
        -9.886337201456978
      ],
      [
        "▁thé",
        -9.886427227718569
      ],
      [
        "▁soosu",
        -9.886441717124066
      ],
      [
        "▁ñaxtu",
        -9.886667864809652
      ],
      [
        "▁arrêté",
        -9.886957702849644
      ],
      [
        "▁fût",
        -9.887015274785153
      ],
      [
        "bi",
        -9.88702250082426
      ],
      [
        "▁juum",
        -9.88729502917615
      ],
      [
        "▁tontu",
        -9.887326093272463
      ],
      [
        "▁yéene",
        -9.887326790883805
      ],
      [
        "▁tàngal",
        -9.88758968394226
      ],
      [
        "▁autre-là",
        -9.887678852939963
      ],
      [
        "▁yéemu",
        -9.887730928290644
      ],
      [
        "▁sanc",
        -9.888067616306301
      ],
      [
        "▁Se",
        -9.88866797442807
      ],
      [
        "▁At",
        -9.888859618492233
      ],
      [
        "▁kafe",
        -9.888878667338231
      ],
      [
        "▁Quelque",
        -9.88964600807374
      ],
      [
        "▁Kor",
        -9.889924234217169
      ],
      [
        "▁doonkoon",
        -9.89030965937877
      ],
      [
        "▁wor",
        -9.890437146335488
      ],
      [
        "▁humaine",
        -9.891204627524324
      ],
      [
        "ières",
        -9.89143801990073
      ],
      [
        "▁juróomi",
        -9.891455847228707
      ],
      [
        "▁africaine",
        -9.891688243573153
      ],
      [
        "▁Bunt",
        -9.891691306616082
      ],
      [
        "▁certaine",
        -9.892129320078327
      ],
      [
        "▁jotee",
        -9.892914906048786
      ],
      [
        "▁Ver",
        -9.892981153287717
      ],
      [
        "▁Dañu",
        -9.8932404679421
      ],
      [
        "▁Mag",
        -9.893768898327686
      ],
      [
        "▁policiers",
        -9.893852922065323
      ],
      [
        "▁masques",
        -9.893942686663824
      ],
      [
        "ll",
        -9.895208731027388
      ],
      [
        "▁jambes",
        -9.895286529320542
      ],
      [
        "▁dawal",
        -9.895930519669749
      ],
      [
        "▁souffle",
        -9.896286100434702
      ],
      [
        "▁darab",
        -9.897046653837242
      ],
      [
        "▁rage",
        -9.897166122627224
      ],
      [
        "▁wetam",
        -9.897357266772222
      ],
      [
        "▁Nko",
        -9.898320716159178
      ],
      [
        "▁dikk",
        -9.899805304016532
      ],
      [
        "▁aurais",
        -9.900916202032828
      ],
      [
        "▁surga",
        -9.900970750547252
      ],
      [
        "éel",
        -9.901387586704882
      ],
      [
        "▁reer",
        -9.902051070747063
      ],
      [
        "▁serais",
        -9.902573410208362
      ],
      [
        "▁bes",
        -9.902813799811868
      ],
      [
        "▁àpp",
        -9.902900046615489
      ],
      [
        "▁tekki",
        -9.903178720322302
      ],
      [
        "▁jaam",
        -9.903671050438886
      ],
      [
        "▁naissance",
        -9.90379878364731
      ],
      [
        "▁Ja",
        -9.904802277730496
      ],
      [
        "▁Ñe",
        -9.905246233893589
      ],
      [
        "▁xet",
        -9.90536890840679
      ],
      [
        "▁buum",
        -9.90538561909091
      ],
      [
        "▁passer",
        -9.905560850099999
      ],
      [
        "▁fenêtres",
        -9.90590257045555
      ],
      [
        "▁charge",
        -9.906140425686822
      ],
      [
        "▁viens",
        -9.907432763679587
      ],
      [
        "▁yax",
        -9.90746300553726
      ],
      [
        "tions",
        -9.907686263914933
      ],
      [
        "▁haute",
        -9.908010221113818
      ],
      [
        "▁amen",
        -9.908704644836375
      ],
      [
        "▁ouverte",
        -9.90893006683765
      ],
      [
        "▁tours",
        -9.909928146875677
      ],
      [
        "▁Ngi",
        -9.911159000363858
      ],
      [
        "▁woowu",
        -9.912135410329343
      ],
      [
        "▁dois",
        -9.912732290901024
      ],
      [
        "▁souhaite",
        -9.91295691080197
      ],
      [
        "▁visages",
        -9.913138882743525
      ],
      [
        "▁yeew",
        -9.913443629348594
      ],
      [
        "▁soup",
        -9.913492172151187
      ],
      [
        "▁taxu",
        -9.913750657868945
      ],
      [
        "▁traverse",
        -9.914225431737485
      ],
      [
        "ok",
        -9.91446667042447
      ],
      [
        "éri",
        -9.914484683193734
      ],
      [
        "▁tableau",
        -9.915930852595174
      ],
      [
        "▁daanu",
        -9.916406204482874
      ],
      [
        "▁ser",
        -9.917104452981519
      ],
      [
        "▁nguur",
        -9.918322548287923
      ],
      [
        "▁coono",
        -9.918813138105865
      ],
      [
        "waan",
        -9.920235466426309
      ],
      [
        "▁àtte",
        -9.921460319539985
      ],
      [
        "▁pis",
        -9.921682844007874
      ],
      [
        "▁pos",
        -9.922430220596915
      ],
      [
        "unu",
        -9.924536196716735
      ],
      [
        "pe",
        -9.924805820322954
      ],
      [
        "▁Dana",
        -9.926689421517212
      ],
      [
        "u-ñax",
        -9.927900654365049
      ],
      [
        "▁Mar",
        -9.928293565711837
      ],
      [
        "▁coups",
        -9.929775621923326
      ],
      [
        "▁Dis",
        -9.93154706499386
      ],
      [
        "▁Yara",
        -9.931988912385304
      ],
      [
        "▁ti",
        -9.932255155002679
      ],
      [
        "▁melo",
        -9.933720378615789
      ],
      [
        "eelu",
        -9.933905625947848
      ],
      [
        "hoisi",
        -9.938306646475256
      ],
      [
        "aatu",
        -9.941037095704791
      ],
      [
        "▁wàcce",
        -9.941310943381772
      ],
      [
        "▁cherch",
        -9.942004217076738
      ],
      [
        "▁rivières",
        -9.94505785566629
      ],
      [
        "rends",
        -9.946849044441226
      ],
      [
        "▁Bii",
        -9.947940428388524
      ],
      [
        "entiers",
        -9.947944203783614
      ],
      [
        "▁waxe",
        -9.948935768129575
      ],
      [
        "▁dinaa",
        -9.950323533429502
      ],
      [
        "▁Leur",
        -9.956902057817063
      ],
      [
        "▁jar",
        -9.95936048232237
      ],
      [
        "habitude",
        -9.959770009761975
      ],
      [
        "▁Xe",
        -9.960861454787116
      ],
      [
        "▁ha",
        -9.961233591710437
      ],
      [
        "▁ressentir",
        -9.961710707363034
      ],
      [
        "▁w",
        -9.963024105962203
      ],
      [
        "▁sain",
        -9.963653918081317
      ],
      [
        "ire",
        -9.965697093184206
      ],
      [
        "▁soxna",
        -9.972349944750995
      ],
      [
        "▁Vie",
        -9.973885058439397
      ],
      [
        "ependant",
        -9.975506657394584
      ],
      [
        "▁Afrigam",
        -9.976095020391195
      ],
      [
        "ages",
        -9.97671217596808
      ],
      [
        "tal",
        -9.977266340564988
      ],
      [
        "▁quelles",
        -9.977653624570902
      ],
      [
        "▁Gan",
        -9.979237156276008
      ],
      [
        "▁donner",
        -9.981920431973737
      ],
      [
        "▁batt",
        -9.982619319037598
      ],
      [
        "ama",
        -9.984282535185129
      ],
      [
        "galu",
        -9.985191016533282
      ],
      [
        "▁rouges",
        -9.985685658202561
      ],
      [
        "▁anim",
        -9.986521071489847
      ],
      [
        "▁chang",
        -9.98686669901829
      ],
      [
        "jaa",
        -9.989057639771811
      ],
      [
        "ré",
        -9.992875079146113
      ],
      [
        "tt",
        -9.994877284099154
      ],
      [
        "▁Ar",
        -9.99558955387531
      ],
      [
        "▁cinq",
        -9.996547062386455
      ],
      [
        "our",
        -9.996638046931496
      ],
      [
        "▁sokolaa.",
        -9.998151295505533
      ],
      [
        "▁daje",
        -9.998248290607254
      ],
      [
        "eef",
        -9.999297071055954
      ],
      [
        "▁individu",
        -9.999376827008387
      ],
      [
        "uni",
        -10.000983334072487
      ],
      [
        "'habitude",
        -10.001423291120672
      ],
      [
        "▁alla",
        -10.00599089149586
      ],
      [
        "▁kë",
        -10.00617869519357
      ],
      [
        "elle",
        -10.012483454242478
      ],
      [
        "▁dun",
        -10.018319989620329
      ],
      [
        "▁qua",
        -10.019801042094016
      ],
      [
        "▁goog",
        -10.020643060065684
      ],
      [
        "ssent",
        -10.022239084653156
      ],
      [
        "▁clair",
        -10.022492616127643
      ],
      [
        "avais",
        -10.023333781153752
      ],
      [
        "▁devenu",
        -10.024434531709588
      ],
      [
        "ard",
        -10.02478634751548
      ],
      [
        "▁suiv",
        -10.024815539555561
      ],
      [
        "▁h",
        -10.025153391069455
      ],
      [
        "▁nag.",
        -10.026426275118155
      ],
      [
        "▁prêt",
        -10.032008745624186
      ],
      [
        "wuñu",
        -10.033055430973858
      ],
      [
        "▁utilise",
        -10.033285390921199
      ],
      [
        "tation",
        -10.034166605751707
      ],
      [
        "instant",
        -10.034495546586232
      ],
      [
        "▁Aw",
        -10.035779281017568
      ],
      [
        "▁tee",
        -10.039007416535213
      ],
      [
        "▁Abo",
        -10.039997225544159
      ],
      [
        "▁maître",
        -10.04067281485013
      ],
      [
        "▁jou",
        -10.04155461283177
      ],
      [
        "t-ce",
        -10.04247882491737
      ],
      [
        "▁nguuru",
        -10.043214756158374
      ],
      [
        "▁d'or",
        -10.04382671985973
      ],
      [
        "▁liggéeye",
        -10.044059035727084
      ],
      [
        "gé",
        -10.045379584697342
      ],
      [
        "▁ressembl",
        -10.046129194537555
      ],
      [
        "qu'un",
        -10.047015505428943
      ],
      [
        "▁champ",
        -10.049216295630323
      ],
      [
        "▁neex.",
        -10.049476355795468
      ],
      [
        "▁couvert",
        -10.049593134672968
      ],
      [
        "▁bë",
        -10.050618454252245
      ],
      [
        "ch",
        -10.054095192989603
      ],
      [
        "celle",
        -10.057004661707147
      ],
      [
        "▁ñeme",
        -10.059810237746163
      ],
      [
        "▁sec",
        -10.060210935215297
      ],
      [
        "▁digg",
        -10.060266082745176
      ],
      [
        "ndax",
        -10.061188438698164
      ],
      [
        "▁sûr",
        -10.061283388454614
      ],
      [
        "ver",
        -10.061566791135293
      ],
      [
        "▁bâton",
        -10.061845924848388
      ],
      [
        "cteur",
        -10.062674299849846
      ],
      [
        "▁affaire",
        -10.063305445925916
      ],
      [
        "▁sauvage",
        -10.063424799257799
      ],
      [
        "▁voiture",
        -10.063796321763906
      ],
      [
        "▁éclat",
        -10.063914705243153
      ],
      [
        "▁pierre",
        -10.06438985547022
      ],
      [
        "▁ñaa",
        -10.06481555869485
      ],
      [
        "▁fit",
        -10.064869981154086
      ],
      [
        "▁différent",
        -10.065775136811467
      ],
      [
        "▁chaud",
        -10.066112091046008
      ],
      [
        "▁I",
        -10.067758386637287
      ],
      [
        "▁mba",
        -10.068079870643189
      ],
      [
        "vec",
        -10.068841317548648
      ],
      [
        "▁Daŋg",
        -10.069215527100063
      ],
      [
        "▁joli",
        -10.069961835810616
      ],
      [
        "▁entendu",
        -10.071116195796346
      ],
      [
        "waa",
        -10.071491065628468
      ],
      [
        "▁fort",
        -10.072952767270811
      ],
      [
        "ndait",
        -10.074639239886988
      ],
      [
        "mes",
        -10.075298106127802
      ],
      [
        "▁Luga",
        -10.07559050435281
      ],
      [
        "▁tir",
        -10.076322253834473
      ],
      [
        "▁taax",
        -10.077345430336228
      ],
      [
        "-y",
        -10.077445116716795
      ],
      [
        "▁làq",
        -10.079390742409055
      ],
      [
        "▁im",
        -10.079516213115907
      ],
      [
        "roule",
        -10.079594072970016
      ],
      [
        "▁fey",
        -10.07969104575616
      ],
      [
        "▁Néeg",
        -10.08061100950096
      ],
      [
        "aayu",
        -10.08111791871247
      ],
      [
        "'imagine",
        -10.081793283455436
      ],
      [
        "veille",
        -10.0818581145445
      ],
      [
        "▁trente",
        -10.082434754809059
      ],
      [
        "ï",
        -10.083325802867096
      ],
      [
        "ersonne",
        -10.083452770368627
      ],
      [
        "0",
        -10.083702066157603
      ],
      [
        "▁douce",
        -10.083780704961168
      ],
      [
        "▁camerounais",
        -10.083798104466053
      ],
      [
        "▁ustensile",
        -10.083798104467064
      ],
      [
        "▁Adekunle",
        -10.083798104468096
      ],
      [
        "▁Georgetown",
        -10.083798104470603
      ],
      [
        "▁Sefiriis",
        -10.083798104472294
      ],
      [
        "▁bûcheron",
        -10.083798104477458
      ],
      [
        "▁njàqare",
        -10.083798104500538
      ],
      [
        "”",
        -10.083798104506007
      ],
      [
        "Ç",
        -10.083798104506007
      ],
      [
        "▁Southampton",
        -10.083798104506007
      ],
      [
        "▁retrouve",
        -10.083798104760211
      ],
      [
        "▁Biafra",
        -10.08379810541092
      ],
      [
        "▁biafrais",
        -10.083798105907771
      ],
      [
        "▁Abaakaliki",
        -10.083798107395115
      ],
      [
        "▁termitières",
        -10.083798108389853
      ],
      [
        "▁après-midi",
        -10.083798112018446
      ],
      [
        "▁alkaati",
        -10.083798114987443
      ],
      [
        "▁Yoruba",
        -10.083798117531602
      ],
      [
        "▁allemande",
        -10.083798118550314
      ],
      [
        "▁tronc",
        -10.083798132242208
      ],
      [
        "▁“",
        -10.083798138834627
      ],
      [
        "▁Anglais",
        -10.083798145886021
      ],
      [
        "▁grand-père",
        -10.083798150510823
      ],
      [
        "▁mosquée",
        -10.083798173027914
      ],
      [
        "▁photographi",
        -10.08379822222549
      ],
      [
        "▁alkol",
        -10.083798223978759
      ],
      [
        "▁Cross",
        -10.083798229256306
      ],
      [
        "'occupa",
        -10.08379827041788
      ],
      [
        "▁mélang",
        -10.08379838191472
      ],
      [
        "angoisse",
        -10.083798412091376
      ],
      [
        "▁besoin",
        -10.083798483284557
      ],
      [
        "▁kalaate",
        -10.083799230886338
      ],
      [
        "▁terrible",
        -10.08379928032423
      ],
      [
        "▁L'enfant",
        -10.083799467451467
      ],
      [
        "▁sàndarm",
        -10.083799518102488
      ],
      [
        "▁l'entoure",
        -10.083799717229201
      ],
      [
        "▁Sorstaawun",
        -10.083800030498042
      ],
      [
        "▁zinc",
        -10.083800273193722
      ],
      [
        "▁probable",
        -10.083801271154972
      ],
      [
        "▁Salut",
        -10.08380164091835
      ],
      [
        "▁Moontin",
        -10.083802129764488
      ],
      [
        "▁gentil",
        -10.083802165662165
      ],
      [
        "▁xaaju",
        -10.083803045454875
      ],
      [
        "▁métier",
        -10.08380382210491
      ],
      [
        "▁branche",
        -10.083804377005581
      ],
      [
        "▁collines",
        -10.083804681542922
      ],
      [
        "▁d'arbres",
        -10.083804903943749
      ],
      [
        "▁service",
        -10.083805861454332
      ],
      [
        "▁rejoindre",
        -10.08380665096062
      ],
      [
        "▁Aiya",
        -10.083807084218526
      ],
      [
        "▁compris",
        -10.083807850473269
      ],
      [
        "▁poussière",
        -10.08380795786829
      ],
      [
        "▁ndànk",
        -10.083808409153054
      ],
      [
        "▁ndóol",
        -10.083810976781509
      ],
      [
        "▁douche",
        -10.083811344014869
      ],
      [
        "▁fecc",
        -10.083815537515768
      ],
      [
        "▁brûlure",
        -10.083815638056203
      ],
      [
        "▁bërëb",
        -10.083824477865546
      ],
      [
        "▁nàññ",
        -10.083824601994202
      ],
      [
        "▁yàlla",
        -10.083825741794747
      ],
      [
        "▁fauve",
        -10.083826222311247
      ],
      [
        "▁resté",
        -10.083826633572057
      ],
      [
        "▁Guddi",
        -10.083827966380259
      ],
      [
        "▁karaw",
        -10.083828260207763
      ],
      [
        "▁retraite",
        -10.083828915174625
      ],
      [
        "▁gànnaay",
        -10.083829542323516
      ],
      [
        "▁ndigg",
        -10.083834144918992
      ],
      [
        "▁apporté",
        -10.083836576070494
      ],
      [
        "▁noyyi",
        -10.083836931689234
      ],
      [
        "▁rares",
        -10.083847096546645
      ],
      [
        "▁doxantu",
        -10.083848245384287
      ],
      [
        "▁gannaaw",
        -10.083848452538886
      ],
      [
        "▁j'étais",
        -10.083852502917864
      ],
      [
        "▁continent",
        -10.083853186397343
      ],
      [
        "▁ëmb",
        -10.0838563077372
      ],
      [
        "▁këll",
        -10.083857030101973
      ],
      [
        "▁ondul",
        -10.083868676223329
      ],
      [
        "▁connaissais",
        -10.083883838963782
      ],
      [
        "▁Qu'est-ce",
        -10.083889570330124
      ],
      [
        "▁way-",
        -10.083893048114742
      ],
      [
        "▁soppiku",
        -10.083928023057222
      ],
      [
        "science",
        -10.083935258452078
      ],
      [
        "▁fowukaay",
        -10.08394638239212
      ],
      [
        "▁taille",
        -10.083946625955216
      ],
      [
        "▁mbégte",
        -10.083949497263598
      ],
      [
        "nore",
        -10.083966968324074
      ],
      [
        "▁làquji",
        -10.083977361507298
      ],
      [
        "▁delsi",
        -10.083986933671104
      ],
      [
        "▁maintenant",
        -10.083996299938569
      ],
      [
        "▁avance",
        -10.083997239098153
      ],
      [
        "▁tap",
        -10.08400040044481
      ],
      [
        "▁ndab",
        -10.084058527341208
      ],
      [
        "▁xaj",
        -10.08406499779502
      ],
      [
        "▁fitna",
        -10.08407026358773
      ],
      [
        "▁l'argent",
        -10.084071387235308
      ],
      [
        "▁oncle",
        -10.084091372551914
      ],
      [
        "▁awsa",
        -10.084106597221725
      ],
      [
        "▁courage",
        -10.084143317157084
      ],
      [
        "▁dirigeant",
        -10.084145761623226
      ],
      [
        "-tiir",
        -10.084148760552836
      ],
      [
        "▁cercl",
        -10.0842235337727
      ],
      [
        "▁juddu",
        -10.084266800972665
      ],
      [
        "▁simis",
        -10.084285745166696
      ],
      [
        "▁Pourtant",
        -10.084314428446495
      ],
      [
        "▁raxas",
        -10.084329818747271
      ],
      [
        "▁d'eau",
        -10.084379032923781
      ],
      [
        "▁sàcc",
        -10.084448870608862
      ],
      [
        "▁dékku",
        -10.084500067753961
      ],
      [
        "▁tiis",
        -10.084521373885536
      ],
      [
        "▁hutte",
        -10.084562385462746
      ],
      [
        "▁ŋgoogule",
        -10.084586025327312
      ],
      [
        "▁lui-même",
        -10.084587503132662
      ],
      [
        "▁jàppukaay",
        -10.084650801239412
      ],
      [
        "▁puj",
        -10.08466005025722
      ],
      [
        "▁gàddaay",
        -10.084687279963976
      ],
      [
        "▁jaa",
        -10.08483501661384
      ],
      [
        "▁yàpp",
        -10.084900814341738
      ],
      [
        "▁rire",
        -10.084908190168514
      ],
      [
        "▁assez",
        -10.08502916770282
      ],
      [
        "▁Ñooñu",
        -10.08507541835191
      ],
      [
        "▁brave",
        -10.085165670036911
      ],
      [
        "▁cacher",
        -10.085189775322132
      ],
      [
        "▁vivant",
        -10.085213456009136
      ],
      [
        "▁xur",
        -10.085283939502615
      ],
      [
        "▁mbaxana",
        -10.0853765727036
      ],
      [
        "▁wér",
        -10.085401070883282
      ],
      [
        "▁parole",
        -10.085409245097786
      ],
      [
        "tin",
        -10.08544635343353
      ],
      [
        "▁J'en",
        -10.085669354568239
      ],
      [
        "▁voulu",
        -10.085977703570734
      ],
      [
        "▁sensation",
        -10.086103703948648
      ],
      [
        "▁volets",
        -10.086145497869742
      ],
      [
        "▁exemple",
        -10.086188400638934
      ],
      [
        "▁armes",
        -10.086244467258169
      ],
      [
        "▁melax",
        -10.08637343922641
      ],
      [
        "▁Ñaar",
        -10.086408583431357
      ],
      [
        "▁daawul",
        -10.086528635267044
      ],
      [
        "koo",
        -10.086746214602494
      ],
      [
        "▁doomi-",
        -10.086763947653465
      ],
      [
        "▁vide",
        -10.086789906346223
      ],
      [
        "▁fortune",
        -10.08691601813593
      ],
      [
        "▁rappelle",
        -10.086916500606735
      ],
      [
        "▁njort",
        -10.0870091994181
      ],
      [
        "▁kookee",
        -10.087039266248922
      ],
      [
        "▁Garab",
        -10.087130644635819
      ],
      [
        "▁tawat",
        -10.08714646922772
      ],
      [
        "▁sommet",
        -10.08738718747949
      ],
      [
        "▁jaaxa",
        -10.08740874123241
      ],
      [
        "▁daaneel",
        -10.087519787220154
      ],
      [
        "▁bleue",
        -10.087730971176251
      ],
      [
        "▁casque",
        -10.087740857951047
      ],
      [
        "▁wóolu",
        -10.08781347236361
      ],
      [
        "waale",
        -10.088110461687307
      ],
      [
        "▁hamacs",
        -10.088118189201914
      ],
      [
        "▁vertes",
        -10.088129739991984
      ],
      [
        "▁rencontrer",
        -10.088192577295839
      ],
      [
        "▁monter",
        -10.088243878234493
      ],
      [
        "▁pince",
        -10.088508647824932
      ],
      [
        "▁rive",
        -10.088521652703916
      ],
      [
        "▁sombre",
        -10.0885811543417
      ],
      [
        "▁recherche",
        -10.088605152158536
      ],
      [
        "▁somme",
        -10.089031843713974
      ],
      [
        "▁panier",
        -10.089085460742343
      ],
      [
        "▁revienne",
        -10.0892503996395
      ],
      [
        "▁nijaay",
        -10.089525999652453
      ],
      [
        "obul",
        -10.089639499577059
      ],
      [
        "▁(ce",
        -10.089729764426782
      ],
      [
        "▁màgge",
        -10.08983675705043
      ],
      [
        "lé",
        -10.089856371947597
      ],
      [
        "▁marchent",
        -10.090114745517354
      ],
      [
        "▁naaxi",
        -10.090215004403815
      ],
      [
        "▁jooy",
        -10.090241132232663
      ],
      [
        "ka",
        -10.09032978692838
      ],
      [
        "▁làqu",
        -10.090375461710662
      ],
      [
        "▁ňi",
        -10.090474835993488
      ],
      [
        "▁pareil",
        -10.090587968388334
      ],
      [
        "▁dàtt",
        -10.090764528632121
      ],
      [
        "aak",
        -10.091112283261857
      ],
      [
        "▁couch",
        -10.091413379077947
      ],
      [
        "▁nouvelles",
        -10.091602539495979
      ],
      [
        "▁entré",
        -10.092139574185598
      ],
      [
        "▁co",
        -10.092147257024825
      ],
      [
        "▁doomam",
        -10.092213606032024
      ],
      [
        "abond",
        -10.092373584884218
      ],
      [
        "▁joge",
        -10.092547621654504
      ],
      [
        "▁mesure",
        -10.092869800762053
      ],
      [
        "▁pluie",
        -10.093209499239197
      ],
      [
        "▁lenn",
        -10.093722777294465
      ],
      [
        "▁yéeme",
        -10.094551783769518
      ],
      [
        "▁savoir",
        -10.095453725254458
      ],
      [
        "▁étage",
        -10.095739103479954
      ],
      [
        "ati-",
        -10.095972501156874
      ],
      [
        "▁forte",
        -10.096580798663473
      ],
      [
        "▁soldats",
        -10.096640013751053
      ],
      [
        "▁militaires",
        -10.096644817788087
      ],
      [
        "▁feeñu",
        -10.096833488676047
      ],
      [
        "▁mënut",
        -10.097055022597836
      ],
      [
        "▁julli",
        -10.097108464754559
      ],
      [
        "ar.",
        -10.097564201736418
      ],
      [
        "fippu",
        -10.097596071839925
      ],
      [
        "▁Men",
        -10.098014057071468
      ],
      [
        "▁bancs",
        -10.098809350347823
      ],
      [
        "kóon",
        -10.0991341208817
      ],
      [
        "▁Xare",
        -10.10088953508619
      ],
      [
        "▁nourri",
        -10.101735653338556
      ],
      [
        "▁yëgaat",
        -10.10216812561573
      ],
      [
        "ñii",
        -10.10392828355446
      ],
      [
        "▁troupeau",
        -10.10409139197797
      ],
      [
        "▁devenus",
        -10.104298694167838
      ],
      [
        "▁fermée",
        -10.104616782581399
      ],
      [
        "▁marcher",
        -10.10501123462636
      ],
      [
        "▁guyy",
        -10.105196957226736
      ],
      [
        "▁lire",
        -10.105231260196964
      ],
      [
        "▁monté",
        -10.105925872415193
      ],
      [
        "▁croi",
        -10.106198132597463
      ],
      [
        "▁retourne",
        -10.107017451017814
      ],
      [
        "▁pans",
        -10.10769744252173
      ],
      [
        "▁Bum",
        -10.108388142926474
      ],
      [
        "▁be",
        -10.108849742312653
      ],
      [
        "▁seetu",
        -10.109441003812153
      ],
      [
        "▁kam",
        -10.110384820146813
      ],
      [
        "▁dessiné",
        -10.110513927264613
      ],
      [
        "▁face",
        -10.11298587535176
      ],
      [
        "▁Fo",
        -10.11303959846692
      ],
      [
        "▁dur",
        -10.114265141078803
      ],
      [
        "avez",
        -10.115021925252295
      ],
      [
        "rt",
        -10.115268054059422
      ],
      [
        "▁xaritam",
        -10.115514235055365
      ],
      [
        "▁mënee",
        -10.115794087241797
      ],
      [
        "▁defaree",
        -10.116286874332166
      ],
      [
        "▁saf",
        -10.116400837138318
      ],
      [
        "▁xew",
        -10.116630840718166
      ],
      [
        "▁Car",
        -10.117046446961613
      ],
      [
        "▁kookuu",
        -10.11729726974052
      ],
      [
        "▁scorpions",
        -10.117353827388229
      ],
      [
        "ssant",
        -10.117465887896422
      ],
      [
        "▁dëkkoon",
        -10.119331561312004
      ],
      [
        "▁nus",
        -10.119458622553232
      ],
      [
        "êtes",
        -10.12200473003435
      ],
      [
        "▁pré",
        -10.122575488128334
      ],
      [
        "isme",
        -10.122632246852922
      ],
      [
        "▁këru",
        -10.123113608758747
      ],
      [
        "atoo",
        -10.123695018603792
      ],
      [
        "▁livres",
        -10.1249986898099
      ],
      [
        "▁amour",
        -10.125613282173909
      ],
      [
        "▁four",
        -10.127070127725075
      ],
      [
        "▁maîtres",
        -10.128862112181464
      ],
      [
        "son",
        -10.129651461808548
      ],
      [
        "▁impression",
        -10.129786794378806
      ],
      [
        "▁prise",
        -10.13007602364311
      ],
      [
        "▁bleus",
        -10.130778794492104
      ],
      [
        "▁yé",
        -10.133009164422306
      ],
      [
        "▁Ŋg",
        -10.134461296176672
      ],
      [
        "sement",
        -10.134471434958044
      ],
      [
        "▁désir",
        -10.134690806197899
      ],
      [
        "▁sàn",
        -10.135248450720393
      ],
      [
        "▁fil",
        -10.135721707043592
      ],
      [
        "▁séchée",
        -10.136623026043509
      ],
      [
        "▁ndo",
        -10.137285822033606
      ],
      [
        "▁grandi",
        -10.140288181287204
      ],
      [
        "ry",
        -10.141375721229439
      ],
      [
        "▁eusse",
        -10.142994002504201
      ],
      [
        "▁fur",
        -10.143169632539852
      ],
      [
        "▁laine",
        -10.145092624598876
      ],
      [
        "hier",
        -10.147323039701824
      ],
      [
        "▁mënuma",
        -10.148847468502117
      ],
      [
        "▁pointe",
        -10.149031299399581
      ],
      [
        "▁baŋ",
        -10.149594578374042
      ],
      [
        "▁ras",
        -10.149601829979598
      ],
      [
        "'appartien",
        -10.151407730894164
      ],
      [
        "asi",
        -10.151977629103978
      ],
      [
        "ion",
        -10.153679135028712
      ],
      [
        "▁x",
        -10.156801310391959
      ],
      [
        "gal",
        -10.156952237223566
      ],
      [
        "hôpital",
        -10.157203329610844
      ],
      [
        "mar",
        -10.158075253452221
      ],
      [
        "oindre",
        -10.158888669929127
      ],
      [
        "laam",
        -10.162554092016805
      ],
      [
        "▁niir",
        -10.163262773536037
      ],
      [
        "▁vari",
        -10.164586505278383
      ],
      [
        "ide",
        -10.165958411737513
      ],
      [
        "▁Aa",
        -10.16605497697736
      ],
      [
        "toon",
        -10.167648272996901
      ],
      [
        "▁Mii",
        -10.168041538198874
      ],
      [
        "▁lits",
        -10.169536729054695
      ],
      [
        "▁seuls",
        -10.170808180493436
      ],
      [
        "▁Gu",
        -10.171269021076132
      ],
      [
        "▁dos",
        -10.173302974085086
      ],
      [
        "▁néegi",
        -10.17744907870784
      ],
      [
        "▁jooja",
        -10.178962342142137
      ],
      [
        "nie",
        -10.180674319829313
      ],
      [
        "garder",
        -10.181933289374607
      ],
      [
        "gu",
        -10.183325679492645
      ],
      [
        "▁deey",
        -10.18343369335579
      ],
      [
        "▁cou",
        -10.183967376017563
      ],
      [
        "▁wiy",
        -10.185167640351995
      ],
      [
        "▁l'é",
        -10.185580954569248
      ],
      [
        "▁ñee",
        -10.18673752647212
      ],
      [
        "daa",
        -10.187120328753794
      ],
      [
        "▁Celui",
        -10.187633541680038
      ],
      [
        "rit",
        -10.190567683284716
      ],
      [
        "▁l'on",
        -10.19184771202363
      ],
      [
        "▁Sor",
        -10.196314208080999
      ],
      [
        "▁ri",
        -10.19731976128828
      ],
      [
        "▁dugal",
        -10.197860015259478
      ],
      [
        "▁suffi",
        -10.20407754751933
      ],
      [
        "fu",
        -10.206055224868333
      ],
      [
        "▁plan",
        -10.207190827113445
      ],
      [
        "▁cas",
        -10.208897160681456
      ],
      [
        "▁yàq",
        -10.209752038989404
      ],
      [
        "▁sañ",
        -10.209885609247841
      ],
      [
        "▁Def",
        -10.210730739830012
      ],
      [
        "▁chocolat",
        -10.210748372974217
      ],
      [
        "ace",
        -10.211216110657052
      ],
      [
        "uits",
        -10.214147388175956
      ],
      [
        "t-il",
        -10.216256417157926
      ],
      [
        "nent",
        -10.219048340851456
      ],
      [
        "▁m'",
        -10.21968057863577
      ],
      [
        "u-",
        -10.219865623207342
      ],
      [
        "iques",
        -10.221185854358533
      ],
      [
        "▁chambres",
        -10.222104730711857
      ],
      [
        "sant",
        -10.223970028024684
      ],
      [
        "'orage",
        -10.22453901093285
      ],
      [
        "▁outil",
        -10.224891026981705
      ],
      [
        "▁dan",
        -10.226013614383682
      ],
      [
        "▁pourra",
        -10.229278035637876
      ],
      [
        "▁jàppe",
        -10.229909768299724
      ],
      [
        "▁entend",
        -10.231798202720801
      ],
      [
        "ole",
        -10.235117691075855
      ],
      [
        "▁posée",
        -10.237284403317828
      ],
      [
        "bbe",
        -10.237626076970532
      ],
      [
        "▁con",
        -10.24114759499158
      ],
      [
        "tul",
        -10.242832956728622
      ],
      [
        "▁coupe",
        -10.243423665354927
      ],
      [
        "aires",
        -10.243807842289948
      ],
      [
        "▁trou",
        -10.246825428233983
      ],
      [
        "▁wàcc",
        -10.249984820430523
      ],
      [
        "▁rend",
        -10.25007895619781
      ],
      [
        "vions",
        -10.250407000970021
      ],
      [
        "commencer",
        -10.250663846823727
      ],
      [
        "▁armé",
        -10.252909469669923
      ],
      [
        "▁tam",
        -10.257539199069459
      ],
      [
        "ã",
        -10.258905227363382
      ],
      [
        "▁jé",
        -10.259436217861895
      ],
      [
        "▁ndugg",
        -10.26064561928335
      ],
      [
        "▁ño",
        -10.261129010742103
      ],
      [
        "▁armée",
        -10.261673682714065
      ],
      [
        "nge",
        -10.26428717161952
      ],
      [
        "▁pouss",
        -10.264867310545089
      ],
      [
        "▁n'as",
        -10.265032056589725
      ],
      [
        "goom",
        -10.265417050009907
      ],
      [
        "tam",
        -10.265431285395145
      ],
      [
        "ëm",
        -10.266095017571732
      ],
      [
        "▁mise",
        -10.267967793960807
      ],
      [
        "ailles",
        -10.268391381089657
      ],
      [
        "ût",
        -10.269311535160663
      ],
      [
        "naissance",
        -10.270654546371773
      ],
      [
        "▁rajo",
        -10.271202294360156
      ],
      [
        "▁cont",
        -10.272297253342831
      ],
      [
        "googule",
        -10.272848329882457
      ],
      [
        "▁dure",
        -10.275129900173068
      ],
      [
        "óo",
        -10.27571333803311
      ],
      [
        "uwaay",
        -10.276288695876472
      ],
      [
        "▁ñaw",
        -10.276674867244514
      ],
      [
        "▁tra",
        -10.277623794795826
      ],
      [
        "ru",
        -10.278698132865536
      ],
      [
        "dar",
        -10.279366388768787
      ],
      [
        "▁quitte",
        -10.279975822345484
      ],
      [
        "▁pensé",
        -10.281006190352826
      ],
      [
        "▁entouré",
        -10.281375431391414
      ],
      [
        "▁étalé",
        -10.28148841500401
      ],
      [
        "▁tegu",
        -10.281741451927163
      ],
      [
        "ër",
        -10.283191705437199
      ],
      [
        "▁mêl",
        -10.283232924296843
      ],
      [
        "allaient",
        -10.28608074546688
      ],
      [
        "▁Leer",
        -10.286726002660426
      ],
      [
        "▁conten",
        -10.287351323416678
      ],
      [
        "nte",
        -10.28777863898444
      ],
      [
        "▁ñe",
        -10.290135318231917
      ],
      [
        "▁sub",
        -10.291051289050737
      ],
      [
        "ŋga",
        -10.291456622473012
      ],
      [
        "leel",
        -10.29186066987661
      ],
      [
        "▁décor",
        -10.292836139121025
      ],
      [
        "aurais",
        -10.29318014004413
      ],
      [
        "to",
        -10.294087398954797
      ],
      [
        "▁Daawu",
        -10.294839287937734
      ],
      [
        "lal",
        -10.294873893311783
      ],
      [
        "▁fui",
        -10.295546202897244
      ],
      [
        "ombre",
        -10.295642116640336
      ],
      [
        "▁kà",
        -10.296617204649335
      ],
      [
        "ins",
        -10.296705030975014
      ],
      [
        "▁teewu",
        -10.296839410997897
      ],
      [
        "▁natt",
        -10.298519984732565
      ],
      [
        "▁ouvert",
        -10.299193954257719
      ],
      [
        "▁président",
        -10.29950093782963
      ],
      [
        "▁miroir",
        -10.299635164134564
      ],
      [
        "▁jam",
        -10.30079787955073
      ],
      [
        "auté",
        -10.304062324776009
      ],
      [
        "▁toj",
        -10.305024047002586
      ],
      [
        "▁Wa",
        -10.30514852913257
      ],
      [
        "▁laissé",
        -10.305536306195854
      ],
      [
        "▁sépar",
        -10.305869970867647
      ],
      [
        "▁gendarme",
        -10.307389423822716
      ],
      [
        "▁découvert",
        -10.307557497062515
      ],
      [
        "war",
        -10.309427035612892
      ],
      [
        "▁nju",
        -10.309507465077283
      ],
      [
        "ëpp",
        -10.31098556176933
      ],
      [
        "▁Bul",
        -10.311056336295065
      ],
      [
        "▁ancien",
        -10.312424002896101
      ],
      [
        "con",
        -10.313367903021993
      ],
      [
        "▁d'herbe",
        -10.31344313139612
      ],
      [
        "jafe",
        -10.313516315243106
      ],
      [
        "▁méng",
        -10.314028332328986
      ],
      [
        "▁tasse",
        -10.31406019049814
      ],
      [
        "sion",
        -10.315464394328174
      ],
      [
        "▁yéem",
        -10.315837030265858
      ],
      [
        "àngi",
        -10.31589430455925
      ],
      [
        "▁précédé",
        -10.315907394775767
      ],
      [
        "▁général",
        -10.316556452112708
      ],
      [
        "▁guerr",
        -10.318135052194688
      ],
      [
        "▁U",
        -10.319259435398417
      ],
      [
        "innaaw",
        -10.319696036636767
      ],
      [
        "ille",
        -10.319730849965373
      ],
      [
        "▁cent",
        -10.319782389476913
      ],
      [
        "▁cré",
        -10.321870979743048
      ],
      [
        "ish",
        -10.322398994704157
      ],
      [
        "fal",
        -10.322497900221144
      ],
      [
        "kke",
        -10.32274754580391
      ],
      [
        "▁Ch",
        -10.322872036089471
      ],
      [
        "▁rëbb",
        -10.323560507038291
      ],
      [
        "▁Ko",
        -10.323580717097226
      ],
      [
        "▁golf",
        -10.323979867538362
      ],
      [
        "▁xii",
        -10.3256061464186
      ],
      [
        "han",
        -10.325617729085712
      ],
      [
        "ddina",
        -10.327905838837783
      ],
      [
        "▁rencontre",
        -10.328190630522037
      ],
      [
        "▁kàdd",
        -10.328225016489334
      ],
      [
        "orts",
        -10.32824941343968
      ],
      [
        "▁Moka",
        -10.329028803061629
      ],
      [
        "▁gëm",
        -10.32924361352325
      ],
      [
        "▁naň",
        -10.329293838503718
      ],
      [
        "▁qu",
        -10.329380401642897
      ],
      [
        "ko",
        -10.329433918870869
      ],
      [
        "▁indi",
        -10.329806959373503
      ],
      [
        "mbres",
        -10.330060654371831
      ],
      [
        "able",
        -10.330139655138321
      ],
      [
        "▁c'étai",
        -10.330546332079647
      ],
      [
        "▁Doom",
        -10.330557100750879
      ],
      [
        "▁Foof",
        -10.330762131926118
      ],
      [
        "rai",
        -10.331724683807606
      ],
      [
        "ément",
        -10.331732884436335
      ],
      [
        "▁Qu'",
        -10.331867511619947
      ],
      [
        "▁faf",
        -10.33191778284097
      ],
      [
        "▁révolte",
        -10.332091218659263
      ],
      [
        "cture",
        -10.332748145952447
      ],
      [
        "▁accepte",
        -10.33294482390364
      ],
      [
        "▁xërëm",
        -10.333412810444663
      ],
      [
        "àww",
        -10.333496554642338
      ],
      [
        "araada",
        -10.333680011196632
      ],
      [
        "3",
        -10.333774106249091
      ],
      [
        "2",
        -10.333791344294472
      ],
      [
        "▁trapèze",
        -10.33379810446605
      ],
      [
        "▁BBC",
        -10.333798104466055
      ],
      [
        "▁l'après-midi",
        -10.333798104466078
      ],
      [
        "▁discipline",
        -10.333798104467009
      ],
      [
        "▁véhicule",
        -10.333798104467022
      ],
      [
        "▁junniy-junni",
        -10.333798104467434
      ],
      [
        "▁Harcourt",
        -10.333798104467565
      ],
      [
        "▁caravane",
        -10.333798104468908
      ],
      [
        "▁NGo",
        -10.33379810447985
      ],
      [
        "▁Ahidjo",
        -10.33379810449152
      ],
      [
        "▁béjjén",
        -10.333798104492935
      ],
      [
        "▁tés-tés",
        -10.333798104504918
      ],
      [
        "…",
        -10.333798104506007
      ],
      [
        "▁accepté",
        -10.333798104507721
      ],
      [
        "D.O.",
        -10.333798104524677
      ],
      [
        "▁yëngatu",
        -10.333798104533953
      ],
      [
        "▁lorgnons",
        -10.333798104612448
      ],
      [
        "▁ndànk-ndànk",
        -10.33379810472132
      ],
      [
        "▁rajaxe",
        -10.333798104792919
      ],
      [
        "▁éprouv",
        -10.333798104805316
      ],
      [
        "▁1948",
        -10.333798105024254
      ],
      [
        "▁1928",
        -10.333798105245092
      ],
      [
        "▁grâce",
        -10.333798105710747
      ],
      [
        "▁l'extérieur",
        -10.333798106223904
      ],
      [
        "▁Bërëtaañ",
        -10.333798106423448
      ],
      [
        "'arachide",
        -10.333798108366725
      ],
      [
        "▁trésor",
        -10.333798108526103
      ],
      [
        "▁Bretagne",
        -10.333798109676128
      ],
      [
        "▁excessive",
        -10.33379811077183
      ],
      [
        "▁sèche",
        -10.333798111679755
      ],
      [
        "▁Europe",
        -10.333798111890491
      ],
      [
        "▁proximité",
        -10.333798111967122
      ],
      [
        "▁Kalabaar",
        -10.333798112482544
      ],
      [
        "llemands",
        -10.333798113866072
      ],
      [
        "▁ràññe",
        -10.333798114690275
      ],
      [
        "▁Jeffries",
        -10.333798116838626
      ],
      [
        "▁saxaaru-géej",
        -10.333798117328193
      ],
      [
        "▁tekk-tekkaaral",
        -10.333798117619923
      ],
      [
        "▁Voyage",
        -10.333798120746552
      ],
      [
        "▁ruisseau",
        -10.333798125387354
      ],
      [
        "▁Calabar",
        -10.333798134805104
      ],
      [
        "▁officier",
        -10.333798138679626
      ],
      [
        "▁Ñëw",
        -10.33379814201267
      ],
      [
        "▁sibbiru",
        -10.333798167876626
      ],
      [
        "▁cliché",
        -10.333798225691037
      ],
      [
        "▁obsession",
        -10.333798233459646
      ],
      [
        "▁alentour",
        -10.333798252175644
      ],
      [
        "▁ndanka",
        -10.333798288067923
      ],
      [
        "▁Louga",
        -10.333798307074302
      ],
      [
        "▁juróom-ň",
        -10.333798311805847
      ],
      [
        "▁njege",
        -10.333798324594373
      ],
      [
        "▁possible",
        -10.33379833548516
      ],
      [
        "▁disparu",
        -10.333798371484415
      ],
      [
        "▁bavarda",
        -10.33379840962918
      ],
      [
        "▁tropicale",
        -10.333798463293867
      ],
      [
        "▁soixante",
        -10.333798527043419
      ],
      [
        "▁présence",
        -10.333798543609799
      ],
      [
        "▁L'autre",
        -10.333798551997583
      ],
      [
        "▁Chuku",
        -10.3337986061131
      ],
      [
        "▁légende",
        -10.333798654987692
      ],
      [
        "▁radio",
        -10.333798752388923
      ],
      [
        "▁extraordinaire",
        -10.333798979166144
      ],
      [
        "▁kilomet",
        -10.333799209862894
      ],
      [
        "▁vieillard",
        -10.333799228961116
      ],
      [
        "▁pénétr",
        -10.333799267937142
      ],
      [
        "▁l'abri",
        -10.333799883807334
      ],
      [
        "▁Birayim",
        -10.333800459826296
      ],
      [
        "▁fauteuil",
        -10.333800493868928
      ],
      [
        "▁bakkan",
        -10.333800497309225
      ],
      [
        "▁accroche",
        -10.333800541295979
      ],
      [
        "▁njariñ",
        -10.333800772842014
      ],
      [
        "▁l'hum",
        -10.333801017669067
      ],
      [
        "▁répond",
        -10.333801932987189
      ],
      [
        "arrière",
        -10.333802290543359
      ],
      [
        "▁guyaab",
        -10.333802591706176
      ],
      [
        "▁xamantane",
        -10.333803098891941
      ],
      [
        "▁magasin",
        -10.333803836370118
      ],
      [
        "▁Alfa",
        -10.333804199066929
      ],
      [
        "▁ëlëk",
        -10.333804222889919
      ],
      [
        "▁terrain",
        -10.333804776422813
      ],
      [
        "▁mbemb",
        -10.333805426404446
      ],
      [
        "▁Macron",
        -10.333810595789139
      ],
      [
        "▁toilettes",
        -10.333810648639437
      ],
      [
        "▁sept",
        -10.333812246971016
      ],
      [
        "▁gazelle",
        -10.333812774184711
      ],
      [
        "▁coow",
        -10.333815917448554
      ],
      [
        "▁règne",
        -10.333815996953831
      ],
      [
        "▁l'aube",
        -10.333818876616263
      ],
      [
        "▁interdit",
        -10.333819339773076
      ],
      [
        "▁dëll",
        -10.333820195932732
      ],
      [
        "▁imagin",
        -10.333820853194421
      ],
      [
        "▁jërr",
        -10.333821489829422
      ],
      [
        "▁1968",
        -10.333823157096178
      ],
      [
        "▁Kipli",
        -10.333823272413035
      ],
      [
        "▁weesu",
        -10.333823669186497
      ],
      [
        "▁Demuloo",
        -10.3338237782866
      ],
      [
        "▁fanweer",
        -10.333830509284866
      ],
      [
        "▁fonction",
        -10.33383368201071
      ],
      [
        "▁Gaynd",
        -10.333833943473293
      ],
      [
        "▁poitrine",
        -10.333835472621796
      ],
      [
        "▁moyen",
        -10.333835795184111
      ],
      [
        "▁firndeel",
        -10.333838521356013
      ],
      [
        "▁xayma",
        -10.33383873506482
      ],
      [
        "00",
        -10.333839121931547
      ],
      [
        "▁Confi",
        -10.333848058151586
      ],
      [
        "▁Agsil",
        -10.333849182818787
      ],
      [
        "▁effect",
        -10.333849342787806
      ],
      [
        "▁conduis",
        -10.333852554660185
      ],
      [
        "▁caract",
        -10.333856109194771
      ],
      [
        "▁soxal",
        -10.33386015033527
      ],
      [
        "▁riz",
        -10.333865317732624
      ],
      [
        "▁ràpp",
        -10.33386569846436
      ],
      [
        "▁revenu",
        -10.333866106440777
      ],
      [
        "▁ňàkk",
        -10.333867610331634
      ],
      [
        "▁meetar",
        -10.333869829290176
      ],
      [
        "▁bënn",
        -10.333872573670194
      ],
      [
        "▁móobal",
        -10.3338761538082
      ],
      [
        "▁mbindeef",
        -10.333881141208971
      ],
      [
        "▁maasaloo",
        -10.333886686160023
      ],
      [
        "▁baobab",
        -10.333887107450309
      ],
      [
        "▁heureux",
        -10.333887255176913
      ],
      [
        "▁Au-dessus",
        -10.333891856112817
      ],
      [
        "▁dëppoo",
        -10.333899068965193
      ],
      [
        "▁décrit",
        -10.333922334119533
      ],
      [
        "▁bãŋ",
        -10.333926542545575
      ],
      [
        "▁peine",
        -10.333930001284251
      ],
      [
        "▁lentement",
        -10.333930170112003
      ],
      [
        "▁habituellement",
        -10.333933019130333
      ],
      [
        "▁naître",
        -10.333935210293847
      ],
      [
        "▁électrique",
        -10.333939345623605
      ],
      [
        "▁daŋar",
        -10.333940723122154
      ],
      [
        "▁flamme",
        -10.333945621859964
      ],
      [
        "▁foudre",
        -10.33394700223723
      ],
      [
        "▁comprendre",
        -10.33395772003641
      ],
      [
        "▁lëmm",
        -10.333960239156193
      ],
      [
        "▁verra",
        -10.333964978174706
      ],
      [
        "▁fureur",
        -10.333981071651891
      ],
      [
        "▁s'installe",
        -10.33398838785389
      ],
      [
        "▁tàggat",
        -10.334027654539472
      ],
      [
        "▁Dieu",
        -10.334034114474623
      ],
      [
        "▁capable",
        -10.33404174443078
      ],
      [
        "▁Mbam",
        -10.334047704931338
      ],
      [
        "▁pension",
        -10.33408167962307
      ],
      [
        "▁perdre",
        -10.334082939444189
      ],
      [
        "▁pegg",
        -10.334094676851015
      ],
      [
        "▁gosse",
        -10.33412520037695
      ],
      [
        "▁Combi",
        -10.334129031372536
      ],
      [
        "▁sauce",
        -10.334143583232551
      ],
      [
        "▁simila",
        -10.334161490470006
      ],
      [
        "▁commencé",
        -10.334168098873867
      ],
      [
        "▁màtt",
        -10.334182511428669
      ],
      [
        "▁genre",
        -10.33419005068455
      ],
      [
        "▁bruit",
        -10.334213072479187
      ],
      [
        "▁fièvre",
        -10.334223582724995
      ],
      [
        "▁install",
        -10.334242398005593
      ],
      [
        "▁contraire",
        -10.33425469300815
      ],
      [
        "▁prière",
        -10.334261650618366
      ],
      [
        "▁serré",
        -10.334291001933215
      ],
      [
        "▁gëléem",
        -10.334302928670802
      ],
      [
        "▁tubay",
        -10.334304100483745
      ],
      [
        "▁soxor",
        -10.334315691477354
      ],
      [
        "▁Banyo",
        -10.334330695009207
      ],
      [
        "▁taq",
        -10.334348846753786
      ],
      [
        "▁frappions",
        -10.334356400578825
      ],
      [
        "▁voudrait",
        -10.334380897623006
      ],
      [
        "▁woowa",
        -10.334414366924296
      ],
      [
        "▁wert",
        -10.334463058059816
      ],
      [
        "▁l'indépendance",
        -10.334472265567278
      ],
      [
        "▁Bateri",
        -10.334508899782733
      ],
      [
        "▁Ho",
        -10.334529921060444
      ],
      [
        "▁Joor",
        -10.33454880887463
      ],
      [
        "▁caisse",
        -10.334563766349122
      ],
      [
        "▁drapeau",
        -10.334599086498715
      ],
      [
        "▁Dégg",
        -10.334613986905483
      ],
      [
        "▁Looloo",
        -10.334634795431294
      ],
      [
        "▁absent",
        -10.334666514866377
      ],
      [
        "▁miirloo",
        -10.334700949720146
      ],
      [
        "▁semble-t-il",
        -10.334711042765104
      ],
      [
        "▁sooke",
        -10.33476702496083
      ],
      [
        "itié",
        -10.334806848928263
      ],
      [
        "▁yemale",
        -10.33486992708684
      ],
      [
        "▁Bamako",
        -10.33490253800959
      ],
      [
        "▁causé",
        -10.334911122397576
      ],
      [
        "▁échappé",
        -10.334916480920597
      ],
      [
        "▁meññ",
        -10.3349399591521
      ],
      [
        "-lu",
        -10.334942419586547
      ],
      [
        "-réew",
        -10.33495103913283
      ],
      [
        "▁chapeaux",
        -10.334969950534719
      ],
      [
        "▁oublier",
        -10.334995429369698
      ],
      [
        "▁c'est-à-dire",
        -10.33500293429481
      ],
      [
        "▁tuuru",
        -10.335008220947419
      ],
      [
        "▁ràkkaaju",
        -10.335043354241561
      ],
      [
        "▁marqué",
        -10.335047714763258
      ],
      [
        "erig",
        -10.335077740723175
      ],
      [
        "saŋ",
        -10.335086672127312
      ],
      [
        "▁raconté",
        -10.33516287411366
      ],
      [
        "hez",
        -10.33523947908368
      ],
      [
        "▁nangoo",
        -10.33524856737783
      ],
      [
        "▁bég",
        -10.335285838726724
      ],
      [
        "▁fen",
        -10.33529471090638
      ],
      [
        "▁déci",
        -10.335324212073594
      ],
      [
        "▁rose",
        -10.335377945827187
      ],
      [
        "▁prendre",
        -10.335417665467643
      ],
      [
        "▁tëgg",
        -10.33541784807769
      ],
      [
        "▁élevé",
        -10.335446907228445
      ],
      [
        "▁dég",
        -10.335449083404846
      ],
      [
        "▁d'entre",
        -10.335488798444624
      ],
      [
        "at.",
        -10.335492997361014
      ],
      [
        "▁Xaw",
        -10.335512589785386
      ],
      [
        "▁aigu",
        -10.335526402102765
      ],
      [
        "▁poudre",
        -10.335539643153755
      ],
      [
        "▁charme",
        -10.335657385557832
      ],
      [
        "▁remis",
        -10.33570631517738
      ],
      [
        "▁portale",
        -10.335771907519915
      ],
      [
        "▁muraille",
        -10.335793639161167
      ],
      [
        "▁l'in",
        -10.335797086093049
      ],
      [
        "▁Tann",
        -10.335850530275355
      ],
      [
        "▁penku",
        -10.335929884019142
      ],
      [
        "▁brûlant",
        -10.336019676246037
      ],
      [
        "▁n'importe",
        -10.336046873640507
      ],
      [
        "▁kookale",
        -10.336085127828573
      ],
      [
        "roya",
        -10.336090843995201
      ],
      [
        "▁d'habitude",
        -10.33609349013281
      ],
      [
        "▁nuru",
        -10.336116446094884
      ],
      [
        "▁Mbir",
        -10.336126053069346
      ],
      [
        "▁qu'en",
        -10.336143750692992
      ],
      [
        "▁càkk",
        -10.336158103541045
      ],
      [
        "▁surveill",
        -10.336217922049121
      ],
      [
        "▁dijj",
        -10.336218085032117
      ],
      [
        "▁móol",
        -10.33624483602923
      ],
      [
        "tiens",
        -10.336304950415752
      ],
      [
        "▁Demuma",
        -10.336320298159244
      ],
      [
        "▁Demkoon",
        -10.336331057708396
      ],
      [
        "▁neuf",
        -10.33640069274997
      ],
      [
        "▁léeg",
        -10.336403450166818
      ],
      [
        "▁soirée",
        -10.336546784848922
      ],
      [
        "▁pétrole",
        -10.336590231641773
      ],
      [
        "àkk",
        -10.336907282036124
      ],
      [
        "▁sœurs",
        -10.336930279225594
      ],
      [
        "▁juges",
        -10.336938222488659
      ],
      [
        "ulëer",
        -10.337021114664179
      ],
      [
        "▁weg",
        -10.337027680199794
      ],
      [
        "▁cultive",
        -10.33706317008146
      ],
      [
        "▁dikkul",
        -10.337114286245734
      ],
      [
        "▁yeggee",
        -10.337123537066063
      ],
      [
        "empire",
        -10.337237316120158
      ],
      [
        "▁matinée",
        -10.337464972888691
      ],
      [
        "▁exerc",
        -10.337569198622486
      ],
      [
        "▁kayit",
        -10.337679935313194
      ],
      [
        "▁oreilles",
        -10.337742794856323
      ],
      [
        "▁apparaissent",
        -10.337950119915858
      ],
      [
        "▁sàmm",
        -10.337973629009655
      ],
      [
        "▁plats",
        -10.33815274014922
      ],
      [
        "▁fowu",
        -10.338367516582853
      ],
      [
        "rass",
        -10.33853349293395
      ],
      [
        "▁corde",
        -10.338583879929612
      ],
      [
        "▁Mokaa",
        -10.33859189754676
      ],
      [
        "▁sell",
        -10.338877100102966
      ],
      [
        "▁Mac",
        -10.338966144522919
      ],
      [
        "-tuut",
        -10.339003427923085
      ],
      [
        "▁accepter",
        -10.339051364118394
      ],
      [
        "▁kaki",
        -10.339129642743774
      ],
      [
        "▁tente",
        -10.339136749964684
      ],
      [
        "▁Cependant",
        -10.339187690052796
      ],
      [
        "▁tëwa",
        -10.339300062368146
      ],
      [
        "▁puur",
        -10.33980847798995
      ],
      [
        "▁rendu",
        -10.339959384585361
      ],
      [
        "▁d'Ar",
        -10.340169093373312
      ],
      [
        "▁dress",
        -10.340353750331444
      ],
      [
        "▁you",
        -10.340405346206804
      ],
      [
        "óoy",
        -10.340680221213649
      ],
      [
        "▁ñaaw",
        -10.340703451312955
      ],
      [
        "▁libre",
        -10.340874302180369
      ],
      [
        "▁d'art",
        -10.340984517111915
      ],
      [
        "▁battant",
        -10.341122687565557
      ],
      [
        "▁étrange",
        -10.341261692190226
      ],
      [
        "▁Yen",
        -10.341309095486748
      ],
      [
        "entre",
        -10.341311066908544
      ],
      [
        "▁jog",
        -10.34139057409709
      ],
      [
        "▁Nun",
        -10.34145640609482
      ],
      [
        "▁waaxu",
        -10.341466894492996
      ],
      [
        "▁marque",
        -10.341493257292292
      ],
      [
        "▁ñeent",
        -10.342240427718412
      ],
      [
        "gul",
        -10.342303324572661
      ],
      [
        "▁battu",
        -10.342532953256173
      ],
      [
        "▁jàkka",
        -10.342559590160022
      ],
      [
        "▁gës",
        -10.342962878179577
      ],
      [
        "▁xamu",
        -10.343305535995228
      ],
      [
        "▁patte",
        -10.34347232851457
      ],
      [
        "▁joow",
        -10.343968108856913
      ],
      [
        "▁mbooloo",
        -10.344215688650868
      ],
      [
        "▁kilomètres",
        -10.34449321407461
      ],
      [
        "▁fruits",
        -10.344500339566622
      ],
      [
        "▁faax",
        -10.344503362868226
      ],
      [
        "▁rëbbi",
        -10.344574457302588
      ],
      [
        "ňu",
        -10.344725995443826
      ],
      [
        "▁d'il",
        -10.34528235566435
      ],
      [
        "▁confie",
        -10.345435344737359
      ],
      [
        "▁ger",
        -10.345468853544567
      ],
      [
        "▁demain",
        -10.345518874886038
      ],
      [
        "▁éta",
        -10.345656286787781
      ],
      [
        "▁Amin",
        -10.345685703007963
      ],
      [
        "▁way-juram",
        -10.34578912954641
      ],
      [
        "▁kooka",
        -10.346163282925309
      ],
      [
        "▁xer",
        -10.346455343139072
      ],
      [
        "▁xobi",
        -10.346469687968428
      ],
      [
        "▁dootu",
        -10.346497514955985
      ],
      [
        "mmeel",
        -10.346540744381356
      ],
      [
        "kkati",
        -10.346572320307768
      ],
      [
        "▁d'enfants",
        -10.346701288973229
      ],
      [
        "▁xóot",
        -10.346879592415155
      ],
      [
        "▁pain",
        -10.346976785805062
      ],
      [
        "▁ver",
        -10.347369992590824
      ],
      [
        "▁jeux",
        -10.347430489965852
      ],
      [
        "▁jàppoon",
        -10.347606970345042
      ],
      [
        "▁pax",
        -10.347657305431563
      ],
      [
        "▁secondes",
        -10.347921580027489
      ],
      [
        "emelle",
        -10.34802122013218
      ],
      [
        "▁vagues",
        -10.348123454928892
      ],
      [
        "▁Éta",
        -10.34883170999527
      ],
      [
        "▁manque",
        -10.34888039828405
      ],
      [
        "▁idée",
        -10.34903826082685
      ],
      [
        "▁l'est",
        -10.34948853330156
      ],
      [
        "▁tenue",
        -10.349661589879194
      ],
      [
        "▁arrive",
        -10.3499276153196
      ],
      [
        "gante",
        -10.350559811398094
      ],
      [
        "▁créé",
        -10.350606619812815
      ],
      [
        "▁cri",
        -10.350612558864404
      ],
      [
        "▁roo",
        -10.3506202029486
      ],
      [
        "▁guis",
        -10.351229900664071
      ],
      [
        "▁prenant",
        -10.351486518939714
      ],
      [
        "▁fameuse",
        -10.351633338836901
      ],
      [
        "▁fum",
        -10.35165614390733
      ],
      [
        "bët",
        -10.352022309761658
      ],
      [
        "▁ceeb",
        -10.352128628353876
      ],
      [
        "wi",
        -10.352187030883169
      ],
      [
        "▁courses",
        -10.352230781149654
      ],
      [
        "▁baň",
        -10.352334191214965
      ],
      [
        "▁pé",
        -10.352414745828266
      ],
      [
        "▁sipp",
        -10.352427075906455
      ],
      [
        "▁Yo",
        -10.352573896983962
      ],
      [
        "▁Ñi",
        -10.352899033808649
      ],
      [
        "▁peinte",
        -10.352977162597286
      ],
      [
        "▁construi",
        -10.353142149302043
      ],
      [
        "cousu",
        -10.353765778385048
      ],
      [
        "▁méngale",
        -10.353997534888276
      ],
      [
        "▁Aka",
        -10.353997988228553
      ],
      [
        "▁muus",
        -10.354904797040271
      ],
      [
        "andis",
        -10.355320756883287
      ],
      [
        "oroom",
        -10.355744523806788
      ],
      [
        "g.",
        -10.359405421977925
      ],
      [
        "▁diine",
        -10.360093671838962
      ],
      [
        "▁découverte",
        -10.36075853489864
      ],
      [
        "▁yóbb",
        -10.36186955616584
      ],
      [
        "▁demuñu",
        -10.36205877872169
      ],
      [
        "▁toogoon",
        -10.362103986839658
      ],
      [
        "alement",
        -10.362183258719966
      ],
      [
        "àll",
        -10.362322271520958
      ],
      [
        "▁n'ira",
        -10.362585909232173
      ],
      [
        "▁anciens",
        -10.362818333160037
      ],
      [
        "ier",
        -10.363566347355352
      ],
      [
        "'exerce",
        -10.363586719847694
      ],
      [
        "▁att",
        -10.3644118495704
      ],
      [
        "▁naŋg",
        -10.364515985927092
      ],
      [
        "▁Xo",
        -10.364523594115326
      ],
      [
        "▁manifest",
        -10.364642146432207
      ],
      [
        "▁Nag",
        -10.364857768099267
      ],
      [
        "▁bàn",
        -10.36496749107861
      ],
      [
        "▁maladies",
        -10.364977206228168
      ],
      [
        "▁diir",
        -10.365354700137097
      ],
      [
        "▁partent",
        -10.365625103096312
      ],
      [
        "▁gale",
        -10.365671685016197
      ],
      [
        "▁l'inst",
        -10.36974906176979
      ],
      [
        "▁sii",
        -10.370650697811485
      ],
      [
        "▁Nee",
        -10.370729997264887
      ],
      [
        "▁diggu",
        -10.370824964369188
      ],
      [
        "▁jafee",
        -10.37173673457239
      ],
      [
        "▁char",
        -10.372654587675942
      ],
      [
        "▁dundam",
        -10.372976652584587
      ],
      [
        "▁mbal",
        -10.374097177049633
      ],
      [
        "▁répu",
        -10.374908598995015
      ],
      [
        "▁cat",
        -10.3750116025887
      ],
      [
        "▁instants",
        -10.375642496982662
      ],
      [
        "▁sonn",
        -10.37700129909376
      ],
      [
        "▁dig",
        -10.377273850633529
      ],
      [
        "▁sib",
        -10.377413986367426
      ],
      [
        "▁Doon",
        -10.377785211640873
      ],
      [
        "▁Dina",
        -10.378477736706582
      ],
      [
        "▁ňa",
        -10.378875731717729
      ],
      [
        "elu",
        -10.379154537279359
      ],
      [
        "▁rob",
        -10.380667297678167
      ],
      [
        "▁bou",
        -10.382039364453158
      ],
      [
        "▁Kakaa",
        -10.382343931389041
      ],
      [
        "ju",
        -10.383332058161269
      ],
      [
        "▁connaiss",
        -10.384070427895654
      ],
      [
        "▁voyai",
        -10.385107767602072
      ],
      [
        "▁waxi",
        -10.386573854543865
      ],
      [
        "indre",
        -10.386795389554115
      ],
      [
        "▁chameau",
        -10.386921964172405
      ],
      [
        "▁arriv",
        -10.387338093261496
      ],
      [
        "▁jë",
        -10.38814301504761
      ],
      [
        "ddi",
        -10.388463495141174
      ],
      [
        "▁ker",
        -10.389998999935596
      ],
      [
        "▁new",
        -10.39101139828426
      ],
      [
        "▁auto",
        -10.39258536476609
      ],
      [
        "▁grise",
        -10.393698824210654
      ],
      [
        "embou",
        -10.39495581157744
      ],
      [
        "ston",
        -10.398131030952078
      ],
      [
        "▁devenue",
        -10.398881418486859
      ],
      [
        "▁yare",
        -10.399084731554973
      ],
      [
        "ards",
        -10.40115510396387
      ],
      [
        "▁Lui",
        -10.404814451055309
      ],
      [
        "▁accompagne",
        -10.405193562269936
      ],
      [
        "prè",
        -10.405381760823074
      ],
      [
        "▁nd",
        -10.407872136604421
      ],
      [
        "laay",
        -10.410843940278522
      ],
      [
        "▁court",
        -10.41117888568596
      ],
      [
        "▁Mak",
        -10.411428817592341
      ],
      [
        "ien",
        -10.41196549047243
      ],
      [
        "▁Mari",
        -10.411973550430057
      ],
      [
        "▁vol",
        -10.412875913509533
[...]
