{
  "version": "1.0",
  "truncation": null,
  "padding": null,
  "added_tokens": [
    {
      "id": 0,
      "content": "<cls>",
      "single_word": false,
      "lstrip": false,
      "rstrip": false,
      "normalized": false,
      "special": true
    },
    {
      "id": 1,
      "content": "<sep>",
      "single_word": false,
      "lstrip": false,
      "rstrip": false,
      "normalized": false,
      "special": true
    },
    {
      "id": 2,
      "content": "<unk>",
      "single_word": false,
      "lstrip": false,
      "rstrip": false,
      "normalized": false,
      "special": true
    },
    {
      "id": 3,
      "content": "<pad>",
      "single_word": false,
      "lstrip": false,
      "rstrip": false,
      "normalized": false,
      "special": true
    },
    {
      "id": 4,
      "content": "<mask>",
      "single_word": false,
      "lstrip": false,
      "rstrip": false,
      "normalized": false,
      "special": true
    },
    {
      "id": 5,
      "content": "<s>",
      "single_word": false,
      "lstrip": false,
      "rstrip": false,
      "normalized": false,
      "special": true
    },
    {
      "id": 6,
      "content": "</s>",
      "single_word": false,
      "lstrip": false,
      "rstrip": false,
      "normalized": false,
      "special": true
    }
  ],
  "normalizer": {
    "type": "Replace",
    "pattern": {
      "String": " {2,}"
    },
    "content": " "
  },
  "pre_tokenizer": {
    "type": "Metaspace",
    "replacement": "▁",
    "add_prefix_space": true
  },
  "post_processor": null,
  "decoder": {
    "type": "Metaspace",
    "replacement": "▁",
    "add_prefix_space": true
  },
  "model": {
    "type": "Unigram",
    "unk_id": 2,
    "vocab": [
      [
        "<cls>",
        0.0
      ],
      [
        "<sep>",
        0.0
      ],
      [
        "<unk>",
        0.0
      ],
      [
        "<pad>",
        0.0
      ],
      [
        "<mask>",
        0.0
      ],
      [
        "<s>",
        0.0
      ],
      [
        "</s>",
        0.0
      ],
      [
        "▁",
        -2.3922523881715065
      ],
      [
        ".",
        -3.217230525409507
      ],
      [
        "!",
        -3.6583359907359787
      ],
      [
        "?",
        -3.6821942287468534
      ],
      [
        "s",
        -3.9922165790933155
      ],
      [
        ",",
        -4.012401665805594
      ],
      [
        "▁la",
        -4.497778265127159
      ],
      [
        "'est",
        -4.527702847358318
      ],
      [
        "i",
        -4.572696704711582
      ],
      [
        "▁dem",
        -4.621809758829218
      ],
      [
        "u",
        -4.6902859722382555
      ],
      [
        "▁!",
        -4.712648241188285
      ],
      [
        "n",
        -4.791807742271249
      ],
      [
        "▁pas",
        -4.79400482229935
      ],
      [
        "e",
        -4.802561468283002
      ],
      [
        "a",
        -4.84322363786655
      ],
      [
        "▁C",
        -4.85525934831264
      ],
      [
        "▁gi",
        -4.8896669882246995
      ],
      [
        "▁de",
        -4.928700343459412
      ],
      [
        "▁qui",
        -4.939508553326056
      ],
      [
        "▁que",
        -4.972914161753786
      ],
      [
        "t",
        -4.982622418510136
      ],
      [
        "▁ŋga",
        -5.016788013398126
      ],
      [
        "▁na",
        -5.07171526789352
      ],
      [
        "▁est",
        -5.114589396736247
      ],
      [
        "▁G",
        -5.125271070058843
      ],
      [
        "óor",
        -5.129988960844793
      ],
      [
        "▁vu",
        -5.20986637801238
      ],
      [
        "▁naa",
        -5.265577403123052
      ],
      [
        "▁ne",
        -5.285044156484495
      ],
      [
        "▁Il",
        -5.330117797248258
      ],
      [
        "▁Gis",
        -5.348631432087565
      ],
      [
        "▁Tu",
        -5.3892278895584935
      ],
      [
        "▁homme",
        -5.3971614598159965
      ],
      [
        "▁été",
        -5.421069370360399
      ],
      [
        "▁un",
        -5.428631378753947
      ],
      [
        "▁L'homme",
        -5.443807840975295
      ],
      [
        "▁tu",
        -5.515933862520584
      ],
      [
        "▁J'a",
        -5.6458120133262995
      ],
      [
        "▁Je",
        -5.6533706233587
      ],
      [
        "y",
        -5.656492799219115
      ],
      [
        "l",
        -5.667339438895081
      ],
      [
        "▁l'homme",
        -5.688554252455974
      ],
      [
        "▁ce",
        -5.689503164225996
      ],
      [
        "▁ñëw",
        -5.6903428198669035
      ],
      [
        "▁ci",
        -5.699331431697355
      ],
      [
        "▁wax",
        -5.7157262507832725
      ],
      [
        "le",
        -5.792436194618176
      ],
      [
        "▁parti",
        -5.810307585125326
      ],
      [
        "▁mu",
        -5.815734495316296
      ],
      [
        "r",
        -5.850187436701955
      ],
      [
        "▁nit",
        -5.8731266111567635
      ],
      [
        "▁Nit",
        -5.878346645011301
      ],
      [
        "▁góor",
        -5.899519640565648
      ],
      [
        "▁a",
        -5.908660824183098
      ],
      [
        "▁à",
        -5.912857873239149
      ],
      [
        "▁di",
        -5.9190162414607395
      ],
      [
        "▁qu'il",
        -5.928202910889809
      ],
      [
        "et",
        -5.987203950987988
      ],
      [
        "à",
        -6.008514527599224
      ],
      [
        "▁les",
        -6.021117358468291
      ],
      [
        "▁cet",
        -6.048014453352895
      ],
      [
        "▁c",
        -6.08673339330709
      ],
      [
        "▁le",
        -6.087360493341186
      ],
      [
        "x",
        -6.08738605367074
      ],
      [
        "▁autre",
        -6.104357890425151
      ],
      [
        "▁yi",
        -6.114917792854934
      ],
      [
        "é",
        -6.123139706587345
      ],
      [
        "▁sont",
        -6.126404193139208
      ],
      [
        "▁ŋgi",
        -6.12677823044966
      ],
      [
        "eneen",
        -6.152374819147283
      ],
      [
        "▁ba",
        -6.160732906072724
      ],
      [
        "▁ki",
        -6.1812887755684525
      ],
      [
        "▁te",
        -6.230950245683191
      ],
      [
        "▁bëgg",
        -6.243381878678912
      ],
      [
        "▁xale",
        -6.246940088952886
      ],
      [
        "▁gis",
        -6.272946787097949
      ],
      [
        "▁ka",
        -6.302226231205566
      ],
      [
        "oon",
        -6.317160258623343
      ],
      [
        "▁bi",
        -6.3179477306144864
      ],
      [
        "▁celui-là",
        -6.330626932483909
      ],
      [
        "▁as",
        -6.34274172396211
      ],
      [
        "▁parle",
        -6.342797469631201
      ],
      [
        "woon",
        -6.360161685433074
      ],
      [
        "▁woon",
        -6.379267078225656
      ],
      [
        "▁Dem",
        -6.410000919595653
      ],
      [
        "▁A",
        -6.415033061572261
      ],
      [
        "▁je",
        -6.418870012444297
      ],
      [
        "c",
        -6.433298345528769
      ],
      [
        "▁mi",
        -6.434298682692474
      ],
      [
        "▁xar",
        -6.444343279825018
      ],
      [
        "▁lui",
        -6.459492059411339
      ],
      [
        "▁mouton",
        -6.470906323556197
      ],
      [
        "▁voilà",
        -6.471003853806683
      ],
      [
        "al",
        -6.487248213402371
      ],
      [
        "il",
        -6.507468700585599
      ],
      [
        "▁il",
        -6.508726376514531
      ],
      [
        "▁là",
        -6.516388688893102
      ],
      [
        "▁venu",
        -6.553573922930088
      ],
      [
        "▁demee",
        -6.555176801792412
      ],
      [
        "▁biir",
        -6.559513713930533
      ],
      [
        "▁ji",
        -6.571819257718131
      ],
      [
        "▁partir",
        -6.581650228017642
      ],
      [
        "▁du",
        -6.583034031197846
      ],
      [
        "▁ma",
        -6.588298587405381
      ],
      [
        "▁J",
        -6.60102429307058
      ],
      [
        "▁demul",
        -6.604800894337789
      ],
      [
        "o",
        -6.606475158450485
      ],
      [
        "▁enfants",
        -6.613502943114963
      ],
      [
        "▁Cet",
        -6.621203755876159
      ],
      [
        "▁ya",
        -6.630404978109368
      ],
      [
        "▁des",
        -6.65009256330597
      ],
      [
        "▁Quel",
        -6.6556643975172305
      ],
      [
        "▁n",
        -6.6557524140512925
      ],
      [
        "▁ŋgeen",
        -6.660114706892833
      ],
      [
        "▁fi",
        -6.660903983410746
      ],
      [
        "▁dit",
        -6.66173402095966
      ],
      [
        "▁Ci",
        -6.662471234605164
      ],
      [
        "▁l'intérieur",
        -6.666686989067739
      ],
      [
        "m",
        -6.667601331816696
      ],
      [
        "▁moi",
        -6.669859602338928
      ],
      [
        "▁laa",
        -6.674894018623821
      ],
      [
        "▁kenn",
        -6.69754669597627
      ],
      [
        "▁ami",
        -6.699277045365621
      ],
      [
        "▁O",
        -6.7103163362404885
      ],
      [
        "▁tout",
        -6.713586376154741
      ],
      [
        "▁toi",
        -6.713769864749372
      ],
      [
        "ul",
        -6.71641566715501
      ],
      [
        "s-t",
        -6.720431736956213
      ],
      [
        "▁part",
        -6.730124863006453
      ],
      [
        "ci",
        -6.7382610382584485
      ],
      [
        "est",
        -6.742306784258283
      ],
      [
        "ù",
        -6.74985358813891
      ],
      [
        "▁nag",
        -6.75966164989372
      ],
      [
        "▁n'a",
        -6.759691527393542
      ],
      [
        "▁pour",
        -6.762111461759531
      ],
      [
        "ez",
        -6.763352381796305
      ],
      [
        "▁peut-",
        -6.766966421018283
      ],
      [
        "▁veux",
        -6.771941358909652
      ],
      [
        "nt",
        -6.781420572258478
      ],
      [
        "▁en",
        -6.784305886936972
      ],
      [
        "▁Ce",
        -6.789586906469078
      ],
      [
        "▁vous",
        -6.791421730221101
      ],
      [
        "re",
        -6.792364340249662
      ],
      [
        "▁Le",
        -6.7948956202074005
      ],
      [
        "▁xarit",
        -6.7980095297032825
      ],
      [
        "▁ñi",
        -6.798733028750271
      ],
      [
        "▁Xar",
        -6.80974031385654
      ],
      [
        "▁E",
        -6.823488872521578
      ],
      [
        "▁sa",
        -6.847629978694499
      ],
      [
        "▁réer",
        -6.8488959197666635
      ],
      [
        "▁Les",
        -6.855037917802134
      ],
      [
        "▁ag",
        -6.858616838116917
      ],
      [
        "ak",
        -6.86120492064491
      ],
      [
        "es",
        -6.863792392285017
      ],
      [
        "▁jigéen",
        -6.870183455646565
      ],
      [
        "▁Qui",
        -6.87532179282022
      ],
      [
        "▁Fa",
        -6.885893934699153
      ],
      [
        "▁Sée",
        -6.886806256833392
      ],
      [
        "ne",
        -6.896707676370185
      ],
      [
        "▁L",
        -6.915088969375621
      ],
      [
        "▁moom",
        -6.931790069485125
      ],
      [
        "▁l",
        -6.936102991320159
      ],
      [
        "oo",
        -6.945247362925924
      ],
      [
        "▁moutons",
        -6.949428719356202
      ],
      [
        "▁d",
        -6.9522084124653905
      ],
      [
        "▁femme",
        -6.965134678436974
      ],
      [
        "▁veut",
        -6.965275881354993
      ],
      [
        "▁nda",
        -6.977974081271763
      ],
      [
        "ont",
        -6.9853634250186065
      ],
      [
        "tu",
        -6.995596428801527
      ],
      [
        "▁k",
        -7.000390014557504
      ],
      [
        "▁So",
        -7.01017355229356
      ],
      [
        "▁kooku",
        -7.010370419535594
      ],
      [
        "-",
        -7.0265671217547965
      ],
      [
        "▁s",
        -7.032112428063314
      ],
      [
        "fa",
        -7.033790766656779
      ],
      [
        "w",
        -7.035981297406497
      ],
      [
        "▁personne",
        -7.036744699780623
      ],
      [
        "▁ave",
        -7.040688673559751
      ],
      [
        "▁où",
        -7.0424252099427616
      ],
      [
        "▁Su",
        -7.050576319188416
      ],
      [
        "▁chose",
        -7.052314471031993
      ],
      [
        "▁m",
        -7.060833816377149
      ],
      [
        "te",
        -7.069182512241714
      ],
      [
        "▁se",
        -7.072737816896447
      ],
      [
        "▁Maa",
        -7.0731548364864825
      ],
      [
        "▁Vous",
        -7.077520818089358
      ],
      [
        "▁ceux-là",
        -7.078394134066311
      ],
      [
        "▁Que",
        -7.0880650898316
      ],
      [
        "▁ku",
        -7.109906810421563
      ],
      [
        "▁si",
        -7.110349537886185
      ],
      [
        "s.",
        -7.123688181052058
      ],
      [
        "▁maison",
        -7.125923389244173
      ],
      [
        "▁y",
        -7.125942042174048
      ],
      [
        "▁dan",
        -7.1291057737260815
      ],
      [
        "▁foofu",
        -7.129336983912598
      ],
      [
        "▁moo",
        -7.134939616071695
      ],
      [
        "▁doon",
        -7.136298441444287
      ],
      [
        "▁Na",
        -7.140692950976087
      ],
      [
        "▁ni",
        -7.150236792827645
      ],
      [
        "uñu",
        -7.159559347319295
      ],
      [
        "▁Du",
        -7.162816165933233
      ],
      [
        "na",
        -7.164683968580659
      ],
      [
        "épp",
        -7.165612667937863
      ],
      [
        "▁nañu",
        -7.168138346320228
      ],
      [
        "▁aussi",
        -7.175231676955417
      ],
      [
        "▁gens",
        -7.177290647734967
      ],
      [
        "▁F",
        -7.177981619037478
      ],
      [
        "▁baax",
        -7.179224619335662
      ],
      [
        "tre",
        -7.181811505753404
      ],
      [
        "g",
        -7.186653924294587
      ],
      [
        "▁K",
        -7.188281135803358
      ],
      [
        "▁vois",
        -7.203107104155218
      ],
      [
        "▁waa",
        -7.203950508947818
      ],
      [
        "▁dana",
        -7.207769350050563
      ],
      [
        "▁Te",
        -7.209323642094515
      ],
      [
        "koon",
        -7.212428981867292
      ],
      [
        "-là",
        -7.220742577382845
      ],
      [
        "▁La",
        -7.220960471370708
      ],
      [
        "▁jusqu'",
        -7.22663160834975
      ],
      [
        "▁Xale",
        -7.227593167185524
      ],
      [
        "▁yépp",
        -7.228769918445078
      ],
      [
        "▁Keneen",
        -7.230019051170674
      ],
      [
        "▁fu",
        -7.239670297978973
      ],
      [
        "▁Yaa",
        -7.240407386176297
      ],
      [
        "▁ñu",
        -7.265733287072996
      ],
      [
        "▁Va",
        -7.266014953446641
      ],
      [
        "on",
        -7.278791403638733
      ],
      [
        "▁égaré",
        -7.279249845896169
      ],
      [
        "▁lion",
        -7.280780761947886
      ],
      [
        "▁doŋŋ",
        -7.282620096120442
      ],
      [
        "▁Samba",
        -7.283227560357528
      ],
      [
        "▁donné",
        -7.2832364503239
      ],
      [
        "▁l'autre",
        -7.283883415405138
      ],
      [
        "▁quelqu'un",
        -7.28409502275156
      ],
      [
        "▁S",
        -7.287137129230041
      ],
      [
        "▁croi",
        -7.289889868900506
      ],
      [
        "▁Laobe",
        -7.291745589416475
      ],
      [
        "▁Ma",
        -7.2918435339675565
      ],
      [
        "▁man",
        -7.294254657397486
      ],
      [
        "▁Da",
        -7.296201220753511
      ],
      [
        "▁Bëgg",
        -7.301929585133948
      ],
      [
        "▁Nda",
        -7.30406981557727
      ],
      [
        "is",
        -7.316566138955382
      ],
      [
        "une",
        -7.316770030109197
      ],
      [
        "▁t'a",
        -7.3200203021399854
      ],
      [
        "▁quelle",
        -7.324843142063694
      ],
      [
        "▁dee",
        -7.330144302083495
      ],
      [
        "or",
        -7.332010470104521
      ],
      [
        "▁Moo",
        -7.339035952569168
      ],
      [
        "▁rekk",
        -7.3414056974446495
      ],
      [
        "▁là-bas",
        -7.3422486848768465
      ],
      [
        "▁celui",
        -7.34231319480674
      ],
      [
        "rç",
        -7.342496559334176
      ],
      [
        "▁Mais",
        -7.3431403745756745
      ],
      [
        "▁lañu",
        -7.347341287339825
      ],
      [
        "▁so",
        -7.347740283815722
      ],
      [
        "▁Seet",
        -7.35206520466102
      ],
      [
        "soo",
        -7.354803146938157
      ],
      [
        "▁fa",
        -7.3593889362130955
      ],
      [
        "▁autres",
        -7.362479539347941
      ],
      [
        "▁Mi",
        -7.368232315712623
      ],
      [
        "it",
        -7.373690444307107
      ],
      [
        "▁dul",
        -7.375980843222893
      ],
      [
        "▁ñoo",
        -7.376310901674433
      ],
      [
        "▁parte",
        -7.385154542047561
      ],
      [
        "un",
        -7.386822734722626
      ],
      [
        "ay",
        -7.398467369436459
      ],
      [
        "igéen",
        -7.400317039896918
      ],
      [
        "ent",
        -7.402067468378579
      ],
      [
        "▁Un",
        -7.403093306642932
      ],
      [
        "▁benn",
        -7.404208551554555
      ],
      [
        "▁vache",
        -7.406029033619406
      ],
      [
        "ment",
        -7.408082404355695
      ],
      [
        "▁D",
        -7.411739330633038
      ],
      [
        "▁demkoon",
        -7.412376345907578
      ],
      [
        "▁Waa",
        -7.413397488504026
      ],
      [
        "ère",
        -7.4185505611048885
      ],
      [
        "▁pars",
        -7.423160000782479
      ],
      [
        "▁fait",
        -7.427748580105863
      ],
      [
        "▁j",
        -7.441396530655619
      ],
      [
        "▁Si",
        -7.442216163566441
      ],
      [
        "▁leen",
        -7.453330409426797
      ],
      [
        "▁n'es",
        -7.455489906277032
      ],
      [
        "▁es",
        -7.461763911374472
      ],
      [
        "▁De",
        -7.469656154454471
      ],
      [
        "▁rien",
        -7.470409199096196
      ],
      [
        "▁dara",
        -7.470414061723113
      ],
      [
        "▁ñépp",
        -7.470772417315722
      ],
      [
        "▁Kooku",
        -7.470860075787057
      ],
      [
        "▁ñan",
        -7.470929510518688
      ],
      [
        "▁yooyu",
        -7.471719977566781
      ],
      [
        "▁Ya",
        -7.47213781057186
      ],
      [
        "▁Yaw",
        -7.477564100375516
      ],
      [
        "en",
        -7.487865525681141
      ],
      [
        "▁fii",
        -7.507770764070623
      ],
      [
        "▁Y",
        -7.509075940403983
      ],
      [
        "▁da",
        -7.51444240581354
      ],
      [
        "▁tou",
        -7.525240021208644
      ],
      [
        "▁Ba",
        -7.527332251471446
      ],
      [
        "▁S'il",
        -7.5412817721229874
      ],
      [
        "▁Aucun",
        -7.54159807238811
      ],
      [
        "▁Celui-là",
        -7.54240751661527
      ],
      [
        "▁simplement",
        -7.542525978713835
      ],
      [
        "▁Saint-Louis",
        -7.542627513161857
      ],
      [
        "▁celui-ci",
        -7.5431664300432075
      ],
      [
        "▁mépp",
        -7.544224389136513
      ],
      [
        "▁gaynde",
        -7.5449496820627395
      ],
      [
        "▁dame",
        -7.546706820907753
      ],
      [
        "▁Tout",
        -7.548903193891868
      ],
      [
        "▁Ndar",
        -7.553246281626434
      ],
      [
        "▁d'autres",
        -7.559734615585084
      ],
      [
        "ñ",
        -7.5606899218364845
      ],
      [
        "C",
        -7.566870368231273
      ],
      [
        "▁n'",
        -7.571139700900909
      ],
      [
        "ê",
        -7.581119886721886
      ],
      [
        "▁Bi",
        -7.5825516088480684
      ],
      [
        "▁b",
        -7.587474512540381
      ],
      [
        "▁son",
        -7.588933235551384
      ],
      [
        "▁seul",
        -7.591720955965192
      ],
      [
        "êt",
        -7.5970221244220095
      ],
      [
        "▁avait",
        -7.605833820253594
      ],
      [
        "▁quel",
        -7.606388892917547
      ],
      [
        ":",
        -7.6121837362822795
      ],
      [
        "▁su",
        -7.614705787350811
      ],
      [
        "▁jëm",
        -7.617854952598873
      ],
      [
        "▁matin",
        -7.618240005656201
      ],
      [
        "▁Yéen",
        -7.619335472207286
      ],
      [
        "▁Mu",
        -7.619824031848726
      ],
      [
        "▁jeune",
        -7.619921938610894
      ],
      [
        "▁d'",
        -7.621394827824711
      ],
      [
        "▁bëggul",
        -7.624152142463186
      ],
      [
        "ape",
        -7.6264277928638435
      ],
      [
        "▁viendra",
        -7.633662523656228
      ],
      [
        "-ci",
        -7.633697984117973
      ],
      [
        "▁À",
        -7.6380448118648
      ],
      [
        "▁l'",
        -7.641129178371477
      ],
      [
        "▁étai",
        -7.645760064475521
      ],
      [
        "ël",
        -7.650497178840469
      ],
      [
        "▁fas",
        -7.657941267688587
      ],
      [
        "▁bii",
        -7.664062951772937
      ],
      [
        "▁femmes",
        -7.665057493810041
      ],
      [
        "▁bon",
        -7.665628212283639
      ],
      [
        "óon",
        -7.666985235356647
      ],
      [
        "▁Ken",
        -7.676257458843628
      ],
      [
        "▁Quelle",
        -7.680958353503144
      ],
      [
        "▁vienne",
        -7.68114625512295
      ],
      [
        "de",
        -7.683415041863146
      ],
      [
        "la",
        -7.683518991853359
      ],
      [
        "▁R",
        -7.688793083573676
      ],
      [
        "▁def",
        -7.691542404057539
      ],
      [
        "▁kër",
        -7.700151842952595
      ],
      [
        "▁Jox",
        -7.700461180572035
      ],
      [
        "▁génn",
        -7.700881150527051
      ],
      [
        "▁Lawbe",
        -7.701348346589487
      ],
      [
        "▁Defe",
        -7.701580621678003
      ],
      [
        "▁Cherche",
        -7.701741648859523
      ],
      [
        "▁question",
        -7.701935426593728
      ],
      [
        "▁bañ",
        -7.702940915254236
      ],
      [
        "gee",
        -7.703671818860931
      ],
      [
        "oi",
        -7.706150837854304
      ],
      [
        "▁Demal",
        -7.706471422531663
      ],
      [
        "▁doom",
        -7.716995713868744
      ],
      [
        "▁fut",
        -7.717994201128823
      ],
      [
        "kan",
        -7.7341425977435545
      ],
      [
        "▁ŋgii",
        -7.737178949275888
      ],
      [
        "▁bien",
        -7.738289529327655
      ],
      [
        "▁Wax",
        -7.74843386916994
      ],
      [
        "▁parles",
        -7.750272985432713
      ],
      [
        "▁Di",
        -7.751276375207427
      ],
      [
        "▁nul",
        -7.7513229291983015
      ],
      [
        "▁qu",
        -7.753985311139745
      ],
      [
        "▁ca",
        -7.756670998566108
      ],
      [
        "▁C'",
        -7.767415228791975
      ],
      [
        "▁daa",
        -7.76831988042276
      ],
      [
        "ñu",
        -7.769320245439318
      ],
      [
        "▁vas",
        -7.770814799211699
      ],
      [
        "▁l'a",
        -7.770985515550819
      ],
      [
        "▁partis",
        -7.772229809553324
      ],
      [
        "é.",
        -7.774158588902482
      ],
      [
        "▁qu'",
        -7.775206612529902
      ],
      [
        "naa",
        -7.77848531166963
      ],
      [
        "▁parl",
        -7.7814603572523104
      ],
      [
        "▁liggéey",
        -7.7839652010086855
      ],
      [
        "G",
        -7.786468871978384
      ],
      [
        "▁Homme",
        -7.791789522300722
      ],
      [
        "▁cheval",
        -7.791946372848927
      ],
      [
        "▁Xammee",
        -7.792073217003963
      ],
      [
        "▁Moussa",
        -7.79208374504576
      ],
      [
        "▁Qu'il",
        -7.792377083836338
      ],
      [
        "▁dañu",
        -7.792733857220982
      ],
      [
        "▁kii",
        -7.7930086439572115
      ],
      [
        "ement",
        -7.793566053642342
      ],
      [
        "▁yaw",
        -7.79387574245561
      ],
      [
        "▁va",
        -7.798222595037076
      ],
      [
        "▁égarée",
        -7.798281930468876
      ],
      [
        "▁fille",
        -7.798381527310975
      ],
      [
        "ais",
        -7.804824180407117
      ],
      [
        "▁P",
        -7.8109451077099825
      ],
      [
        "▁defe",
        -7.811748945931845
      ],
      [
        "am",
        -7.8131162309742574
      ],
      [
        "d",
        -7.817278692256153
      ],
      [
        "▁ira",
        -7.817483294461235
      ],
      [
        "▁soi",
        -7.818951595069845
      ],
      [
        "réer",
        -7.819179185576697
      ],
      [
        "que",
        -7.820783055518781
      ],
      [
        "▁partira",
        -7.823545917656242
      ],
      [
        "▁Nou",
        -7.82380768591049
      ],
      [
        "▁serai",
        -7.824265830961497
      ],
      [
        "▁Bu",
        -7.824386804336741
      ],
      [
        "tes",
        -7.8244614609786645
      ],
      [
        "h",
        -7.829851693397034
      ],
      [
        "▁lan",
        -7.837949586590907
      ],
      [
        "▁Sa",
        -7.8391273136378805
      ],
      [
        "▁voir",
        -7.84032929509268
      ],
      [
        "▁ban",
        -7.84124148992247
      ],
      [
        "ait",
        -7.845378462706309
      ],
      [
        "▁N",
        -7.846346859130482
      ],
      [
        "as-",
        -7.846472600117556
      ],
      [
        "▁v",
        -7.8512305337279145
      ],
      [
        "▁Li",
        -7.851559170521286
      ],
      [
        "ces",
        -7.859645824469158
      ],
      [
        "b",
        -7.86450594257304
      ],
      [
        "enn",
        -7.875030434968155
      ],
      [
        "▁M",
        -7.882903286674308
      ],
      [
        "atim",
        -7.885997962378733
      ],
      [
        "▁nee",
        -7.8876419379170155
      ],
      [
        "▁dugg",
        -7.891066185476927
      ],
      [
        "▁subë",
        -7.8910961398801795
      ],
      [
        "▁toog",
        -7.891485694460021
      ],
      [
        "▁Alors",
        -7.891496385725077
      ],
      [
        "▁V",
        -7.891499241026165
      ],
      [
        "▁d'Europe",
        -7.892009631646728
      ],
      [
        "▁Fatim",
        -7.892106218832028
      ],
      [
        "▁biti",
        -7.892924430846351
      ],
      [
        "▁plus",
        -7.89313710367251
      ],
      [
        "▁Xam",
        -7.895540130655281
      ],
      [
        "▁yeneen",
        -7.899187635023448
      ],
      [
        "▁ñëwul",
        -7.901131064771963
      ],
      [
        "▁sama",
        -7.902805794966246
      ],
      [
        "▁Koo",
        -7.90356587332807
      ],
      [
        "▁j'a",
        -7.904624659827572
      ],
      [
        "k",
        -7.907693904856815
      ],
      [
        "▁par",
        -7.908330905461373
      ],
      [
        "▁aujourd'hui",
        -7.911954394786748
      ],
      [
        "▁ici",
        -7.912499142672175
      ],
      [
        "an",
        -7.918031847169627
      ],
      [
        "▁Man",
        -7.921075667580439
      ],
      [
        "▁ja",
        -7.922651506550348
      ],
      [
        "▁Voil",
        -7.92643563475275
      ],
      [
        "▁partes",
        -7.929211326337963
      ],
      [
        "▁Comme",
        -7.932353962582065
      ],
      [
        "voir",
        -7.941364925003998
      ],
      [
        "▁ou",
        -7.942880901923511
      ],
      [
        "▁Mon",
        -7.9432425241363696
      ],
      [
        "mi",
        -7.9474543333494925
      ],
      [
        "▁ay",
        -7.947888450326342
      ],
      [
        "er",
        -7.948075821480193
      ],
      [
        "gii",
        -7.950861925927255
      ],
      [
        "fin",
        -7.952392643790045
      ],
      [
        "uma",
        -7.9569022471962505
      ],
      [
        "ons",
        -7.9598412273679635
      ],
      [
        "▁am",
        -7.963172757686554
      ],
      [
        "eux",
        -7.97134470464769
      ],
      [
        "vais",
        -7.973451644044957
      ],
      [
        "▁w",
        -7.984314058257776
      ],
      [
        "▁même",
        -7.985675482900554
      ],
      [
        "f",
        -7.986335916301855
      ],
      [
        "▁re",
        -7.986806323271932
      ],
      [
        "▁na.",
        -7.987920574962216
      ],
      [
        "▁Ñ",
        -7.999126606109182
      ],
      [
        "een",
        -8.001425004544483
      ],
      [
        "▁dëkk",
        -8.002243931813076
      ],
      [
        "▁acheté",
        -8.002278843041971
      ],
      [
        "▁Sérère",
        -8.002320929764013
      ],
      [
        "▁néeg",
        -8.002572274939714
      ],
      [
        "▁jaŋg",
        -8.00291663605172
      ],
      [
        "▁Musaa",
        -8.003774400358166
      ],
      [
        "▁ndaw",
        -8.00395786649623
      ],
      [
        "▁Tay",
        -8.00397177824014
      ],
      [
        "▁bépp",
        -8.00416322198657
      ],
      [
        "▁s'en",
        -8.00811097561217
      ],
      [
        "▁tay",
        -8.010286118689049
      ],
      [
        "▁ŋgoon",
        -8.010368618694757
      ],
      [
        "▁Woo",
        -8.01115720951551
      ],
      [
        "▁Là",
        -8.011381977732107
      ],
      [
        "est-ce",
        -8.01299684704845
      ],
      [
        "▁itam",
        -8.013404944787442
      ],
      [
        "▁seen",
        -8.01416434689409
      ],
      [
        "ŋga",
        -8.017889701955447
      ],
      [
        "'étai",
        -8.018459427218273
      ],
      [
        "e.",
        -8.01990313508227
      ],
      [
        "▁Ne",
        -8.024325687887298
      ],
      [
        "ee",
        -8.033002251777596
      ],
      [
        "▁viennes",
        -8.035084604939284
      ],
      [
        "z",
        -8.039294622040375
      ],
      [
        "▁may",
        -8.04395752822184
      ],
      [
        "▁don",
        -8.051836672813412
      ],
      [
        "ag",
        -8.055758578363912
      ],
      [
        "▁mo",
        -8.056474563081474
      ],
      [
        "▁au",
        -8.05835140678927
      ],
      [
        "▁enfant",
        -8.064809889352343
      ],
      [
        "▁eû",
        -8.074159943059442
      ],
      [
        "▁Doo",
        -8.07822596947533
      ],
      [
        "▁entre",
        -8.088850318210811
      ],
      [
        "▁avais",
        -8.089540877343072
      ],
      [
        "▁gu",
        -8.08996657774983
      ],
      [
        "les",
        -8.09054221495273
      ],
      [
        "..",
        -8.092643819169187
      ],
      [
        "▁B",
        -8.098015618230079
      ],
      [
        "leen",
        -8.098976453474254
      ],
      [
        "fois",
        -8.103499141581327
      ],
      [
        "▁no",
        -8.106761947917676
      ],
      [
        "elle",
        -8.107098033451475
      ],
      [
        "oom",
        -8.108599003561975
      ],
      [
        "▁arrivé",
        -8.109632736238549
      ],
      [
        "and",
        -8.113372832635823
      ],
      [
        "▁Noon",
        -8.11480090098287
      ],
      [
        "gal",
        -8.124906007838037
      ],
      [
        "▁rafet",
        -8.125122655471639
      ],
      [
        "▁encore",
        -8.12671437858895
      ],
      [
        "▁entier",
        -8.126734575005141
      ],
      [
        "▁Waaye",
        -8.12673691280471
      ],
      [
        "▁Loolu",
        -8.126747045256757
      ],
      [
        "▁allé",
        -8.126819489952576
      ],
      [
        "▁chevaux",
        -8.12690823328901
      ],
      [
        "▁pourtant",
        -8.127283551165885
      ],
      [
        "▁Toi",
        -8.130611122935788
      ],
      [
        "▁sortir",
        -8.130629389108176
      ],
      [
        "▁g",
        -8.130873823756758
      ],
      [
        "▁Kookule",
        -8.131832767945147
      ],
      [
        "▁sax",
        -8.134623735391148
      ],
      [
        "st-ce",
        -8.136316864812962
      ],
      [
        "▁Par",
        -8.136365273242998
      ],
      [
        "▁Qu",
        -8.139359736652304
      ],
      [
        "t-il",
        -8.139372679895033
      ],
      [
        "▁cherche",
        -8.14028452941022
      ],
      [
        "▁Noonu",
        -8.142309209964226
      ],
      [
        "▁mais",
        -8.143571212896724
      ],
      [
        "'habitude",
        -8.14646214901143
      ],
      [
        "iez",
        -8.147229957852351
      ],
      [
        "▁soir",
        -8.150568499391285
      ],
      [
        "▁May",
        -8.152120119421276
      ],
      [
        "▁connais",
        -8.15503954045941
      ],
      [
        "▁bëggée",
        -8.156729526847498
      ],
      [
        "▁Loo",
        -8.158556515211433
      ],
      [
        "ée",
        -8.163088022031237
      ],
      [
        "▁bu",
        -8.171529006417906
      ],
      [
        "▁gan",
        -8.174071080485755
      ],
      [
        "▁vient",
        -8.176712018263506
      ],
      [
        "ënd",
        -8.178617746285124
      ],
      [
        "-t",
        -8.182831123224295
      ],
      [
        "mbaa",
        -8.185859191368607
      ],
      [
        "ma",
        -8.189260663571027
      ],
      [
        "ra",
        -8.192622771251617
      ],
      [
        "nd",
        -8.193663017526935
      ],
      [
        "ien",
        -8.195062575193454
      ],
      [
        "▁d'autre",
        -8.208298127338384
      ],
      [
        "▁t",
        -8.216975370024674
      ],
      [
        "▁n'ai",
        -8.218409618734118
      ],
      [
        "▁jii",
        -8.22034776996077
      ],
      [
        "▁ñ",
        -8.225703537266838
      ],
      [
        "kat",
        -8.233581329238966
      ],
      [
        "▁L'",
        -8.23629281454204
      ],
      [
        "▁Laob",
        -8.24561642607011
      ],
      [
        "as",
        -8.245903998229654
      ],
      [
        "ou",
        -8.261321931199465
      ],
      [
        "▁av",
        -8.264768900305404
      ],
      [
        "▁boeuf",
        -8.265394686510623
      ],
      [
        "▁yeksi",
        -8.265395333489245
      ],
      [
        "▁Ainsi",
        -8.265398206604676
      ],
      [
        "▁Deŋk",
        -8.265443663167652
      ],
      [
        "▁Mbaa",
        -8.265513084005137
      ],
      [
        "▁téer",
        -8.265723813947131
      ],
      [
        "▁dellusi",
        -8.266051761574808
      ],
      [
        "▁allai",
        -8.266114183650243
      ],
      [
        "près",
        -8.266533776033565
      ],
      [
        "▁tày",
        -8.266706706304294
      ],
      [
        "ppelle",
        -8.267046590073546
      ],
      [
        "▁lequel",
        -8.267153827619264
      ],
      [
        "▁xam",
        -8.267476701133807
      ],
      [
        "▁êtes",
        -8.269731267188144
      ],
      [
        "▁l'enfant",
        -8.27025885456808
      ],
      [
        "▁mère",
        -8.270605004237572
      ],
      [
        "▁Ra",
        -8.272855804635823
      ],
      [
        "▁caus",
        -8.273444793893342
      ],
      [
        "▁Moom",
        -8.274168905998682
      ],
      [
        "▁Foofu",
        -8.275236249217853
      ],
      [
        "▁woo",
        -8.27574106989386
      ],
      [
        "▁Cela",
        -8.27714965045946
      ],
      [
        "individu",
        -8.281921113820605
      ],
      [
        "tte",
        -8.282984373772667
      ],
      [
        "▁toute",
        -8.285925854606685
      ],
      [
        "óo",
        -8.286161058503042
      ],
      [
        "▁arrivés",
        -8.287778158664558
      ],
      [
        "ieur",
        -8.291991448381326
      ],
      [
        "▁leneen",
        -8.292536978436601
      ],
      [
        "▁Sur",
        -8.293400681322748
      ],
      [
        "▁nak",
        -8.29427677566
      ],
      [
        "▁ñooñu",
        -8.295590258987584
      ],
      [
        "▁wall",
        -8.296638030501779
      ],
      [
        "▁demande",
        -8.298617189156907
      ],
      [
        "▁fil",
        -8.302993396509377
      ],
      [
        "▁Ben",
        -8.303534078501073
      ],
      [
        "▁d'un",
        -8.305170756582758
      ],
      [
        "▁wa",
        -8.31454628042176
      ],
      [
        "▁comme",
        -8.320975423508305
      ],
      [
        "▁bir",
        -8.321507904054023
      ],
      [
        "ar",
        -8.331025727839858
      ],
      [
        "▁jooju",
        -8.3342027263197
      ],
      [
        "ore",
        -8.341187605937039
      ],
      [
        "▁ñooña",
        -8.347560753010175
      ],
      [
        "ale",
        -8.347883308524418
      ],
      [
        "▁Ou",
        -8.354617410052944
      ],
      [
        "ir",
        -8.361521384360628
      ],
      [
        "pp",
        -8.363762223345418
      ],
      [
        "ka",
        -8.365094676490957
      ],
      [
        "▁p",
        -8.368570712617881
      ],
      [
        "▁m'a",
        -8.372312867970528
      ],
      [
        "▁travail",
        -8.376338147024008
      ],
      [
        "▁Moi",
        -8.378043370075726
      ],
      [
        "ëf",
        -8.402013802826616
      ],
      [
        "▁ju",
        -8.40349352539118
      ],
      [
        "quel",
        -8.40871455749783
      ],
      [
        "▁Men",
        -8.409364050339416
      ],
      [
        "▁W",
        -8.412061111279908
      ],
      [
        "▁nous",
        -8.42459281925938
      ],
      [
        "▁më",
        -8.426128781122763
      ],
      [
        "▁Aujourd'hui",
        -8.43206108121231
      ],
      [
        "▁d'esprit",
        -8.432061090078744
      ],
      [
        "▁Waxtaan",
        -8.432092095223693
      ],
      [
        "▁croyai",
        -8.43209524481257
      ],
      [
        "▁manière",
        -8.432157209196648
      ],
      [
        "▁Génn",
        -8.43240123367597
      ],
      [
        "▁Donne",
        -8.432677636405964
      ],
      [
        "▁noonu",
        -8.433323745200422
      ],
      [
        "▁doonkoon",
        -8.433825327551954
      ],
      [
        "▁Tugël",
        -8.433985021301616
      ],
      [
        "▁reste",
        -8.433998247229605
      ],
      [
        "▁L'un",
        -8.434297867687281
      ],
      [
        "▁fépp",
        -8.434440215413447
      ],
      [
        "▁Waaw",
        -8.43471267161083
      ],
      [
        "▁lëf",
        -8.435538452034788
      ],
      [
        "▁ànd",
        -8.43566242588982
      ],
      [
        "▁sain",
        -8.436833996607024
      ],
      [
        "▁amen",
        -8.437821717687775
      ],
      [
        "▁feneen",
        -8.437958711362379
      ],
      [
        "▁autre-là",
        -8.43820670404486
      ],
      [
        "▁n'étai",
        -8.438311627441077
      ],
      [
        "▁ñaan",
        -8.438723148130382
      ],
      [
        "▁ville",
        -8.438896391815952
      ],
      [
        "bër",
        -8.438952460013498
      ],
      [
        "moi",
        -8.440168117711254
      ],
      [
        "▁endroit",
        -8.44145830283739
      ],
      [
        "éel",
        -8.45393161678384
      ],
      [
        "▁boo",
        -8.455062190357435
      ],
      [
        "▁refuse",
        -8.45723716898159
      ],
      [
        "▁Ki",
        -8.457735027556103
      ],
      [
        "▁boobu",
        -8.458322629318378
      ],
      [
        "▁Waxa",
        -8.472230154672804
      ],
      [
        "▁Dana",
        -8.47581221307733
      ],
      [
        "▁tax",
        -8.479930528247127
      ],
      [
        "connais",
        -8.48204439806199
      ],
      [
        "▁Dan",
        -8.484795372205857
      ],
      [
        "▁f",
        -8.485157834299509
      ],
      [
        "▁pay",
        -8.486680146886446
      ],
      [
        "▁Wa",
        -8.488934691925015
      ],
      [
        "▁Ch",
        -8.490210468738127
      ],
      [
        "▁t'",
        -8.495872696120944
      ],
      [
        "ient",
        -8.49637487122202
      ],
      [
        "▁alal",
        -8.502995607397631
      ],
      [
        "▁wan",
        -8.506830889645954
      ],
      [
        "ñee",
        -8.508854593520956
      ],
      [
        "▁it",
        -8.510327230146576
      ],
      [
        "▁aurai",
        -8.512517278273496
      ],
      [
        "▁T",
        -8.513160219840396
      ],
      [
        "▁moomu",
        -8.520365101807025
      ],
      [
        "▁n'e",
        -8.521947874776941
      ],
      [
        "▁dé",
        -8.523708893572048
      ],
      [
        "▁yaa",
        -8.524134809383451
      ],
      [
        "je",
        -8.535059528863465
      ],
      [
        "▁mes",
        -8.5354484846153
      ],
      [
        "▁aller",
        -8.535823268318198
      ],
      [
        "▁vo",
        -8.538741853691304
      ],
      [
        "▁n'avai",
        -8.539041491421152
      ],
      [
        "▁jooj",
        -8.54397518853442
      ],
      [
        "p",
        -8.549494591156687
      ],
      [
        "▁doi",
        -8.553602564783459
      ],
      [
        "▁Daŋg",
        -8.554256102642823
      ],
      [
        "gi",
        -8.562801632288036
      ],
      [
        "▁Dis",
        -8.571918196154009
      ],
      [
        "▁ch",
        -8.577695227903522
      ],
      [
        "j",
        -8.57905313506259
      ],
      [
        "cc",
        -8.589449123416347
      ],
      [
        "▁Am",
        -8.590866248451501
      ],
      [
        "▁Ñe",
        -8.59392878471173
      ],
      [
        "▁veni",
        -8.596589278184785
      ],
      [
        "kk",
        -8.603110501797014
      ],
      [
        "▁leur",
        -8.607111144905009
      ],
      [
        "▁individu",
        -8.608708335314226
      ],
      [
        "▁livre",
        -8.609485213976992
      ],
      [
        "ce",
        -8.623385741844741
      ],
      [
        "▁lieu",
        -8.630010204214077
      ],
      [
        "▁bûcheron",
        -8.632061081185622
      ],
      [
        "▁auparavant",
        -8.632061083366796
      ],
      [
        "▁accepte",
        -8.632061086922647
      ],
      [
        "▁fortune",
        -8.63206112398357
      ],
      [
        "▁maître",
        -8.632061754191582
      ],
      [
        "▁Moontin",
        -8.632063200133004
      ],
      [
        "▁courage",
        -8.63206343573442
      ],
      [
        "▁gentil",
        -8.632079541516015
      ],
      [
        "▁xaalis",
        -8.632086052492177
      ],
      [
        "▁travailleurs",
        -8.632128010874522
      ],
      [
        "▁Ceux-là",
        -8.632221281048542
      ],
      [
        "▁parole",
        -8.632274840786902
      ],
      [
        "▁taxaw",
        -8.632381833767921
      ],
      [
        "▁dëgg",
        -8.632448626154805
      ],
      [
        "▁unique",
        -8.63264925259533
      ],
      [
        "▁kookee",
        -8.633058775009905
      ],
      [
        "▁Ñii",
        -8.633072091130249
      ],
      [
        "▁surtout",
        -8.633179594244545
      ],
      [
        "▁ŋgoogule",
        -8.633536036841118
      ],
      [
        "googule",
        -8.634495656128404
      ],
      [
        "▁nekk",
        -8.636556888693542
      ],
      [
        "▁wet",
        -8.637695488134508
      ],
      [
        "▁reconnu",
        -8.638500217654874
      ],
      [
        "▁Foo",
        -8.638535744024072
      ],
      [
        "▁revienne",
        -8.639869183088033
      ],
      [
        "ë",
        -8.642592282268549
      ],
      [
        "▁deey",
        -8.64379417391796
      ],
      [
        "vait",
        -8.645830355403232
      ],
      [
        "▁eusse",
        -8.646090445949545
      ],
      [
        "▁sorti",
        -8.646606666022581
      ],
      [
        "▁Dama",
        -8.646629843389812
      ],
      [
        "▁beau",
        -8.65006732271041
      ],
      [
        "▁pri",
        -8.655407293913228
      ],
      [
        "▁kee",
        -8.656646959617069
      ],
      [
        "▁mag",
        -8.65811220890339
      ],
      [
        "▁cela",
        -8.67138523374768
      ],
      [
        "ton",
        -8.672407847885381
      ],
      [
        "rends",
        -8.673916820984044
      ],
      [
        "▁ñibbi",
        -8.674808721271102
      ],
      [
        "r.",
        -8.676348855413325
      ],
      [
        "-il",
        -8.676486688537787
      ],
      [
        "ral",
        -8.680381190860203
      ],
      [
        "'esp",
        -8.682228490957149
      ],
      [
        "s-",
        -8.68730311975999
      ],
      [
        "▁Tou",
        -8.688305420771746
      ],
      [
        "egarde",
        -8.691219698505462
      ],
      [
        "age",
        -8.691821193330556
      ],
      [
        "aller",
        -8.691934436232346
      ],
      [
        "▁kookuu",
        -8.697910625532645
      ],
      [
        "▁souhaite",
        -8.699340187524562
      ],
      [
        "aar",
        -8.702749370267249
      ],
      [
        "▁bokk",
        -8.705426714453097
      ],
      [
        "rent",
        -8.706460509360102
      ],
      [
        "mu",
        -8.70779204773977
      ],
      [
        "▁Me",
        -8.707969040632985
      ],
      [
        "▁donne",
        -8.70807288701402
      ],
      [
        "esquel",
        -8.711280728772763
      ],
      [
        "▁d'a",
        -8.713507991850467
      ],
      [
        "▁n'as",
        -8.722995036726903
      ],
      [
        "▁në",
        -8.723103995042404
      ],
      [
        "jà",
        -8.726178281513063
      ],
      [
        "▁Ta",
        -8.732662462546234
      ],
      [
        "eur",
        -8.73638008002664
      ],
      [
        "▁be",
        -8.737506561865361
      ],
      [
        "▁Xo",
        -8.737795062372633
      ],
      [
        "▁enfant-",
        -8.739357550679975
      ],
      [
        "▁Lu",
        -8.742117226719515
      ],
      [
        "▁alla",
        -8.742642050375316
      ],
      [
        "▁set",
        -8.744989042175627
      ],
      [
        "▁Bul",
        -8.745516570378957
      ],
      [
        "▁me",
        -8.749889305093035
      ],
      [
        "▁mon",
        -8.754141277262557
      ],
      [
        "lal",
        -8.756045866660942
      ],
      [
        "di",
        -8.761219808753687
      ],
      [
        "obul",
        -8.763192595810443
      ],
      [
        "▁choses",
        -8.763449213071393
      ],
      [
        "ax",
        -8.764622460606466
      ],
      [
        "▁ye",
        -8.767911184828776
      ],
      [
        "▁ko",
        -8.77341214689968
      ],
      [
        "ii",
        -8.77877830447077
      ],
      [
        "mour",
        -8.779747261187843
      ],
      [
        "appartien",
        -8.781308465153511
      ],
      [
        "▁seet",
        -8.782355220615235
      ],
      [
        "kóon",
        -8.783982446558952
      ],
      [
        "▁li",
        -8.785358000921605
      ],
      [
        "ile",
        -8.79009242054004
      ],
      [
        "▁été.",
        -8.79074082930465
      ],
      [
        "ût",
        -8.800178984051936
      ],
      [
        "ri",
        -8.818233946183284
      ],
      [
        "▁ñooñ",
        -8.822722712051409
      ],
      [
        "▁Ŋg",
        -8.834014837947569
      ],
      [
        "ti",
        -8.838291645948484
      ],
      [
        "wal",
        -8.840339969667617
      ],
      [
        "ŋgeen",
        -8.844324075115999
      ],
      [
        "▁gisu",
        -8.844330379072094
      ],
      [
        "▁lool",
        -8.844648685368004
      ],
      [
        "me",
        -8.854651994418044
      ],
      [
        "ici",
        -8.864058041799563
      ],
      [
        "ab",
        -8.870996788716685
      ],
      [
        "our",
        -8.871434565383135
      ],
      [
        "q",
        -8.87378129900136
      ],
      [
        "▁naŋg",
        -8.875835868236953
      ],
      [
        "vous",
        -8.878047411097395
      ],
      [
        "▁habituellement",
        -8.88206108117236
      ],
      [
        "▁l'extérieur",
        -8.882061081172411
      ],
      [
        "«",
        -8.88206108121231
      ],
      [
        "»",
        -8.88206108121231
      ],
      [
        "▁chambre",
        -8.88206112051816
      ],
      [
        "▁garçon",
        -8.882061735970954
      ],
      [
        "▁Ñëw",
        -8.88206182708416
      ],
      [
        "▁dehors",
        -8.882061837744372
      ],
      [
        "▁Birayim",
        -8.882061975370558
      ],
      [
        "▁brave",
        -8.882064706435946
      ],
      [
        "▁veulent",
        -8.882072918387733
      ],
      [
        "▁ëlëk",
        -8.882096594533365
      ],
      [
        "▁haut",
        -8.882157100114954
      ],
      [
        "▁Alfa",
        -8.882162770133112
      ],
      [
        "▁champ",
        -8.882184146515616
      ],
      [
        "▁prêt",
        -8.88232187126928
      ],
      [
        "▁Gaynd",
        -8.882357207260632
      ],
      [
        "▁assis",
        -8.88243426693003
      ],
      [
        "▁Tann",
        -8.882440694418584
      ],
      [
        "▁Demuloo",
        -8.88280898956385
      ],
      [
        "▁NGo",
        -8.882930970794403
      ],
      [
        "▁vrai",
        -8.883157275982695
      ],
      [
        "▁alors",
        -8.88339845944394
      ],
      [
        "▁Ñooñu",
        -8.883871068313505
      ],
      [
        "▁Qu'",
        -8.884025522504299
      ],
      [
        "▁pro",
        -8.884068151205732
      ],
      [
        "▁Demuma",
        -8.884365497115366
      ],
      [
        "▁kookale",
        -8.885023536408092
      ],
      [
        "▁wépp",
        -8.885417662077852
      ],
      [
        "▁d'habitude",
        -8.887009698245508
      ],
      [
        "▁donc",
        -8.888418139779231
      ],
      [
        "▁Demkoon",
        -8.88846813099829
      ],
      [
        "▁suba",
        -8.88904414689999
      ],
      [
        "▁gën",
        -8.889285693951926
      ],
      [
        "'agit",
        -8.889360666353507
      ],
      [
        "▁pai",
        -8.889684915773133
      ],
      [
        "hoisi",
        -8.889917348651629
      ],
      [
        "▁fenn",
        -8.890325929857813
      ],
      [
        "▁t'en",
        -8.892268423071716
      ],
      [
        "rte",
        -8.894344983537467
      ],
      [
        "▁gaa",
        -8.894710203355146
      ],
      [
        "▁noppi",
        -8.894883020560512
      ],
      [
        "au",
        -8.894988924201312
      ],
      [
        "▁Ni",
        -8.895015758684226
      ],
      [
        "▁partent",
        -8.895772757056609
      ],
      [
        "ôt",
        -8.89605747686268
      ],
      [
        "▁Yee",
        -8.896604408478897
      ],
      [
        "ches",
        -8.89676108421313
      ],
      [
        "▁jamb",
        -8.898886596026372
      ],
      [
        "▁viennent",
        -8.899714152580415
      ],
      [
        "▁Fo",
        -8.900217066091678
      ],
      [
        "ux",
        -8.900298180226732
      ],
      [
        "▁s'",
        -8.900335628761118
      ],
      [
        "▁serais",
        -8.9006473782498
      ],
      [
        "ule",
        -8.906581733097257
      ],
      [
        "el",
        -8.90980997732136
      ],
      [
        "nañu",
        -8.910227773716024
      ],
      [
        "▁kooka",
        -8.910315563415022
      ],
      [
        "▁Nil",
        -8.910795232347912
      ],
      [
        "▁aime",
        -8.910872621582035
      ],
      [
        "▁j'",
        -8.911393964187482
      ],
      [
        "▁fui",
        -8.91308054527409
      ],
      [
        "bon",
        -8.918475247278353
      ],
      [
        "▁n'ira",
        -8.926602229561851
      ],
      [
        "▁pu",
        -8.926831801519771
      ],
      [
        "ier",
        -8.927819972368033
      ],
      [
        "▁daw",
        -8.929812143653804
      ],
      [
        "▁maa",
        -8.929827606221574
      ],
      [
        "▁ap",
        -8.931432429878383
      ],
      [
        "aay",
        -8.932185906067017
      ],
      [
        "ses",
        -8.932994458990553
      ],
      [
        "lles",
        -8.933160944631322
      ],
      [
        "▁demb",
        -8.934324202989586
      ],
      [
        "nde",
        -8.935839227350488
      ],
      [
        "▁demuñu",
        -8.936003338252231
      ],
      [
        "▁demain",
        -8.936195210134954
      ],
      [
        "▁doo",
        -8.940731238441238
      ],
      [
        "▁Sama",
        -8.94143800680175
      ],
      [
        "▁Kan",
        -8.945834667176493
      ],
      [
        "▁lanu",
        -8.950928312737625
      ],
      [
        "ai",
        -8.951320172633718
      ],
      [
        "▁rë",
        -8.953094595918486
      ],
      [
        "û",
        -8.95457407164069
      ],
      [
        "aux",
        -8.964903210608622
      ],
      [
        "ion",
        -8.965789946530942
      ],
      [
        "▁bo",
        -8.971238748430231
      ],
      [
        "wul",
        -8.974163363497151
      ],
      [
        "▁xa",
        -8.974418337859902
      ],
      [
        "▁Ña",
        -8.975349454010628
      ],
      [
        "▁maye",
        -8.975781150062092
      ],
      [
        "▁s'i",
        -8.977117576697614
      ],
      [
        "▁Ñu",
        -8.985372649374643
      ],
      [
        "▁rée",
        -8.988465994659794
      ],
      [
        "▁lawoon",
        -9.005697225001223
      ],
      [
        "waay",
        -9.011025454901691
      ],
      [
        "fu",
        -9.016117712227985
      ],
      [
        "▁mêmes",
        -9.020409677351672
      ],
      [
        "nent",
        -9.021411141169635
      ],
      [
        "▁cla",
        -9.023526683462244
      ],
      [
        "si",
        -9.026751823944364
      ],
      [
        "▁connaiss",
        -9.027593886151688
      ],
      [
        "▁appelle",
        -9.029887595242382
      ],
      [
        "elui-ci",
        -9.030967801458832
      ],
      [
        "▁Ka",
        -9.037409148683423
      ],
      [
        "tout",
        -9.037422548714344
      ],
      [
        "off",
        -9.03860944607107
      ],
      [
        "▁ven",
        -9.0404509830252
      ],
      [
        "▁con",
        -9.052211423663579
      ],
      [
        "▁dey",
        -9.055707077800896
      ],
      [
        "nit",
        -9.06113264729643
      ],
      [
        "iggéeykat",
        -9.066353643903625
      ],
      [
        "▁veu",
        -9.068145282848853
      ],
      [
        "▁Com",
        -9.077103677308004
      ],
      [
        "▁yar",
        -9.081152968919666
      ],
      [
        "▁ta",
        -9.090216571385568
      ],
      [
        "▁ser",
        -9.090250797257088
      ],
      [
        "ku",
        -9.090599546100217
      ],
      [
        "▁ñen",
        -9.091911312533934
      ],
      [
        "▁voul",
        -9.099237613317857
      ],
      [
        "war",
        -9.099461130625686
      ],
      [
        "qu",
        -9.101610197337122
      ],
      [
        "appelle",
        -9.128089695868418
      ],
      [
        "aw",
        -9.129128801924084
      ],
      [
        "fait",
        -9.132546395566846
      ],
      [
        "▁partie",
        -9.134583795970002
      ],
      [
        "▁ré",
        -9.141190472511395
      ],
      [
        "▁quelqu",
        -9.144415593076447
      ],
      [
        "ur",
        -9.15243807687379
      ],
      [
        "amba",
        -9.156889236909072
      ],
      [
        "ñëw",
        -9.157468632027232
      ],
      [
        "▁lekk",
        -9.163972765678098
      ],
      [
        "▁yu",
        -9.164428108148698
      ],
      [
        "▁voici",
        -9.171140844606704
      ],
      [
        "▁ver",
        -9.17365701097095
      ],
      [
        "vent",
        -9.17524282172894
      ],
      [
        "▁cha",
        -9.179684799501981
      ],
      [
        "heureu",
        -9.18450100180483
      ],
      [
        "▁too",
        -9.189430216820076
      ],
      [
        "▁J'",
        -9.193893997225869
      ],
      [
        "▁Seeti",
        -9.195935092035915
      ],
      [
        "▁Yooy",
        -9.196113940921789
      ],
      [
        "là",
        -9.200327143590798
      ],
      [
        "▁nëw",
        -9.207138829773386
      ],
      [
        "ache",
        -9.207586043015539
      ],
      [
        "kki",
        -9.208243768761507
      ],
      [
        "▁po",
        -9.208361178738071
      ],
      [
        "onfie",
        -9.212221534648148
      ],
      [
        "ant",
        -9.212542940025894
      ],
      [
        "▁ñaa",
        -9.213491326386457
      ],
      [
        "oow",
        -9.2143308150839
      ],
      [
        "'impo",
        -9.215388496583495
      ],
      [
        "▁Certaine",
        -9.2153944666138
      ],
      [
        "▁fâch",
        -9.21539453551413
      ],
      [
        "▁appelé",
        -9.21539463642264
      ],
      [
        "▁gëléem",
        -9.215394671017874
      ],
      [
        "▁meilleur",
        -9.215394891481196
      ],
      [
        "▁messager",
        -9.21539508365316
      ],
      [
        "▁lutteur",
        -9.215395242167352
      ],
      [
        "▁saŋx",
        -9.215395653645762
      ],
      [
        "▁ressemble",
        -9.215395766769552
      ],
      [
        "▁instant",
        -9.215395784929763
      ],
      [
        "▁cultive",
        -9.215395941013997
      ],
      [
        "▁ensemble",
        -9.215401840904228
      ],
      [
        "▁regard",
        -9.215404988246343
      ],
      [
        "▁chameau",
        -9.21540550483541
      ],
      [
        "échapp",
        -9.215415184166522
      ],
      [
        "▁Sëri",
        -9.215415459120857
      ],
      [
        "▁paresseu",
        -9.215436290423764
      ],
      [
        "▁Yaakaar",
        -9.21544239467576
      ],
      [
        "▁ainsi",
        -9.215483187618076
      ],
      [
        "▁form",
        -9.215525855484994
      ],
      [
        "▁Peul",
        -9.21556199138373
      ],
      [
        "▁Peut-",
        -9.215573937201228
      ],
      [
        "▁dikkul",
        -9.215660853112146
      ],
      [
        "▁Autre",
        -9.215761249597165
      ],
      [
        "▁parents",
        -9.215763240975257
      ],
      [
        "▁Qu'est-ce",
        -9.215851429617146
      ],
      [
        "▁d'entre",
        -9.215909820407132
      ],
      [
        "▁jabar",
        -9.2160041596238
      ],
      [
        "▁Ngo",
        -9.216075203684507
      ],
      [
        "▁l'argent",
        -9.21613379378685
      ],
      [
        "èvre",
        -9.216249976129607
      ],
      [
        "▁jox",
        -9.216367291328366
      ],
      [
        "▁jog",
        -9.216459427205036
      ],
      [
        "ëkk",
        -9.216557190766315
      ],
      [
        "▁ŋgoogu",
        -9.216874679292873
      ],
      [
        "▁Abal",
        -9.216987356462303
      ],
      [
        "▁crain",
        -9.217032947632976
      ],
      [
        "▁vérité",
        -9.217115688974449
      ],
      [
        "▁Pour",
        -9.217292282095507
      ],
      [
        "▁ceux-ci",
        -9.217968176615459
      ],
      [
        "▁sopp",
        -9.218162973476133
      ],
      [
        "▁Ici",
        -9.218331325789359
      ],
      [
        "▁enfant-là",
        -9.219204361822403
      ],
      [
        "▁général",
        -9.219599172881843
      ],
      [
        "faire",
        -9.219635082751665
      ],
      [
        "▁beg",
        -9.219962352676568
      ],
      [
        "▁bonul",
        -9.22033958739011
      ],
      [
        "llez",
        -9.220870651444075
      ],
      [
        "▁clé",
        -9.220872815231663
      ],
      [
        "▁debout",
        -9.221002367863077
      ],
      [
        "ous",
        -9.221203307781119
      ],
      [
        "▁wóo",
        -9.221419412240147
      ],
      [
        "uille",
        -9.222980310095723
      ],
      [
        "ki",
        -9.223561191515039
      ],
      [
        "'enfant",
        -9.225081263143641
      ],
      [
        "▁buur",
        -9.22627463465004
      ],
      [
        "bout",
        -9.226430890717403
      ],
      [
        "erë",
        -9.2271389052885
      ],
      [
        "▁ñuu",
        -9.228970114899262
      ],
      [
        "▁san",
        -9.230249732047685
      ],
      [
        "▁bà",
        -9.233134023192505
      ],
      [
        "▁yaru",
        -9.236175036473501
      ],
      [
        "aamu",
        -9.236510992439719
      ],
      [
        "veille",
        -9.237495116345467
      ],
      [
        "▁homme-ci",
        -9.237500998348688
      ],
      [
        "mmes",
        -9.238951991963269
      ],
      [
        "▁wu",
        -9.23936826723001
      ],
      [
        "▁Gisu",
        -9.24052139465004
      ],
      [
        "▁daawul",
        -9.242542356749109
      ],
      [
        "▁Go",
        -9.242620516515249
      ],
      [
        "gël",
        -9.244663034265393
      ],
      [
        "▁booba",
        -9.244837239091474
      ],
      [
        "use",
        -9.245692646566347
      ],
      [
        "▁Lui",
        -9.246398253064552
      ],
      [
        "ign",
        -9.24928494924035
      ],
      [
        "▁buu",
        -9.251181203677238
      ],
      [
        "tion",
        -9.255922404674479
      ],
      [
        "▁daal",
        -9.256035352499453
      ],
      [
        "▁roi",
        -9.259158155110173
      ],
      [
        "▁confie",
        -9.261437583244547
      ],
      [
        "▁pou",
        -9.2625495785381
      ],
      [
        "âl",
        -9.263129337568005
      ],
      [
        "▁heure",
        -9.264954227281391
      ],
      [
        "▁yooya",
        -9.265718950976808
      ],
      [
        "'un",
        -9.266359004381506
      ],
      [
        "▁woowa",
        -9.26752686684984
      ],
      [
        "▁Defa",
        -9.26786678828336
      ],
      [
        "▁ñj",
        -9.268264921034495
      ],
      [
        "▁bar",
        -9.268824625408325
      ],
      [
        "▁woowu",
        -9.269256075045975
      ],
      [
        "▁Kook",
        -9.27012915521275
      ],
      [
        "int",
        -9.270252236182223
      ],
      [
        "fi",
        -9.270298688058551
      ],
      [
        "▁xamul",
        -9.271107765252587
      ],
      [
        "eux-ci",
        -9.275624965182269
      ],
      [
        "▁Ho",
        -9.286199573469323
      ],
      [
        "▁Ŋgo",
        -9.286296998126717
      ],
      [
        "rage",
        -9.287656742117605
      ],
      [
        "▁juu",
        -9.287748503617006
      ],
      [
        "▁tel",
        -9.290815991250206
      ],
      [
        "▁Waxu",
        -9.29110632701674
      ],
      [
        "▁parler",
        -9.293650265394415
      ],
      [
        "▁n'aur",
        -9.29727480366329
      ],
      [
        "▁Waxul",
        -9.298819308308447
      ],
      [
        "▁X",
        -9.302412434897215
      ],
      [
        "▁mang",
        -9.303376580258066
      ],
      [
        "▁sout",
        -9.307422090426929
      ],
      [
        "▁mën",
        -9.309235134122996
      ],
      [
        "▁ñe",
        -9.312659042313687
      ],
      [
        "éeg",
        -9.312815448544805
      ],
      [
        "▁loolu",
        -9.315553802956623
      ],
      [
        "lé",
        -9.322604296209327
      ],
      [
        "eut",
        -9.326504216601338
      ],
      [
        "▁wi",
        -9.326580760160772
      ],
      [
        "▁Nee",
        -9.328180056288106
      ],
      [
        "lui",
        -9.330142785438944
      ],
      [
        "▁désire",
        -9.330920965408016
      ],
      [
        "▁fo",
        -9.33824338079214
      ],
      [
        "vant",
        -9.338343742202547
      ],
      [
        "ais-t",
        -9.342525392481553
      ],
      [
        "neen",
        -9.343119302461275
      ],
      [
        "dé",
        -9.346438052179339
      ],
      [
        "róo",
        -9.347749329442294
      ],
      [
        "rain",
        -9.347822943187055
      ],
      [
        "▁fr",
        -9.352235357707572
      ],
      [
        "avait",
        -9.352738814517714
      ],
      [
        "bi",
        -9.35739559107025
      ],
      [
        "autrefois",
        -9.363085768765439
      ],
      [
        "v",
        -9.364104858905048
      ],
      [
        "'aumône",
        -9.368448914836021
      ],
      [
        "▁jam",
        -9.382834479370517
      ],
      [
        "▁Jée",
        -9.387670855722739
      ],
      [
        "vers",
        -9.388849476922086
      ],
      [
        "▁gra",
        -9.393432212029431
      ],
      [
        "▁partai",
        -9.394454166023468
      ],
      [
        "mm",
        -9.396928386956226
      ],
      [
        "▁kook",
        -9.402175900169912
      ],
      [
        "e-le",
        -9.40282526931888
      ],
      [
        "ffi",
        -9.404321414888974
      ],
      [
        "ooñii",
        -9.409270433442137
      ],
      [
        "▁dam",
        -9.416112959307123
      ],
      [
        "▁dois",
        -9.417560109785907
      ],
      [
        "ages",
        -9.424126703719349
      ],
      [
        "irai",
        -9.433335901136136
      ],
      [
        "xaw",
        -9.452705803451877
      ],
      [
        "▁Nag",
        -9.454042671522082
      ],
      [
        "▁Celui",
        -9.454216664775648
      ],
      [
        "▁men",
        -9.454628387652365
      ],
      [
        "▁seri",
        -9.456909605429137
      ],
      [
        "agg",
        -9.460461680451075
      ],
      [
        "▁sou",
        -9.462306099376145
      ],
      [
        "apprécie",
        -9.466906220514732
      ],
      [
        "se",
        -9.47275322279104
      ],
      [
        "dem",
        -9.475999750921476
      ],
      [
        "▁Jë",
        -9.476040193887165
      ],
      [
        "▁ter",
        -9.477505819849458
      ],
      [
        "bien",
        -9.481286000338997
      ],
      [
        "▁Ñaa",
        -9.487613983209357
      ],
      [
        "▁h",
        -9.493041884392023
      ],
      [
        "▁Liggéey",
        -9.493141863582442
      ],
      [
        "ité",
        -9.499321624318044
      ],
      [
        "uis",
        -9.500092186459536
      ],
      [
        "ob",
        -9.503345875964133
      ],
      [
        "-même",
        -9.504245175872903
      ],
      [
        "▁entra",
        -9.50697504458226
      ],
      [
        "vient",
        -9.510227531696438
      ],
      [
        "▁nd",
        -9.510815483305015
      ],
      [
        "ày",
        -9.518938833544503
      ],
      [
        "wuñu",
        -9.520843971791301
      ],
      [
        "▁bavard",
        -9.525774826691146
      ],
      [
        "bokk",
        -9.52951872629622
      ],
      [
        "oba",
        -9.53325601285913
      ],
      [
        "▁batt",
        -9.53411500796034
      ],
      [
        "▁ŋg",
        -9.534583610018291
      ],
      [
        "▁e",
        -9.53510424423464
      ],
      [
        "▁Ja",
        -9.539445496448057
      ],
      [
        "▁ŋgoo",
        -9.540897406710815
      ],
      [
        "'en",
        -9.551416605855902
      ],
      [
        "▁Ko",
        -9.557000775956752
      ],
      [
        "ide",
        -9.563170135377593
      ],
      [
        "nu",
        -9.56760796436561
      ],
      [
        "â",
        -9.570478793372903
      ],
      [
        "▁To",
        -9.570499489149713
      ],
      [
        "▁pré",
        -9.57200136133546
      ],
      [
        "alal",
        -9.573846114267033
      ],
      [
        "entre",
        -9.577723604684893
      ],
      [
        "J",
        -9.584081789313084
      ],
      [
        "min",
        -9.59190162492324
      ],
      [
        "dul",
        -9.607591588019005
      ],
      [
        "▁l'o",
        -9.608971813525796
      ],
      [
        "▁H",
        -9.609365537795554
      ],
      [
        "mar",
        -9.60983443369157
      ],
      [
        "abal",
        -9.615216240025786
      ],
      [
        "ful",
        -9.617270570832188
      ],
      [
        "gul",
        -9.617333386030982
      ],
      [
        "▁Xa",
        -9.623232337432405
      ],
      [
        "nez",
        -9.624166395911557
      ],
      [
        "▁peu",
        -9.626568663626179
      ],
      [
        "▁all",
        -9.626790971880208
      ],
      [
        "▁nan",
        -9.635907324270732
      ],
      [
        "▁Die",
        -9.636041093515814
      ],
      [
        "▁mba",
        -9.645751730402411
      ],
      [
        "▁Att",
        -9.64792210982511
      ],
      [
        "▁confi",
        -9.650057472613708
      ],
      [
        "▁cherch",
        -9.650969818028212
      ],
      [
        "ence",
        -9.653754118086116
      ],
      [
        "illes",
        -9.654732918759155
      ],
      [
        "a.",
        -9.65563357333372
      ],
      [
        "in",
        -9.659691860099763
      ],
      [
        "tant",
        -9.661736720901317
      ],
      [
        "kon",
        -9.661857283708127
      ],
      [
        "▁n'ir",
        -9.662945773210005
      ],
      [
        "ool",
        -9.66389138616953
      ],
      [
        "▁trouve",
        -9.667104818724898
      ],
      [
        "▁cont",
        -9.66777963834776
      ],
      [
        "▁vou",
        -9.674164534036354
      ],
      [
        "ttends",
        -9.675528851214507
      ],
      [
        "▁foof",
        -9.676468682308233
      ],
      [
        "▁jour",
        -9.677348739267458
      ],
      [
        "▁Foof",
        -9.677569915363696
      ],
      [
        "▁bëggu",
        -9.678075309023603
      ],
      [
        "jóo",
        -9.680244112025385
      ],
      [
        "ets-t",
        -9.680310852604318
      ],
      [
        "▁viendr",
        -9.682233468228956
      ],
      [
        "onvers",
        -9.683750550973821
      ],
      [
        "▁See",
        -9.686005546020077
      ],
      [
        "▁gaynd",
        -9.687562939233715
      ],
      [
        "▁nopp",
        -9.689532034480463
      ],
      [
        "▁sot",
        -9.69156502956733
      ],
      [
        "▁vi",
        -9.69268408159633
      ],
      [
        "illeurs",
        -9.693607261810289
      ],
      [
        "▁vill",
        -9.695142419185895
      ],
      [
        "è",
        -9.695649289309818
      ],
      [
        "▁recon",
        -9.696232532257378
      ],
      [
        "▁parla",
        -9.697028293633421
      ],
      [
        "▁d'o",
        -9.69709687752524
      ],
      [
        "met",
        -9.702963779132588
      ],
      [
        "▁gë",
        -9.706701067808687
      ],
      [
        "▁génér",
        -9.708603901953252
      ],
      [
        "▁D'a",
        -9.708734858811098
      ],
      [
        "lors",
        -9.709595147217945
      ],
      [
        "góor",
        -9.710828806220894
      ],
      [
        "▁jaŋ",
        -9.711866656431802
      ],
      [
        "à-bas",
        -9.712551307069193
      ],
      [
        "▁yab",
        -9.714586464716874
      ],
      [
        "▁trou",
        -9.715098942655656
      ],
      [
        "É",
        -9.715394414545639
      ],
      [
        "(",
        -9.715394414545642
      ],
      [
        ")",
        -9.715394414545642
      ],
      [
        "▁impoli",
        -9.715394414577261
      ],
      [
        "▁Niominka.",
        -9.715394414591103
      ],
      [
        "▁certainement",
        -9.715394417903862
      ],
      [
        "▁totalité",
        -9.715394451896438
      ],
      [
        "▁tambour",
        -9.71539449136668
      ],
      [
        "▁yalwaan",
        -9.715394590668645
      ],
      [
        "▁Dites-l",
        -9.715398696786256
      ],
      [
        "▁bouge",
        -9.71540413148973
      ],
      [
        "politesse",
        -9.715404915877302
      ],
      [
        "▁moontin",
        -9.715407142581336
      ],
      [
        "▁petit",
        -9.715410236661775
      ],
      [
        "▁répét",
        -9.71541188205262
      ],
      [
        "▁L'endroit",
        -9.715458839269273
      ],
      [
        "▁gosse",
        -9.715516262370894
      ],
      [
        "▁propos",
        -9.71554528522232
      ],
      [
        "▁descendra",
        -9.715554738416404
      ],
      [
        "▁qu'e",
        -9.715561479369843
      ],
      [
        "âche",
        -9.715580733322204
      ],
      [
        "▁Dellu",
        -9.715613920346975
      ],
      [
        "▁bënn",
        -9.715650015919818
      ],
      [
        "▁oreille",
        -9.715681783232318
      ],
      [
        "awbe",
        -9.71568264605505
      ],
      [
        "▁yeggee",
        -9.715683683904645
      ],
      [
        "▁Ibra",
        -9.715732757090382
      ],
      [
        "▁Wutël",
        -9.715777169464776
      ],
      [
        "▁j'apprécie",
        -9.715899727144425
      ],
      [
        "▁Lebou",
        -9.715934521253741
      ],
      [
        "▁cohabitent",
        -9.715941754369332
      ],
      [
        "affaire",
        -9.71609921033058
      ],
      [
        "▁Musta",
        -9.716154818183961
      ],
      [
        "▁prop",
        -9.71629839765851
      ],
      [
        "▁présen",
        -9.716444706861985
      ],
      [
        "▁suuf",
        -9.716489713989086
      ],
      [
        "▁toi-même",
        -9.716603804422142
      ],
      [
        "▁moi-même",
        -9.716628810922733
      ],
      [
        "▁vous-même",
        -9.716629046717241
      ],
      [
        "▁raison",
        -9.716841609072063
      ],
      [
        "▁genre",
        -9.71688674435949
      ],
      [
        "cert",
        -9.717031767771564
      ],
      [
        "spér",
        -9.717058996105157
      ],
      [
        "▁tayel",
        -9.717187826499572
      ],
      [
        "époque",
        -9.717260805950634
      ],
      [
        "▁L'autre",
        -9.717641733851774
      ],
      [
        "▁inter",
        -9.71765259191632
      ],
      [
        "▁t'aurai",
        -9.718074873538608
      ],
      [
        "▁ardo",
        -9.718550960486338
      ],
      [
        "▁reconn",
        -9.718791462339874
      ],
      [
        "▁vertu",
        -9.719226370921024
      ],
      [
        "▁doomam",
        -9.719492685728785
      ],
      [
        "▁dawul",
        -9.720064310791935
      ],
      [
        "▁conna",
        -9.720152833783608
      ],
      [
        "▁wenn",
        -9.720269812348695
      ],
      [
        "▁dents",
        -9.720283318690337
      ],
      [
        "▁disc",
        -9.720697140105981
      ],
      [
        "ër",
        -9.720728084018143
      ],
      [
        "▁travaillait",
        -9.72075988596564
      ],
      [
        "▁Kaay",
        -9.720762481112276
      ],
      [
        "▁noir",
        -9.72100473380197
      ],
      [
        "▁feeñ",
        -9.721113423233962
      ],
      [
        "nnée",
        -9.721230017503396
      ],
      [
        "▁voya",
        -9.721656721617336
      ],
      [
        "ît",
        -9.721754248318122
      ],
      [
        "èv",
        -9.721844021083362
      ],
      [
        "▁yëf",
        -9.721896806631808
      ],
      [
        "▁rafetul",
        -9.721970475292474
      ],
      [
        "▁àndal",
        -9.722445315155985
      ],
      [
        "▁connaisse",
        -9.722682239860701
      ],
      [
        "▁yeg",
        -9.722804690656584
      ],
      [
        "▁par-là",
        -9.72399158731303
      ],
      [
        "▁fen",
        -9.724136704015612
      ],
      [
        "▁lieux",
        -9.72425612901751
      ],
      [
        "ërëm",
        -9.724516114729386
      ],
      [
        "ersonne",
        -9.72464414898496
      ],
      [
        "▁mort",
        -9.724796785542646
      ],
      [
        "▁Daawul",
        -9.72484216752874
      ],
      [
        "▁port",
        -9.725183650227347
      ],
      [
        "▁bëtt",
        -9.72578710010063
      ],
      [
        "▁Leur",
        -9.726091445746022
      ],
      [
        "homme",
        -9.726835683572933
      ],
      [
        "▁n'allai",
        -9.726870655378477
      ],
      [
        "▁mor",
        -9.72723162471545
      ],
      [
        "▁xaritam",
        -9.727480241571044
      ],
      [
        "▁vien",
        -9.72748243817292
      ],
      [
        "drai",
        -9.7276372932579
      ],
      [
        "▁dég",
        -9.728728068485513
      ],
      [
        "aaw",
        -9.729260290494878
      ],
      [
        "▁Amin",
        -9.72927143869636
      ],
      [
        "trouvé",
        -9.729736649721165
      ],
      [
        "▁koo",
        -9.730691883948708
      ],
      [
        "▁lumi",
        -9.730778427202612
      ],
      [
        "▁doyu",
        -9.731324960526585
      ],
      [
        "▁jusqu'ici",
        -9.731608816115717
      ],
      [
        "séd",
        -9.73360993249733
      ],
      [
        "▁rentrer",
        -9.735359117703865
      ],
      [
        "▁gaal",
        -9.735759692382041
      ],
      [
        "oudr",
        -9.736060469800218
      ],
      [
        "▁pa",
        -9.736242345617768
      ],
      [
        "ëlé",
        -9.737410551922837
      ],
      [
        "âg",
        -9.738002498584235
      ],
      [
        "▁wut",
        -9.738497696417616
      ],
      [
        "ailleurs",
        -9.739933403104938
      ],
      [
        "▁Don",
        -9.743499669916218
      ],
      [
        "▁Ai",
        -9.743762695083138
      ],
      [
        "ourri",
        -9.745352198933928
      ],
      [
        "oyager",
        -9.745383196643703
      ],
      [
        "cun",
        -9.74582272730928
      ],
      [
        "çon",
        -9.745838461727324
      ],
      [
        "sard",
        -9.747957136036216
      ],
      [
        "ers",
        -9.748514872541747
      ],
      [
        "▁Yooyu",
        -9.748683584831252
      ],
      [
        "lle",
        -9.748820221789162
      ],
      [
        "▁disp",
        -9.748930384024755
      ],
      [
        "▁lionne",
        -9.748934129010937
      ],
      [
        "ré",
        -9.749184134046164
      ],
      [
        "lig",
        -9.74989247373952
      ],
      [
        "▁kaw",
        -9.750798705896877
      ],
      [
        "aucun",
        -9.751030720310828
      ],
      [
        "pas",
        -9.751306033757826
      ],
      [
        "▁ceux",
        -9.751748370602405
      ],
      [
        "▁foo",
        -9.75357534963496
      ],
      [
        "▁bëggé",
        -9.755019542117566
      ],
      [
        "aille",
        -9.755188227379906
      ],
      [
        "rdo",
        -9.755512701591215
      ],
      [
        "▁née",
        -9.756750065762294
      ],
      [
        "vé",
        -9.757701452278676
      ],
      [
        "eegu",
        -9.758051349703905
      ],
      [
        "▁Leb",
        -9.758624005218037
      ],
      [
        "▁jours",
        -9.759762357261017
      ],
      [
        "▁jar",
        -9.760182568545957
      ],
      [
        "▁voulez",
        -9.761015004838635
      ],
      [
        "▁to",
        -9.76147502434962
      ],
      [
        "qu'il",
        -9.762462327190873
      ],
      [
        "▁voit",
        -9.764307731098038
      ],
      [
        "▁allez",
        -9.767267519504992
      ],
      [
        "▁sort",
        -9.767675737140086
      ],
      [
        "▁trouver",
        -9.769817444640914
      ],
      [
        "▁desquel",
        -9.770634000088558
      ],
      [
        "▁morts",
        -9.77069770638246
      ],
      [
        "che",
        -9.770830746570729
      ],
      [
        "▁travaill",
        -9.773527901379138
      ],
      [
        "▁jë",
        -9.773956282151843
      ],
      [
        "toi",
        -9.78141735536134
      ],
      [
        "▁Sen",
        -9.781861908340982
      ],
      [
        "puisé",
        -9.782534252491054
      ],
      [
        "▁livres",
        -9.784173341469986
      ],
      [
        "▁jale",
        -9.785882550043837
      ],
      [
        "▁sur",
        -9.786779446946955
      ],
      [
        "▁cu",
        -9.78712112507263
      ],
      [
        "▁Bon",
        -9.78721012814411
      ],
      [
        "ŋk",
        -9.788266667326905
      ],
      [
        "▁fût",
        -9.789175024286557
      ],
      [
        "▁yaay",
        -9.7897897541077
      ],
      [
        "▁Ñen",
        -9.796939488883986
      ],
      [
        "▁Nu",
        -9.798281164639016
      ],
      [
        "▁voici.",
        -9.799163354150348
      ],
      [
        "▁meneen",
        -9.800927062112162
      ],
      [
        "▁xal",
        -9.802850742140752
      ],
      [
        "▁bul",
        -9.80599664703006
      ],
      [
        "▁t'e",
        -9.806878544505627
      ],
      [
        "▁ño",
        -9.813183770607742
      ],
      [
        "▁daaw",
        -9.813744746396114
      ],
      [
        "edress",
        -9.813779629632322
      ],
      [
        "bal",
        -9.815369603891822
      ],
      [
        "abar",
        -9.816028844764906
      ],
      [
        "▁waxtu",
        -9.816468177883417
      ],
      [
        "outer",
        -9.820176834039797
      ],
      [
        "▁vie",
        -9.820939113988347
      ],
      [
        "pir",
        -9.821597068704216
      ],
      [
        "▁Set",
        -9.823069347330005
      ],
      [
        "▁co",
        -9.825094872084648
      ],
      [
        "▁Wan",
        -9.828051790564121
      ],
      [
        "▁rag",
        -9.829122206043813
      ],
      [
        "lóo",
        -9.835093488869981
      ],
      [
        "▁puis",
        -9.835543280090246
      ],
      [
        "▁êt",
        -9.837374936068498
      ],
      [
        "dina",
        -9.83894674199469
      ],
      [
        "uloo",
        -9.84491578538942
      ],
      [
        "ends-",
        -9.847067535754377
      ],
      [
        "▁l'as",
        -9.847994514066517
      ],
      [
        "ffr",
        -9.848185055293046
      ],
      [
        "▁bant",
        -9.850246718779248
      ],
      [
        "ois",
        -9.850555637050082
      ],
      [
        "▁lama",
        -9.850655799026839
      ],
      [
        "▁Ca",
        -9.85391970424698
      ],
      [
        "ekk",
        -9.85765238555492
      ],
      [
        "▁s'assi",
        -9.859887431048284
      ],
      [
        "▁pr",
        -9.860526312609174
      ],
      [
        "able",
        -9.872829142725996
      ],
      [
        "accompagne",
        -9.874578993192843
      ],
      [
        "nversé",
        -9.877256965941248
      ],
      [
        "itu",
        -9.878267466641022
      ],
      [
        "▁Yen",
        -9.879582362430282
      ],
      [
        "▁donn",
        -9.881660548302587
      ],
      [
        "raayim",
        -9.882324823770897
      ],
      [
        "▁Té",
        -9.884395982245225
      ],
      [
        "étend",
        -9.886191965526542
      ],
      [
        "'étudiant",
        -9.8885452322211
      ],
      [
        "▁jee",
        -9.889708532138332
      ],
      [
        "▁lekku",
        -9.896391565410799
      ],
      [
        "▁Mets",
        -9.899603449232407
      ],
      [
        "▁yi.",
        -9.91332370817677
      ],
      [
        "ver",
        -9.920491126315014
      ],
      [
        "▁mar",
        -9.922711255907855
      ],
      [
        "aurai",
        -9.924419841073936
      ],
      [
        "▁reveni",
        -9.928762644297954
      ],
      [
        "axtaan",
        -9.934168323835856
      ],
      [
        "▁voulai",
        -9.93702680686048
      ],
      [
        "▁él",
        -9.93950704580842
      ],
      [
        "▁rentr",
        -9.941562533696292
      ],
      [
        "▁bavarda",
        -9.947979375061848
      ],
      [
        "▁xe",
        -9.948129828725863
      ],
      [
        "nee",
        -9.948658922187422
      ],
      [
        "▁lë",
        -9.949281056063924
      ],
      [
        "▁tawa",
        -9.951547205361855
      ],
      [
        "qui",
        -9.952430714542562
      ],
      [
        "app",
        -9.953646052262586
      ],
      [
        "▁Ño",
        -9.955767275172754
      ],
      [
        "igne",
        -9.962786596776267
      ],
      [
        "▁Saa",
        -9.967342952532462
      ],
      [
        "▁war",
        -9.974055877140845
      ],
      [
        "▁éc",
        -9.974641093981145
      ],
      [
        "oy",
        -9.98079963108814
      ],
      [
        "▁né",
        -9.983029559266654
      ],
      [
        "ew",
        -9.986621688534408
      ],
      [
        "▁arriv",
        -9.986629485142668
      ],
      [
        "ros",
        -9.989126249747441
      ],
      [
        "ppartien",
        -9.98984754190828
      ],
      [
        "ima",
        -9.989994920782237
      ],
      [
        "avant",
        -9.998631613126767
      ],
      [
        "▁l'e",
        -9.999895398799826
      ],
      [
        "ji",
        -10.003806953671802
      ],
      [
        "'euss",
        -10.006770682399692
      ],
      [
        "▁gr",
        -10.011440077942854
      ],
      [
        "▁voie",
        -10.01749762723198
      ],
      [
        "▁seeta",
        -10.02011666993337
      ],
      [
        "ttais",
        -10.024133753937544
      ],
      [
        "biir",
        -10.025667094959058
      ],
      [
        "▁ho",
        -10.026610908891696
      ],
      [
        "i.",
        -10.033791148531511
      ],
      [
        "euse",
        -10.03842365601763
      ],
      [
        "▁Bule",
        -10.042062546360752
      ],
      [
        "▁sor",
        -10.043446993469495
      ],
      [
        "ta",
        -10.046376554650598
      ],
      [
        "▁ex",
        -10.056285591640677
      ],
      [
        "▁daawu",
        -10.058839440849358
      ],
      [
        "▁Ve",
        -10.059613654472514
      ],
      [
        "lu",
        -10.060712699288555
      ],
      [
        "▁ad",
        -10.073044480111792
      ],
      [
        "yi",
        -10.075239100534986
      ],
      [
        "▁Xan",
        -10.07530610407809
      ],
      [
        "ndal",
        -10.075722942222363
      ],
      [
        "uff",
        -10.080594126492718
      ],
      [
        "quelle",
        -10.082830681878802
      ],
      [
        "eel",
        -10.085067230862022
      ],
      [
        "leurs",
        -10.089048807062778
      ],
      [
        "▁aille",
        -10.091709706161847
      ],
      [
        "ooy",
        -10.098854710675512
      ],
      [
        "tal",
        -10.100413505535716
      ],
      [
        "▁ŋgii.",
        -10.102328142883003
      ],
      [
        "elqu'un",
        -10.1108141783518
      ],
      [
        "fan",
        -10.114726006107853
      ],
      [
        "▁che",
        -10.128502469678958
      ],
      [
        "veux",
        -10.135056372999514
      ],
      [
        "attrap",
        -10.137602519639637
      ],
      [
        "▁seu",
        -10.147869990542409
      ],
      [
        "dit",
        -10.163050644691154
      ],
      [
        "ande",
        -10.166218066616635
      ],
      [
        "aî",
        -10.177720623221356
      ],
      [
        "éen",
        -10.17786874275132
      ],
      [
        "▁goog",
        -10.177909041942097
      ],
      [
        "éra",
        -10.180594978991124
      ],
      [
        "▁Mas",
        -10.182109146930031
      ],
      [
        "cult",
        -10.182201634503134
      ],
      [
        "▁ge",
        -10.185764887962483
      ],
      [
        "rach",
        -10.18712245688622
      ],
      [
        "yul",
        -10.18845287294986
      ],
      [
        "nif",
        -10.197750300718571
      ],
      [
        "▁ri",
        -10.200103497204253
      ],
      [
        "▁Xarit",
        -10.20683432576971
      ],
      [
        "▁arrive",
        -10.215484742332324
      ],
      [
        "▁Che",
        -10.22582275780087
      ],
      [
        "enu",
        -10.23033145303545
      ],
      [
        "▁lu",
        -10.237463105549262
      ],
      [
        "aumône",
        -10.241714597959188
      ],
      [
        "▁att",
        -10.244808241624172
      ],
      [
        "du",
        -10.245131218238937
      ],
      [
        "erai",
        -10.250557457210748
      ],
      [
        "▁eux",
        -10.251487866140854
      ],
      [
        "▁Gan",
        -10.25159162916611
      ],
      [
        "daje",
        -10.251713068139534
      ],
      [
        "▁comm",
        -10.253584896918518
      ],
      [
        "ba",
        -10.260554703273232
      ],
      [
        "▁Bëggu",
        -10.263596434852433
      ],
      [
        "▁passe",
        -10.273468944594551
      ],
      [
        "tif",
        -10.283447131475063
      ],
      [
        "▁rentre",
        -10.285070743748902
      ],
      [
        "axul",
        -10.286922377971363
      ],
      [
        "ser",
        -10.294894665582916
      ],
      [
        "sais",
        -10.299147666316655
      ],
      [
        "▁m'as",
        -10.301205736778847
      ],
      [
        "gis",
        -10.30940479954735
      ],
      [
        "enfant",
        -10.309488313431538
      ],
      [
        "ang",
        -10.309510244844038
      ],
      [
        "▁souhait",
        -10.31416739787442
      ],
      [
        "ar.",
        -10.315821073156311
      ],
      [
        "eex",
        -10.321678429213769
      ],
      [
        "été",
        -10.32603486190933
      ],
      [
        "où",
        -10.32671773010491
      ],
      [
        "irent",
        -10.327305594401954
      ],
      [
        "▁Voi",
        -10.33015496608661
      ],
      [
        "▁gana",
        -10.331460418469188
      ],
      [
        "contr",
        -10.332672176139106
      ],
      [
        "anc",
        -10.335254529914264
      ],
      [
        "▁désir",
        -10.335524630447518
      ],
      [
        "ec",
        -10.337845143826192
      ],
      [
        "ñii",
        -10.338237485750257
      ],
      [
        "aan",
        -10.345638399314824
      ],
      [
        "▁lee",
        -10.346147664668633
      ],
      [
        "▁bel",
        -10.350967115974923
      ],
      [
        "ut",
        -10.362591307558638
      ],
      [
        "act",
        -10.367120698481129
      ],
      [
        "étudiant",
        -10.369523775144511
      ],
      [
        "O",
        -10.369701460075431
      ],
      [
        "▁ni.",
        -10.37004697205159
      ],
      [
        "autre",
        -10.371431306254005
      ],
      [
        "aujourd'hui",
        -10.378069439552714
      ],
      [
        "uy",
        -10.38659953204095
      ],
      [
        "▁goo",
        -10.388587777822952
      ],
      [
        "illi",
        -10.389155120043988
      ],
      [
        "▁accompagn",
        -10.391405477183564
      ],
      [
        "argent",
        -10.392108192436638
      ],
      [
        "▁Ñoo",
        -10.394905245184463
      ],
      [
        "hang",
        -10.39663481514478
      ],
      [
        "▁reven",
        -10.397016078383457
      ],
      [
        "mal",
        -10.403676575412115
      ],
      [
        "té",
        -10.404109990839903
      ],
      [
        "rs",
        -10.407026465063502
      ],
      [
        "jur",
        -10.410606513721538
      ],
      [
        "us",
        -10.41134995516082
      ],
      [
        "ëy",
        -10.415894522454252
      ],
      [
        "vin",
        -10.415923361891391
      ],
      [
        "ayim",
        -10.415934296288693
      ],
      [
        "viendra",
        -10.420107426502106
      ],
      [
        "ame",
        -10.420494646888491
      ],
      [
        "▁Pr",
        -10.425136264091602
      ],
      [
        "▁woow",
        -10.427827900625358
      ],
      [
        "▁fra",
        -10.430006735350648
      ],
      [
        "eau",
        -10.434690936149108
      ],
      [
        "wax",
        -10.435673046145972
      ],
      [
        "leur",
        -10.439796545015138
      ],
      [
        "ibbisi",
        -10.441447769810367
      ],
      [
        "ille",
        -10.442753002206228
      ],
      [
        "bëggée",
        -10.44355645267867
      ],
      [
        "▁bule",
        -10.450700805642427
      ],
      [
        "mes",
        -10.452604973170047
      ],
      [
        "heur",
        -10.458277617771492
      ],
      [
        "ç",
        -10.45902782770934
      ],
      [
        "▁sera",
        -10.462169432210146
      ],
      [
        "demain",
        -10.469453158786804
      ],
      [
        "L'homme",
        -10.469581761944479
      ],
      [
        "▁s'ass",
        -10.471391006593208
      ],
      [
        "da",
        -10.472337413872621
      ],
      [
        "rais",
        -10.472757612147625
      ],
      [
        "voie",
        -10.474065839962135
      ],
      [
        "▁yoo",
        -10.474247182986089
      ],
      [
        "aka",
        -10.479713679465366
      ],
      [
        "uru",
        -10.481901094163621
      ],
      [
        "▁voi",
        -10.483884779248253
      ],
      [
        "xam",
        -10.4917286541837
      ],
      [
        "ll",
        -10.493962084975179
      ],
      [
        "coute",
        -10.498493979319006
      ],
      [
        "▁mënk",
        -10.498682788784366
      ],
      [
        "▁refus",
        -10.51038519503849
      ],
      [
        "ors",
        -10.512083684695043
      ],
      [
        "▁yaak",
        -10.512132808125134
      ],
      [
        "rai",
        -10.513616326729858
      ],
      [
        "▁demand",
        -10.515908968847448
      ],
      [
        "orsqu",
        -10.524613143533129
      ],
      [
        "aye",
        -10.526713657580222
      ],
      [
        "ari",
        -10.534521032244083
      ],
      [
        "yóo",
        -10.537637316983158
      ],
      [
        "ŋ",
        -10.540158801383344
      ],
      [
        "▁fû",
        -10.557017705789592
      ],
      [
        "ez-",
        -10.55744194370989
      ],
      [
        "ur.",
        -10.562410926435867
      ],
      [
        "yent",
        -10.562887103768915
      ],
      [
        "ouv",
        -10.565385434545401
      ],
      [
        "sage",
        -10.566286012099628
      ],
      [
        "Gis",
        -10.571557705870685
      ],
      [
        "nte",
        -10.576845751089978
      ],
      [
        "ŋgoo",
        -10.577745541768358
      ],
      [
        "urtout",
        -10.578391155008134
      ],
      [
        "▁Part",
        -10.579651072009636
      ],
      [
        "▁kaa",
        -10.581180620081875
      ],
      [
        "tend",
        -10.583278379893503
      ],
      [
        "▁personn",
        -10.585021081228941
      ],
      [
        "vu",
        -10.593833792156785
      ],
      [
        "▁wal",
        -10.59920145557246
      ],
      [
        "goo",
        -10.599738305791977
      ],
      [
        "acc",
        -10.609034957105308
      ],
      [
        "axkoon",
        -10.611905797735744
      ],
      [
        "▁Ag",
        -10.613297751874148
      ],
      [
        "con",
        -10.61399109167688
      ],
      [
        "▁go",
        -10.614646301427646
      ],
      [
        "aa",
        -10.63022792765599
      ],
      [
        "▁Yo",
        -10.632492855688614
      ],
      [
        "ille-",
        -10.63607291687145
      ],
      [
        "ô",
        -10.637599259824325
      ],
      [
        "▁do",
        -10.63950232482316
      ],
      [
        "▁ab",
        -10.639669049913518
      ],
      [
        "lement",
        -10.641438356218638
      ],
      [
        "ogul",
        -10.641745712469639
      ],
      [
        "nn",
        -10.643627004667895
      ],
      [
        "'il",
        -10.645885655016777
      ],
      [
        "jul",
        -10.658496491692475
      ],
      [
        "▁Ñé",
        -10.66636290913683
      ],
      [
        "lusi",
        -10.667683960142323
      ],
      [
        "▁Se",
        -10.671239508236063
      ],
      [
        "nda",
        -10.674084849870571
      ],
      [
        "▁sau",
        -10.676514745922159
      ],
      [
        "ogu",
        -10.678612804810296
      ],
      [
        "▁U",
        -10.684108617783412
      ],
      [
        "▁revien",
        -10.685267088233843
      ],
      [
        "▁Daawu",
        -10.692158175884416
      ],
      [
        "▁Yée",
        -10.69369502328195
      ],
      [
        "ddi",
        -10.696649843776626
      ],
      [
        "▁sub",
        -10.697102506694145
      ],
      [
        "▁s'e",
        -10.698055214025748
      ],
      [
        "▁Àn",
        -10.698385716616453
      ],
      [
        "ju",
        -10.701030376902281
      ],
      [
        "rès",
        -10.703730808275507
      ],
      [
        "▁Né",
        -10.703848074923616
      ],
      [
        "arab",
        -10.705569358460373
      ],
      [
        "▁vérit",
        -10.708259342342313
      ],
      [
        "▁épo",
        -10.7113068370242
      ],
      [
        "▁Gisul",
        -10.712092354073194
      ],
      [
        "▁ŋgee",
        -10.713108500250225
      ],
      [
        "▁cohabite",
        -10.714146992362101
      ],
      [
        "usqu'ici",
        -10.714274022553251
      ],
      [
        "droit",
        -10.714919624838132
      ],
      [
        "▁descend",
        -10.715005116501386
      ],
      [
        "▁étudi",
        -10.71524009355529
      ],
      [
        "habite",
        -10.715247636407371
      ],
      [
        "ï",
        -10.715394414545642
      ],
      [
        "]",
        -10.715394414545642
      ],
      [
        "[",
        -10.715394414545642
      ],
      [
        "▁poli",
        -10.716342126185443
      ],
      [
        "mps",
        -10.716619942137491
      ],
      [
        "▁Musa",
        -10.716771849546873
      ],
      [
        "sembl",
        -10.717154451550257
      ],
      [
        "▁n'av",
        -10.71753242205724
      ],
      [
        "▁indi",
        -10.719102547304352
      ],
      [
        "▁revi",
        -10.719525288365539
      ],
      [
        "▁Pou",
        -10.719941264781234
      ],
      [
        "vid",
        -10.720399915335495
      ],
      [
        "▁dellu",
        -10.721219367102456
      ],
      [
        "ard",
        -10.721227067296413
      ],
      [
        "oobu",
        -10.721432008839281
      ],
      [
        "omp",
        -10.722620625092219
      ],
      [
        "▁plu",
        -10.723431170585364
      ],
      [
        "▁kë",
        -10.72460014289552
      ],
      [
        "▁peut",
        -10.726112876572127
      ],
      [
        "googee",
        -10.72611627396809
      ],
      [
        "▁l'h",
        -10.726289771973608
      ],
      [
        "▁appr",
        -10.728092919412287
      ],
      [
        "▁waxa",
        -10.728207892760521
      ],
      [
        "▁bët",
        -10.728331076868535
      ],
      [
        "▁Wut",
        -10.731603094960464
      ],
      [
        "gu",
        -10.734432792736806
      ],
      [
        "tëli",
        -10.736765132596478
      ],
      [
        "L",
        -10.737393446963324
      ],
      [
        "tient",
        -10.74063369087095
      ],
      [
        "▁d'i",
        -10.741473256550453
      ],
      [
        "ëggu",
        -10.741839573288608
      ],
      [
        "tive",
        -10.742284211032583
      ],
      [
        "▁dikk",
        -10.74257142338495
      ],
      [
        "ya",
        -10.743567321676979
      ],
      [
        "▁aim",
        -10.744839987397519
      ],
      [
        "▁pui",
        -10.745394857476644
      ],
      [
        "Il",
        -10.746220901583273
      ],
      [
        "▁conv",
        -10.746929984481973
      ],
      [
        "'autre",
        -10.75008464995884
      ],
      [
        "Ma",
        -10.750309321048437
      ],
      [
        "xal",
        -10.753064040613886
      ],
      [
        "ha",
        -10.756569244608563
      ],
      [
        "▁ense",
        -10.758248515137483
      ],
      [
        "oir",
        -10.759122136722285
      ],
      [
        "▁Ceux-",
        -10.762209954327284
      ],
      [
        "▁googu",
        -10.762217750560072
      ],
      [
        "entré",
        -10.762534995087211
      ],
      [
        "▁fais",
        -10.763080834604967
      ],
      [
        "ubë",
        -10.763162048878891
      ],
      [
        "add",
        -10.76382238759349
      ],
      [
        "añu",
        -10.766464252994075
      ],
      [
        "▁fee",
        -10.76917992975579
      ],
      [
        "llusi",
        -10.777604026132312
      ],
      [
        "écha",
        -10.78315636093062
      ],
      [
        "▁Sér",
        -10.784699761992282
      ],
      [
        "ange",
        -10.786577340412634
      ],
      [
        "vert",
        -10.787648466007468
      ],
      [
        "▁reg",
        -10.789330168242678
      ],
      [
        "ami",
        -10.789330277045655
      ],
      [
        "ole",
        -10.794360323934521
      ],
      [
        "blan",
        -10.796558252913217
      ],
      [
        "'aurai",
        -10.802124540702486
      ],
      [
        "▁Atte",
        -10.802717810505962
      ],
      [
        "tudi",
        -10.80539877894961
      ],
      [
        "oogu",
        -10.80564686731253
      ],
      [
        "jal",
        -10.808049335153006
      ],
      [
        "▁Ji",
        -10.812695453496115
      ],
      [
        "bre",
        -10.813559013489744
      ],
      [
        "ah",
        -10.81612088374737
      ],
      [
        "▁mê",
        -10.816886022459146
      ],
      [
        "ata",
        -10.818857389477692
      ],
      [
        "bir",
        -10.8205087004921
      ],
      [
        "▁sortie",
        -10.821357134363499
      ],
      [
        "baa",
        -10.82222444539184
      ],
      [
        "gay",
        -10.82668552281977
      ],
      [
        "edd",
        -10.827046193730695
      ],
      [
        "góon",
        -10.828638478769674
      ],
      [
        "pa",
        -10.82958340148952
      ],
      [
        "▁mange",
        -10.830826318246892
      ],
      [
        "jii",
        -10.832703468950033
      ],
      [
        "lum",
        -10.835116983113389
      ],
      [
        "▁travaillai",
        -10.843150830294915
      ],
      [
        "▁Ar",
        -10.843305913165647
      ],
      [
        "ici.",
        -10.844203877829786
      ],
      [
        "ous-même",
        -10.845925608273006
      ],
      [
        "tés",
        -10.85064704882846
      ],
      [
        "alis",
        -10.851804612042674
      ],
      [
        "Tu",
        -10.860188094057028
      ],
      [
        "mon",
        -10.860208797813154
      ],
      [
        "rëm",
        -10.862094759150228
      ],
      [
        "▁Laa",
        -10.863682300850934
      ],
      [
        "âc",
        -10.870827976897129
      ],
      [
        "ëgg",
        -10.872706185618247
      ],
      [
        "t-ce",
        -10.874417399294252
      ],
      [
        "ff",
        -10.87657363333105
      ],
      [
        "rère",
        -10.881538703271882
      ],
      [
        "uleen",
        -10.885862735920323
      ],
      [
        "▁ga",
        -10.887943548316098
      ],
      [
        "tali",
        -10.892997395214136
      ],
      [
        "▁Re",
        -10.893412162549602
      ],
      [
        "ble",
        -10.893666366550558
      ],
      [
        "l'homme",
        -10.893890894492394
      ],
      [
        "në",
        -10.900227288688829
      ],
      [
        "▁kat",
        -10.907781900006654
      ],
      [
        "▁sar",
        -10.914173116589737
      ],
      [
        "eeg",
        -10.918220050207077
      ],
      [
        "réci",
        -10.918984899095564
      ],
      [
        "▁xamu",
        -10.92100231451499
      ],
      [
        "alla",
        -10.925408328527695
      ],
      [
        "▁Tug",
        -10.929151855815382
      ],
      [
        "cor",
        -10.930231320519962
      ],
      [
        "oppi",
        -10.935499736524305
      ],
      [
        "arac",
        -10.93659325253775
      ],
      [
        "ol",
        -10.936619225647345
      ],
      [
        "oxoo",
        -10.938138942293012
      ],
      [
        "ose",
        -10.94190743673224
      ],
      [
        "alé",
        -10.945622638170015
      ],
      [
        "llu",
        -10.94957066664427
      ],
      [
        "parti",
        -10.950126214914986
      ],
      [
        "eff",
        -10.952033178898782
      ],
      [
        "ns",
        -10.955690760513898
      ],
      [
        "▁Av",
        -10.955833367829685
      ],
      [
        "ges",
        -10.959196204811953
      ],
      [
        "uwu",
        -10.966847557620108
      ],
      [
        "ours",
        -10.967602505381647
      ],
      [
        "ssent",
        -10.972458021727642
      ],
      [
        "cle",
        -10.980218655416849
      ],
      [
        "▁travaille",
        -10.985775965456074
      ],
      [
        "mine",
        -10.98624307108053
      ],
      [
        "ye",
        -10.986993115482992
      ],
      [
        "e-",
        -10.987438437825583
      ],
      [
        "▁ét",
        -10.987652192457544
      ],
      [
        "'ai",
        -10.989236720710482
      ],
      [
        "op",
        -10.998032799431519
      ],
      [
        "▁yo",
        -10.998706635821598
      ],
      [
        "▁l'é",
        -10.999676942276619
      ],
      [
        "rie",
        -10.999933647934553
      ],
      [
        "ox",
        -11.01012690876267
      ],
      [
        "▁deva",
        -11.01442168975021
      ],
      [
        "dre",
        -11.016779590559317
      ],
      [
        "▁wé",
        -11.033737524401273
      ],
      [
        "yil",
        -11.040631992596413
      ],
      [
        "sse",
        -11.045163883644783
      ],
      [
        "ni",
        -11.04682139304354
      ],
      [
        "bul",
        -11.05109988599198
      ],
      [
        "▁aff",
        -11.053270637631973
      ],
      [
        "aakaar",
        -11.053898026746934
      ],
      [
        "oit",
        -11.060655775731787
      ],
      [
        "▁elle",
        -11.064359903809747
      ],
      [
        "▁sé",
        -11.072186749645535
      ],
      [
        "aru",
        -11.07241075572538
      ],
      [
        "E",
        -11.086991271131257
      ],
      [
        "▁bë",
        -11.091315892909217
      ],
      [
        "ts.",
        -11.097324721866181
      ],
      [
        "rappe",
        -11.105599500107052
      ],
      [
        "▁es-",
        -11.112028452489279
      ],
      [
        "▁noo",
        -11.119501274331483
      ],
      [
        "dd",
        -11.122671666114918
      ],
      [
        "▁Celui-",
        -11.122981676759476
      ],
      [
        "gé",
        -11.128558253405426
      ],
      [
        "ller",
        -11.128645647048915
      ],
      [
        "▁jus",
        -11.132383901183132
      ],
      [
        "J'a",
        -11.135451984631619
      ],
      [
        "rée",
        -11.137776096223615
      ],
      [
        "'ici",
        -11.14036399106122
      ],
      [
        "▁qu'i",
        -11.149859870114451
      ],
      [
        "dab",
        -11.154846326216823
      ],
      [
        "auc",
        -11.15971920364026
      ],
      [
        "ert",
        -11.164288089896566
      ],
      [
        "'argent",
        -11.16532008683674
      ],
      [
        "óol",
        -11.172281506980578
      ],
      [
        "▁Wu",
        -11.172790396743169
      ],
      [
        "adi",
        -11.180922985844223
      ],
      [
        "▁ai",
        -11.184356500056259
      ],
      [
        "qu'un",
        -11.197448502108138
      ],
      [
        "▁ava",
        -11.210558051152944
      ],
      [
        "▁Mus",
        -11.210628038992096
      ],
      [
        "dik",
        -11.21386169485722
      ],
      [
        "lor",
        -11.21772281547338
      ],
      [
        "main",
        -11.23222027734246
      ],
      [
        "lqu'un",
        -11.234818213454776
      ],
      [
        "amoon",
        -11.234841600882918
      ],
      [
        "▁gen",
        -11.244196152356844
      ],
      [
        "▁ren",
        -11.245144363941506
      ],
      [
        "ents",
        -11.27248310236657
      ],
      [
        "▁waxe",
        -11.279584066209786
      ],
      [
        "moon",
        -11.280787628755743
      ],
      [
        "agit",
        -11.281042148855025
      ],
      [
        "ret",
        -11.28452111246811
      ],
      [
        "olul",
        -11.293672589516069
      ],
      [
        "▁yen",
        -11.295011430395167
      ],
      [
        "ccu",
        -11.316470715632052
      ],
      [
        "eill",
        -11.321816066302574
      ],
      [
        "uel",
        -11.343773741595523
      ],
      [
        "rons",
        -11.349057736243585
      ],
      [
        "itam",
        -11.359746162111547
      ],
      [
        "ch",
        -11.365638259547294
      ],
      [
        "▁ha",
        -11.378167083773368
      ],
      [
        "oola",
        -11.400825113643128
      ],
      [
        "les-",
        -11.411699557175947
      ],
      [
        "ête",
        -11.41326136148165
      ],
      [
        "arit",
        -11.425369294187579
      ],
      [
        "Je",
        -11.42581507429074
      ],
      [
        "gir",
        -11.461058267433925
      ],
      [
        "des",
        -11.46629960861783
      ],
      [
        "▁tus",
        -11.487346295282055
      ],
      [
        "tais",
        -11.490740584001028
      ],
      [
        "▁tà",
        -11.506801671079144
      ],
      [
        "ve",
        -11.524555147805556
      ],
      [
        "dal",
        -11.528124816677154
      ],
      [
        "bo",
        -11.53461425955486
      ],
      [
        "bu",
        -11.555933547572419
      ],
      [
        "cé",
        -11.556286081154811
      ],
      [
        "a-",
        -11.557735306991965
      ],
      [
        "yy",
        -11.570618083455022
      ],
      [
        "st",
        -11.576699680442974
      ],
      [
        "aat",
        -11.577252759325392
      ],
      [
        "tam",
        -11.577268403187432
      ],
      [
        "ond",
        -11.583683282814855
      ],
      [
        "lam",
        -11.587016525161484
      ],
      [
        "id",
        -11.590385588759386
      ],
      [
        "anaa",
        -11.60011338109051
      ],
      [
        "▁jig",
        -11.613039659810923
      ],
      [
        "Nit",
        -11.62816347430208
      ],
      [
        "pe",
        -11.631537222235934
      ],
      [
        "anu",
        -11.637696957797193
      ],
      [
        "boo",
        -11.643185494905838
      ],
      [
        "ët",
        -11.648179823780335
      ],
      [
        "ain",
        -11.649374513905506
      ],
      [
        "amin",
        -11.657465427444404
      ],
      [
        "▁ña",
        -11.69191132912197
      ],
      [
        "▁voil",
        -11.703930006118835
      ],
      [
        "î",
        -11.721995802222745
      ],
      [
        "▁Ke",
        -11.725304633825415
      ],
      [
        "A",
        -11.729801511047885
      ],
      [
        "lait",
        -11.737696665119568
      ],
      [
        "▁jen",
        -11.739487624796624
      ],
      [
        "eû",
        -11.751199840751662
      ],
      [
        "ave",
        -11.766375922547306
      ],
      [
        "'apprécie",
        -11.813343714912332
      ],
      [
        "lut",
        -11.821502469532817
      ],
      [
        "squel",
        -11.826733244670944
      ],
      [
        "esse",
        -11.845617976270638
      ],
      [
        "fus",
        -11.85131491687923
      ],
      [
        "▁x",
        -11.855431414433179
      ],
      [
        "ëlë",
        -11.861280573659641
      ],
      [
        "▁Dema",
        -11.902789418630967
      ],
      [
        "▁ŋgoog",
        -11.912988643934987
      ],
      [
        "étai",
        -11.915848800973153
      ],
      [
        "este",
        -11.916169209098019
      ],
      [
        "wum",
        -11.917618813161532
      ],
      [
        "▁res",
        -11.926026694812766
      ],
      [
        "▁ret",
        -11.926075493918304
      ],
      [
        "uf",
        -11.94282099633419
      ],
      [
        "ées",
        -11.958389151685102
      ],
      [
        "▁wo",
        -11.970715557170951
      ],
      [
        "▁lé",
        -11.986296953307317
      ],
      [
        "ga",
        -12.016058185071387
      ],
      [
        "oi-même",
        -12.041193163687646
      ],
      [
        "may",
        -12.06326510496856
      ],
      [
        "ge",
        -12.086914955543907
      ],
      [
        "T",
        -12.092338586126697
      ],
      [
        "'",
        -12.092438586126697
      ],
      [
        "B",
        -12.092538586126697
      ],
      [
        "N",
        -12.092638586126698
      ],
      [
        "R",
        -12.092738586126698
      ],
      [
        "D",
        -12.092838586126698
      ],
      [
        "U",
        -12.092938586126698
      ],
      [
        "V",
        -12.093038586126697
      ],
      [
        "P",
        -12.093138586126697
      ],
      [
        "Ŋ",
        -12.093238586126697
      ],
      [
        "K",
        -12.093338586126697
      ],
      [
        "I",
        -12.093438586126698
      ],
      [
        "W",
        -12.093538586126698
      ],
      [
        "M",
        -12.093638586126698
      ],
      [
        "Y",
        -12.093738586126697
      ],
      [
        "H",
        -12.093838586126697
      ],
      [
        "ó",
        -12.093938586126697
      ],
      [
        "F",
        -12.094038586126697
      ],
      [
        "Ñ",
        -12.094138586126697
      ],
      [
        "S",
        -12.094238586126698
      ],
      [
        "X",
        -12.094338586126698
      ],
      [
        "À",
        -12.094438586126698
      ],
      [
        "Q",
        -12.094538586126697
      ],
      [
        "sont",
        -12.094538586126697
      ]
    ]
  }
}