<pad>	0
</s>	0
<unk>	0
<s>	0
,	-3.05989
.	-3.23835
'	-3.55316
s	-4.13177
▁de	-4.1723
▁la	-4.22959
▁	-4.56045
▁ci	-4.59811
-	-4.59922
y	-4.71182
e	-4.72039
▁a	-4.75266
▁!	-4.828
▁l	-4.89491
▁?	-4.93722
▁et	-5.11255
▁un	-5.14324
▁à	-5.15725
▁les	-5.17991
▁des	-5.22135
▁d	-5.28461
▁qui	-5.31041
i	-5.31727
▁le	-5.32304
▁mu	-5.36681
u	-5.36717
▁na	-5.38658
▁ni	-5.38837
est	-5.41915
▁ne	-5.43348
▁ma	-5.44918
r	-5.45843
▁que	-5.46885
▁bi	-5.48035
▁ko	-5.50299
▁di	-5.54041
▁du	-5.54935
▁ba	-5.56181
▁ak	-5.58397
▁yi	-5.63914
▁pas	-5.68675
▁est	-5.69142
▁qu	-5.70789
a	-5.71671
▁ñu	-5.72535
▁yu	-5.76476
▁C	-5.78648
▁gi	-5.78824
▁bu	-5.78932
▁en	-5.79556
▁n	-5.79656
▁Il	-5.83788
▁il	-5.83887
▁ay	-5.85872
▁dans	-5.86362
▁dem	-5.89205
il	-5.94799
▁c	-5.96799
▁ngi	-5.99357
▁naa	-6.03902
▁s	-6.07073
▁ce	-6.11038
▁am	-6.1104
▁lu	-6.13506
▁pour	-6.13712
▁te	-6.15378
▁seen	-6.16487
▁y	-6.1719
▁fa	-6.18749
ai	-6.20672
▁woon	-6.21158
▁au	-6.22308
▁L	-6.22485
▁se	-6.25786
▁sama	-6.31297
▁J	-6.31674
▁ca	-6.32884
homme	-6.33872
▁sa	-6.33922
▁sur	-6.34269
une	-6.35558
▁je	-6.38379
▁sont	-6.40709
al	-6.41539
▁gis	-6.41757
▁vu	-6.41764
:	-6.42156
▁Je	-6.42508
▁avec	-6.42707
▁daan	-6.42803
oon	-6.43689
▁doon	-6.46378
▁par	-6.48989
▁nag	-6.49023
▁xam	-6.49239
▁leen	-6.52482
▁j	-6.52605
▁mi	-6.52611
▁ŋga	-6.53274
ent	-6.53397
n	-6.58701
▁mon	-6.60068
▁père	-6.60586
am	-6.61877
ul	-6.6201
er	-6.63828
▁wax	-6.64519
▁nekk	-6.64601
▁benn	-6.65117
▁Góo	-6.65224
▁si	-6.65483
ait	-6.67173
là	-6.67518
▁tu	-6.6752
▁nit	-6.69373
▁Baay	-6.69799
é	-6.69912
▁ya	-6.70518
un	-6.70561
▁mel	-6.70646
▁nga	-6.70697
▁été	-6.72654
▁Gis	-6.74344
▁moom	-6.77619
▁sax	-6.77757
nt	-6.77769
es	-6.78047
▁leur	-6.78443
▁où	-6.79334
▁Afrig	-6.79844
tu	-6.80536
▁moo	-6.80574
▁homme	-6.81121
▁son	-6.81644
▁lui	-6.81725
ee	-6.84542
▁biir	-6.8668
▁nu	-6.86824
▁Tu	-6.87241
▁plus	-6.87345
▁def	-6.88234
▁i	-6.8903
▁m	-6.89301
t	-6.89698
ette	-6.91445
on	-6.9173
▁su	-6.92937
▁ku	-6.94825
▁ñëw	-6.96867
▁photo	-6.9688
▁tout	-6.97511
«	-6.97529
▁nous	-6.99392
le	-6.99659
▁avait	-6.99852
▁Le	-7.00035
ant	-7.00096
▁La	-7.00513
▁li	-7.01085
▁mën	-7.02974
▁Les	-7.05074
▁kenn	-7.05139
te	-7.05584
▁ab	-7.05593
▁là	-7.07578
▁góor	-7.08166
▁gu	-7.08255
▁Ci	-7.08388
▁A	-7.09262
▁ou	-7.10208
▁»	-7.10305
▁bii	-7.11202
▁nataal	-7.11247
▁autre	-7.11381
▁enfants	-7.14899
en	-7.15777
▁fi	-7.159
▁cet	-7.16413
▁D	-7.17488
▁t	-7.18283
▁may	-7.18319
ment	-7.18854
l	-7.18928
k	-7.1949
▁ñi	-7.20823
▁celui	-7.22273
▁ces	-7.22851
▁dal	-7.2314
▁aussi	-7.23447
▁it	-7.24103
▁on	-7.25001
▁comme	-7.25553
▁dafa	-7.25852
▁rekk	-7.25857
▁Am	-7.26531
▁lool	-7.26657
▁me	-7.26882
▁ji	-7.27218
▁dara	-7.2824
▁mère	-7.28635
▁dëkk	-7.29586
▁Nit	-7.30866
▁ju	-7.30901
▁fu	-7.32602
▁moi	-7.32976
▁teg	-7.33345
▁san	-7.3349
▁Sur	-7.33784
▁laa	-7.34134
▁bëgg	-7.35058
à	-7.35699
▁parti	-7.35943
▁même	-7.36121
▁ñaar	-7.3636
▁kër	-7.3754
que	-7.3814
▁ki	-7.38608
▁jigéen	-7.38803
▁S	-7.39497
g	-7.39742
ce	-7.3988
était	-7.40085
▁maison	-7.40278
▁gën	-7.41404
▁xale	-7.41592
▁ndax	-7.41637
oo	-7.41713
▁boo	-7.41815
▁pays	-7.41993
x	-7.42855
▁Su	-7.42881
▁était	-7.44277
▁–	-7.44437
▁Nataal	-7.4444
▁mbaa	-7.45685
▁xar	-7.46138
▁war	-7.47201
▁ñoo	-7.47218
ci	-7.47955
ñ	-7.48419
▁peut	-7.48989
d	-7.49534
▁À	-7.51504
di	-7.51745
▁chose	-7.5366
b	-7.54204
eneen	-7.54534
▁man	-7.55197
▁jusqu	-7.55234
▁Ma	-7.55355
▁Un	-7.55411
▁lépp	-7.55612
intérieur	-7.56856
▁vois	-7.56907
▁Ce	-7.5705
▁Mu	-7.57225
enn	-7.58504
▁weex	-7.58521
▁walla	-7.58538
▁loolu	-7.5924
is	-7.59442
m	-7.59793
▁baax	-7.60237
être	-7.60742
▁De	-7.62543
▁G	-7.62882
▁fait	-7.63452
▁mag	-7.64218
elle	-7.64323
▁ŋgi	-7.6498
▁bien	-7.65065
▁Waaye	-7.65484
▁as	-7.65649
▁vous	-7.65673
▁réew	-7.65865
▁aux	-7.66315
▁En	-7.67112
and	-7.67203
▁Te	-7.67287
▁très	-7.67301
▁cela	-7.67332
eek	-7.67384
▁ñoom	-7.67394
▁yaay	-7.67896
▁ont	-7.67977
▁ñuul	-7.68222
ŋ	-7.68673
aient	-7.69097
▁parle	-7.69464
▁Li	-7.69518
▁yoon	-7.6992
▁garab	-7.69986
▁koo	-7.70074
▁yooyu	-7.71072
▁mais	-7.71564
▁Maa	-7.71686
▁temps	-7.72978
▁dit	-7.73429
▁deux	-7.74228
▁(	-7.74923
▁monde	-7.74987
▁yépp	-7.75061
▁Waaw	-7.75219
▁couleur	-7.75361
▁k	-7.75437
▁ag	-7.75587
▁ka	-7.75587
...	-7.75626
re	-7.75673
▁vie	-7.75732
▁demee	-7.7589
▁dul	-7.76772
▁porte	-7.76816
;	-7.76923
▁Mais	-7.77011
▁guerre	-7.77028
▁sunu	-7.77078
▁ceux	-7.77262
▁lañu	-7.78059
▁tax	-7.78639
▁suuf	-7.78981
▁maa	-7.80012
▁gone	-7.8011
autre	-7.80458
▁yiy	-7.80474
▁bés	-7.80791
▁sol	-7.81009
▁tamit	-7.81052
ée	-7.81833
▁lii	-7.82241
▁tou	-7.82571
▁Ñu	-7.83073
▁Ogosaa	-7.83174
▁Du	-7.8329
▁at	-7.84171
▁bopp	-7.84337
▁néeg	-7.8435
na	-7.85003
▁femme	-7.86035
▁toog	-7.87068
▁partir	-7.87416
▁xel	-7.87472
▁ndaw	-7.87621
▁noppi	-7.87659
▁fekk	-7.87777
▁Nou	-7.87826
um	-7.87946
▁tey	-7.88136
▁waay	-7.88401
▁dañ	-7.88501
Afrique	-7.88633
▁quelque	-7.88898
▁cha	-7.89223
▁yaram	-7.89908
▁Qu	-7.89971
▁grand	-7.90655
▁wi	-7.91048
▁ga	-7.9112
▁être	-7.91448
▁toi	-7.91957
▁Tugal	-7.92183
▁P	-7.9231
▁jëm	-7.92407
▁O	-7.93682
▁yëg	-7.93696
▁ànd	-7.94009
▁wër	-7.94301
▁Dem	-7.94444
▁doŋŋ	-7.94567
▁boobu	-7.94577
▁faire	-7.94593
▁gens	-7.94603
▁soo	-7.95338
▁àll	-7.95382
▁mouton	-7.95446
eux	-7.95471
it	-7.95483
▁B	-7.96288
▁naan	-7.9648
▁jamono	-7.96989
▁encore	-7.96991
▁veux	-7.97011
▁doole	-7.97026
▁semble	-7.97484
▁amul	-7.97849
▁Ba	-7.97875
▁p	-7.9847
ils	-7.98613
▁nañ	-7.99004
▁ñax	-7.99566
▁réer	-7.99775
▁dont	-7.9983
ma	-7.99833
▁nañu	-8.00261
▁saa	-8.00333
▁venu	-8.00616
léeg	-8.0086
és	-8.00991
▁kow	-8.01519
▁rafet	-8.01885
▁voilà	-8.02056
o	-8.02137
ation	-8.02485
▁Moo	-8.03349
▁Si	-8.04152
eurs	-8.04259
▁liggéey	-8.04329
▁daal	-8.04954
▁peu	-8.05099
▁part	-8.05501
▁ñépp	-8.07411
▁Ndax	-8.07447
▁dex	-8.07524
▁sous	-8.07751
w	-8.07888
▁dañu	-8.08226
ante	-8.08382
▁bët	-8.08608
▁jot	-8.0864
▁rien	-8.08797
woon	-8.09107
▁xare	-8.0975
ù	-8.1013
pendant	-8.10295
▁Mon	-8.10308
▁bari	-8.10347
▁Cet	-8.10408
▁elle	-8.10483
▁itam	-8.10532
▁ban	-8.10913
ak	-8.11834
▁doom	-8.11994
▁lañ	-8.12089
▁jël	-8.12258
hui	-8.123
▁N	-8.12666
▁àddina	-8.12678
▁taxaw	-8.12704
▁génn	-8.13019
▁jamais	-8.13023
▁mes	-8.13061
▁Xam	-8.13475
▁waa	-8.13613
▁loxo	-8.13678
▁dee	-8.13731
▁va	-8.13774
▁personne	-8.14435
▁léeg	-8.1448
▁jour	-8.14606
)	-8.1488
tre	-8.14907
▁femmes	-8.15059
bas	-8.15063
▁xonq	-8.15964
▁corps	-8.15982
▁Daf	-8.16033
▁après	-8.16424
▁neex	-8.16437
ujour	-8.17111
▁nii	-8.17493
ions	-8.17892
▁dugg	-8.18031
▁jóge	-8.18225
▁Quel	-8.18475
yeek	-8.18755
ale	-8.18799
▁xarit	-8.18883
▁doute	-8.19009
▁ŋgeen	-8.19076
▁yaa	-8.19596
épp	-8.20899
▁sui	-8.21185
▁wu	-8.21783
▁noonu	-8.22297
▁dëgg	-8.2251
quelle	-8.22544
▁demul	-8.22588
kat	-8.23622
▁jaar	-8.2376
as	-8.23762
▁ja	-8.24147
▁waaw	-8.24355
▁F	-8.24848
▁kaw	-8.25152
▁mbir	-8.25183
▁sorte	-8.25274
▁Kamerun	-8.25344
▁loin	-8.25345
▁Tubaab	-8.25408
▁terre	-8.25428
▁fii	-8.26243
▁M	-8.264
autres	-8.26533
▁daw	-8.26702
▁Lu	-8.26779
▁bare	-8.26829
uñu	-8.27525
▁Bu	-8.27663
▁ñ	-8.27881
▁ginnaaw	-8.28529
▁foofu	-8.28694
▁fois	-8.28768
▁yeneen	-8.29136
▁étai	-8.29345
▁Lii	-8.29627
▁Xar	-8.31834
aan	-8.3186
▁Fa	-8.31951
▁Et	-8.32148
▁bois	-8.32152
▁es	-8.32497
▁voir	-8.32629
tte	-8.33171
eau	-8.34144
▁ai	-8.34222
dessus	-8.34392
▁Ku	-8.3464
▁enfant	-8.34986
▁mas	-8.35322
▁dégg	-8.3537
▁beaucoup	-8.35699
▁takk	-8.35917
▁On	-8.35918
▁boppam	-8.35923
▁nee	-8.3593
▁crois	-8.35931
▁entre	-8.3617
▁arbres	-8.36435
▁daa	-8.36909
▁bunt	-8.36933
▁non	-8.37207
▁Ni	-8.37535
▁route	-8.37803
▁dund	-8.38075
avait	-8.38246
▁dox	-8.38322
▁Y	-8.38606
▁bañ	-8.39362
▁veut	-8.39402
▁Loolu	-8.3942
▁gii	-8.39448
▁années	-8.39515
▁f	-8.39537
▁Xale	-8.39657
▁xaw	-8.39712
▁ňu	-8.3984
▁travers	-8.39845
▁devant	-8.39982
ug	-8.40554
▁ans	-8.41181
▁chambre	-8.416
▁Sée	-8.4206
▁yoo	-8.42165
▁solo	-8.42513
▁da	-8.42699
▁mer	-8.43086
▁g	-8.43148
▁forêt	-8.43247
▁topp	-8.4325
▁Mi	-8.43402
▁Oui	-8.43434
▁way	-8.43538
ux	-8.43565
ir	-8.43663
▁Ogoja	-8.43746
▁avant	-8.43794
▁Ceux	-8.43829
▁lan	-8.43915
▁Qui	-8.44095
▁wàn	-8.44447
▁lal	-8.44618
vaient	-8.45154
▁wet	-8.4524
▁Afrique	-8.45345
▁haut	-8.45381
▁rouge	-8.45603
▁nuit	-8.45725
▁moutons	-8.45747
▁vers	-8.46668
▁Man	-8.46729
▁contre	-8.47235
▁jooju	-8.47336
▁daanaka	-8.47389
▁Ceci	-8.47397
▁kooku	-8.47561
▁re	-8.47849
ook	-8.48225
▁amis	-8.4891
▁quelqu	-8.49007
▁vo	-8.49105
▁Bi	-8.49141
▁Au	-8.49397
▁eux	-8.49465
▁in	-8.4965
▁blanche	-8.49741
▁fas	-8.49882
▁case	-8.50114
▁médecin	-8.50457
▁Soo	-8.50557
▁tànk	-8.50601
▁tudd	-8.50608
▁France	-8.51414
▁fàww	-8.51418
▁Cameroun	-8.51422
▁voit	-8.51451
▁matin	-8.51458
▁pouvait	-8.51463
▁Elle	-8.51468
▁Sama	-8.51491
▁aucun	-8.51609
▁nuy	-8.52025
▁Que	-8.52842
▁metti	-8.52938
ées	-8.53209
uma	-8.53234
ek	-8.53487
▁day	-8.53549
▁Tout	-8.53615
omment	-8.53908
▁blanc	-8.54224
▁autres	-8.55008
vait	-8.55475
▁Vous	-8.55762
▁Celui	-8.55766
▁fàttaliku	-8.55827
▁kan	-8.5591
▁soit	-8.56065
▁xol	-8.56156
▁donné	-8.562
▁ici	-8.56525
▁néegu	-8.56768
▁Sa	-8.56805
f	-8.57063
▁jàpp	-8.57176
iers	-8.57719
▁noir	-8.57721
▁personnes	-8.58114
▁port	-8.59154
▁jox	-8.59163
▁ëpp	-8.59169
▁Na	-8.59172
avoir	-8.59177
▁Ay	-8.59708
autour	-8.59819
▁K	-8.59887
mère	-8.60001
▁yaakaar	-8.60308
▁Naka	-8.60316
▁verre	-8.60318
▁weer	-8.60378
▁bout	-8.60472
▁lequel	-8.60536
▁Dan	-8.60558
▁gaal	-8.60733
▁dóor	-8.60782
▁lay	-8.61044
aat	-8.61102
▁doomi	-8.61197
▁bokk	-8.6162
▁xamul	-8.61629
ont	-8.61707
in	-8.61781
▁dana	-8.61903
▁passé	-8.62012
▁fin	-8.62099
▁vas	-8.62505
▁Ca	-8.63053
▁posé	-8.63294
▁seul	-8.63818
oit	-8.64154
▁leer	-8.64237
ñu	-8.64426
▁Seet	-8.6459
▁say	-8.64644
▁hommes	-8.64987
aadama	-8.65069
▁Wànte	-8.65071
▁bëj	-8.65071
▁xalaat	-8.65073
▁milieu	-8.65073
▁soleil	-8.65075
▁tali	-8.65096
▁yàgg	-8.65102
▁coté	-8.65107
▁seulement	-8.65123
▁For	-8.66167
geen	-8.66368
▁quelle	-8.6648
aa	-8.66589
▁parler	-8.6706
▁fan	-8.67443
▁defar	-8.67583
té	-8.6763
▁demoon	-8.6766
lu	-8.68059
▁moment	-8.68267
▁mat	-8.68385
▁village	-8.68503
▁passe	-8.68685
▁pu	-8.68833
▁gaa	-8.6924
▁ndox	-8.69572
igéen	-8.69924
an	-8.69945
▁bind	-8.6995
▁Móris	-8.70069
▁ñàkk	-8.70079
▁bord	-8.70109
▁Niseryaa	-8.70141
▁ressemble	-8.70183
▁debout	-8.70186
▁reste	-8.70251
▁jeex	-8.70425
▁réy	-8.70431
▁dina	-8.70443
▁jaay	-8.70461
▁murs	-8.70592
▁guddi	-8.70661
wul	-8.70714
▁Wax	-8.70899
▁doomu	-8.70925
em	-8.71725
▁puis	-8.7248
▁yee	-8.72675
ub	-8.73218
▁vrai	-8.73312
▁ville	-8.73344
▁seet	-8.73516
▁maam	-8.74233
je	-8.74264
▁Waa	-8.74639
▁regard	-8.74682
▁b	-8.74979
▁Bëgg	-8.75324
hôpital	-8.75332
▁souviens	-8.75332
▁Nigeria	-8.75333
▁question	-8.75334
▁gàtt	-8.75336
▁Cela	-8.75355
▁dellu	-8.75356
▁Bansoo	-8.75363
▁wéy	-8.75366
▁nettali	-8.75373
▁Keneen	-8.75399
▁beneen	-8.75409
▁côté	-8.7544
▁manière	-8.75489
▁Yaa	-8.75501
▁lorsqu	-8.7555
▁bay	-8.7563
▁door	-8.7578
▁yeux	-8.75905
▁fo	-8.75984
▁baay	-8.7637
ère	-8.77183
▁kii	-8.77438
ine	-8.77465
même	-8.77701
enfant	-8.77985
▁quel	-8.78564
▁eu	-8.7878
▁poisson	-8.78904
▁aw	-8.79061
▁voyage	-8.79073
▁rivière	-8.7924
▁bé	-8.79362
ry	-8.7937
avais	-8.79637
▁bon	-8.79967
▁faa	-8.80021
▁faj	-8.80258
▁juróom	-8.8035
▁jiit	-8.8057
▁bàyyi	-8.80842
▁Laobe	-8.80888
▁séen	-8.80892
▁cheval	-8.80893
▁Samba	-8.80893
▁xeer	-8.80914
▁téere	-8.80921
▁dénk	-8.80943
▁no	-8.80957
loo	-8.80968
▁fourmis	-8.81025
▁Moom	-8.8103
▁soir	-8.81173
▁long	-8.81175
▁njëkk	-8.8121
▁mot	-8.81244
▁vache	-8.81272
▁près	-8.813
ng	-8.81315
koon	-8.81522
▁aller	-8.81589
▁tel	-8.81811
▁aperç	-8.81812
▁tudde	-8.82053
ne	-8.82495
▁égaré	-8.82896
rait	-8.83033
▁dëkki	-8.83181
at	-8.8332
▁amoon	-8.83346
▁jours	-8.83931
▁dé	-8.8408
▁ubbi	-8.84149
▁lanu	-8.84371
exil	-8.84379
der	-8.84736
▁mii	-8.84879
▁toute	-8.84977
▁montre	-8.85225
ň	-8.85254
▁gee	-8.85546
▁nun	-8.85639
▁mal	-8.85738
▁Banso	-8.86736
réb	-8.86756
▁Alors	-8.8677
▁Àngalteer	-8.8677
▁tàmbal	-8.8677
Ouest	-8.86771
▁gunóor	-8.86772
▁quoi	-8.86774
▁Àngale	-8.86782
▁seetlu	-8.86792
▁Ñoom	-8.86805
▁trois	-8.86812
▁peau	-8.86833
▁plaine	-8.86864
▁dàll	-8.86987
▁tuuti	-8.87018
▁yaatu	-8.87093
▁assis	-8.87158
▁bant	-8.87196
▁gaynde	-8.87227
▁aurait	-8.87306
▁ña	-8.87367
▁mujje	-8.87378
▁toit	-8.87421
jur	-8.87446
▁dama	-8.87606
▁maanaa	-8.87634
▁wut	-8.878
▁gudd	-8.87867
▁mains	-8.87989
▁miir	-8.8805
▁lit	-8.88091
▁garde	-8.88438
or	-8.88778
).	-8.89006
▁Comme	-8.89124
▁dire	-8.89228
▁Ken	-8.89257
▁Là	-8.90788
▁plu	-8.91341
ans	-8.9141
maa	-8.91446
▁X	-8.91456
mask	-8.91489
ité	-8.91533
▁portes	-8.91725
▁parles	-8.92031
▁lion	-8.9215
▁yor	-8.92313
tôt	-8.92503
▁yére	-8.9253
▁Ñ	-8.92846
▁W	-8.92911
▁Kooku	-8.92999
àddaay	-8.93
<	-8.9302
▁jardin	-8.9302
▁sowu	-8.93032
▁dunyaa	-8.93034
▁moroom	-8.93046
avez	-8.93072
▁xeet	-8.93075
▁marché	-8.93137
▁trop	-8.93142
▁Kon	-8.9319
▁feebar	-8.93228
▁grande	-8.9334
▁fut	-8.93537
age	-8.93727
▁laaj	-8.9375
▁montagnes	-8.93792
▁vient	-8.94005
▁kanam	-8.94146
▁jeune	-8.94366
▁parte	-8.94386
h	-8.94694
▁Bamenda	-8.95
▁moomu	-8.95052
▁nos	-8.95234
▁wone	-8.9525
ur	-8.96032
▁waaj	-8.96032
▁leneen	-8.9618
ses	-8.96713
ez	-8.96715
▁mort	-8.96751
▁ami	-8.96964
▁Di	-8.97241
▁biti	-8.97447
▁...	-8.97705
ukaay	-8.97871
▁Mën	-8.97899
de	-8.98027
armée	-8.98126
kk	-8.98195
▁Va	-8.98206
▁won	-8.98526
ata	-8.98554
▁fond	-8.98828
▁defe	-8.98979
▁so	-8.99159
▁jii	-8.9936
▁trouve	-8.99436
▁lieu	-8.99659
▁violence	-8.99687
▁Aucun	-8.99688
▁House	-8.99689
▁tollu	-8.99689
Louis	-8.99689
▁fàtte	-8.9969
▁Saint	-8.99691
▁jéem	-8.99698
▁baa	-8.99699
▁doktoor	-8.99707
▁làrme	-8.99717
▁ëe	-8.9972
▁yónnee	-8.9972
▁Yaw	-8.99721
▁simplement	-8.99721
habitude	-8.99751
▁gént	-8.99778
▁salle	-8.99788
▁cause	-8.99799
▁Ak	-8.99817
▁ta	-8.99829
▁romb	-8.99836
▁tëj	-8.99855
avons	-8.99886
▁ñan	-8.99899
▁ňaar	-8.99923
▁deret	-8.99941
▁Noonu	-8.99965
▁boog	-9.00009
▁Dama	-9.00063
▁allé	-9.00226
▁portent	-9.00321
▁bëggul	-9.00381
▁buntu	-9.00602
▁ciel	-9.00616
▁Kan	-9.00721
▁Fu	-9.00907
▁villages	-9.01832
▁marche	-9.0214
▁blancs	-9.02168
▁sais	-9.02965
▁Boo	-9.03034
faral	-9.03228
▁neen	-9.03263
ons	-9.0352
▁tur	-9.04329
c	-9.04355
▁niroo	-9.04364
eur	-9.04426
▁forme	-9.04574
▁pars	-9.04624
▁souvenir	-9.0502
si	-9.05058
▁jolie	-9.05303
ël	-9.05565
▁deme	-9.05722
leen	-9.06063
▁partie	-9.06113
▁travail	-9.06161
herbes	-9.06231
▁noire	-9.06484
▁choses	-9.06573
▁song	-9.06787
▁famille	-9.0683
▁mémoire	-9.0683
▁togg	-9.0683
▁paix	-9.06837
▁Peut	-9.06845
▁diiwaan	-9.06852
▁parlait	-9.06853
▁tangor	-9.06858
▁dellusi	-9.0686
▁ngelaw	-9.06864
▁vécu	-9.06882
▁Pour	-9.06883
▁heures	-9.06896
▁Seen	-9.06902
▁gaaw	-9.0691
▁Da	-9.06913
▁wóor	-9.06918
▁dame	-9.06972
▁Ndar	-9.07077
▁mépp	-9.07087
▁bras	-9.07117
▁endroit	-9.0715
▁Yàlla	-9.0715
▁tard	-9.07206
atul	-9.07221
▁gendarmes	-9.07243
aire	-9.07388
▁taxoon	-9.07416
▁Wall	-9.07439
▁daj	-9.07533
▁jënd	-9.07623
▁Fan	-9.07624
▁lekk	-9.07869
▁tabax	-9.08502
▁petit	-9.08589
▁Nga	-9.0878
▁sore	-9.09058
▁dëkku	-9.092
▁noirs	-9.09417
Est	-9.09459
▁sori	-9.09495
▁toutes	-9.10089
elles	-9.10136
▁celle	-9.10806
▁yit	-9.11241
▁vieille	-9.11431
▁xool	-9.119
▁Bamendaa	-9.12175
▁connu	-9.12515
▁àgg	-9.12754
▁fille	-9.12878
nu	-9.13136
kanam	-9.13229
▁Par	-9.13385
et	-9.13387
voir	-9.13423
où	-9.13437
▁».	-9.13462
▁Ra	-9.13463
waat	-9.13642
añoo	-9.13645
étai	-9.13726
ke	-9.13894
▁dëkke	-9.14158
▁tàng	-9.14188
▁tekk	-9.14265
▁feeñ	-9.14337
imagine	-9.14391
▁britannique	-9.14522
▁liberté	-9.14522
▁sokolaa	-9.14522
▁palais	-9.14522
▁weesoo	-9.14522
▁soldaar	-9.14522
▁wirgo	-9.14523
▁Mbaa	-9.14523
▁théière	-9.14523
▁tëdd	-9.14526
▁kese	-9.14528
▁sucre	-9.14533
▁surtout	-9.14545
▁Maurice	-9.14561
▁asamaan	-9.14563
▁Ibo	-9.14577
▁Frãs	-9.14578
▁ainsi	-9.14579
▁ça	-9.14591
▁sedd	-9.14596
▁faut	-9.14605
▁Yéen	-9.14615
▁acheté	-9.14629
▁rek	-9.14632
▁Bés	-9.14633
▁googu	-9.14634
▁Jox	-9.14652
▁viendra	-9.1466
▁café	-9.14673
▁yëngu	-9.1477
▁demkoon	-9.14773
▁xelam	-9.15016
▁jëkk	-9.15056
▁géej	-9.15075
▁avions	-9.15284
▁habits	-9.15333
▁sàkk	-9.15401
▁suba	-9.15549
▁nanu	-9.15797
▁bee	-9.15859
ral	-9.15971
▁po	-9.16109
ement	-9.16246
▁noo	-9.16268
ance	-9.16451
▁Xan	-9.16756
▁ŋgii	-9.16831
ra	-9.16932
les	-9.17021
oŋ	-9.17152
▁Ne	-9.17395
os	-9.17749
▁yem	-9.1788
▁per	-9.17904
▁pris	-9.17957
mu	-9.18015
▁jant	-9.18317
▁ñii	-9.18364
▁wetu	-9.18762
▁May	-9.19123
▁appelle	-9.19129
me	-9.19535
ais	-9.19868
▁coup	-9.20096
▁Ta	-9.20113
▁grands	-9.20119
▁pres	-9.20451
▁couleurs	-9.20977
▁baat	-9.21023
▁vienne	-9.21127
▁carte	-9.21204
▁garçon	-9.21262
▁woo	-9.21372
Europe	-9.21478
2	-9.21555
▁U	-9.2188
▁x	-9.22027
▁main	-9.22204
woo	-9.22524
▁Cherche	-9.22855
▁doxandéem	-9.22855
▁làmp	-9.22855
▁mellentaan	-9.22855
▁région	-9.22855
▁xanaa	-9.22859
▁déglu	-9.22861
▁Kër	-9.22862
▁boroom	-9.22862
▁manger	-9.22866
▁raison	-9.2287
▁passage	-9.22871
▁yuuxu	-9.22877
▁Jaam	-9.22885
▁longue	-9.22885
▁delloo	-9.22891
▁Lawbe	-9.22901
▁envoyée	-9.22904
▁ngoon	-9.22924
▁appris	-9.22933
▁fépp	-9.22933
▁nangu	-9.22941
▁kàddu	-9.23025
▁R	-9.23085
▁derrière	-9.23108
▁màgget	-9.23138
▁Defe	-9.23163
▁màggat	-9.23212
▁large	-9.23225
▁yaw	-9.23447
▁Demal	-9.23461
▁Moi	-9.23623
▁Ben	-9.2372
el	-9.2389
▁pieds	-9.23901
▁fees	-9.23964
▁fleuves	-9.24321
▁herbes	-9.24334
▁mêmes	-9.24348
▁seule	-9.24423
▁jàng	-9.24819
▁duñu	-9.25154
iez	-9.25172
▁ira	-9.25202
▁telle	-9.25364
▁we	-9.25401
atum	-9.25656
▁So	-9.258
▁Quelle	-9.2602
▁mis	-9.26281
▁vent	-9.26349
midi	-9.26634
▁arrivé	-9.26767
▁fàttali	-9.27032
q	-9.2711
▁masu	-9.27468
▁w	-9.27666
agit	-9.27854
okk	-9.28069
▁të	-9.28091
▁kaa	-9.28335
▁égarée	-9.28688
▁séché	-9.29269
étais	-9.29282
▁Koo	-9.29688
fin	-9.29992
▁conçue	-9.30142
j	-9.30175
▁roi	-9.30232
▁première	-9.30318
▁fleuve	-9.30365
▁dayo	-9.30463
kati	-9.30621
▁doy	-9.30653
Ogoja	-9.30745
kër	-9.30771
▁lakk	-9.30958
▁fais	-9.31028
▁dagg	-9.31662
beek	-9.31676
▁tan	-9.31899
▁Guwiyaan	-9.31946
▁Guyane	-9.31946
▁Homme	-9.31946
▁Moussa	-9.31946
▁Sénégal	-9.31946
▁yëkkati	-9.31946
▁lumière	-9.31946
▁silence	-9.31947
zone	-9.31947
▁feuilles	-9.31947
▁Xammee	-9.31948
▁rawati	-9.31948
▁chevaux	-9.3195
▁frère	-9.31951
▁tiim	-9.31952
▁force	-9.31958
▁Gone	-9.31961
▁Moonte	-9.31966
▁téye	-9.31968
▁jëfandikoo	-9.31968
▁yéeg	-9.31971
▁jéggi	-9.31982
▁xéy	-9.31997
▁toogukaay	-9.32007
▁toujours	-9.32013
▁poste	-9.32017
▁xaar	-9.32018
▁bateau	-9.32028
saalum	-9.32035
▁tàll	-9.32038
▁tàkk	-9.32049
▁kilifa	-9.32075
▁faisait	-9.3208
▁yóbbu	-9.32107
▁feneen	-9.32114
▁chez	-9.32114
ewul	-9.3212
▁Ñii	-9.32124
▁bépp	-9.32132
▁rëdd	-9.32137
▁fenn	-9.32145
▁Léeg	-9.32191
▁retraite	-9.3225
▁sortir	-9.32257
▁teel	-9.32299
▁Sud	-9.3236
ka	-9.32555
▁ñetti	-9.32573
▁pierres	-9.32636
▁miin	-9.32644
▁tund	-9.32798
▁yab	-9.32882
▁cuir	-9.33286
▁tay	-9.33443
ag	-9.33605
▁partis	-9.33708
tes	-9.33949
▁toogu	-9.34022
▁meloon	-9.3425
ati	-9.34327
ri	-9.34391
ti	-9.34542
▁fall	-9.34566
▁baxa	-9.34716
▁ragal	-9.34886
▁jàll	-9.34992
▁mb	-9.3517
▁set	-9.35178
▁naaj	-9.35781
nga	-9.35989
vant	-9.36089
▁cases	-9.36106
aale	-9.36241
▁Me	-9.36252
euse	-9.36358
▁sera	-9.36559
belle	-9.36601
▁sang	-9.37035
▁nan	-9.37201
kkali	-9.37309
▁petite	-9.37317
▁Loo	-9.37335
ax	-9.37526
▁ven	-9.37718
▁tere	-9.37884
aw	-9.38036
uis	-9.38625
▁cons	-9.38765
quel	-9.39163
▁point	-9.39242
▁kon	-9.39359
ient	-9.39613
▁cuisine	-9.39638
▁soi	-9.40003
▁visage	-9.40296
▁livre	-9.40506
▁arbre	-9.40606
âge	-9.4067
aller	-9.40765
▁waxtaan	-9.40838
ngi	-9.40988
▁r	-9.41098
fukk	-9.4111
óon	-9.41233
▁jeu	-9.41498
ts	-9.41545
▁Foo	-9.41549
û	-9.4164
unu	-9.41712
▁San	-9.41725
▁Ri	-9.41895
gànnaar	-9.41946
▁nouveau	-9.41946
▁pirogue	-9.41946
▁chaussures	-9.41946
▁voix	-9.41947
▁Nord	-9.41952
▁mbóot	-9.41953
▁sentiment	-9.41955
▁Ñàkk	-9.41957
▁façon	-9.41959
▁samp	-9.41962
▁subë	-9.41963
▁diggante	-9.41964
▁train	-9.41965
▁janook	-9.41966
▁Fatim	-9.41983
▁metit	-9.41989
▁danga	-9.41991
▁moins	-9.42006
▁jege	-9.42009
▁fanaan	-9.42014
▁bonne	-9.42032
▁xuus	-9.42032
▁morceau	-9.42061
▁Daan	-9.42077
▁loxoom	-9.42103
▁donc	-9.42105
▁genn	-9.42109
atim	-9.42138
▁yëf	-9.42154
▁gor	-9.42198
▁tubaab	-9.42289
▁fer	-9.4234
▁Non	-9.42422
▁joor	-9.42494
▁buur	-9.42637
▁fils	-9.42637
▁njiit	-9.42811
▁wuti	-9.42872
▁xëcc	-9.42962
▁hautes	-9.43254
▁bes	-9.43263
▁feu	-9.43284
éy	-9.43467
entre	-9.43576
▁tefes	-9.43754
▁garçons	-9.4391
▁ét	-9.43965
▁neneen	-9.44092
▁avais	-9.44314
jant	-9.44403
▁Ou	-9.44471
wu	-9.44701
▁vi	-9.44751
▁garabi	-9.4489
▁pou	-9.4526
▁partes	-9.45362
▁Saa	-9.45394
▁connais	-9.4541
▁eû	-9.45704
▁bool	-9.45759
ool	-9.45793
oom	-9.45879
▁kook	-9.45885
▁waral	-9.45925
mettre	-9.45982
dé	-9.46021
▁partira	-9.46383
▁Ña	-9.4664
ès	-9.47122
iñ	-9.47238
▁bo	-9.47406
vent	-9.47674
▁fukk	-9.48012
▁noon	-9.4812
▁nul	-9.4839
ique	-9.48494
tant	-9.48689
>	-9.48736
▁froid	-9.48837
▁entier	-9.48986
ture	-9.49256
tés	-9.49692
▁table	-9.49766
lon	-9.49808
us	-9.50095
▁ñëwul	-9.50101
▁Bon	-9.50263
ar	-9.50265
▁cour	-9.50321
▁Fi	-9.50416
lo	-9.50716
bar	-9.50889
éri	-9.50944
ëf	-9.50977
▁chef	-9.51248
▁kee	-9.51396
▁nom	-9.51414
impression	-9.51737
amour	-9.51834
vous	-9.51972
après	-9.52109
ëgg	-9.52202
réer	-9.52265
▁ciment	-9.52294
▁bol	-9.52465
sse	-9.52538
▁palanteer	-9.52883
▁dënn	-9.52899
▁entrai	-9.52937
éjà	-9.52956
▁foo	-9.52966
▁drap	-9.53005
▁juste	-9.53012
▁yegg	-9.53028
▁Biyaafaraa	-9.53057
▁Jamono	-9.53057
▁Senegaal	-9.53057
▁Sérère	-9.53057
▁bànneex	-9.53057
▁lëndëm	-9.53057
▁médicaments	-9.53057
▁savane	-9.53057
▁société	-9.53057
▁wëndéelu	-9.53057
▁Ainsi	-9.53058
▁complète	-9.53058
▁comport	-9.53058
▁paaka	-9.53058
▁yow	-9.53058
▁jàmm	-9.53058
▁Almaañ	-9.53061
▁cosaan	-9.53061
▁lampe	-9.53062
▁Déedéet	-9.53063
▁woto	-9.53063
▁chaleur	-9.53065
▁baraada	-9.53067
▁parfois	-9.53068
▁wow	-9.53074
▁wanag	-9.53077
▁naqar	-9.53079
▁Musaa	-9.53083
▁reconna	-9.53086
▁Ici	-9.53089
▁ŋgoon	-9.53094
▁gémmiñ	-9.53095
▁woowe	-9.53107
▁wépp	-9.53109
▁Teewul	-9.53119
▁weñ	-9.53125
▁jaŋg	-9.53136
▁alors	-9.5314
▁Toi	-9.53155
▁sànni	-9.53172
▁étions	-9.53173
▁ràbb	-9.53181
▁côte	-9.53186
▁prend	-9.53201
▁longtemps	-9.53202
▁tukki	-9.53205
▁parlé	-9.53222
tiir	-9.53226
▁mucc	-9.53233
▁far	-9.53237
▁Niis	-9.5327
kkee	-9.5327
▁car	-9.53284
▁insectes	-9.53289
▁pourtant	-9.53303
▁vais	-9.53336
▁meubles	-9.53346
▁teew	-9.53358
▁place	-9.53382
▁objets	-9.53428
▁bula	-9.53429
▁gisaat	-9.53502
▁booba	-9.5351
▁fleurs	-9.53547
▁enfance	-9.53577
▁ndànk	-9.53578
▁ñooñu	-9.53585
▁Fii	-9.53613
▁ñaan	-9.5366
▁demande	-9.53689
▁alal	-9.53717
▁Doo	-9.53776
▁lieux	-9.53777
abord	-9.53848
▁sew	-9.53859
▁jan	-9.53883
▁bâtons	-9.53919
▁Alma	-9.54142
▁këram	-9.54279
▁Tay	-9.54324
▁wan	-9.54596
▁Ki	-9.54739
▁yar	-9.54845
▁ceci	-9.54937
ici	-9.55082
▁Jo	-9.55313
▁viennes	-9.55355
▁tóo	-9.5542
▁bees	-9.55458
▁Ya	-9.55468
▁Noon	-9.55589
▁ri	-9.55623
▁petits	-9.55704
▁doo	-9.55785
▁jé	-9.55925
▁rey	-9.5595
▁jeunes	-9.5602
▁cherche	-9.56129
▁gan	-9.5625
entré	-9.56553
▁diis	-9.56781
▁xew	-9.57
▁pa	-9.57009
Après	-9.578
▁mar	-9.58135
▁routes	-9.58206
▁pos	-9.5823
▁kay	-9.58436
aay	-9.58542
▁sañ	-9.58575
▁dakk	-9.59013
▁donne	-9.59105
ois	-9.59124
eŋ	-9.59507
▁yat	-9.59539
▁wa	-9.59551
quelles	-9.59586
ch	-9.59666
▁Go	-9.59793
▁gise	-9.6018
▁raconte	-9.60373
oivent	-9.60473
óor	-9.60787
▁Nu	-9.60867
▁Nda	-9.60975
▁wute	-9.61025
ku	-9.61282
part	-9.61401
▁gardé	-9.61401
▁nature	-9.61489
ok	-9.61671
▁réewu	-9.6212
▁elles	-9.62129
▁pro	-9.62301
▁Woo	-9.62389
▁bleu	-9.62764
▁jafe	-9.62892
▁lim	-9.6303
▁rêve	-9.63142
ji	-9.6316
taal	-9.63311
▁guy	-9.63345
gré	-9.63475
ni	-9.63532
▁tête	-9.63549
▁ex	-9.63814
▁montagne	-9.64059
▁pied	-9.64075
▁tar	-9.64138
▁Ñoo	-9.64193
ble	-9.6433
▁fee	-9.64379
▁africain	-9.64486
gisu	-9.64545
▁jën	-9.64641
▁nopp	-9.64886
▁instant	-9.64938
▁tool	-9.64981
àkk	-9.65333
▁yilif	-9.65353
▁chocolat	-9.65512
ourquoi	-9.65518
istrict	-9.65519
esprit	-9.65534
Angleterre	-9.65557
▁Victoria	-9.65557
▁accroché	-9.65557
▁assurément	-9.65557
▁difficile	-9.65557
▁ensemble	-9.65557
▁kéemaane	-9.65557
▁mauvais	-9.65557
▁pantalon	-9.65557
▁xaalis	-9.65557
▁xàmmee	-9.65557
▁yëngal	-9.65557
▁Laobé	-9.65557
▁Monsieur	-9.65557
▁chaussettes	-9.65558
▁Legoos	-9.65558
▁présent	-9.65559
▁dernier	-9.65559
▁keroog	-9.6556
▁palaat	-9.6556
▁janeer	-9.65562
▁puissance	-9.65562
▁Réew	-9.65563
▁juddoo	-9.65563
▁frontière	-9.65566
▁douceur	-9.65567
▁dénd	-9.65569
▁colère	-9.65573
▁départ	-9.65577
▁bomb	-9.65589
▁Officer	-9.6559
▁bouche	-9.6559
▁Dëkk	-9.65599
▁fajkat	-9.65622
▁plein	-9.65641
▁cœur	-9.65652
▁goût	-9.65653
▁yenu	-9.65659
▁Plu	-9.65734
▁gejje	-9.65746
▁Kookule	-9.65757
▁proche	-9.65762
▁riir	-9.65762
▁Nice	-9.65798
▁bekk	-9.65801
▁lonk	-9.65804
▁histoire	-9.65814
▁viennent	-9.65852
▁allait	-9.65933
▁dehors	-9.65936
▁Sunu	-9.65965
▁soppi	-9.66041
▁Tou	-9.66047
▁ton	-9.66047
▁jur	-9.66107
▁parents	-9.66192
▁compte	-9.66198
▁ndey	-9.6623
▁regarder	-9.66247
▁bëggée	-9.66263
▁êtes	-9.66318
▁Wu	-9.66336
▁raay	-9.66359
▁unique	-9.66401
▁sauvages	-9.66541
▁boy	-9.66664
▁mill	-9.66681
▁dóo	-9.66719
▁six	-9.66768
▁jaune	-9.66816
▁Buur	-9.66836
ter	-9.6697
▁sës	-9.67071
nie	-9.67268
z	-9.67339
▁noms	-9.67421
▁waar	-9.67585
▁waxtu	-9.67983
au	-9.68047
argent	-9.68221
▁T	-9.68293
tam	-9.68578
▁yii	-9.68673
ppelle	-9.68745
▁Vas	-9.68772
▁dexu	-9.68812
▁kaas	-9.68947
▁beau	-9.68965
▁commence	-9.69123
▁cont	-9.69447
importe	-9.69521
▁më	-9.69734
▁peur	-9.69779
▁max	-9.69793
▁nëbb	-9.69826
kom	-9.69828
▁ré	-9.70724
▁ser	-9.70849
qu	-9.71147
▁luy	-9.71547
▁inter	-9.71607
▁ru	-9.71727
▁Mas	-9.71785
▁dalal	-9.71814
▁ati	-9.72105
▁sonal	-9.72259
▁daawu	-9.7227
tt	-9.72424
▁Tey	-9.72591
▁Jam	-9.72868
▁ro	-9.73179
▁retour	-9.74215
▁buñ	-9.74271
▁Dañ	-9.74565
aata	-9.74585
baar	-9.74816
ñeen	-9.74919
▁photos	-9.75525
▁sou	-9.75559
mi	-9.75591
▁nak	-9.75591
▁not	-9.75754
▁muur	-9.76289
tions	-9.7661
▁provi	-9.76904
▁gris	-9.76908
ande	-9.77047
▁conti	-9.77243
nce	-9.77301
▁français	-9.7765
▁dessin	-9.77743
▁baree	-9.77765
àll	-9.77776
▁tày	-9.77786
▁vivre	-9.78149
▁Cha	-9.78173
▁scorpion	-9.78187
autorité	-9.78222
aventure	-9.78524
instant	-9.78587
▁auto	-9.78614
moi	-9.78695
aurais	-9.78718
▁pënd	-9.78848
▁cherch	-9.7887
dëgg	-9.78953
▁Re	-9.79022
dire	-9.79189
▁lesquel	-9.79396
▁ñett	-9.79429
▁jàkk	-9.79648
▁simple	-9.79784
aux	-9.79804
odeur	-9.79828
▁askan	-9.7984
▁Ayijoo	-9.79843
▁Casamance	-9.79843
▁Yaakaar	-9.79843
▁besoin	-9.79843
▁bonheur	-9.79843
▁calebasse	-9.79843
▁gouvernement	-9.79843
▁gàncax	-9.79843
▁immense	-9.79843
▁loppitaan	-9.79843
▁màndarga	-9.79843
▁màrse	-9.79843
▁sukkuraat	-9.79843
▁tôle	-9.79843
▁Ó	-9.79843
▁Óbudu	-9.79843
▁premier	-9.79843
▁terrain	-9.79843
▁visite	-9.79843
▁magasin	-9.79843
▁Deŋk	-9.79844
▁rëcc	-9.79844
▁pañe	-9.79844
▁suukër	-9.79844
▁trente	-9.79844
▁wurus	-9.79844
▁reconnu	-9.79844
▁égale	-9.79844
▁bâtiment	-9.79845
▁réalité	-9.79846
▁bett	-9.79848
▁Palais	-9.79849
▁mourir	-9.79853
▁solitude	-9.79853
▁campement	-9.79856
▁servir	-9.79856
▁plateaux	-9.79858
▁simoŋ	-9.79861
▁Fekk	-9.79861
argile	-9.79862
▁yeksi	-9.79863
▁mbedd	-9.79868
▁nelaw	-9.79874
▁xeex	-9.79875
▁màndi	-9.7988
▁Xaw	-9.79886
▁raglu	-9.79886
▁dëgër	-9.7989
▁dajale	-9.79909
▁malade	-9.7991
▁journée	-9.79919
thme	-9.79921
▁droit	-9.79921
▁Pël	-9.79924
▁croyai	-9.79928
▁Ayaa	-9.79943
▁ensuite	-9.79947
▁000	-9.79953
▁vêtu	-9.79953
▁jeeg	-9.79953
▁assiette	-9.79953
▁sàmm	-9.79954
▁jàppale	-9.79956
▁sens	-9.7996
▁wàll	-9.79967
▁fût	-9.79975
▁pom	-9.79976
▁serais	-9.79981
▁couteau	-9.79984
▁termites	-9.79985
▁palmes	-9.79985
▁porteurs	-9.80009
hez	-9.80014
▁moto	-9.80021
▁reçu	-9.80038
▁propre	-9.80041
▁nuages	-9.80043
▁images	-9.80045
▁naqadi	-9.80049
▁yànj	-9.80053
▁courant	-9.80061
▁ventre	-9.80071
▁kukk	-9.80077
▁tub	-9.80079
uukar	-9.80088
▁laisser	-9.80106
▁sorti	-9.80127
▁depuis	-9.80133
espère	-9.80181
▁woy	-9.80203
im	-9.80211
▁chaise	-9.80246
▁venir	-9.80268
▁danu	-9.80307
▁Fais	-9.80309
▁Foofu	-9.80392
▁seng	-9.80392
▁jooy	-9.80393
▁ňuul	-9.80402
exe	-9.80407
▁xoolee	-9.80414
▁wor	-9.80426
▁àngale	-9.80466
▁Bunt	-9.80528
▁H	-9.80541
▁chasse	-9.8055
▁donner	-9.80584
▁fuir	-9.80591
naka	-9.80599
▁anglaise	-9.8061
▁cru	-9.80659
▁kowam	-9.80701
▁vaste	-9.80787
▁district	-9.80828
▁cours	-9.8085
▁dirait	-9.80887
▁jag	-9.80891
▁époque	-9.80932
▁lëf	-9.80934
▁Parle	-9.80961
▁mukk	-9.80986
▁wane	-9.81008
▁yaak	-9.81103
gis	-9.81137
entendre	-9.81214
▁chemins	-9.81243
ga	-9.81295
lle	-9.81612
▁regardes	-9.81699
▁defare	-9.81701
▁âge	-9.81737
▁coloniale	-9.81746
éeri	-9.81814
▁doxe	-9.81816
▁bëggoon	-9.81827
▁në	-9.81907
▁nja	-9.81909
aanaka	-9.81917
▁aar	-9.8195
▁française	-9.82085
ire	-9.82156
existe	-9.82191
▁comment	-9.82278
nde	-9.82295
▁tànki	-9.82301
▁tour	-9.82348
▁premières	-9.8253
ables	-9.82643
▁arrivés	-9.82681
jékk	-9.83023
▁crise	-9.83055
ay	-9.8307
▁wutal	-9.83204
▁jou	-9.83515
▁tir	-9.83516
▁siiw	-9.83575
▁men	-9.83687
▁gros	-9.83721
▁ndi	-9.83759
vient	-9.83787
▁Yan	-9.8379
▁waxoon	-9.83877
▁do	-9.8404
▁loo	-9.84055
use	-9.84089
▁pouvai	-9.84154
▁tas	-9.84167
ll	-9.84343
ches	-9.84625
ie	-9.84739
▁ñibbi	-9.84765
bu	-9.84883
▁taabal	-9.84969
▁jànq	-9.84979
ure	-9.84982
▁dàq	-9.85363
▁habit	-9.8538
▁cinq	-9.85529
▁kowe	-9.85547
▁sant	-9.85552
▁dessus	-9.85582
▁cee	-9.85592
>.	-9.85786
▁refuse	-9.85865
▁Car	-9.86179
▁arrivée	-9.86564
bi	-9.86709
▁donn	-9.87026
rie	-9.87578
▁kàttan	-9.87915
près	-9.88104
▁hu	-9.88229
▁mari	-9.88389
garde	-9.88469
▁soxna	-9.88557
p	-9.88712
▁arrive	-9.89001
ngui	-9.89063
▁masuma	-9.89307
▁nguur	-9.89414
▁mbë	-9.89583
▁tam	-9.89729
▁boue	-9.89732
▁faite	-9.89792
la	-9.89981
▁venus	-9.90005
aide	-9.90126
jaa	-9.90139
▁ñooña	-9.90799
image	-9.9101
ène	-9.91322
▁met	-9.9134
eel	-9.91414
kaay	-9.91471
▁jàngal	-9.91504
endant	-9.91749
▁jo	-9.91775
▁nañoo	-9.92533
▁té	-9.92652
▁E	-9.92901
gal	-9.92901
▁Daŋg	-9.92967
▁utilise	-9.93005
▁destin	-9.93183
een	-9.9358
individu	-9.93863
ëpp	-9.93932
pe	-9.93976
▁coupé	-9.94109
▁V	-9.94502
oir	-9.94576
▁sago	-9.94636
indre	-9.94655
▁colonial	-9.94695
▁maladie	-9.94783
▁Xe	-9.94827
▁ti	-9.94867
▁fenêtre	-9.94893
kki	-9.94918
▁regarde	-9.94944
herbe	-9.9495
▁tab	-9.94973
▁étranger	-9.94993
▁chemin	-9.9501
ànj	-9.95042
autrefois	-9.95084
entend	-9.95142
gé	-9.95176
A	-9.95187
ñax	-9.95236
époque	-9.95239
O	-9.95317
▁anglais	-9.95612
rt	-9.95788
▁Aw	-9.95848
▁daanu	-9.9592
benn	-9.95927
▁africaine	-9.95931
▁xob	-9.95958
▁sopp	-9.95982
errière	-9.9599
aal	-9.9602
▁jar	-9.96034
niki	-9.96065
▁fey	-9.9615
▁féex	-9.96158
▁ressenti	-9.96242
▁frapp	-9.96319
ières	-9.96337
añse	-9.96375
▁chapeau	-9.96453
00	-9.96472
▁tiit	-9.96486
ngóor	-9.96495
8	-9.96508
▁mbind	-9.96509
Abakaliki	-9.9651
▁Mellentaan	-9.9651
▁Wiktoryaa	-9.9651
▁accompagné	-9.9651
▁auparavant	-9.9651
▁boeuf	-9.9651
▁chemise	-9.9651
▁coiff	-9.9651
▁dëggëntaan	-9.9651
▁jaxasoo	-9.9651
▁ngëlén	-9.9651
▁officer	-9.9651
▁petorool	-9.9651
▁ponkal	-9.9651
▁rideau	-9.9651
▁règle	-9.9651
▁territoire	-9.9651
▁veulent	-9.9651
▁adulte	-9.9651
▁chacun	-9.9651
▁rêvé	-9.9651
▁Waxtaan	-9.9651
▁tàmm	-9.9651
▁féete	-9.9651
▁ressens	-9.9651
▁Lagos	-9.9651
▁désert	-9.9651
▁vingt	-9.9651
▁domaine	-9.96511
▁xibaar	-9.96511
▁fetal	-9.96511
▁Wolof	-9.96511
▁travailleurs	-9.96511
▁vérité	-9.96512
▁contact	-9.96512
▁ndeysaan	-9.96512
▁bërëb	-9.96512
▁construction	-9.96512
▁cheveux	-9.96514
▁séq	-9.96514
▁peinture	-9.96515
▁comprendre	-9.96515
▁Africains	-9.96516
▁Port	-9.96516
▁sotti	-9.96516
▁légère	-9.96518
▁commun	-9.96524
▁werante	-9.96529
▁mbokk	-9.96529
▁wéet	-9.96534
▁lonet	-9.96534
▁léeb	-9.96535
▁gox	-9.96537
▁cofeel	-9.96538
▁Donne	-9.9654
▁Tugël	-9.96542
▁njabootam	-9.9655
▁coucher	-9.96551
▁courir	-9.96552
▁jumtukaay	-9.96554
▁jabar	-9.96555
▁meňň	-9.96556
▁partout	-9.9656
▁déet	-9.96562
▁revenir	-9.96562
▁Jënd	-9.96563
▁gunge	-9.96564
▁début	-9.96567
▁chocolatée	-9.96571
▁viens	-9.96581
▁caaxaan	-9.9659
▁sëkk	-9.9659
▁certainement	-9.96597
▁seetaan	-9.96601
▁brousse	-9.96603
▁écrit	-9.96604
indépendance	-9.96607
▁connaissent	-9.96634
▁junniy	-9.96639
▁thé	-9.96639
▁démb	-9.9664
▁Obudu	-9.96641
▁mangé	-9.96644
▁baaraam	-9.96655
▁sanc	-9.96664
▁habitants	-9.96683
▁taaru	-9.96694
▁jouer	-9.96696
▁juum	-9.96706
▁tàngaay	-9.96707
▁soosu	-9.96708
▁comprends	-9.96709
▁kawas	-9.96716
▁agsi	-9.96719
▁taamu	-9.9672
▁bir	-9.96731
▁taw	-9.9675
▁tata	-9.96754
▁Force	-9.96757
▁surga	-9.9676
▁arrêté	-9.96775
▁monter	-9.96811
▁ñor	-9.96836
▁yéemu	-9.96839
▁yëre	-9.96849
▁néew	-9.96857
▁sor	-9.96858
▁rencontrer	-9.96877
▁tàngal	-9.969
▁h	-9.96905
▁Kor	-9.96924
▁kafe	-9.9695
▁dog	-9.97003
▁com	-9.97017
▁tolloo	-9.9703
▁goog	-9.97036
▁Dina	-9.97038
▁ressentir	-9.9707
▁humaine	-9.97094
▁rage	-9.97148
▁Aro	-9.9716
▁wetam	-9.97179
▁taal	-9.97179
▁somme	-9.97213
▁tontu	-9.97214
▁jambes	-9.97274
▁naat	-9.97275
▁policiers	-9.97275
▁masques	-9.97304
▁Mag	-9.97348
▁jotee	-9.97378
▁naissance	-9.97422
▁Dañu	-9.97425
▁dois	-9.97427
▁dawal	-9.97452
▁darab	-9.97468
▁àpp	-9.97499
▁ñaxtu	-9.97511
▁yéene	-9.97677
▁ŋ	-9.97702
▁ra	-9.97904
▁tekki	-9.97937
▁Ver	-9.98011
▁certaine	-9.98043
▁reer	-9.98044
▁aurais	-9.98067
▁fenêtres	-9.98188
▁souffle	-9.98223
▁juróomi	-9.98237
oc	-9.98318
▁duma	-9.98353
waale	-9.98363
ou	-9.98391
▁tours	-9.98484
▁passer	-9.98486
andoo	-9.98546
▁yax	-9.98563
▁jaam	-9.98658
hoisi	-9.98779
▁amour	-9.98792
▁entré	-9.98863
▁haute	-9.98906
▁buum	-9.99017
été	-9.99023
▁tableau	-9.99254
▁2	-9.99277
▁visages	-9.99421
▁tomb	-9.99443
ooy	-9.99497
▁souhaite	-9.99507
▁charge	-9.99564
▁Liggéey	-9.9965
▁indi	-9.99658
▁jekk	-9.99728
▁Ar	-9.99785
▁yeew	-9.99795
▁Afrigam	-10
enti	-10.0006
▁àtte	-10.001
▁coups	-10.0014
▁Ngi	-10.0046
▁aime	-10.0058
iy	-10.0073
▁coono	-10.0076
olli	-10.0084
▁No	-10.0087
▁co	-10.009
▁Quelque	-10.0119
lli	-10.0127
▁yàq	-10.0146
▁Dis	-10.016
▁woowu	-10.0175
▁waxe	-10.0177
▁rivières	-10.0193
eelu	-10.0193
▁Voil	-10.0198
▁xamoon	-10.0213
état	-10.0214
▁dinaa	-10.022
▁suñ	-10.0223
▁Dana	-10.0264
▁rue	-10.03
▁chang	-10.0337
▁wàcce	-10.0368
▁individu	-10.0376
ion	-10.0405
▁rouges	-10.0416
nement	-10.0425
▁daje	-10.0437
▁suiv	-10.0482
▁tee	-10.0496
oto	-10.0501
▁pis	-10.0508
▁soup	-10.0526
▁siy	-10.0528
rends	-10.0531
▁alla	-10.0548
entiers	-10.056
▁Ñe	-10.056
▁lenn	-10.0568
aana	-10.0582
▁quelles	-10.0594
our	-10.0595
▁sain	-10.0604
aas	-10.0613
▁Toute	-10.0621
galu	-10.0623
▁connaiss	-10.0634
▁mise	-10.0714
▁xet	-10.0714
ta	-10.0748
▁ha	-10.075
appartien	-10.0767
▁pri	-10.0772
géej	-10.0803
▁Yara	-10.0832
▁ñe	-10.0845
wuñu	-10.0848
▁Fo	-10.0877
▁devenu	-10.0897
ru	-10.0897
ton	-10.0905
asi	-10.0912
ulwoon	-10.094
▁prêt	-10.0957
gi	-10.0961
▁maître	-10.0968
▁Mar	-10.0977
▁xamant	-10.0992
▁clair	-10.1032
▁Voi	-10.1036
▁Nko	-10.1071
ňu	-10.1072
gu	-10.1084
père	-10.1087
li	-10.1108
art	-10.1113
▁bë	-10.1131
▁dikk	-10.1136
ŋŋ	-10.1167
▁Ka	-10.1173
▁doonkoon	-10.119
▁couvert	-10.1205
waan	-10.1213
nd	-10.1218
sin	-10.1251
be	-10.1258
▁liggéeye	-10.128
▁outil	-10.1285
aayu	-10.1287
irai	-10.1321
ole	-10.1325
wi	-10.1336
▁ressembl	-10.1354
▁ñaa	-10.136
ille	-10.1373
▁traverse	-10.1395
▁Wa	-10.1409
occup	-10.1415
▁Gu	-10.1425
▁sûr	-10.1451
▁voiture	-10.1474
▁grandi	-10.1476
▁champ	-10.1478
▁sauvage	-10.149
▁bâton	-10.1491
▁mba	-10.1492
▁pierre	-10.1492
▁denc	-10.1496
▁Abo	-10.1498
▁col	-10.15
vec	-10.1505
entoure	-10.1515
▁ñeme	-10.1517
jafe	-10.1525
ndax	-10.1535
▁fit	-10.1535
▁fort	-10.1548
▁joli	-10.155
▁chaud	-10.1554
kow	-10.1562
uf	-10.1566
ré	-10.1567
▁affaire	-10.1575
ootul	-10.1579
▁entendu	-10.1581
arbres	-10.1589
▁daawul	-10.1596
▁Luga	-10.1603
▁bleue	-10.1606
▁taax	-10.1614
▁digg	-10.1618
▁bou	-10.1621
installe	-10.1624
▁sec	-10.1625
▁Xare	-10.1626
aurait	-10.1629
▁nus	-10.1633
ëddu	-10.1637
ersonne	-10.1648
ï	-10.1649
▁Certain	-10.165
alcool	-10.1651
apprécie	-10.1651
extérieur	-10.1651
tekkaaral	-10.1651
Ç	-10.1651
”	-10.1651
▁Abaakaliki	-10.1651
▁Adekunle	-10.1651
▁Anglais	-10.1651
▁Biafra	-10.1651
▁Georgetown	-10.1651
▁Génnéel	-10.1651
▁Sefiriis	-10.1651
▁Southampton	-10.1651
▁Yoruba	-10.1651
▁alkaati	-10.1651
▁alkol	-10.1651
▁allemande	-10.1651
▁biafrais	-10.1651
▁bûcheron	-10.1651
▁kalaate	-10.1651
▁mosquée	-10.1651
▁métier	-10.1651
▁njàqare	-10.1651
▁retrouve	-10.1651
▁termitières	-10.1651
▁ustensile	-10.1651
▁“	-10.1651
angoisse	-10.1651
▁Cross	-10.1651
▁Salut	-10.1651
▁camerounais	-10.1651
▁mélang	-10.1651
▁photographi	-10.1651
▁tronc	-10.1651
▁zinc	-10.1651
▁Sorstaawun	-10.1651
▁sàndarm	-10.1651
▁terrible	-10.1651
▁Moontin	-10.1651
▁compris	-10.1651
▁soxla	-10.1651
▁xayma	-10.1651
▁fauve	-10.1651
▁fonction	-10.1651
▁probable	-10.1651
▁rejoindre	-10.1651
▁branche	-10.1651
▁collines	-10.1651
▁douche	-10.1651
▁service	-10.1651
▁xaaju	-10.1651
▁ndóol	-10.1651
▁brûlure	-10.1651
▁poussière	-10.1651
arrière	-10.1651
▁gentil	-10.1651
▁ndigg	-10.1651
▁Viens	-10.1651
▁karaw	-10.1651
▁Guddi	-10.1651
▁gànnaay	-10.1651
▁yàlla	-10.1651
▁ëmb	-10.1651
▁ondul	-10.1651
▁rares	-10.1651
▁gannaaw	-10.1651
▁continent	-10.1652
▁këll	-10.1652
▁doxantu	-10.1652
▁noyyi	-10.1652
▁fecc	-10.1652
▁delsi	-10.1652
▁dékku	-10.1652
▁fowukaay	-10.1652
▁soppiku	-10.1652
waay	-10.1652
▁ndab	-10.1652
▁taille	-10.1653
▁connaissais	-10.1653
▁douce	-10.1653
▁làquji	-10.1653
▁awsa	-10.1653
▁causé	-10.1653
▁juddu	-10.1654
▁Pourtant	-10.1654
▁semaine	-10.1654
▁maintenant	-10.1654
science	-10.1654
▁oncle	-10.1654
nore	-10.1654
▁dirigeant	-10.1654
▁courage	-10.1655
▁mbégte	-10.1655
▁hutte	-10.1655
▁voici	-10.1655
▁puj	-10.1656
▁fitna	-10.1656
▁tap	-10.1656
▁Ho	-10.1656
▁wér	-10.1656
▁ŋgoogule	-10.1657
abond	-10.1657
orage	-10.1657
▁jàppukaay	-10.1658
▁At	-10.1658
▁nàññ	-10.1658
▁beg	-10.1659
▁gàddaay	-10.166
▁sàcc	-10.166
▁brave	-10.1661
▁raxas	-10.1661
▁yàpp	-10.1662
▁simis	-10.1663
▁Ñooñu	-10.1663
▁prendre	-10.1663
▁assez	-10.1663
▁mbaxana	-10.1664
▁cercl	-10.1664
▁xaj	-10.1665
▁saxaaru	-10.1666
▁panier	-10.1668
▁vivant	-10.1668
▁voulu	-10.1669
▁cacher	-10.1669
▁sensation	-10.1669
▁tawat	-10.1669
▁rire	-10.1671
daa	-10.1671
▁avance	-10.1671
▁apporté	-10.1672
▁hamacs	-10.1672
▁armes	-10.1673
▁volets	-10.1673
▁tiis	-10.1673
▁pince	-10.1673
▁njort	-10.1673
▁wóolu	-10.1675
▁fortune	-10.1676
▁Ñaar	-10.1676
▁vertes	-10.1677
▁kookee	-10.1678
▁déci	-10.1678
▁googule	-10.1679
▁pans	-10.1683
▁làq	-10.1684
▁daaneel	-10.1685
▁melax	-10.1685
▁naaxi	-10.1685
▁Garab	-10.1686
▁recherche	-10.1689
▁njaay	-10.169
▁nijaay	-10.1691
▁resté	-10.1692
▁déggoo	-10.1692
▁xur	-10.1693
▁Aiya	-10.1696
▁demuloo	-10.17
app	-10.1704
▁màgge	-10.1705
▁marchent	-10.1707
▁pluie	-10.1707
▁exemple	-10.1707
▁nouvelles	-10.1709
▁ňi	-10.171
▁sombre	-10.171
▁rappelle	-10.1711
▁sommet	-10.1711
▁casque	-10.1715
dar	-10.1715
▁cat	-10.172
▁im	-10.1721
▁joge	-10.1722
▁rive	-10.1722
▁yéeme	-10.1724
▁làqu	-10.1727
▁revienne	-10.1727
▁ras	-10.1735
▁idée	-10.1738
▁mënut	-10.1742
▁militaires	-10.1746
▁soldats	-10.1746
▁bancs	-10.1746
▁étage	-10.1748
▁mesure	-10.1755
▁forte	-10.1756
▁I	-10.1756
▁xaritam	-10.1759
▁parole	-10.176
▁pareil	-10.1762
▁all	-10.1763
▁doomam	-10.1766
▁ñeent	-10.1772
▁feeñu	-10.1798
▁rajo	-10.1799
▁éclat	-10.1806
▁marcher	-10.181
hier	-10.1813
▁troupeau	-10.1817
▁fermée	-10.1819
atoo	-10.1832
laam	-10.1834
▁yëgaat	-10.1835
▁vide	-10.1837
▁defaree	-10.184
▁guyy	-10.184
▁devenus	-10.184
▁nourri	-10.1842
kóon	-10.1851
▁savoir	-10.1852
ommé	-10.1853
▁mbooloo	-10.1859
▁pré	-10.1878
▁Yo	-10.1878
▁retourne	-10.1878
▁taxu	-10.188
▁seetu	-10.1881
▁julli	-10.1891
nn	-10.1894
▁Bum	-10.1897
▁scorpions	-10.1898
▁dessiné	-10.1899
fippu	-10.1901
▁lire	-10.1904
▁impression	-10.1905
oindre	-10.1905
goom	-10.1914
▁kam	-10.1917
toon	-10.1922
aatu	-10.1924
▁kookuu	-10.1931
▁kë	-10.1938
▁bleus	-10.194
tal	-10.1948
▁trou	-10.1957
▁rencontre	-10.1957
▁dëkkoon	-10.1964
▁rayon	-10.1982
aumes	-10.1992
cteur	-10.2009
▁livres	-10.2016
▁ndo	-10.2016
▁saf	-10.2025
mar	-10.2039
pp	-10.2045
▁yé	-10.2069
▁mënee	-10.2086
▁këru	-10.2101
▁Leer	-10.2104
▁dos	-10.2125
obul	-10.2148
▁con	-10.2148
▁désir	-10.2156
ins	-10.2166
▁baŋ	-10.2167
▁face	-10.2175
▁wara	-10.2204
▁v	-10.2214
▁vari	-10.2224
▁néegi	-10.2226
▁eusse	-10.224
▁pointe	-10.2246
▁march	-10.2261
▁gisul	-10.2291
▁monté	-10.2298
▁séchée	-10.2308
▁lits	-10.2316
▁cas	-10.2319
▁laine	-10.2331
nent	-10.2334
tul	-10.234
sement	-10.234
maana	-10.2349
appelles	-10.2353
▁sàn	-10.2379
▁maîtres	-10.2384
▁ño	-10.2393
▁four	-10.2406
▁prise	-10.241
▁pé	-10.2424
▁Ŋg	-10.2455
▁seuls	-10.2459
tin	-10.2475
bé	-10.2496
▁Mii	-10.2505
▁tus	-10.2506
ttre	-10.2514
▁Bii	-10.2521
▁blanches	-10.2571
▁dàtt	-10.2574
▁nguuru	-10.2591
eut	-10.2597
nte	-10.2647
▁Def	-10.265
▁niir	-10.2653
▁chambres	-10.2656
▁xu	-10.2685
êtes	-10.2692
▁suffi	-10.2738
àbbe	-10.2775
avions	-10.2791
▁deey	-10.2791
▁wiy	-10.2796
▁nd	-10.2809
tation	-10.2828
anti	-10.2836
▁mënuma	-10.284
erre	-10.2876
aak	-10.2881
▁dugal	-10.2883
uru	-10.2932
anaa	-10.2941
ju	-10.2958
▁armé	-10.2976
▁rend	-10.2984
ñoo	-10.3
▁bas	-10.3002
iques	-10.3002
▁plan	-10.3008
▁dure	-10.3012
▁posée	-10.3018
▁sonn	-10.302
▁be	-10.3024
sion	-10.3028
▁Se	-10.3071
avant	-10.308
▁Toog	-10.3085
ër	-10.3086
ssent	-10.3088
▁jàppe	-10.3106
▁wàcc	-10.3123
mbaar	-10.3154
▁trait	-10.3158
▁cou	-10.3171
ût	-10.3191
bët	-10.3193
▁fur	-10.3195
▁croi	-10.32
vions	-10.3209
▁Gan	-10.3211
0	-10.322
air	-10.3234
eti	-10.3249
▁armée	-10.3249
oor	-10.3259
▁ndugg	-10.3277
uits	-10.3349
umaa	-10.335
▁gr	-10.3351
▁pensé	-10.3392
▁entouré	-10.3395
▁étalé	-10.3396
ëm	-10.3402
tim	-10.3406
▁doxal	-10.3407
▁tegu	-10.3436
▁Aa	-10.3451
▁Es	-10.3494
àngi	-10.3501
▁jooja	-10.3511
ard	-10.3547
▁Quelqu	-10.3553
▁sub	-10.3555
óo	-10.3577
▁mêl	-10.3581
▁mur	-10.3589
▁toj	-10.3591
▁em	-10.3596
▁conten	-10.3607
▁pourra	-10.3609
▁pouss	-10.3611
▁ñaw	-10.3622
▁bala	-10.3631
ssant	-10.364
ah	-10.3651
góor	-10.3653
▁fui	-10.366
▁sépar	-10.3667
▁Daawu	-10.3668
▁dan	-10.367
▁taa	-10.3693
▁As	-10.3702
▁waxi	-10.371
to	-10.3717
▁yóbb	-10.3719
ŋga	-10.3731
affaire	-10.3742
▁décor	-10.3773
▁xamu	-10.3775
▁faf	-10.378
▁quitte	-10.3785
▁différent	-10.3792
▁découvert	-10.3809
▁Leur	-10.3809
▁vus	-10.3824
auté	-10.3844
▁natt	-10.3844
aube	-10.385
▁éta	-10.3866
ã	-10.3868
▁kà	-10.3885
aloon	-10.3898
▁certain	-10.3902
▁Pu	-10.3913
eef	-10.3922
▁Bul	-10.3922
ombre	-10.3925
▁accepte	-10.393
orts	-10.3945
▁président	-10.3952
▁miroir	-10.3954
▁laissé	-10.398
▁tasse	-10.3984
▁ancien	-10.3989
ngale	-10.3992
abri	-10.3993
▁gendarme	-10.3994
celle	-10.3995
fu	-10.3998
ňax	-10.3998
▁nombre	-10.4001
wuma	-10.4002
▁yéem	-10.4012
▁guerr	-10.4015
écouter	-10.4017
dou	-10.402
enfance	-10.4027
ndànk	-10.4027
leel	-10.4029
endroit	-10.4029
Yàlla	-10.4029
▁xii	-10.403
F	-10.4031
aucun	-10.4031
xare	-10.4035
▁précédé	-10.4043
▁ouvert	-10.4044
con	-10.4045
xam	-10.4045
▁rëbb	-10.4046
xew	-10.4046
▁humain	-10.406
▁général	-10.4063
car	-10.4064
▁ouverte	-10.4065
▁pren	-10.4067
▁Foof	-10.407
réew	-10.4072
▁coupe	-10.4074
▁entend	-10.4075
▁golf	-10.4076
des	-10.4085
▁Ko	-10.4087
toi	-10.409
ddina	-10.4097
▁Néeg	-10.4097
▁kàdd	-10.4103
get	-10.4105
▁Moka	-10.4113
ver	-10.4123
deux	-10.4125
▁Doom	-10.4128
▁méng	-10.413
▁tente	-10.4134
fi	-10.4134
▁révolte	-10.4136
mbres	-10.4139
innaaw	-10.414
isme	-10.414
egg	-10.414
▁gëm	-10.4142
cture	-10.4143
war	-10.4144
▁xërëm	-10.4148
àww	-10.4149
araada	-10.415
abandon	-10.415
3	-10.4151
arachide	-10.4151
aumône	-10.4151
enthousiasme	-10.4151
horreur	-10.4151
humanité	-10.4151
llemands	-10.4151
▁1928	-10.4151
▁1948	-10.4151
▁Ahidjo	-10.4151
▁BBC	-10.4151
▁Bretagne	-10.4151
▁Bërëtaañ	-10.4151
▁Calabar	-10.4151
▁Chuku	-10.4151
▁Harcourt	-10.4151
▁Jeffries	-10.4151
▁Kalabaar	-10.4151
▁Louga	-10.4151
▁NGo	-10.4151
▁Voyage	-10.4151
▁accepté	-10.4151
▁accroche	-10.4151
▁alentour	-10.4151
▁bavarda	-10.4151
▁béjjén	-10.4151
▁combinaison	-10.4151
▁discipline	-10.4151
▁disparu	-10.4151
▁excessive	-10.4151
▁grâce	-10.4151
▁incapable	-10.4151
▁kaaraange	-10.4151
▁lorgnons	-10.4151
▁ndanka	-10.4151
▁njàng	-10.4151
▁officier	-10.4151
▁privilèges	-10.4151
▁proximité	-10.4151
▁présence	-10.4151
▁radio	-10.4151
▁ruisseau	-10.4151
▁sibbiru	-10.4151
▁soixante	-10.4151
▁sèche	-10.4151
▁trapèze	-10.4151
▁tropicale	-10.4151
▁trésor	-10.4151
▁véhicule	-10.4151
▁yëngatu	-10.4151
▁Ñëw	-10.4151
▁éprouv	-10.4151
Arkuur	-10.4151
▁cliché	-10.4151
▁extraordinaire	-10.4151
▁légende	-10.4151
▁njege	-10.4151
▁obsession	-10.4151
▁pénétr	-10.4151
▁rajaxe	-10.4151
▁répond	-10.4151
▁Alfa	-10.4151
▁Birayim	-10.4151
▁Juróom	-10.4151
▁kilomet	-10.4151
▁vieillard	-10.4151
▁ëlëk	-10.4151
▁bakkan	-10.4151
▁fauteuil	-10.4151
▁ràññe	-10.4151
▁sept	-10.4151
▁guyaab	-10.4151
▁chèvres	-10.4151
▁toilettes	-10.4151
▁xamantane	-10.4151
▁règne	-10.4151
▁Confi	-10.4151
▁Macron	-10.4151
▁Gaynd	-10.4151
▁coow	-10.4151
▁daŋar	-10.4151
▁possible	-10.4151
▁dëll	-10.4151
▁Demuloo	-10.4151
▁weesu	-10.4151
▁1968	-10.4151
▁Kipli	-10.4151
▁jërr	-10.4151
▁poitrine	-10.4151
▁ayubes	-10.4151
▁effect	-10.4151
▁compos	-10.4151
▁interdit	-10.4151
▁Agsil	-10.4151
▁conduis	-10.4151
▁firndeel	-10.4151
▁mbindeef	-10.4152
▁larmes	-10.4152
▁bënn	-10.4152
▁soxal	-10.4152
▁Combi	-10.4152
▁caract	-10.4152
▁peine	-10.4152
▁naître	-10.4152
▁perdre	-10.4152
▁ňàkk	-10.4152
▁gazelle	-10.4152
▁ràpp	-10.4152
▁heureux	-10.4152
▁moyen	-10.4152
▁revenu	-10.4152
▁flamme	-10.4152
▁États	-10.4152
▁lëmm	-10.4152
▁bãŋ	-10.4152
itié	-10.4152
▁habituellement	-10.4152
▁foudre	-10.4152
▁électrique	-10.4152
▁fureur	-10.4152
▁riz	-10.4153
▁mbemb	-10.4153
▁meetar	-10.4153
▁bruit	-10.4153
▁lentement	-10.4153
▁ropp	-10.4153
▁repas	-10.4153
▁njariñ	-10.4153
▁fomp	-10.4153
▁móobal	-10.4153
▁dencukaay	-10.4153
▁voudrait	-10.4153
▁Dieu	-10.4153
▁verra	-10.4153
▁échappé	-10.4153
▁fièvre	-10.4153
▁commencé	-10.4153
▁maasaloo	-10.4153
▁tàggat	-10.4154
▁Mbam	-10.4154
▁pension	-10.4154
▁dimbali	-10.4155
▁fanweer	-10.4155
▁contraire	-10.4155
▁meññ	-10.4155
▁sauce	-10.4155
▁Bateri	-10.4155
▁taq	-10.4155
▁pegg	-10.4155
▁genre	-10.4155
▁Terre	-10.4155
▁capable	-10.4155
▁caisse	-10.4156
▁Poor	-10.4156
▁gëléem	-10.4156
▁frappions	-10.4156
▁Bamako	-10.4156
▁appelé	-10.4157
lbéen	-10.4157
▁surveill	-10.4157
▁absent	-10.4158
▁gosse	-10.4158
▁wert	-10.4158
▁simila	-10.4158
▁oublier	-10.4158
▁miirloo	-10.4159
▁pourquoi	-10.4159
▁Looloo	-10.416
▁màtt	-10.416
▁Dégg	-10.416
▁décrit	-10.416
▁prière	-10.416
▁chapeaux	-10.4161
▁ràkkaaju	-10.4162
▁poudre	-10.4163
▁woowa	-10.4163
▁yemale	-10.4163
▁raconté	-10.4163
▁Rao	-10.4164
▁drapeau	-10.4164
▁marqué	-10.4164
▁Tann	-10.4164
▁soxor	-10.4164
▁nangoo	-10.4165
saŋ	-10.4165
▁tubay	-10.4165
▁charme	-10.4165
▁rose	-10.4165
▁pétrole	-10.4166
erig	-10.4166
cation	-10.4167
▁serré	-10.4167
▁sooke	-10.4167
▁disp	-10.4168
▁partez	-10.417
▁remis	-10.417
▁baobab	-10.417
▁tëwa	-10.417
▁dëppoo	-10.4171
▁bëggóon	-10.4171
▁Demkoon	-10.4171
▁travailler	-10.4171
▁dress	-10.4172
▁kookale	-10.4172
▁muraille	-10.4172
▁portale	-10.4172
▁apparaissent	-10.4173
▁méngale	-10.4173
▁Banyo	-10.4173
▁penku	-10.4173
▁élevé	-10.4173
▁dijj	-10.4174
▁soirée	-10.4175
▁Demuma	-10.4176
▁pain	-10.4176
▁tuuru	-10.4176
▁aigu	-10.4177
▁sœurs	-10.4179
▁oreilles	-10.4179
▁Joor	-10.4179
▁plats	-10.4179
▁tëgg	-10.4179
▁móol	-10.418
▁kaki	-10.418
▁dég	-10.418
▁yeggee	-10.4182
▁matinée	-10.4183
▁cultive	-10.4183
ñaa	-10.4185
▁clé	-10.4186
▁puur	-10.4187
▁Mbir	-10.4188
▁brûlant	-10.4189
▁Mokaa	-10.4189
kkati	-10.419
▁att	-10.419
▁install	-10.4192
▁jaa	-10.4192
▁fum	-10.4195
▁fowu	-10.4198
▁libre	-10.4201
▁sell	-10.4202
▁battu	-10.4205
ish	-10.4205
▁rendu	-10.4206
▁neuf	-10.4208
▁US	-10.421
tiens	-10.4211
▁càkk	-10.4212
▁Cependant	-10.4213
▁étrange	-10.4214
▁demain	-10.4214
▁corde	-10.4214
▁fen	-10.4217
▁amené	-10.4217
▁nuru	-10.4218
▁diggu	-10.4219
▁weg	-10.422
▁jàkka	-10.4221
juram	-10.4222
▁battant	-10.4224
▁allez	-10.4224
▁fameuse	-10.4225
▁kilomètres	-10.4227
▁fruits	-10.4227
▁juges	-10.4227
▁ñaaw	-10.4228
metti	-10.4234
empire	-10.4235
▁marque	-10.4235
roule	-10.4235
▁kayit	-10.4237
▁xobi	-10.424
▁xóot	-10.4241
▁gar	-10.4241
tóor	-10.4246
▁construi	-10.4249
▁kooka	-10.4259
▁courses	-10.426
▁rëbbi	-10.426
uver	-10.4261
▁joow	-10.4261
▁jàppoon	-10.4267
▁dundam	-10.4267
oroom	-10.4271
▁neexee	-10.4272
▁patte	-10.4272
▁ger	-10.4274
ose	-10.4276
▁secondes	-10.4276
▁gës	-10.4277
▁vagues	-10.4278
▁serv	-10.4283
▁El	-10.4285
▁Amin	-10.4286
pa	-10.4286
▁waaxu	-10.4291
▁éc	-10.4292
▁faax	-10.4293
engag	-10.4295
▁créé	-10.4295
▁toolu	-10.4295
▁xer	-10.43
▁tenue	-10.4305
▁prenant	-10.4307
▁jog	-10.4309
▁manque	-10.4309
▁partait	-10.431
▁xa	-10.4313
elu	-10.4314
▁ho	-10.4318
ailles	-10.4321
ignore	-10.4322
exerce	-10.4327
▁Aka	-10.4328
▁dig	-10.4328
▁Nun	-10.4331
▁roo	-10.4335
tum	-10.4338
▁rob	-10.4344
▁ceeb	-10.4346
▁anciens	-10.4348
▁cré	-10.4349
▁Ñi	-10.4354
▁sii	-10.4359
aff	-10.436
▁baň	-10.436
échapper	-10.4366
▁champs	-10.4377
▁pax	-10.4378
▁toogoon	-10.4382
▁partent	-10.4385
▁Njiit	-10.44
▁diine	-10.4401
rass	-10.4402
ouille	-10.4403
▁confie	-10.4404
▁demuñu	-10.4411
▁peinte	-10.4416
▁maladies	-10.4427
▁manifest	-10.4429
▁exerc	-10.4431
▁mbal	-10.4433
naissance	-10.4445
ddi	-10.4453
▁sib	-10.4456
andis	-10.4457
gante	-10.4465
▁brill	-10.4467
cousu	-10.4468
▁char	-10.4468
▁cri	-10.4475
uwaay	-10.4476
▁ker	-10.448
▁accepter	-10.4481
eri	-10.4481
▁muus	-10.4499
▁découverte	-10.4505
▁jeux	-10.4517
▁imagin	-10.4521
▁Éta	-10.4522
▁instants	-10.4527
▁diir	-10.4528
▁guis	-10.454
▁Nag	-10.4542
▁né	-10.4545
prè	-10.4551
▁xat	-10.4556
▁ñee	-10.4563
▁wuut	-10.4569
▁dib	-10.4574
ages	-10.4583
▁bég	-10.4587
amm	-10.4587
▁dikkul	-10.4593
▁sot	-10.461
▁Europe	-10.4614
▁yare	-10.4617
boo	-10.4617
▁court	-10.464
▁gale	-10.4644
▁bàn	-10.4645
▁leçon	-10.465
▁Lui	-10.4655
▁Kakaa	-10.4664
▁Doon	-10.468
aires	-10.4682
sant	-10.4693
▁envahi	-10.4705
ards	-10.4713
▁br	-10.473
uñ	-10.4733
seen	-10.4735
▁cartes	-10.474
▁press	-10.4742
Européens	-10.4756
ekte	-10.4764
▁chi	-10.4767
▁ree	-10.477
▁waxee	-10.4777
▁filles	-10.4794
▁grise	-10.4811
▁médecine	-10.4813
▁sipp	-10.4823
▁rab	-10.4859
▁Mak	-10.4873
éer	-10.4877
▁demb	-10.4883
sme	-10.4896
▁Waxu	-10.4919
ca	-10.4919
appellent	-10.4927
enfants	-10.493
▁répu	-10.494
▁her	-10.4949
▁nekkoon	-10.4959
▁Sor	-10.4968
noo	-10.4971
stique	-10.4973
▁jafee	-10.4982
▁garabu	-10.4983
▁dunde	-10.499
rab	-10.5
▁àndal	-10.5013
▁defee	-10.502
allaient	-10.5055
éew	-10.5055
▁Mari	-10.5058
▁jógee	-10.5085
lée	-10.5094
▁devenue	-10.51
▁Ànd	-10.5112
ëtt	-10.5118
▁fil	-10.5128
géeju	-10.514
arc	-10.52
ants	-10.5215
do	-10.525
▁bri	-10.5262
▁Gisu	-10.5298
▁ňa	-10.5304
▁form	-10.533
sait	-10.534
▁racont	-10.5342
▁dun	-10.5364
àllaam	-10.5366
waa	-10.5374
▁soog	-10.5378
▁mett	-10.5383
agir	-10.5384
ets	-10.5403
co	-10.5416
able	-10.5434
tee	-10.5444
▁quitt	-10.5452
oire	-10.5459
▁Mac	-10.5459
▁boot	-10.5472
▁continu	-10.5475
▁nuits	-10.5481
▁fow	-10.5485
▁vol	-10.5492
▁aventure	-10.5496
embou	-10.5529
mba	-10.5536
urant	-10.5538
añ	-10.5566
om	-10.5572
▁déf	-10.5584
▁rec	-10.5585
nge	-10.5609
▁chauff	-10.5615
rge	-10.5621
ñii	-10.5631
ien	-10.5637
▁bale	-10.5652
▁yooy	-10.5656
▁natte	-10.5656
aj	-10.5659
▁tant	-10.5691
cc	-10.5693
kkal	-10.5711
aaw	-10.5721
▁kat	-10.5782
ivre	-10.5786
ol	-10.5852
▁accompagne	-10.5863
ŋun	-10.5866
uni	-10.5868
▁écout	-10.5873
fant	-10.5894
urs	-10.5901
▁melo	-10.5911
lal	-10.5931
▁pratique	-10.5959
▁lions	-10.5965
▁jë	-10.5985
ko	-10.6006
kàlla	-10.6013
maŋ	-10.6031
▁av	-10.6044
tion	-10.6056
appelle	-10.609
▁gëna	-10.6096
▁wal	-10.6112
▁tama	-10.6119
▁Xo	-10.6129
▁lawoon	-10.6136
▁fini	-10.6161
aanu	-10.6173
▁nëw	-10.6178
laay	-10.62
ston	-10.6204
faites	-10.6222
▁chameau	-10.6233
▁yatt	-10.6239
wal	-10.6264
bal	-10.6266
▁Ji	-10.6283
ami	-10.6287
▁Ng	-10.6288
è	-10.6296
▁fowe	-10.6321
▁dur	-10.6322
po	-10.6322
▁souffr	-10.6324
rgent	-10.6335
▁sida	-10.6338
eem	-10.6353
we	-10.636
▁représente	-10.6364
▁noppal	-10.64
oque	-10.6443
stitué	-10.645
▁yàqu	-10.649
▁ñun	-10.6514
ét	-10.6525
rent	-10.6528
▁touch	-10.6555
ction	-10.6555
ersi	-10.657
ekk	-10.6573
mm	-10.6586
sses	-10.66
vi	-10.662
asse	-10.6621
wee	-10.663
table	-10.6647
▁bel	-10.6662
ier	-10.6667
▁yemu	-10.6672
▁tée	-10.6689
stice	-10.67
écu	-10.6701
the	-10.6708
▁isolé	-10.6729
rète	-10.676
▁yaroo	-10.6775
▁connaît	-10.6777
▁xe	-10.6784
mes	-10.6789
ba	-10.6806
see	-10.6828
inu	-10.6842
▁Noo	-10.6866
▁anima	-10.69
▁cor	-10.6922
euses	-10.6931
ële	-10.6953
naay	-10.6962
oyd	-10.6965
og	-10.697
▁tra	-10.6985
▁É	-10.6989
▁confi	-10.7005
ad	-10.7005
▁qua	-10.7018
▁teewu	-10.7048
▁teqal	-10.7056
eeku	-10.706
ph	-10.7066
▁cris	-10.7074
▁njàmba	-10.7078
ib	-10.7094
▁një	-10.7102
▁bindoo	-10.7111
▁danañ	-10.7123
▁laisse	-10.7124
▁jëmm	-10.7128
du	-10.7131
ivement	-10.7134
aises	-10.7135
aura	-10.7146
lot	-10.715
àtt	-10.7151
▁anim	-10.7159
▁peint	-10.717
▁permet	-10.717
▁maye	-10.7172
alal	-10.7174
▁var	-10.7179
▁ouvr	-10.7179
ide	-10.718
▁gro	-10.7183
▁coll	-10.7189
I	-10.7191
▁moomee	-10.7196
▁conçu	-10.7198
▁Nd	-10.7205
▁tran	-10.7212
▁fermé	-10.722
▁parcour	-10.7227
off	-10.7227
ît	-10.7247
umes	-10.7252
heure	-10.7256
étendue	-10.7257
ront	-10.7267
rëb	-10.7277
arrêt	-10.7285
▁distance	-10.7286
▁moustiquaire	-10.7286
▁peuple	-10.7286
chure	-10.7293
etti	-10.7301
▁âgé	-10.7304
▁vert	-10.7305
▁seconde	-10.7313
▁vague	-10.7314
ňň	-10.7314
ordre	-10.7316
▁soldat	-10.7317
ing	-10.732
▁policier	-10.732
▁militaire	-10.7321
▁jambe	-10.7321
▁civil	-10.7323
junni	-10.7325
▁fatigu	-10.7326
▁rituel	-10.7327
▁fleur	-10.7328
émotion	-10.7328
école	-10.7328
▁fulla	-10.7332
▁banc	-10.7338
lève	-10.7339
ooñii	-10.7342
ailleurs	-10.7344
utilis	-10.7346
habite	-10.735
daamar	-10.7351
▁trace	-10.7352
arrivée	-10.7354
Aro	-10.7357
▁épi	-10.7357
taay	-10.736
naaw	-10.736
yëngu	-10.7363
joor	-10.7363
feebar	-10.7364
tubaab	-10.7366
â	-10.7368
dëkk	-10.7369
▁attend	-10.7372
▁fabriqu	-10.7372
peur	-10.7373
La	-10.7375
ève	-10.7378
ñetti	-10.738
tey	-10.738
construi	-10.7387
▁Bien	-10.7389
▁ň	-10.7393
▁gë	-10.7393
llez	-10.7394
▁jubal	-10.7395
mb	-10.7403
tuuti	-10.7406
ndait	-10.7407
kum	-10.741
ssait	-10.741
inter	-10.7412
àdd	-10.7415
uwaa	-10.7419
yëg	-10.7421
▁ñooñ	-10.7425
▁wë	-10.7426
▁Gara	-10.7429
▁naqad	-10.7432
óox	-10.7435
▁reç	-10.7435
▁pense	-10.7436
▁kaf	-10.7438
▁coule	-10.7439
rément	-10.744
nesi	-10.7442
angue	-10.7444
▁Yooy	-10.7444
▁Ño	-10.7446
ème	-10.7448
▁remonte	-10.7453
▁sàpp	-10.7453
jekkal	-10.7456
▁masque	-10.7457
▁prépare	-10.7458
▁dinañ	-10.7459
▁génér	-10.746
ême	-10.7468
▁danger	-10.7468
ption	-10.7469
▁tege	-10.747
éloigne	-10.7471
▁daf	-10.7476
rveille	-10.7476
▁Jën	-10.7477
▁rés	-10.7479
àbbal	-10.748
▁Babungo	-10.748
awbe	-10.748
▁1	-10.7481
dog	-10.7482
▁tàgg	-10.7482
essaie	-10.7484
4	-10.7484
Adamawa	-10.7484
approche	-10.7484
calpel	-10.7484
enfonce	-10.7484
obscur	-10.7484
▁195	-10.7484
▁6	-10.7484
▁Aadamawa	-10.7484
▁Bénoué	-10.7484
▁Bénuwe	-10.7484
▁Fields	-10.7484
▁Français	-10.7484
▁Kàttan	-10.7484
▁Radiyasi	-10.7484
▁Riwër	-10.7484
▁Sahara	-10.7484
▁Tàngaay	-10.7484
▁achète	-10.7484
▁affluent	-10.7484
▁banlieue	-10.7484
▁bànxaas	-10.7484
▁cafards	-10.7484
▁callweer	-10.7484
▁caricatural	-10.7484
▁chirurgi	-10.7484
▁climatiseurs	-10.7484
▁couscous	-10.7484
▁couvercle	-10.7484
▁dankalikoo	-10.7484
▁dysenterie	-10.7484
▁dëj	-10.7484
▁encerclé	-10.7484
▁gàngiri	-10.7484
▁habillé	-10.7484
▁impeccable	-10.7484
▁invisible	-10.7484
▁justifi	-10.7484
▁lézard	-10.7484
▁mébét	-10.7484
▁njoowaan	-10.7484
▁pelouse	-10.7484
▁physique	-10.7484
▁protection	-10.7484
▁période	-10.7484
▁recouvert	-10.7484
▁respire	-10.7484
▁ridicule	-10.7484
▁roppëlaan	-10.7484
▁réponse	-10.7484
▁résidence	-10.7484
▁résignation	-10.7484
▁serviteurs	-10.7484
▁spéci	-10.7484
▁taariix	-10.7484
▁totaux	-10.7484
▁treize	-10.7484
▁tribales	-10.7484
▁trône	-10.7484
▁viendront	-10.7484
▁waxambaane	-10.7484
▁xorom	-10.7484
▁yendoo	-10.7484
▁yëngoo	-10.7484
▁étouffante	-10.7484
▁ëllëg	-10.7484
▁ófise	-10.7484
▁Colonie	-10.7484
▁brindille	-10.7484
▁dispensaire	-10.7484
▁lëkkale	-10.7484
▁minuscule	-10.7484
▁pikiir	-10.7484
▁ténia	-10.7484
▁visible	-10.7484
▁xadde	-10.7484
incendie	-10.7484
▁Algérie	-10.7484
▁assailli	-10.7484
▁bataaxal	-10.7484
▁beurre	-10.7484
▁camarades	-10.7484
▁ginnax	-10.7484
▁hasard	-10.7484
▁jaabante	-10.7484
▁mboq	-10.7484
▁meilleur	-10.7484
▁propos	-10.7484
▁reetaan	-10.7484
▁réccu	-10.7484
sultat	-10.7484
▁Faranse	-10.7484
▁joxoñ	-10.7484
▁procur	-10.7484
considéra	-10.7484
▁cuisini	-10.7484
▁latérite	-10.7484
▁veuille	-10.7484
▁xàmb	-10.7484
▁Téere	-10.7484
▁bahut	-10.7484
▁naŋgu	-10.7484
▁écrivent	-10.7484
▁Indiens	-10.7484
▁yaxeet	-10.7484
ospital	-10.7484
éwén	-10.7484
▁craquelée	-10.7484
▁popula	-10.7484
▁dispañseer	-10.7484
▁répandu	-10.7484
poussiér	-10.7484
▁douleur	-10.7484
▁Dellu	-10.7484
▁Saawusamton	-10.7484
▁politique	-10.7484
▁totale	-10.7484
▁trouvé	-10.7484
▁yalwaan	-10.7484
▁ñàng	-10.7484
▁méthod	-10.7484
▁Jàng	-10.7484
▁piège	-10.7484
▁défens	-10.7484
▁plaît	-10.7484
▁hérit	-10.7484
▁rapporté	-10.7484
▁suppose	-10.7484
▁Fàttewu	-10.7484
▁mûr	-10.7485
▁galeries	-10.7485
▁Fiild	-10.7485
▁yàkkamt	-10.7485
▁ŋàññ	-10.7485
mbrées	-10.7485
▁Polisoŋ	-10.7485
▁essay	-10.7485
▁glac	-10.7485
▁iróko	-10.7485
▁parfaite	-10.7485
▁batã	-10.7485
▁vaisselle	-10.7485
▁Yéesu	-10.7485
▁kéwël	-10.7485
▁fréquenta	-10.7485
▁dajaloo	-10.7485
▁pacifi	-10.7485
▁plaintes	-10.7485
▁Alseri	-10.7485
▁bref	-10.7485
▁quartier	-10.7485
▁tënk	-10.7485
▁colonne	-10.7485
▁saŋx	-10.7485
interrog	-10.7485
▁chute	-10.7485
▁wékk	-10.7485
▁karaaf	-10.7485
urgence	-10.7485
▁Kaasamaas	-10.7485
▁mbagg	-10.7485
▁descente	-10.7485
▁gëdd	-10.7485
▁plonge	-10.7485
▁gorilles	-10.7485
▁carafe	-10.7485
nze	-10.7485
▁ndaje	-10.7485
ilip	-10.7485
▁souten	-10.7485
▁colonisation	-10.7485
▁Partout	-10.7485
▁déborda	-10.7485
▁soppikoo	-10.7485
▁Tabax	-10.7485
plomb	-10.7485
▁jouets	-10.7485
▁sculptés	-10.7485
▁voulez	-10.7485
▁Ndox	-10.7485
▁prétend	-10.7485
▁foyer	-10.7485
▁noyyee	-10.7485
▁rajoom	-10.7485
▁xélu	-10.7485
▁aimait	-10.7486
aleekum	-10.7486
▁poing	-10.7486
mall	-10.7486
▁River	-10.7486
▁Bro	-10.7486
▁profit	-10.7486
▁laxas	-10.7486
▁gauche	-10.7486
▁tâche	-10.7486
▁travaillé	-10.7486
Unis	-10.7486
▁jadd	-10.7486
▁paille	-10.7486
▁Ngom	-10.7486
▁wecc	-10.7486
▁plage	-10.7486
▁fàcc	-10.7486
▁natale	-10.7486
▁tooñ	-10.7486
▁Laaj	-10.7486
▁wacc	-10.7487
opération	-10.7487
▁fusils	-10.7487
▁wotoom	-10.7487
▁ŋgoogu	-10.7487
▁cuit	-10.7487
▁domestique	-10.7487
avancé	-10.7487
▁wisit	-10.7487
islam	-10.7487
▁couchés	-10.7487
▁mëdd	-10.7487
▁colons	-10.7487
rmis	-10.7487
▁janool	-10.7487
▁réuni	-10.7487
▁chaîne	-10.7487
▁compagnie	-10.7487
▁jaawale	-10.7487
▁préparé	-10.7487
▁xàll	-10.7488
▁camp	-10.7488
zar	-10.7488
▁proie	-10.7488
▁këruus	-10.7488
▁njël	-10.7488
▁repris	-10.7488
▁doj	-10.7488
▁bouill	-10.7488
▁toppatoo	-10.7488
▁voyait	-10.7488
▁Niseer	-10.7488
▁orages	-10.7488
▁ceinture	-10.7489
▁généreux	-10.7489
▁vieillesse	-10.7489
▁Kari	-10.7489
▁Niger	-10.7489
▁consacré	-10.7489
▁ňoom	-10.7489
▁ganesi	-10.7489
▁ruine	-10.749
▁signifiai	-10.749
▁dajeel	-10.749
▁crép	-10.749
▁daagu	-10.749
▁semblait	-10.749
▁Sall	-10.749
▁ŋaam	-10.7491
▁fourni	-10.7491
▁tëral	-10.7491
▁contrai	-10.7492
▁brûlait	-10.7492
▁màkkaan	-10.7492
▁travaillait	-10.7492
▁rejet	-10.7492
▁Sëri	-10.7492
▁Mets	-10.7492
▁payer	-10.7492
taññ	-10.7493
▁souvent	-10.7493
▁film	-10.7493
étroit	-10.7493
▁superposé	-10.7493
▁Wiyaa	-10.7493
▁fexe	-10.7494
▁siège	-10.7494
▁Ngon	-10.7494
épaisse	-10.7494
▁familier	-10.7494
▁relev	-10.7494
pace	-10.7494
▁cornes	-10.7494
▁allumette	-10.7494
▁Laisse	-10.7494
▁ñeex	-10.7494
▁jeunesse	-10.7494
▁complet	-10.7495
▁messager	-10.7495
▁généralement	-10.7495
sting	-10.7495
▁monument	-10.7495
▁écriture	-10.7495
uvet	-10.7496
▁changement	-10.7496
▁nawet	-10.7496
▁revoir	-10.7496
▁reyante	-10.7496
▁sujet	-10.7497
édu	-10.7497
▁Dugg	-10.7497
▁pàkk	-10.7497
▁Peul	-10.7497
▁nombreux	-10.7498
▁tëri	-10.7498
▁vivaient	-10.7498
▁manies	-10.7498
▁gerte	-10.7499
▁arrivant	-10.7499
▁Nil	-10.7499
▁fatt	-10.7499
axum	-10.7499
▁camion	-10.7499
▁lutteur	-10.75
paradis	-10.75
▁ancienne	-10.75
▁lunette	-10.7501
▁torche	-10.7501
▁ver	-10.7502
▁bày	-10.7502
▁quitté	-10.7502
▁Suuf	-10.7502
abax	-10.7502
▁poison	-10.7503
▁yaatal	-10.7503
▁moqu	-10.7503
▁weexaay	-10.7503
▁Sàll	-10.7505
▁ndoorte	-10.7506
▁revanche	-10.7507
▁équatoriale	-10.7507
▁moderne	-10.7507
▁campagne	-10.7507
▁Suku	-10.7508
▁géant	-10.7508
▁seraient	-10.7509
▁rencontré	-10.751
▁police	-10.751
▁gëmoon	-10.751
▁wóo	-10.7511
▁foog	-10.7511
▁fem	-10.7511
▁pâte	-10.7513
umeur	-10.7514
▁Riis	-10.7514
▁doux	-10.7514
▁siècle	-10.7516
▁effray	-10.7516
▁respect	-10.7516
▁ordinaire	-10.7516
▁mètres	-10.7516
▁direction	-10.7516
▁géey	-10.7516
▁usé	-10.7516
▁or	-10.7517
▁niróo	-10.7517
▁ñorul	-10.7518
▁contrebas	-10.7518
xosi	-10.7518
▁Autre	-10.7519
▁yegsi	-10.752
▁Ijama	-10.7522
écroul	-10.7522
▁luxe	-10.7523
▁génnaan	-10.7524
▁partager	-10.7524
acle	-10.7524
élan	-10.7524
ente	-10.7524
▁prot	-10.7525
▁palmiers	-10.7525
▁vaccins	-10.7525
▁ram	-10.7525
▁pistes	-10.7527
▁oreiller	-10.7527
▁gëj	-10.7527
▁tanc	-10.7527
▁jouent	-10.7528
▁saisir	-10.7529
▁détest	-10.7529
▁yàcc	-10.753
▁secours	-10.753
▁inspiré	-10.753
▁inventé	-10.753
jji	-10.753
▁marchand	-10.7531
▁conservé	-10.7531
▁sages	-10.7531
▁gàddu	-10.7532
▁wala	-10.7533
▁penser	-10.7533
jet	-10.7534
▁rax	-10.7534
▁tepp	-10.7535
▁dalukaay	-10.7535
isol	-10.7535
gnes	-10.7535
ension	-10.7535
▁brûlé	-10.7535
commode	-10.7536
▁Wée	-10.7538
▁préparer	-10.7538
▁alalam	-10.7538
▁dënnam	-10.7538
▁sànneek	-10.7538
▁Yooyu	-10.7539
▁Weer	-10.7539
ggal	-10.754
▁chantant	-10.7542
▁soow	-10.7542
▁habiter	-10.7542
jënd	-10.7542
▁segg	-10.7544
▁xarat	-10.7544
▁nirool	-10.7544
edd	-10.7546
▁Ah	-10.7548
▁In	-10.7549
ho	-10.755
tuaire	-10.7552
▁tendre	-10.7552
▁nóox	-10.7552
▁tukkee	-10.7552
▁aada	-10.7552
▁myst	-10.7554
méeri	-10.7557
anis	-10.7558
▁demkoonul	-10.756
▁enfoncé	-10.756
▁dieu	-10.7561
oti	-10.7562
▁Néegu	-10.7562
▁débarqu	-10.7563
▁Abal	-10.7564
pression	-10.7564
pas	-10.7565
▁tàkkal	-10.7565
▁contenu	-10.7565
▁salon	-10.7566
▁sukkandik	-10.7567
kh	-10.7568
▁perçois	-10.7568
▁lever	-10.7569
▁dépass	-10.7569
▁île	-10.757
▁rendi	-10.757
▁fés	-10.7571
▁appartement	-10.7571
▁xë	-10.7572
▁waañ	-10.7572
▁tient	-10.7576
▁newu	-10.7579
▁utilisé	-10.7579
ngalu	-10.7582
▁raŋ	-10.7582
▁vé	-10.7584
yaa	-10.7589
▁excl	-10.7589
▁échange	-10.759
▁perdue	-10.759
▁goyave	-10.759
▁anecdote	-10.759
▁dinañu	-10.759
voûte	-10.7592
▁bonul	-10.7592
▁lointains	-10.7595
▁tambours	-10.7595
▁tiroirs	-10.7595
agrandi	-10.7598
▁ben	-10.7598
▁trempé	-10.7598
▁disait	-10.76
▁jawwu	-10.76
gation	-10.76
▁attaché	-10.76
▁lepp	-10.7602
▁restent	-10.7603
▁Pari	-10.7603
rôle	-10.7604
▁colonie	-10.7605
▁tournée	-10.7608
▁Yeew	-10.7608
trappe	-10.7608
▁karo	-10.7609
▁voyageur	-10.7609
▁gras	-10.761
▁Deg	-10.7611
ndey	-10.7613
▁xal	-10.7614
▁bokkul	-10.7614
▁aimer	-10.7615
uw	-10.7617
trait	-10.7617
▁générale	-10.7619
▁Jël	-10.7624
dée	-10.7625
▁cli	-10.7627
▁ailleurs	-10.7627
▁mour	-10.7629
▁rentrer	-10.763
▁waxtoo	-10.7631
▁daamar	-10.7633
sañ	-10.7636
▁terminé	-10.7638
inv	-10.7639
▁regardent	-10.7641
▁rem	-10.7641
rude	-10.7643
▁fullaal	-10.7644
▁joo	-10.7654
▁xiir	-10.7659
▁soin	-10.7659
▁màng	-10.766
▁duuf	-10.766
particulièrement	-10.7664
▁chaude	-10.7665
▁pén	-10.7665
▁gagne	-10.7666
▁relié	-10.7667
▁âgés	-10.7668
▁conçus	-10.767
▁enfin	-10.7672
▁cuisiner	-10.7673
hn	-10.7674
▁Pom	-10.7676
antee	-10.7679
▁perle	-10.7682
arrachait	-10.7685
aaya	-10.7687
▁arriv	-10.7687
▁Yoon	-10.7692
▁canne	-10.7692
▁Guy	-10.7694
▁cra	-10.7697
▁dents	-10.7699
▁Paris	-10.7701
▁écouter	-10.7701
ud	-10.7707
▁partant	-10.7708
▁jépp	-10.7708
liers	-10.771
▁yëge	-10.7715
▁bëtam	-10.7715
▁yaru	-10.772
▁liggéeyam	-10.7723
▁féexal	-10.7725
▁Baal	-10.773
▁voie	-10.7731
▁paysage	-10.7738
▁tentes	-10.7738
▁pënde	-10.7746
source	-10.7749
▁tasses	-10.775
jàmbaar	-10.7756
▁dessine	-10.7758
▁ñam	-10.7758
▁remplie	-10.7761
▁ouvertes	-10.7766
▁Ek	-10.7766
jaar	-10.7768
▁médicale	-10.7773
gub	-10.7779
▁fâch	-10.778
▁ubb	-10.7785
▁trouver	-10.7787
▁lutte	-10.7795
▁autrefois	-10.7805
▁voitures	-10.7817
▁yoonam	-10.7826
euss	-10.7837
▁kawar	-10.7841
▁affaires	-10.7842
▁guide	-10.7845
boît	-10.7855
fal	-10.7857
▁nez	-10.7857
▁décoré	-10.7862
▁luisant	-10.7863
▁bra	-10.7871
eeñ	-10.7889
▁étrangers	-10.789
▁préfér	-10.7891
ifs	-10.7897
agiss	-10.7898
▁biiri	-10.7906
▁xoole	-10.7913
hum	-10.7914
éger	-10.7916
▁Ai	-10.7917
▁limit	-10.7924
mag	-10.7927
▁tonn	-10.7934
▁africaines	-10.794
▁taxawaay	-10.7946
ns	-10.7957
▁goo	-10.7957
rendre	-10.7958
ener	-10.7961
▁vivres	-10.7966
ous	-10.7967
tuñu	-10.7969
▁tri	-10.7969
▁wërale	-10.7972
▁ëf	-10.7989
▁partirai	-10.7991
cieux	-10.8009
issent	-10.8016
alement	-10.8017
▁demi	-10.8024
ourn	-10.8034
▁wéeru	-10.8042
▁rêves	-10.8044
kke	-10.8046
▁yóbba	-10.8048
àyyee	-10.8051
▁sortie	-10.8052
▁coc	-10.8054
▁Wóo	-10.8055
▁mand	-10.8067
entraîne	-10.8069
da	-10.8075
oy	-10.8083
ilité	-10.8083
▁mor	-10.8085
▁balle	-10.8096
▁fameu	-10.81
▁seri	-10.81
rit	-10.8103
ades	-10.8106
ière	-10.8108
garder	-10.8109
mmoon	-10.811
èt	-10.8114
rées	-10.8115
▁mala	-10.8119
▁souri	-10.8119
▁yore	-10.8121
▁new	-10.813
▁vir	-10.8131
▁Aie	-10.8135
aix	-10.8144
▁conc	-10.8158
énorme	-10.8174
▁cuisines	-10.8198
▁dab	-10.8222
lé	-10.8227
▁fuñ	-10.8248
▁Boob	-10.8248
ence	-10.8288
▁fl	-10.8297
▁constat	-10.8303
▁plante	-10.8308
▁retire	-10.8309
▁née	-10.8312
son	-10.8316
▁captur	-10.8318
▁extr	-10.8321
▁toje	-10.8323
▁couverte	-10.8334
ram	-10.8339
▁hauteur	-10.834
▁utilis	-10.8342
▁content	-10.8344
▁cent	-10.8362
▁waajal	-10.8376
▁dét	-10.8376
exu	-10.8382
▁jooj	-10.8386
▁imp	-10.8389
▁destiné	-10.8398
▁Bariwu	-10.84
àngaan	-10.8408
▁nà	-10.841
koo	-10.8411
▁prie	-10.8413
habitation	-10.8432
▁tôt	-10.8442
▁atte	-10.8445
illi	-10.8447
▁opeereka	-10.8449
▁plant	-10.8449
ët	-10.8481
▁lourde	-10.8482
▁parc	-10.8485
▁Malheureu	-10.8504
▁Ru	-10.8508
▁souvenirs	-10.8509
koonuñu	-10.8512
▁nde	-10.8527
nace	-10.8528
▁jolies	-10.8542
▁ub	-10.8548
gguma	-10.8548
àddu	-10.8559
▁Sooy	-10.8559
▁nju	-10.857
▁liggéeykat	-10.8571
▁parent	-10.8581
▁wii	-10.8591
▁marches	-10.8593
▁Nes	-10.862
▁morts	-10.8624
▁ava	-10.8632
▁Waxat	-10.8647
▁noppalu	-10.8657
▁defante	-10.866
▁noires	-10.8672
▁rus	-10.8676
▁vic	-10.8679
omp	-10.8692
iale	-10.8697
▁métall	-10.8701
▁claire	-10.8702
▁Wut	-10.8704
▁naň	-10.8705
rage	-10.871
ewaan	-10.8711
diction	-10.8712
▁Daawul	-10.8713
▁ém	-10.8716
▁fr	-10.8717
ŋgeen	-10.8726
▁ap	-10.8728
ugu	-10.873
▁coupée	-10.8732
jje	-10.8736
ii	-10.8745
▁int	-10.8755
▁Kook	-10.876
▁duñ	-10.8767
▁jàngale	-10.8799
▁gisee	-10.8802
▁pli	-10.8807
ers	-10.8814
▁jà	-10.8823
▁ch	-10.8825
adi	-10.8837
▁tuutee	-10.8847
▁Waxul	-10.887
▁Suñ	-10.8881
▁circule	-10.8882
▁wuy	-10.8889
▁combat	-10.8893
ser	-10.8894
andu	-10.8897
mon	-10.89
nique	-10.8917
▁gardée	-10.8919
▁Tont	-10.8921
ñaar	-10.8952
▁doonoon	-10.8957
▁jëli	-10.8988
▁bag	-10.8992
▁moments	-10.8999
ef	-10.9001
▁emport	-10.9009
ëlu	-10.9015
▁dép	-10.9026
▁taar	-10.9049
▁froide	-10.9052
élu	-10.9071
nable	-10.9079
oppose	-10.9082
▁dim	-10.9088
▁toogal	-10.912
▁go	-10.913
anté	-10.9135
ds	-10.914
▁recommenc	-10.9151
xe	-10.9151
▁sóob	-10.9153
▁noot	-10.9176
lëer	-10.9201
egarde	-10.9218
mené	-10.9223
ejje	-10.9227
commencer	-10.923
▁nax	-10.9261
▁pratiqu	-10.9281
▁Ro	-10.9284
▁appart	-10.9295
▁bul	-10.9305
omm	-10.9326
▁nob	-10.9332
▁tué	-10.9347
▁précis	-10.9361
▁pouv	-10.9364
tais	-10.9382
▁écouta	-10.9393
opp	-10.9395
▁refus	-10.941
jaay	-10.9414
resse	-10.9498
ck	-10.9499
nou	-10.95
antes	-10.9566
▁jal	-10.9569
enferme	-10.9613
▁rentre	-10.9626
sé	-10.9633
▁kàttanu	-10.9656
ňeent	-10.9656
acc	-10.9682
▁paresseu	-10.9705
▁Der	-10.9727
aaxaan	-10.975
▁apport	-10.9751
▁Njo	-10.9751
▁fàttalik	-10.9755
acre	-10.9757
▁jaaxa	-10.9764
bbe	-10.9778
arriver	-10.9788
▁nekkin	-10.9798
▁mette	-10.98
▁sos	-10.9808
onne	-10.9824
▁làmb	-10.9828
kku	-10.9838
▁xame	-10.9839
én	-10.9842
han	-10.9846
▁eau	-10.9871
▁danser	-10.9876
▁sel	-10.9877
▁teen	-10.9887
▁vibr	-10.9888
ëri	-10.9938
▁occ	-10.9958
▁mask	-10.997
ssures	-10.9989
▁cr	-11.0002
ama	-11.0005
oupe	-11.0029
▁mënoo	-11.0029
iné	-11.0044
▁embr	-11.0049
assé	-11.009
isons	-11.0097
pérer	-11.0098
▁puiss	-11.0136
▁mode	-11.0159
▁napp	-11.0177
▁xolu	-11.0198
▁fà	-11.0205
▁détr	-11.0231
▁lait	-11.0231
tique	-11.0234
▁environ	-11.0243
▁bac	-11.0258
▁Bo	-11.0275
▁termin	-11.028
jj	-11.029
eer	-11.0296
non	-11.0317
▁oppos	-11.0323
▁enferm	-11.0345
▁viv	-11.0346
ises	-11.0346
eñ	-11.0347
igne	-11.035
eetul	-11.0351
aarloo	-11.0381
roon	-11.0393
▁bêt	-11.0409
▁Ab	-11.0416
▁Ter	-11.0418
mies	-11.042
▁résist	-11.0421
▁Ŋgo	-11.045
ord	-11.0456
ari	-11.0469
▁év	-11.047
▁dàqee	-11.0473
nité	-11.0519
cé	-11.0532
▁combatt	-11.0534
ppu	-11.0539
uleen	-11.0544
sique	-11.0555
▁fourr	-11.057
jum	-11.0577
▁Ton	-11.0594
▁soree	-11.0629
jjant	-11.0633
ya	-11.0636
ots	-11.0645
▁nëb	-11.0681
▁tuut	-11.0685
▁safar	-11.0696
▁emporte	-11.0716
▁gard	-11.0717
wale	-11.0736
▁dawul	-11.0742
nes	-11.0755
▁métal	-11.0769
▁agg	-11.079
▁fël	-11.0808
▁import	-11.0826
▁amu	-11.0839
chettes	-11.0844
▁Wute	-11.0862
▁batt	-11.087
mbo	-11.0876
▁consul	-11.088
omin	-11.0929
ërëm	-11.0932
▁Gi	-11.0957
▁teint	-11.0962
gar	-11.0971
▁sangl	-11.1039
naire	-11.1055
▁Sen	-11.1057
▁dénu	-11.1061
▁nj	-11.1081
▁Bam	-11.1096
▁discu	-11.1113
▁Degg	-11.1121
▁jouai	-11.1129
ññ	-11.1141
mboo	-11.1144
▁fë	-11.1153
saal	-11.1167
ôt	-11.1167
goo	-11.117
ile	-11.1176
▁désire	-11.1185
ada	-11.1204
▁Bari	-11.1226
cher	-11.1249
matu	-11.1252
▁sort	-11.1279
ó	-11.1332
▁doyu	-11.1338
▁Daa	-11.1342
iggéeykat	-11.1345
▁para	-11.1349
▁Dóo	-11.1375
ouvant	-11.1377
aimes	-11.1399
▁Kaka	-11.1412
▁Be	-11.1433
orange	-11.1434
manche	-11.1457
▁conv	-11.1484
▁Celle	-11.149
▁Want	-11.1515
▁rong	-11.1515
gg	-11.1517
▁brûle	-11.152
▁montr	-11.1558
tip	-11.1573
▁yooya	-11.1574
igna	-11.1622
▁fra	-11.1622
aines	-11.1628
▁gra	-11.165
aar	-11.1651
kaa	-11.1652
rabi	-11.1657
onnement	-11.1667
▁Xamu	-11.1679
Im	-11.1683
▁Salaa	-11.1707
ast	-11.1708
occidentale	-11.1713
roulée	-11.1716
▁guddee	-11.1724
enez	-11.1731
ffrir	-11.1737
▁choi	-11.1738
kook	-11.1743
changer	-11.1744
▁caché	-11.1745
▁daju	-11.175
hré	-11.1757
▁violent	-11.176
▁sta	-11.1763
▁réserv	-11.1766
▁allum	-11.1781
ësu	-11.1782
▁cassé	-11.1785
èrement	-11.179
undu	-11.179
lière	-11.1794
laa	-11.1817
àpp	-11.1821
▁lég	-11.1824
naa	-11.1826
▁kak	-11.183
afe	-11.1832
▁lë	-11.1839
▁souffl	-11.1849
▁màgg	-11.1859
ànd	-11.1865
uire	-11.1871
aguma	-11.1873
▁xëcce	-11.1883
▁ngone	-11.1888
▁mbool	-11.191
pill	-11.1913
ve	-11.1919
iiru	-11.192
alité	-11.1926
▁sab	-11.1928
▁Mo	-11.1928
ica	-11.1936
ures	-11.195
▁fekke	-11.1968
ob	-11.1983
habit	-11.1984
go	-11.1995
ttache	-11.2009
▁troupe	-11.2016
ful	-11.2022
▁médical	-11.203
piri	-11.2041
lla	-11.2044
accompagne	-11.2048
rel	-11.2048
▁abal	-11.2051
envo	-11.2057
he	-11.2058
année	-11.206
chet	-11.207
imis	-11.2071
lop	-11.2072
▁rempli	-11.2074
▁ac	-11.2082
▁jóg	-11.2083
▁vue	-11.2097
banaan	-11.2102
avion	-11.2105
échapp	-11.2109
▁Bë	-11.2114
eguñu	-11.2124
ément	-11.2131
onnée	-11.2146
▁sëq	-11.2148
▁To	-11.2151
▁deseetu	-11.2156
îte	-11.2159
▁statue	-11.2161
ddu	-11.2168
▁prov	-11.2169
bare	-11.218
arbre	-11.2197
▁làppto	-11.2197
▁Xa	-11.2203
▁reli	-11.2204
ëg	-11.2218
ngue	-11.2228
▁pata	-11.2241
gël	-11.2245
songe	-11.2253
saient	-11.2254
omu	-11.2257
▁for	-11.2258
dra	-11.2267
ive	-11.2272
▁puisqu	-11.2275
▁pla	-11.2282
imp	-11.2283
▁retrait	-11.2285
▁endurci	-11.2288
▁caravane	-11.2288
bukun	-11.2288
nti	-11.2289
▁Sopp	-11.2295
venir	-11.2296
inte	-11.2296
▁geste	-11.2296
tuut	-11.2303
▁jaww	-11.2306
▁tambour	-11.2306
▁lointain	-11.2307
▁tiroir	-11.2312
emmen	-11.2314
▁kilomètre	-11.2314
▁fruit	-11.2314
▁levé	-11.2317
ssure	-11.2323
▁nouvelle	-11.2323
aime	-11.2325
▁transport	-11.2327
chauff	-11.2328
▁juge	-11.233
arrête	-11.233
étudiant	-11.233
espoir	-11.2331
jàngoro	-11.2331
origine	-11.2331
19	-11.2331
meuble	-11.2331
ennemi	-11.2331
▁fourmi	-11.2333
▁bouge	-11.2334
Africain	-11.2336
ŋgoo	-11.2336
allu	-11.2336
féex	-11.2338
tout	-11.2338
onc	-11.2339
hi	-11.2339
game	-11.2341
▁deven	-11.2341
▁mont	-11.2345
appartement	-11.2345
échange	-11.2345
▁tàkku	-11.2347
attend	-11.2349
chais	-11.2349
île	-11.235
US	-11.2352
demain	-11.2353
▁éclair	-11.2353
xóot	-11.2354
▁Gene	-11.2355
éclat	-11.2356
Aiya	-11.2356
accepter	-11.2356
exemple	-11.2356
pluie	-11.236
histoire	-11.2361
jaune	-11.2361
dehors	-11.2361
café	-11.2364
lancs	-11.2365
foncée	-11.2365
féexal	-11.2365
▁affect	-11.2365
côté	-11.2365
C	-11.2366
Tubaab	-11.2367
ñëw	-11.2368
jag	-11.237
▁regret	-11.2372
cle	-11.2372
lëpp	-11.2372
romb	-11.2374
Br	-11.2376
sori	-11.2376
ttends	-11.2376
jou	-11.2376
vert	-11.2378
óol	-11.2378
▁objet	-11.2384
ccepte	-11.2384
ëkk	-11.2384
insectes	-11.2385
▁to	-11.2386
goog	-11.2387
▁yomb	-11.2391
Ja	-11.2394
▁gejj	-11.2397
raŋ	-11.2398
ndaw	-11.24
fite	-11.2402
élic	-11.2405
ongtemps	-11.2405
oxoom	-11.2407
▁ressent	-11.2407
oulé	-11.2412
▁tenu	-11.2418
endorm	-11.2418
▁xott	-11.2419
▁kókkal	-11.2421
trop	-11.2428
allume	-11.2433
▁tourbillon	-11.2439
▁rappel	-11.2441
obab	-11.2442
▁ennemi	-11.2443
▁gàdd	-11.2444
▁Demerara	-11.2445
▁démo	-11.2446
▁Mbi	-11.2446
cru	-11.2446
▁mbaxan	-11.2448
onvers	-11.245
ouvre	-11.2452
éro	-11.2452
téen	-11.2452
▁sàq	-11.2453
act	-11.2453
ces	-11.2453
▁neñ	-11.2453
ky	-11.2453
▁chat	-11.2454
▁trava	-11.2457
▁étudi	-11.246
exi	-11.2462
▁Solda	-11.2463
itude	-11.2463
baat	-11.2463
oxor	-11.2464
ënfandikoo	-11.2466
▁jëfandik	-11.2466
▁Pou	-11.2466
ëk	-11.2469
▁cohabit	-11.2469
umtukaay	-11.2469
ngli	-11.2469
▁religi	-11.2469
▁njaboot	-11.247
doorte	-11.247
cité	-11.2471
ërë	-11.2471
blie	-11.2472
bégte	-11.2473
▁Camero	-11.2474
▁moomoo	-11.2474
ex	-11.2475
ouff	-11.2476
▁envoy	-11.2477
▁compl	-11.2477
▁famili	-11.2478
oudre	-11.2478
ège	-11.2479
ilifa	-11.2479
usqu	-11.2479
▁tor	-11.2479
▁compagn	-11.2479
▁plateau	-11.248
résidents	-11.248
▁couch	-11.2481
œu	-11.2481
▁meuble	-11.2481
ngasin	-11.2482
▁européen	-11.2482
eaucoup	-11.2482
▁ginnaa	-11.2482
àttalikuwu	-11.2482
wel	-11.2482
activ	-11.2483
▁publi	-11.2483
humid	-11.2483
pêch	-11.2484
▁firnde	-11.2484
▁196	-11.2484
▁autorit	-11.2484
possib	-11.2484
▁ñép	-11.2484
▁Ë	-11.2484
▁porc	-11.2484
▁bërki	-11.2484
▁gên	-11.2484
▁Kupuru	-11.2484
▁Tartar	-11.2484
▁cotonn	-11.2484
▁empesé	-11.2484
▁principa	-11.2484
▁pólis	-11.2484
▁ótó	-11.2484
7	-11.2484
Allemagne	-11.2484
Christ	-11.2484
amertume	-11.2484
appuyer	-11.2484
awanpoor	-11.2484
blème	-11.2484
bourbouille	-11.2484
congelé	-11.2484
effaçait	-11.2484
harmoni	-11.2484
hygiène	-11.2484
inclin	-11.2484
indefondi	-11.2484
infirmière	-11.2484
installaient	-11.2484
ologie	-11.2484
raisemblablement	-11.2484
tëñëx	-11.2484
uscule	-11.2484
ègre	-11.2484
égoïs	-11.2484
énergie	-11.2484
équat	-11.2484
▁1913	-11.2484
▁1914	-11.2484
▁1939	-11.2484
▁1940	-11.2484
▁Accra	-11.2484
▁Bawob	-11.2484
▁Bawop	-11.2484
▁Cawnpore	-11.2484
▁Corporation	-11.2484
▁Diggante	-11.2484
▁Dispañseer	-11.2484
▁Duwaalaa	-11.2484
▁Foumban	-11.2484
▁Hoggar	-11.2484
▁Ibada	-11.2484
▁Kamakusa	-11.2484
▁Kikuyu	-11.2484
▁Kishong	-11.2484
▁Kwaja	-11.2484
▁Kótónu	-11.2484
▁Londres	-11.2484
▁Mbembé	-11.2484
▁Memfo	-11.2484
▁Normàndi	-11.2484
▁Petroleum	-11.2484
▁Sadiola	-11.2484
▁Saxaraa	-11.2484
▁Touareg	-11.2484
▁Yoroubas	-11.2484
▁Yàkkamtiwuñu	-11.2484
▁absurde	-11.2484
▁accompagnait	-11.2484
▁admirable	-11.2484
▁agricole	-11.2484
▁alaateret	-11.2484
▁anémi	-11.2484
▁armiňoŋ	-11.2484
▁automobile	-11.2484
▁aveugl	-11.2484
▁bavards	-11.2484
▁beerso	-11.2484
▁berceau	-11.2484
▁bergers	-11.2484
▁berkelle	-11.2484
▁brèche	-11.2484
▁bàmmeel	-11.2484
▁bànqaas	-11.2484
▁bâtisse	-11.2484
▁cancrelats	-11.2484
▁carapaces	-11.2484
▁cellule	-11.2484
▁châteaux	-11.2484
▁clampser	-11.2484
▁colport	-11.2484
▁conception	-11.2484
▁confronté	-11.2484
▁cravate	-11.2484
▁cérémonie	-11.2484
▁difficulté	-11.2484
▁distendu	-11.2484
▁doigt	-11.2484
▁dortoirs	-11.2484
▁douloureu	-11.2484
▁déformée	-11.2484
▁dégingandé	-11.2484
▁faagaagal	-11.2484
▁faraňse	-11.2484
▁favoris	-11.2484
▁folklor	-11.2484
▁foufou	-11.2484
▁gangrène	-11.2484
▁grenier	-11.2484
▁gàngune	-11.2484
▁gâteau	-11.2484
▁horizon	-11.2484
▁hâte	-11.2484
▁hérissé	-11.2484
▁impoli	-11.2484
▁inflexible	-11.2484
▁inscription	-11.2484
▁interrompu	-11.2484
▁jàmbat	-11.2484
▁jàmmarloo	-11.2484
▁jànkoontee	-11.2484
▁jóolóoli	-11.2484
▁kompale	-11.2484
▁laaxira	-11.2484
▁maasàllaa	-11.2484
▁magnifique	-11.2484
▁mandibules	-11.2484
▁marécages	-11.2484
▁mbañeel	-11.2484
▁mbëggeel	-11.2484
▁migrateurs	-11.2484
▁morsures	-11.2484
▁mouvement	-11.2484
▁musulmans	-11.2484
▁navigu	-11.2484
▁njàmburam	-11.2484
▁ombrage	-11.2484
▁palabres	-11.2484
▁particulier	-11.2484
▁patients	-11.2484
▁pentuur	-11.2484
▁permanent	-11.2484
▁pidgin	-11.2484
▁posséd	-11.2484
▁preuve	-11.2484
▁principes	-11.2484
▁pàpaaya	-11.2484
▁pàttalik	-11.2484
▁ravins	-11.2484
▁reconnaître	-11.2484
▁rectiligne	-11.2484
▁renversé	-11.2484
▁rompre	-11.2484
▁récipient	-11.2484
▁sarwiis	-11.2484
▁savate	-11.2484
▁serpent	-11.2484
▁souffert	-11.2484
▁sourcils	-11.2484
▁sportive	-11.2484
▁suspendu	-11.2484
▁tabaski	-11.2484
▁takkarnaase	-11.2484
▁teerusi	-11.2484
▁tiitaange	-11.2484
▁trafic	-11.2484
▁tragique	-11.2484
▁tàndarma	-11.2484
▁utiles	-11.2484
▁verticale	-11.2484
▁végétation	-11.2484
▁walbatiku	-11.2484
▁zébr	-11.2484
▁étoile	-11.2484
▁évidemment	-11.2484
▁ñambaan	-11.2484
▁Pensées	-11.2484
▁cafko	-11.2484
▁cohorte	-11.2484
▁possession	-11.2484
▁truc	-11.2484
▁épouse	-11.2484
ffirme	-11.2484
oiseaux	-11.2484
économi	-11.2484
▁Bakalu	-11.2484
▁Berbi	-11.2484
▁Soxna	-11.2484
▁Yàggu	-11.2484
▁Z	-11.2484
▁bataille	-11.2484
▁bloc	-11.2484
▁climat	-11.2484
▁collection	-11.2484
▁différence	-11.2484
▁détermination	-11.2484
▁espion	-11.2484
▁héroï	-11.2484
▁infranchissable	-11.2484
▁jaxase	-11.2484
▁léthargi	-11.2484
▁mauricien	-11.2484
▁moket	-11.2484
▁papaye	-11.2484
▁parisienne	-11.2484
▁permangana	-11.2484
▁pijin	-11.2484
▁prisonnier	-11.2484
▁póliti	-11.2484
▁raffiné	-11.2484
▁rassurant	-11.2484
▁responsab	-11.2484
▁retrouvé	-11.2484
▁ràŋŋatik	-11.2484
▁silencieuse	-11.2484
▁soviétique	-11.2484
▁voisinage	-11.2484
autopsie	-11.2484
rifice	-11.2484
ébène	-11.2484
▁Congo	-11.2484
▁Kaburi	-11.2484
▁Mbembe	-11.2484
▁Taxawa	-11.2484
▁caraxam	-11.2484
▁dévorant	-11.2484
▁ndimbal	-11.2484
▁rangooñ	-11.2484
▁rompu	-11.2484
▁savon	-11.2484
▁trott	-11.2484
▁xàjj	-11.2484
▁Àbbaa	-11.2484
oblig	-11.2484
▁employés	-11.2484
▁implora	-11.2484
▁jàkkarloo	-11.2484
▁radier	-11.2484
▁takkandeer	-11.2484
▁xeej	-11.2484
▁Eend	-11.2484
▁càmm	-11.2484
▁jaaxle	-11.2484
▁jikko	-11.2484
▁manqué	-11.2484
▁tàbbi	-11.2484
/	-11.2484
Ermeno	-11.2484
gonflé	-11.2484
infl	-11.2484
▁Bokas	-11.2484
▁administrative	-11.2484
▁certitude	-11.2484
▁dépays	-11.2484
▁effort	-11.2484
▁frigo	-11.2484
▁journaux	-11.2484
▁occidentaux	-11.2484
▁réfl	-11.2484
▁réguli	-11.2484
▁séjour	-11.2484
▁itinérant	-11.2484
▁pauvre	-11.2484
▁totalité	-11.2484
▁tromp	-11.2484
ecto	-11.2484
▁Londar	-11.2484
▁Toujours	-11.2484
▁classe	-11.2484
▁keppaar	-11.2484
▁lottal	-11.2484
▁rewle	-11.2484
▁ràgg	-11.2484
▁yorouba	-11.2484
▁Ogaar	-11.2484
▁komfi	-11.2484
▁naawantu	-11.2484
▁constituée	-11.2484
▁dëmm	-11.2484
▁traditionnelle	-11.2484
Laper	-11.2484
▁côtière	-11.2484
▁gouttière	-11.2484
▁littéra	-11.2484
áa	-11.2484
▁Donga	-11.2484
▁bienfait	-11.2484
▁bruyante	-11.2484
▁canapé	-11.2484
▁encadré	-11.2484
▁carrossable	-11.2484
▁diff	-11.2484
▁herbeuses	-11.2484
▁kerewol	-11.2484
▁ngànnaay	-11.2484
▁xocc	-11.2484
▁almet	-11.2484
▁turbulen	-11.2484
acacia	-11.2484
fiévr	-11.2484
▁emphase	-11.2484
▁obst	-11.2484
▁repos	-11.2484
▁Ësen	-11.2484
admir	-11.2484
▁serrure	-11.2484
▁terrasse	-11.2484
▁toxu	-11.2484
latel	-11.2484
▁gymnas	-11.2484
▁siyaare	-11.2484
▁vautours	-11.2484
entourant	-11.2484
▁porche	-11.2485
▁Panama	-11.2485
▁grouill	-11.2485
▁1938	-11.2485
▁aajo	-11.2485
▁brandiss	-11.2485
▁diamants	-11.2485
▁medaay	-11.2485
▁picc	-11.2485
ordures	-11.2485
▁disparaissait	-11.2485
▁vallée	-11.2485
accorde	-11.2485
▁cubb	-11.2485
▁orteil	-11.2485
▁remède	-11.2485
▁veille	-11.2485
ororo	-11.2485
▁désigne	-11.2485
écorch	-11.2485
▁explication	-11.2485
▁Lorsqu	-11.2485
▁assommé	-11.2485
▁bivoua	-11.2485
▁nurool	-11.2485
▁short	-11.2485
▁xiibon	-11.2485
▁moontin	-11.2485
▁remarqu	-11.2485
▁Musta	-11.2485
▁Agwu	-11.2485
▁hurle	-11.2485
▁tuumaal	-11.2485
▁woyantu	-11.2485
▁marõ	-11.2485
▁echelle	-11.2485
▁1932	-11.2485
▁semblables	-11.2485
▁livré	-11.2485
▁cousine	-11.2485
▁Parfois	-11.2485
▁fanane	-11.2485
▁refaire	-11.2485
▁cadre	-11.2485
embarque	-11.2485
▁pessimisme	-11.2485
▁Quoi	-11.2485
▁club	-11.2485
▁moitié	-11.2485
▁1900	-11.2485
▁fàŋŋ	-11.2485
▁inconnu	-11.2485
▁carreaux	-11.2485
▁allongé	-11.2485
▁oublié	-11.2485
ternel	-11.2485
▁aérien	-11.2485
▁véritable	-11.2485
▁rëy	-11.2485
▁empêcha	-11.2485
▁tamarin	-11.2485
▁épuis	-11.2485
▁citad	-11.2485
▁inject	-11.2485
▁àntuwul	-11.2485
▁cargo	-11.2485
ouilla	-11.2485
▁commande	-11.2485
▁irokos	-11.2485
▁vêtements	-11.2485
▁événements	-11.2485
▁œufs	-11.2485
éthér	-11.2485
▁gland	-11.2485
▁singes	-11.2485
▁Chacun	-11.2485
▁insur	-11.2485
▁insurgé	-11.2485
▁marron	-11.2485
pulsé	-11.2485
▁Gesam	-11.2485
▁inaccessible	-11.2485
▁rapide	-11.2485
▁réduit	-11.2485
▁facile	-11.2485
▁bëccëg	-11.2485
▁carabine	-11.2485
▁transmet	-11.2485
▁déclar	-11.2485
▁substan	-11.2485
opho	-11.2485
▁soppeeku	-11.2485
▁humeur	-11.2485
▁veine	-11.2485
apparition	-11.2485
hell	-11.2485
▁calme	-11.2485
▁féti	-11.2486
▁karwaat	-11.2486
▁chocra	-11.2486
▁digaalee	-11.2486
▁ruuj	-11.2486
▁active	-11.2486
▁humide	-11.2486
▁ñaawtéef	-11.2486
▁circon	-11.2486
▁recevoir	-11.2486
▁redouta	-11.2486
▁ardo	-11.2486
▁navire	-11.2486
▁vitesse	-11.2486
▁indiqué	-11.2486
▁ñefe	-11.2486
tërëf	-11.2486
▁xó	-11.2486
▁reparti	-11.2486
ndomb	-11.2486
▁njëgg	-11.2486
▁waaso	-11.2486
▁mbuus	-11.2486
▁tenir	-11.2486
aakiri	-11.2486
▁public	-11.2486
▁indiens	-11.2486
▁relations	-11.2486
▁Ital	-11.2486
▁demandé	-11.2486
▁plaisir	-11.2486
▁referm	-11.2486
cueilli	-11.2486
▁bourgeo	-11.2486
ifiée	-11.2486
cheur	-11.2486
▁Born	-11.2486
▁imprim	-11.2486
▁moytu	-11.2486
▁véné	-11.2486
▁rapporte	-11.2486
▁venge	-11.2486
▁rapprochée	-11.2486
açant	-11.2486
ations	-11.2486
▁intégr	-11.2486
▁guerrières	-11.2486
▁moytuwul	-11.2486
▁aadawoo	-11.2486
▁Wutël	-11.2486
▁rattach	-11.2486
▁antip	-11.2486
▁indienne	-11.2487
▁souffrance	-11.2487
▁Monro	-11.2487
▁attitude	-11.2487
▁abandonn	-11.2487
▁tigi	-11.2487
▁dedans	-11.2487
▁àttan	-11.2487
pita	-11.2487
▁musiba	-11.2487
▁confiance	-11.2487
▁geestu	-11.2487
▁profondeur	-11.2487
▁proue	-11.2487
▁Onits	-11.2487
▁aboli	-11.2487
éléphant	-11.2487
▁recommençait	-11.2487
▁xeeñ	-11.2487
▁bóoy	-11.2487
existence	-11.2487
veau	-11.2487
ède	-11.2488
opin	-11.2488
▁njatt	-11.2488
▁rides	-11.2488
▁conversation	-11.2488
▁signal	-11.2488
insti	-11.2488
▁cap	-11.2488
▁front	-11.2488
zia	-11.2488
support	-11.2488
▁bombard	-11.2488
bootaay	-11.2488
▁jànkonteel	-11.2489
▁taillé	-11.2489
▁bassin	-11.2489
▁Certainement	-11.2489
▁heureuse	-11.2489
▁Lebou	-11.2489
gnait	-11.2489
ëtuñu	-11.2489
▁Pardon	-11.2489
▁aimé	-11.2489
▁karne	-11.2489
▁summi	-11.2489
▁coyy	-11.2489
▁religieux	-11.2489
▁cadeau	-11.2489
▁placard	-11.2489
▁haie	-11.2489
▁mbàjj	-11.2489
▁excité	-11.2489
▁wujje	-11.2489
rompt	-11.2489
▁Gént	-11.249
▁concert	-11.249
grippe	-11.249
▁Nguu	-11.249
▁déeyante	-11.249
▁effe	-11.249
▁10	-11.249
▁ngunu	-11.249
politesse	-11.249
haïs	-11.249
▁rakk	-11.2491
▁John	-11.2491
kànkarla	-11.2491
turne	-11.2491
▁limaale	-11.2491
▁Sauf	-11.2491
▁Farm	-11.2491
▁agoni	-11.2491
▁bours	-11.2491
▁fentaakon	-11.2491
▁siso	-11.2491
▁butit	-11.2491
▁capit	-11.2491
▁Babungoo	-11.2491
▁haine	-11.2491
▁daraja	-11.2492
▁cadeaux	-11.2492
mond	-11.2492
▁castes	-11.2492
▁Durba	-11.2492
▁volont	-11.2492
▁Kenya	-11.2492
▁année	-11.2492
▁xërëmkat	-11.2492
▁jàmbure	-11.2492
▁ñall	-11.2492
otiques	-11.2492
▁haoussa	-11.2492
▁dangereux	-11.2492
▁attir	-11.2492
offens	-11.2492
▁Liber	-11.2493
onnés	-11.2493
▁naxantee	-11.2493
▁architectur	-11.2493
▁Yaali	-11.2493
âtre	-11.2493
▁vieilli	-11.2493
▁minut	-11.2493
usure	-11.2493
quiner	-11.2493
▁tayel	-11.2493
▁dirige	-11.2494
butéel	-11.2494
bienne	-11.2494
▁odeurs	-11.2494
hiver	-11.2494
▁bro	-11.2494
▁flamb	-11.2494
▁rond	-11.2494
▁féexlu	-11.2494
▁xultu	-11.2494
▁ňaw	-11.2494
▁safaan	-11.2494
ukwu	-11.2494
▁ñow	-11.2494
équipe	-11.2495
▁faneetar	-11.2495
ayim	-11.2495
▁religieuse	-11.2495
▁folle	-11.2495
▁esprits	-11.2495
▁tuwaal	-11.2496
▁enserr	-11.2496
ocrit	-11.2496
▁capric	-11.2496
▁jubb	-11.2496
▁jàq	-11.2496
▁éviden	-11.2496
cal	-11.2496
grillage	-11.2496
▁loca	-11.2497
▁Tool	-11.2497
écrire	-11.2497
▁Eux	-11.2497
▁siraas	-11.2497
▁màcc	-11.2497
hili	-11.2497
▁sédd	-11.2498
ffronter	-11.2498
▁Chin	-11.2498
▁léj	-11.2498
▁tàqal	-11.2498
▁conform	-11.2498
▁conduit	-11.2498
▁ŋaa	-11.2498
▁emm	-11.2498
▁poign	-11.2499
aliment	-11.2499
▁màggetloo	-11.2499
nationale	-11.2499
▁fajar	-11.2499
▁yegs	-11.2499
▁titre	-11.2499
dales	-11.2499
▁lourdement	-11.2499
▁yewwi	-11.2499
▁dorm	-11.2499
uré	-11.25
▁Gëm	-11.25
▁foofa	-11.25
âne	-11.2501
▁verrouill	-11.2501
▁Kaay	-11.2501
▁sànq	-11.2502
ailler	-11.2502
▁chap	-11.2502
▁reelu	-11.2502
▁ruiné	-11.2502
▁dangereuse	-11.2502
▁sukku	-11.2503
agin	-11.2503
▁mienne	-11.2503
▁appel	-11.2503
▁agsee	-11.2503
▁cohabitent	-11.2503
▁Màr	-11.2503
▁fajukaay	-11.2503
▁xelli	-11.2503
▁jënfandikoo	-11.2503
▁kulëer	-11.2503
▁migraines	-11.2503
▁yóot	-11.2504
▁pleurer	-11.2504
▁tissées	-11.2504
▁rentré	-11.2504
▁bëre	-11.2504
▁voisins	-11.2505
acharn	-11.2505
▁keppukaay	-11.2505
▁yombul	-11.2505
ucu	-11.2505
▁voulait	-11.2506
▁fufu	-11.2506
karaa	-11.2506
palud	-11.2506
▁bàyyeeku	-11.2506
▁Bali	-11.2506
▁canal	-11.2507
▁examin	-11.2507
▁industrielle	-11.2507
▁officielle	-11.2507
▁parlaient	-11.2507
▁Soldaar	-11.2508
▁bàkk	-11.2508
▁mortel	-11.2508
▁jafal	-11.2508
▁gants	-11.2509
▁rom	-11.2509
kasaw	-11.251
ëfinam	-11.251
▁gënaloon	-11.251
antenne	-11.251
▁Dém	-11.251
adopt	-11.2511
graines	-11.2511
▁Jàpp	-11.2512
▁tegtal	-11.2512
▁arrivait	-11.2512
▁wallu	-11.2512
▁accompagnent	-11.2513
vier	-11.2513
ginaar	-11.2513
▁beru	-11.2514
▁Bëgguma	-11.2514
▁poulet	-11.2514
▁sécuri	-11.2514
▁xañ	-11.2515
▁crain	-11.2515
rmeel	-11.2515
▁ôte	-11.2515
Agade	-11.2515
gues	-11.2515
woŋ	-11.2516
▁bàq	-11.2516
▁pip	-11.2516
▁Bokk	-11.2516
▁Faj	-11.2516
▁couvre	-11.2517
àjjan	-11.2518
▁lumineuse	-11.2518
▁sév	-11.2518
▁Tan	-11.2519
▁étonné	-11.2519
▁sànga	-11.2519
▁révoltent	-11.2519
ignés	-11.252
▁rêverie	-11.252
▁xasa	-11.252
▁soupir	-11.2521
esseur	-11.2522
éej	-11.2523
▁këf	-11.2524
▁raide	-11.2524
auche	-11.2524
▁àndandoo	-11.2524
▁gratuite	-11.2524
▁pilote	-11.2524
▁nonchalante	-11.2524
▁salut	-11.2525
▁iron	-11.2525
▁sorcier	-11.2525
▁Bira	-11.2526
▁rouillé	-11.2526
ydina	-11.2526
iyeer	-11.2527
▁Enfin	-11.2527
retam	-11.2527
ppét	-11.2527
▁descendra	-11.2527
▁Ngonka	-11.2527
▁dof	-11.2527
▁démon	-11.2527
▁flotte	-11.2527
dex	-11.2527
▁partons	-11.2527
▁rendait	-11.2527
▁Demeraraa	-11.2528
▁réveill	-11.2528
nivers	-11.2529
▁promena	-11.2529
óoy	-11.2529
▁saaf	-11.2529
▁tourbillonnai	-11.2529
▁ganesee	-11.253
fara	-11.253
▁Xaj	-11.253
▁bidd	-11.2531
▁Mfo	-11.2532
▁And	-11.2533
▁opeeree	-11.2533
abab	-11.2534
▁offra	-11.2534
tilité	-11.2534
escalad	-11.2535
▁passionn	-11.2535
▁sàqam	-11.2535
quetés	-11.2536
▁crainte	-11.2536
▁soufflet	-11.2536
▁statut	-11.2536
balee	-11.2536
▁exig	-11.2537
▁kañ	-11.2537
▁bàyyima	-11.2537
▁voul	-11.2537
▁sawar	-11.2538
▁fuuy	-11.2538
▁justement	-11.2538
étend	-11.2538
▁tissé	-11.2539
oudain	-11.2539
gase	-11.2539
vois	-11.2541
▁confortable	-11.2541
▁lançant	-11.2541
▁douze	-11.2541
▁exceptionnel	-11.2541
▁expérience	-11.2541
▁infirmiers	-11.2541
▁instrument	-11.2541
▁Africaine	-11.2541
▁immensité	-11.2541
▁échelle	-11.2541
▁Nguur	-11.2541
▁existait	-11.2541
▁illusion	-11.2541
▁njàpp	-11.2541
▁éloignement	-11.2541
▁Déjà	-11.2542
▁xumb	-11.2542
nière	-11.2542
▁étude	-11.2542
▁pilon	-11.2542
▁frappait	-11.2542
▁transformé	-11.2543
deur	-11.2543
▁européenne	-11.2543
▁inqui	-11.2544
ige	-11.2544
▁Njoya	-11.2544
pëti	-11.2545
kurti	-11.2545
▁accent	-11.2546
▁yombut	-11.2546
▁trac	-11.2546
▁position	-11.2546
zin	-11.2546
▁vendu	-11.2546
érige	-11.2546
▁élevage	-11.2546
▁gépp	-11.2546
▁liise	-11.2546
▁toucher	-11.2546
▁tàngaayam	-11.2546
▁accouchement	-11.2547
▁mouch	-11.2547
▁ibo	-11.2548
▁Ngu	-11.2549
▁kókkali	-11.2549
▁wenn	-11.2549
▁exact	-11.2549
▁tirage	-11.2549
▁choqu	-11.2549
▁soutien	-11.255
▁lunk	-11.255
▁fuite	-11.255
▁enlève	-11.2551
abine	-11.2551
▁étendues	-11.2551
▁passion	-11.2552
▁xotti	-11.2552
trices	-11.2554
▁faatoo	-11.2554
▁baraa	-11.2555
▁lèp	-11.2556
▁poson	-11.2556
▁Suwee	-11.2556
▁Ndey	-11.2556
▁Coono	-11.2557
▁meurt	-11.2557
▁ombre	-11.2557
▁Mills	-11.2557
▁congés	-11.2557
▁boucliers	-11.2557
▁administrateurs	-11.2557
▁prospères	-11.2557
▁secrets	-11.2557
▁portraits	-11.2557
pha	-11.2558
▁instinctive	-11.2558
▁poules	-11.2558
▁tiital	-11.2558
▁cond	-11.2559
iquaient	-11.2559
▁teggin	-11.2562
▁détail	-11.2562
utisme	-11.2562
▁troubl	-11.2562
▁ganale	-11.2563
▁enco	-11.2564
▁endormi	-11.2564
▁banan	-11.2565
licat	-11.2565
écart	-11.2565
analete	-11.2566
ndiŋ	-11.2567
▁suivent	-11.2567
▁maandu	-11.2568
▁siens	-11.2569
▁jaŋ	-11.257
▁xaleel	-11.257
▁Masur	-11.2572
▁futur	-11.2572
tesse	-11.2572
▁ňoo	-11.2573
▁kersa	-11.2575
▁lâche	-11.2577
▁tappal	-11.2577
▁divi	-11.2578
▁vaine	-11.2578
▁colin	-11.2579
▁remonter	-11.2579
▁obsédant	-11.2579
uence	-11.2579
▁palanteeram	-11.2581
ulture	-11.2581
kor	-11.2582
▁Seul	-11.2582
▁attrape	-11.2584
▁gang	-11.2584
▁brin	-11.2585
▁parcouru	-11.2585
▁yilifoon	-11.2585
▁sànn	-11.2585
▁gilets	-11.2587
▁faim	-11.2589
▁Sere	-11.2589
mane	-11.2589
▁sàppi	-11.259
▁dundale	-11.259
▁noirci	-11.2591
▁Yee	-11.2591
▁gëmm	-11.2591
▁marse	-11.2592
▁pl	-11.2592
unóor	-11.2592
▁noonam	-11.2592
▁élé	-11.2593
ndeer	-11.2594
▁waxaale	-11.2594
▁Baali	-11.2594
▁différentes	-11.2596
▁vend	-11.2597
▁regrette	-11.2598
▁wante	-11.2598
lite	-11.2598
▁fattu	-11.26
▁défil	-11.26
▁menti	-11.26
▁suivant	-11.26
▁kili	-11.2601
▁lionne	-11.2601
▁vit	-11.2603
▁flanc	-11.2604
▁puni	-11.2604
▁salaam	-11.2605
▁pey	-11.2605
▁affection	-11.2605
ule	-11.2605
buste	-11.2605
▁magie	-11.2606
▁soigné	-11.2607
▁travaille	-11.2607
épète	-11.2609
▁vertu	-11.2609
▁juumul	-11.261
leur	-11.261
dit	-11.261
▁doyul	-11.2611
▁Jaay	-11.2611
▁laaf	-11.2611
▁seef	-11.2611
bàcc	-11.2611
▁planche	-11.2611
▁jup	-11.2612
▁Lom	-11.2613
jóol	-11.2614
rcl	-11.2614
▁jumaa	-11.2616
umanda	-11.2616
▁dogal	-11.2616
▁mokk	-11.2618
▁exilé	-11.2619
gard	-11.2621
ewuma	-11.2622
▁maaj	-11.2623
éññ	-11.2624
▁répét	-11.2624
▁askanam	-11.2626
▁décol	-11.2626
▁permettai	-11.2627
▁plume	-11.2627
▁lettre	-11.2628
▁dram	-11.2628
▁nacelle	-11.263
lacés	-11.2631
▁Doomu	-11.2631
▁àggee	-11.2633
▁datte	-11.2633
▁nemm	-11.2634
ible	-11.2636
nelle	-11.2637
▁siga	-11.2638
▁19	-11.2639
▁déchi	-11.264
gaas	-11.264
▁espoir	-11.264
▁origine	-11.264
▁jàngoro	-11.264
▁occupé	-11.2641
▁détri	-11.2642
ànja	-11.2644
▁koste	-11.2644
▁rest	-11.2645
▁transporté	-11.2645
▁capo	-11.2645
▁tag	-11.2647
▁Bool	-11.2648
▁ŋgoo	-11.2649
▁caq	-11.2649
ortir	-11.2651
▁xaritoo	-11.2653
are	-11.2656
▁avenir	-11.2656
▁téj	-11.2657
▁perche	-11.266
▁kanamam	-11.266
entrer	-11.2661
▁Wer	-11.2661
▁dër	-11.2662
▁taaxu	-11.2663
▁jëf	-11.2665
▁organisat	-11.2665
▁étudiant	-11.2666
diale	-11.2666
▁nkom	-11.2666
nçait	-11.2666
▁jubale	-11.2669
▁fabrique	-11.2671
èrent	-11.2671
▁arraché	-11.2671
▁Miin	-11.2673
alla	-11.2674
hot	-11.2676
▁toro	-11.2676
sensible	-11.2678
▁sëgg	-11.2679
▁brutal	-11.2679
aine	-11.268
▁dikkal	-11.2681
▁ennemis	-11.2683
Obukun	-11.2684
▁levés	-11.2684
▁caravanes	-11.2685
taraa	-11.2685
▁gestes	-11.2686
▁Wau	-11.2686
▁tol	-11.269
▁cirées	-11.2692
▁ress	-11.2693
ulcère	-11.2695
▁spa	-11.2695
▁Soppi	-11.2696
▁he	-11.2697
▁roche	-11.2698
▁endurcis	-11.2699
rouille	-11.2703
▁feyu	-11.2703
old	-11.2708
▁apparaît	-11.271
▁courb	-11.2712
▁faatu	-11.2713
ëlé	-11.2713
nesil	-11.2713
anal	-11.2715
▁sangu	-11.2716
oyée	-11.2721
▁sexe	-11.2722
venu	-11.2725
▁jàmbaar	-11.2727
▁convainc	-11.2732
▁outre	-11.2733
▁monta	-11.2735
▁Sung	-11.2736
▁séy	-11.2737
▁degg	-11.2738
ulëer	-11.2739
▁descendr	-11.274
▁précédée	-11.274
▁voya	-11.2741
▁éclairs	-11.2741
sions	-11.2742
▁rëb	-11.2743
▁endo	-11.2744
illées	-11.2745
vers	-11.2745
▁émotion	-11.2745
raî	-11.2745
▁école	-11.2746
▁désespérant	-11.2746
▁épineu	-11.2747
▁rêver	-11.2747
▁fatigué	-11.2748
▁tànkam	-11.2756
éan	-11.276
▁bouger	-11.276
▁cesse	-11.2762
illo	-11.2763
▁feeň	-11.2764
▁meloy	-11.2764
▁voies	-11.2765
▁normal	-11.2765
▁profonde	-11.2766
▁civilis	-11.2769
utt	-11.2769
▁fédérale	-11.277
▁insouciant	-11.2773
▁Kee	-11.2774
naires	-11.2774
idée	-11.2774
àkkaan	-11.2775
▁lèv	-11.2775
uments	-11.2776
▁matière	-11.2777
▁dro	-11.2779
xte	-11.2782
▁course	-11.2786
▁taafa	-11.2786
uji	-11.2788
▁désord	-11.2788
kar	-11.2791
itation	-11.2791
kin	-11.2793
▁Jur	-11.2795
yph	-11.2801
▁attenti	-11.2801
mé	-11.2804
▁décorés	-11.2809
chures	-11.2809
▁souci	-11.281
reg	-11.281
▁liw	-11.2812
▁rituels	-11.2816
▁moustiquaires	-11.2817
▁peuples	-11.2817
▁boug	-11.2817
▁sortent	-11.2817
▁Dunu	-11.2817
▁toile	-11.2818
▁entendue	-11.2818
▁verts	-11.282
emal	-11.282
▁Ogil	-11.2823
▁ginnaawam	-11.2824
▁parcours	-11.2824
▁dugge	-11.2825
▁Dogal	-11.2826
▁corr	-11.2827
▁Xay	-11.2829
▁sëqat	-11.2832
otoom	-11.2835
▁traces	-11.2835
▁puissant	-11.2835
▁mbiram	-11.2836
▁distances	-11.2837
formation	-11.2841
lir	-11.2843
▁bëy	-11.2844
▁bañoon	-11.2849
▁Conte	-11.2853
▁téene	-11.2858
portion	-11.2859
ini	-11.2861
yaam	-11.2862
▁voil	-11.2866
yyi	-11.2866
▁ňax	-11.2871
don	-11.2873
découvrant	-11.2873
▁mbaam	-11.2873
▁Sors	-11.2874
ban	-11.2874
jus	-11.2879
gelaw	-11.2879
▁dëkkoo	-11.2882
▁emmen	-11.29
rain	-11.2904
bra	-11.2909
▁Sà	-11.291
▁foul	-11.291
▁rafetul	-11.2911
▁ñemee	-11.2911
▁sac	-11.2912
bon	-11.2914
itions	-11.2918
sous	-11.2919
▁travaillai	-11.2921
urisé	-11.2923
▁prome	-11.2924
▁dawalkat	-11.2924
▁montré	-11.2926
maam	-11.2931
▁attends	-11.2932
▁neexoon	-11.2934
▁entoure	-11.2942
abit	-11.2944
coutum	-11.2945
▁revien	-11.2951
ammeel	-11.2952
▁laissés	-11.2952
▁miroirs	-11.2952
▁arrêt	-11.2954
▁présidents	-11.2957
▁langue	-11.2958
res	-11.2958
▁voilé	-11.296
▁différents	-11.296
▁prest	-11.2969
ris	-11.297
illes	-11.298
▁ruu	-11.2982
▁Al	-11.2982
ramas	-11.2984
▁hy	-11.2984
▁soos	-11.2984
gén	-11.2997
▁wer	-11.2998
ettes	-11.2999
▁super	-11.3
chaîn	-11.3007
bir	-11.3008
aider	-11.3009
patam	-11.3014
pët	-11.3014
tivement	-11.3015
▁lëpp	-11.302
▁doct	-11.3022
▁Dinañ	-11.3025
▁Way	-11.3027
bba	-11.303
▁xoolin	-11.3034
cier	-11.3036
tées	-11.3037
oyeux	-11.3048
rtal	-11.3049
çai	-11.3049
▁saisi	-11.305
uuti	-11.3053
▁Bërë	-11.3056
▁gen	-11.3061
▁réci	-11.3064
▁meneen	-11.3067
commençait	-11.3071
aññ	-11.3078
▁koň	-11.3079
▁saxaar	-11.308
roduit	-11.3087
nalité	-11.3087
▁sûrs	-11.309
àcc	-11.309
▁Is	-11.3092
▁rawa	-11.3096
oobar	-11.3096
▁Dada	-11.3096
▁rac	-11.31
▁àtt	-11.3103
▁réewam	-11.3111
▁Set	-11.3122
plié	-11.313
▁mbe	-11.3135
▁Nuy	-11.3135
▁Wooy	-11.3137
▁jub	-11.3152
bout	-11.3152
hos	-11.3155
roy	-11.3161
▁puu	-11.3162
▁anti	-11.3162
uň	-11.3165
▁Sin	-11.3174
alheureux	-11.3176
▁bëggé	-11.3178
▁Mer	-11.3178
juumte	-11.3183
▁bleues	-11.3185
▁atroc	-11.3191
▁waxtaane	-11.3192
nqam	-11.3199
àngóor	-11.3214
atique	-11.3219
poto	-11.3219
▁semé	-11.3222
mor	-11.3223
▁teey	-11.3231
▁teqale	-11.3236
▁fouett	-11.3243
▁Tim	-11.3245
▁ressembler	-11.3247
lui	-11.3259
▁Xarit	-11.3261
▁papi	-11.3261
viendra	-11.3262
agaie	-11.3268
▁bëlu	-11.3268
▁violente	-11.3284
▁réserve	-11.3287
allumer	-11.3293
▁lucid	-11.3297
▁cassée	-11.33
▁fat	-11.3301
▁paras	-11.3303
▁déport	-11.3306
àpptoo	-11.3317
▁occidental	-11.3318
▁rassemblé	-11.3326
wó	-11.3331
▁géttu	-11.3333
uy	-11.3341
▁jale	-11.3345
▁brûl	-11.3348
▁autorité	-11.3353
▁roulé	-11.3356
▁dell	-11.3357
ries	-11.336
▁mets	-11.3363
▁permettr	-11.3367
lions	-11.337
gukaay	-11.3386
stem	-11.3397
▁Foor	-11.3407
dol	-11.3409
▁signe	-11.3409
ènes	-11.3412
▁parl	-11.3414
▁dëkkam	-11.3419
▁lor	-11.3421
▁Sam	-11.3423
▁àddinaa	-11.3426
semblé	-11.3441
tueuse	-11.3446
▁jonn	-11.3447
▁lis	-11.3447
ém	-11.3454
évent	-11.3477
ienne	-11.3485
▁risque	-11.3497
▁calcule	-11.3503
▁pil	-11.3505
parts	-11.3509
àppaa	-11.3519
aalif	-11.3526
iens	-11.3535
▁booboo	-11.354
▁Tà	-11.3541
▁Mal	-11.3549
▁Yu	-11.3549
▁têtes	-11.3551
velo	-11.3562
ités	-11.3564
▁tombé	-11.3564
▁fe	-11.3566
▁exa	-11.3574
▁rongé	-11.358
▁désa	-11.3583
aamu	-11.3595
▁pay	-11.3595
▁mujju	-11.3596
ukat	-11.36
▁atam	-11.3602
ration	-11.3604
▁cachée	-11.362
▁morte	-11.362
waas	-11.3623
▁bey	-11.3626
tait	-11.3633
▁carré	-11.3634
▁bols	-11.3637
▁yitte	-11.3641
▁Ara	-11.3643
épar	-11.3645
outils	-11.3647
▁gisu	-11.3649
▁vieil	-11.3649
▁Far	-11.3651
▁masc	-11.3652
▁chefs	-11.3658
endu	-11.3664
▁cere	-11.3668
waaw	-11.3669
apparu	-11.3672
▁refusai	-11.3684
▁pr	-11.3692
ecc	-11.3695
▁entrer	-11.3695
▁ber	-11.3701
▁surviv	-11.371
▁sépare	-11.371
▁statu	-11.3712
▁bru	-11.372
▁connaîtr	-11.3757
ayu	-11.3758
▁waru	-11.3782
▁Tamar	-11.3787
▁tables	-11.38
▁gri	-11.3804
▁consta	-11.3808
anam	-11.3808
▁abri	-11.3832
utour	-11.3836
▁jotu	-11.3842
irland	-11.3843
▁mars	-11.3847
mam	-11.3848
mant	-11.3851
▁bat	-11.3853
▁isolée	-11.3853
▁lek	-11.3854
▁dou	-11.3857
nnu	-11.3861
ofla	-11.3865
▁digal	-11.3895
▁tegal	-11.3898
▁mêle	-11.391
issant	-11.3919
étour	-11.3933
▁mënal	-11.3937
▁déplai	-11.3961
▁cime	-11.3968
apporte	-11.3969
suite	-11.398
▁Hu	-11.3984
▁conçues	-11.3999
▁mé	-11.4
encé	-11.4005
▁reflétai	-11.4019
no	-11.4027
▁gain	-11.4029
▁rois	-11.4033
ki	-11.4039
▁senn	-11.4051
nati	-11.4051
béré	-11.4056
▁discut	-11.4068
▁hant	-11.4069
int	-11.4082
isée	-11.4083
pon	-11.4096
ge	-11.4096
▁Xee	-11.4101
eh	-11.4141
gor	-11.4153
▁naaw	-11.4168
énué	-11.4184
prenant	-11.421
▁mbu	-11.4223
range	-11.4238
oŋŋ	-11.4248
rac	-11.4249
▁joxe	-11.426
▁defoon	-11.4262
▁animal	-11.4262
▁saan	-11.4265
▁connus	-11.4271
▁supp	-11.4289
▁irréel	-11.4307
paraître	-11.4312
▁tendu	-11.4313
▁dieux	-11.4317
▁sér	-11.4326
giiru	-11.433
▁Mëne	-11.4335
▁kaay	-11.4335
▁layu	-11.435
▁amee	-11.4367
▁allai	-11.4369
▁pâ	-11.4369
andi	-11.4392
anche	-11.4394
▁naax	-11.4401
isoŋ	-11.4401
▁rassembl	-11.4428
▁institu	-11.4436
▁entourée	-11.4443
▁étalée	-11.445
▁pensée	-11.4453
▁safatu	-11.4457
tëx	-11.4465
chent	-11.4467
▁machette	-11.4474
adolescent	-11.4476
▁solu	-11.4509
▁consult	-11.451
ides	-11.451
nstruction	-11.4517
lets	-11.4529
▁jam	-11.4532
▁gàñ	-11.4533
▁immobil	-11.4564
ullee	-11.4578
alee	-11.4589
explose	-11.4598
aaral	-11.4619
▁représent	-11.4628
▁num	-11.4632
▁yàkk	-11.4635
▁jëw	-11.4637
nég	-11.4719
▁indig	-11.472
roc	-11.4721
adresse	-11.4722
▁taf	-11.4726
venue	-11.4729
▁ëppal	-11.4735
rée	-11.4736
ements	-11.4737
nté	-11.4757
▁gas	-11.476
▁exil	-11.4763
▁seeti	-11.4764
▁habite	-11.4772
▁Àll	-11.4788
▁ndugge	-11.4801
isé	-11.4809
▁sent	-11.4814
ettali	-11.4827
bbi	-11.4833
▁mâ	-11.4837
▁furi	-11.4839
▁Tama	-11.4862
provision	-11.4864
▁Pé	-11.4874
eeru	-11.4878
▁prête	-11.4884
▁paj	-11.49
oko	-11.4907
▁chante	-11.4913
her	-11.4922
ache	-11.4923
ert	-11.4924
hameaux	-11.4926
▁tasa	-11.4948
▁puso	-11.4949
mêmes	-11.4954
▁jus	-11.4954
iyee	-11.4969
▁see	-11.4982
▁évi	-11.4999
▁valai	-11.5009
assi	-11.5009
aaki	-11.5012
gra	-11.5025
▁poussé	-11.5038
▁Sig	-11.505
▁doxale	-11.5058
▁naturel	-11.5066
▁résiste	-11.5069
▁découvr	-11.508
▁Lé	-11.5087
▁poissons	-11.5093
▁waxin	-11.5098
▁bëggu	-11.5103
▁jaare	-11.5103
gnent	-11.5112
▁termina	-11.512
▁Jamm	-11.5129
rg	-11.5132
▁Sé	-11.5152
ments	-11.5152
▁guus	-11.5166
échan	-11.5167
ncer	-11.5169
rale	-11.5175
ali	-11.5232
lise	-11.5234
▁ubbee	-11.524
▁vrais	-11.5263
▁poli	-11.527
▁villes	-11.5278
oyal	-11.5318
ass	-11.5318
▁environn	-11.5354
▁nationali	-11.5362
▁revi	-11.5383
▁Nde	-11.5421
▁déeg	-11.5452
ument	-11.5459
▁voyager	-11.5478
identi	-11.5491
né	-11.5496
évit	-11.5508
▁veni	-11.5538
▁mois	-11.5548
▁mod	-11.5586
opér	-11.5603
ielle	-11.5629
▁aube	-11.5644
▁xoo	-11.5671
▁embras	-11.568
▁recouvr	-11.5683
atle	-11.5691
▁malle	-11.5703
qui	-11.5712
▁ñañ	-11.5727
xcuse	-11.5753
éeg	-11.5803
uuf	-11.5809
▁fri	-11.5823
▁magi	-11.5836
▁souffre	-11.5839
▁sin	-11.588
mente	-11.5887
fil	-11.5901
▁nib	-11.5904
▁final	-11.5909
oulever	-11.5919
dd	-11.593
magul	-11.5938
▁paroi	-11.5954
▁kar	-11.5974
▁dalu	-11.5976
ssés	-11.5988
mou	-11.5991
▁dés	-11.5997
ëer	-11.6008
▁fissur	-11.6072
▁perçoi	-11.6161
ppe	-11.6202
▁rentr	-11.6208
ice	-11.6216
ig	-11.6262
cre	-11.6264
rigue	-11.6276
▁daay	-11.629
▁mani	-11.6342
▁Rid	-11.6371
▁paresse	-11.6384
▁kur	-11.6385
ouché	-11.6387
▁é	-11.6396
▁tamba	-11.6402
bill	-11.6413
accompagner	-11.6441
▁porté	-11.6459
▁perç	-11.647
âch	-11.647
mine	-11.6503
▁Pe	-11.6508
bii	-11.6511
réelle	-11.6512
ewande	-11.6514
id	-11.6604
ind	-11.6613
amin	-11.663
▁confin	-11.6654
▁irri	-11.6669
▁suffisa	-11.6673
saan	-11.6695
▁ňe	-11.6699
▁tooge	-11.6726
▁sun	-11.6734
▁chauffe	-11.6769
ox	-11.68
▁entr	-11.6801
iger	-11.6822
voi	-11.6822
▁Gaa	-11.6825
uur	-11.6831
cro	-11.6873
reuse	-11.6875
▁pur	-11.6887
▁Sene	-11.69
▁Boy	-11.6932
▁suit	-11.6936
âle	-11.6963
▁continue	-11.6964
boute	-11.6998
précise	-11.7005
▁pi	-11.7016
rukaayam	-11.7029
▁manu	-11.7035
ëb	-11.7057
ute	-11.7073
bidaa	-11.7106
gir	-11.7137
ñoom	-11.7164
▁o	-11.7171
ddaay	-11.7217
▁tëw	-11.7218
▁découvre	-11.7225
▁reewan	-11.7229
ask	-11.7246
▁bëtt	-11.7249
▁ennu	-11.7259
ànk	-11.7261
ooj	-11.7267
▁ind	-11.7272
uwul	-11.7292
ha	-11.7295
baab	-11.7296
▁tourne	-11.7356
ères	-11.7373
jour	-11.7373
▁rassemble	-11.7382
▁Bar	-11.7389
reux	-11.7431
che	-11.7454
aate	-11.7465
óobu	-11.7466
yit	-11.7469
ilis	-11.7487
ause	-11.7505
▁ins	-11.751
ieur	-11.7511
▁Gej	-11.7513
alistes	-11.754
ab	-11.7544
termin	-11.7595
▁occup	-11.76
ãs	-11.7602
▁sorc	-11.7604
ball	-11.7614
▁dépo	-11.7622
esse	-11.7622
▁sour	-11.7625
jort	-11.7626
atu	-11.7646
osse	-11.7677
eexul	-11.7708
quante	-11.7727
▁Mel	-11.7758
▁terewu	-11.776
▁defaral	-11.7761
cul	-11.777
▁parla	-11.7801
ervent	-11.7801
àttu	-11.7802
bër	-11.7856
▁malheur	-11.7859
▁Ke	-11.786
▁paysan	-11.7868
éch	-11.7869
▁Deñ	-11.7876
▁cache	-11.7892
ngoo	-11.7902
sés	-11.7907
goneem	-11.793
▁canc	-11.7931
▁aventur	-11.7937
▁sembl	-11.795
▁ňaa	-11.7999
▁Nj	-11.8001
yé	-11.8014
▁gà	-11.8024
▁xul	-11.8028
laient	-11.8034
rions	-11.8034
kub	-11.8038
ttali	-11.8044
▁circul	-11.8062
▁ve	-11.8063
com	-11.8104
ala	-11.8108
dresse	-11.8111
▁taabalu	-11.812
▁jànqu	-11.8125
nées	-11.8177
ienvenue	-11.8229
▁Masu	-11.8247
▁muuroo	-11.8256
▁lance	-11.827
ibbisi	-11.8275
ler	-11.8302
▁tombe	-11.8303
ies	-11.832
▁soriwu	-11.8346
▁rép	-11.835
▁jàlle	-11.8351
▁ragale	-11.8358
kii	-11.8375
ànte	-11.838
▁but	-11.8391
siye	-11.8395
igné	-11.8409
▁gaar	-11.8426
mple	-11.8454
▁paraîtr	-11.8467
▁ndon	-11.8489
onni	-11.8496
iň	-11.8564
inam	-11.8566
jub	-11.8612
struction	-11.8621
▁explos	-11.8622
immobilis	-11.8624
mbi	-11.8638
tri	-11.8655
▁nda	-11.8667
ac	-11.8677
àññ	-11.8701
his	-11.8709
ut	-11.8722
liques	-11.8734
▁tac	-11.8734
airs	-11.8744
▁adolescen	-11.8748
ndé	-11.8751
▁passée	-11.8753
saň	-11.8798
▁Ha	-11.8815
▁chant	-11.8847
▁mo	-11.8856
couvrir	-11.8915
▁pen	-11.8919
▁irré	-11.8935
▁fir	-11.896
▁jànge	-11.8968
appren	-11.9016
▁aille	-11.9034
▁lourd	-11.9086
▁opeere	-11.91
▁mujj	-11.9113
lë	-11.9116
individus	-11.9135
ron	-11.9139
por	-11.9141
▁rencontra	-11.9142
▁hi	-11.9154
rête	-11.9165
▁bokku	-11.9207
ise	-11.9235
▁mës	-11.9249
▁Jon	-11.9257
▁vente	-11.9277
▁tabaxi	-11.9334
ippi	-11.9334
gh	-11.9343
rand	-11.9346
allait	-11.9352
▁tase	-11.9356
cide	-11.9365
aley	-11.9409
xal	-11.9415
▁refl	-11.943
▁change	-11.9438
chercher	-11.9481
yonn	-11.9485
▁Européen	-11.9514
▁coutu	-11.9549
▁dér	-11.9565
riti	-11.9584
assoupi	-11.9589
▁Bule	-11.9598
▁kote	-11.9599
▁retir	-11.96
èvre	-11.9616
fe	-11.9636
landaise	-11.9637
iété	-11.9647
▁capture	-11.9654
amp	-11.9686
impu	-11.9702
àkkal	-11.9711
▁Dog	-11.9712
ncé	-11.9724
envahissai	-11.9731
▁entra	-11.9754
rich	-11.9759
▁trous	-11.9768
attu	-11.9772
▁ng	-11.9792
▁loxoo	-11.9796
▁lekke	-11.9813
▁nombr	-11.9844
tère	-11.9883
▁appar	-11.9906
ident	-11.9922
ewwi	-11.9976
▁jaf	-11.9983
▁tefesu	-11.9986
njaay	-11.9988
ganu	-12.0003
▁énorm	-12.0004
▁touche	-12.001
parable	-12.0012
leçons	-12.0014
neen	-12.0016
roit	-12.002
▁lave	-12.0048
goon	-12.0054
▁souhait	-12.0084
marin	-12.0106
▁bal	-12.0127
nions	-12.0143
▁senti	-12.0165
▁arriva	-12.0195
▁dév	-12.02
▁aperçoi	-12.0201
óom	-12.0233
vé	-12.0246
▁calcul	-12.025
ume	-12.0287
éria	-12.0288
vivre	-12.029
▁yakk	-12.0293
▁risqu	-12.0293
▁Tàm	-12.0313
indiffér	-12.033
net	-12.0333
ctif	-12.0333
amu	-12.0334
entraîn	-12.0338
ssé	-12.0344
exerc	-12.0387
lit	-12.0401
▁boob	-12.0418
iw	-12.0426
exist	-12.0435
cui	-12.0442
▁directe	-12.0456
▁wéer	-12.0456
▁don	-12.0456
aut	-12.0462
gul	-12.0464
▁Wo	-12.0468
▁cro	-12.047
▁comp	-12.0496
bes	-12.0523
▁Fr	-12.0525
▁dégge	-12.0537
àq	-12.0562
▁répar	-12.0567
of	-12.0575
▁gétt	-12.058
bul	-12.0604
▁tasee	-12.0619
onde	-12.0684
uill	-12.0697
enferm	-12.0703
unique	-12.0716
▁nëwu	-12.0732
emul	-12.0738
▁paraissai	-12.0752
▁sau	-12.0753
▁fouettai	-12.0759
▁préc	-12.0763
ria	-12.0775
▁lançai	-12.0787
imagin	-12.0789
lles	-12.079
iki	-12.0796
ànq	-12.0823
ost	-12.0831
mbës	-12.0836
▁coloni	-12.0856
illants	-12.086
mée	-12.0864
▁pourrai	-12.0867
▁excu	-12.0871
▁direct	-12.0879
tière	-12.0883
ieux	-12.0884
▁kaasam	-12.0886
aloom	-12.0887
▁ngonee	-12.0892
▁poti	-12.0896
▁bël	-12.0912
▁reew	-12.0916
arden	-12.0937
▁préféra	-12.0938
rne	-12.0944
réol	-12.0964
roces	-12.0972
ça	-12.0977
▁manifeste	-12.0996
ques	-12.1013
roog	-12.1017
gner	-12.102
▁Jé	-12.1026
▁dépla	-12.1057
ouvrir	-12.1063
céde	-12.1075
agère	-12.1103
▁jull	-12.1134
waal	-12.1135
▁ñj	-12.114
ances	-12.1151
▁ŋa	-12.1163
rine	-12.1188
▁nourris	-12.1204
stère	-12.1214
▁Njii	-12.122
ernie	-12.1222
▁creu	-12.1227
▁waroo	-12.1233
aînés	-12.1245
▁superf	-12.1248
posés	-12.125
v	-12.1257
pptoo	-12.1257
oux	-12.1262
umés	-12.1266
▁njii	-12.1269
yard	-12.1274
▁pe	-12.1275
▁bokkoo	-12.1278
sinu	-12.128
nesbu	-12.128
kim	-12.1285
▁guid	-12.1286
▁dépl	-12.1306
posées	-12.1311
▁mang	-12.1312
▁fâcha	-12.1336
téri	-12.1338
duit	-12.1346
cor	-12.1352
leb	-12.1353
eykat	-12.1365
▁gaynd	-12.1367
▁croie	-12.1432
arro	-12.1435
▁extra	-12.1442
▁réel	-12.1449
laire	-12.1467
hanti	-12.1474
rique	-12.1481
ivr	-12.1484
▁monte	-12.1497
met	-12.1498
▁ñaare	-12.1503
▁Namm	-12.1508
ajouta	-12.1511
écha	-12.1512
kale	-12.153
▁amen	-12.154
ignor	-12.1545
▁ray	-12.1552
itam	-12.1552
▁exemp	-12.1577
óf	-12.1581
bord	-12.1582
exprim	-12.1589
▁somm	-12.1591
limité	-12.1594
abi	-12.1598
▁yéen	-12.1606
▁assise	-12.1607
angu	-12.1612
▁ndée	-12.1618
▁arrach	-12.1631
▁fatal	-12.166
pés	-12.1663
▁Mb	-12.1665
▁éclate	-12.17
out	-12.1718
vre	-12.1737
emporter	-12.1739
▁foto	-12.1744
▁descend	-12.1757
elaw	-12.1759
cad	-12.1761
chées	-12.1767
▁particulière	-12.1767
▁aura	-12.1772
▁insoucian	-12.178
▁fédéral	-12.1789
▁profond	-12.1791
meri	-12.1792
▁aff	-12.1803
î	-12.1808
ô	-12.1841
trict	-12.1843
▁norma	-12.1845
pai	-12.1848
ciné	-12.1854
villé	-12.1877
vaincre	-12.1877
▁jigé	-12.1881
▁attrap	-12.1896
ëy	-12.1898
▁tourn	-12.19
av	-12.1902
mmee	-12.1903
robe	-12.1906
▁patt	-12.191
naissent	-12.1914
merge	-12.1925
▁auxquel	-12.1928
▁cann	-12.1946
▁sonde	-12.1951
nañu	-12.1959
▁fon	-12.1961
cade	-12.1969
cères	-12.197
▁Gó	-12.1983
▁étrang	-12.1989
viennent	-12.1989
wii	-12.1994
uri	-12.1997
▁riv	-12.2008
▁empi	-12.201
ssorti	-12.2011
▁survi	-12.2013
stic	-12.2014
▁tremp	-12.2022
aree	-12.2025
▁organis	-12.2037
▁tollo	-12.2041
▁upp	-12.2047
▁anecdot	-12.2053
▁goyav	-12.2053
cho	-12.2067
▁tourné	-12.2074
op	-12.2078
In	-12.2083
▁plac	-12.2084
rrache	-12.2088
éclair	-12.2089
objet	-12.2089
▁insens	-12.2095
ott	-12.2099
▁marqu	-12.2099
▁voyag	-12.21
ancien	-12.2108
▁lox	-12.2118
▁rempla	-12.212
▁Wil	-12.2126
▁perdu	-12.2134
oritaire	-12.2138
më	-12.2141
ayloo	-12.2142
▁sukkandi	-12.2147
ssante	-12.215
pé	-12.2154
ailli	-12.2156
▁prom	-12.2157
▁souve	-12.2163
stricts	-12.2168
▁désespéran	-12.2175
imité	-12.2178
échir	-12.2178
olu	-12.2186
gne	-12.2186
odes	-12.2186
onné	-12.219
bib	-12.2192
▁Ñooñ	-12.2208
dent	-12.2211
óot	-12.2214
nant	-12.2215
struct	-12.2215
▁àngal	-12.2219
machi	-12.2219
espérance	-12.2221
cax	-12.2225
ercé	-12.2228
arade	-12.2233
puis	-12.2235
extr	-12.2235
Mah	-12.2236
▁plain	-12.2238
çu	-12.224
aventur	-12.2241
Ele	-12.2241
neuses	-12.2243
embre	-12.2246
▁obséd	-12.2246
▁explo	-12.2247
▁débar	-12.225
échappe	-12.2254
▁Niserya	-12.2256
▁séc	-12.2258
▁mànga	-12.2261
▁arme	-12.2268
▁waax	-12.2269
eff	-12.2269
anguie	-12.2272
isante	-12.2273
▁propr	-12.2274
import	-12.2275
bou	-12.2276
comp	-12.2277
Gol	-12.2278
▁oreille	-12.2278
Africa	-12.2281
▁terr	-12.2282
énk	-12.2282
emporte	-12.2282
habituelle	-12.2284
▁kilif	-12.2284
administrati	-12.2286
nouvel	-12.2287
Ma	-12.2288
inspir	-12.2289
▁Dë	-12.2289
▁cultiv	-12.2298
▁instinct	-12.23
mobilisé	-12.23
▁administrateur	-12.23
▁bouclier	-12.23
▁prospère	-12.23
▁secret	-12.23
▁ép	-12.2301
▁conserv	-12.2302
nombr	-12.2303
▁congé	-12.2308
adolescen	-12.231
face	-12.231
R	-12.2311
écrit	-12.2312
▁gilet	-12.2312
médi	-12.2314
▁palmier	-12.2317
▁vaccin	-12.2317
▁proch	-12.2319
seeti	-12.2324
▁secour	-12.2324
▁sœur	-12.2325
arrive	-12.2327
fond	-12.2327
▁hamac	-12.2329
forme	-12.2329
apportai	-12.2329
▁wo	-12.2331
▁depui	-12.2333
▁heur	-12.2334
▁palme	-12.2334
tombe	-12.2334
cache	-12.2335
▁comprend	-12.2336
néeg	-12.2337
vu	-12.2338
▁appri	-12.2338
L	-12.2338
óotal	-12.2339
▁volet	-12.2339
▁kó	-12.2339
njàpp	-12.2341
attrape	-12.2341
accouchement	-12.2341
élevage	-12.2341
européenne	-12.2341
exceptionnel	-12.2341
immensité	-12.2341
infirmiers	-12.2341
instrument	-12.2341
expérience	-12.2341
lançant	-12.2341
confortable	-12.2341
douze	-12.2341
poules	-12.2341
illusion	-12.2341
suivant	-12.2341
étude	-12.2341
position	-12.2341
▁Mill	-12.2342
appel	-12.2342
exact	-12.2342
kersa	-12.2343
mise	-12.2343
▁élev	-12.2344
lunk	-12.2344
▁transform	-12.2345
▁téen	-12.2346
Mal	-12.2347
▁xo	-12.2349
animal	-12.2349
quaient	-12.235
jo	-12.235
stè	-12.235
inqui	-12.235
plat	-12.2351
pla	-12.2353
▁ë	-12.2353
ordinaire	-12.2354
respect	-12.2354
siècle	-12.2354
effray	-12.2354
niróo	-12.2354
mètres	-12.2356
▁yeg	-12.2357
aaje	-12.2357
oreiller	-12.2357
hô	-12.2359
peint	-12.236
laissé	-12.236
libre	-12.236
apparaissent	-12.236
waxee	-12.2361
étrange	-12.2361
anima	-12.2362
Es	-12.2362
panier	-12.2364
tawat	-12.2364
wóolu	-12.2364
naaxi	-12.2365
tements	-12.2365
existait	-12.2365
avance	-12.2365
▁prépar	-12.2366
chemin	-12.2366
Obudu	-12.2366
dain	-12.2366
exc	-12.2366
Ki	-12.2367
vêtu	-12.2367
Un	-12.2368
sàmm	-12.2368
▁termite	-12.2368
pied	-12.2368
cœur	-12.2368
parents	-12.2369
nijaay	-12.2369
parlé	-12.2369
petits	-12.2369
viennes	-12.237
bres	-12.237
në	-12.237
ville	-12.237
cris	-12.237
▁escal	-12.2371
toujours	-12.2371
Bamendaa	-12.2371
▁temp	-12.2371
Frãs	-12.2372
monté	-12.2372
Par	-12.2372
Ibo	-12.2372
vécu	-12.2372
poisson	-12.2373
Ni	-12.2373
blanc	-12.2373
chambre	-12.2373
yàgg	-12.2373
trois	-12.2373
dessin	-12.2374
Góo	-12.2374
lâche	-12.2374
femmes	-12.2374
Mon	-12.2374
désir	-12.2375
Afrig	-12.2375
géey	-12.2375
▁tapp	-12.2376
En	-12.2376
bëggée	-12.2376
goût	-12.2376
thé	-12.2376
étage	-12.2377
échelle	-12.2377
cours	-12.2377
Alma	-12.2377
comme	-12.2377
ainsi	-12.2378
▁invent	-12.2378
D	-12.2379
dund	-12.2379
ouillée	-12.238
onstru	-12.238
chef	-12.238
ddoo	-12.2381
marché	-12.2381
yaram	-12.2383
▁nonchalant	-12.2383
donné	-12.2383
alors	-12.2383
▁portrait	-12.2384
peut	-12.2384
aperç	-12.2385
rop	-12.2386
taax	-12.2387
fois	-12.2388
laaj	-12.2389
▁montagn	-12.2389
000	-12.239
ggat	-12.239
élém	-12.2391
▁ngon	-12.2391
ssembler	-12.2391
dayo	-12.2391
veux	-12.2392
▁remont	-12.2392
▁équatorial	-12.2392
▁revanch	-12.2392
▁campagn	-12.2392
xumb	-12.2393
ënd	-12.2393
▁personn	-12.2393
▁réveil	-12.2394
▁flot	-12.2395
▁Pas	-12.2395
takk	-12.2395
éloignement	-12.2395
walla	-12.2395
njort	-12.2396
▁màn	-12.2396
▁pétrol	-12.2396
▁gratuit	-12.2398
nangu	-12.2398
rtif	-12.2398
xaar	-12.2399
assiette	-12.2399
▁homm	-12.24
▁polic	-12.24
donc	-12.24
▁brouss	-12.2401
couvrant	-12.2402
▁pilot	-12.2403
écoute	-12.2404
▁Og	-12.2404
▁yónne	-12.2404
angle	-12.2405
▁Mauric	-12.2405
▁teggi	-12.2405
rëdd	-12.2406
sang	-12.2406
▁espéra	-12.2407
bàjj	-12.2407
cu	-12.2408
effa	-12.2409
çon	-12.2409
▁tiss	-12.241
Ab	-12.2413
écess	-12.2415
coté	-12.2416
▁sànnee	-12.2417
teegul	-12.2417
nsectes	-12.2417
▁chev	-12.2418
▁baaraa	-12.2418
▁côt	-12.2418
neus	-12.2419
▁lumineu	-12.2419
tifs	-12.242
▁ràkkaaj	-12.2422
vertes	-12.2422
wàll	-12.2425
dressa	-12.2426
▁modern	-12.2426
▁indépendan	-12.2426
▁industriel	-12.2427
▁officiel	-12.2427
pax	-12.2427
▁tàl	-12.2428
ouch	-12.2428
Ru	-12.2429
accent	-12.2429
issantes	-12.2429
ewuñ	-12.243
▁plat	-12.2431
ceaux	-12.2432
tànk	-12.2432
Mar	-12.2432
poudr	-12.2433
eintes	-12.2433
▁gémmi	-12.2433
harma	-12.2433
ébut	-12.2434
▁craint	-12.2434
deret	-12.2434
élé	-12.2434
asques	-12.2434
▁pleure	-12.2435
êté	-12.2435
oktoor	-12.2436
ëgër	-12.2436
▁saura	-12.2436
▁piste	-12.2436
rnée	-12.2436
▁masqu	-12.2437
stances	-12.2437
▁cord	-12.2437
▁fû	-12.2438
▁yër	-12.2438
▁ragl	-12.2439
ginnaaw	-12.2439
▁jégg	-12.244
▁arb	-12.2441
ibo	-12.2442
àndal	-12.2443
▁reveni	-12.2443
▁insta	-12.2443
▁Office	-12.2444
thm	-12.2444
aurai	-12.2444
tudd	-12.2445
▁remp	-12.2445
êt	-12.2445
▁échapp	-12.2446
▁épais	-12.2447
plu	-12.2448
muur	-12.2448
▁Wiya	-12.2448
skan	-12.2449
▁Yó	-12.2451
▁bàyyeek	-12.2452
affronte	-12.2453
rmite	-12.2453
▁lors	-12.2454
emplissa	-12.2454
jom	-12.2456
▁envoyé	-12.2457
ricot	-12.2457
olents	-12.2458
▁fla	-12.2458
ardées	-12.2458
corpion	-12.2458
ubë	-12.2459
olonial	-12.2459
oups	-12.2459
▁équi	-12.2459
invente	-12.246
nóox	-12.246
ofeel	-12.246
àmbu	-12.2461
▁gëlée	-12.2461
signifia	-12.2461
ançai	-12.2461
omprends	-12.2462
▁archite	-12.2463
samaan	-12.2464
ormais	-12.2464
aoussas	-12.2464
▁franc	-12.2465
▁access	-12.2466
▁partage	-12.2466
▁tonne	-12.2466
nweer	-12.2466
▁Më	-12.2467
exoti	-12.2467
▁précéd	-12.2467
▁ŋgoog	-12.2469
▁repr	-12.2469
major	-12.2469
nkarla	-12.247
▁rap	-12.247
▁accouche	-12.247
exp	-12.247
▁rév	-12.247
▁tàq	-12.2471
ensation	-12.2471
▁impré	-12.2472
ërngal	-12.2472
éggi	-12.2472
▁positi	-12.2473
▁voudrai	-12.2473
pressi	-12.2473
▁jànkontee	-12.2473
▁froi	-12.2474
▁fentaako	-12.2474
▁viol	-12.2474
aqar	-12.2474
▁domesti	-12.2475
▁compren	-12.2475
néegu	-12.2475
▁coute	-12.2475
óobal	-12.2476
vou	-12.2476
▁électri	-12.2476
éedéet	-12.2477
▁mainten	-12.2477
rection	-12.2478
dàqe	-12.2478
emerara	-12.2478
flamm	-12.2478
explosi	-12.2478
gnée	-12.2478
▁kepp	-12.2478
▁móo	-12.2479
aintenant	-12.2479
▁rapproch	-12.2479
▁mesur	-12.2479
▁oublie	-12.2479
hasse	-12.248
▁miné	-12.248
parer	-12.248
laisir	-12.248
▁sculpt	-12.248
oubli	-12.2481
▁wall	-12.2481
remière	-12.2481
neetar	-12.2481
aawtéef	-12.2481
éexlu	-12.2481
▁tó	-12.2481
ànnaay	-12.2482
ëccëg	-12.2482
▁décl	-12.2482
âtiment	-12.2482
vêtement	-12.2482
événement	-12.2482
autori	-12.2482
encontré	-12.2483
▁pessimis	-12.2483
▁éloign	-12.2483
▁relati	-12.2483
suppo	-12.2483
etourne	-12.2483
▁message	-12.2483
ovin	-12.2483
õ	-12.2483
▁sép	-12.2483
▁kéw	-12.2484
allong	-12.2484
▁rê	-12.2484
▁recev	-12.2484
plication	-12.2484
▁Saawusam	-12.2484
mnasti	-12.2484
▁193	-12.2484
àmbaa	-12.2484
▁carross	-12.2484
ssaille	-12.2484
épis	-12.2484
▁tradition	-12.2484
écriv	-12.2484
ccidentaux	-12.2484
îner	-12.2484
ò	-12.2484
employ	-12.2484
▁emplo	-12.2484
$	-12.2484
&	-12.2484
[	-12.2484
]	-12.2484
cepti	-12.2484
etown	-12.2484
répan	-12.2484
°	-12.2484
Ò	-12.2484
í	-12.2484
ā	-12.2484
ń	-12.2484
▁George	-12.2484
écédé	-12.2484
itinéra	-12.2484
90	-12.2484
arché	-12.2484
▁rejoin	-12.2484
▁Kaasa	-12.2484
trave	-12.2484
urgie	-12.2485
ograph	-12.2485
▁piè	-12.2485
fection	-12.2485
▁Génn	-12.2485
▁njabo	-12.2485
▁transp	-12.2485
ilwi	-12.2485
▁lép	-12.2485
coph	-12.2485
uvés	-12.2486
tuellement	-12.2486
▁expé	-12.2486
auteur	-12.2486
ëddoo	-12.2486
longeai	-12.2486
▁ndó	-12.2486
olof	-12.2486
intér	-12.2486
▁Polis	-12.2486
ouge	-12.2486
▁Norm	-12.2486
équent	-12.2486
▁mémo	-12.2486
sionnelle	-12.2486
▁habitant	-12.2487
▁ŋgee	-12.2487
nsulta	-12.2487
▁Abaak	-12.2487
▁choc	-12.2487
vén	-12.2487
wiyaa	-12.2487
▁chauss	-12.2488
wolu	-12.2488
éche	-12.2489
ppatoo	-12.2489
agno	-12.2489
lóo	-12.2489
iroko	-12.2489
▁jàmbu	-12.2489
dox	-12.249
culté	-12.249
phase	-12.249
▁Bëc	-12.249
œuf	-12.2491
olloo	-12.2491
chements	-12.2491
▁transf	-12.2491
▁inspir	-12.2491
▁idé	-12.2491
expl	-12.2492
bites	-12.2492
hett	-12.2492
irgo	-12.2493
▁poitr	-12.2493
▁jëfandiko	-12.2493
▁réali	-12.2493
ogue	-12.2494
clée	-12.2494
ókoo	-12.2494
avenir	-12.2494
▁goutt	-12.2494
fiance	-12.2495
lines	-12.2495
imisme	-12.2495
revi	-12.2495
endance	-12.2495
elloo	-12.2496
lime	-12.2497
ssié	-12.2498
aňoo	-12.2499
▁chan	-12.2499
tard	-12.25
mmiñ	-12.25
▁bâ	-12.25
accessible	-12.25
ppo	-12.2501
afal	-12.2501
balan	-12.2501
▁bëc	-12.2501
▁véri	-12.2501
▁ref	-12.2501
quji	-12.2501
xantu	-12.2502
▁moust	-12.2502
grill	-12.2502
▁bã	-12.2503
▁vaut	-12.2503
issais	-12.2503
taawun	-12.2503
mero	-12.2503
fut	-12.2503
mbarde	-12.2504
doole	-12.2504
▁Vie	-12.2504
▁incon	-12.2504
▁préf	-12.2505
▁Bén	-12.2505
iroir	-12.2505
franchi	-12.2505
konte	-12.2505
artic	-12.2505
aves	-12.2506
fise	-12.2506
njal	-12.2506
raphi	-12.2506
bbale	-12.2508
ciel	-12.2508
éenne	-12.2508
▁Bret	-12.2508
aillé	-12.2508
▁rang	-12.251
▁coh	-12.251
ssez	-12.251
lbati	-12.251
dical	-12.2511
ccabl	-12.2511
iraas	-12.2512
istait	-12.2513
▁wot	-12.2513
dienne	-12.2513
▁transm	-12.2514
nnel	-12.2514
▁raf	-12.2514
cat	-12.2514
feu	-12.2518
blant	-12.2519
▁flan	-12.2519
▁Ija	-12.2519
▁herb	-12.2519
▁wóol	-12.252
ajoom	-12.2521
▁prof	-12.2521
tàn	-12.2522
▁Alse	-12.2522
▁déta	-12.2522
ëro	-12.2523
cident	-12.2523
▁palan	-12.2523
vid	-12.2523
▁clam	-12.2524
àrme	-12.2524
rill	-12.2524
▁yombu	-12.2525
igeria	-12.2527
▁comm	-12.2527
illage	-12.2527
▁confo	-12.2527
▁Casa	-12.2527
sacrée	-12.2527
titude	-12.2528
▁yew	-12.2528
caak	-12.2528
ëcce	-12.2528
ouffant	-12.2529
▁mó	-12.253
ãŋ	-12.253
▁craque	-12.253
acée	-12.2533
gence	-12.2534
éduit	-12.2535
▁chevau	-12.2535
ecte	-12.2536
rences	-12.2536
▁ňà	-12.2536
cukaay	-12.2537
lline	-12.2539
aajuloo	-12.2539
ètre	-12.254
▁Musa	-12.2541
mul	-12.2542
Aba	-12.2543
mbax	-12.2543
bor	-12.2543
▁décou	-12.2544
étho	-12.2544
cifi	-12.2545
▁rej	-12.2547
ñaxtu	-12.2548
diens	-12.255
durcis	-12.2551
bo	-12.2551
▁déch	-12.2553
rrompu	-12.2555
gori	-12.2555
▁ferm	-12.2555
▁gaz	-12.2558
ât	-12.256
iiwaan	-12.256
▁Obu	-12.256
ggatu	-12.2562
▁concer	-12.2563
quée	-12.2565
lations	-12.2565
iyaar	-12.2566
▁ndà	-12.2566
uris	-12.2567
étique	-12.2567
araan	-12.2568
rè	-12.2568
ingt	-12.2569
riir	-12.2569
▁grat	-12.257
gène	-12.2571
habitent	-12.2572
ddo	-12.2572
▁Kab	-12.2574
▁prév	-12.2575
dénk	-12.2575
orat	-12.2576
▁Ex	-12.2578
har	-12.2579
chelle	-12.258
▁déey	-12.2581
reaux	-12.2582
▁Nise	-12.2583
eegul	-12.2583
ficiel	-12.2584
▁enfa	-12.2585
vir	-12.2585
eiller	-12.2586
éreux	-12.2587
aimer	-12.2589
▁Alg	-12.259
ensité	-12.2591
déc	-12.2592
vra	-12.2593
ggoon	-12.2593
lisse	-12.2593
oogu	-12.2595
kkoo	-12.2599
phant	-12.2599
éclairs	-12.2599
uwaal	-12.2601
fique	-12.2602
taires	-12.2602
enfin	-12.2604
pagne	-12.2605
ouer	-12.2605
nérale	-12.2606
fami	-12.2608
▁mous	-12.2609
▁Gau	-12.2609
▁infi	-12.261
▁dev	-12.2612
▁perd	-12.2613
▁Tuba	-12.2613
paraissent	-12.2615
biir	-12.2616
aww	-12.2617
onner	-12.2618
érent	-12.2621
anciens	-12.2622
▁àntu	-12.2623
ouc	-12.2624
▁préte	-12.2626
lee	-12.2627
objets	-12.2628
diku	-12.2628
lusi	-12.2629
▁Nji	-12.2629
urions	-12.2631
oser	-12.2633
▁décha	-12.2633
mirat	-12.2634
lique	-12.2634
bati	-12.2634
bien	-12.2635
étions	-12.2636
▁Aga	-12.2641
ciens	-12.2642
xel	-12.2642
ulóo	-12.2646
tab	-12.265
adeau	-12.2653
cieuse	-12.2654
ssage	-12.2655
▁pét	-12.2655
yoona	-12.2657
ajoo	-12.266
ession	-12.2663
▁plate	-12.2663
▁baar	-12.2664
ndik	-12.2664
terie	-12.2667
▁dëg	-12.2668
▁exer	-12.267
▁Kó	-12.2672
▁pet	-12.2673
▁nouvel	-12.2673
▁éche	-12.2674
maine	-12.2678
ogra	-12.2679
ñet	-12.2682
orp	-12.2682
▁Mbe	-12.2683
të	-12.2683
▁Africa	-12.2684
▁effa	-12.2685
▁administrati	-12.2686
▁tëg	-12.2686
vres	-12.2686
aigu	-12.2687
iennent	-12.2688
maté	-12.2689
cevoir	-12.2692
▁Ac	-12.2694
oration	-12.27
diine	-12.27
affai	-12.2702
▁arg	-12.2704
▁Peu	-12.2706
▁médi	-12.2708
ort	-12.2709
rice	-12.271
▁hô	-12.2712
▁Ñé	-12.2713
▁carre	-12.2713
lotte	-12.2714
arch	-12.2715
erbe	-12.2716
pant	-12.2717
enroul	-12.2719
▁destruct	-12.2719
mettes	-12.2721
néel	-12.2723
Africaine	-12.2725
aawam	-12.2725
gile	-12.273
▁org	-12.273
oute	-12.2731
▁bà	-12.2735
yàcc	-12.2738
chaise	-12.2741
lement	-12.2742
icité	-12.2753
ète	-12.2753
meuse	-12.2757
▁Pala	-12.2757
eksi	-12.2759
urém	-12.2759
jul	-12.2762
rde	-12.2763
xet	-12.2766
▁ñag	-12.2766
aakoon	-12.2767
▁Té	-12.2768
égré	-12.2772
verne	-12.278
iture	-12.2783
ystè	-12.2785
▁Yée	-12.2787
llé	-12.2789
ssim	-12.279
▁couleu	-12.2794
salaam	-12.2796
▁souven	-12.2797
▁déb	-12.2797
ww	-12.2797
ritures	-12.2797
▁achet	-12.2798
arades	-12.2799
▁rà	-12.2802
▁mënu	-12.2802
illonn	-12.2806
ourris	-12.2807
alisme	-12.2809
▁nuage	-12.2811
bóot	-12.2814
▁pie	-12.2815
▁consti	-12.2817
étal	-12.2818
liku	-12.2819
▁habituelle	-12.2824
▁convers	-12.2827
▁foof	-12.283
angl	-12.283
avec	-12.283
neuse	-12.2834
▁naît	-12.2836
él	-12.2851
▁résu	-12.2854
▁Mang	-12.2855
lekk	-12.2856
▁xuu	-12.2863
▁call	-12.2868
litaire	-12.287
▁jàppoo	-12.2877
amba	-12.2878
▁xon	-12.2879
▁rô	-12.2889
nq	-12.2891
hors	-12.2899
▁wé	-12.2899
ppukaayam	-12.29
▁bëm	-12.29
▁exc	-12.2901
▁daŋ	-12.2901
▁gém	-12.2902
gule	-12.2903
ryaa	-12.2911
▁tont	-12.2912
tóo	-12.2912
▁ext	-12.2914
xamu	-12.2914
▁gén	-12.2914
icieux	-12.2918
rable	-12.2919
▁sco	-12.292
assis	-12.292
cine	-12.292
ňaar	-12.2922
▁avion	-12.2926
▁golfe	-12.2928
aasaloo	-12.2932
oppi	-12.2934
▁voulai	-12.2937
kkukaay	-12.2939
glis	-12.2939
lage	-12.2951
hal	-12.2951
exte	-12.2952
▁Sol	-12.2965
ition	-12.2967
tem	-12.2967
▁séch	-12.2975
▁noppale	-12.2985
▁namm	-12.2986
uaires	-12.2996
qal	-12.3
nee	-12.3001
èvres	-12.301
mbe	-12.3012
uettes	-12.3015
ggatoon	-12.3017
▁habitu	-12.3017
▁term	-12.3018
àyyi	-12.3033
▁góo	-12.3047
junniy	-12.3048
▁rais	-12.305
dool	-12.3053
ôn	-12.3054
onfit	-12.3055
leine	-12.3062
ueil	-12.3065
▁Nig	-12.307
mmi	-12.307
ssantes	-12.307
was	-12.3072
▁Mà	-12.3078
cha	-12.3079
usion	-12.3081
▁vac	-12.3083
mbar	-12.3086
jud	-12.3088
cée	-12.3091
jal	-12.3094
cale	-12.3095
▁plai	-12.3096
baree	-12.3101
habits	-12.3102
années	-12.3104
▁tegoo	-12.3105
emment	-12.311
▁xub	-12.311
ró	-12.3111
dante	-12.3112
naan	-12.3119
eetar	-12.3122
▁corn	-12.3132
quette	-12.3136
laires	-12.3138
oulés	-12.3138
antan	-12.314
nyaa	-12.3142
rants	-12.3144
dieux	-12.3147
▁chass	-12.3147
per	-12.3151
guma	-12.3151
▁nap	-12.3153
orant	-12.3154
▁endu	-12.316
▁recon	-12.3161
ives	-12.3163
érer	-12.317
ign	-12.3171
démb	-12.3175
acheté	-12.3182
aalum	-12.3191
▁Lool	-12.3194
▁tuur	-12.3195
ornes	-12.32
inée	-12.3205
kkat	-12.3208
raay	-12.3215
taa	-12.3215
rou	-12.3219
▁jigée	-12.3222
▁doc	-12.3223
▁Ag	-12.3224
▁inex	-12.3226
eňň	-12.3227
añseer	-12.3231
▁poul	-12.3235
▁différente	-12.3239
▁Yé	-12.3243
▁off	-12.3249
▁fanee	-12.325
▁sc	-12.3257
erri	-12.3263
nous	-12.3264
ombreux	-12.3272
▁attach	-12.3276
▁Ch	-12.3277
rru	-12.3289
▁soign	-12.329
▁ñé	-12.3291
andise	-12.3302
érie	-12.3307
▁étendue	-12.3307
obs	-12.3308
ñuul	-12.332
deek	-12.3335
ibaar	-12.3337
yaar	-12.3342
▁Atte	-12.3344
mouch	-12.3359
▁yée	-12.3361
▁exempl	-12.3377
▁moy	-12.3384
anie	-12.3385
gay	-12.3392
ngalee	-12.3402
ñse	-12.3432
Ind	-12.3437
oul	-12.3439
▁colonis	-12.3445
primé	-12.3452
mir	-12.3454
▁baaxoo	-12.3459
lëm	-12.3463
▁cher	-12.3479
phy	-12.3481
á	-13.6297
Z	-13.6298
5	-13.6299
Ë	-13.63
“	-13.6301
Ŋ	-13.6302
6	-13.6303
É	-13.6304
Ó	-13.6305
œ	-13.6306
9	-13.6307
1	-13.6308
H	-13.6309
(	-13.631
–	-13.6311
U	-13.6312
V	-13.6313
À	-13.6314
»	-13.6315
ç	-13.6316
Ñ	-13.6317
Q	-13.6318
Y	-13.6319
X	-13.632
P	-13.6321
E	-13.6322
K	-13.6323
W	-13.6324
ê	-13.6325
T	-13.6326
G	-13.6327
J	-13.6328
B	-13.6329
N	-13.633
S	-13.6331
M	-13.6332
?	-13.6333
!	-13.6334
ë	-13.6335
