{
  "version": "1.0",
  "truncation": null,
  "padding": null,
  "added_tokens": [
    {
      "id": 0,
      "content": "<cls>",
      "single_word": false,
      "lstrip": false,
      "rstrip": false,
      "normalized": false,
      "special": true
    },
    {
      "id": 1,
      "content": "<sep>",
      "single_word": false,
      "lstrip": false,
      "rstrip": false,
      "normalized": false,
      "special": true
    },
    {
      "id": 2,
      "content": "<unk>",
      "single_word": false,
      "lstrip": false,
      "rstrip": false,
      "normalized": false,
      "special": true
    },
    {
      "id": 3,
      "content": "<pad>",
      "single_word": false,
      "lstrip": false,
      "rstrip": false,
      "normalized": false,
      "special": true
    },
    {
      "id": 4,
      "content": "<mask>",
      "single_word": false,
      "lstrip": false,
      "rstrip": false,
      "normalized": false,
      "special": true
    },
    {
      "id": 5,
      "content": "<s>",
      "single_word": false,
      "lstrip": false,
      "rstrip": false,
      "normalized": false,
      "special": true
    },
    {
      "id": 6,
      "content": "</s>",
      "single_word": false,
      "lstrip": false,
      "rstrip": false,
      "normalized": false,
      "special": true
    }
  ],
  "normalizer": {
    "type": "Replace",
    "pattern": {
      "String": " {2,}"
    },
    "content": " "
  },
  "pre_tokenizer": {
    "type": "Metaspace",
    "replacement": "▁",
    "add_prefix_space": true
  },
  "post_processor": null,
  "decoder": {
    "type": "Metaspace",
    "replacement": "▁",
    "add_prefix_space": true
  },
  "model": {
    "type": "Unigram",
    "unk_id": 2,
    "vocab": [
      [
        "<cls>",
        0.0
      ],
      [
        "<sep>",
        0.0
      ],
      [
        "<unk>",
        0.0
      ],
      [
        "<pad>",
        0.0
      ],
      [
        "<mask>",
        0.0
      ],
      [
        "<s>",
        0.0
      ],
      [
        "</s>",
        0.0
      ],
      [
        ",",
        -2.9653858467489567
      ],
      [
        "▁",
        -3.0438493552629993
      ],
      [
        ".",
        -3.42638967638797
      ],
      [
        "s",
        -4.132115412074496
      ],
      [
        "▁de",
        -4.14561586628575
      ],
      [
        "▁la",
        -4.276633445237355
      ],
      [
        "e",
        -4.605082944355028
      ],
      [
        "▁ci",
        -4.712918239528424
      ],
      [
        "y",
        -4.719855607059957
      ],
      [
        "i",
        -4.723072856949859
      ],
      [
        "a",
        -5.009669883462051
      ],
      [
        "u",
        -5.043229189469888
      ],
      [
        "▁a",
        -5.106377079460683
      ],
      [
        "▁les",
        -5.232193589825002
      ],
      [
        "▁à",
        -5.244298087644659
      ],
      [
        "▁mu",
        -5.292958981712804
      ],
      [
        "▁ma",
        -5.352831351460446
      ],
      [
        "r",
        -5.357514701143665
      ],
      [
        "▁des",
        -5.360040724091621
      ],
      [
        "▁qui",
        -5.367178955941302
      ],
      [
        "▁le",
        -5.388370778945188
      ],
      [
        "▁ni",
        -5.389895259037625
      ],
      [
        "!",
        -5.409601817073912
      ],
      [
        "t",
        -5.426791691553969
      ],
      [
        "▁que",
        -5.478743581369197
      ],
      [
        "▁ba",
        -5.486106790579972
      ],
      [
        "▁di",
        -5.4999119250348265
      ],
      [
        "▁et",
        -5.504170291463046
      ],
      [
        "▁du",
        -5.543089212037192
      ],
      [
        "▁na",
        -5.551002116486642
      ],
      [
        "ak",
        -5.5579081846338285
      ],
      [
        "▁pas",
        -5.563964977854085
      ],
      [
        "▁ne",
        -5.57871441707562
      ],
      [
        "▁ko",
        -5.596303693869286
      ],
      [
        "▁un",
        -5.65194223602014
      ],
      [
        "?",
        -5.670780863796817
      ],
      [
        "▁dem",
        -5.671607863960965
      ],
      [
        "▁bi",
        -5.700994580109439
      ],
      [
        "n",
        -5.710738324258369
      ],
      [
        "▁gi",
        -5.711649698309442
      ],
      [
        "▁yi",
        -5.748268227030776
      ],
      [
        "▁dans",
        -5.797298618556003
      ],
      [
        "'est",
        -5.824249251433269
      ],
      [
        "▁ñu",
        -5.878901330642004
      ],
      [
        "▁en",
        -5.883290556967189
      ],
      [
        "l",
        -5.942633790753264
      ],
      [
        "▁yu",
        -5.95834114424467
      ],
      [
        "▁est",
        -5.962322562862155
      ],
      [
        "▁C",
        -6.033241906645289
      ],
      [
        "▁bu",
        -6.037968353702241
      ],
      [
        "▁fa",
        -6.088374555828372
      ],
      [
        "▁woon",
        -6.096379862969589
      ],
      [
        "▁naa",
        -6.117393058197234
      ],
      [
        "▁sama",
        -6.128458354024021
      ],
      [
        "▁seen",
        -6.135035913383519
      ],
      [
        "▁te",
        -6.146040994136973
      ],
      [
        "et",
        -6.156342395706337
      ],
      [
        "▁pour",
        -6.158799009672449
      ],
      [
        ":",
        -6.21662240622803
      ],
      [
        "▁daan",
        -6.222411836200745
      ],
      [
        "▁qu'il",
        -6.24830081470544
      ],
      [
        "c",
        -6.261709259441902
      ],
      [
        "oon",
        -6.275220660243741
      ],
      [
        "une",
        -6.28149494702778
      ],
      [
        "▁je",
        -6.30250234954908
      ],
      [
        "▁sa",
        -6.304271110215179
      ],
      [
        "▁ce",
        -6.313565030061481
      ],
      [
        "▁ŋga",
        -6.32011209013955
      ],
      [
        "▁au",
        -6.321139263732311
      ],
      [
        "▁ca",
        -6.321837150666272
      ],
      [
        "▁doon",
        -6.328008817612312
      ],
      [
        "k",
        -6.33694943118359
      ],
      [
        "▁par",
        -6.361698275337624
      ],
      [
        "é",
        -6.383096532901091
      ],
      [
        "▁lu",
        -6.391767783509632
      ],
      [
        "▁mon",
        -6.400783791954119
      ],
      [
        "à",
        -6.404120203576263
      ],
      [
        "ent",
        -6.422079527065029
      ],
      [
        "▁père",
        -6.427087647062308
      ],
      [
        "▁vu",
        -6.448923527492057
      ],
      [
        "▁ngi",
        -6.469987570900694
      ],
      [
        "▁leen",
        -6.470449057689189
      ],
      [
        "le",
        -6.478166657213322
      ],
      [
        "▁Baay",
        -6.487103632478596
      ],
      [
        "▁il",
        -6.491274320631209
      ],
      [
        "▁Je",
        -6.496148875368723
      ],
      [
        "▁mi",
        -6.511683531635271
      ],
      [
        "▁wax",
        -6.517210628355575
      ],
      [
        "▁l'",
        -6.527816060550439
      ],
      [
        "▁sur",
        -6.566810808026104
      ],
      [
        "▁Afrig",
        -6.581825859137884
      ],
      [
        "▁été",
        -6.5818272806227425
      ],
      [
        "al",
        -6.592746528347997
      ],
      [
        "am",
        -6.600096212844087
      ],
      [
        "es",
        -6.608461821754699
      ],
      [
        "er",
        -6.630168945163764
      ],
      [
        "▁ave",
        -6.634990268172881
      ],
      [
        "▁c",
        -6.636399045590385
      ],
      [
        "▁ya",
        -6.636516357633234
      ],
      [
        "▁Gis",
        -6.641493431758265
      ],
      [
        "▁homme",
        -6.647396099553854
      ],
      [
        "▁sont",
        -6.651789380718356
      ],
      [
        "▁son",
        -6.657332731630009
      ],
      [
        "▁se",
        -6.668675841207418
      ],
      [
        "▁nit",
        -6.6771943527878355
      ],
      [
        "▁sax",
        -6.6782052673217915
      ],
      [
        "m",
        -6.681378703056144
      ],
      [
        "▁Tu",
        -6.68697733819357
      ],
      [
        "ait",
        -6.715677044341164
      ],
      [
        "▁L'homme",
        -6.719869124080217
      ],
      [
        "▁d",
        -6.72530776497351
      ],
      [
        "▁lui",
        -6.746023372821798
      ],
      [
        "«",
        -6.7597935615024145
      ],
      [
        "▁ay",
        -6.763246014561586
      ],
      [
        "g",
        -6.779008711674593
      ],
      [
        "▁tu",
        -6.78436109528076
      ],
      [
        "▁gis",
        -6.803633354697952
      ],
      [
        "▁nu",
        -6.817059964179425
      ],
      [
        "▁J'a",
        -6.827552100948286
      ],
      [
        "ul",
        -6.827854894556928
      ],
      [
        "▁ñëw",
        -6.8314653234888425
      ],
      [
        "▁moo",
        -6.833083908993694
      ],
      [
        "▁su",
        -6.837158425299963
      ],
      [
        "les",
        -6.837700769979985
      ],
      [
        "▁si",
        -6.841316145073857
      ],
      [
        "▁moom",
        -6.856222534998937
      ],
      [
        "que",
        -6.857723426179043
      ],
      [
        "▁d'un",
        -6.8623089285565175
      ],
      [
        "▁avait",
        -6.882794626388727
      ],
      [
        "▁nous",
        -6.889830572739714
      ],
      [
        "▁kenn",
        -6.901141310278305
      ],
      [
        "▁plus",
        -6.9044075159469305
      ],
      [
        "▁li",
        -6.9306677583700065
      ],
      [
        "b",
        -6.946097564809707
      ],
      [
        "▁benn",
        -6.951998115577078
      ],
      [
        "▁tout",
        -6.955304866638766
      ],
      [
        "▁góor",
        -6.962476814309841
      ],
      [
        "nt",
        -6.9657599619000194
      ],
      [
        "▁l'homme",
        -6.966172160587147
      ],
      [
        "▁mel",
        -6.967680133332955
      ],
      [
        "it",
        -6.9843176326134415
      ],
      [
        "▁am",
        -6.987683815700925
      ],
      [
        "▁biir",
        -6.992678594144889
      ],
      [
        "▁enfants",
        -6.998434630782855
      ],
      [
        "-",
        -7.0013926558799575
      ],
      [
        "il",
        -7.0054017334462335
      ],
      [
        "▁l",
        -7.006684887716997
      ],
      [
        "▁ku",
        -7.008853608857975
      ],
      [
        "▁n",
        -7.012444335158364
      ],
      [
        "▁nga",
        -7.025377047987959
      ],
      [
        "▁may",
        -7.039055859994459
      ],
      [
        "▁Ci",
        -7.0475354833223225
      ],
      [
        "▁nag",
        -7.048269560887009
      ],
      [
        "▁s",
        -7.050366048874676
      ],
      [
        "▁autre",
        -7.068405732323971
      ],
      [
        "s.",
        -7.072548956378134
      ],
      [
        "d",
        -7.081688284158776
      ],
      [
        "ment",
        -7.082626682654197
      ],
      [
        "▁parti",
        -7.099618125915382
      ],
      [
        "▁Le",
        -7.099663666444852
      ],
      [
        "▁bëgg",
        -7.10063401826012
      ],
      [
        "▁La",
        -7.11518030638059
      ],
      [
        "ette",
        -7.117968771142327
      ],
      [
        "▁d'",
        -7.12023538296026
      ],
      [
        "▁mère",
        -7.120522146864904
      ],
      [
        "▁ces",
        -7.122911955860286
      ],
      [
        "▁def",
        -7.129765582420223
      ],
      [
        "▁comme",
        -7.138464838588592
      ],
      [
        "▁rekk",
        -7.1490819997515835
      ],
      [
        "▁gu",
        -7.154586591733385
      ],
      [
        "oo",
        -7.159233617897143
      ],
      [
        "▁dara",
        -7.179243596108425
      ],
      [
        "▁nekk",
        -7.185440296010582
      ],
      [
        "x",
        -7.187170152593711
      ],
      [
        "te",
        -7.194836971608255
      ],
      [
        "▁xam",
        -7.1950140904337445
      ],
      [
        "▁dal",
        -7.211183406223399
      ],
      [
        "▁ju",
        -7.222310214970077
      ],
      [
        "ee",
        -7.22269622934267
      ],
      [
        "▁fi",
        -7.223643862598139
      ],
      [
        "▁Su",
        -7.230663110269243
      ],
      [
        "▁ji",
        -7.235502202801708
      ],
      [
        "▁m",
        -7.242387636471229
      ],
      [
        "▁fu",
        -7.248713274309581
      ],
      [
        "▁me",
        -7.252266229904417
      ],
      [
        "▁xale",
        -7.256454637273345
      ],
      [
        "▁mbaa",
        -7.256910001796972
      ],
      [
        "ñ",
        -7.258525260562034
      ],
      [
        "▁san",
        -7.262877666105101
      ],
      [
        "▁ki",
        -7.269378608236292
      ],
      [
        "eneen",
        -7.272766568507161
      ],
      [
        "▁c'est",
        -7.273106124916879
      ],
      [
        "▁moi",
        -7.2736690996124995
      ],
      [
        "▁ndax",
        -7.28950399456955
      ],
      [
        "ant",
        -7.2897175399350855
      ],
      [
        "leurs",
        -7.296178611251528
      ],
      [
        "di",
        -7.306550239136708
      ],
      [
        "▁D",
        -7.306611474261999
      ],
      [
        "▁pays",
        -7.31865859906687
      ],
      [
        "▁ou",
        -7.319427654084982
      ],
      [
        "▁A",
        -7.320934065584428
      ],
      [
        "▁mën",
        -7.327301234271687
      ],
      [
        "▁gën",
        -7.328654419046646
      ],
      [
        "▁dëkk",
        -7.331915091537255
      ],
      [
        "▁était",
        -7.333263807550878
      ],
      [
        "▁même",
        -7.336042399550731
      ],
      [
        "être",
        -7.358249046180233
      ],
      [
        "▁y",
        -7.3631635881360324
      ],
      [
        "▁jigéen",
        -7.367933821305051
      ],
      [
        "on",
        -7.369635832221623
      ],
      [
        "▁ñi",
        -7.369868332259508
      ],
      [
        "ont",
        -7.3719713383381364
      ],
      [
        "o",
        -7.379055946521842
      ],
      [
        "▁maison",
        -7.3924368239827745
      ],
      [
        "▁kër",
        -7.408506418418103
      ],
      [
        "▁lépp",
        -7.409528471263357
      ],
      [
        "ils",
        -7.41079369137089
      ],
      [
        "▁laa",
        -7.434454798869572
      ],
      [
        "▁ŋgi",
        -7.436660285077868
      ],
      [
        "▁xar",
        -7.445362228636891
      ],
      [
        "en",
        -7.448229278283323
      ],
      [
        "▁là",
        -7.45108071088837
      ],
      [
        "ses",
        -7.456598884395499
      ],
      [
        "ay",
        -7.458535893599521
      ],
      [
        "▁Ma",
        -7.46162926131761
      ],
      [
        "woon",
        -7.469881714265249
      ],
      [
        "▁war",
        -7.481422326686181
      ],
      [
        "▁L",
        -7.4823704699457
      ],
      [
        "▁Mu",
        -7.485279936485629
      ],
      [
        "▁baax",
        -7.4861348939903305
      ],
      [
        "▁Li",
        -7.489811180938878
      ],
      [
        "est",
        -7.495460752858522
      ],
      [
        "re",
        -7.497554414613523
      ],
      [
        "▁walla",
        -7.5003478654264715
      ],
      [
        "▁yaay",
        -7.50928609102904
      ],
      [
        "aient",
        -7.51154420443612
      ],
      [
        "▁loolu",
        -7.51199963383567
      ],
      [
        "ŋ",
        -7.512842174270002
      ],
      [
        "▁Te",
        -7.518085680798482
      ],
      [
        "▁Waaye",
        -7.518135608513919
      ],
      [
        "▁parle",
        -7.5227057623662805
      ],
      [
        "▁fait",
        -7.5337388445179085
      ],
      [
        "▁J",
        -7.546652956527748
      ],
      [
        "▁b",
        -7.554659016946857
      ],
      [
        "▁guerre",
        -7.561128185225704
      ],
      [
        ")",
        -7.56470139539573
      ],
      [
        "▁lool",
        -7.5655114840487325
      ],
      [
        "▁demee",
        -7.571301367361203
      ],
      [
        "▁yoon",
        -7.574984692578749
      ],
      [
        "▁yooyu",
        -7.579489906458484
      ],
      [
        "▁vie",
        -7.583168461682448
      ],
      [
        "un",
        -7.583288480386434
      ],
      [
        "▁sunu",
        -7.585214461111857
      ],
      [
        "▁cela",
        -7.585461843639745
      ],
      [
        "▁ñaar",
        -7.591922595990443
      ],
      [
        "▁À",
        -7.5940911658226025
      ],
      [
        "▁temps",
        -7.601913579078939
      ],
      [
        "▁bés",
        -7.603233504037354
      ],
      [
        "▁monde",
        -7.605087635704527
      ],
      [
        "▁ka",
        -7.605773901162359
      ],
      [
        "e.",
        -7.608504489395174
      ],
      [
        "▁mag",
        -7.612930343019493
      ],
      [
        "▁t",
        -7.613428326090704
      ],
      [
        "▁Ogosaa",
        -7.620253057606776
      ],
      [
        "▁celui-là",
        -7.620519612672068
      ],
      [
        "▁G",
        -7.630897355693914
      ],
      [
        "▁man",
        -7.636369959161011
      ],
      [
        "▁leur",
        -7.637476462017
      ],
      [
        "ée",
        -7.642762420365754
      ],
      [
        "▁j'a",
        -7.6429456236939455
      ],
      [
        "▁teg",
        -7.647055794057637
      ],
      [
        "▁mais",
        -7.65382283153512
      ],
      [
        "▁n'a",
        -7.659966651773519
      ],
      [
        "▁partir",
        -7.663906692761213
      ],
      [
        "s-tu",
        -7.664704376838455
      ],
      [
        "▁xel",
        -7.66579924846166
      ],
      [
        "▁gone",
        -7.666125142241061
      ],
      [
        "▁Dem",
        -7.678937751491668
      ],
      [
        "▁Ce",
        -7.679748185901511
      ],
      [
        "▁aussi",
        -7.686776710898934
      ],
      [
        "▁Du",
        -7.687291334974496
      ],
      [
        "▁Mais",
        -7.68767743675137
      ],
      [
        "▁fekk",
        -7.68845833608345
      ],
      [
        "is",
        -7.693968523751909
      ],
      [
        "▁ñoom",
        -7.695554217198561
      ],
      [
        "ci",
        -7.697487016002084
      ],
      [
        "▁jusqu'",
        -7.700205630690489
      ],
      [
        "▁N",
        -7.700368185947629
      ],
      [
        "▁n'",
        -7.704660998800174
      ],
      [
        "▁Tugal",
        -7.7100889891707025
      ],
      [
        "▁yépp",
        -7.711201532317036
      ],
      [
        "ma",
        -7.7137750091333155
      ],
      [
        "▁femme",
        -7.7145377412922365
      ],
      [
        "▁S",
        -7.722094423139393
      ],
      [
        "▁f",
        -7.7259835681547795
      ],
      [
        "▁réew",
        -7.732616638364659
      ],
      [
        "▁doŋŋ",
        -7.7338276357114815
      ],
      [
        "▁mouton",
        -7.735972972277138
      ],
      [
        "▁venu",
        -7.743255881783121
      ],
      [
        "▁cha",
        -7.744160200219608
      ],
      [
        "▁part",
        -7.748640114731057
      ],
      [
        "▁tax",
        -7.750160889470173
      ],
      [
        "▁as",
        -7.754953604908508
      ],
      [
        "▁bopp",
        -7.757640633663468
      ],
      [
        "▁yaram",
        -7.761114470514941
      ],
      [
        "▁doole",
        -7.761811747476697
      ],
      [
        "▁chose",
        -7.764613465207688
      ],
      [
        "▁voilà",
        -7.783241993277938
      ],
      [
        "▁l'intérieur",
        -7.783570930330941
      ],
      [
        "▁lañu",
        -7.7859142208925345
      ],
      [
        "▁dit",
        -7.789354909807226
      ],
      [
        "▁vous",
        -7.79164525506211
      ],
      [
        "▁yëg",
        -7.792516152185968
      ],
      [
        "▁soo",
        -7.793632434169563
      ],
      [
        "yeek",
        -7.794318900888987
      ],
      [
        "▁tey",
        -7.803736460285974
      ],
      [
        "▁jëm",
        -7.808172045007999
      ],
      [
        "▁réer",
        -7.810163558662087
      ],
      [
        "▁(",
        -7.81062190374745
      ],
      [
        "▁koo",
        -7.811046031924658
      ],
      [
        "▁Quel",
        -7.815406318132826
      ],
      [
        "▁it",
        -7.816530870176715
      ],
      [
        "▁ànd",
        -7.816805248302069
      ],
      [
        "ne",
        -7.82732909118109
      ],
      [
        "▁demul",
        -7.829126371746711
      ],
      [
        "la",
        -7.829580373922477
      ],
      [
        "és",
        -7.833017747242717
      ],
      [
        "▁nataal",
        -7.835135094395243
      ],
      [
        "▁boobu",
        -7.836123234168323
      ],
      [
        "▁tou",
        -7.842097463145981
      ],
      [
        "▁En",
        -7.844240289026342
      ],
      [
        "▁O",
        -7.846507638447035
      ],
      [
        "▁k",
        -7.848394141091083
      ],
      [
        "▁amul",
        -7.8521427682814755
      ],
      [
        "▁ñoo",
        -7.854304805457325
      ],
      [
        "▁De",
        -7.86081482871854
      ],
      [
        "▁jamono",
        -7.862115351644158
      ],
      [
        "▁encore",
        -7.8621535112196
      ],
      [
        "▁dont",
        -7.871663097535495
      ],
      [
        "▁p",
        -7.883695638370885
      ],
      [
        "▁ndaw",
        -7.889025294196859
      ],
      [
        "de",
        -7.889484670462049
      ],
      [
        "▁Cet",
        -7.894507709485302
      ],
      [
        "▁Maa",
        -7.897243840600144
      ],
      [
        "▁xare",
        -7.905206166361436
      ],
      [
        "▁àddina",
        -7.911694923380368
      ],
      [
        "▁at",
        -7.912314039752401
      ],
      [
        "▁nañu",
        -7.918441427036501
      ],
      [
        "▁liggéey",
        -7.920843246719746
      ],
      [
        "▁veux",
        -7.92287943933974
      ],
      [
        "▁Moo",
        -7.9307111179399294
      ],
      [
        "tre",
        -7.934937826111467
      ],
      [
        "▁ag",
        -7.935759393222404
      ],
      [
        "▁rien",
        -7.938518105057442
      ],
      [
        "▁bien",
        -7.939440529381729
      ],
      [
        "▁toog",
        -7.941121245667624
      ],
      [
        "▁suuf",
        -7.947545989627434
      ],
      [
        "▁gens",
        -7.949982412904597
      ],
      [
        "ù",
        -7.95798043592575
      ],
      [
        "f",
        -7.959028082675163
      ],
      [
        "▁sous",
        -7.959138306120094
      ],
      [
        "▁ŋgeen",
        -7.962548796338653
      ],
      [
        "▁peut-",
        -7.964830258225238
      ],
      [
        "▁ga",
        -7.965302129105162
      ],
      [
        "▁saa",
        -7.9700994599705774
      ],
      [
        "eek",
        -7.9715243231021296
      ],
      [
        "ngir",
        -7.9715495064823765
      ],
      [
        "▁toi",
        -7.971604982161506
      ],
      [
        ";",
        -7.974442055218963
      ],
      [
        "▁jamais",
        -7.978077060327734
      ],
      [
        "▁doute",
        -7.978132438072958
      ],
      [
        "▁ñépp",
        -7.9782211120596145
      ],
      [
        "▁xarit",
        -7.978552497718537
      ],
      [
        "▁Mon",
        -7.9820090759671345
      ],
      [
        "tu",
        -7.985393010534141
      ],
      [
        "▁ja",
        -7.986361634552699
      ],
      [
        "épp",
        -7.987672443874949
      ],
      [
        "w",
        -7.993988270543113
      ],
      [
        "ions",
        -7.997187652550366
      ],
      [
        "▁naan",
        -7.997235339239602
      ],
      [
        "▁waay",
        -8.002053653994977
      ],
      [
        "▁mes",
        -8.002122403666423
      ],
      [
        "▁wër",
        -8.006465901240666
      ],
      [
        "▁Fa",
        -8.007422988826649
      ],
      [
        "▁corps",
        -8.00978638829166
      ],
      [
        "kat",
        -8.029276679880994
      ],
      [
        "▁àll",
        -8.033495596667741
      ],
      [
        "ce",
        -8.034865972780258
      ],
      [
        "▁bët",
        -8.037886061091408
      ],
      [
        "▁jóge",
        -8.03818824100573
      ],
      [
        "▁mbir",
        -8.040149918026204
      ],
      [
        "▁c'étai",
        -8.041501916375804
      ],
      [
        "▁Kamerun",
        -8.04155864123808
      ],
      [
        "▁léeg-léeg",
        -8.04169954639529
      ],
      [
        "▁dégg",
        -8.043188366023308
      ],
      [
        "▁i",
        -8.045266019837598
      ],
      [
        "▁génn",
        -8.04850647902798
      ],
      [
        "▁dex",
        -8.049676605538238
      ],
      [
        "▁Tubaab",
        -8.05097863861726
      ],
      [
        "ez",
        -8.058669018158689
      ],
      [
        "▁kow",
        -8.068589952691642
      ],
      [
        "▁faire",
        -8.069976690287785
      ],
      [
        "▁da",
        -8.072160498351993
      ],
      [
        "ñu",
        -8.073904144896137
      ],
      [
        "▁l'autre",
        -8.075175271689776
      ],
      [
        "▁foofu",
        -8.075583408812214
      ],
      [
        "▁va",
        -8.078773605782391
      ],
      [
        "▁m'a",
        -8.078841634119561
      ],
      [
        "▁Ñu",
        -8.083175408768582
      ],
      [
        "▁terre",
        -8.087407006623193
      ],
      [
        "▁jour",
        -8.093934008426299
      ],
      [
        "▁Xar",
        -8.096942877107237
      ],
      [
        "▁loxo",
        -8.099591734048865
      ],
      [
        "▁Ku",
        -8.101858830166627
      ],
      [
        "▁Xam",
        -8.10195843186038
      ],
      [
        "▁nañ",
        -8.10570336474918
      ],
      [
        "▁vois",
        -8.10711436863512
      ],
      [
        "▁loin",
        -8.108954104938617
      ],
      [
        "▁quelque",
        -8.114502322268992
      ],
      [
        "ation",
        -8.118437407585514
      ],
      [
        "▁seul",
        -8.131965383095267
      ],
      [
        "▁wi",
        -8.137984066631628
      ],
      [
        "▁waa",
        -8.140541860979232
      ],
      [
        "▁jot",
        -8.142162123712149
      ],
      [
        "▁être",
        -8.142775480673876
      ],
      [
        "▁femmes",
        -8.144174812790553
      ],
      [
        "▁qu'elle",
        -8.145710740111276
      ],
      [
        "▁boppam",
        -8.146345500290835
      ],
      [
        "▁Ndax",
        -8.14636383891053
      ],
      [
        "▁personne",
        -8.152659665257186
      ],
      [
        "▁Si",
        -8.153998459324143
      ],
      [
        "▁dugg",
        -8.154052102685183
      ],
      [
        "▁fois",
        -8.161413854643401
      ],
      [
        "▁néeg",
        -8.161552972263479
      ],
      [
        "▁yaa",
        -8.167791319890393
      ],
      [
        "▁dañu",
        -8.169676002327714
      ],
      [
        "▁F",
        -8.172849936942033
      ],
      [
        "▁Da",
        -8.177200035632127
      ],
      [
        "▁non",
        -8.17894090221536
      ],
      [
        "▁P",
        -8.181096953271966
      ],
      [
        "▁l'Afrique",
        -8.182146434135454
      ],
      [
        "▁Qui",
        -8.185226015366615
      ],
      [
        "▁noonu",
        -8.186998826511775
      ],
      [
        "▁années",
        -8.187741397446427
      ],
      [
        "▁ňu",
        -8.196117893911802
      ],
      [
        "▁itam",
        -8.196802855661105
      ],
      [
        "▁dund",
        -8.199312713469485
      ],
      [
        "▁Lu",
        -8.20483148432467
      ],
      [
        "▁ban",
        -8.205773351442666
      ],
      [
        "▁daw",
        -8.210065463493194
      ],
      [
        "▁Bu",
        -8.218740629592121
      ],
      [
        "▁Loolu",
        -8.220362512218262
      ],
      [
        "▁dëgg",
        -8.222767346769682
      ],
      [
        "▁crois",
        -8.223303318833697
      ],
      [
        "▁Tout",
        -8.223433556985487
      ],
      [
        "▁Sée",
        -8.224202567563534
      ],
      [
        "▁Ogoja",
        -8.22663303470851
      ],
      [
        "▁Afrique",
        -8.228099802504406
      ],
      [
        "▁bañ",
        -8.23189516609736
      ],
      [
        "▁Ni",
        -8.233392034406823
      ],
      [
        "▁avant",
        -8.23488864207722
      ],
      [
        "eux",
        -8.241081947334894
      ],
      [
        "▁garab",
        -8.24668075182305
      ],
      [
        "▁bare",
        -8.246955420652712
      ],
      [
        "▁veut",
        -8.249349641968298
      ],
      [
        "▁M",
        -8.252421520875235
      ],
      [
        "▁peu",
        -8.256825889507084
      ],
      [
        "ni",
        -8.257292943168714
      ],
      [
        "fa",
        -8.258818368628631
      ],
      [
        "▁deux",
        -8.25965618549841
      ],
      [
        "▁tamit",
        -8.260340145250527
      ],
      [
        "▁mas",
        -8.260847931344337
      ],
      [
        "▁moutons",
        -8.263423516737914
      ],
      [
        "▁jooju",
        -8.263692835818649
      ],
      [
        "▁ab",
        -8.263895494462162
      ],
      [
        "▁après",
        -8.265846511989814
      ],
      [
        "▁so",
        -8.27224751094927
      ],
      [
        "▁médecin",
        -8.272772831173636
      ],
      [
        "▁Bi",
        -8.273015470426278
      ],
      [
        "▁wu",
        -8.273649949543508
      ],
      [
        "▁amis",
        -8.274371658554262
      ],
      [
        "▁n'es",
        -8.27476299644907
      ],
      [
        "rès",
        -8.27664985793767
      ],
      [
        "▁solo",
        -8.27757095728287
      ],
      [
        "▁kooku",
        -8.278728252847642
      ],
      [
        "▁re",
        -8.281101656961617
      ],
      [
        "▁jaar",
        -8.290174503818777
      ],
      [
        "ement",
        -8.291469670948079
      ],
      [
        "▁g",
        -8.295260068591515
      ],
      [
        "▁Soo",
        -8.296984110468944
      ],
      [
        "▁ñ",
        -8.29795971685724
      ],
      [
        "▁voir",
        -8.299481607726452
      ],
      [
        "▁fàww",
        -8.301545497509398
      ],
      [
        "▁Cameroun",
        -8.302028531819847
      ],
      [
        "▁gii",
        -8.302462608399232
      ],
      [
        "▁daanaka",
        -8.303339896879065
      ],
      [
        "▁Ba",
        -8.30595387536154
      ],
      [
        "▁ginnaaw",
        -8.308066707943334
      ],
      [
        "▁entre",
        -8.314664918492173
      ],
      [
        "▁maa",
        -8.315432967073674
      ],
      [
        "▁fii",
        -8.323496265620472
      ],
      [
        "at",
        -8.324679623042542
      ],
      [
        "▁ña",
        -8.324804772281192
      ],
      [
        "▁boo",
        -8.335357523322633
      ],
      [
        "▁Vous",
        -8.344918045859377
      ],
      [
        "▁celui",
        -8.345625673018535
      ],
      [
        "▁Am",
        -8.345744624152442
      ],
      [
        "▁matin",
        -8.345820925098272
      ],
      [
        "▁mer",
        -8.347269028606165
      ],
      [
        "▁pouvait",
        -8.34810025066314
      ],
      [
        "▁qu'on",
        -8.348614850323662
      ],
      [
        "▁Xale",
        -8.349736774646013
      ],
      [
        "▁noppi",
        -8.350279422696243
      ],
      [
        "▁j",
        -8.350396685748676
      ],
      [
        "▁yeneen",
        -8.350965961756101
      ],
      [
        "ante",
        -8.3529669886648
      ],
      [
        "ale",
        -8.35464727568161
      ],
      [
        "um",
        -8.354969498859141
      ],
      [
        "▁Sama",
        -8.355904188892007
      ],
      [
        "lu",
        -8.35735615243064
      ],
      [
        "-là",
        -8.363891011071644
      ],
      [
        "▁Sa",
        -8.367400417838656
      ],
      [
        "▁nee",
        -8.36744269640653
      ],
      [
        "▁jël",
        -8.374831421841009
      ],
      [
        "afa",
        -8.375543677770267
      ],
      [
        "▁dé",
        -8.376665241526805
      ],
      [
        "▁dee",
        -8.37871493496625
      ],
      [
        "▁vers",
        -8.379528418836731
      ],
      [
        "▁Que",
        -8.382264125197228
      ],
      [
        "▁taxaw",
        -8.390395244344123
      ],
      [
        "▁France",
        -8.390537619547406
      ],
      [
        "▁yaakaar",
        -8.390666175182732
      ],
      [
        "▁ceux-là",
        -8.390747300991034
      ],
      [
        "▁aucun",
        -8.396935288980824
      ],
      [
        "▁xamul",
        -8.397382457112574
      ],
      [
        "▁sol",
        -8.397717090860851
      ],
      [
        "▁ñuul",
        -8.398728482304438
      ],
      [
        "▁aujourd'hui",
        -8.400608746068883
      ],
      [
        "j",
        -8.40184156806658
      ],
      [
        "▁l'a",
        -8.403603740702778
      ],
      [
        "▁metti",
        -8.404160919671341
      ],
      [
        "▁Na",
        -8.404396529407574
      ],
      [
        "▁gaal",
        -8.407926498931019
      ],
      [
        "▁elle",
        -8.413911132605739
      ],
      [
        "▁fàttaliku",
        -8.416587717876611
      ],
      [
        "▁fas",
        -8.419932157066553
      ],
      [
        "▁kan",
        -8.420912080649817
      ],
      [
        "▁Man",
        -8.425147232879116
      ],
      [
        "▁lan",
        -8.428465616417967
      ],
      [
        "▁qu'",
        -8.430609433430782
      ],
      [
        "▁dañ",
        -8.433847668587179
      ],
      [
        "▁hommes",
        -8.435717009659445
      ],
      [
        "▁Dan",
        -8.4364595770632
      ],
      [
        "▁forêt",
        -8.437937072880626
      ],
      [
        "▁Wànte",
        -8.437968634725973
      ],
      [
        "▁xalaat",
        -8.43820504894645
      ],
      [
        "autour",
        -8.439051451105001
      ],
      [
        "▁devant",
        -8.441240686168921
      ],
      [
        "▁donné",
        -8.445810149331319
      ],
      [
        "▁For",
        -8.448184854033281
      ],
      [
        "▁puis",
        -8.456327959981536
      ],
      [
        "▁travers",
        -8.456917682767747
      ],
      [
        "leen",
        -8.458366504439585
      ],
      [
        "▁bout",
        -8.460965130380796
      ],
      [
        "▁village",
        -8.465151207752369
      ],
      [
        "▁neex",
        -8.466840831656013
      ],
      [
        "▁haut",
        -8.467169575922838
      ],
      [
        "▁case",
        -8.469943520296539
      ],
      [
        "▁tànk",
        -8.471173283802782
      ],
      [
        "▁So",
        -8.4751005442463
      ],
      [
        "▁Ken",
        -8.475608826050763
      ],
      [
        "▁dóor",
        -8.47873452284894
      ],
      [
        "▁nuit",
        -8.479496902658072
      ],
      [
        "▁fan",
        -8.48045404444633
      ],
      [
        "▁autres",
        -8.481646457493806
      ],
      [
        "ook",
        -8.482426510132257
      ],
      [
        "nu",
        -8.484311095643413
      ],
      [
        "▁dana",
        -8.484430743497269
      ],
      [
        "▁xol",
        -8.48627313187146
      ],
      [
        "▁Móris",
        -8.487849179933521
      ],
      [
        "▁là-bas",
        -8.487976223827827
      ],
      [
        "▁soleil",
        -8.488009977848698
      ],
      [
        "▁bii",
        -8.490853149529167
      ],
      [
        "▁Niseryaa",
        -8.491698060561866
      ],
      [
        "▁n'étai",
        -8.492738346573887
      ],
      [
        "▁jeex",
        -8.49365496452371
      ],
      [
        "▁yàgg",
        -8.493874863059766
      ],
      [
        "▁topp",
        -8.496077853375402
      ],
      [
        "▁lañ",
        -8.49844805927715
      ],
      [
        "▁d'autres",
        -8.50109823411265
      ],
      [
        "▁bord",
        -8.51184210371555
      ],
      [
        "▁fin",
        -8.512649505226873
      ],
      [
        "▁leer",
        -8.51455065655421
      ],
      [
        "▁n'avai",
        -8.515685935275057
      ],
      [
        "▁C'étai",
        -8.521737279410695
      ],
      [
        "uñu",
        -8.522610972103287
      ],
      [
        "▁s'",
        -8.522757722352264
      ],
      [
        "▁route",
        -8.525177323299665
      ],
      [
        "▁Quan",
        -8.5263069406225
      ],
      [
        "▁no",
        -8.528933514924962
      ],
      [
        "'exil",
        -8.531694110406741
      ],
      [
        "▁bon",
        -8.539657266208234
      ],
      [
        "▁Nigeria",
        -8.540649781597867
      ],
      [
        "▁souviens",
        -8.540652952514032
      ],
      [
        "▁question",
        -8.540717943080773
      ],
      [
        "▁grand-mère",
        -8.540801408924079
      ],
      [
        "▁quelqu'un",
        -8.540830939897134
      ],
      [
        "▁doom-aadama",
        -8.540844814290415
      ],
      [
        "igéen",
        -8.541035273182278
      ],
      [
        "▁Keneen",
        -8.54134335665129
      ],
      [
        "▁Bansoo",
        -8.542343619873261
      ],
      [
        "▁jaay",
        -8.544189914631325
      ],
      [
        "▁réy",
        -8.54454038528656
      ],
      [
        "▁Yaa",
        -8.547325085397512
      ],
      [
        "▁Waa",
        -8.548446927774982
      ],
      [
        "▁soir",
        -8.549662604828406
      ],
      [
        "▁xonq",
        -8.549971977476682
      ],
      [
        "▁maam",
        -8.550133586520396
      ],
      [
        "in",
        -8.551761884997218
      ],
      [
        "▁guddi",
        -8.551771909457617
      ],
      [
        "▁daal",
        -8.553484318586406
      ],
      [
        "iers",
        -8.554465170584265
      ],
      [
        "▁pu",
        -8.55451965022485
      ],
      [
        "▁sorte",
        -8.55694854142587
      ],
      [
        "eurs",
        -8.558868440129785
      ],
      [
        "▁door",
        -8.559776314490744
      ],
      [
        "▁day",
        -8.561803431437067
      ],
      [
        "▁égaré",
        -8.563761648055301
      ],
      [
        "▁dellu",
        -8.56483567369089
      ],
      [
        "▁E",
        -8.565199178736435
      ],
      [
        "▁Bëgg",
        -8.56722898135471
      ],
      [
        "▁jàpp",
        -8.567433316887156
      ],
      [
        "vaient",
        -8.568088294037098
      ],
      [
        "▁jox",
        -8.57305616549234
      ],
      [
        "▁B",
        -8.575311846740817
      ],
      [
        "aan",
        -8.575939398692128
      ],
      [
        "na",
        -8.578994528682696
      ],
      [
        "▁rivière",
        -8.580346304855405
      ],
      [
        "▁in",
        -8.580695455328945
      ],
      [
        "té",
        -8.583568837885622
      ],
      [
        "▁ville",
        -8.583935474125123
      ],
      [
        "▁passé",
        -8.584067454587002
      ],
      [
        "▁lion",
        -8.584981090416209
      ],
      [
        "▁Mi",
        -8.588122497503056
      ],
      [
        "▁yee",
        -8.590023606407215
      ],
      [
        "▁Samba",
        -8.59594219573605
      ],
      [
        "▁cheval",
        -8.596005654238697
      ],
      [
        "▁njëkk",
        -8.59625208369375
      ],
      [
        "▁nettali",
        -8.596321596607742
      ],
      [
        "▁vache",
        -8.598237076496902
      ],
      [
        "▁fourmis",
        -8.598314941341823
      ],
      [
        "▁aperç",
        -8.601136464876486
      ],
      [
        "si",
        -8.601535977923715
      ],
      [
        "▁Laobe",
        -8.605294302492826
      ],
      [
        "▁murs",
        -8.60561516466983
      ],
      [
        "▁Seet",
        -8.605733034519323
      ],
      [
        "ux",
        -8.605844823526331
      ],
      [
        "▁faj",
        -8.607896520043736
      ],
      [
        "▁enfant",
        -8.609885566399285
      ],
      [
        "▁regard",
        -8.611877477709678
      ],
      [
        "ées",
        -8.612147258931564
      ],
      [
        "▁lii",
        -8.618165664815065
      ],
      [
        "tôt",
        -8.62006061824975
      ],
      [
        "▁ëpp",
        -8.62167622850305
      ],
      [
        "vait",
        -8.623178110390688
      ],
      [
        "koon",
        -8.624740921178383
      ],
      [
        "▁jiit",
        -8.62836515855594
      ],
      [
        "▁étai",
        -8.629094921224269
      ],
      [
        "▁quan",
        -8.630992063819452
      ],
      [
        "▁gàtt",
        -8.63482548239643
      ],
      [
        "▁tudd",
        -8.634976883825665
      ],
      [
        "ou",
        -8.637173878322617
      ],
      [
        "▁gaa",
        -8.637767329877898
      ],
      [
        "ax",
        -8.638220874652967
      ],
      [
        "▁n'ai",
        -8.638484977948643
      ],
      [
        "▁seet",
        -8.638847482375365
      ],
      [
        "▁dëkki",
        -8.64500074616243
      ],
      [
        "béré",
        -8.647534698286346
      ],
      [
        "▁gee",
        -8.648247785044322
      ],
      [
        "▁wut",
        -8.650621461718668
      ],
      [
        "▁Banso",
        -8.652501161867145
      ],
      [
        "▁bàyyi",
        -8.653244784392507
      ],
      [
        "àddaay",
        -8.653455975733182
      ],
      [
        "▁Alors",
        -8.654555444895795
      ],
      [
        "▁tàmbal",
        -8.654665866145313
      ],
      [
        "▁gunóor",
        -8.654739239653633
      ],
      [
        "▁S'il",
        -8.654773466383658
      ],
      [
        "▁Àngalteer",
        -8.65490223999652
      ],
      [
        "▁Àngale",
        -8.655394370682124
      ],
      [
        "avoir",
        -8.655405259945615
      ],
      [
        "▁weex",
        -8.66009791810804
      ],
      [
        "▁tel",
        -8.660540190718107
      ],
      [
        "▁plaine",
        -8.661105812306728
      ],
      [
        "▁quelle",
        -8.663657495858642
      ],
      [
        "▁mujje",
        -8.66371845891171
      ],
      [
        "▁Elle",
        -8.664704680644192
      ],
      [
        "▁doomu",
        -8.665067227358152
      ],
      [
        "wul",
        -8.668679795409062
      ],
      [
        "▁peau",
        -8.668773409242302
      ],
      [
        "elle",
        -8.672777860886692
      ],
      [
        "▁toute",
        -8.672820199243759
      ],
      [
        "▁toit",
        -8.673029366440055
      ],
      [
        "▁amoon",
        -8.673377061410736
      ],
      [
        "▁Pour",
        -8.673944214286825
      ],
      [
        "ir",
        -8.674277907699148
      ],
      [
        "an",
        -8.674319683348275
      ],
      [
        "▁Au",
        -8.677686577002818
      ],
      [
        "▁grand",
        -8.681365965557381
      ],
      [
        "▁Ay",
        -8.681505170355551
      ],
      [
        "▁W",
        -8.681582162534376
      ],
      [
        "tte",
        -8.682743659913195
      ],
      [
        "-na",
        -8.687519005802134
      ],
      [
        "▁Y",
        -8.691394908260532
      ],
      [
        "▁masu",
        -8.699096183655978
      ],
      [
        "▁baay",
        -8.700596785745631
      ],
      [
        "▁bokk",
        -8.701452549032116
      ],
      [
        "▁moment",
        -8.701755709143463
      ],
      [
        "▁dama",
        -8.70352260494829
      ],
      [
        "▁Ca",
        -8.703737450178318
      ],
      [
        "ans",
        -8.706654941250887
      ],
      [
        "▁dox",
        -8.70736266309557
      ],
      [
        "▁lorsqu",
        -8.707894863013935
      ],
      [
        "▁do",
        -8.711104257109465
      ],
      [
        "▁waaj",
        -8.711488238713937
      ],
      [
        "▁Bamenda",
        -8.713338765239701
      ],
      [
        "▁ans",
        -8.714776225940488
      ],
      [
        "▁way-jur",
        -8.715941453950272
      ],
      [
        "▁ta",
        -8.716219062428632
      ],
      [
        "▁Kooku",
        -8.716706334544556
      ],
      [
        "▁dunyaa",
        -8.717164871378687
      ],
      [
        "▁l'Ouest",
        -8.717181819473277
      ],
      [
        "▁téere",
        -8.718090337733774
      ],
      [
        "▁demkoon",
        -8.71980232427498
      ],
      [
        "loo",
        -8.719953108916886
      ],
      [
        "▁contre",
        -8.722603510368076
      ],
      [
        "▁Cela",
        -8.723988101586302
      ],
      [
        "▁reste",
        -8.725050030492174
      ],
      [
        "▁Kon",
        -8.725139841543552
      ],
      [
        "▁côté",
        -8.726346297583483
      ],
      [
        "faral",
        -8.727629182507375
      ],
      [
        "▁parte",
        -8.730672064817739
      ],
      [
        "▁kii",
        -8.732291254812367
      ],
      [
        "▁Comme",
        -8.732776755918657
      ],
      [
        "▁leneen",
        -8.73372980460778
      ],
      [
        "▁ñàkk",
        -8.736267460068678
      ],
      [
        "▁parler",
        -8.737577425630377
      ],
      [
        "▁laaj",
        -8.741262137200422
      ],
      [
        "ient",
        -8.744822673247977
      ],
      [
        "▁yeux",
        -8.745033029792141
      ],
      [
        "p",
        -8.749741298083526
      ],
      [
        "▁Sur",
        -8.752267785397235
      ],
      [
        "▁Di",
        -8.753984557870112
      ],
      [
        "quelle",
        -8.754246574320197
      ],
      [
        "ons",
        -8.755158617191427
      ],
      [
        "▁voyage",
        -8.75538205637498
      ],
      [
        "▁mot",
        -8.756066447409378
      ],
      [
        "ère",
        -8.757244578400105
      ],
      [
        "▁nun",
        -8.757293311132596
      ],
      [
        "▁Ra",
        -8.758320511567788
      ],
      [
        "▁ami",
        -8.761374026543491
      ],
      [
        "▁won",
        -8.761864757768404
      ],
      [
        "▁grande",
        -8.763293783216275
      ],
      [
        "▁ét",
        -8.764187813009046
      ],
      [
        "vent",
        -8.765094941993995
      ],
      [
        "▁jours",
        -8.76631146322004
      ],
      [
        "▁moomu",
        -8.766770781476707
      ],
      [
        "▁vrai",
        -8.769435082606499
      ],
      [
        "▁doom",
        -8.77645364338589
      ],
      [
        "▁quel",
        -8.77907492125807
      ],
      [
        "▁L'",
        -8.780198062182944
      ],
      [
        "▁t'a",
        -8.780851296332987
      ],
      [
        "▁rafet",
        -8.782481961125136
      ],
      [
        "▁Yaw",
        -8.783449037541313
      ],
      [
        "▁House",
        -8.783479379299733
      ],
      [
        "▁làrme",
        -8.783532414606757
      ],
      [
        "▁jéem",
        -8.783623317935067
      ],
      [
        "▁violence",
        -8.783740297876108
      ],
      [
        "▁doktoor",
        -8.783795177007324
      ],
      [
        "▁l'eau",
        -8.783853048824422
      ],
      [
        "▁moroom",
        -8.783917020824173
      ],
      [
        "▁dina",
        -8.78400628657973
      ],
      [
        "▁simplement",
        -8.78410226259175
      ],
      [
        "▁seetlu",
        -8.784329252299834
      ],
      [
        "uma",
        -8.784776496321111
      ],
      [
        "▁yaatu",
        -8.786462929386081
      ],
      [
        "▁cause",
        -8.78662205708796
      ],
      [
        "▁ňaar",
        -8.787695754392233
      ],
      [
        "▁gént",
        -8.788162272385001
      ],
      [
        "enn",
        -8.788769377407206
      ],
      [
        "▁bëggul",
        -8.789026306316424
      ],
      [
        "▁Noonu",
        -8.79055570807649
      ],
      [
        "▁niroo",
        -8.790651502885268
      ],
      [
        "aux",
        -8.790921765946889
      ],
      [
        "▁ceux",
        -8.79123635800277
      ],
      [
        "▁w",
        -8.791717518280874
      ],
      [
        "▁deret",
        -8.79355135869939
      ],
      [
        "▁dame",
        -8.796295217183275
      ],
      [
        "▁seule",
        -8.797877239923485
      ],
      [
        "▁long",
        -8.799161710142181
      ],
      [
        "▁gaynde",
        -8.801475796176142
      ],
      [
        "▁ciel",
        -8.802211638516024
      ],
      [
        "..",
        -8.805486100005673
      ],
      [
        "▁feebar",
        -8.806194106316319
      ],
      [
        "▁tudde",
        -8.809254740410342
      ],
      [
        "or",
        -8.809791358275524
      ],
      [
        "mu",
        -8.814298553648957
      ],
      [
        "▁villages",
        -8.815436984832457
      ],
      [
        "quoi",
        -8.81694052220093
      ],
      [
        "avons",
        -8.818702057196916
      ],
      [
        "▁xaw",
        -8.818874552550769
      ],
      [
        "ek",
        -8.821857800502789
      ],
      [
        "▁fut",
        -8.821892054940385
      ],
      [
        "ns",
        -8.82221821655943
      ],
      [
        "▁jii",
        -8.822269127283084
      ],
      [
        "se",
        -8.82234364684563
      ],
      [
        "▁mii",
        -8.823193723721829
      ],
      [
        "▁aurait",
        -8.82620011592982
      ],
      [
        "▁pa",
        -8.830526759705663
      ],
      [
        "▁l'ai",
        -8.835770593384005
      ],
      [
        "▁dëkke",
        -8.836713210998315
      ],
      [
        "▁souvenir",
        -8.838529025167993
      ],
      [
        "▁doi",
        -8.838992374093287
      ],
      [
        "▁we",
        -8.840099151660212
      ],
      [
        "▁sui",
        -8.843055935175908
      ],
      [
        "▁K",
        -8.847445242254693
      ],
      [
        "▁faa",
        -8.850190506141193
      ],
      [
        "armée",
        -8.85344589007714
      ],
      [
        "▁vécu",
        -8.854615815664236
      ],
      [
        "▁Aucun",
        -8.854805872022904
      ],
      [
        "▁jardin",
        -8.85486248664037
      ],
      [
        "▁tangor",
        -8.854899400694599
      ],
      [
        "▁mémoire",
        -8.854951676791408
      ],
      [
        "▁Celui-là",
        -8.8550582497914
      ],
      [
        "▁tollu",
        -8.855136614824248
      ],
      [
        "▁Saint-Louis",
        -8.855162117197525
      ],
      [
        "▁Waaw",
        -8.855191430770715
      ],
      [
        "▁gaaw",
        -8.855279783135645
      ],
      [
        "▁celui-ci",
        -8.855393622910286
      ],
      [
        "▁l'hôpital",
        -8.855640320188444
      ],
      [
        "▁Qu'il",
        -8.855704845198893
      ],
      [
        "▁wóor",
        -8.856288670856443
      ],
      [
        "▁manière",
        -8.856381578863914
      ],
      [
        "▁Ben",
        -8.856388092718904
      ],
      [
        "▁séen",
        -8.856926961820337
      ],
      [
        "▁heures",
        -8.85694384591271
      ],
      [
        "▁bois",
        -8.8569866201141
      ],
      [
        "▁taxoon",
        -8.858759835624328
      ],
      [
        "▁mépp",
        -8.859451051001562
      ],
      [
        "▁Yàlla",
        -8.86021690112322
      ],
      [
        "▁Ndar",
        -8.861509462395095
      ],
      [
        "▁R",
        -8.862071003385267
      ],
      [
        "óon",
        -8.863904680786176
      ],
      [
        "ng",
        -8.864738262425082
      ],
      [
        "ur",
        -8.867055317618963
      ],
      [
        "▁montagnes",
        -8.869028281323162
      ],
      [
        "atum",
        -8.87177437896274
      ],
      [
        "▁mal",
        -8.872207558251997
      ],
      [
        "▁defe",
        -8.87234743421455
      ],
      [
        "aat",
        -8.873525680030415
      ],
      [
        "▁ch",
        -8.875082342560322
      ],
      [
        "kki",
        -8.875542695302574
      ],
      [
        "▁romb",
        -8.875564841163891
      ],
      [
        "me",
        -8.876939928335043
      ],
      [
        "▁sore",
        -8.878822717735142
      ],
      [
        "ri",
        -8.879782073555385
      ],
      [
        "▁mort",
        -8.880959489183988
      ],
      [
        "▁dire",
        -8.88265990305151
      ],
      [
        "▁dexu",
        -8.883019774442293
      ],
      [
        "▁Kan",
        -8.883205420046266
      ],
      [
        "ra",
        -8.884141429027748
      ],
      [
        "▁defar",
        -8.885990379080358
      ],
      [
        "kër",
        -8.88706885696109
      ],
      [
        "maa",
        -8.887286590568905
      ],
      [
        "eur",
        -8.88763720083239
      ],
      [
        "▁song",
        -8.887671907391798
      ],
      [
        "▁fille",
        -8.890176153784338
      ],
      [
        "age",
        -8.892382379838219
      ],
      [
        "▁Wax",
        -8.892812637784415
      ],
      [
        "▁toutes",
        -8.895083475645007
      ],
      [
        "▁vient",
        -8.896370305481339
      ],
      [
        "▁fàtte",
        -8.897320744078318
      ],
      [
        "ais",
        -8.898116616516699
      ],
      [
        "r.",
        -8.898541289845326
      ],
      [
        "▁connu",
        -8.898744079423313
      ],
      [
        "▁près",
        -8.899652282521178
      ],
      [
        "kk",
        -8.89996935418295
      ],
      [
        "▁dellusi",
        -8.903587541626585
      ],
      [
        "▁mënoo",
        -8.904300561929073
      ],
      [
        "▁plu",
        -8.904488030287943
      ],
      [
        "▁v",
        -8.905333497512052
      ],
      [
        "▁ndox",
        -8.908823820141848
      ],
      [
        "ati",
        -8.908992991145897
      ],
      [
        "naa",
        -8.909101264148328
      ],
      [
        "▁fond",
        -8.917749165728683
      ],
      [
        "▁tàng",
        -8.929727943224925
      ],
      [
        "▁jeune",
        -8.931627411361877
      ],
      [
        "▁weesoo",
        -8.931628698101425
      ],
      [
        "▁liberté",
        -8.931710014215012
      ],
      [
        "▁gis-gis",
        -8.931743818748387
      ],
      [
        "▁Peut-",
        -8.931771983319091
      ],
      [
        "▁diiwaan",
        -8.931810537117961
      ],
      [
        "▁sedd",
        -8.931839202669913
      ],
      [
        "▁britannique",
        -8.931914954477794
      ],
      [
        "▁asamaan",
        -8.931964805818744
      ],
      [
        "▁tard",
        -8.932327764484047
      ],
      [
        "▁Yéen",
        -8.932418917433829
      ],
      [
        "q",
        -8.932556870069734
      ],
      [
        "▁surtout",
        -8.932626261146147
      ],
      [
        "ň",
        -8.932866030659312
      ],
      [
        "▁Bés",
        -8.932917893236077
      ],
      [
        "▁ubbi",
        -8.932998987286627
      ],
      [
        "▁lequel",
        -8.933301073223479
      ],
      [
        "▁Maurice",
        -8.93406083389231
      ],
      [
        "▁Ibo",
        -8.935017554149267
      ],
      [
        "▁xelam",
        -8.935221375487979
      ],
      [
        "▁acheté",
        -8.940740712705114
      ],
      [
        "▁Frãs",
        -8.941517876711755
      ],
      [
        "▁xeet",
        -8.941520287941234
      ],
      [
        "tes",
        -8.942268169018321
      ],
      [
        "▁Dama",
        -8.94228446080579
      ],
      [
        "em",
        -8.94301862148579
      ],
      [
        "▁soit",
        -8.943279964857506
      ],
      [
        "▁Jox",
        -8.943398429683809
      ],
      [
        "▁biti",
        -8.946533101910262
      ],
      [
        "▁àgg",
        -8.947079046824348
      ],
      [
        "▁Bamendaa",
        -8.947175312302017
      ],
      [
        "▁miir",
        -8.947303059039788
      ],
      [
        "▁ici",
        -8.947331010087106
      ],
      [
        "aa",
        -8.952360237347671
      ],
      [
        "▁viendra",
        -8.952654083812492
      ],
      [
        "▁réewu",
        -8.952980598735635
      ],
      [
        "▁port",
        -8.953007727504502
      ],
      [
        "uy",
        -8.9565990365795
      ],
      [
        "▁partie",
        -8.95715689965135
      ],
      [
        "▁suba",
        -8.95975008203553
      ],
      [
        "▁X",
        -8.960719196951326
      ],
      [
        "▁bant",
        -8.962396363683045
      ],
      [
        "▁grands",
        -8.965548405869933
      ],
      [
        "▁parlait",
        -8.96581253354649
      ],
      [
        "▁mat",
        -8.968035547808977
      ],
      [
        "as",
        -8.970876348401907
      ],
      [
        "▁tali",
        -8.973503668917813
      ],
      [
        "▁pars",
        -8.973838708124875
      ],
      [
        "▁forme",
        -8.974207998952188
      ],
      [
        "▁travail",
        -8.980919272356518
      ],
      [
        "▁aller",
        -8.981147152081146
      ],
      [
        "▁allé",
        -8.985146176012144
      ],
      [
        "▁fo",
        -8.985368682636121
      ],
      [
        "▁carte",
        -8.986258940109643
      ],
      [
        "▁coup",
        -8.98687236926511
      ],
      [
        "ug",
        -8.987291446350923
      ],
      [
        "yan",
        -8.988450638017522
      ],
      [
        "estr",
        -8.988543296777998
      ],
      [
        "▁noir",
        -8.990287167615099
      ],
      [
        "▁bee",
        -8.990472980623743
      ],
      [
        "▁choses",
        -8.99235262810639
      ],
      [
        "▁vienne",
        -8.992581949508162
      ],
      [
        "h",
        -8.99523746229238
      ],
      [
        "▁gudd",
        -8.9962370563921
      ],
      [
        "▁main",
        -8.998500928429362
      ],
      [
        "▁s'en",
        -9.000347512972944
      ],
      [
        "▁googu",
        -9.002145387103207
      ],
      [
        "▁fàttali",
        -9.003904548725721
      ],
      [
        "óor",
        -9.00464131106835
      ],
      [
        "▁qu",
        -9.005868351116185
      ],
      [
        "▁qu'un",
        -9.007632310676117
      ],
      [
        "bi",
        -9.011458265015918
      ],
      [
        "▁lekk",
        -9.012335747911598
      ],
      [
        "iy",
        -9.014399510144804
      ],
      [
        "▁point",
        -9.014579068991747
      ],
      [
        "▁Homme",
        -9.014680436887971
      ],
      [
        "▁Lawbe",
        -9.014746261482966
      ],
      [
        "▁déglu",
        -9.014854433887054
      ],
      [
        "▁Cherche",
        -9.014868813058868
      ],
      [
        "▁delloo",
        -9.014917625296565
      ],
      [
        "▁soldaar",
        -9.014958121264254
      ],
      [
        "▁xar-kanam",
        -9.01500009120371
      ],
      [
        "▁mellentaan",
        -9.0150249697109
      ],
      [
        "▁boroom",
        -9.015052372177156
      ],
      [
        "▁passage",
        -9.015088411284133
      ],
      [
        "▁Defe",
        -9.015336495773653
      ],
      [
        "▁yuuxu",
        -9.015516434293957
      ],
      [
        "▁tëj",
        -9.015556558829623
      ],
      [
        "▁appris",
        -9.015788794622791
      ],
      [
        "▁Wall",
        -9.016006695200629
      ],
      [
        "▁sori",
        -9.016415647407934
      ],
      [
        "▁xanaa",
        -9.017273063557735
      ],
      [
        "▁Demal",
        -9.019097951127067
      ],
      [
        "beek",
        -9.019550630134997
      ],
      [
        "▁Moom",
        -9.02062178586912
      ],
      [
        "▁kàddu",
        -9.020776526878532
      ],
      [
        "▁Seen",
        -9.021417760601414
      ],
      [
        "▁baat",
        -9.021473946088511
      ],
      [
        "▁s'il",
        -9.022406820515135
      ],
      [
        "▁tuuti",
        -9.022613582787171
      ],
      [
        "▁jëkk",
        -9.022649199265308
      ],
      [
        "▁nangu",
        -9.02300817980712
      ],
      [
        "▁géej",
        -9.023463180786898
      ],
      [
        "▁celle",
        -9.023591782514517
      ],
      [
        "▁peut",
        -9.024106532675063
      ],
      [
        "▁semble",
        -9.02428285413599
      ],
      [
        "st-ce",
        -9.028015363690367
      ],
      [
        "fin",
        -9.03125942929797
      ],
      [
        "▁lieu",
        -9.031646195585118
      ],
      [
        "▁trop",
        -9.032313087377375
      ],
      [
        "▁jënd",
        -9.032461717255783
      ],
      [
        "▁neen",
        -9.03616421014217
      ],
      [
        "est-ce",
        -9.03731142452277
      ],
      [
        "▁Là",
        -9.038471323622812
      ],
      [
        "▁doomi",
        -9.039093171086114
      ],
      [
        "▁marche",
        -9.03956205079481
      ],
      [
        "▁bari",
        -9.042802985033052
      ],
      [
        "ité",
        -9.046578464479339
      ],
      [
        "▁jant",
        -9.047520390314922
      ],
      [
        "▁fleuves",
        -9.047553000076153
      ],
      [
        "▁duñu",
        -9.047836372371625
      ],
      [
        "ku",
        -9.04885368091245
      ],
      [
        "▁nanu",
        -9.051319719430607
      ],
      [
        "▁wone",
        -9.052236332197754
      ],
      [
        "▁T",
        -9.053578459620535
      ],
      [
        "▁lanu",
        -9.053862256118306
      ],
      [
        "▁ŋgii",
        -9.055187447582021
      ],
      [
        "▁Daan",
        -9.057680648655758
      ],
      [
        "▁vo",
        -9.057889636634227
      ],
      [
        "▁mêmes",
        -9.060448555378487
      ],
      [
        "▁po",
        -9.062066294287021
      ],
      [
        "du",
        -9.062591544709758
      ],
      [
        "avait",
        -9.06347282413974
      ],
      [
        "voir",
        -9.065943835996631
      ],
      [
        "je",
        -9.067719728830264
      ],
      [
        "des",
        -9.067990585424322
      ],
      [
        "▁tur",
        -9.072686489048747
      ],
      [
        "▁May",
        -9.077939277793503
      ],
      [
        "où",
        -9.078441754622244
      ],
      [
        "▁Ñ",
        -9.079685384757454
      ],
      [
        "▁yem",
        -9.080093974127326
      ],
      [
        "ub",
        -9.082839966052735
      ],
      [
        "▁Par",
        -9.084292102823028
      ],
      [
        "▁jàng",
        -9.084861081336284
      ],
      [
        "▁noo",
        -9.084989183782
      ],
      [
        "▁baa",
        -9.085677901139347
      ],
      [
        "▁dayo",
        -9.086911796737303
      ],
      [
        "▁mar",
        -9.090143589103313
      ],
      [
        "▁pres",
        -9.090198635175188
      ],
      [
        "▁partis",
        -9.091610217097076
      ],
      [
        "▁serai",
        -9.094298850878179
      ],
      [
        "▁regarde",
        -9.098703895977138
      ],
      [
        "aire",
        -9.100138957598656
      ],
      [
        "-ci",
        -9.102339234374236
      ],
      [
        "▁Guyane",
        -9.103977160393203
      ],
      [
        "▁rawati",
        -9.103980973454542
      ],
      [
        "▁Xammee",
        -9.104012398129758
      ],
      [
        "▁frère",
        -9.104039720883065
      ],
      [
        "▁Kër",
        -9.10408625025832
      ],
      [
        "▁force",
        -9.104187054033156
      ],
      [
        "▁Mbaa",
        -9.104249739076305
      ],
      [
        "▁xéy",
        -9.104341815717627
      ],
      [
        "▁parles",
        -9.10469130042808
      ],
      [
        "▁Moonte",
        -9.104737311182811
      ],
      [
        "▁Moi",
        -9.104836705654064
      ],
      [
        "▁kese",
        -9.104931324203948
      ],
      [
        "▁raison",
        -9.105060235219716
      ],
      [
        "▁jéggi",
        -9.105252869622834
      ],
      [
        "biy",
        -9.105444253512555
      ],
      [
        "▁yëkkati",
        -9.10558728538164
      ],
      [
        "▁famille",
        -9.105592143370377
      ],
      [
        "▁Guwiyaan",
        -9.105649601699726
      ],
      [
        "▁poste",
        -9.105700554619645
      ],
      [
        "▁d'Ogoja",
        -9.105718760458208
      ],
      [
        "▁bëj-saalum",
        -9.105738218033313
      ],
      [
        "▁longue",
        -9.105750385426552
      ],
      [
        "▁faisait",
        -9.10587510345661
      ],
      [
        "▁xeer",
        -9.10591352959905
      ],
      [
        "▁silence",
        -9.106125256433426
      ],
      [
        "▁fépp",
        -9.10636451806651
      ],
      [
        "▁debout",
        -9.107259881874711
      ],
      [
        "▁yóbbu",
        -9.107770812337666
      ],
      [
        "▁bateau",
        -9.10796307021284
      ],
      [
        "▁bépp",
        -9.108701251879749
      ],
      [
        "▁ngoon",
        -9.108856855900898
      ],
      [
        "▁feneen",
        -9.10915241868712
      ],
      [
        "▁dàll",
        -9.109917746296459
      ],
      [
        "▁yaw",
        -9.11152603097893
      ],
      [
        "▁cuir",
        -9.112005567346726
      ],
      [
        "▁d'Europe",
        -9.114377247367349
      ],
      [
        "▁tund",
        -9.114441407649748
      ],
      [
        "▁màgget",
        -9.114596446102038
      ],
      [
        "▁Koo",
        -9.114746257469928
      ],
      [
        "▁xaar",
        -9.114843753898645
      ],
      [
        "▁Sud",
        -9.115351289180548
      ],
      [
        "▁sortir",
        -9.115742077272028
      ],
      [
        "▁kilifa",
        -9.116981685710279
      ],
      [
        "▁toujours",
        -9.117726204609664
      ],
      [
        "▁sang",
        -9.12138424231576
      ],
      [
        "▁cour",
        -9.122039938967758
      ],
      [
        "▁l'un",
        -9.122961251965618
      ],
      [
        "▁arbres",
        -9.12366271129165
      ],
      [
        "▁roi",
        -9.126710538100891
      ],
      [
        "▁miin",
        -9.12821168581315
      ],
      [
        "▁Quelle",
        -9.128267753369938
      ],
      [
        "»",
        -9.12869597782281
      ],
      [
        "▁teel",
        -9.129101540876782
      ],
      [
        "▁sàkk",
        -9.131006145504047
      ],
      [
        "kati",
        -9.131626934896907
      ],
      [
        "▁takk",
        -9.132413373866628
      ],
      [
        "▁avions",
        -9.133577693360214
      ],
      [
        "ès",
        -9.137854811295945
      ],
      [
        "près",
        -9.13815702673569
      ],
      [
        "nte",
        -9.139064560272152
      ],
      [
        "▁per",
        -9.141159068323867
      ],
      [
        "iez",
        -9.14535000319257
      ],
      [
        "▁fees",
        -9.14716296226728
      ],
      [
        "ël",
        -9.149667837526193
      ],
      [
        "waat",
        -9.152636111496198
      ],
      [
        "▁daa",
        -9.159070201412483
      ],
      [
        "▁égarée",
        -9.160087758039277
      ],
      [
        "kkali",
        -9.160398401697273
      ],
      [
        "▁ragal",
        -9.162995856310715
      ],
      [
        "and",
        -9.165273038691945
      ],
      [
        "▁fleuve",
        -9.165553821217703
      ],
      [
        "us",
        -9.166419218064519
      ],
      [
        "▁livre",
        -9.168881420796005
      ],
      [
        "▁porte",
        -9.17048144003753
      ],
      [
        "▁doxandéem",
        -9.171122046616663
      ],
      [
        "li",
        -9.173802928702493
      ],
      [
        "▁doy",
        -9.17553003002499
      ],
      [
        "▁première",
        -9.180028735877265
      ],
      [
        "▁photo",
        -9.180393240893881
      ],
      [
        "ure",
        -9.180906748439941
      ],
      [
        "▁Foo",
        -9.182227105287662
      ],
      [
        "▁sais",
        -9.185056987614558
      ],
      [
        "▁Nga",
        -9.18511026642938
      ],
      [
        "▁deme",
        -9.186699801011097
      ],
      [
        "▁kook",
        -9.192321397633053
      ],
      [
        "réer",
        -9.194486809052135
      ],
      [
        "▁të",
        -9.198706328011818
      ],
      [
        "z",
        -9.198720406781877
      ],
      [
        "▁dëkku",
        -9.199084790064322
      ],
      [
        "ai",
        -9.19945555167012
      ],
      [
        "naka",
        -9.200657173872397
      ],
      [
        "bu",
        -9.20181223520217
      ],
      [
        "▁tii",
        -9.202997001286542
      ],
      [
        "▁pirogue",
        -9.203969012565251
      ],
      [
        "▁Moussa",
        -9.20396943738062
      ],
      [
        "▁lumière",
        -9.20397124741859
      ],
      [
        "▁nouveau",
        -9.20397204139229
      ],
      [
        "▁mbóot",
        -9.204041656485654
      ],
      [
        "▁chevaux",
        -9.204051344429669
      ],
      [
        "▁façon",
        -9.204057243270503
      ],
      [
        "▁Nord",
        -9.204080601121422
      ],
      [
        "▁subë",
        -9.204087778223816
      ],
      [
        "▁Ñàkk",
        -9.204102734492674
      ],
      [
        "▁téye",
        -9.204113834422294
      ],
      [
        "▁d'Afrique",
        -9.204134453243297
      ],
      [
        "▁sentiment",
        -9.20415438061931
      ],
      [
        "▁Fatim",
        -9.204234499811738
      ],
      [
        "▁ngelaw",
        -9.20428012349885
      ],
      [
        "▁manger",
        -9.204549743613816
      ],
      [
        "▁metit",
        -9.2046731377326
      ],
      [
        "▁Gone",
        -9.204995296467104
      ],
      [
        "▁voix",
        -9.205496640008404
      ],
      [
        "▁vieille",
        -9.20590959456936
      ],
      [
        "▁xuus",
        -9.206103334724663
      ],
      [
        "▁l'enfant",
        -9.206215542716166
      ],
      [
        "▁moins",
        -9.206961685878026
      ],
      [
        "▁jege",
        -9.208291964219985
      ],
      [
        "-t-il",
        -9.209527465480232
      ],
      [
        "▁Voil",
        -9.209619759932016
      ],
      [
        "▁woo",
        -9.210359616696229
      ],
      [
        "atim",
        -9.211228820283235
      ],
      [
        "▁joor",
        -9.211860963939056
      ],
      [
        "▁ñëwul",
        -9.212863169900714
      ],
      [
        "▁fenn",
        -9.212962802680654
      ],
      [
        "▁bras",
        -9.213373479250773
      ],
      [
        "▁maanaa",
        -9.213919368699182
      ],
      [
        "▁lesquel",
        -9.214675871715382
      ],
      [
        "▁daj",
        -9.214991825563203
      ],
      [
        "▁meloon",
        -9.216816751100172
      ],
      [
        "▁endroit",
        -9.217816066101824
      ],
      [
        "é.",
        -9.2190018407527
      ],
      [
        "▁gor",
        -9.219022087654855
      ],
      [
        "▁buur",
        -9.219071543978178
      ],
      [
        "▁naaj",
        -9.21923233584565
      ],
      [
        "▁pieds",
        -9.219244075291265
      ],
      [
        "tion",
        -9.221599616753924
      ],
      [
        "atul",
        -9.221993921025815
      ],
      [
        "▁wetu",
        -9.224188334949528
      ],
      [
        "▁vi",
        -9.22450476653512
      ],
      [
        "▁neneen",
        -9.225049802227923
      ],
      [
        "▁wet",
        -9.230561955269327
      ],
      [
        "▁mains",
        -9.235258431147969
      ],
      [
        "▁An",
        -9.238884292768144
      ],
      [
        "▁fil",
        -9.239267158671364
      ],
      [
        "▁garabi",
        -9.239388785716782
      ],
      [
        "pendan",
        -9.240231449915584
      ],
      [
        "▁doo",
        -9.241058907565465
      ],
      [
        "▁tere",
        -9.243515751709062
      ],
      [
        "▁partes",
        -9.243869164159927
      ],
      [
        "ka",
        -9.244264670218781
      ],
      [
        "▁weer",
        -9.246450977103963
      ],
      [
        "▁wuti",
        -9.249179006137917
      ],
      [
        "nga",
        -9.25386331126267
      ],
      [
        "▁Loo",
        -9.256301212791216
      ],
      [
        "▁arrivé",
        -9.264034255881292
      ],
      [
        "▁Ou",
        -9.26658299706318
      ],
      [
        "▁janoo",
        -9.26709864857019
      ],
      [
        "uis",
        -9.270099931151016
      ],
      [
        "▁Ne",
        -9.274781537735024
      ],
      [
        "wu",
        -9.274971634711557
      ],
      [
        "▁n'e",
        -9.275340962458088
      ],
      [
        "▁Xa",
        -9.275459424624223
      ],
      [
        "▁sera",
        -9.276200312106242
      ],
      [
        "▁jan",
        -9.276617104247714
      ],
      [
        "▁J'",
        -9.276635294288235
      ],
      [
        "▁yab",
        -9.277660062919427
      ],
      [
        "▁tefes",
        -9.278433141562715
      ],
      [
        "ar",
        -9.279099324423415
      ],
      [
        "▁xool",
        -9.279889578858695
      ],
      [
        "▁partira",
        -9.282341450743981
      ],
      [
        "▁Saa",
        -9.283353481077294
      ],
      [
        "mi",
        -9.283669861556799
      ],
      [
        "▁petite",
        -9.289037536410424
      ],
      [
        "▁Fi",
        -9.294997090709991
      ],
      [
        "woo",
        -9.30237081700172
      ],
      [
        "ts",
        -9.304423481046777
      ],
      [
        "▁tekk",
        -9.3047120928959
      ],
      [
        "û",
        -9.305359232861317
      ],
      [
        "▁j'",
        -9.306508546245368
      ],
      [
        "▁es",
        -9.30719295393129
      ],
      [
        "▁vas",
        -9.307866399262247
      ],
      [
        "▁lit",
        -9.310068071245023
      ],
      [
        "▁bind",
        -9.311720479980945
      ],
      [
        "ukki",
        -9.312120600086336
      ],
      [
        "▁aw",
        -9.312698515698965
      ],
      [
        "▁dënn",
        -9.314069792413381
      ],
      [
        "▁Noon",
        -9.31426883404597
      ],
      [
        "▁Aujourd'hui",
        -9.315080107802045
      ],
      [
        "▁bëj-gànnaar",
        -9.315080108004908
      ],
      [
        "▁wëndéelu",
        -9.31508010803442
      ],
      [
        "▁Biyaafaraa",
        -9.315080108632486
      ],
      [
        "▁lëndëm",
        -9.315080124807775
      ],
      [
        "▁sowu-jant",
        -9.315080516190008
      ],
      [
        "▁bànneex",
        -9.315081318102086
      ],
      [
        "▁société",
        -9.315081736651141
      ],
      [
        "▁Jamono",
        -9.315082463079257
      ],
      [
        "▁Ainsi",
        -9.31508802524775
      ],
      [
        "▁Nataal",
        -9.315089725001155
      ],
      [
        "▁Sérère",
        -9.315092326240858
      ],
      [
        "▁diggante",
        -9.315095864694047
      ],
      [
        "▁Almaañ",
        -9.315119505843056
      ],
      [
        "▁cosaan",
        -9.315151416236588
      ],
      [
        "▁l'âge",
        -9.315308016322259
      ],
      [
        "▁Teewul",
        -9.315495049972604
      ],
      [
        "▁chaleur",
        -9.31572916636517
      ],
      [
        "▁parfois",
        -9.315830030512565
      ],
      [
        "▁gisaat",
        -9.316362441253125
      ],
      [
        "▁marché",
        -9.316421221926733
      ],
      [
        "▁loxoom",
        -9.31661420559989
      ],
      [
        "▁pourtant",
        -9.316744682878607
      ],
      [
        "▁Ñoom",
        -9.316905197967312
      ],
      [
        "▁d'herbes",
        -9.317202782038425
      ],
      [
        "▁yëngu",
        -9.318029832065616
      ],
      [
        "▁jaŋg",
        -9.318172484779152
      ],
      [
        "▁jàll",
        -9.3182883597793
      ],
      [
        "▁parlé",
        -9.318362082243986
      ],
      [
        "▁assis",
        -9.318555108849933
      ],
      [
        "venir",
        -9.318555709263793
      ],
      [
        "▁tukki",
        -9.318702219888022
      ],
      [
        "▁bo",
        -9.319081382763024
      ],
      [
        "▁gro",
        -9.319134630819493
      ],
      [
        "▁insectes",
        -9.319210901614957
      ],
      [
        "▁couleur",
        -9.31946469040069
      ],
      [
        "▁Niis",
        -9.319634479918847
      ],
      [
        "▁savane",
        -9.31988190533459
      ],
      [
        "▁yit",
        -9.320599708783199
      ],
      [
        "▁train",
        -9.320687666983778
      ],
      [
        "▁këram",
        -9.322589296278606
      ],
      [
        "▁alors",
        -9.322848318895762
      ],
      [
        "▁étions",
        -9.32292371073168
      ],
      [
        "▁ŋgoon",
        -9.323105879211615
      ],
      [
        "▁lieux",
        -9.324476970281646
      ],
      [
        "▁côte",
        -9.324587867766315
      ],
      [
        "▁Doo",
        -9.324603383110912
      ],
      [
        "▁D'",
        -9.325356267104974
      ],
      [
        "▁booba",
        -9.32603348979426
      ],
      [
        "▁petit",
        -9.326289916839118
      ],
      [
        "▁garçons",
        -9.32744031715673
      ],
      [
        "▁gan",
        -9.329195272298207
      ],
      [
        "▁donc",
        -9.33112652199328
      ],
      [
        "▁telle",
        -9.331377648793252
      ],
      [
        "▁ñaan",
        -9.332232518146826
      ],
      [
        "▁enfance",
        -9.332280278095967
      ],
      [
        "▁kanam",
        -9.332344318355204
      ],
      [
        "▁Woo",
        -9.336036874083579
      ],
      [
        "▁lakk",
        -9.336723854756315
      ],
      [
        "▁demande",
        -9.33781916459224
      ],
      [
        "▁ñooñu",
        -9.339239777893143
      ],
      [
        "▁Alma",
        -9.34394512327961
      ],
      [
        "▁tan",
        -9.344004846213782
      ],
      [
        "-il",
        -9.345522901422648
      ],
      [
        "▁avais",
        -9.346367066846156
      ],
      [
        "▁waral",
        -9.348906432464382
      ],
      [
        "▁routes",
        -9.349068910801316
      ],
      [
        "ewul",
        -9.349598417365952
      ],
      [
        "aller",
        -9.355257806726225
      ],
      [
        "▁kee",
        -9.35949568869743
      ],
      [
        "▁viennes",
        -9.359593413365449
      ],
      [
        "i.",
        -9.35989318162408
      ],
      [
        "▁yére",
        -9.360558884532798
      ],
      [
        "▁wa",
        -9.374358209176851
      ],
      [
        "▁alal",
        -9.375626123611823
      ],
      [
        "▁Ña",
        -9.375902999908924
      ],
      [
        "▁ira",
        -9.376814834955818
      ],
      [
        "▁froid",
        -9.37731345491482
      ],
      [
        "▁co",
        -9.377502277125522
      ],
      [
        "▁donne",
        -9.37859441045936
      ],
      [
        "ec",
        -9.378657326839544
      ],
      [
        "▁tool",
        -9.378784707569473
      ],
      [
        "▁pris",
        -9.383566234962256
      ],
      [
        "ti",
        -9.385611790637356
      ],
      [
        "▁kon",
        -9.38654319146222
      ],
      [
        "▁entier",
        -9.38812208670029
      ],
      [
        "▁waxtaan",
        -9.389107770268602
      ],
      [
        "▁tàkk",
        -9.390265204578624
      ],
      [
        "▁samp",
        -9.390411313933768
      ],
      [
        "▁eu",
        -9.390558379469828
      ],
      [
        "▁rey",
        -9.390618118488922
      ],
      [
        "▁rêve",
        -9.391357190193292
      ],
      [
        "▁gise",
        -9.3913917663349
      ],
      [
        "▁nature",
        -9.399141933580225
      ],
      [
        "▁wute",
        -9.404384793355176
      ],
      [
        "▁connais",
        -9.4051899173149
      ],
      [
        "▁Ch",
        -9.406760907222948
      ],
      [
        "ance",
        -9.408954682869885
      ],
      [
        "▁africain",
        -9.409841609279336
      ],
      [
        "ata",
        -9.410411915629647
      ],
      [
        "▁mo",
        -9.4131643325781
      ],
      [
        "gi",
        -9.413174084980655
      ],
      [
        "▁feu",
        -9.413360294244484
      ],
      [
        "▁Ya",
        -9.41488819114116
      ],
      [
        "▁daawu",
        -9.417735832612134
      ],
      [
        "▁montagne",
        -9.418315888454167
      ],
      [
        "▁r",
        -9.418649517058615
      ],
      [
        "tant",
        -9.419678168001086
      ],
      [
        "▁Go",
        -9.420095998655267
      ],
      [
        "▁vent",
        -9.42132248278407
      ],
      [
        "▁rouge",
        -9.422722948321427
      ],
      [
        "▁m'en",
        -9.42304545995795
      ],
      [
        "▁Ta",
        -9.423460724098813
      ],
      [
        "▁visage",
        -9.423833480943811
      ],
      [
        "ture",
        -9.426469949898056
      ],
      [
        "▁nii",
        -9.429038933937127
      ],
      [
        "▁nopp",
        -9.4292375948185
      ],
      [
        "▁pro",
        -9.429754817511922
      ],
      [
        "▁montre",
        -9.429910607721581
      ],
      [
        "gré",
        -9.431044792791827
      ],
      [
        "▁tay",
        -9.432124258898408
      ],
      [
        "▁yar",
        -9.432606607932602
      ],
      [
        "▁dagg",
        -9.437610196637888
      ],
      [
        "▁yilif",
        -9.438400301442059
      ],
      [
        "▁yegg",
        -9.43843450625753
      ],
      [
        "▁d'a",
        -9.439693617353331
      ],
      [
        "▁Victoria",
        -9.440080107811694
      ],
      [
        "▁Léeg-léeg",
        -9.440080107823201
      ],
      [
        "▁médicaments",
        -9.440080108191939
      ],
      [
        "▁kéemaane",
        -9.440080109865454
      ],
      [
        "▁xàmmee",
        -9.440080631602466
      ],
      [
        "▁chaussettes",
        -9.440083192872864
      ],
      [
        "▁Legoos",
        -9.440086037592513
      ],
      [
        "▁xaalis",
        -9.440087920561462
      ],
      [
        "▁Monsieur",
        -9.440096663096536
      ],
      [
        "▁puissance",
        -9.440109134146804
      ],
      [
        "▁Réew",
        -9.440111223920752
      ],
      [
        "▁L'Afrique",
        -9.440124287807262
      ],
      [
        "▁làmp",
        -9.440133495672436
      ],
      [
        "▁keroog",
        -9.440134638109715
      ],
      [
        "▁janeer",
        -9.440135206255405
      ],
      [
        "▁yëngal",
        -9.440140678166099
      ],
      [
        "▁blanche",
        -9.440142930926976
      ],
      [
        "▁feuilles",
        -9.440212608641101
      ],
      [
        "▁l'amour",
        -9.44021980259021
      ],
      [
        "▁jàmm",
        -9.440230124504996
      ],
      [
        "▁douceur",
        -9.440326509271637
      ],
      [
        "▁région",
        -9.440411073012603
      ],
      [
        "▁Dëkk",
        -9.440464075711876
      ],
      [
        "▁dernier",
        -9.440502481896887
      ],
      [
        "▁plein",
        -9.440543532290654
      ],
      [
        "▁Officer",
        -9.440552674414535
      ],
      [
        "▁fajkat",
        -9.440618394367034
      ],
      [
        "▁gémmiñ",
        -9.440672336651868
      ],
      [
        "▁sànni",
        -9.440737846980587
      ],
      [
        "▁longtemps",
        -9.440751924492067
      ],
      [
        "añoo",
        -9.441353303891308
      ],
      [
        "▁wow",
        -9.442106414829794
      ],
      [
        "▁fanaan",
        -9.442118131496692
      ],
      [
        "▁Musaa",
        -9.442133385833987
      ],
      [
        "▁Buur",
        -9.442150390250617
      ],
      [
        "▁Nice",
        -9.442604233148629
      ],
      [
        "▁meubles",
        -9.442829206825557
      ],
      [
        "▁Mën",
        -9.443031169769743
      ],
      [
        "▁départ",
        -9.443879079549102
      ],
      [
        "▁salle",
        -9.444231442947821
      ],
      [
        "mbaar",
        -9.44447394052861
      ],
      [
        "▁proche",
        -9.444855473155881
      ],
      [
        "▁Kookule",
        -9.44503511404148
      ],
      [
        "▁prend",
        -9.446372504837074
      ],
      [
        "▁riir",
        -9.44676443904923
      ],
      [
        "▁tubaab",
        -9.447326142177044
      ],
      [
        "oŋ",
        -9.447790946473917
      ],
      [
        "▁faut",
        -9.448016775142369
      ],
      [
        "lle",
        -9.449536934637809
      ],
      [
        "▁sew",
        -9.449674298902137
      ],
      [
        "▁waxtu",
        -9.45019151808488
      ],
      [
        "oom",
        -9.451388938695123
      ],
      [
        "▁eux",
        -9.45139297989974
      ],
      [
        "▁compte",
        -9.452191422890996
      ],
      [
        "▁bunt",
        -9.452331901036098
      ],
      [
        "▁noms",
        -9.452456428218191
      ],
      [
        "▁hautes",
        -9.452716830429626
      ],
      [
        "▁goût",
        -9.453091038805983
      ],
      [
        "▁ainsi",
        -9.453400838827225
      ],
      [
        "▁cœur",
        -9.454448850903058
      ],
      [
        "▁bir",
        -9.455048749996017
      ],
      [
        "▁sauvages",
        -9.455298320493082
      ],
      [
        "▁màggat",
        -9.4558594550892
      ],
      [
        "▁Sunu",
        -9.457676394675795
      ],
      [
        "▁ex",
        -9.459552420965073
      ],
      [
        "▁unique",
        -9.460862911397989
      ],
      [
        "▁chambre",
        -9.461420223289947
      ],
      [
        "▁pouvai",
        -9.462122590073553
      ],
      [
        "▁bëggée",
        -9.462300816004046
      ],
      [
        "▁Boo",
        -9.465245916557462
      ],
      [
        "▁dalal",
        -9.467562464057348
      ],
      [
        "▁cherche",
        -9.46949070264974
      ],
      [
        "aw",
        -9.46972576410259
      ],
      [
        "▁photos",
        -9.47074559221593
      ],
      [
        "▁waar",
        -9.47324257067518
      ],
      [
        "een",
        -9.476618516115412
      ],
      [
        "▁petits",
        -9.476684167047253
      ],
      [
        "▁teew",
        -9.477038671746033
      ],
      [
        "▁noirs",
        -9.478161222681615
      ],
      [
        "ooy",
        -9.479591391576818
      ],
      [
        "▁instant",
        -9.481651337411645
      ],
      [
        "▁inter",
        -9.481749445635758
      ],
      [
        "▁diis",
        -9.486453258530888
      ],
      [
        "▁bees",
        -9.488929892859439
      ],
      [
        "nd",
        -9.490808522049544
      ],
      [
        "▁Dañ",
        -9.49188691656223
      ],
      [
        "▁sonal",
        -9.492476000980949
      ],
      [
        "▁devai",
        -9.49399122074712
      ],
      [
        "▁jusqu'au",
        -9.495121576296176
      ],
      [
        "ré",
        -9.496451731566456
      ],
      [
        "▁sago",
        -9.497208905944083
      ],
      [
        "▁yenu",
        -9.498399063662315
      ],
      [
        "impression",
        -9.498763411223848
      ],
      [
        "ñeen",
        -9.502379576653263
      ],
      [
        "m.",
        -9.507145601797186
      ],
      [
        "istrict",
        -9.510055159326937
      ],
      [
        "▁raconte",
        -9.511475006206386
      ],
      [
        "▁guy",
        -9.511699174661569
      ],
      [
        "yu",
        -9.511961979562125
      ],
      [
        "ral",
        -9.513048858587066
      ],
      [
        "eŋ",
        -9.513348928674905
      ],
      [
        "▁fee",
        -9.514279873010635
      ],
      [
        "▁nëbb",
        -9.518084074588192
      ],
      [
        "▁pënd",
        -9.521711844901084
      ],
      [
        "pp",
        -9.521971979220787
      ],
      [
        "▁noon",
        -9.525485588326676
      ],
      [
        "ables",
        -9.525736168488317
      ],
      [
        "▁parc",
        -9.530102024199351
      ],
      [
        "▁dénd",
        -9.532636559668244
      ],
      [
        "▁jeu",
        -9.536357818450915
      ],
      [
        "ine",
        -9.53848560155057
      ],
      [
        "▁tar",
        -9.539727397671422
      ],
      [
        "▁retour",
        -9.540392468642548
      ],
      [
        "▁êtes",
        -9.541577935967123
      ],
      [
        "llait",
        -9.541985202136338
      ],
      [
        "ëgg",
        -9.542404585063343
      ],
      [
        "▁peur",
        -9.543368542188523
      ],
      [
        "▁feeñ",
        -9.547971992854595
      ],
      [
        "▁cours",
        -9.550033287164325
      ],
      [
        "▁rëdd",
        -9.551703575888121
      ],
      [
        "ch",
        -9.552975778113165
      ],
      [
        "▁scorpion",
        -9.55415020258657
      ],
      [
        "▁Laob",
        -9.557769914194752
      ],
      [
        "▁nan",
        -9.557991637838445
      ],
      [
        "▁on",
        -9.559915065934723
      ],
      [
        "était",
        -9.56120245031797
      ],
      [
        "▁t'",
        -9.563484289641627
      ],
      [
        "▁vivre",
        -9.565101639470592
      ],
      [
        "▁tày",
        -9.56636560225115
      ],
      [
        "dé",
        -9.566591031529098
      ],
      [
        "▁garçon",
        -9.5670140223561
      ],
      [
        "▁wan",
        -9.56868991610722
      ],
      [
        "▁pied",
        -9.576652170112157
      ],
      [
        "▁blanc",
        -9.578497846966256
      ],
      [
        "▁palanteer",
        -9.581589003194853
      ],
      [
        "▁simple",
        -9.582365038138649
      ],
      [
        "▁gouvernement",
        -9.582937250715997
      ],
      [
        "▁sukkuraat",
        -9.582937250941855
      ],
      [
        "▁loppitaan",
        -9.582937305207917
      ],
      [
        "▁bonheur",
        -9.582937332153605
      ],
      [
        "▁difficile",
        -9.582937524824082
      ],
      [
        "▁Ayijoo",
        -9.58293755882575
      ],
      [
        "▁tôle",
        -9.582937898345
      ],
      [
        "▁boeuf",
        -9.582938051466805
      ],
      [
        "▁màrse",
        -9.582938946467497
      ],
      [
        "▁premier",
        -9.582941308927285
      ],
      [
        "▁Óbudu",
        -9.582946281636575
      ],
      [
        "▁solitude",
        -9.582948833245327
      ],
      [
        "▁wurus",
        -9.58295158683742
      ],
      [
        "▁mauvais",
        -9.58295604572197
      ],
      [
        "▁Deŋk",
        -9.582958175082776
      ],
      [
        "▁mourir",
        -9.58297563224981
      ],
      [
        "▁Déedéet",
        -9.582983141616348
      ],
      [
        "▁xëcc",
        -9.58298627052584
      ],
      [
        "▁l'Angleterre",
        -9.583043399213636
      ],
      [
        "▁juddoo",
        -9.58305209523383
      ],
      [
        "▁woto",
        -9.583063608218042
      ],
      [
        "▁yeksi",
        -9.583068501896674
      ],
      [
        "▁rëcc",
        -9.583074463985808
      ],
      [
        "▁beaucoup",
        -9.583074568654412
      ],
      [
        "▁campement",
        -9.583133572504368
      ],
      [
        "▁croyai",
        -9.583155728805702
      ],
      [
        "▁plateaux",
        -9.583157480854796
      ],
      [
        "▁dëgër",
        -9.583162347911342
      ],
      [
        "▁simoŋ",
        -9.58317999287145
      ],
      [
        "▁tëdd",
        -9.583225202525316
      ],
      [
        "▁ensemble",
        -9.583256893789148
      ],
      [
        "▁nelaw",
        -9.583363253472525
      ],
      [
        "▁d'abord",
        -9.58338083363482
      ],
      [
        "▁au-de",
        -9.583704986389822
      ],
      [
        "mettre",
        -9.583773644175219
      ],
      [
        "▁jàppale",
        -9.583790310145014
      ],
      [
        "▁large",
        -9.584155994609038
      ],
      [
        "▁raglu",
        -9.584373980936988
      ],
      [
        "▁courant",
        -9.584374464178282
      ],
      [
        "▁immense",
        -9.58444757900709
      ],
      [
        "▁yëf",
        -9.584752467917054
      ],
      [
        "▁wépp",
        -9.584754489983757
      ],
      [
        "▁bett",
        -9.584783720656596
      ],
      [
        "▁nuages",
        -9.584926433720792
      ],
      [
        "▁images",
        -9.585149051357481
      ],
      [
        "▁mucc",
        -9.585302824877203
      ],
      [
        "▁Ó",
        -9.585420589255788
      ],
      [
        "▁depuis",
        -9.585556299970957
      ],
      [
        "▁reconnu",
        -9.585566391958356
      ],
      [
        "▁Ayaa",
        -9.585835593824621
      ],
      [
        "os",
        -9.586093236935897
      ],
      [
        "▁ňuul",
        -9.586145427931758
      ],
      [
        "▁palmes",
        -9.586346970946435
      ],
      [
        "lli",
        -9.587090940527855
      ],
      [
        "▁Fais",
        -9.587132507341325
      ],
      [
        "▁époque",
        -9.587236648730675
      ],
      [
        "▁àngale",
        -9.58734547542245
      ],
      [
        "▁ventre",
        -9.587384306782882
      ],
      [
        "▁woowe",
        -9.587425742709344
      ],
      [
        "▁naqadi",
        -9.587900387508844
      ],
      [
        "▁seng",
        -9.589493777856898
      ],
      [
        "▁accroché",
        -9.589694624781352
      ],
      [
        "▁termites",
        -9.589874123361128
      ],
      [
        "▁vaste",
        -9.590020661064678
      ],
      [
        "▁bonne",
        -9.590061551164174
      ],
      [
        "▁district",
        -9.590077250152305
      ],
      [
        "▁màndi",
        -9.590275275677993
      ],
      [
        "▁anglaise",
        -9.590820209836284
      ],
      [
        "▁lonk",
        -9.591228069213031
      ],
      [
        "▁sowu",
        -9.592272160625825
      ],
      [
        "▁fuir",
        -9.592719203059133
      ],
      [
        "▁Foofu",
        -9.59323095477173
      ],
      [
        "▁mukk",
        -9.593767640159452
      ],
      [
        "▁âge",
        -9.59506091335916
      ],
      [
        "▁porteurs",
        -9.59562045960801
      ],
      [
        "▁voit",
        -9.595887650683304
      ],
      [
        "▁Fekk",
        -9.596068856594032
      ],
      [
        "▁foo",
        -9.596261793117765
      ],
      [
        "▁soppi",
        -9.597990974805564
      ],
      [
        "odeur",
        -9.598385397836935
      ],
      [
        "▁ndey",
        -9.60135041440256
      ],
      [
        "▁jàn",
        -9.602646503728932
      ],
      [
        "ppelle",
        -9.602694000655761
      ],
      [
        "▁chemins",
        -9.604368112070198
      ],
      [
        "ji",
        -9.60538043208323
      ],
      [
        "okk",
        -9.605529126346994
      ],
      [
        "▁arrivés",
        -9.606340588590193
      ],
      [
        "▁masuma",
        -9.606508496256893
      ],
      [
        "▁viennent",
        -9.606546795234777
      ],
      [
        "▁buntu",
        -9.607455126170258
      ],
      [
        "nce",
        -9.607948972439072
      ],
      [
        "ndant",
        -9.609822685952688
      ],
      [
        "▁parents",
        -9.610213529784813
      ],
      [
        "▁jafe",
        -9.611041261209254
      ],
      [
        "-tu",
        -9.611521253453192
      ],
      [
        "ukaay",
        -9.611654323454438
      ],
      [
        "ër",
        -9.612026211847807
      ],
      [
        "▁doxe",
        -9.612464970067554
      ],
      [
        "▁jeunes",
        -9.613395944890387
      ],
      [
        "▁më",
        -9.614344846085137
      ],
      [
        "ko",
        -9.614402092228081
      ],
      [
        "▁cru",
        -9.615284122736414
      ],
      [
        "'habitude",
        -9.617557730982117
      ],
      [
        "▁e",
        -9.618465345063877
      ],
      [
        "▁premières",
        -9.618998362660205
      ],
      [
        "autorité",
        -9.619306660348963
      ],
      [
        "▁Ki",
        -9.61951186584973
      ],
      [
        "▁coloniale",
        -9.619863834372474
      ],
      [
        "▁Nu",
        -9.6201415458241
      ],
      [
        "ba",
        -9.62822670684706
      ],
      [
        "▁yat",
        -9.629120309218477
      ],
      [
        "▁der",
        -9.629935983145385
      ],
      [
        "▁con",
        -9.63013689574605
      ],
      [
        "▁siiw",
        -9.634311271793194
      ],
      [
        "▁ñibbi",
        -9.636156924112896
      ],
      [
        "▁teewu",
        -9.637962566055961
      ],
      [
        "▁l'é",
        -9.63849279236432
      ],
      [
        "▁yaak",
        -9.638689876296127
      ],
      [
        "ût",
        -9.639056982553493
      ],
      [
        "▁woy",
        -9.641803610781661
      ],
      [
        "▁mbë",
        -9.642169836025525
      ],
      [
        "▁kay",
        -9.643071188106626
      ],
      [
        "ta",
        -9.646502306241192
      ],
      [
        "au",
        -9.646890747814904
      ],
      [
        "ces",
        -9.647495040316624
      ],
      [
        "▁crise",
        -9.651034328331384
      ],
      [
        "quel",
        -9.651952453965981
      ],
      [
        "▁fall",
        -9.65302004727033
      ],
      [
        "▁dakk",
        -9.655028116198991
      ],
      [
        "▁taxu",
        -9.656343666150311
      ],
      [
        "kom",
        -9.656869131297565
      ],
      [
        "▁donn",
        -9.65697162718811
      ],
      [
        "nde",
        -9.65750130468971
      ],
      [
        "▁neex.",
        -9.658690162465977
      ],
      [
        "▁togg",
        -9.659400869576219
      ],
      [
        "son",
        -9.661038699868918
      ],
      [
        "▁nañoo",
        -9.662112529990601
      ],
      [
        "▁provi",
        -9.663936062389933
      ],
      [
        "été",
        -9.667086902839575
      ],
      [
        "▁kowe",
        -9.66817577296764
      ],
      [
        "maana",
        -9.669822765602358
      ],
      [
        "gu",
        -9.671798043585246
      ],
      [
        "▁raay",
        -9.672703195477652
      ],
      [
        "▁enfant-",
        -9.674262681506805
      ],
      [
        "▁sor",
        -9.676213612203615
      ],
      [
        "use",
        -9.676223210231884
      ],
      [
        "el",
        -9.677727645652968
      ],
      [
        "▁arrivée",
        -9.677979114484279
      ],
      [
        "▁mënu",
        -9.679475141212855
      ],
      [
        "aay",
        -9.680237345397394
      ],
      [
        "-fu",
        -9.680482448973542
      ],
      [
        "àll",
        -9.68101756990763
      ],
      [
        "▁av",
        -9.681138032696294
      ],
      [
        "▁Nko",
        -9.681790949172635
      ],
      [
        "▁traverse",
        -9.682448537120157
      ],
      [
        "ŋga",
        -9.684240022038155
      ],
      [
        "▁Ka",
        -9.686774626246637
      ],
      [
        "▁refuse",
        -9.687368056447841
      ],
      [
        "▁tas",
        -9.688528568855972
      ],
      [
        "▁jàngal",
        -9.691199310684961
      ],
      [
        "▁l'entr",
        -9.692209677089144
      ],
      [
        "▁Pe",
        -9.69388777707614
      ],
      [
        "entiers",
        -9.69391502859169
      ],
      [
        "▁duma",
        -9.694943933666254
      ],
      [
        "▁men",
        -9.695000355647258
      ],
      [
        "▁Nda",
        -9.69776100090856
      ],
      [
        "▁jànq",
        -9.699688647549197
      ],
      [
        "▁Waxa",
        -9.699832714930162
      ],
      [
        "▁jo",
        -9.70138793366497
      ],
      [
        "▁xa",
        -9.701517811633948
      ],
      [
        "vient",
        -9.705049420989528
      ],
      [
        "▁d'autre",
        -9.705477571562126
      ],
      [
        "êtes",
        -9.706041579273233
      ],
      [
        "▁nja",
        -9.70725991876417
      ],
      [
        "▁habit",
        -9.708069461100276
      ],
      [
        "▁fût",
        -9.708667294605764
      ],
      [
        "▁boue",
        -9.708953583231331
      ],
      [
        "▁Ri",
        -9.709269197391189
      ],
      [
        "rait",
        -9.709546893099795
      ],
      [
        "▁colonial",
        -9.716333264330457
      ],
      [
        "neen",
        -9.716608517883596
      ],
      [
        "▁voul",
        -9.718871816748184
      ],
      [
        "▁kàttan",
        -9.719054289552412
      ],
      [
        "▁ñooña",
        -9.71995211211066
      ],
      [
        "▁set",
        -9.723504972715679
      ],
      [
        "▁destin",
        -9.723884511149427
      ],
      [
        "▁h",
        -9.725228014444962
      ],
      [
        "▁toogu",
        -9.728004391743792
      ],
      [
        "▁ressenti",
        -9.729352629399816
      ],
      [
        "▁gardé",
        -9.730269267063498
      ],
      [
        "t.",
        -9.732781172429776
      ],
      [
        "▁maladie",
        -9.732869654289363
      ],
      [
        "ya",
        -9.733026265303927
      ],
      [
        "àkk",
        -9.73334663676528
      ],
      [
        "▁éta",
        -9.734212905565276
      ],
      [
        "sait",
        -9.735158323435197
      ],
      [
        "ëf",
        -9.736066527072104
      ],
      [
        "▁étranger",
        -9.73935417364054
      ],
      [
        "ter",
        -9.740525031703996
      ],
      [
        "▁dun",
        -9.741346689524415
      ],
      [
        "▁chemin",
        -9.74156443329364
      ],
      [
        "▁chasse",
        -9.741683459215853
      ],
      [
        "▁V",
        -9.741980243066385
      ],
      [
        "▁doomi-",
        -9.742343832905938
      ],
      [
        "part",
        -9.744687590912587
      ],
      [
        "x-ci",
        -9.74483122819283
      ],
      [
        "▁H",
        -9.745987099792513
      ],
      [
        "▁souffle",
        -9.747466333277577
      ],
      [
        "▁I",
        -9.747803940779752
      ],
      [
        "▁entend",
        -9.74811467067793
      ],
      [
        "▁juum",
        -9.748638937809066
      ],
      [
        "▁Ar",
        -9.749308711790505
      ],
      [
        "8",
        -9.749582682586729
      ],
      [
        "▁Wiktoryaa",
        -9.749603917335012
      ],
      [
        "▁dëggëntaan",
        -9.74960391747171
      ],
      [
        "▁Mellentaan",
        -9.749603917947557
      ],
      [
        "▁gàncax",
        -9.74960391830263
      ],
      [
        "▁petorool",
        -9.749603931376704
      ],
      [
        "▁territoire",
        -9.749603944495341
      ],
      [
        "▁officer",
        -9.749603946593494
      ],
      [
        "▁auparavant",
        -9.749603991535455
      ],
      [
        "▁jaxasoo",
        -9.749604039787359
      ],
      [
        "▁dëgg-dëgg",
        -9.749604065301487
      ],
      [
        "▁ponkal",
        -9.74960421848953
      ],
      [
        "▁ngëlén",
        -9.749604481163878
      ],
      [
        "▁règle",
        -9.749605342482417
      ],
      [
        "▁xibaar",
        -9.749607428591572
      ],
      [
        "▁Yaakaar",
        -9.749607462117762
      ],
      [
        "▁Lagos",
        -9.749608230398547
      ],
      [
        "▁désert",
        -9.749609495633273
      ],
      [
        "▁000",
        -9.74960988649801
      ],
      [
        "▁Africains",
        -9.749610476148145
      ],
      [
        "▁vingt",
        -9.74961068171681
      ],
      [
        "▁contact",
        -9.749612362375839
      ],
      [
        "▁Waxtaan",
        -9.749616016073935
      ],
      [
        "▁chemise",
        -9.749616493892473
      ],
      [
        "▁pierre",
        -9.749623677562763
      ],
      [
        "▁werante",
        -9.74962454664896
      ],
      [
        "▁vérité",
        -9.749633308508313
      ],
      [
        "▁féete",
        -9.749636041137805
      ],
      [
        "▁mbedd",
        -9.749639856771747
      ],
      [
        "▁visite",
        -9.749642178183613
      ],
      [
        "▁baaraam",
        -9.749643074045984
      ],
      [
        "▁cheveux",
        -9.749650529783858
      ],
      [
        "▁l'époque",
        -9.749653379173239
      ],
      [
        "▁d'autrefois",
        -9.74965898634819
      ],
      [
        "▁réalité",
        -9.749667624709728
      ],
      [
        "▁jumtukaay",
        -9.749676841161769
      ],
      [
        "▁jékkee-j",
        -9.749681787768854
      ],
      [
        "▁servir",
        -9.74969903651648
      ],
      [
        "▁njabootam",
        -9.749717789449747
      ],
      [
        "▁frontière",
        -9.749724001662699
      ],
      [
        "▁légère",
        -9.74974447224435
      ],
      [
        "▁kawas",
        -9.749797099607083
      ],
      [
        "▁cofeel",
        -9.749803238731575
      ],
      [
        "▁tàngaay",
        -9.74988041049873
      ],
      [
        "▁herbes",
        -9.749918590544723
      ],
      [
        "▁gunge",
        -9.749936789914837
      ],
      [
        "▁début",
        -9.749947265519381
      ],
      [
        "▁Donne",
        -9.749980638591829
      ],
      [
        "▁jabar",
        -9.7499866032929
      ],
      [
        "▁Génn",
        -9.74999589919944
      ],
      [
        "▁rêvé",
        -9.749996942423772
      ],
      [
        "▁caaxaan",
        -9.750001014309385
      ],
      [
        "▁Tugël",
        -9.750041175168963
      ],
      [
        "▁tàmm",
        -9.750106512845132
      ],
      [
        "▁place",
        -9.750107706402515
      ],
      [
        "▁j'imagine",
        -9.750131167667494
      ],
      [
        "▁dajale",
        -9.750145777028889
      ],
      [
        "▁meňň",
        -9.750146503029285
      ],
      [
        "▁d'esprit",
        -9.750198716044387
      ],
      [
        "▁voiture",
        -9.750380986629109
      ],
      [
        "▁seetaan",
        -9.75038634890141
      ],
      [
        "▁commun",
        -9.750401603145157
      ],
      [
        "▁masques",
        -9.75040730791442
      ],
      [
        "▁connaissent",
        -9.750486655665016
      ],
      [
        "▁nouvelle",
        -9.750496932768277
      ],
      [
        "▁yéeg",
        -9.75050430950105
      ],
      [
        "▁jëfandikoo",
        -9.750518394557048
      ],
      [
        "▁revenir",
        -9.750570901958508
      ],
      [
        "▁jàkk",
        -9.750702003159368
      ],
      [
        "▁bouche",
        -9.750718001829908
      ],
      [
        "▁sëkk",
        -9.750791295133771
      ],
      [
        "▁wéet",
        -9.750962774064694
      ],
      [
        "▁travailleurs",
        -9.751007237601693
      ],
      [
        "▁arrêté",
        -9.751075765891041
      ],
      [
        "▁lonet",
        -9.751170038635363
      ],
      [
        "▁mangé",
        -9.751212527314102
      ],
      [
        "▁askan",
        -9.751364886930713
      ],
      [
        "▁njël",
        -9.75144434699861
      ],
      [
        "▁néew",
        -9.751601270747987
      ],
      [
        "▁ressens",
        -9.751851005888987
      ],
      [
        "▁kukk",
        -9.751877154754911
      ],
      [
        "▁fow",
        -9.751943134478346
      ],
      [
        "▁brousse",
        -9.752008226538605
      ],
      [
        "▁partout",
        -9.752012966708426
      ],
      [
        "▁agsi",
        -9.752117885317784
      ],
      [
        "▁gàddaay",
        -9.752121859916885
      ],
      [
        "▁autre-là",
        -9.75220546583424
      ],
      [
        "▁dehors",
        -9.753157833114864
      ],
      [
        "▁doonkoon",
        -9.75338329173724
      ],
      [
        "▁laisser",
        -9.75345660636567
      ],
      [
        "▁habitants",
        -9.753464538224913
      ],
      [
        "▁nom",
        -9.753737620281143
      ],
      [
        "▁malade",
        -9.753742072792466
      ],
      [
        "▁tolloo",
        -9.753751055887784
      ],
      [
        "▁courir",
        -9.75385304623814
      ],
      [
        "▁L'un",
        -9.753952592330329
      ],
      [
        "▁tontu",
        -9.754310357816305
      ],
      [
        "▁l'aventure",
        -9.754454135810393
      ],
      [
        "▁xeex",
        -9.754609659835138
      ],
      [
        "▁jeeg",
        -9.754829298330005
      ],
      [
        "▁muur",
        -9.755398695304994
      ],
      [
        "▁aime",
        -9.75574560538627
      ],
      [
        "s-",
        -9.756278438092146
      ],
      [
        "▁propre",
        -9.756574081082366
      ],
      [
        "▁soosu",
        -9.756576046182055
      ],
      [
        "▁cuisine",
        -9.756676305107975
      ],
      [
        "▁yen",
        -9.757250584684485
      ],
      [
        "▁tata",
        -9.75826394990859
      ],
      [
        "▁écrit",
        -9.758309159041387
      ],
      [
        "▁taamu",
        -9.759341568272927
      ],
      [
        "▁yéemu",
        -9.76000713608688
      ],
      [
        "waa",
        -9.760250469197672
      ],
      [
        "▁juróomi",
        -9.760556910427974
      ],
      [
        "▁yéene",
        -9.760576118016001
      ],
      [
        "▁Obudu",
        -9.761502616887455
      ],
      [
        "▁Port",
        -9.762247321624665
      ],
      [
        "▁reer",
        -9.762393606472878
      ],
      [
        "ène",
        -9.762627554945286
      ],
      [
        "'agit",
        -9.762852887138102
      ],
      [
        "▁démb",
        -9.763525997666834
      ],
      [
        "▁sës",
        -9.76404547033757
      ],
      [
        "ngóor",
        -9.765880348581636
      ],
      [
        "▁surga",
        -9.766015592942763
      ],
      [
        "▁thé",
        -9.76694544207784
      ],
      [
        "▁sens",
        -9.767048900420736
      ],
      [
        "▁Ñoo",
        -9.76735263616199
      ],
      [
        "▁objets",
        -9.76787869115902
      ],
      [
        "▁yeew",
        -9.768614982682786
      ],
      [
        "▁droit",
        -9.769012638634278
      ],
      [
        "▁histoire",
        -9.769318141079648
      ],
      [
        "▁jambes",
        -9.769424202555388
      ],
      [
        "▁jotee",
        -9.770042921704636
      ],
      [
        "▁humaine",
        -9.770563233013796
      ],
      [
        "▁africaine",
        -9.771290931639504
      ],
      [
        "▁tiit",
        -9.771449106242528
      ],
      [
        "▁danga",
        -9.77162247091149
      ],
      [
        "▁vêtu",
        -9.771963944055015
      ],
      [
        "▁visages",
        -9.772172015910026
      ],
      [
        "▁certaine",
        -9.772845657054857
      ],
      [
        "▁Fii",
        -9.773232932139123
      ],
      [
        "▁Yara",
        -9.773768887958523
      ],
      [
        "▁dan",
        -9.77392025444633
      ],
      [
        "▁woowu",
        -9.774145145674083
      ],
      [
        "ieux",
        -9.774342825278069
      ],
      [
        "▁ressentir",
        -9.774656233543306
      ],
      [
        "▁jag",
        -9.775474511024434
      ],
      [
        "▁Afrigam",
        -9.776935699748615
      ],
      [
        "▁tours",
        -9.778101720561446
      ],
      [
        "▁Mag",
        -9.778459371851628
      ],
      [
        "rends",
        -9.779001950986892
      ],
      [
        "▁dawal",
        -9.779225224433844
      ],
      [
        "▁Ko",
        -9.779502197018349
      ],
      [
        "▁fer",
        -9.780619481383537
      ],
      [
        "▁tekki",
        -9.781708237080139
      ],
      [
        "▁cherch",
        -9.781841182865712
      ],
      [
        "▁sanc",
        -9.782872599583609
      ],
      [
        "ag",
        -9.784623026111161
      ],
      [
        "▁waxoon",
        -9.784698769862331
      ],
      [
        "▁Quelque",
        -9.786300339802235
      ],
      [
        "▁déet",
        -9.786452086259487
      ],
      [
        "ndax",
        -9.786795370478371
      ],
      [
        "▁présent",
        -9.787030595995386
      ],
      [
        "▁française",
        -9.788486035132726
      ],
      [
        "aka",
        -9.78856438182332
      ],
      [
        "▁far",
        -9.789679054959315
      ],
      [
        "▁naissance",
        -9.791778072531443
      ],
      [
        "ry",
        -9.792643552254216
      ],
      [
        "▁somme",
        -9.792855626158023
      ],
      [
        "▁cas",
        -9.793011235521291
      ],
      [
        "▁dikk",
        -9.793106605212971
      ],
      [
        "▁soup",
        -9.795166827416086
      ],
      [
        "▁coono",
        -9.796649168077607
      ],
      [
        "▁nguuru",
        -9.796684901282136
      ],
      [
        "▁yax",
        -9.79672521875472
      ],
      [
        "instant",
        -9.798402802612435
      ],
      [
        "ton",
        -9.798689788939221
      ],
      [
        "▁màndarga",
        -9.799303288013169
      ],
      [
        "▁rivières",
        -9.801238501326992
      ],
      [
        "▁portes",
        -9.802973970830271
      ],
      [
        "▁Dis",
        -9.803293678003383
      ],
      [
        "umes",
        -9.806229035502785
      ],
      [
        "▁coups",
        -9.806640854345158
      ],
      [
        "▁ñooñ",
        -9.806921339958677
      ],
      [
        "image",
        -9.808206281362875
      ],
      [
        "▁allai",
        -9.80941119873268
      ],
      [
        "▁all",
        -9.80992204607873
      ],
      [
        "▁féex",
        -9.810825448744602
      ],
      [
        "▁commence",
        -9.811629265862887
      ],
      [
        "▁sain",
        -9.811706958476087
      ],
      [
        "▁waroo",
        -9.812990521732493
      ],
      [
        "▁fais",
        -9.815214661653032
      ],
      [
        "▁jigéen.",
        -9.819634934469805
      ],
      [
        "▁car",
        -9.819735817161169
      ],
      [
        "▁vais",
        -9.820883567826801
      ],
      [
        "▁Abo",
        -9.821485229397048
      ],
      [
        "▁aurais",
        -9.823499619242591
      ],
      [
        "'individu",
        -9.824038530302545
      ],
      [
        "exe",
        -9.824720526507152
      ],
      [
        "▁tànki",
        -9.825461782059339
      ],
      [
        "▁mari",
        -9.82851282014097
      ],
      [
        "elles",
        -9.831276075222345
      ],
      [
        "aata",
        -9.831998587546442
      ],
      [
        "▁Daŋg",
        -9.833932635493195
      ],
      [
        "moon",
        -9.835374672673083
      ],
      [
        "ga",
        -9.836680161302267
      ],
      [
        "▁në",
        -9.837270763758223
      ],
      [
        "▁àpp",
        -9.837433606211434
      ],
      [
        "▁devenu",
        -9.837495027213816
      ],
      [
        "▁Dana",
        -9.839939137337163
      ],
      [
        "▁tab",
        -9.842387673120742
      ],
      [
        "▁xet",
        -9.84554617340718
      ],
      [
        "▁sou",
        -9.849314966096792
      ],
      [
        "-je",
        -9.852935108513115
      ],
      [
        "kkal",
        -9.853177480243257
      ],
      [
        "▁maître",
        -9.854534029396888
      ],
      [
        "▁amen",
        -9.856692545198293
      ],
      [
        "▁serais",
        -9.857307845730942
      ],
      [
        "▁j'en",
        -9.857589462742608
      ],
      [
        "éri",
        -9.861669607837865
      ],
      [
        "tation",
        -9.863519069879768
      ],
      [
        "▁ñeme",
        -9.864375794539942
      ],
      [
        "▁Ngi",
        -9.86579059504841
      ],
      [
        "ous",
        -9.867651448182192
      ],
      [
        "óo",
        -9.869376205749887
      ],
      [
        "▁danu",
        -9.872498092507863
      ],
      [
        "▁cinq",
        -9.87474878877692
      ],
      [
        "▁champ",
        -9.876569005651962
      ],
      [
        "▁not",
        -9.879621041179487
      ],
      [
        "▁prêt",
        -9.880031102469296
      ],
      [
        "▁Liggéey",
        -9.883586474453613
      ],
      [
        "▁pou",
        -9.887017263406161
      ],
      [
        "▁dinaa",
        -9.888001015676757
      ],
      [
        "▁jou",
        -9.888592270512266
      ],
      [
        "▁s'ét",
        -9.88918901330937
      ],
      [
        "oir",
        -9.889675004876251
      ],
      [
        "▁tee",
        -9.891086668238662
      ],
      [
        "▁hu",
        -9.892298908794537
      ],
      [
        "mes",
        -9.893284979899263
      ],
      [
        "▁Mar",
        -9.893854644446392
      ],
      [
        "▁nguur",
        -9.895071317376713
      ],
      [
        "▁rage",
        -9.895122741639895
      ],
      [
        "hoisi",
        -9.89640227976837
      ],
      [
        "▁Jo",
        -9.898283556805776
      ],
      [
        "▁be",
        -9.899103495312236
      ],
      [
        "entre",
        -9.900769035999112
      ],
      [
        "t-il",
        -9.901767022269333
      ],
      [
        "▁français",
        -9.904165136009823
      ],
      [
        "oy",
        -9.905242350397247
      ],
      [
        "gal",
        -9.906638552721418
      ],
      [
        "▁new",
        -9.906938588968941
      ],
      [
        "0",
        -9.90727889636188
      ],
      [
        "▁taw",
        -9.909981000638123
      ],
      [
        "▁chaud",
        -9.910702598605875
      ],
      [
        "▁fur",
        -9.911820049587583
      ],
      [
        "▁Ji",
        -9.912974636705204
      ],
      [
        "▁mba",
        -9.914850184812465
      ],
      [
        "ju",
        -9.915119000115261
      ],
      [
        "▁bâton",
        -9.915893548194834
      ],
      [
        "ption",
        -9.917230230249876
      ],
      [
        "▁ressemble",
        -9.919251095848484
      ],
      [
        "ète",
        -9.919383246349867
      ],
      [
        "ches",
        -9.919651292704902
      ],
      [
        "sant",
        -9.919905234710976
      ],
      [
        "▁jur",
        -9.920453314526203
      ],
      [
        "▁Tou",
        -9.921033489758043
      ],
      [
        "▁garde",
        -9.921371820734919
      ],
      [
        "▁frapp",
        -9.922068658255359
      ],
      [
        "▁suiv",
        -9.923707300577863
      ],
      [
        "▁beau",
        -9.923810112070768
      ],
      [
        "▁sauvage",
        -9.924817075357609
      ],
      [
        "n.",
        -9.925134250029558
      ],
      [
        "▁làq",
        -9.927562854294179
      ],
      [
        "▁daawul",
        -9.92769557285034
      ],
      [
        "ande",
        -9.928576100252767
      ],
      [
        "euse",
        -9.929811823934642
      ],
      [
        "andoo",
        -9.930379048770844
      ],
      [
        "nitu",
        -9.932585336434672
      ],
      [
        "▁këru",
        -9.934030757746582
      ],
      [
        "▁sopp",
        -9.935484908722543
      ],
      [
        "▁chang",
        -9.937766709072491
      ],
      [
        "▁Xare",
        -9.940467206947929
      ],
      [
        "▁trouve",
        -9.941356298760102
      ],
      [
        "▁màgge",
        -9.942317991598376
      ],
      [
        "▁entendu",
        -9.945743091718667
      ],
      [
        "▁l'ét",
        -9.946794488205313
      ],
      [
        "▁x",
        -9.94854358521799
      ],
      [
        "ññ",
        -9.948600095231987
      ],
      [
        "▁No",
        -9.94914836778007
      ],
      [
        "▁camerounais",
        -9.949603917337464
      ],
      [
        "”",
        -9.949603917374915
      ],
      [
        "▁Southampton",
        -9.949603917374915
      ],
      [
        "▁Sefiriis",
        -9.949603917375619
      ],
      [
        "▁Georgetown",
        -9.94960391738824
      ],
      [
        "▁bûcheron",
        -9.949603917419351
      ],
      [
        "▁njàqare",
        -9.949603917533018
      ],
      [
        "▁Adekunle",
        -9.949603917607352
      ],
      [
        "▁l'extérieur",
        -9.949603922329453
      ],
      [
        "▁Abaakaliki",
        -9.949603926300833
      ],
      [
        "▁termitières",
        -9.949603929743802
      ],
      [
        "▁photographi",
        -9.949603934633709
      ],
      [
        "▁biafrais",
        -9.949603937003308
      ],
      [
        "▁Biafra",
        -9.949603960590137
      ],
      [
        "▁“",
        -9.949604090141857
      ],
      [
        "▁Yoruba",
        -9.949604120217984
      ],
      [
        "▁grand-père",
        -9.949604505644007
      ],
      [
        "▁continent",
        -9.9496046713688
      ],
      [
        "▁Sorstaawun",
        -9.94960529034636
      ],
      [
        "▁rejoindre",
        -9.949608880031718
      ],
      [
        "▁probable",
        -9.949609023281107
      ],
      [
        "▁chaussures",
        -9.949609843986172
      ],
      [
        "▁service",
        -9.949610960595173
      ],
      [
        "▁Moontin",
        -9.949612543081798
      ],
      [
        "▁métier",
        -9.949615360502342
      ],
      [
        "▁ndóol",
        -9.949616071955427
      ],
      [
        "▁Cross",
        -9.949616870951761
      ],
      [
        "▁collines",
        -9.949620307808075
      ],
      [
        "▁branche",
        -9.949620919742177
      ],
      [
        "▁kalaate",
        -9.949623905855924
      ],
      [
        "▁compris",
        -9.949625530764953
      ],
      [
        "▁terrible",
        -9.949625920687978
      ],
      [
        "▁retraite",
        -9.949628412244998
      ],
      [
        "▁l'aube",
        -9.949632300170562
      ],
      [
        "▁brûlure",
        -9.94963347452462
      ],
      [
        "▁tronc",
        -9.949634378226964
      ],
      [
        "▁poussière",
        -9.949642949802682
      ],
      [
        "▁karaw",
        -9.949645661034317
      ],
      [
        "▁noyyi",
        -9.949662899687237
      ],
      [
        "▁adulte",
        -9.949676030925684
      ],
      [
        "▁xaaju",
        -9.949683028938244
      ],
      [
        "▁gànnaay",
        -9.949699610750358
      ],
      [
        "▁alkol",
        -9.949706593394453
      ],
      [
        "▁taabal",
        -9.949712539252646
      ],
      [
        "▁doxantu",
        -9.94971542034892
      ],
      [
        "▁Ceux-là",
        -9.949721633144028
      ],
      [
        "▁gentil",
        -9.94973505511573
      ],
      [
        "▁làquji",
        -9.949746154181632
      ],
      [
        "▁séchée",
        -9.949783253650292
      ],
      [
        "▁lui-même",
        -9.949802383050411
      ],
      [
        "▁fauve",
        -9.949811672336446
      ],
      [
        "science",
        -9.949818230474516
      ],
      [
        "▁Pourtant",
        -9.949827013333152
      ],
      [
        "▁rares",
        -9.949853338298055
      ],
      [
        "-tiir",
        -9.949860936217148
      ],
      [
        "▁lampe",
        -9.949865400220336
      ],
      [
        "▁fetal",
        -9.949867168496356
      ],
      [
        "▁j'étais",
        -9.949881810659189
      ],
      [
        "▁ondul",
        -9.949885782647485
      ],
      [
        "▁naqar",
        -9.94989186474307
      ],
      [
        "▁l'argent",
        -9.94991711691285
      ],
      [
        "▁Gan",
        -9.949934363675277
      ],
      [
        "▁juste",
        -9.950000339933666
      ],
      [
        "▁soppiku",
        -9.950068110788175
      ],
      [
        "▁courage",
        -9.950069606828352
      ],
      [
        "▁hutte",
        -9.950081004207266
      ],
      [
        "▁colère",
        -9.95011393466466
      ],
      [
        "▁fruit",
        -9.950119182349194
      ],
      [
        "▁ndab",
        -9.950316119170107
      ],
      [
        "▁awsa",
        -9.950337050632552
      ],
      [
        "▁mbégte",
        -9.95034947178318
      ],
      [
        "▁mbind",
        -9.950399866212015
      ],
      [
        "▁assez",
        -9.950409167882448
      ],
      [
        "▁fey",
        -9.950507614802953
      ],
      [
        "▁yàlla",
        -9.950509000774263
      ],
      [
        "▁connaissais",
        -9.950601170593643
      ],
      [
        "▁vivant",
        -9.950691193287216
      ],
      [
        "▁brave",
        -9.950738498052257
      ],
      [
        "▁précédé",
        -9.950750748996517
      ],
      [
        "▁dékku",
        -9.950870844505042
      ],
      [
        "▁journée",
        -9.950946866800797
      ],
      [
        "▁fortune",
        -9.95107653094356
      ],
      [
        "▁ŋgoogule",
        -9.951108480396929
      ],
      [
        "▁delsi",
        -9.95149128000444
      ],
      [
        "▁oncle",
        -9.951535487894766
      ],
      [
        "▁apporté",
        -9.951586080818217
      ],
      [
        "▁pince",
        -9.951692383689004
      ],
      [
        "▁juddu",
        -9.951711691464661
      ],
      [
        "▁sàcc",
        -9.951751498269676
      ],
      [
        "▁sensation",
        -9.95180660076115
      ],
      [
        "▁volets",
        -9.95185770036904
      ],
      [
        "▁fitna",
        -9.951920966842867
      ],
      [
        "▁cacher",
        -9.952008294507625
      ],
      [
        "▁yàpp",
        -9.952137797750735
      ],
      [
        "▁jouer",
        -9.952159049818325
      ],
      [
        "▁daaneel",
        -9.952386806173445
      ],
      [
        "▁sombre",
        -9.952398474733364
      ],
      [
        "▁sotti",
        -9.952422692077896
      ],
      [
        "▁parole",
        -9.953378685449017
      ],
      [
        "▁doomam",
        -9.95349812532662
      ],
      [
        "▁njiit",
        -9.953845671204524
      ],
      [
        "▁d'eux",
        -9.954075528442567
      ],
      [
        "▁Ñooñu",
        -9.954590702711215
      ],
      [
        "▁yëgaat",
        -9.955284116123837
      ],
      [
        "t-ce",
        -9.955553901658334
      ],
      [
        "▁fort",
        -9.955610583841459
      ],
      [
        "▁ser",
        -9.95570028345775
      ],
      [
        "▁daanu",
        -9.955967262316205
      ],
      [
        "▁simis",
        -9.956115503375187
      ],
      [
        "▁resté",
        -9.9561567643809
      ],
      [
        "▁kookee",
        -9.95639244171526
      ],
      [
        "▁jooy",
        -9.956544879431709
      ],
      [
        "nore",
        -9.95658703388101
      ],
      [
        "▁clair",
        -9.956860194673066
      ],
      [
        "▁douce",
        -9.957309355505714
      ],
      [
        "▁kowam",
        -9.957377372671925
      ],
      [
        "qu'un",
        -9.957381242253096
      ],
      [
        "▁ëmb",
        -9.958302690518975
      ],
      [
        "▁allemande",
        -9.958537345819082
      ],
      [
        "▁Ja",
        -9.958631091282534
      ],
      [
        "▁xaritam",
        -9.958779716220716
      ],
      [
        "ati-",
        -9.959079574245434
      ],
      [
        "▁Ñe",
        -9.959464139846189
      ],
      [
        "▁wér",
        -9.95966531603085
      ],
      [
        "fippu",
        -9.96011301539463
      ],
      [
        "▁vide",
        -9.960900499127503
      ],
      [
        "▁rire",
        -9.961099921507916
      ],
      [
        "▁mesure",
        -9.961425088873348
      ],
      [
        "▁sell",
        -9.961659727277551
      ],
      [
        "▁buum",
        -9.961931852192954
      ],
      [
        "ion",
        -9.962429930769924
      ],
      [
        "▁njort",
        -9.962939292889903
      ],
      [
        "▁melax",
        -9.962957080669474
      ],
      [
        "▁dàtt",
        -9.963310053651279
      ],
      [
        "▁nijaay",
        -9.963678896692333
      ],
      [
        "aale",
        -9.963858313070828
      ],
      [
        "espère",
        -9.965642761971043
      ],
      [
        "▁différent",
        -9.965702304009529
      ],
      [
        "▁savoir",
        -9.965720061551991
      ],
      [
        "▁tawat",
        -9.965784694623808
      ],
      [
        "▁guyy",
        -9.965960221684462
      ],
      [
        "ble",
        -9.967143441291313
      ],
      [
        "▁Wa",
        -9.967156516887691
      ],
      [
        "▁revienne",
        -9.967499967709577
      ],
      [
        "ois",
        -9.967779580650827
      ],
      [
        "▁militaires",
        -9.968058090420325
      ],
      [
        "sa",
        -9.96809188287688
      ],
      [
        "▁Aiya",
        -9.96893733802958
      ],
      [
        "▁éclat",
        -9.968994947860542
      ],
      [
        "▁pans",
        -9.969061817424684
      ],
      [
        "▁couch",
        -9.969922667945436
      ],
      [
        "▁hamacs",
        -9.9700717661874
      ],
      [
        "kóon",
        -9.970302179004856
      ],
      [
        "C",
        -9.970685613247824
      ],
      [
        "▁ñaa",
        -9.971205700236881
      ],
      [
        "▁dàq",
        -9.971282791223693
      ],
      [
        "▁forte",
        -9.971477857470397
      ],
      [
        "▁goog",
        -9.971585647933038
      ],
      [
        "▁dëkkoon",
        -9.971912496215769
      ],
      [
        "ll",
        -9.972175059836337
      ],
      [
        "able",
        -9.972490124874437
      ],
      [
        "▁pos",
        -9.973217035222298
      ],
      [
        "aanaka",
        -9.973836292119564
      ],
      [
        "▁wóolu",
        -9.97394258495799
      ],
      [
        "▁mënuma",
        -9.97448207453133
      ],
      [
        "▁blancs",
        -9.975264203096067
      ],
      [
        "▁lire",
        -9.975317544375068
      ],
      [
        "▁làqu",
        -9.975793082144179
      ],
      [
        "▁saba",
        -9.977110682236413
      ],
      [
        "▁feeñu",
        -9.977136483070542
      ],
      [
        "▁laissé",
        -9.978023192781077
      ],
      [
        "indre",
        -9.978045478867568
      ],
      [
        "▁yéeme",
        -9.978053815949057
      ],
      [
        "▁dugal",
        -9.978591931541175
      ],
      [
        "ok",
        -9.978663314826678
      ],
      [
        "▁charge",
        -9.97870486409532
      ],
      [
        "▁naaxi",
        -9.979311507845175
      ],
      [
        "▁laine",
        -9.979416123493799
      ],
      [
        "▁rappelle",
        -9.97948030132663
      ],
      [
        "kaay",
        -9.979875860267564
      ],
      [
        "▁comment",
        -9.979969482973003
      ],
      [
        "▁rive",
        -9.981305986985085
      ],
      [
        "su",
        -9.981638674572107
      ],
      [
        "▁avance",
        -9.981867407358056
      ],
      [
        "▁mé",
        -9.982636617796746
      ],
      [
        "▁accompagn",
        -9.982990908391095
      ],
      [
        "▁pis",
        -9.983211396649487
      ],
      [
        "▁devenus",
        -9.983412864085983
      ],
      [
        "▁ra",
        -9.984005864108152
      ],
      [
        "lon",
        -9.985863920088386
      ],
      [
        "▁soi",
        -9.986514327326585
      ],
      [
        "▁eusse",
        -9.986591951591498
      ],
      [
        "▁cons",
        -9.986666875326216
      ],
      [
        "▁nak",
        -9.986939896159122
      ],
      [
        "▁donner",
        -9.987926052480809
      ],
      [
        "vant",
        -9.988037070999752
      ],
      [
        "▁tiis",
        -9.988237029340558
      ],
      [
        "▁àtte",
        -9.988347810125422
      ],
      [
        "▁tour",
        -9.989163370261483
      ],
      [
        "▁niir",
        -9.989795667366776
      ],
      [
        "andis",
        -9.991359325712416
      ],
      [
        "▁wàcce",
        -9.991403838145645
      ],
      [
        "▁dois",
        -9.991484144707037
      ],
      [
        "tendre",
        -9.992815667804683
      ],
      [
        "▁scorpions",
        -9.993067529700163
      ],
      [
        "▁mënee",
        -9.993340503431316
      ],
      [
        "ool",
        -9.99432295693509
      ],
      [
        "milie",
        -9.99551190952016
      ],
      [
        "▁waru",
        -9.995668873001803
      ],
      [
        "▁wutal",
        -9.996148516875081
      ],
      [
        "▁ro",
        -9.99631480750849
      ],
      [
        "▁égale",
        -9.997144103217606
      ],
      [
        "▁troupeau",
        -9.998249672158046
      ],
      [
        "▁retourne",
        -9.99842968501656
      ],
      [
        "oit",
        -9.99905526824243
      ],
      [
        "ique",
        -9.999643107703646
      ],
      [
        "▁appelle",
        -10.000482287795032
      ],
      [
        "▁entré",
        -10.001445360547454
      ],
      [
        "▁pluie",
        -10.0018426463758
      ],
      [
        "▁wà",
        -10.002102126517023
      ],
      [
        "▁désir",
        -10.003483766348223
      ],
      [
        "our",
        -10.00387011745062
      ],
      [
        "▁pareil",
        -10.004221744593192
      ],
      [
        "angoisse",
        -10.004462955315448
      ],
      [
        "googule",
        -10.006474918814428
      ],
      [
        "▁Mas",
        -10.006517287840213
      ],
      [
        "▁kookuu",
        -10.006910381921879
      ],
      [
        "ŋŋ",
        -10.008530707407596
      ],
      [
        "▁At",
        -10.008922216725082
      ],
      [
        "▁gisu",
        -10.008952911586018
      ],
      [
        "▁fit",
        -10.010070788063965
      ],
      [
        "▁baxa",
        -10.010204460516594
      ],
      [
        "eef",
        -10.01035953636325
      ],
      [
        "▁armé",
        -10.011497654634898
      ],
      [
        "ñoo",
        -10.012197163481524
      ],
      [
        "▁ňi",
        -10.01254154474328
      ],
      [
        "'imagine",
        -10.01876811337427
      ],
      [
        "connais",
        -10.019421503735984
      ],
      [
        "ici",
        -10.019764951941559
      ],
      [
        "nn",
        -10.02117053957096
      ],
      [
        "x.",
        -10.021545520170097
      ],
      [
        "▁souhaite",
        -10.023388288874534
      ],
      [
        "co",
        -10.025495265720934
      ],
      [
        "▁saf",
        -10.026105415165965
      ],
      [
        "rie",
        -10.02861316387266
      ],
      [
        "▁néegu-",
        -10.028912957938815
      ],
      [
        "▁croi",
        -10.029084043673295
      ],
      [
        "gé",
        -10.029348305238797
      ],
      [
        "▁plan",
        -10.029508889219644
      ],
      [
        "aatu",
        -10.030002470656182
      ],
      [
        "ï",
        -10.030411397141652
      ],
      [
        "▁batt",
        -10.031177974206914
      ],
      [
        "▁Mii",
        -10.031328831081957
      ],
      [
        "▁Yo",
        -10.031656885909912
      ],
      [
        "▁l'avai",
        -10.03169852405399
      ],
      [
        "ez-vous",
        -10.032464585742328
      ],
      [
        "'appartien",
        -10.032632406968565
      ],
      [
        "▁été.",
        -10.032845077590293
      ],
      [
        "▁mënut",
        -10.034298385109851
      ],
      [
        "fi",
        -10.034568842328273
      ],
      [
        "avez",
        -10.035062096661944
      ],
      [
        "ières",
        -10.036173649478846
      ],
      [
        "▁léeb",
        -10.036352231117784
      ],
      [
        "▁Xe",
        -10.038218374806517
      ],
      [
        "éel",
        -10.038606056391258
      ],
      [
        "▁nourri",
        -10.040042871363097
      ],
      [
        "egarde",
        -10.040171548249845
      ],
      [
        "▁sorti",
        -10.041580870334325
      ],
      [
        "▁prise",
        -10.041909083501196
      ],
      [
        "ard",
        -10.042044018242716
      ],
      [
        "tam",
        -10.04366656011738
      ],
      [
        "tal",
        -10.045932745898943
      ],
      [
        "hier",
        -10.04594794965533
      ],
      [
        "▁deey",
        -10.047357172302135
      ],
      [
        "ins",
        -10.048021431242294
      ],
      [
        "▁sant",
        -10.049106517381748
      ],
      [
        "sse",
        -10.050533929049976
      ],
      [
        "▁seuls",
        -10.050897229453374
      ],
      [
        "ange",
        -10.051847258310863
      ],
      [
        "ca",
        -10.052554073857284
      ],
      [
        "▁cercl",
        -10.053789131552177
      ],
      [
        "▁maîtres",
        -10.05462685209669
      ],
      [
        "▁jaa",
        -10.059754775219702
      ],
      [
        "koo",
        -10.060752594909536
      ],
      [
        "rt",
        -10.061036228499413
      ],
      [
        "boole",
        -10.063365218702142
      ],
      [
        "ers",
        -10.064017116262736
      ],
      [
        "leek",
        -10.065177112951785
      ],
      [
        "▁vari",
        -10.065363484271167
      ],
      [
        "waale",
        -10.06803134052914
      ],
      [
        "▁pourra",
        -10.06893630059516
      ],
      [
        "▁grandi",
        -10.071358709687308
      ],
      [
        "▁ton",
        -10.072848635101849
      ],
      [
        "▁ng",
        -10.073611634061404
      ],
      [
        "▁(ce",
        -10.074955472018713
      ],
      [
        "▁table",
        -10.077100294217
      ],
      [
        "ombre",
        -10.07754768079125
      ],
      [
        "▁nag.",
        -10.079145656986475
      ],
      [
        "▁pré",
        -10.080745799173071
      ],
      [
        "ssent",
        -10.081846411848314
      ],
      [
        "ënd",
        -10.082709806825157
      ],
      [
        "waan",
        -10.083923307217386
      ],
      [
        "▁moomee",
        -10.084337127947569
      ],
      [
        "sses",
        -10.085160579297463
      ],
      [
        "▁mill",
        -10.085390656522945
      ],
      [
        "▁cou",
        -10.087218365118071
      ],
      [
        "tions",
        -10.088730197057316
      ],
      [
        "▁pensé",
        -10.089133486725485
      ],
      [
        "▁auto",
        -10.089763420058464
      ],
      [
        "'occupa",
        -10.091569820474215
      ],
      [
        "roule",
        -10.093107786350707
      ],
      [
        "▁ré",
        -10.09429762113533
      ],
      [
        "celle",
        -10.0946624081588
      ],
      [
        "eel",
        -10.095910225589575
      ],
      [
        "▁impression",
        -10.097297856810474
      ],
      [
        "▁d'or",
        -10.099744466388138
      ],
      [
        "▁xamu",
        -10.100422588016961
      ],
      [
        "▁Fo",
        -10.10043627442271
      ],
      [
        "▁n'as",
        -10.100619223061823
      ],
      [
        "lé",
        -10.10062635631366
      ],
      [
        "–",
        -10.10275442905753
      ],
      [
        "éeri",
        -10.105818307689086
      ],
      [
        "▁dur",
        -10.107925213880444
      ],
      [
        "éy",
        -10.108170807005076
      ],
      [
        "▁faf",
        -10.109256918319177
      ],
      [
        "▁m'",
        -10.109515136226358
      ],
      [
        "▁lim",
        -10.112954914302158
      ],
      [
        "ier",
        -10.114014232844351
      ],
      [
        "▁pouss",
        -10.114620046554778
      ],
      [
        "ire",
        -10.115377952390908
      ],
      [
        "▁wor",
        -10.116076335833034
      ],
      [
        "allaient",
        -10.116493663477817
      ],
      [
        "▁yemu",
        -10.118092729309883
      ],
      [
        "▁amour",
        -10.118639535442291
      ],
      [
        "▁alla",
        -10.120333282583351
      ],
      [
        "père",
        -10.120704332799678
      ],
      [
        "war",
        -10.121443609744482
      ],
      [
        "▁Ŋg",
        -10.12151627437252
      ],
      [
        "aayu",
        -10.1229455103332
      ],
      [
        "▁Ho",
        -10.123253030980674
      ],
      [
        "geen",
        -10.124754395883429
      ],
      [
        "▁pe",
        -10.124768174757243
      ],
      [
        "▁individu",
        -10.12610399681796
      ],
      [
        "▁pourrai",
        -10.12634719143013
      ],
      [
        "porter",
        -10.1278304095509
      ],
      [
        "▁see",
        -10.132303626732124
      ],
      [
        "toon",
        -10.133396666968464
      ],
      [
        "isme",
        -10.134107469433697
      ],
      [
        "fu",
        -10.135549146787213
      ],
      [
        "▁découvert",
        -10.135581648903896
      ],
      [
        "▁Daawu",
        -10.137086109974023
      ],
      [
        "▁suffi",
        -10.138772159560945
      ],
      [
        "auté",
        -10.141829218663943
      ],
      [
        "cc",
        -10.14195528059848
      ],
      [
        "jafe",
        -10.142030291156559
      ],
      [
        "ément",
        -10.14427333799
      ],
      [
        "▁trou",
        -10.144314930626596
      ],
      [
        "-do",
        -10.14577011481597
      ],
      [
        "om",
        -10.147621536796871
      ],
      [
        "▁jar",
        -10.148367650919646
      ],
      [
        "deux",
        -10.148622968211491
      ],
      [
        "▁wàcc",
        -10.14880472217555
      ],
      [
        "ourquoi",
        -10.150635915739244
      ],
      [
        "▁cont",
        -10.151764810106041
      ],
      [
        "▁quitte",
        -10.153008109559016
      ],
      [
        "▁Leur",
        -10.153388200804851
      ],
      [
        "ish",
        -10.153417903373038
      ],
      [
        "▁Me",
        -10.153572360768365
      ],
      [
        "rète",
        -10.154762188379118
      ],
      [
        "▁waxe",
        -10.15655621795717
      ],
      [
        "▁fenêtre",
        -10.156906293954412
      ],
      [
        "▁yéem",
        -10.1569974342862
      ],
      [
        "▁reconna",
        -10.158289552791365
      ],
      [
        "pas",
        -10.15940123318561
      ],
      [
        "ve",
        -10.159443641834534
      ],
      [
        "▁Aw",
        -10.160371561136198
      ],
      [
        "tul",
        -10.160433042669224
      ],
      [
        "▁rëbb",
        -10.160572079645911
      ],
      [
        "ékk",
        -10.161941231206304
      ],
      [
        "qui",
        -10.162176709454311
      ],
      [
        "▁couvert",
        -10.16229608005306
      ],
      [
        "▁toj",
        -10.167060201033326
      ],
      [
        "▁coupé",
        -10.167868940782213
      ],
      [
        "aires",
        -10.168096589529524
      ],
      [
        "▁d'Ar",
        -10.168533355157248
      ],
      [
        "▁rue",
        -10.16916825491272
      ],
      [
        "▁arbre",
        -10.17021273623856
      ],
      [
        "res",
        -10.170324119223851
      ],
      [
        "v",
        -10.17050255166333
      ],
      [
        "▁qua",
        -10.170503402349837
      ],
      [
        "▁yàq",
        -10.171447428712497
      ],
      [
        "▁sub",
        -10.1719249391405
      ],
      [
        "sion",
        -10.172261783858275
      ],
      [
        "ee.",
        -10.17552109120603
      ],
      [
        "bon",
        -10.176227929664726
      ],
      [
        "ro",
        -10.176941190031302
      ],
      [
        "▁sembl",
        -10.17734575940176
      ],
      [
        "con",
        -10.178283301293373
      ],
      [
        "▁tête",
        -10.18062989525132
      ],
      [
        "▁kàdd",
        -10.180961136262722
      ],
      [
        "▁dure",
        -10.181319994538232
      ],
      [
        "▁com",
        -10.181576742054652
      ],
      [
        "▁naŋg",
        -10.181704435618569
      ],
      [
        "▁général",
        -10.18211582406453
      ],
      [
        "ëpp",
        -10.182540846263759
      ],
      [
        "▁Moka",
        -10.182649573276393
      ],
      [
        "▁soxna",
        -10.183161929708318
      ],
      [
        "aar",
        -10.184535191214486
      ],
      [
        "▁décor",
        -10.184872900284303
      ],
      [
        "ille",
        -10.18497177931232
      ],
      [
        "▁xii",
        -10.186433852493607
      ],
      [
        "aas",
        -10.18727386225107
      ],
      [
        "bët",
        -10.188074784968922
      ],
      [
        "▁taax",
        -10.190354642147222
      ],
      [
        "boo",
        -10.19112580767681
      ],
      [
        "▁gëm",
        -10.191209716278454
      ],
      [
        "▁jooja",
        -10.19167702910697
      ],
      [
        "▁parl",
        -10.192173771247365
      ],
      [
        "▁fui",
        -10.195218421221664
      ],
      [
        "▁Bul",
        -10.195825821566475
      ],
      [
        "rage",
        -10.196291754014453
      ],
      [
        "▁jé",
        -10.196827878901349
      ],
      [
        "▁sau",
        -10.19684692488503
      ],
      [
        "tt",
        -10.198610010393061
      ],
      [
        "ddina",
        -10.198711488307628
      ],
      [
        "▁natt",
        -10.198742156889585
      ],
      [
        "▁xërëm",
        -10.19944020631818
      ],
      [
        "2",
        -10.199599410732345
      ],
      [
        "▁dóomu-taal",
        -10.199603917335123
      ],
      [
        "▁trapèze",
        -10.199603917335509
      ],
      [
        "▁Bërëtaañ",
        -10.19960391733599
      ],
      [
        "▁ndànk-ndànk",
        -10.199603917337011
      ],
      [
        "▁junniy-junni",
        -10.199603917383795
      ],
      [
        "▁Ahidjo",
        -10.199603917411821
      ],
      [
        "▁béjjén",
        -10.199603917717054
      ],
      [
        "▁discipline",
        -10.199603917780003
      ],
      [
        "▁1948",
        -10.199603917986188
      ],
      [
        "▁lorgnons",
        -10.199603918159998
      ],
      [
        "▁1928",
        -10.199603918243797
      ],
      [
        "▁tés-tés",
        -10.199603919618276
      ],
      [
        "▁éprouv",
        -10.199603924485315
      ],
      [
        "▁électri",
        -10.19960392486861
      ],
      [
        "▁grâce",
        -10.19960392518562
      ],
      [
        "▁tekk-tekkaaral",
        -10.199603926314525
      ],
      [
        "▁Harcourt",
        -10.199603929386303
      ],
      [
        "▁proximité",
        -10.199603930410607
      ],
      [
        "▁rajaxe",
        -10.199603937947941
      ],
      [
        "▁saxaaru-géej",
        -10.199603946734022
      ],
      [
        "▁caravane",
        -10.199603973316508
      ],
      [
        "▁Bretagne",
        -10.199603980454627
      ],
      [
        "▁ëlëk",
        -10.199603996809515
      ],
      [
        "▁BBC",
        -10.199604023809165
      ],
      [
        "▁Kalabaar",
        -10.199604060040027
      ],
      [
        "▁officier",
        -10.19960406761745
      ],
      [
        "▁sibbiru",
        -10.199604099518382
      ],
      [
        "▁Anglais",
        -10.19960412732438
      ],
      [
        "▁Voyage",
        -10.199604227536142
      ],
      [
        "▁trésor",
        -10.199604280790286
      ],
      [
        "▁Jeffries",
        -10.19960432217261
      ],
      [
        "▁excessive",
        -10.199604367933379
      ],
      [
        "▁présence",
        -10.199604386231243
      ],
      [
        "▁cliché",
        -10.199604562308757
      ],
      [
        "▁Calabar",
        -10.199604922223523
      ],
      [
        "▁pénétr",
        -10.199605123978078
      ],
      [
        "▁alentour",
        -10.199605258045992
      ],
      [
        "▁règne",
        -10.19960526864075
      ],
      [
        "▁extraordinaire",
        -10.199606169667895
      ],
      [
        "▁ruisseau",
        -10.199606795595717
      ],
      [
        "▁Birayim",
        -10.199607570500044
      ],
      [
        "▁radio",
        -10.199608273567597
      ],
      [
        "▁l'abri",
        -10.199608461693115
      ],
      [
        "▁tropicale",
        -10.199610519578712
      ],
      [
        "▁Chuku",
        -10.199610955083312
      ],
      [
        "▁yëngatu",
        -10.199611851645644
      ],
      [
        "▁assiette",
        -10.199612474706202
      ],
      [
        "▁kilomet",
        -10.199613488930328
      ],
      [
        "▁légende",
        -10.199616603770355
      ],
      [
        "▁ràññe",
        -10.199619213101991
      ],
      [
        "▁obsession",
        -10.199619636663833
      ],
      [
        "▁veulent",
        -10.199622478539704
      ],
      [
        "▁décrit",
        -10.199625660983454
      ],
      [
        "▁guyaab",
        -10.19962659150391
      ],
      [
        "▁répond",
        -10.19962954914177
      ],
      [
        "▁1968",
        -10.199630088195278
      ],
      [
        "▁entouré",
        -10.199630168821512
      ],
      [
        "▁bakkan",
        -10.19963143574432
      ],
      [
        "▁Guddi",
        -10.199632062882717
      ],
      [
        "▁Kipli",
        -10.19963329002582
      ],
      [
        "▁mbindeef",
        -10.199634945638763
      ],
      [
        "▁chacun",
        -10.199640309679417
      ],
      [
        "▁ndànk",
        -10.199641020699843
      ],
      [
        "▁fauteuil",
        -10.199643457514888
      ],
      [
        "▁poitrine",
        -10.199648253442374
      ],
      [
        "▁jërr",
        -10.199657465676038
      ],
      [
        "▁caract",
        -10.199658172773713
      ],
      [
        "▁coow",
        -10.19966029383426
      ],
      [
        "▁fonction",
        -10.19968093105096
      ],
      [
        "▁Confi",
        -10.19968956408681
      ],
      [
        "▁firndeel",
        -10.19970286034303
      ],
      [
        "▁habituellement",
        -10.19971156588706
      ],
      [
        "▁interdit",
        -10.199714026438263
      ],
      [
        "▁maintenant",
        -10.199714142259444
      ],
      [
        "▁Qu'est-ce",
        -10.199719054586113
      ],
      [
        "▁naître",
        -10.199723229169548
      ],
      [
        "▁Gaynd",
        -10.199729630593534
      ],
      [
        "▁possible",
        -10.19973209444368
      ],
      [
        "▁dëll",
        -10.199736991619814
      ],
      [
        "▁l'hum",
        -10.199737539958852
      ],
      [
        "▁heureux",
        -10.199758570382324
      ],
      [
        "▁comprendre",
        -10.199761696570402
      ],
      [
        "▁foudre",
        -10.199771219993552
      ],
      [
        "▁perdre",
        -10.199793544096945
      ],
      [
        "▁bënn",
        -10.199802918337484
      ],
      [
        "▁ňàkk",
        -10.199816134918805
      ],
      [
        "▁penku",
        -10.199836963681035
      ],
      [
        "▁maasaloo",
        -10.199837637307647
      ],
      [
        "▁dëppoo",
        -10.19984318910825
      ],
      [
        "▁pegg",
        -10.199854819145067
      ],
      [
        "▁fièvre",
        -10.199870769810998
      ],
      [
        "▁vieillard",
        -10.199876969412056
      ],
      [
        "▁charme",
        -10.199897211172871
      ],
      [
        "▁effect",
        -10.199908859985449
      ],
      [
        "▁frappions",
        -10.199923746172216
      ],
      [
        "▁Demuloo",
        -10.199940633113691
      ],
      [
        "▁meetar",
        -10.199947214891147
      ],
      [
        "▁fureur",
        -10.199953044937546
      ],
      [
        "▁contraire",
        -10.199969326847354
      ],
      [
        "▁weesu",
        -10.199979737838213
      ],
      [
        "▁capable",
        -10.200005336140379
      ],
      [
        "▁Bateri",
        -10.200005772797885
      ],
      [
        "▁pension",
        -10.200008830045011
      ],
      [
        "▁móobal",
        -10.20001392675907
      ],
      [
        "▁daŋar",
        -10.200023036947794
      ],
      [
        "▁miirloo",
        -10.2000776543771
      ],
      [
        "▁n'importe",
        -10.20012071843065
      ],
      [
        "▁raxas",
        -10.200124166847916
      ],
      [
        "▁Alfa",
        -10.200128279597667
      ],
      [
        "▁Suuf",
        -10.200150770353904
      ],
      [
        "▁dijj",
        -10.200213327403588
      ],
      [
        "▁bruit",
        -10.200224971388192
      ],
      [
        "▁soxor",
        -10.200234583321516
      ],
      [
        "▁ràpp",
        -10.200266604047211
      ],
      [
        "empire",
        -10.200276915044544
      ],
      [
        "▁l'indépendance",
        -10.200313896765667
      ],
      [
        "▁absent",
        -10.20036578888097
      ],
      [
        "▁Mbam",
        -10.20036966054633
      ],
      [
        "▁nangoo",
        -10.200387810900384
      ],
      [
        "▁Qu'",
        -10.200422291959796
      ],
      [
        "▁lëmm",
        -10.20043010455759
      ],
      [
        "▁commencé",
        -10.200450587468751
      ],
      [
        "▁Looloo",
        -10.200471011220593
      ],
      [
        "▁yemale",
        -10.200481622289379
      ],
      [
        "▁d'eau",
        -10.200569344168489
      ],
      [
        "▁disparu",
        -10.20059015583393
      ],
      [
        "▁flamme",
        -10.20070412840169
      ],
      [
        "▁tubay",
        -10.200769688772597
      ],
      [
        "▁certainement",
        -10.200792060439097
      ],
      [
        "▁accepté",
        -10.200844106126727
      ],
      [
        "▁nàññ",
        -10.200854412118609
      ],
      [
        "▁tabax",
        -10.200916304631665
      ],
      [
        "▁Joor",
        -10.200931202588693
      ],
      [
        "lal",
        -10.200940104032924
      ],
      [
        "▁dikkul",
        -10.201007106970103
      ],
      [
        "▁surveill",
        -10.201060598953951
      ],
      [
        "▁soxal",
        -10.201062356912328
      ],
      [
        "àcc",
        -10.201226445293523
      ],
      [
        "▁brûlant",
        -10.20122672054986
      ],
      [
        "▁muraille",
        -10.201293078648352
      ],
      [
        "▁Demuma",
        -10.201349257723944
      ],
      [
        "▁Demkoon",
        -10.201389109970188
      ],
      [
        "▁sooke",
        -10.2014324791571
      ],
      [
        "▁raconté",
        -10.201480241746314
      ],
      [
        "▁peine",
        -10.20156163997806
      ],
      [
        "▁méngale",
        -10.201579502875536
      ],
      [
        "▁gosse",
        -10.201622207325205
      ],
      [
        "▁Banyo",
        -10.201651977465406
      ],
      [
        "▁màtt",
        -10.20165527554471
      ],
      [
        "▁voudrait",
        -10.20184974379443
      ],
      [
        "▁élevé",
        -10.201890630683888
      ],
      [
        "▁portale",
        -10.202045423797651
      ],
      [
        "▁dég",
        -10.202108842106915
      ],
      [
        "▁Bamako",
        -10.202200085663899
      ],
      [
        "▁revenu",
        -10.202234915416875
      ],
      [
        "▁aigu",
        -10.202391210119234
      ],
      [
        "▁marqué",
        -10.20240459800927
      ],
      [
        "▁échappé",
        -10.202520206366943
      ],
      [
        "▁juges",
        -10.202584979803506
      ],
      [
        "▁mbooloo",
        -10.202651694214905
      ],
      [
        "▁diggu",
        -10.203144285370344
      ],
      [
        "▁kookale",
        -10.203309747593273
      ],
      [
        "▁Tann",
        -10.203463120133856
      ],
      [
        "▁remis",
        -10.203497652393562
      ],
      [
        "▁yeggee",
        -10.203614958800445
      ],
      [
        "▁oublier",
        -10.203646969456319
      ],
      [
        "yaa",
        -10.203927260449175
      ],
      [
        "▁causé",
        -10.203942730486688
      ],
      [
        "sement",
        -10.204050189162915
      ],
      [
        "▁Ñaar",
        -10.204076223421911
      ],
      [
        "▁Mbir",
        -10.204189785895592
      ],
      [
        "▁móol",
        -10.204400299854425
      ],
      [
        "▁Amin",
        -10.204676118351532
      ],
      [
        "▁way-juram",
        -10.204906144717679
      ],
      [
        "▁tëgg",
        -10.204918278055224
      ],
      [
        "▁cré",
        -10.205414687801824
      ],
      [
        "▁d'habitude",
        -10.205940048957526
      ],
      [
        "▁waaxu",
        -10.20594336628109
      ],
      [
        "itié",
        -10.20648309339459
      ],
      [
        "▁oreilles",
        -10.206660304987931
      ],
      [
        "▁joow",
        -10.206936697644517
      ],
      [
        "▁tegu",
        -10.206981176159992
      ],
      [
        "▁sœurs",
        -10.207781115754315
      ],
      [
        "▁fameuse",
        -10.208055477096105
      ],
      [
        "▁créé",
        -10.208864706926757
      ],
      [
        "▁jàppoon",
        -10.208884359236913
      ],
      [
        "▁cultive",
        -10.209211582249338
      ],
      [
        "▁ràkkaaju",
        -10.209234030674594
      ],
      [
        "▁col",
        -10.209374737974965
      ],
      [
        "tiens",
        -10.209583883375492
      ],
      [
        "▁install",
        -10.209940965984618
      ],
      [
        "▁dundam",
        -10.21206466813033
      ],
      [
        "▁secondes",
        -10.212098447349113
      ],
      [
        "▁vagues",
        -10.212113486482366
      ],
      [
        "▁baň",
        -10.212169909431777
      ],
      [
        "àww",
        -10.212177688025816
      ],
      [
        "▁taille",
        -10.212530916917897
      ],
      [
        "▁après-midi",
        -10.212730860308499
      ],
      [
        "▁càkk",
        -10.212843788233377
      ],
      [
        "▁ven",
        -10.213085583535797
      ],
      [
        "▁mêl",
        -10.213430185416062
      ],
      [
        "▁Éta",
        -10.213514679557607
      ],
      [
        "▁woowa",
        -10.213555429743568
      ],
      [
        "▁pétrole",
        -10.213783753602623
      ],
      [
        "armes",
        -10.213964346119358
      ],
      [
        "▁toogoon",
        -10.214233037522563
      ],
      [
        "▁ndeysaan.",
        -10.21440594525906
      ],
      [
        "▁jë",
        -10.214460627290883
      ],
      [
        "▁battu",
        -10.214481259927576
      ],
      [
        "▁conduis",
        -10.214574699582336
      ],
      [
        "▁xobi",
        -10.214954402259682
      ],
      [
        "▁lal",
        -10.215192737141178
      ],
      [
        "▁noire",
        -10.215244205819193
      ],
      [
        "▁cr",
        -10.215508892495354
      ],
      [
        "▁golf",
        -10.215759869693423
      ],
      [
        "▁sipp",
        -10.215779028001887
      ],
      [
        "▁Foof",
        -10.215805989138545
      ],
      [
        "▁genn",
        -10.21582407110369
      ],
      [
        "▁julli",
        -10.21599730084525
      ],
      [
        "▁ñaaw",
        -10.216119367039616
      ],
      [
        "▁kilomètres",
        -10.21649789451082
      ],
      [
        "▁Europe",
        -10.216599793222318
      ],
      [
        "▁grise",
        -10.216817535856755
      ],
      [
        "▁rendu",
        -10.217069327512048
      ],
      [
        "▁way-",
        -10.217311800488941
      ],
      [
        "▁Mokaa",
        -10.217317364377104
      ],
      [
        "▁jeux",
        -10.217675884498224
      ],
      [
        "▁Com",
        -10.218171716492813
      ],
      [
        "▁demuñu",
        -10.218621659290738
      ],
      [
        "belle",
        -10.219006231843231
      ],
      [
        "▁passer",
        -10.219450011969716
      ],
      [
        "▁diine",
        -10.219802284378304
      ],
      [
        "▁ňa",
        -10.220735245221915
      ],
      [
        "▁kaki",
        -10.221163858702258
      ],
      [
        "ama",
        -10.221662371484197
      ],
      [
        "▁n'ira",
        -10.224452842236648
      ],
      [
        "'arachide",
        -10.225734291339672
      ],
      [
        "▁tama",
        -10.225747659285407
      ],
      [
        "▁partent",
        -10.22587070702718
      ],
      [
        "▁faax",
        -10.226056941131635
      ],
      [
        "▁accepter",
        -10.226158768463053
      ],
      [
        "alal",
        -10.226353356541887
      ],
      [
        "▁maladies",
        -10.226387990412139
      ],
      [
        "▁fen",
        -10.227275883443525
      ],
      [
        "ures",
        -10.227750293841781
      ],
      [
        "▁xamoon",
        -10.22840322774669
      ],
      [
        "▁marque",
        -10.228414864299825
      ],
      [
        "▁imagin",
        -10.229001278234172
      ],
      [
        "▁d'enfants",
        -10.230231239637792
      ],
      [
        "▁mb",
        -10.230323952715075
      ],
      [
        "tends",
        -10.230453506129525
      ],
      [
        "rent",
        -10.230559851219478
      ],
      [
        "▁chef",
        -10.231028082278979
      ],
      [
        "▁Gu",
        -10.231463699803665
      ],
      [
        "▁to",
        -10.232606507680654
      ],
      [
        "▁libre",
        -10.232675038789733
      ],
      [
        "gante",
        -10.232771113160583
      ],
      [
        "'orage",
        -10.234665356840877
      ],
      [
        "-tuut",
        -10.234693905219451
      ],
      [
        "▁kayit",
        -10.234732391639403
      ],
      [
        "▁wàll",
        -10.235258609656885
      ],
      [
        "▁jaaxa",
        -10.236962849391274
      ],
      [
        "▁rajo",
        -10.236979959082541
      ],
      [
        "▁pai",
        -10.23710182408972
      ],
      [
        "▁instants",
        -10.23743058342391
      ],
      [
        "▁sida",
        -10.237943032126925
      ],
      [
        "ards",
        -10.239245158467693
      ],
      [
        "u-",
        -10.239708794459233
      ],
      [
        "ien",
        -10.239948476537634
      ],
      [
        "commencer",
        -10.240066509420314
      ],
      [
        "ait-il",
        -10.241425245245507
      ],
      [
        "▁répu",
        -10.241547925787069
      ],
      [
        "▁bâtons",
        -10.244565460519418
      ],
      [
        "▁rëbbi",
        -10.245749074614958
      ],
      [
        "▁diir",
        -10.247169163205818
      ],
      [
        "pe",
        -10.247551619429768
      ],
      [
        "▁idée",
        -10.247741124896027
      ],
      [
        "▁lenn",
        -10.24809730004592
      ],
      [
        "▁jafee",
        -10.248218074902963
      ],
      [
        "▁compl",
        -10.249263673625006
      ],
      [
        "▁Doon",
        -10.250418440871622
      ],
      [
        "oroom",
        -10.250942838683331
      ],
      [
        "▁Jam",
        -10.251900722835941
      ],
      [
        "▁rend",
        -10.251993795512782
      ],
      [
        "▁El",
        -10.252350159412591
      ],
      [
        "-lu",
        -10.254759589333819
      ],
      [
        "▁étrange",
        -10.25550324553143
      ],
      [
        "ëtt",
        -10.256544145349427
      ],
      [
        "▁Dina",
        -10.257385702425132
      ],
      [
        "▁tus",
        -10.257903530753332
      ],
      [
        "▁qu'en",
        -10.258181793495641
      ],
      [
        "euses",
        -10.258522296392647
      ],
      [
        "'exerce",
        -10.25865713265055
      ],
      [
        "▁tra",
        -10.259819270866394
      ],
      [
        "▁kooka",
        -10.26025642186532
      ],
      [
        "▁exerc",
        -10.26224188408606
      ],
      [
        "▁Dañu",
        -10.266010324152038
      ],
      [
        "▁ñetti",
        -10.266707857662524
      ],
      [
        "eut",
        -10.267624075409593
      ],
      [
        "▁découverte",
        -10.268776709621578
      ],
      [
        "▁xóot",
        -10.269851433300678
      ],
      [
        "▁accepte",
        -10.271778917239164
      ],
      [
        "▁cord",
        -10.27336913310588
      ],
      [
        "ar.",
        -10.274093127260759
      ],
      [
        "laay",
        -10.274286237127974
      ],
      [
        "u.",
        -10.275040008371775
      ],
      [
        "ŋgeen",
        -10.275427460960213
      ],
      [
        "▁tableau",
        -10.275664055417252
      ],
      [
        "▁demain",
        -10.275975182522869
      ],
      [
        "gël",
        -10.277228684884458
      ],
      [
        "monter",
        -10.277253535135216
      ],
      [
        "▁Kakaa",
        -10.277915118732246
      ],
      [
        "arrière",
        -10.278510516688238
      ],
      [
        "cteur",
        -10.27931904652542
      ],
      [
        "▁yooy",
        -10.279590611541497
      ],
      [
        "mère",
        -10.280228984995132
      ],
      [
        "-d",
        -10.282924997305745
      ],
      [
        "▁char",
        -10.284146987883435
      ],
      [
        "▁muus",
        -10.284636160887839
      ],
      [
        "faites",
        -10.284961060841244
      ],
      [
        "▁tëwa",
        -10.28526736881373
      ],
      [
        "oindre",
        -10.285934000318798
      ],
      [
        "exemple",
        -10.286952293946886
      ],
      [
        "▁ñe",
        -10.288430965698739
      ],
      [
        "▁xaj",
        -10.290056175191404
      ],
      [
        "ave",
        -10.29173613160047
      ],
      [
        "▁nuits",
        -10.29324336988013
      ],
      [
        "▁mbemb",
        -10.29329889254129
      ],
      [
        "▁s'installe",
        -10.293574241817854
      ],
      [
        "resse",
        -10.294266119512507
      ],
      [
        "▁njàmba",
        -10.295025856178162
      ],
      [
        "▁kà",
        -10.29631564867807
      ],
      [
        "▁cee",
        -10.296664916203131
      ],
      [
        "▁sib",
        -10.297317678975988
      ],
      [
        "hôpital",
        -10.298162329099409
      ],
      [
        "venus",
        -10.298904715614361
      ],
      [
        "stique",
        -10.298908153757925
      ],
      [
        "▁sañ",
        -10.299663993984868
      ],
      [
        "▁cartes",
        -10.301383236901197
      ],
      [
        "▁Mari",
        -10.301475006142113
      ],
      [
        "ë",
        -10.301494894094677
      ],
      [
        "uni",
        -10.301611107623819
      ],
      [
        "▁ressembl",
        -10.303728932322105
      ],
      [
        "▁seetu",
        -10.304496183208212
      ],
      [
        "▁àndal",
        -10.304721026399433
      ],
      [
        "▁l'inst",
        -10.30876065771872
      ],
      [
        "g.",
        -10.308828883831868
      ],
      [
        "ser",
        -10.310091227835427
      ],
      [
        "▁waxi",
        -10.310496846113386
      ],
      [
        "▁xoole",
        -10.31125788054059
      ],
      [
        "▁Gisu",
        -10.312096412085905
      ],
      [
        "-f",
        -10.313335137403874
      ],
      [
        "oire",
        -10.314916655144284
      ],
      [
        "▁Jë",
        -10.316424864037538
      ],
      [
        "▁entrai",
        -10.316718312920536
      ],
      [
        "igne",
        -10.317951289023858
      ],
      [
        "banaan",
        -10.317977025335942
      ],
      [
        "oog",
        -10.319741058906994
      ],
      [
        "ttes",
        -10.320649306345896
      ],
      [
        "▁Masu",
        -10.322719091838529
      ],
      [
        "lieu",
        -10.32374234599387
      ],
      [
        "vais",
        -10.323764274914865
      ],
      [
        "▁Certain",
        -10.325859444653453
      ],
      [
        "umeur",
        -10.326050465415799
      ],
      [
        "daa",
        -10.326738690799692
      ],
      [
        "▁voyai",
        -10.327204601577044
      ],
      [
        "▁aventure",
        -10.33002555255262
      ],
      [
        "àngi",
        -10.330350337123367
      ],
      [
        "▁guerr",
        -10.332001476341727
      ],
      [
        "▁yatt",
        -10.332384617410987
      ],
      [
        "▁neexu",
        -10.33349223549273
      ],
      [
        "bar",
        -10.335693779718895
      ],
      [
        "▁accompagne",
        -10.340244204382365
      ],
      [
        "▁yare",
        -10.340820862989153
      ],
      [
        "▁yaroo",
        -10.341613658285302
      ],
      [
        "aloon",
        -10.342957436680948
      ],
      [
        "▁jam",
        -10.343580059802848
      ],
      [
        "▁demb",
        -10.344745314057924
      ],
      [
        "▁racont",
        -10.344780174296346
      ],
      [
        "▁n'aurai",
        -10.346186305351779
      ],
      [
        "ekk",
        -10.348522973255452
      ],
      [
        "ière",
        -10.34916517972851
      ],
      [
        "ab",
        -10.349636652949496
      ],
      [
        "▁jàppe",
        -10.352492297442845
      ],
      [
        "antee",
        -10.352978589771725
      ],
      [
        "▁ñaw",
        -10.353044579983782
      ],
      [
        "▁rencontre",
        -10.353429407219675
      ],
      [
        "▁her",
        -10.354624077051053
      ],
      [
        "3",
        -10.355137811815194
      ],
      [
        "00",
        -10.355237166287683
      ],
      [
        "eu",
        -10.35530893903924
      ],
      [
        "▁jógee",
        -10.355900360742131
      ],
      [
        "rass",
        -10.356079417377464
      ],
      [
        "▁voi",
        -10.356131850768767
      ],
      [
        "▁Leer",
        -10.35623250948099
      ],
      [
        "▁dis",
        -10.356877790516204
      ],
      [
        "ie",
        -10.357573942986825
      ],
      [
        "ailles",
        -10.358440676496045
      ],
      [
        "ston",
        -10.358788483964418
      ],
      [
        "nnee",
        -10.360230591518697
      ],
      [
        "▁milli",
        -10.361558146928402
      ],
      [
        "llemands",
        -10.362217887871521
      ],
      [
        "▁continu",
        -10.362675238586286
      ],
      [
        "▁dig",
        -10.36335667173907
      ],
      [
        "▁nju",
        -10.36365229555536
      ],
      [
        "st",
        -10.364261433031698
      ],
      [
        "▁ger",
        -10.365691492794028
      ],
      [
        "noo",
        -10.367772798567785
      ],
      [
        "-kow",
        -10.368174813403447
      ],
      [
        "kàlla",
        -10.370391619033462
      ],
      [
        "eau",
        -10.370486642686828
      ],
      [
        "▁l'an",
        -10.370910817017457
      ],
      [
        "▁tàll",
        -10.371004777425608
      ],
      [
        "▁devenue",
        -10.371989733557431
      ],
      [
        "ieuse",
        -10.37401784133614
      ],
      [
        "ations",
        -10.375444913680921
      ],
      [
        "galu",
        -10.375519734893706
      ],
      [
        "▁yóbba",
        -10.3767263406159
      ],
      [
        "▁retrouve",
        -10.378596106810239
      ],
      [
        "men",
        -10.379732051737067
      ],
      [
        "ndait",
        -10.380122996149618
      ],
      [
        "▁arriv",
        -10.380140868147436
      ],
      [
        "▁pri",
        -10.380401438647116
      ],
      [
        "▁mur",
        -10.381967734958312
      ],
      [
        "▁màng",
        -10.382007363516287
      ],
      [
        "uits",
        -10.385795237645507
      ],
      [
        "▁pé",
        -10.386137537951186
      ],
      [
        "chercher",
        -10.389693715189818
      ],
      [
        "▁cent",
        -10.390927858811633
      ],
      [
        "jaa",
        -10.390980785406324
      ],
      [
        "▁touch",
        -10.392144541649252
      ],
      [
        "wuñu",
        -10.394680456528402
      ],
      [
        "rrière",
        -10.395650411275344
      ],
      [
        "ww",
        -10.396413738754317
      ],
      [
        "▁sec",
        -10.39866114132467
      ],
      [
        "▁xer",
        -10.398869932833408
      ],
      [
        "eelu",
        -10.399318572770765
      ],
      [
        "peur",
        -10.404316116582528
      ],
      [
        "àbbe",
        -10.405518412516884
      ],
      [
        "▁cris",
        -10.406296196351803
      ],
      [
        "▁newu",
        -10.407470793068278
      ],
      [
        "▁var",
        -10.408463698624926
      ],
      [
        "enti",
        -10.409389105637608
      ],
      [
        "▁ouverte",
        -10.409430845161408
      ],
      [
        "sus",
        -10.412898741795866
      ],
      [
        "feebar",
        -10.413407034744903
      ],
      [
        "weer",
        -10.413441881539432
      ],
      [
        "ii",
        -10.414503416062189
      ],
      [
        "▁isolé",
        -10.417728553221488
      ],
      [
        "xam",
        -10.41800655281765
      ],
      [
        "▁médecine",
        -10.418998394021822
      ],
      [
        "cation",
        -10.420751577384399
      ],
      [
        "▁déci",
        -10.420962445145843
      ],
      [
        "ànd",
        -10.421853345862168
      ],
      [
        "▁ñàkku",
        -10.421996897950201
      ],
      [
        "ňň",
        -10.42207972900406
      ],
      [
        "ssu",
        -10.422120337022024
      ],
      [
        "nge",
        -10.425172311359352
      ],
      [
        "▁tam",
        -10.426213046804781
      ],
      [
        "▁xolu",
        -10.42658307690871
      ],
      [
        "▁arrive",
        -10.427504474423172
      ],
      [
        "▁dib",
        -10.430955089584938
      ],
      [
        "▁leçon",
        -10.43229450636785
      ],
      [
        "▁Waxu",
        -10.433059829542728
      ],
      [
        "▁bët.",
        -10.434549525517784
      ],
      [
        "▁venai",
        -10.436382657769549
      ],
      [
        "▁écout",
        -10.439488388990751
      ],
      [
        "aurais",
        -10.441367223697345
      ],
      [
        "acc",
        -10.442606110512171
      ],
      [
        "▁l'in",
        -10.442974653378696
      ],
      [
        "▁lawoon",
        -10.447727167576932
      ],
      [
        "▁kaa",
        -10.447931613538206
      ],
      [
        "ivement",
        -10.448117411038025
      ],
      [
        "▁form",
        -10.449882913848935
      ],
      [
        "▁xe",
        -10.450605263435328
      ],
      [
        "▁fowe",
        -10.450999164055798
      ],
      [
        "ànte",
        -10.453781989121767
      ],
      [
        "manche",
        -10.45400284475939
      ],
      [
        "▁coll",
        -10.457036719476633
      ],
      [
        "▁tegoo",
        -10.460125334017668
      ],
      [
        "▁lect",
        -10.460879829011162
      ],
      [
        "▁laisse",
        -10.46161651056512
      ],
      [
        "heure",
        -10.461736239611971
      ],
      [
        "ddi",
        -10.463204465966566
      ],
      [
        "▁ouvert",
        -10.463414362379526
      ],
      [
        "elu",
        -10.46344156522775
      ],
      [
        "▁armée",
        -10.46659350005786
      ],
      [
        "▁daju",
        -10.466732457163937
      ],
      [
        "▁dunde",
        -10.46734173003407
      ],
      [
        "ell",
        -10.467931018191052
      ],
      [
        "ver",
        -10.468134241048602
      ],
      [
        "ailleurs",
        -10.468986243167828
      ],
      [
        "fal",
        -10.470144085361651
      ],
      [
        "▁moustiquaire",
        -10.471465370554148
      ],
      [
        "bokk",
        -10.472074135080073
      ],
      [
        "▁mont",
        -10.473635126457383
      ],
      [
        "▁seri",
        -10.474855267995826
      ],
      [
        "▁miroir",
        -10.475197419499356
      ],
      [
        "▁danañ",
        -10.475558082416498
      ],
      [
        "urs",
        -10.476996740366909
      ],
      [
        "▁jubal",
        -10.47732179156241
      ],
      [
        "▁partirai",
        -10.478072156034518
      ],
      [
        "▁coupe",
        -10.478996351246138
      ],
      [
        "▁xat",
        -10.479007542143325
      ],
      [
        "dée",
        -10.480211218033428
      ],
      [
        "stitué",
        -10.481011205163766
      ],
      [
        "▁certain",
        -10.482524684005533
      ],
      [
        "▁l'est",
        -10.485023691858608
      ],
      [
        "▁trace",
        -10.487146967956857
      ],
      [
        "▁lë",
        -10.48738913719052
      ],
      [
        "▁gr",
        -10.488261719855627
      ],
      [
        "ñ.",
        -10.488754294036742
      ],
      [
        "étendue",
        -10.488855237188432
      ],
      [
        "▁humain",
        -10.488881878341369
      ],
      [
        "▁t'en",
        -10.489674696119325
      ],
      [
        "urant",
        -10.489790688323685
      ],
      [
        "▁dinañ",
        -10.490074054899425
      ],
      [
        "arrivée",
        -10.491286581114394
      ],
      [
        "embre",
        -10.492227267983534
      ],
      [
        "▁ancien",
        -10.492282071753145
      ],
      [
        "▁doxal",
        -10.495638293534084
      ],
      [
        "ru",
        -10.49589856789217
      ],
      [
        "▁connaît",
        -10.49679831683809
      ],
      [
        "abax",
        -10.497389712019514
      ],
      [
        "▁jambe",
        -10.498668144675706
      ],
      [
        "▁rituel",
        -10.499920034753066
      ],
      [
        "▁Se",
        -10.500546606773426
      ],
      [
        "▁voici",
        -10.500984733909943
      ],
      [
        "▁militaire",
        -10.500985525461793
      ],
      [
        "▁Laaj",
        -10.501340421573438
      ],
      [
        "▁ker",
        -10.503211114874173
      ],
      [
        "ke",
        -10.503481040810552
      ],
      [
        "tuñu",
        -10.503897559562112
      ],
      [
        "-elle",
        -10.503900729743814
      ],
      [
        "▁yëge",
        -10.504986450974199
      ],
      [
        "▁ño",
        -10.505838157600222
      ],
      [
        "▁dootu",
        -10.505942682462576
      ],
      [
        "rëb",
        -10.506337412813574
      ],
      [
        "▁Ro",
        -10.506663430375369
      ],
      [
        "xe",
        -10.507440042892876
      ],
      [
        "▁bleu",
        -10.508857710792821
      ],
      [
        "be",
        -10.50953259769023
      ],
      [
        "▁viendr",
        -10.509553842727318
      ],
      [
        "▁passe",
        -10.511234693719965
      ],
      [
        "▁jooj",
        -10.51150636890023
      ],
      [
        "yeux",
        -10.512082704373885
      ],
      [
        "▁sàpp",
        -10.512250086688855
      ],
      [
        "▁anglais",
        -10.512940289241804
      ],
      [
        "▁ñett",
        -10.513020310655948
      ],
      [
        "▁É",
        -10.513346402269642
      ],
      [
        "▁distance",
        -10.513867306891285
      ],
      [
        "▁xob",
        -10.51428075497794
      ],
      [
        "▁amu",
        -10.515390554054216
      ],
      [
        "▁seconde",
        -10.515841784806618
      ],
      [
        "▁fatigu",
        -10.51641271042101
      ],
      [
        "tait",
        -10.516510003794282
      ],
      [
        "▁vague",
        -10.516601651616998
      ],
      [
        "▁ver",
        -10.517379011936224
      ],
      [
        "▁anim",
        -10.518521920391168
      ],
      [
        "dar",
        -10.518960851901001
      ],
      [
        "▁civil",
        -10.520134025996903
      ],
      [
        "da",
        -10.520161727446991
      ],
      [
        "▁naqad",
        -10.520299039605414
      ],
      [
        "▁envahi",
        -10.52084613890134
      ],
      [
        "baar",
        -10.521156570957789
      ],
      [
        "tin",
        -10.5221592180917
      ],
      [
        "▁Yooy",
        -10.522784400771776
      ],
      [
        "construi",
        -10.523326990365401
      ],
      [
        "▁bavarda",
        -10.52353044704919
      ],
      [
        "▁wë",
        -10.523702682023778
      ],
      [
        "▁cor",
        -10.524061514203428
      ],
      [
        "àtt",
        -10.524885382128668
      ],
      [
        "▁fulla",
        -10.525570449848477
      ],
      [
        "'enfant",
        -10.525718429424211
      ],
      [
        "jënd",
        -10.52583420716298
      ],
      [
        "nit",
        -10.527095879323161
      ],
      [
        "▁l'imp",
        -10.527629212606033
      ],
      [
        "ème",
        -10.527942350828772
      ],
      [
        "▁taal",
        -10.528117198404132
      ],
      [
        "▁connaiss",
        -10.52868533618127
      ],
      [
        "▁Doom",
        -10.529603417025193
      ],
      [
        "ême",
        -10.529926267741358
      ],
      [
        "▁ň",
        -10.529959054150996
      ],
      [
        "tuaire",
        -10.530011312215816
      ],
      [
        "engag",
        -10.530518058946036
      ],
      [
        "▁Babungo",
        -10.530543542046278
      ],
      [
        "▁méng",
        -10.530805819466018
      ],
      [
        "▁trente",
        -10.531033403993339
      ],
      [
        "▁remonte",
        -10.532122424336947
      ],
      [
        "Abakaliki",
        -10.532145900271741
      ],
      [
        "4",
        -10.53293724884388
      ],
      [
        "▁l'Adamawa",
        -10.53293725067065
      ],
      [
        "▁roppëlaan",
        -10.532937250674149
      ],
      [
        "▁États-Unis",
        -10.532937250677058
      ],
      [
        "▁mettee-metti",
        -10.53293725071465
      ],
      [
        "▁invisible",
        -10.53293725071697
      ],
      [
        "▁privilèges",
        -10.532937250721018
      ],
      [
        "▁dankalikoo",
        -10.532937250863426
      ],
      [
        "▁dysenterie",
        -10.532937250870466
      ],
      [
        "▁caricatural",
        -10.532937250971084
      ],
      [
        "▁Poor-Arkuur",
        -10.532937251501007
      ],
      [
        "▁incapable",
        -10.532937251521268
      ],
      [
        "▁impeccable",
        -10.532937251789523
      ],
      [
        "▁ëllëg",
        -10.532937252930125
      ],
      [
        "▁jekk-jekkal",
        -10.53293725452695
      ],
      [
        "▁sukkandik",
        -10.532937255829452
      ],
      [
        "▁dispensaire",
        -10.532937259413902
      ],
      [
        "▁j'ignore",
        -10.53293726210528
      ],
      [
        "▁s'éloigne",
        -10.532937265000644
      ],
      [
        "▁sañ-sañ",
        -10.532937275344628
      ],
      [
        "▁fréquenta",
        -10.532937278820306
      ],
      [
        "▁Là-bas",
        -10.532937278852666
      ],
      [
        "▁Fields",
        -10.532937281205527
      ],
      [
        "▁Aadamawa",
        -10.532937282149403
      ],
      [
        "▁ridicule",
        -10.532937284743866
      ],
      [
        "▁bànxaas",
        -10.532937298446452
      ],
      [
        "▁njoowaan",
        -10.532937303901443
      ],
      [
        "▁d'alcool",
        -10.532937318456606
      ],
      [
        "▁physique",
        -10.532937329729315
      ],
      [
        "▁d'opération",
        -10.53293733444343
      ],
      [
        "▁Bénuwe",
        -10.532937362353053
      ],
      [
        "▁trône",
        -10.53293737428957
      ],
      [
        "▁lézard",
        -10.532937394061703
      ],
      [
        "▁latérite",
        -10.53293740631162
      ],
      [
        "▁affluent",
        -10.53293741745118
      ],
      [
        "▁waxambaane",
        -10.532937423572813
      ],
      [
        "▁serviteurs",
        -10.532937426173863
      ],
      [
        "▁Bénoué",
        -10.532937429254172
      ],
      [
        "▁bataaxal",
        -10.532937446545516
      ],
      [
        "calpel",
        -10.532937448752666
      ],
      [
        "▁dog-dog",
        -10.532937513444304
      ],
      [
        "▁chirurgi",
        -10.532937531256785
      ],
      [
        "▁jaar-jaar",
        -10.532937532337472
      ],
      [
        "▁tribales",
        -10.53293761402904
      ],
      [
        "▁hasard",
        -10.532937662357682
      ],
      [
        "▁sèche",
        -10.532937668134503
      ],
      [
        "▁ófise",
        -10.532937773763472
      ],
      [
        "▁étouffante",
        -10.532937787726272
      ],
      [
        "▁d'Européens",
        -10.532937887844422
      ],
      [
        "▁Tàngaay",
        -10.532937942413756
      ],
      [
        "▁pelouse",
        -10.532937954967819
      ],
      [
        "▁xam-xam",
        -10.532938322756705
      ],
      [
        "▁gàngiri",
        -10.532938331797281
      ],
      [
        "▁Algérie",
        -10.53293840375811
      ],
      [
        "▁brindille",
        -10.532938528040887
      ],
      [
        "▁cafards",
        -10.532938569035554
      ],
      [
        "▁manifesta",
        -10.532938572346248
      ],
      [
        "▁habillé",
        -10.53293862991356
      ],
      [
        "▁Sahara",
        -10.532938740501992
      ],
      [
        "▁ceinture",
        -10.532939081130122
      ],
      [
        "▁réccu",
        -10.532939381518739
      ],
      [
        "▁recouvert",
        -10.532939495560553
      ],
      [
        "▁respire",
        -10.532939865606474
      ],
      [
        "▁dispañseer",
        -10.532939900591987
      ],
      [
        "▁biiru-ta",
        -10.532939991428506
      ],
      [
        "▁colonne",
        -10.532940286697764
      ],
      [
        "▁pikiir",
        -10.53294044384507
      ],
      [
        "▁camarades",
        -10.532940505457429
      ],
      [
        "▁suppose",
        -10.532940530280229
      ],
      [
        "▁banlieue",
        -10.532940598386684
      ],
      [
        "▁lëkkale",
        -10.53294071583707
      ],
      [
        "▁coiff",
        -10.532941643704453
      ],
      [
        "▁visible",
        -10.532942257329172
      ],
      [
        "▁réponse",
        -10.532942731269928
      ],
      [
        "▁Indiens",
        -10.53294330905949
      ],
      [
        "▁callweer",
        -10.532943472394448
      ],
      [
        "▁quartier",
        -10.532943814622262
      ],
      [
        "▁craquelée",
        -10.532943851415785
      ],
      [
        "considéra",
        -10.532944246354699
      ],
      [
        "▁résignation",
        -10.532944725693062
      ],
      [
        "▁minuscule",
        -10.532945149660977
      ],
      [
        "▁vaisselle",
        -10.532946161211402
      ],
      [
        "▁meilleur",
        -10.53294620110022
      ],
      [
        "▁soixante",
        -10.532946474255183
      ],
      [
        "▁Fàttewu",
        -10.532946881615365
      ],
      [
        "▁popula",
        -10.532947209492114
      ],
      [
        "▁politique",
        -10.532947419692274
      ],
      [
        "▁mébét",
        -10.532948144402171
      ],
      [
        "▁répandu",
        -10.532949102861744
      ],
      [
        "▁Saawusamton",
        -10.53294917097168
      ],
      [
        "▁njariñ",
        -10.53294953265426
      ],
      [
        "▁galeries",
        -10.53294991781504
      ],
      [
        "▁yalwaan",
        -10.532950908591253
      ],
      [
        "▁ŋgoogu",
        -10.53295173566213
      ],
      [
        "▁Polisoŋ",
        -10.532951935218765
      ],
      [
        "▁reetaan",
        -10.532953544177632
      ],
      [
        "▁Téere",
        -10.53295604414944
      ],
      [
        "▁ténia",
        -10.532956625947534
      ],
      [
        "▁jaabante",
        -10.532956716778488
      ],
      [
        "▁Riwër",
        -10.53296052482035
      ],
      [
        "▁procur",
        -10.532963786458696
      ],
      [
        "▁Fiild",
        -10.532969746207518
      ],
      [
        "▁propos",
        -10.532971011773288
      ],
      [
        "▁consacré",
        -10.53297198084441
      ],
      [
        "▁piège",
        -10.532972335402931
      ],
      [
        "▁colonisation",
        -10.53297396804398
      ],
      [
        "▁justifi",
        -10.532974162412405
      ],
      [
        "▁contrebas",
        -10.532982815997771
      ],
      [
        "voûte",
        -10.532991868622297
      ],
      [
        "▁ŋàññ",
        -10.533002794934136
      ],
      [
        "▁toppatoo",
        -10.533007702172625
      ],
      [
        "▁Alseri",
        -10.53300950413757
      ],
      [
        "▁River",
        -10.533009816640835
      ],
      [
        "▁yàkkamt",
        -10.53301124913504
      ],
      [
        "▁sculptés",
        -10.533026948240208
      ],
      [
        "▁bref",
        -10.533028815598191
      ],
      [
        "▁défens",
        -10.533032905300768
      ],
      [
        "▁lançai",
        -10.533035362604869
      ],
      [
        "▁repris",
        -10.533036479675653
      ],
      [
        "▁noyyee",
        -10.53303711708244
      ],
      [
        "▁xélu",
        -10.53303942984644
      ],
      [
        "▁(car",
        -10.533046068023427
      ],
      [
        "▁gorilles",
        -10.533046997986581
      ],
      [
        "▁m'a-t-",
        -10.53306348144475
      ],
      [
        "▁douleur",
        -10.533068942221764
      ],
      [
        "▁sept",
        -10.533073421966456
      ],
      [
        "▁l'inter",
        -10.533076663440802
      ],
      [
        "▁foyer",
        -10.533080996673082
      ],
      [
        "▁juróom-benn",
        -10.533093733261605
      ],
      [
        "▁fecc",
        -10.533098609029857
      ],
      [
        "▁mbagg",
        -10.533104202847511
      ],
      [
        "▁ruqu-géeju",
        -10.533107082774729
      ],
      [
        "▁Yéesu",
        -10.533110872190882
      ],
      [
        "obscur",
        -10.533114509889696
      ],
      [
        "▁Dellu",
        -10.533115338419051
      ],
      [
        "▁sóob",
        -10.53313187205027
      ],
      [
        "▁ginnax",
        -10.533137745495448
      ],
      [
        "▁xàmb",
        -10.533146195919525
      ],
      [
        "▁vieillesse",
        -10.533149714630023
      ],
      [
        "▁plaintes",
        -10.533159087021993
      ],
      [
        "▁palais",
        -10.533163762243646
      ],
      [
        "▁saŋx",
        -10.533166562338819
      ],
      [
        "▁soppikoo",
        -10.533174379711514
      ],
      [
        "▁allumette",
        -10.53318885595365
      ],
      [
        "▁iróko",
        -10.533195671882584
      ],
      [
        "▁qu'aucun",
        -10.533198630583447
      ],
      [
        "▁fomp",
        -10.533207921108039
      ],
      [
        "rois",
        -10.533215279938048
      ],
      [
        "▁généreux",
        -10.533217542197624
      ],
      [
        "▁l'enthousiasme",
        -10.533223775078314
      ],
      [
        "▁wecc",
        -10.533224639555266
      ],
      [
        "▁terrain",
        -10.533229867203806
      ],
      [
        "▁l'horreur",
        -10.533238701496238
      ],
      [
        "paradis",
        -10.533242149662806
      ],
      [
        "▁Niseer",
        -10.53325549100995
      ],
      [
        "▁l'affaire",
        -10.533258497210326
      ],
      [
        "▁Sëri",
        -10.533266836098612
      ],
      [
        "▁Partout",
        -10.533266865121833
      ],
      [
        "▁aimait",
        -10.533275946704645
      ],
      [
        "▁plage",
        -10.533293602476894
      ],
      [
        "▁Ndox",
        -10.533300090262395
      ],
      [
        "▁terminé",
        -10.533307785928018
      ],
      [
        "▁yaxeet",
        -10.533308044478911
      ],
      [
        "▁laxas",
        -10.53332466100256
      ],
      [
        "▁wotoom",
        -10.533326716794981
      ],
      [
        "▁jadd",
        -10.533331002798977
      ],
      [
        "▁sucre",
        -10.5333320008986
      ],
      [
        "▁profit",
        -10.533349541528708
      ],
      [
        "▁gëdd",
        -10.533351833585295
      ],
      [
        "▁colons",
        -10.533352248559174
      ],
      [
        "▁lentement",
        -10.533358061577182
      ],
      [
        "▁Bariwu",
        -10.53336461594724
      ],
      [
        "▁moytu",
        -10.533380291326061
      ],
      [
        "urgence",
        -10.533386102065249
      ],
      [
        "▁familier",
        -10.533389109937486
      ],
      [
        "▁poing",
        -10.53341100366756
      ],
      [
        "▁domestique",
        -10.533427099220107
      ],
      [
        "▁tëral",
        -10.53343680472066
      ],
      [
        "▁rajoom",
        -10.533449831538139
      ],
      [
        "▁l'après-midi",
        -10.533462715571408
      ],
      [
        "▁Kàttan",
        -10.53346620257271
      ],
      [
        "▁reyante",
        -10.53347954955899
      ],
      [
        "▁fusils",
        -10.533487068581824
      ],
      [
        "▁cornes",
        -10.533509420828409
      ],
      [
        "▁chapeaux",
        -10.533531636524781
      ],
      [
        "épaisse",
        -10.533537650348809
      ],
      [
        "▁Jàng",
        -10.533556737056855
      ],
      [
        "▁wacc",
        -10.533563982381542
      ],
      [
        "▁L'autre",
        -10.533576517749166
      ],
      [
        "▁ganesi",
        -10.533604242465344
      ],
      [
        "▁tënk",
        -10.533614041886114
      ],
      [
        "▁chute",
        -10.53361565970657
      ],
      [
        "▁natale",
        -10.533625922767618
      ],
      [
        "▁Niger",
        -10.533627294457787
      ],
      [
        "▁crép",
        -10.533631237029665
      ],
      [
        "▁tâche",
        -10.533634299166717
      ],
      [
        "▁compagnie",
        -10.533700397630485
      ],
      [
        "▁réuni",
        -10.533708828270385
      ],
      [
[...]
