{
  "version": "1.0",
  "truncation": null,
  "padding": null,
  "added_tokens": [
    {
      "id": 0,
      "content": "<cls>",
      "single_word": false,
      "lstrip": false,
      "rstrip": false,
      "normalized": false,
      "special": true
    },
    {
      "id": 1,
      "content": "<sep>",
      "single_word": false,
      "lstrip": false,
      "rstrip": false,
      "normalized": false,
      "special": true
    },
    {
      "id": 2,
      "content": "<unk>",
      "single_word": false,
      "lstrip": false,
      "rstrip": false,
      "normalized": false,
      "special": true
    },
    {
      "id": 3,
      "content": "<pad>",
      "single_word": false,
      "lstrip": false,
      "rstrip": false,
      "normalized": false,
      "special": true
    },
    {
      "id": 4,
      "content": "<mask>",
      "single_word": false,
      "lstrip": false,
      "rstrip": false,
      "normalized": false,
      "special": true
    },
    {
      "id": 5,
      "content": "<s>",
      "single_word": false,
      "lstrip": false,
      "rstrip": false,
      "normalized": false,
      "special": true
    },
    {
      "id": 6,
      "content": "</s>",
      "single_word": false,
      "lstrip": false,
      "rstrip": false,
      "normalized": false,
      "special": true
    }
  ],
  "normalizer": {
    "type": "Replace",
    "pattern": {
      "String": " {2,}"
    },
    "content": " "
  },
  "pre_tokenizer": {
    "type": "Metaspace",
    "replacement": "▁",
    "add_prefix_space": true
  },
  "post_processor": null,
  "decoder": {
    "type": "Metaspace",
    "replacement": "▁",
    "add_prefix_space": true
  },
  "model": {
    "type": "Unigram",
    "unk_id": 2,
    "vocab": [
      [
        "<cls>",
        0.0
      ],
      [
        "<sep>",
        0.0
      ],
      [
        "<unk>",
        0.0
      ],
      [
        "<pad>",
        0.0
      ],
      [
        "<mask>",
        0.0
      ],
      [
        "<s>",
        0.0
      ],
      [
        "</s>",
        0.0
      ],
      [
        "▁",
        -2.615944551858737
      ],
      [
        ".",
        -3.121684538934119
      ],
      [
        ",",
        -3.772881118762686
      ],
      [
        "?",
        -4.141654192215396
      ],
      [
        "s",
        -4.224301973383692
      ],
      [
        "!",
        -4.262915406889769
      ],
      [
        "▁la",
        -4.416645930144046
      ],
      [
        "▁de",
        -4.542556845098688
      ],
      [
        "e",
        -4.65996900832494
      ],
      [
        "a",
        -4.716214272127445
      ],
      [
        "▁ci",
        -4.776229006629479
      ],
      [
        "▁qui",
        -4.97844780622806
      ],
      [
        "u",
        -4.993334838923616
      ],
      [
        "y",
        -5.008625710383742
      ],
      [
        "i",
        -5.024873964338471
      ],
      [
        "▁na",
        -5.041577019581005
      ],
      [
        "n",
        -5.066244662901675
      ],
      [
        "▁est",
        -5.118243496712747
      ],
      [
        "▁!",
        -5.1289206073508
      ],
      [
        "▁dem",
        -5.192500164239082
      ],
      [
        "▁que",
        -5.219504955602912
      ],
      [
        "▁ne",
        -5.22259398493633
      ],
      [
        "▁pas",
        -5.256560562218501
      ],
      [
        "▁un",
        -5.280076610259747
      ],
      [
        "t",
        -5.282325676105296
      ],
      [
        "▁Il",
        -5.291830706008521
      ],
      [
        "▁a",
        -5.303324712724576
      ],
      [
        "▁C'est",
        -5.319637119865436
      ],
      [
        "▁gi",
        -5.334863962476344
      ],
      [
        "▁des",
        -5.385084748392459
      ],
      [
        "et",
        -5.4089330023918825
      ],
      [
        "▁bi",
        -5.4588437266129874
      ],
      [
        "▁naa",
        -5.475849134366901
      ],
      [
        "▁vu",
        -5.524277330983021
      ],
      [
        "▁ay",
        -5.541740815553841
      ],
      [
        "▁ŋga",
        -5.613584976883506
      ],
      [
        "une",
        -5.629041225233969
      ],
      [
        "▁G",
        -5.6350940077616976
      ],
      [
        "óor",
        -5.6976360189889395
      ],
      [
        "▁le",
        -5.720179726854539
      ],
      [
        "▁am",
        -5.724466186007071
      ],
      [
        "▁y",
        -5.728218432702064
      ],
      [
        "▁ce",
        -5.768738932534764
      ],
      [
        "r",
        -5.806680223996606
      ],
      [
        "▁à",
        -5.806773636548923
      ],
      [
        "▁mu",
        -5.816896654749993
      ],
      [
        "▁Je",
        -5.821108946928939
      ],
      [
        "▁tu",
        -5.8252843511127566
      ],
      [
        "▁Gis",
        -5.8347675962577386
      ],
      [
        "l",
        -5.848264997899784
      ],
      [
        "▁bu",
        -5.851851737209593
      ],
      [
        "▁di",
        -5.877101656807774
      ],
      [
        "▁les",
        -5.900412641229782
      ],
      [
        "▁gis",
        -5.913273611981195
      ],
      [
        "▁sont",
        -5.926227968078792
      ],
      [
        "▁ñu",
        -5.927661592720989
      ],
      [
        "▁Tu",
        -5.951038248507686
      ],
      [
        "▁homme",
        -5.966143803155713
      ],
      [
        "▁été",
        -5.987295145119087
      ],
      [
        "▁nag",
        -5.991529821851845
      ],
      [
        "▁du",
        -6.008341702598633
      ],
      [
        "on",
        -6.029564740375172
      ],
      [
        "▁L'homme",
        -6.037378477612355
      ],
      [
        "▁yu",
        -6.0411679395902045
      ],
      [
        "▁ngi",
        -6.058404799668941
      ],
      [
        "▁yi",
        -6.08886659197117
      ],
      [
        "▁ak",
        -6.096147638924633
      ],
      [
        "▁ko",
        -6.101366161528722
      ],
      [
        "▁J'ai",
        -6.103125262813343
      ],
      [
        "▁c",
        -6.111044565139599
      ],
      [
        "▁xam",
        -6.1110569277633955
      ],
      [
        "▁ni",
        -6.113624254283422
      ],
      [
        "▁wax",
        -6.130812213983302
      ],
      [
        "▁ba",
        -6.16691686208846
      ],
      [
        "▁ma",
        -6.170550284147156
      ],
      [
        "▁ñëw",
        -6.203153425640277
      ],
      [
        "▁nit",
        -6.208833273212194
      ],
      [
        "le",
        -6.2190307592184135
      ],
      [
        "▁en",
        -6.2219205131110105
      ],
      [
        "à",
        -6.255624968817447
      ],
      [
        "▁il",
        -6.256367186616114
      ],
      [
        "▁nekk",
        -6.2752284054860485
      ],
      [
        "▁l'homme",
        -6.282128694453331
      ],
      [
        "▁bii",
        -6.291986598639447
      ],
      [
        "▁lu",
        -6.308585574927662
      ],
      [
        "▁qu'il",
        -6.312178972034383
      ],
      [
        "▁avec",
        -6.332144339582058
      ],
      [
        "il",
        -6.35177186561042
      ],
      [
        "▁photo",
        -6.359408073415891
      ],
      [
        "▁pour",
        -6.365941862013884
      ],
      [
        "▁góor",
        -6.3890368954048
      ],
      [
        "▁c'est",
        -6.393369434725467
      ],
      [
        "m",
        -6.400997178183756
      ],
      [
        "▁benn",
        -6.418245957082831
      ],
      [
        "▁Nit",
        -6.430935555509984
      ],
      [
        "▁parti",
        -6.431301431774157
      ],
      [
        "é",
        -6.434708007622359
      ],
      [
        "nt",
        -6.476073668122386
      ],
      [
        "▁te",
        -6.502656809846201
      ],
      [
        "▁sur",
        -6.512076845977635
      ],
      [
        "▁biir",
        -6.5136169101383645
      ],
      [
        "▁Sur",
        -6.518548543731977
      ],
      [
        "▁ab",
        -6.522208728040998
      ],
      [
        "▁dans",
        -6.538924955029031
      ],
      [
        "▁la.",
        -6.549752137402139
      ],
      [
        "▁autre",
        -6.553306181735705
      ],
      [
        "▁mi",
        -6.5581617509638015
      ],
      [
        "▁je",
        -6.5865030550579196
      ],
      [
        "▁si",
        -6.607655126187562
      ],
      [
        "▁se",
        -6.616462793267844
      ],
      [
        "▁boo",
        -6.622923948284829
      ],
      [
        "▁Le",
        -6.633563745656298
      ],
      [
        "▁aussi",
        -6.638864796965281
      ],
      [
        "▁n",
        -6.646797905484959
      ],
      [
        "▁Nataal",
        -6.655777931069141
      ],
      [
        "▁O",
        -6.67047312349865
      ],
      [
        "▁cet",
        -6.675467338315203
      ],
      [
        "▁nataal",
        -6.690195690619344
      ],
      [
        "▁d",
        -6.696991436643437
      ],
      [
        "▁ñi",
        -6.718740868684436
      ],
      [
        "▁ŋgi",
        -6.7199368152232966
      ],
      [
        "▁bëgg",
        -6.721233310039552
      ],
      [
        "▁woon",
        -6.727322089220974
      ],
      [
        "▁moom",
        -6.734823449025114
      ],
      [
        "▁Am",
        -6.74076104922908
      ],
      [
        "▁def",
        -6.74340241750194
      ],
      [
        "▁ki",
        -6.746427200438676
      ],
      [
        "▁mel",
        -6.763252547544501
      ],
      [
        "▁fi",
        -6.765538060415873
      ],
      [
        "ette",
        -6.765613523138761
      ],
      [
        "eneen",
        -6.77140525543114
      ],
      [
        "▁ñoo",
        -6.774153125130291
      ],
      [
        "▁xale",
        -6.781657997471623
      ],
      [
        "▁A",
        -6.799515668192386
      ],
      [
        "▁là",
        -6.808246056602298
      ],
      [
        "oon",
        -6.815682041475977
      ],
      [
        "s.",
        -6.816313297732746
      ],
      [
        "▁tout",
        -6.818788444191353
      ],
      [
        "x",
        -6.819657350033157
      ],
      [
        "▁l'intérieur",
        -6.820215910057119
      ],
      [
        "al",
        -6.822013921296134
      ],
      [
        "▁Ce",
        -6.822117975132897
      ],
      [
        "▁parle",
        -6.822204123763619
      ],
      [
        "▁vois",
        -6.829075580154653
      ],
      [
        "▁Ci",
        -6.836565826421026
      ],
      [
        "▁La",
        -6.844581919661811
      ],
      [
        "▁nga",
        -6.846190859579471
      ],
      [
        "▁lui",
        -6.865441143186416
      ],
      [
        "es",
        -6.874073782286109
      ],
      [
        "o",
        -6.880106185485374
      ],
      [
        "▁sa",
        -6.891532691380844
      ],
      [
        "▁qu'",
        -6.896545722071632
      ],
      [
        "am",
        -6.915817903404337
      ],
      [
        "▁moo",
        -6.920873038688887
      ],
      [
        "▁celui-là",
        -6.924166838467595
      ],
      [
        "▁néeg",
        -6.926403249079209
      ],
      [
        "▁as",
        -6.929639045172218
      ],
      [
        "ment",
        -6.934533255739496
      ],
      [
        "▁seen",
        -6.936954320136069
      ],
      [
        "▁ji",
        -6.937677840120479
      ],
      [
        "▁ka",
        -6.943465534402734
      ],
      [
        "▁chose",
        -6.952392416681041
      ],
      [
        "▁E",
        -6.954798175777333
      ],
      [
        "▁Les",
        -6.9657884721422105
      ],
      [
        "▁weex",
        -6.968024532342616
      ],
      [
        "woon",
        -6.976561429443213
      ],
      [
        "ne",
        -6.980834842152376
      ],
      [
        "ay",
        -6.986600597893277
      ],
      [
        "▁couleur",
        -6.986666646047032
      ],
      [
        "▁vous",
        -6.997963697566318
      ],
      [
        "▁Waaw",
        -7.000761834004301
      ],
      [
        "▁xar",
        -7.039662019228983
      ],
      [
        "▁l",
        -7.042731905778954
      ],
      [
        "▁moi",
        -7.051991379346872
      ],
      [
        "▁ca",
        -7.0591850301664545
      ],
      [
        "▁voilà",
        -7.064775331630352
      ],
      [
        "▁mouton",
        -7.064980580893156
      ],
      [
        "'est",
        -7.068826844268471
      ],
      [
        "▁s",
        -7.070245483289296
      ],
      [
        "▁enfants",
        -7.070648175618999
      ],
      [
        "▁dit",
        -7.0807426343416315
      ],
      [
        "▁toi",
        -7.082358765667124
      ],
      [
        "▁fa",
        -7.082900720294256
      ],
      [
        "▁dafa",
        -7.090013846412877
      ],
      [
        "▁laa",
        -7.106647686932979
      ],
      [
        "▁Dem",
        -7.113124340655092
      ],
      [
        "ci",
        -7.114629048703874
      ],
      [
        "▁C",
        -7.116250857681039
      ],
      [
        "▁kenn",
        -7.117008089537783
      ],
      [
        "▁Un",
        -7.117773156864041
      ],
      [
        "▁porte",
        -7.1241739332084375
      ],
      [
        "▁lool",
        -7.125409663721383
      ],
      [
        "▁demee",
        -7.128862501850065
      ],
      [
        "▁au",
        -7.144263955475768
      ],
      [
        "'",
        -7.154094924893789
      ],
      [
        "▁venu",
        -7.154725342640342
      ],
      [
        "eux",
        -7.155341955896038
      ],
      [
        "▁Maa",
        -7.177333297340699
      ],
      [
        "▁partir",
        -7.177793190592403
      ],
      [
        "▁veux",
        -7.178488941377655
      ],
      [
        "▁plus",
        -7.182083853357069
      ],
      [
        "▁ag",
        -7.183445768226923
      ],
      [
        "▁Quel",
        -7.1898858881672005
      ],
      [
        "-",
        -7.196126526871005
      ],
      [
        "er",
        -7.197111483991511
      ],
      [
        "te",
        -7.198474104317466
      ],
      [
        "▁demul",
        -7.198834026480231
      ],
      [
        "▁maison",
        -7.201055906899293
      ],
      [
        "▁jigéen",
        -7.201068205950453
      ],
      [
        "ñ",
        -7.204945201049398
      ],
      [
        "▁part",
        -7.204974712837018
      ],
      [
        "▁ku",
        -7.208408567615157
      ],
      [
        "▁leen",
        -7.214120339705663
      ],
      [
        "▁Cet",
        -7.214316807264254
      ],
      [
        "▁où",
        -7.2211518496470575
      ],
      [
        "s-tu",
        -7.2247498916383055
      ],
      [
        "▁doon",
        -7.238478930387265
      ],
      [
        "ant",
        -7.238686424622225
      ],
      [
        "k",
        -7.238936487661086
      ],
      [
        "▁bien",
        -7.241007135723679
      ],
      [
        "▁De",
        -7.2465231198348485
      ],
      [
        "▁ŋgeen",
        -7.250362629455907
      ],
      [
        "▁j'",
        -7.261359860944431
      ],
      [
        "ù",
        -7.26821817391512
      ],
      [
        "en",
        -7.272276095922855
      ],
      [
        "▁m",
        -7.279150365409846
      ],
      [
        "▁n'es",
        -7.279500138962787
      ],
      [
        "▁rafet",
        -7.286331353521638
      ],
      [
        "▁très",
        -7.2902820720323565
      ],
      [
        "g",
        -7.309427084206975
      ],
      [
        "ez",
        -7.31000657091959
      ],
      [
        "ont",
        -7.310650509331461
      ],
      [
        "oo",
        -7.311610670854125
      ],
      [
        "▁ou",
        -7.319886784153837
      ],
      [
        "▁garab",
        -7.3229353297237925
      ],
      [
        "▁man",
        -7.336410271384045
      ],
      [
        "▁J",
        -7.34452647399247
      ],
      [
        "▁kaw",
        -7.356766433401882
      ],
      [
        "▁lii",
        -7.369540624207488
      ],
      [
        "▁personne",
        -7.373974656701927
      ],
      [
        "▁xarit",
        -7.388604027590489
      ],
      [
        "▁soo",
        -7.389469408154261
      ],
      [
        "▁j'ai",
        -7.3914206861092495
      ],
      [
        "▁Lii",
        -7.3974259599231384
      ],
      [
        "▁sol",
        -7.401269474455624
      ],
      [
        "..",
        -7.409095850958943
      ],
      [
        "▁Xar",
        -7.412420304523126
      ],
      [
        "ent",
        -7.414898496030716
      ],
      [
        "▁ñax",
        -7.426186641823472
      ],
      [
        "▁là-bas",
        -7.426545436098591
      ],
      [
        "▁gens",
        -7.433728352248453
      ],
      [
        "▁réer",
        -7.4350854536113715
      ],
      [
        "▁femme",
        -7.443760425862807
      ],
      [
        "▁Comme",
        -7.4621661692319226
      ],
      [
        "▁waaw",
        -7.464896270057147
      ],
      [
        "▁yépp",
        -7.466409852018762
      ],
      [
        "▁À",
        -7.4702748753782755
      ],
      [
        "▁b",
        -7.472567459271356
      ],
      [
        "▁dañ",
        -7.473715544551597
      ],
      [
        "w",
        -7.483730576374963
      ],
      [
        "▁Fa",
        -7.483904032184963
      ],
      [
        "▁Si",
        -7.4842387662454914
      ],
      [
        "re",
        -7.485065453427701
      ],
      [
        "la",
        -7.486893471675726
      ],
      [
        "▁Su",
        -7.49136354276833
      ],
      [
        "▁jusqu'",
        -7.499906616035744
      ],
      [
        "▁semble",
        -7.50048871323987
      ],
      [
        "▁veut",
        -7.5020110894665315
      ],
      [
        "▁rekk",
        -7.5020526192269585
      ],
      [
        "▁n'a",
        -7.502483252896326
      ],
      [
        "▁noppi",
        -7.503896441154577
      ],
      [
        "▁F",
        -7.50492279892457
      ],
      [
        "▁Qui",
        -7.5061990480997345
      ],
      [
        "▁teg",
        -7.5072294502323675
      ],
      [
        "▁ñaar",
        -7.512725804540829
      ],
      [
        "▁mën",
        -7.514709373913951
      ],
      [
        "▁waa",
        -7.5254623598818355
      ],
      [
        "▁lañu",
        -7.526292550195908
      ],
      [
        "de",
        -7.52809175825057
      ],
      [
        "▁fu",
        -7.530814024794829
      ],
      [
        "▁Du",
        -7.531142998743806
      ],
      [
        "▁maa",
        -7.5322129148285075
      ],
      [
        "épp",
        -7.534088414027441
      ],
      [
        "▁Ba",
        -7.536257343734474
      ],
      [
        "▁dara",
        -7.540136294809647
      ],
      [
        "▁Oui",
        -7.5427248115783545
      ],
      [
        "▁gu",
        -7.543642985343952
      ],
      [
        "▁nañu",
        -7.543945703758955
      ],
      [
        "▁moutons",
        -7.544269089201956
      ],
      [
        "▁Ceci",
        -7.544908759755125
      ],
      [
        "▁k",
        -7.545277970035132
      ],
      [
        "▁kër",
        -7.545906394028812
      ],
      [
        "leurs",
        -7.548489661912152
      ],
      [
        "it",
        -7.55075573408728
      ],
      [
        "▁qu",
        -7.554138098154617
      ],
      [
        "is",
        -7.555459298137572
      ],
      [
        "▁Sée",
        -7.555994984657763
      ],
      [
        "un",
        -7.5563494236910635
      ],
      [
        "▁on",
        -7.556912723688265
      ],
      [
        "▁ami",
        -7.557031946323371
      ],
      [
        "▁Mi",
        -7.568770490937479
      ],
      [
        "▁yoo",
        -7.576542941763039
      ],
      [
        "▁l'a",
        -7.582232209906268
      ],
      [
        "▁l'autre",
        -7.583530111807995
      ],
      [
        "▁ceux-là",
        -7.583548832731893
      ],
      [
        "▁peut-être",
        -7.583747194312505
      ],
      [
        "▁bari",
        -7.590814178021414
      ],
      [
        "▁d'autres",
        -7.591360440023773
      ],
      [
        "▁d'un",
        -7.592422605692608
      ],
      [
        "▁Ma",
        -7.592472307165805
      ],
      [
        "▁So",
        -7.594261050634863
      ],
      [
        "▁kooku",
        -7.596109229446524
      ],
      [
        "▁su",
        -7.598386450104403
      ],
      [
        "▁D",
        -7.601913642918035
      ],
      [
        "quelle",
        -7.609430598462087
      ],
      [
        "▁toog",
        -7.612375077092857
      ],
      [
        "▁Que",
        -7.617088970855728
      ],
      [
        "▁L",
        -7.621303794945456
      ],
      [
        "▁Vous",
        -7.6261331339028455
      ],
      [
        "▁tamit",
        -7.626374275424684
      ],
      [
        "▁quelqu'un",
        -7.627194892639386
      ],
      [
        "▁Xale",
        -7.627219589673338
      ],
      [
        "▁Mais",
        -7.6274911506376295
      ],
      [
        "▁wet",
        -7.627944749166415
      ],
      [
        "▁sax",
        -7.629641717392605
      ],
      [
        "▁Na",
        -7.644371804625432
      ],
      [
        "▁chambre",
        -7.6481975957900685
      ],
      [
        "▁personnes",
        -7.651496419159233
      ],
      [
        "voir",
        -7.658940176952873
      ],
      [
        "h",
        -7.660172128574898
      ],
      [
        "▁ya",
        -7.661207814083657
      ],
      [
        "▁nii",
        -7.661305017600506
      ],
      [
        "▁baax",
        -7.6683077292009365
      ],
      [
        "▁d'",
        -7.6722154816711825
      ],
      [
        "b",
        -7.675615704939219
      ],
      [
        "est",
        -7.6758630843834394
      ],
      [
        "r.",
        -7.678745457899117
      ],
      [
        "▁daal",
        -7.680130142632326
      ],
      [
        "▁ñuul",
        -7.683650933106158
      ],
      [
        "ma",
        -7.6861065054672455
      ],
      [
        "▁même",
        -7.6894291719655286
      ],
      [
        "▁fait",
        -7.7015108243898105
      ],
      [
        "ul",
        -7.706045109232325
      ],
      [
        "que",
        -7.707544178327005
      ],
      [
        "uñu",
        -7.708558243792005
      ],
      [
        "di",
        -7.717803252781708
      ],
      [
        "▁coté",
        -7.719031479265473
      ],
      [
        "▁Moo",
        -7.719259234681483
      ],
      [
        "▁dana",
        -7.719302203641268
      ],
      [
        "▁beaucoup",
        -7.719828628094865
      ],
      [
        "▁Daf",
        -7.721016056215859
      ],
      [
        "▁foofu",
        -7.7221570086576685
      ],
      [
        "▁voit",
        -7.723742827822022
      ],
      [
        "▁Te",
        -7.724222357955115
      ],
      [
        "▁ont",
        -7.725910215280855
      ],
      [
        "▁fii",
        -7.7320831772726475
      ],
      [
        "▁s'",
        -7.743259459284692
      ],
      [
        "▁avait",
        -7.756639421721313
      ],
      [
        "▁n'",
        -7.762161736891235
      ],
      [
        "▁bunt",
        -7.762929959591478
      ],
      [
        "-là",
        -7.763856160534607
      ],
      [
        "c",
        -7.767320299698241
      ],
      [
        "▁Ndax",
        -7.769172921544298
      ],
      [
        "▁donné",
        -7.769212144867016
      ],
      [
        "▁quelque",
        -7.771487646998189
      ],
      [
        "na",
        -7.773164193551832
      ],
      [
        "▁daa",
        -7.776088027694627
      ],
      [
        "▁tou",
        -7.779409293837313
      ],
      [
        "▁autres",
        -7.7880988618042295
      ],
      [
        "▁dañu",
        -7.792575092559323
      ],
      [
        "▁Ñu",
        -7.79319963977923
      ],
      [
        "ñu",
        -7.793565064001125
      ],
      [
        "▁posé",
        -7.795613963122999
      ],
      [
        "▁photo,",
        -7.796693416940347
      ],
      [
        "▁quelle",
        -7.798129316858358
      ],
      [
        "▁passe",
        -7.800773268905381
      ],
      [
        "▁son",
        -7.803078581055612
      ],
      [
        "oi",
        -7.804620007999667
      ],
      [
        "▁peut",
        -7.813755077148579
      ],
      [
        "e.",
        -7.814337709642112
      ],
      [
        "ee",
        -7.816401400471147
      ],
      [
        "▁crois",
        -7.822166887765266
      ],
      [
        "▁ñépp",
        -7.8222606689802845
      ],
      [
        "▁celui",
        -7.822346425725466
      ],
      [
        "▁Keneen",
        -7.822664879343602
      ],
      [
        "▁taxaw",
        -7.822993458468912
      ],
      [
        "▁f",
        -7.823630097222715
      ],
      [
        "▁soit",
        -7.828393239238624
      ],
      [
        "▁verre",
        -7.829761957971419
      ],
      [
        "▁Yaa",
        -7.834534205587111
      ],
      [
        "▁par",
        -7.839978542775803
      ],
      [
        "▁femmes",
        -7.850345454291867
      ],
      [
        "▁Bëgg",
        -7.8515865910435565
      ],
      [
        "▁dëkk",
        -7.857037048813012
      ],
      [
        "koon",
        -7.857424044718718
      ],
      [
        "▁égaré",
        -7.8598085358075425
      ],
      [
        "▁doŋŋ",
        -7.8766774306468035
      ],
      [
        "▁Samba",
        -7.877010485679596
      ],
      [
        "▁aperç",
        -7.877168609487747
      ],
      [
        "▁ressemble",
        -7.877669465507165
      ],
      [
        "▁p",
        -7.887854000663245
      ],
      [
        "▁Mu",
        -7.888411982411447
      ],
      [
        "▁itam",
        -7.889115319077606
      ],
      [
        "tte",
        -7.892636162627596
      ],
      [
        "▁blanc",
        -7.901401181744606
      ],
      [
        "▁rouge",
        -7.905271894956314
      ],
      [
        "▁poisson",
        -7.909510726505485
      ],
      [
        "▁kan",
        -7.910326352852389
      ],
      [
        "pp",
        -7.9148409057309355
      ],
      [
        "▁Nou",
        -7.915079576876396
      ],
      [
        "▁m'a",
        -7.915994330557741
      ],
      [
        "▁blanche",
        -7.91764079095187
      ],
      [
        "ux",
        -7.918601445427919
      ],
      [
        "▁lion",
        -7.921374918853272
      ],
      [
        "▁Waa",
        -7.922338223896691
      ],
      [
        "▁dee",
        -7.925089767914029
      ],
      [
        "▁dul",
        -7.925605556652618
      ],
      [
        "▁ban",
        -7.9260969205734995
      ],
      [
        "ependant",
        -7.92799575000838
      ],
      [
        "▁t",
        -7.928072229611026
      ],
      [
        ";",
        -7.930500310146502
      ],
      [
        "igéen",
        -7.930847293998084
      ],
      [
        "▁ai",
        -7.930901598731104
      ],
      [
        "ël",
        -7.932101052911188
      ],
      [
        "▁nous",
        -7.934347400637888
      ],
      [
        "▁jëm",
        -7.935296393203151
      ],
      [
        "▁suuf",
        -7.935812691401193
      ],
      [
        "as-tu",
        -7.936680785810694
      ],
      [
        "▁qu'elle",
        -7.938436865225179
      ],
      [
        "▁ndaw",
        -7.940757908914532
      ],
      [
        "▁rien",
        -7.943783802015093
      ],
      [
        "▁Seet",
        -7.9495716563785574
      ],
      [
        "▁va",
        -7.955356024493719
      ],
      [
        "▁arbres",
        -7.957313268941753
      ],
      [
        "▁j",
        -7.962714846282601
      ],
      [
        "▁yooyu",
        -7.96648395473267
      ],
      [
        "▁l'",
        -7.967231816912353
      ],
      [
        "ir",
        -7.971343209372846
      ],
      [
        "▁P",
        -7.984585685119823
      ],
      [
        "▁lañ",
        -7.98550477598884
      ],
      [
        "▁lay",
        -7.986442321089578
      ],
      [
        "d",
        -7.988941359108409
      ],
      [
        "était",
        -7.989614902026645
      ],
      [
        "▁S",
        -7.993185442897968
      ],
      [
        "▁parte",
        -7.9961787100614945
      ],
      [
        "▁génn",
        -7.997971102314362
      ],
      [
        "▁Naka",
        -7.9980259388152515
      ],
      [
        "▁<mask>",
        -7.998225371852314
      ],
      [
        "▁M",
        -7.998306636390927
      ],
      [
        "▁lequel",
        -7.999141567268063
      ],
      [
        "▁Laobe",
        -7.999387087639123
      ],
      [
        "▁vache",
        -7.999423652342298
      ],
      [
        "▁gaynde",
        -8.001633337223032
      ],
      [
        "▁sorte",
        -8.002463743527425
      ],
      [
        "▁demkoon",
        -8.002634342939206
      ],
      [
        "▁leur",
        -8.004539448725994
      ],
      [
        "ak",
        -8.008091600537918
      ],
      [
        "▁dénk",
        -8.008749480726742
      ],
      [
        "ale",
        -8.020133576974867
      ],
      [
        "▁nda",
        -8.023187019622636
      ],
      [
        "▁liggéey",
        -8.028764854405473
      ],
      [
        "▁pars",
        -8.029766677752493
      ],
      [
        "naa",
        -8.030609264649549
      ],
      [
        "▁yeneen",
        -8.038308369558823
      ],
      [
        "▁li",
        -8.03901309360202
      ],
      [
        "▁noir",
        -8.040229163113878
      ],
      [
        "▁waay",
        -8.040994446861108
      ],
      [
        "▁yor",
        -8.0471946638325
      ],
      [
        "les",
        -8.047711832600811
      ],
      [
        "▁peu",
        -8.048580833469526
      ],
      [
        "aw",
        -8.051196700198545
      ],
      [
        "▁g",
        -8.05365542207521
      ],
      [
        "▁Va",
        -8.057010945435156
      ],
      [
        ":",
        -8.059666976813181
      ],
      [
        "▁dugg",
        -8.060167887599002
      ],
      [
        "▁xonq",
        -8.064147096047389
      ],
      [
        "▁S'il",
        -8.064235596322591
      ],
      [
        "▁Aucun",
        -8.064482470415953
      ],
      [
        "▁Kooku",
        -8.064862464506435
      ],
      [
        "▁Celui-là",
        -8.065089317210706
      ],
      [
        "▁au-dessus",
        -8.065107678405367
      ],
      [
        "▁Ya",
        -8.066303197705395
      ],
      [
        "▁bois",
        -8.067520965377161
      ],
      [
        "▁ñan",
        -8.068337147861232
      ],
      [
        "▁ici",
        -8.068595550425506
      ],
      [
        "▁Yaw",
        -8.07112488899367
      ],
      [
        "▁J'",
        -8.072566518852488
      ],
      [
        "▁pa",
        -8.073718173664059
      ],
      [
        "or",
        -8.073769675723858
      ],
      [
        "▁doom",
        -8.074042456544053
      ],
      [
        "▁lal",
        -8.080798594819255
      ],
      [
        "▁mais",
        -8.081152518099842
      ],
      [
        "▁koo",
        -8.083303820147025
      ],
      [
        "▁ëe",
        -8.084157395929306
      ],
      [
        "tu",
        -8.084605067145564
      ],
      [
        "p",
        -8.087479466796669
      ],
      [
        "▁Xam",
        -8.09049832163689
      ],
      [
        "▁re",
        -8.092195682403055
      ],
      [
        "vais",
        -8.093506776747756
      ],
      [
        "▁Li",
        -8.093829444205548
      ],
      [
        "▁parles",
        -8.097064157485836
      ],
      [
        "ient",
        -8.115185939294534
      ],
      [
        "▁jolie",
        -8.11832464935116
      ],
      [
        "▁B",
        -8.122974578089902
      ],
      [
        "▁gii",
        -8.12366718256326
      ],
      [
        "être",
        -8.129046929646044
      ],
      [
        "▁Bu",
        -8.129410490196461
      ],
      [
        "▁v",
        -8.130704262331852
      ],
      [
        "ée",
        -8.132380770117601
      ],
      [
        "▁matin",
        -8.135745910868462
      ],
      [
        "▁simplement",
        -8.13639109494967
      ],
      [
        "▁seulement",
        -8.136501272945917
      ],
      [
        "▁quel",
        -8.136874157203387
      ],
      [
        "▁celui-ci",
        -8.136955663342112
      ],
      [
        "▁mépp",
        -8.139029351602847
      ],
      [
        "▁may",
        -8.141036026410118
      ],
      [
        "▁bañ",
        -8.141581866804476
      ],
      [
        "▁dame",
        -8.144175704288674
      ],
      [
        "lu",
        -8.145386591109844
      ],
      [
        "dax",
        -8.14699502103804
      ],
      [
        "▁faire",
        -8.148617419903145
      ],
      [
        "▁da",
        -8.149642624594678
      ],
      [
        "▁nee",
        -8.155473474935775
      ],
      [
        "ukaay",
        -8.157217835280555
      ],
      [
        "▁Bi",
        -8.157578581833931
      ],
      [
        "▁Ken",
        -8.159619389909524
      ],
      [
        "gi",
        -8.171236460642131
      ],
      [
        "▁wall",
        -8.174986205444338
      ],
      [
        "▁comme",
        -8.1751511272827
      ],
      [
        "▁bon",
        -8.1766188908145
      ],
      [
        "▁t'a",
        -8.177447238185236
      ],
      [
        "ag",
        -8.189382030222399
      ],
      [
        "ses",
        -8.191593143662391
      ],
      [
        "▁es",
        -8.196957803080812
      ],
      [
        "▁jeune",
        -8.197334383903648
      ],
      [
        "▁kii",
        -8.202459987289064
      ],
      [
        "▁sui",
        -8.204872587410586
      ],
      [
        "▁fas",
        -8.209860337959954
      ],
      [
        "▁paix",
        -8.212198735048615
      ],
      [
        "▁rek",
        -8.212284512687187
      ],
      [
        "▁trois",
        -8.212322010150316
      ],
      [
        "▁wirgo",
        -8.21236656260191
      ],
      [
        "▁Yéen",
        -8.213339312470856
      ],
      [
        "▁jël",
        -8.213744475558569
      ],
      [
        "▁habits",
        -8.214974159235767
      ],
      [
        "▁vas-tu",
        -8.215084356406773
      ],
      [
        "▁bëggul",
        -8.215815633263086
      ],
      [
        "▁Y",
        -8.21695645853744
      ],
      [
        "▁Moom",
        -8.217681530376264
      ],
      [
        "ais",
        -8.218978095207431
      ],
      [
        "▁mon",
        -8.223817937590603
      ],
      [
        "óon",
        -8.226569301963849
      ],
      [
        "▁viendra",
        -8.226781969300164
      ],
      [
        "elle",
        -8.227521918611457
      ],
      [
        "▁gendarmes",
        -8.23031537421648
      ],
      [
        "▁fut",
        -8.231692745334284
      ],
      [
        "-ci",
        -8.23377207627998
      ],
      [
        "▁mag",
        -8.234570192119236
      ],
      [
        "▁xaw",
        -8.235608750557713
      ],
      [
        "▁café",
        -8.23704010210616
      ],
      [
        "▁ça",
        -8.238328316031577
      ],
      [
        "▁Ben",
        -8.24101880843985
      ],
      [
        "yan",
        -8.241412035707937
      ],
      [
        "ab",
        -8.243510120568505
      ],
      [
        "▁Mon",
        -8.248682050983458
      ],
      [
        "nt.",
        -8.248828467838948
      ],
      [
        "▁vo",
        -8.24959853458787
      ],
      [
        "▁sama",
        -8.251244307286944
      ],
      [
        "▁fille",
        -8.257480572104555
      ],
      [
        "▁ta",
        -8.2592335409891
      ],
      [
        "▁voir",
        -8.269443562379562
      ],
      [
        "ait",
        -8.269840097317777
      ],
      [
        "▁Ñoo",
        -8.273218661253722
      ],
      [
        "▁Man",
        -8.273256728514673
      ],
      [
        "▁ñ",
        -8.275758745650878
      ],
      [
        "▁vienne",
        -8.276813654848851
      ],
      [
        "▁w",
        -8.284209595583167
      ],
      [
        "▁ñuul.",
        -8.289336622596489
      ],
      [
        "▁Ku",
        -8.29342465824562
      ],
      [
        "▁trouve",
        -8.295031652975988
      ],
      [
        "▁encore",
        -8.295618861056054
      ],
      [
        "▁Waaye",
        -8.29564779057943
      ],
      [
        "▁Jaam",
        -8.295676589931308
      ],
      [
        "▁Cherche",
        -8.295790050484776
      ],
      [
        "▁théière",
        -8.295794253873314
      ],
      [
        "▁question",
        -8.295950280687222
      ],
      [
        "▁Jox",
        -8.295952975942669
      ],
      [
        "▁Ceux-là",
        -8.296010838972732
      ],
      [
        "▁Saint-Louis",
        -8.296184266138633
      ],
      [
        "▁debout",
        -8.296203688539315
      ],
      [
        "▁pays",
        -8.296884712703223
      ],
      [
        "▁Quelle",
        -8.297213112646773
      ],
      [
        "▁yónnee",
        -8.297633346182277
      ],
      [
        "▁Demal",
        -8.299046404212115
      ],
      [
        "▁Defe",
        -8.29959383932324
      ],
      [
        "▁biti",
        -8.299838579400161
      ],
      [
        "▁Ndar",
        -8.300798177305055
      ],
      [
        "▁yaw",
        -8.301392631998835
      ],
      [
        "ul.",
        -8.307513095796619
      ],
      [
        "▁envoyée",
        -8.307519271323702
      ],
      [
        "aada",
        -8.314643014130418
      ],
      [
        "ri",
        -8.317166583356936
      ],
      [
        "▁dal",
        -8.317354001038458
      ],
      [
        "▁assis",
        -8.322988367018805
      ],
      [
        "▁weer",
        -8.324981601933432
      ],
      [
        "▁dëkku",
        -8.326743299622393
      ],
      [
        "ngi",
        -8.327350990009215
      ],
      [
        "▁ŋgii",
        -8.33162258592851
      ],
      [
        "▁Wax",
        -8.33497496410005
      ],
      [
        "ation",
        -8.340776027129657
      ],
      [
        "mi",
        -8.341066008499592
      ],
      [
        "▁dox",
        -8.344178085567183
      ],
      [
        "▁defe",
        -8.34675997626141
      ],
      [
        "▁Di",
        -8.347360970183065
      ],
      [
        "▁entre",
        -8.351203308514853
      ],
      [
        "▁Tout",
        -8.352770157633621
      ],
      [
        "▁R",
        -8.355740290056877
      ],
      [
        "▁conçue",
        -8.35575988119459
      ],
      [
        "enn",
        -8.356071587862122
      ],
      [
        "▁réew",
        -8.361245435076633
      ],
      [
        "▁T",
        -8.363035819404097
      ],
      [
        "▁yi.",
        -8.36522636818372
      ],
      [
        "▁wi",
        -8.365988517998662
      ],
      [
        "tes",
        -8.366392722492224
      ],
      [
        "près",
        -8.368724160822484
      ],
      [
        "kat",
        -8.375223982501737
      ],
      [
        "and",
        -8.380628144621424
      ],
      [
        "tre",
        -8.382478954752209
      ],
      [
        "▁nul",
        -8.384438499130965
      ],
      [
        "gee",
        -8.384771909014717
      ],
      [
        "▁séché",
        -8.385980802507445
      ],
      [
        "▁Homme",
        -8.38601334716984
      ],
      [
        "▁cheval",
        -8.38610722279977
      ],
      [
        "▁tabax",
        -8.386208180513579
      ],
      [
        "▁tudd",
        -8.386223587843707
      ],
      [
        "▁Moussa",
        -8.38622565021633
      ],
      [
        "▁Xammee",
        -8.386231285187234
      ],
      [
        "▁manière",
        -8.386995515100585
      ],
      [
        "▁toogukaay",
        -8.38714394322789
      ],
      [
        "▁Qu'il",
        -8.3871770837435
      ],
      [
        "▁gën",
        -8.389195695767278
      ],
      [
        "▁ñett",
        -8.38967031138608
      ],
      [
        "▁noonu",
        -8.390363637762247
      ],
      [
        "▁portent",
        -8.391905064923982
      ],
      [
        "▁kow",
        -8.392209976945534
      ],
      [
        "uma",
        -8.39291920210885
      ],
      [
        "f",
        -8.396843004985595
      ],
      [
        "▁bind",
        -8.39740214241507
      ],
      [
        "▁nañ",
        -8.398284822855612
      ],
      [
        "▁takk-der",
        -8.401301681114699
      ],
      [
        "▁aujourd'hui",
        -8.402715024761775
      ],
      [
        "▁N",
        -8.402993456319926
      ],
      [
        "▁W",
        -8.404417672054755
      ],
      [
        "▁partira",
        -8.408427775995847
      ],
      [
        "▁couleurs",
        -8.408604583684676
      ],
      [
        "▁Là",
        -8.408616042136956
      ],
      [
        "▁serai",
        -8.412749650368847
      ],
      [
        "▁xamant",
        -8.414676908496656
      ],
      [
        "▁An",
        -8.414905199169375
      ],
      [
        "▁égarée",
        -8.415457867555666
      ],
      [
        "▁bare",
        -8.416936210392834
      ],
      [
        "baar",
        -8.417718200426515
      ],
      [
        "▁tay",
        -8.41843430864438
      ],
      [
        "▁ga",
        -8.41987750182551
      ],
      [
        "▁aller",
        -8.423374596992064
      ],
      [
        "se",
        -8.423916548415576
      ],
      [
        "▁me",
        -8.42579094671852
      ],
      [
        "▁cela",
        -8.428845513972925
      ],
      [
        "▁ira",
        -8.432246665634425
      ],
      [
        "geen",
        -8.441747014423534
      ],
      [
        "ou",
        -8.442188810132587
      ],
      [
        "réer",
        -8.442484666153257
      ],
      [
        "▁ré",
        -8.444741171279322
      ],
      [
        "▁partis",
        -8.447099927266919
      ],
      [
        "▁portes",
        -8.454001322091706
      ],
      [
        "een",
        -8.457199999239444
      ],
      [
        "▁arrivé",
        -8.471629067005049
      ],
      [
        "ces",
        -8.478659770595904
      ],
      [
        "▁U2",
        -8.482278301592256
      ],
      [
        "atim",
        -8.482684843917745
      ],
      [
        "▁Koo",
        -8.483267662480971
      ],
      [
        "▁Sa",
        -8.484258313050322
      ],
      [
        "▁subë",
        -8.485457971699166
      ],
      [
        "▁vrai",
        -8.485594667155741
      ],
      [
        "▁sucre",
        -8.485668962170626
      ],
      [
        "▁Alors",
        -8.485708332776074
      ],
      [
        "▁Lawbe",
        -8.485804735111708
      ],
      [
        "▁garçon",
        -8.485874973647869
      ],
      [
        "▁palais",
        -8.485910862087048
      ],
      [
        "▁milieu",
        -8.486120620941765
      ],
      [
        "▁d'Europe",
        -8.486147590501403
      ],
      [
        "▁Fatim",
        -8.486175047530953
      ],
      [
        "▁reste",
        -8.48619332804084
      ],
      [
        "▁allé",
        -8.487030770115183
      ],
      [
        "▁Ñii",
        -8.487795894966318
      ],
      [
        "▁Elle",
        -8.48823869728707
      ],
      [
        "▁endroit",
        -8.490156521151206
      ],
      [
        "▁Boo",
        -8.492392751592295
      ],
      [
        "▁n'ai",
        -8.492562037793707
      ],
      [
        "▁jo",
        -8.493625478309099
      ],
      [
        "▁beneen",
        -8.49609935347014
      ],
      [
        "▁Cela",
        -8.497573935723358
      ],
      [
        "▁Bon",
        -8.49836722032594
      ],
      [
        "▁boobu",
        -8.498476302023263
      ],
      [
        "▁contre",
        -8.498947085842985
      ],
      [
        "▁eux",
        -8.500580391877786
      ],
      [
        "-tu",
        -8.501288983322546
      ],
      [
        "▁Voil",
        -8.501383195474673
      ],
      [
        "▁Par",
        -8.502885500018559
      ],
      [
        "'habitude",
        -8.502938299837826
      ],
      [
        "▁ànd",
        -8.505014481247022
      ],
      [
        "▁pri",
        -8.505283007229492
      ],
      [
        "▁ceux",
        -8.505817837494853
      ],
      [
        "▁Me",
        -8.50758133626472
      ],
      [
        "▁vas",
        -8.509654183845942
      ],
      [
        "in",
        -8.510620379553874
      ],
      [
        "▁l'un",
        -8.513689304798056
      ],
      [
        "▁ju",
        -8.513990726337543
      ],
      [
        "▁buntu",
        -8.515075566414248
      ],
      [
        "▁partes",
        -8.518256676855664
      ],
      [
        "▁lan",
        -8.520106475684802
      ],
      [
        "▁port",
        -8.520558351763732
      ],
      [
        "▁ñëwul",
        -8.521587738116303
      ],
      [
        "ki",
        -8.52417136689978
      ],
      [
        "▁vient",
        -8.52595666095066
      ],
      [
        "▁jan",
        -8.530822779235843
      ],
      [
        "ils",
        -8.531813440352725
      ],
      [
        "▁Doo",
        -8.532906614679206
      ],
      [
        "z",
        -8.534166801825215
      ],
      [
        "▁bar",
        -8.537094917437754
      ],
      [
        "▁K",
        -8.546288287867087
      ],
      [
        "▁blancs",
        -8.54775863809152
      ],
      [
        "▁Ra",
        -8.552435909152802
      ],
      [
        "▁lit",
        -8.554676814554096
      ],
      [
        "▁tax",
        -8.555452103702267
      ],
      [
        "▁yaa",
        -8.556690139669392
      ],
      [
        "▁nu",
        -8.559383617271338
      ],
      [
        "ées",
        -8.561871623991705
      ],
      [
        "leen",
        -8.562804705015678
      ],
      [
        "àll",
        -8.563503189758643
      ],
      [
        "▁loolu",
        -8.572539804248077
      ],
      [
        "ai",
        -8.587657362388372
      ],
      [
        "▁woo",
        -8.591685483115825
      ],
      [
        "▁mo",
        -8.593577928316215
      ],
      [
        "▁Woo",
        -8.594647094845804
      ],
      [
        "pendant",
        -8.595442276614248
      ],
      [
        "▁Mbaa",
        -8.596182290687457
      ],
      [
        "▁acheté",
        -8.596592937996187
      ],
      [
        "▁Sérère",
        -8.596607253980421
      ],
      [
        "▁chevaux",
        -8.596734553184453
      ],
      [
        "▁wër",
        -8.596746547870104
      ],
      [
        "▁morceau",
        -8.596763944734953
      ],
      [
        "▁jaŋg",
        -8.597128562794317
      ],
      [
        "▁mère",
        -8.597501714004371
      ],
      [
        "▁Ne",
        -8.597772354849472
      ],
      [
        "▁it",
        -8.597891296123198
      ],
      [
        "▁Musaa",
        -8.59809132755729
      ],
      [
        "▁Loolu",
        -8.59890947878915
      ],
      [
        "▁fils",
        -8.599283245857652
      ],
      [
        "▁devant",
        -8.60043569383431
      ],
      [
        "▁s'en",
        -8.600536489683218
      ],
      [
        "st-ce",
        -8.60076580676543
      ],
      [
        "▁bépp",
        -8.601501052203544
      ],
      [
        "▁ŋgoon",
        -8.601734883975032
      ],
      [
        "▁téer",
        -8.604688176235943
      ],
      [
        "▁Tay",
        -8.604753446830056
      ],
      [
        "▁mis",
        -8.606951294751124
      ],
      [
        "▁Loo",
        -8.60703151873663
      ],
      [
        "est-ce",
        -8.612608146784414
      ],
      [
        "▁connais",
        -8.617756439309801
      ],
      [
        "▁elle",
        -8.619055576147066
      ],
      [
        "▁com",
        -8.622307951099119
      ],
      [
        "▁ceci",
        -8.623137172629223
      ],
      [
        "ère",
        -8.623594337524116
      ],
      [
        "▁viennes",
        -8.625510938561689
      ],
      [
        "▁dé",
        -8.629460105087931
      ],
      [
        "▁lanu",
        -8.634510490487749
      ],
      [
        "▁Tou",
        -8.635255241812018
      ],
      [
        "'était",
        -8.636545709638163
      ],
      [
        "fin",
        -8.639439914545624
      ],
      [
        "▁May",
        -8.643627429506335
      ],
      [
        "▁Fan",
        -8.644724812551056
      ],
      [
        "▁L'",
        -8.645075711336244
      ],
      [
        "▁Lu",
        -8.646816357346774
      ],
      [
        "▁bula",
        -8.648595881598025
      ],
      [
        "ce",
        -8.651974933992305
      ],
      [
        "waay",
        -8.658301608333655
      ],
      [
        "▁bes",
        -8.658874206178838
      ],
      [
        "▁no",
        -8.659612222315731
      ],
      [
        "ppelle",
        -8.660360886578996
      ],
      [
        "▁montre",
        -8.661103143360952
      ],
      [
        "▁seet",
        -8.664668195747815
      ],
      [
        "▁don",
        -8.667058235946675
      ],
      [
        "ions",
        -8.677341857580476
      ],
      [
        "porte",
        -8.678657573335492
      ],
      [
        "▁travail",
        -8.682168142888202
      ],
      [
        "▁eû",
        -8.687893904223515
      ],
      [
        "▁jii",
        -8.693047587427703
      ],
      [
        "j",
        -8.69328461133295
      ],
      [
        "▁av",
        -8.69579948590399
      ],
      [
        "rait",
        -8.696767927384682
      ],
      [
        "eer",
        -8.698044624217172
      ],
      [
        "as",
        -8.699986668035764
      ],
      [
        "▁defar",
        -8.704726498577061
      ],
      [
        "▁enfant",
        -8.708402467039782
      ],
      [
        "▁Ñ",
        -8.709068371007831
      ],
      [
        "▁seul",
        -8.714452397852828
      ],
      [
        "▁avais",
        -8.715882328631466
      ],
      [
        "iez",
        -8.717169491741249
      ],
      [
        "moi",
        -8.718235394858347
      ],
      [
        "▁Sénégal",
        -8.71832269372638
      ],
      [
        "▁ràbb",
        -8.718375612555521
      ],
      [
        "▁route",
        -8.718400873950518
      ],
      [
        "▁ainsi",
        -8.718446676142598
      ],
      [
        "▁entier",
        -8.718533954628025
      ],
      [
        "▁Laobé",
        -8.719087475548129
      ],
      [
        "▁wanag",
        -8.7193553631374
      ],
      [
        "nga",
        -8.719414755742037
      ],
      [
        "▁Senegaal",
        -8.721399951258558
      ],
      [
        "▁assurément",
        -8.72155118331116
      ],
      [
        "▁pourtant",
        -8.722099569535624
      ],
      [
        "ier",
        -8.723574510043392
      ],
      [
        "▁pierres",
        -8.723596944048541
      ],
      [
        "ur",
        -8.725038337140383
      ],
      [
        "▁lieu",
        -8.725411174738024
      ],
      [
        "▁Kookule",
        -8.725561188180874
      ],
      [
        "ë",
        -8.726308110318532
      ],
      [
        "▁sortir",
        -8.726440044497009
      ],
      [
        "▁pou",
        -8.728064693659974
      ],
      [
        "▁Toi",
        -8.728585045574874
      ],
      [
        "▁gejje",
        -8.728808899843207
      ],
      [
        "▁V",
        -8.728877270982151
      ],
      [
        "▁so",
        -8.729149650831513
      ],
      [
        "▁Wu",
        -8.729386544742214
      ],
      [
        "▁Noonu",
        -8.731515568853647
      ],
      [
        "▁caus",
        -8.732969847557627
      ],
      [
        "ra",
        -8.733013669466029
      ],
      [
        "parlé",
        -8.734465954059237
      ],
      [
        "▁tali",
        -8.737815000030263
      ],
      [
        "gal",
        -8.744594462808827
      ],
      [
        "v",
        -8.746663767674521
      ],
      [
        "▁s'agi",
        -8.746950888635086
      ],
      [
        "an",
        -8.747704812147957
      ],
      [
        "▁Vas",
        -8.750124281509077
      ],
      [
        "▁daan",
        -8.751447428365246
      ],
      [
        "▁bëggée",
        -8.751622976932701
      ],
      [
        "▁t'ai",
        -8.757344587129557
      ],
      [
        "ar",
        -8.760458497382565
      ],
      [
        "▁Noon",
        -8.768169564421562
      ],
      [
        "▁wara",
        -8.770027761783709
      ],
      [
        "ŋga",
        -8.774486312767172
      ],
      [
        "▁cherche",
        -8.778383028412717
      ],
      [
        "▁gen",
        -8.785370238576837
      ],
      [
        "vous",
        -8.790983422868266
      ],
      [
        "▁table",
        -8.791973575251498
      ],
      [
        "es.",
        -8.797828869384322
      ],
      [
        "▁nak",
        -8.803459754175524
      ],
      [
        "▁Ki",
        -8.805348103885176
      ],
      [
        "▁wa",
        -8.806354016094035
      ],
      [
        "garde",
        -8.807543813696146
      ],
      [
        "▁ñen",
        -8.811043883159511
      ],
      [
        "▁petit",
        -8.812773345764548
      ],
      [
        "▁l'ai",
        -8.813892354864903
      ],
      [
        "▁kaa",
        -8.814671433236567
      ],
      [
        "sieur",
        -8.81541674076095
      ],
      [
        "▁toute",
        -8.81868020603126
      ],
      [
        "▁sorti",
        -8.819147968904076
      ],
      [
        "▁Ca",
        -8.820243138961379
      ],
      [
        "▁sokolaa",
        -8.822853237487129
      ],
      [
        "▁yoon",
        -8.823218044893592
      ],
      [
        "quel",
        -8.823897668985918
      ],
      [
        "▁appelle",
        -8.830619967004212
      ],
      [
        "G",
        -8.832496276921631
      ],
      [
        "▁në",
        -8.832626108519367
      ],
      [
        "▁arbre",
        -8.841480221105003
      ],
      [
        "▁X",
        -8.842412851974977
      ],
      [
        "▁peut-",
        -8.847159836269721
      ],
      [
        "▁drap",
        -8.854233696958003
      ],
      [
        "ñeen",
        -8.860905852851392
      ],
      [
        "▁bâtiment",
        -8.861229303569651
      ],
      [
        "▁complète",
        -8.861229310450495
      ],
      [
        "▁Casamance",
        -8.861229312506516
      ],
      [
        "▁yeksi",
        -8.861230874363804
      ],
      [
        "▁Ainsi",
        -8.861235174083218
      ],
      [
        "▁boeuf",
        -8.861239519753065
      ],
      [
        "▁Deŋk",
        -8.8612683891781
      ],
      [
        "▁l'enfant",
        -8.861275397319348
      ],
      [
        "▁case",
        -8.861317948170905
      ],
      [
        "▁Palais",
        -8.86131943469682
      ],
      [
        "▁togg",
        -8.861368580918544
      ],
      [
        "▁pañe",
        -8.861381961321111
      ],
      [
        "▁dellusi",
        -8.86158951413594
      ],
      [
        "▁êtes",
        -8.861710915988509
      ],
      [
        "▁yére",
        -8.861739879997103
      ],
      [
        "▁jën",
        -8.861845826602295
      ],
      [
        "▁ndox",
        -8.86190642039282
      ],
      [
        "▁moto",
        -8.86212679409176
      ],
      [
        "▁xeer",
        -8.862180745752092
      ],
      [
        "▁tày",
        -8.862315149825468
      ],
      [
        "▁salle",
        -8.862390139126655
      ],
      [
        "▁Ici",
        -8.86314146527202
      ],
      [
        "▁Dama",
        -8.863280924620334
      ],
      [
        "▁dirait",
        -8.86355165976057
      ],
      [
        "▁mains",
        -8.863757966479962
      ],
      [
        "▁fépp",
        -8.864034945178524
      ],
      [
        "▁kanam",
        -8.864275700657187
      ],
      [
        "▁Parle",
        -8.864403512454144
      ],
      [
        "▁tàll",
        -8.864620195753698
      ],
      [
        "▁Bunt",
        -8.864634159016328
      ],
      [
        "▁ville",
        -8.864662942664307
      ],
      [
        "▁regardes",
        -8.865084594840724
      ],
      [
        "▁derrière",
        -8.865643390953698
      ],
      [
        "▁Foofu",
        -8.867697861623707
      ],
      [
        "au",
        -8.868133070132693
      ],
      [
        "▁Më",
        -8.87076404092167
      ],
      [
        "▁neex",
        -8.871800636557088
      ],
      [
        "▁chez",
        -8.872289939114012
      ],
      [
        "▁bol",
        -8.872725657750086
      ],
      [
        "▁con",
        -8.87335846172677
      ],
      [
        "▁jaune",
        -8.874766693275108
      ],
      [
        "-t-il",
        -8.875426537378921
      ],
      [
        "▁dessus",
        -8.877248113681421
      ],
      [
        "▁soir",
        -8.878188055907131
      ],
      [
        "▁fleurs",
        -8.878853305924771
      ],
      [
        "▁yee",
        -8.879849029501953
      ],
      [
        "▁dessin",
        -8.881280095003858
      ],
      [
        "▁na.",
        -8.882988461138181
      ],
      [
        "▁t'en",
        -8.883105154810353
      ],
      [
        "▁arrivés",
        -8.883433988259656
      ],
      [
        "▁L'un",
        -8.883606432509822
      ],
      [
        "ax",
        -8.884225414568087
      ],
      [
        "▁ñooñu",
        -8.88639026870532
      ],
      [
        "▁wane",
        -8.88692804923328
      ],
      [
        "▁chaise",
        -8.887544436615986
      ],
      [
        "▁noire.",
        -8.888191346153453
      ],
      [
        "▁demande",
        -8.898536887866982
      ],
      [
        "▁allai",
        -8.904880277276439
      ],
      [
        "individu",
        -8.907115273260079
      ],
      [
        "▁jox",
        -8.908265739529702
      ],
      [
        "▁wan",
        -8.90860356518725
      ],
      [
        "▁fois",
        -8.910236432249192
      ],
      [
        "▁jooju",
        -8.91081146790518
      ],
      [
        "▁parler",
        -8.913097595363608
      ],
      [
        "▁haute",
        -8.914801063065308
      ],
      [
        "▁leneen",
        -8.920170570543734
      ],
      [
        "tient",
        -8.921586364905464
      ],
      [
        "▁wu",
        -8.923075562312448
      ],
      [
        "kk",
        -8.923849343863974
      ],
      [
        "▁Yo",
        -8.924143181930486
      ],
      [
        "▁met",
        -8.925822226465522
      ],
      [
        "▁gan",
        -8.927956154390623
      ],
      [
        "▁père",
        -8.937769724218805
      ],
      [
        "▁juróom",
        -8.94374262963135
      ],
      [
        "▁bool",
        -8.945284786742569
      ],
      [
        "▁n'avai",
        -8.945546723210336
      ],
      [
        "ion",
        -8.945796755923933
      ],
      [
        "ît",
        -8.946491832685895
      ],
      [
        "▁mii",
        -8.947082836213896
      ],
      [
        "▁beau",
        -8.947536753069723
      ],
      [
        "▁më",
        -8.948686802380767
      ],
      [
        "▁jam",
        -8.951135710274263
      ],
      [
        "ons",
        -8.962197206432382
      ],
      [
        "ous",
        -8.964490297697706
      ],
      [
        "▁noirs",
        -8.965547234141098
      ],
      [
        "e,",
        -8.967220410357069
      ],
      [
        "▁haut",
        -8.968195020322137
      ],
      [
        "▁ñooña",
        -8.969814157668594
      ],
      [
        "▁ja",
        -8.972221433112418
      ],
      [
        "ance",
        -8.973061201694408
      ],
      [
        "ien",
        -8.976299925374645
      ],
      [
        "bi",
        -8.9779375045475
      ],
      [
        "▁ton",
        -8.980151008867974
      ],
      [
        "▁Mang",
        -8.983212265719745
      ],
      [
        "▁Ñe",
        -8.983558969603392
      ],
      [
        "▁Daŋg",
        -8.988352769506527
      ],
      [
        "ñii",
        -8.988733887015295
      ],
      [
        "▁Ta",
        -8.99151611328827
      ],
      [
        "▁alla",
        -8.99167894153392
      ],
      [
        "▁regard",
        -8.996821740054717
      ],
      [
        "éel",
        -8.999765463590167
      ],
      [
        "▁Moi",
        -9.008681699327273
      ],
      [
        "▁garde",
        -9.009644090041345
      ],
      [
        "▁enfant-",
        -9.013200035169671
      ],
      [
        "▁Ceux",
        -9.016477347526843
      ],
      [
        "ŋ",
        -9.016546403432944
      ],
      [
        "ëf",
        -9.020143277239775
      ],
      [
        "▁ginnaaw",
        -9.024506996973123
      ],
      [
        "▁Jam",
        -9.026733158807092
      ],
      [
        "▁Aujourd'hui",
        -9.02789597009492
      ],
      [
        "▁d'esprit",
        -9.02789597060553
      ],
      [
        "▁calebasse",
        -9.027895972423853
      ],
      [
        "▁croyai",
        -9.027896716294235
      ],
      [
        "▁Force",
        -9.02789704612848
      ],
      [
        "▁Waxtaan",
        -9.027898027565367
      ],
      [
        "▁tëdd",
        -9.027900076579323
      ],
      [
        "▁veulent",
        -9.027902754454843
      ],
      [
        "▁L'enfant",
        -9.027915120704165
      ],
      [
        "▁Wolof",
        -9.02791529556678
      ],
      [
        "▁suukër",
        -9.027929270610214
      ],
      [
        "▁njiit",
        -9.027948876635918
      ],
      [
        "▁peinture",
        -9.027964755496168
      ],
      [
        "▁Génn",
        -9.028012261638267
      ],
      [
        "▁chocolatée",
        -9.028125493066806
      ],
      [
        "▁tuuti",
        -9.028222254332418
      ],
      [
        "▁tasse",
        -9.0283014930509
      ],
      [
        "▁takk",
        -9.028320351237168
      ],
      [
        "▁bërëb",
        -9.028384657545685
      ],
      [
        "▁gris",
        -9.028472401058204
      ],
      [
        "▁fowu",
        -9.028551230296237
      ],
      [
        "▁sais",
        -9.0286254903928
      ],
      [
        "▁couteau",
        -9.028656990090157
      ],
      [
        "▁Tugël",
        -9.028697247563455
      ],
      [
        "bu",
        -9.029059041535785
      ],
      [
        "▁Donne",
        -9.02906281430761
      ],
      [
        "▁bopp",
        -9.029389415163923
      ],
      [
        "▁doonkoon",
        -9.0294594770011
      ],
      [
        "▁topp",
        -9.0296107027053
      ],
      [
        "▁Jënd",
        -9.030056595593827
      ],
      [
        "▁wépp",
        -9.030115547111997
      ],
      [
        "▁feeñ",
        -9.030454910087574
      ],
      [
        "▁lëf",
        -9.03109599832801
      ],
      [
        "▁taaru",
        -9.031311797618908
      ],
      [
        "▁jaar",
        -9.031507307182938
      ],
      [
        "▁autre-là",
        -9.031953255081467
      ],
      [
        "▁jënd",
        -9.032769505871205
      ],
      [
        "▁dàll",
        -9.032903915378371
      ],
      [
        "▁ng",
        -9.033674089601599
      ],
      [
        "▁bokk",
        -9.036455076733477
      ],
      [
        "▁digg",
        -9.037403335085294
      ],
      [
        "▁d'autre",
        -9.039142762749655
      ],
      [
        "▁baxa",
        -9.039440841499347
      ],
      [
        "▁feneen",
        -9.039696822499643
      ],
      [
        "▁Car",
        -9.040489028793479
      ],
      [
        "▁herbes",
        -9.041224349960729
      ],
      [
        "▁retraite",
        -9.042880292923366
      ],
      [
        "▁ñaan",
        -9.043582642509055
      ],
      [
        "▁bekk",
        -9.044231942579279
      ],
      [
        "▁kaas",
        -9.04669234942811
      ],
      [
        "mu",
        -9.046868959539994
      ],
      [
        "▁Men",
        -9.047442564063628
      ],
      [
        "▁sain",
        -9.047928754571426
      ],
      [
        "▁étai",
        -9.051660535853674
      ],
      [
        "▁Nda",
        -9.052379063939835
      ],
      [
        "▁refuse",
        -9.055077236875816
      ],
      [
        "▁ñaxtu",
        -9.059994805581402
      ],
      [
        "▁Dana",
        -9.060647087286481
      ],
      [
        "vent",
        -9.061790673169867
      ],
      [
        "▁pro",
        -9.06253607643565
      ],
      [
        "▁marche",
        -9.062585380325164
      ],
      [
        "oroom",
        -9.062740860327285
      ],
      [
        "óo",
        -9.06492145180895
      ],
      [
        "▁daw",
        -9.065956486608652
      ],
      [
        "▁souhaite",
        -9.06646550974912
      ],
      [
        "▁Dan",
        -9.070785436885323
      ],
      [
        "ge",
        -9.070862107898382
      ],
      [
        "▁sokolaa.",
        -9.075191972562196
      ],
      [
        "▁Bar",
        -9.076911055518957
      ],
      [
        "i.",
        -9.077011408576045
      ],
      [
        "garder",
        -9.07735111340774
      ],
      [
        "uite",
        -9.078215675891567
      ],
      [
        "▁set",
        -9.082970152948077
      ],
      [
        "▁Dis",
        -9.084336893232296
      ],
      [
        "▁alal",
        -9.089386090759406
      ],
      [
        "-y",
        -9.09079962578981
      ],
      [
        "▁cases",
        -9.090945539849242
      ],
      [
        "qu",
        -9.092781319042036
      ],
      [
        "▁bleu",
        -9.093355684482678
      ],
      [
        "connais",
        -9.093809128705999
      ],
      [
        "▁veni",
        -9.097490336454342
      ],
      [
        "▁do",
        -9.099136388932171
      ],
      [
        "▁co",
        -9.10371629285011
      ],
      [
        "ni",
        -9.108786039824881
      ],
      [
        "éer",
        -9.11069621569903
      ],
      [
        "▁Com",
        -9.110861320545137
      ],
      [
        "▁tey",
        -9.110902749133151
      ],
      [
        "▁gaa",
        -9.112351882819173
      ],
      [
        "▁amen",
        -9.11649008310163
      ],
      [
        "▁aurai",
        -9.125203613992735
      ],
      [
        "où",
        -9.131627345654
      ],
      [
        "▁Qu",
        -9.132495996380289
      ],
      [
        "ici",
        -9.134826364032604
      ],
      [
        "▁t'",
        -9.134987889959516
      ],
      [
        "▁Wa",
        -9.135776313493322
      ],
      [
        "▁aux",
        -9.13773190049929
      ],
      [
        "▁quelles",
        -9.139479671447281
      ],
      [
        "▁bant",
        -9.14312658947934
      ],
      [
        "bër",
        -9.143901835416816
      ],
      [
        "▁dire",
        -9.145498903228301
      ],
      [
        "▁car",
        -9.151992322872907
      ],
      [
        "ore",
        -9.155202230293703
      ],
      [
        "lal",
        -9.156680568069197
      ],
      [
        "▁viens",
        -9.156738833660713
      ],
      [
        "si",
        -9.160287257245706
      ],
      [
        "▁yër",
        -9.161422935319031
      ],
      [
        "▁jooj",
        -9.164689242658987
      ],
      [
        "rain",
        -9.166649710694665
      ],
      [
        "▁individu",
        -9.169056002847308
      ],
      [
        "aay",
        -9.170141482114259
      ],
      [
        "▁Fi",
        -9.170218482215937
      ],
      [
        "▁bë",
        -9.171702148919366
      ],
      [
        "▁Re",
        -9.172483779906347
      ],
      [
        "boo",
        -9.176157683710732
      ],
      [
        "tour",
        -9.176189092685508
      ],
      [
        "ain",
        -9.18159547355007
      ],
      [
        "▁joli",
        -9.181719471702069
      ],
      [
        "▁ñe",
        -9.182404262651684
      ],
      [
        "▁ven",
        -9.183025548824375
      ],
      [
        "▁moomu",
        -9.185418062595184
      ],
      [
        "▁cuisine",
        -9.185513477603866
      ],
      [
        "aan",
        -9.189693135065284
      ],
      [
        "ko",
        -9.192094770889854
      ],
      [
        "ral",
        -9.197230250168632
      ],
      [
        "▁Ka",
        -9.202397643172592
      ],
      [
        "ool",
        -9.20267437898319
      ],
      [
        "▁ans",
        -9.203000936445147
      ],
      [
        "▁defare",
        -9.20504994970993
      ],
      [
        "▁elles",
        -9.207760989287706
      ],
      [
        "▁livre",
        -9.212143473555349
      ],
      [
        "▁e",
        -9.219692138800747
      ],
      [
        "▁vers",
        -9.222908475728001
      ],
      [
        "▁loxo",
        -9.227795778402784
      ],
      [
        "Ç",
        -9.227895970094922
      ],
      [
        "▁bûcheron",
        -9.227895970151872
      ],
      [
        "▁auparavant",
        -9.227895970323033
      ],
      [
        "▁chaussures",
        -9.227895970356498
      ],
      [
        "▁forêt",
        -9.227895970817535
      ],
      [
        "▁ustensile",
        -9.227895971151682
      ],
      [
        "▁mosquée",
        -9.227895984799932
      ],
      [
        "▁pantalon",
        -9.22789621468683
      ],
      [
        "▁domaine",
        -9.227896215461808
      ],
      [
        "▁dehors",
        -9.227896918487637
      ],
      [
        "▁fortune",
        -9.227896920567439
      ],
      [
        "▁chapeau",
        -9.227897921943141
      ],
      [
        "▁maître",
        -9.227898197445128
      ],
      [
        "▁construction",
        -9.227898478383977
      ],
      [
        "▁xaalis",
        -9.2278993119557
      ],
      [
        "▁Moontin",
        -9.227899991072634
      ],
      [
        "▁magasin",
        -9.227906293698906
      ],
      [
        "▁xayma",
        -9.227908517163392
      ],
      [
        "▁jàkka",
        -9.227910143749902
      ],
      [
        "▁gannaaw",
        -9.2279168821556
      ],
      [
        "▁mbokk",
        -9.227926999115844
      ],
      [
        "▁champ",
        -9.227927039696713
      ],
      [
        "▁travers",
        -9.227930452202331
      ],
      [
        "▁Salut",
        -9.22794823377202
      ],
      [
        "▁këll",
        -9.227970136471408
      ],
      [
        "▁dirigeant",
        -9.227971118334642
      ],
      [
        "▁gentil",
        -9.227975918970946
      ],
      [
        "▁vieille",
        -9.227985996857093
      ],
      [
        "▁courage",
        -9.228013170335968
      ],
      [
        "▁chef",
        -9.22805238357612
      ],
      [
        "▁xëcc",
        -9.228059170661796
      ],
      [
        "▁palaat",
        -9.228060284394871
      ],
      [
        "▁tànk",
        -9.228070454031783
      ],
      [
        "▁large",
        -9.228085916779591
      ],
      [
        "▁jàppukaay",
        -9.228148144579475
      ],
      [
        "▁puj",
        -9.228148453804437
      ],
      [
        "▁jëfandikoo",
        -9.22815236815175
      ],
      [
        "▁màgg",
        -9.228153045456642
      ],
      [
        "▁parole",
        -9.228218190509601
      ],
      [
        "▁l'eau",
        -9.22822182198733
      ],
      [
        "▁grand",
        -9.228396088977032
      ],
      [
        "▁revienne",
        -9.228420973967886
      ],
      [
        "▁yéeg",
        -9.22847293151957
      ],
      [
        "▁travailleurs",
        -9.228795470187112
      ],
      [
        "▁Dañu",
        -9.229064400005933
      ],
      [
        "▁dëgg",
        -9.229138431593643
      ],
      [
        "▁kookee",
        -9.22932028159932
      ],
      [
        "▁unique",
        -9.229431487799022
      ],
      [
        "▁faut",
        -9.22945145374224
      ],
      [
        "▁ŋgoogule",
        -9.229547856303869
      ],
      [
        "▁gudd",
        -9.229810164965306
      ],
      [
        "▁plac",
        -9.229935018679564
      ],
      [
        "▁accepte",
        -9.230018381432192
      ],
      [
        "▁bomb",
        -9.230137880263314
      ],
      [
        "▁four",
        -9.230172595807268
      ],
      [
        "▁rencontrer",
        -9.23041792633997
      ],
      [
        "▁surtout",
        -9.23058225717726
      ],
      [
        "▁Néeg",
        -9.230662524090645
      ],
      [
        "▁donc",
        -9.231431342978615
      ],
      [
        "▁nuit",
        -9.232067664731746
      ],
      [
        "▁bâtons",
        -9.232502759016404
      ],
      [
        "▁viennent",
        -9.232718919602899
      ],
      [
        "▁Foo",
        -9.232826366236374
      ],
      [
        "▁kafe",
        -9.232993976328924
      ],
      [
        "▁tub",
        -9.233050971503422
      ],
      [
        "googule",
        -9.23306506089611
      ],
      [
        "▁yëf",
        -9.233332320400606
      ],
      [
        "▁xoolee",
        -9.233910851151014
      ],
      [
        "▁reconnu",
        -9.23418986103118
      ],
      [
        "▁c'était",
        -9.234595313155843
      ],
      [
        "▁See",
        -9.234890627089255
      ],
      [
        "▁jaam",
        -9.235889137725662
      ],
      [
        "▁jar",
        -9.236434287149901
      ],
      [
        "▁dessiné",
        -9.236896565300274
      ],
      [
        "▁l'entoure",
        -9.237159010119628
      ],
      [
        "▁n'étai",
        -9.238008056084238
      ],
      [
        "▁comprend",
        -9.238276469371087
      ],
      [
        "▁fenn",
        -9.239055882005953
      ],
      [
        "rends",
        -9.239494367847636
      ],
      [
        "▁war",
        -9.241047356415468
      ],
      [
        "▁entra",
        -9.241183298551842
      ],
      [
        "▁ubbi",
        -9.243383848002997
      ],
      [
        "▁naan",
        -9.244028713713634
      ],
      [
        "▁prend",
        -9.24560708967578
      ],
      [
        "t.",
        -9.245702016823682
      ],
      [
        "▁eusse",
        -9.24627212982611
      ],
      [
        "▁Sama",
        -9.247134821248345
      ],
      [
        "▁D'",
        -9.248185356824397
      ],
      [
        "▁n'en",
        -9.249231320151548
      ],
      [
        "▁face",
        -9.249972539351505
      ],
      [
        "▁joge",
        -9.25102087085185
      ],
      [
        "F",
        -9.251361375431433
      ],
      [
        "▁conten",
        -9.25153139578199
      ],
      [
        "vait",
        -9.25167152898879
      ],
      [
        "▁bir",
        -9.251813245848235
      ],
      [
        "▁affaire",
        -9.252762023695546
      ],
      [
        "▁jàpp",
        -9.256013432460787
      ],
      [
        "▁d'il",
        -9.256468112084923
      ],
      [
        "▁dina",
        -9.258624976100768
      ],
      [
        "▁xew",
        -9.259091029899817
      ],
      [
        "'en",
        -9.259096963783595
      ],
      [
        "spère",
        -9.259321930858569
      ],
      [
        "kóon",
        -9.259507632914772
      ],
      [
        "▁côté",
        -9.261328309161986
      ],
      [
        "▁panier",
        -9.263255311584789
      ],
      [
        "iens",
        -9.26434974259262
      ],
      [
        "▁xo",
        -9.264439646787544
      ],
      [
        "▁Xa",
        -9.269853167934262
      ],
      [
        "▁vertes",
        -9.270117691190329
      ],
      [
        "▁deey",
        -9.27063906891657
      ],
      [
        "▁kee",
        -9.274805952263323
      ],
      [
        "▁Nu",
        -9.275560071960193
      ],
      [
        "▁mes",
        -9.28105790762297
      ],
      [
        "-il",
        -9.281156700159062
      ],
      [
        "wul",
        -9.281240431810401
      ],
      [
        "▁ñibbi",
        -9.28227934375855
      ],
      [
        "▁fam",
        -9.283632038013216
      ],
      [
        "▁ser",
        -9.284142221696328
      ],
      [
        "▁bleus",
        -9.284838274201428
      ],
      [
        "▁kookuu",
        -9.288694870122708
      ],
      [
        "▁yé",
        -9.290034565413153
      ],
      [
        "▁san",
        -9.293814410002124
      ],
      [
        "▁defaree",
        -9.293817495040853
      ],
      [
        "ku",
        -9.294082714977947
      ],
      [
        "▁n'as",
        -9.294105558295504
      ],
      [
        "▁lakk",
        -9.299085482879331
      ],
      [
        "▁jeunes",
        -9.300637256090424
      ],
      [
        "wal",
        -9.301832911189104
      ],
      [
        "▁loo",
        -9.304121594963863
      ],
      [
        "yu",
        -9.304877734933385
      ],
      [
        "▁soi",
        -9.308112037999397
      ],
      [
        "▁cont",
        -9.312082425230212
      ],
      [
        "nd",
        -9.313058122895749
      ],
      [
        "tout",
        -9.320155189009306
      ],
      [
        "aar",
        -9.320312340507975
      ],
      [
        "àkk",
        -9.322167723013413
      ],
      [
        "▁beg",
        -9.322518629085005
      ],
      [
        "▁H",
        -9.32492820318227
      ],
      [
        "▁Bii",
        -9.32589101127121
      ],
      [
        "▁cas",
        -9.327432433754522
      ],
      [
        "▁Cha",
        -9.328860312993946
      ],
      [
        "ka",
        -9.330740180757733
      ],
      [
        "▁lesquel",
        -9.33140514115979
      ],
      [
        "▁duñ",
        -9.331435517632903
      ],
      [
        "ã",
        -9.333511153156163
      ],
      [
        "▁Toute",
        -9.333711215532114
      ],
      [
        "nu",
        -9.337955185274513
      ],
      [
        "appelles",
        -9.338307550067547
      ],
      [
        "ût",
        -9.34253724096296
      ],
      [
        "▁yar",
        -9.344643532233416
      ],
      [
        "taal",
        -9.350083429428064
      ],
      [
        "▁chambres",
        -9.350658375851506
      ],
      [
        "▁fan",
        -9.356988036051924
      ],
      [
        "▁noire",
        -9.361169485643542
      ],
      [
        "aller",
        -9.364894773650516
      ],
      [
        "▁nge",
        -9.36720567112672
      ],
      [
        "▁xa",
        -9.367515624722428
      ],
      [
        "mbaa",
        -9.368627841856156
      ],
      [
        "ti",
        -9.369442741177211
      ],
      [
        "vant",
        -9.375795495316812
      ],
      [
        "▁r",
        -9.37693167991905
      ],
      [
        "us",
        -9.377469742008948
      ],
      [
        "▁plu",
        -9.387242703481295
      ],
      [
        "▁nag.",
        -9.389174749198329
      ],
      [
        "▁étalé",
        -9.389575840150489
      ],
      [
        "▁Au",
        -9.39255351385408
      ],
      [
        "▁Waxa",
        -9.392707973337473
      ],
      [
        "nañu",
        -9.392783543501766
      ],
      [
        "me",
        -9.393608814332117
      ],
      [
        "▁jee",
        -9.39795829350567
      ],
      [
        "mar",
        -9.399410116258
      ],
      [
        "▁Xo",
        -9.401202184884323
      ],
      [
        "▁Waxu",
        -9.408069453114795
      ],
      [
        "té",
        -9.408412855248116
      ],
      [
        "▁bel",
        -9.412870134765196
      ],
      [
        "▁été.",
        -9.416224913822695
      ],
      [
        "▁gendarme",
        -9.416806860751489
      ],
      [
        "ection",
        -9.417345102767325
      ],
      [
        "▁to",
        -9.41741461028033
      ],
      [
        "▁sou",
        -9.421009187851555
      ],
      [
        "▁président",
        -9.42453212597871
      ],
      [
        "A",
        -9.42565187406465
      ],
      [
        "appartien",
        -9.42619746180426
      ],
      [
        "kaay",
        -9.429047917313213
      ],
      [
        "▁conçu",
        -9.431502891005197
      ],
      [
        "▁chocolat",
        -9.435127553663467
      ],
      [
        "ouche",
        -9.435140481515571
      ],
      [
        "▁ndugg",
        -9.437093340663193
      ],
      [
        "▁Bul",
        -9.437154604045961
      ],
      [
        "▁men",
        -9.438164274522789
      ],
      [
        "ement",
        -9.43855674764514
      ],
      [
        "qu'un",
        -9.438829875169958
      ],
      [
        "▁Ŋg",
        -9.440161447968807
      ],
      [
        "▁mort",
        -9.440817470851178
      ],
      [
        "▁partie",
        -9.44200515804532
      ],
      [
        "▁mbe",
        -9.45032732087013
      ],
      [
        "▁bo",
        -9.451054517944733
      ],
      [
        "▁ñaa",
        -9.452348985628017
      ],
      [
        "▁jàmm",
        -9.452470114363312
      ],
      [
        "▁lekk",
        -9.452627172263078
      ],
      [
        "ille",
        -9.455841111074003
      ],
      [
        "waaw",
        -9.456094902366221
      ],
      [
        "▁xool",
        -9.45841674174877
      ],
      [
        "▁Ñaa",
        -9.460028908342489
      ],
      [
        "mis",
        -9.460869985332458
      ],
      [
        "▁jog",
        -9.464839693277346
      ],
      [
        "▁marché",
        -9.46532709470045
      ],
      [
        "▁dóo",
        -9.46619274112571
      ],
      [
        "▁Ch",
        -9.469391987908017
      ],
      [
        "▁neñ",
        -9.472266676131854
      ],
      [
        "autrefois",
        -9.473813302668889
      ],
      [
        "▁Ng",
        -9.474605186672802
      ],
      [
        "▁révolte",
        -9.47606206652787
      ],
      [
        "▁Qu'",
        -9.476746676765169
      ],
      [
        "▁J'es",
        -9.477547218506528
      ],
      [
        "2",
        -9.47784941137144
      ],
      [
        "»",
        -9.477895970094922
      ],
      [
        "«",
        -9.477895970094922
      ],
      [
        "…",
        -9.477895970094922
      ],
      [
        "▁apparaissent",
        -9.47789597844661
      ],
      [
        "▁Au-dessus",
        -9.477895985596396
      ],
      [
        "▁habituellement",
        -9.477896131683435
      ],
      [
        "▁gëléem",
        -9.477896156228754
      ],
      [
        "▁baobab",
        -9.477896194192637
      ],
      [
        "▁gazelle",
        -9.477896240602915
      ],
      [
        "▁chèvres",
        -9.47789645441983
      ],
      [
        "▁Ñëw",
        -9.477896726013325
      ],
      [
        "▁brave",
        -9.477896977190534
      ],
      [
        "▁appelé",
        -9.477897001138968
      ],
      [
        "▁Birayim",
        -9.477897048404234
      ],
      [
        "▁Louga",
        -9.477897055185016
      ],
      [
        "▁prêt",
        -9.477897258821361
      ],
      [
        "▁semaine",
        -9.477898077370453
      ],
      [
        "▁toilettes",
        -9.477899835561136
      ],
      [
        "▁njege",
        -9.477900454011477
      ],
      [
        "▁yànj",
        -9.47790057927571
      ],
      [
        "▁Njiit",
        -9.47790149035284
      ],
      [
        "▁Macron",
        -9.477902530937184
      ],
      [
        "▁zinc",
        -9.47790358208019
      ],
      [
        "▁sàmm",
        -9.47790592192441
      ],
      [
        "▁Alfa",
        -9.477907074595281
      ],
      [
        "▁ayubes",
        -9.477909429071207
      ],
      [
        "▁rideau",
        -9.477913366012517
      ],
      [
        "▁besoin",
        -9.477913378736698
      ],
      [
        "▁sûr",
        -9.477915177507706
      ],
      [
        "▁certainement",
        -9.477915365057282
      ],
      [
        "▁jamono",
        -9.477918823157228
      ],
      [
        "▁ndanka",
        -9.477921078947299
      ],
      [
        "▁chameau",
        -9.477922655502747
      ],
      [
        "▁ëlëk",
        -9.477949397753124
      ],
      [
        "▁Agsil",
        -9.477966615484668
      ],
      [
        "▁waxtaan",
        -9.478002233716875
      ],
      [
        "▁Yaakaar",
        -9.47800854816786
      ],
      [
        "▁xamantane",
        -9.47803805039715
      ],
      [
        "▁d'arbres",
        -9.478039673621467
      ],
      [
        "▁dencukaay",
        -9.478041743181588
      ],
      [
        "▁Qu'est-ce",
        -9.47807833861891
      ],
      [
        "▁trop",
        -9.478113830678629
      ],
      [
        "▁s'i",
        -9.478116379463422
      ],
      [
        "▁rayon",
        -9.478126669919178
      ],
      [
        "▁NGo",
        -9.478164006509717
      ],
      [
        "▁d'entre",
        -9.478218103487679
      ],
      [
        "▁bãŋ",
        -9.478268117530842
      ],
      [
        "▁outil",
        -9.47827096515016
      ],
      [
        "▁làmp",
        -9.4782803927568
      ],
      [
        "▁Luga",
        -9.478294688610275
      ],
      [
        "▁Gaynd",
        -9.478323222981093
      ],
      [
        "▁Demuloo",
        -9.478338973780843
      ],
      [
        "▁soirée",
        -9.47851004875934
      ],
      [
        "▁alors",
        -9.478585881227785
      ],
      [
        "▁bras",
        -9.478701993545247
      ],
      [
        "▁weñ",
        -9.478717377290865
      ],
      [
        "lève",
        -9.478734693028422
      ],
      [
        "▁tête",
        -9.478823177776347
      ],
      [
        "▁fond",
        -9.478931002530684
      ],
      [
        "▁Pour",
        -9.479026258922056
      ],
      [
        "▁ensemble",
        -9.479124222752748
      ],
      [
        "▁matinée",
        -9.479170908183663
      ],
      [
        "C",
        -9.47941931953125
      ],
      [
        "▁Demuma",
        -9.479563759303135
      ],
      [
        "',",
        -9.479577097672763
      ],
      [
        "▁té",
        -9.479586778464986
      ],
      [
        "▁dagg",
        -9.47958786694479
      ],
      [
        "▁douche",
        -9.47964499758606
      ],
      [
        "éy",
        -9.47995911766847
      ],
      [
        "▁long",
        -9.480264331266373
      ],
      [
        "▁bày",
        -9.480393762825786
      ],
      [
        "▁Demkoon",
        -9.480902400419362
      ],
      [
        "▁nuru",
        -9.48093639542914
      ],
      [
        "▁donne",
        -9.481002850404757
      ],
      [
        "▁naqar",
        -9.481137707917602
      ],
      [
        "▁Tann",
        -9.481174522966748
      ],
      [
        "▁Ñooñu",
        -9.481339008381857
      ],
      [
        "▁kookale",
        -9.481353228912688
      ],
      [
        "▁passé",
        -9.481567337404462
      ],
      [
        "▁ñor",
        -9.481660648596842
      ],
      [
        "▁Ver",
        -9.48176927282083
      ],
      [
        "oŋ",
        -9.481813873312626
      ],
      [
        "el",
        -9.481844582765143
      ],
      [
        "▁wert",
        -9.481964923416342
      ],
      [
        "▁mbaxana",
        -9.482113527943778
      ],
      [
        "▁clé",
        -9.482646808350992
      ],
      [
        "mp",
        -9.482653270474684
      ],
      [
        "▁serais",
        -9.482922441217598
      ],
      [
        "▁wone",
        -9.483071415105293
      ],
      [
        "▁baŋ",
        -9.48314416237651
      ],
      [
        "▁d'ici",
        -9.483522357489598
      ],
      [
        "▁sopp",
        -9.483569289366203
      ],
      [
        "ois",
        -9.483893405936161
      ],
      [
        "hacun",
        -9.484193552963294
      ],
      [
        "▁fe",
        -9.484690389239194
      ],
      [
        "▁marchent",
        -9.48470704497799
      ],
      [
        "▁d'habitude",
        -9.485133986586025
      ],
      [
        "▁Cependant",
        -9.485438009811784
      ],
      [
        "▁voulu",
        -9.486099687335942
      ],
      [
        "abond",
        -9.488732373025343
      ],
      [
        "hoisi",
        -9.488745745905483
      ],
      [
        "▁sox",
        -9.488980845419736
      ],
      [
        "▁Ni",
        -9.489099383325929
      ],
      [
        "▁per",
        -9.48918310202063
      ],
      [
        "▁darab",
        -9.489964096979783
      ],
      [
        "▁Aw",
        -9.49012445540464
      ],
      [
        "▁suba",
        -9.490271861135877
      ],
      [
        "▁soldats",
        -9.491340489724312
      ],
      [
        "▁nom",
        -9.491951723046443
      ],
      [
        "▁parents",
        -9.49288588537509
      ],
      [
        "ersonne",
        -9.493007522488684
      ],
      [
        "▁policiers",
        -9.493086506877964
      ],
      [
        "▁Yee",
        -9.49367059944139
      ],
      [
        "▁juste",
        -9.49438109055128
      ],
      [
        "▁indi",
        -9.495437194631208
      ],
      [
        "▁wetam",
        -9.495557247579736
      ],
      [
        "▁mat",
        -9.495609573797797
      ],
      [
        "Après",
        -9.495891079323886
      ],
      [
        "▁doi",
        -9.496949886636191
      ],
      [
        "▁sàndarm",
        -9.497158239481514
      ],
      [
        "ui",
        -9.497719576642082
      ],
      [
        "▁cons",
        -9.498072753157913
      ],
      [
        "qui",
        -9.498660666914667
      ],
      [
        "▁livres",
        -9.49878396457267
      ],
      [
        "▁dois",
        -9.5003995667253
      ],
      [
        "oppal",
        -9.501281309436987
      ],
      [
        "▁d'herbes",
        -9.502703927146973
      ],
      [
        "▁J'e",
        -9.503747652368718
      ],
      [
        "▁kooka",
        -9.503863114202575
      ],
      [
        "ailleurs",
        -9.503966580998457
      ],
      [
        "▁partent",
        -9.507855912353094
      ],
      [
        "▁verra",
        -9.508558721982277
      ],
      [
        "▁demuñu",
        -9.509899838728671
      ],
      [
        "▁confie",
        -9.510274949716553
      ],
      [
        "▁n'ira",
        -9.510447522540549
      ],
      [
        "▁pu",
        -9.510488765880613
      ],
      [
        "▁peinte",
        -9.512345839829734
      ],
      [
        "▁batt",
        -9.513409550280198
      ],
      [
        "tal",
        -9.515299927081873
      ],
      [
        "▁aime",
        -9.515484999459076
      ],
      [
        "▁Ceux-",
        -9.519369935972536
      ],
      [
        "▁bancs",
        -9.520366187205987
      ],
      [
        "▁guy",
        -9.520863402976662
      ],
      [
        "▁Ña",
        -9.521046455007786
      ],
      [
        "cc",
        -9.521082993354248
      ],
      [
        "▁chocolat.",
        -9.522187308855486
      ],
      [
        "▁pr",
        -9.522337141986798
      ],
      [
        "▁gisu",
        -9.522814607873716
      ],
      [
        "faites",
        -9.522837717677984
      ],
      [
        "▁foo",
        -9.523186532904043
      ],
      [
        "▁Jo",
        -9.523475369625437
      ],
      [
        "'y",
        -9.524595415819938
      ],
      [
        "rent",
        -9.524829072246737
      ],
      [
        "▁lim",
        -9.527128421298608
      ],
      [
        "▁demain",
        -9.529805553251208
      ],
      [
        "▁yeux",
        -9.529923505752299
      ],
      [
        "▁Nil",
        -9.530032377994111
      ],
      [
        "▁nd",
        -9.53251214003776
      ],
      [
        "▁daje",
        -9.533054942721868
      ],
      [
        "▁danga",
        -9.53352280194735
      ],
      [
        "▁att",
        -9.533692124752257
      ],
      [
        "▁Combi",
        -9.53759617112456
      ],
      [
        "▁allez",
        -9.538158609614097
      ],
      [
        "'av",
        -9.538186244843875
      ],
      [
        "▁Da",
        -9.538927903557118
      ],
      [
        "▁trait",
        -9.539424196229369
      ],
      [
        "▁jours",
        -9.53961078761485
      ],
      [
        "▁prot",
        -9.541635908680032
      ],
      [
        "▁fer",
        -9.541868406212068
      ],
      [
        "▁Celui",
        -9.544770444185087
      ],
      [
        "▁fo",
        -9.546588262199624
      ],
      [
        "▁yaay",
        -9.55061571198735
      ],
      [
        "é.",
        -9.552154014307806
      ],
      [
        "▁naŋg",
        -9.553653178139667
      ],
      [
        "▁Ai",
        -9.554668860125133
      ],
      [
        "▁US",
        -9.559250058190932
      ],
      [
        "aat",
        -9.559700947597177
      ],
      [
        "des",
        -9.563251795976445
      ],
      [
        "▁faite",
        -9.567711031733154
      ],
      [
        "ga",
        -9.56842388617019
      ],
      [
        "able",
        -9.568731633952375
      ],
      [
        "▁doo",
        -9.56981353068567
      ],
      [
        "▁toogu",
        -9.57178158553106
      ],
      [
        "▁utilise",
        -9.57198192407188
      ],
      [
        "t-il",
        -9.57697655087394
      ],
      [
        "ages",
        -9.577690680180554
      ],
      [
        "ante",
        -9.57984743289063
      ],
      [
        "▁Go",
        -9.58154036666804
      ],
      [
        "part",
        -9.584275765799136
      ],
      [
        "aka",
        -9.586644861945722
      ],
      [
        "▁arrive",
        -9.58669045402542
      ],
      [
        "▁demb",
        -9.587282025726914
      ],
      [
        "▁fro",
        -9.590106488735817
      ],
      [
        "▁ens",
        -9.595126517759653
      ],
      [
        "▁liggéeye",
        -9.597679957887056
      ],
      [
        "▁bleue",
        -9.599915272072014
      ],
      [
        "▁vi",
        -9.604039086863683
      ],
      [
        "at",
        -9.604550547382765
      ],
      [
        "▁fui",
        -9.605251918961912
      ],
      [
        "maa",
        -9.605471967947004
      ],
      [
        "ache",
        -9.606824722386236
      ],
      [
        "▁Liggéey",
        -9.607540376820683
      ],
      [
        "La",
        -9.608179334403795
      ],
      [
        "▁lawoon",
        -9.609433525918567
      ],
      [
        "▁d'a",
        -9.611575927693085
      ],
      [
        "▁choses",
        -9.612254068545301
      ],
      [
        "du",
        -9.612352451187055
      ],
      [
        "onne",
        -9.613146004339718
      ],
      [
        "▁forme",
        -9.613192352743074
      ],
      [
        "ŋgeen",
        -9.62391879216672
      ],
      [
        "kub",
        -9.624553620714682
      ],
      [
        "▁Ngo",
        -9.627151274777624
      ],
      [
        "▁fee",
        -9.627252620795842
      ],
      [
        "▁gà",
        -9.633871834316912
      ],
      [
        "▁pl",
        -9.635715579438257
      ],
      [
        "▁ex",
        -9.636927059199206
      ],
      [
        "▁bee",
        -9.640733054272403
      ],
      [
        "▁taa",
        -9.642384866694586
      ],
      [
        "oto",
        -9.6451694385032
      ],
      [
        "▁maye",
        -9.64786151799186
      ],
      [
        "rëb",
        -9.649352252010463
      ],
      [
        "▁Bë",
        -9.651191541506643
      ],
      [
        "▁mise",
        -9.652036451979125
      ],
      [
        "▁parl",
        -9.65290163318802
      ],
      [
        "ité",
        -9.654128217399126
      ],
      [
        "▁point",
        -9.657695624845358
      ],
      [
        "▁mar",
        -9.660543751436844
      ],
      [
        "yee",
        -9.66178948211009
      ],
      [
        "ssent",
        -9.661821509338992
      ],
      [
        "▁Noo",
        -9.664218202833258
      ],
      [
        "ulëer",
        -9.675339003908702
      ],
      [
        "J",
        -9.676314666551134
      ],
      [
        "daamar",
        -9.677731052087971
      ],
      [
        "▁s'ag",
        -9.680637288604286
      ],
      [
        "uis",
        -9.680688341522899
      ],
      [
        "▁ndo",
        -9.682159735188145
      ],
      [
        "je",
        -9.685159887265165
      ],
      [
        "là",
        -9.691681556133911
      ],
      [
        "jà",
        -9.693132212452785
      ],
      [
        "▁nëw",
        -9.695860893705168
      ],
      [
        "ez-",
        -9.695924264143922
      ],
      [
        "ente",
        -9.699227924311211
      ],
      [
        "▁dis",
        -9.703579660451382
      ],
      [
        "ër",
        -9.705002619259115
      ],
      [
        "ó",
        -9.705102357697358
      ],
      [
        "▁sée",
        -9.707168141621375
      ],
      [
        "ques",
        -9.717368053521131
      ],
      [
        "▁clair",
        -9.721841392803887
      ],
      [
        "▁cha",
        -9.722077502609114
      ],
      [
        "rrière",
        -9.723920639372198
      ],
      [
        "▁Aa",
        -9.724580111795643
      ],
      [
        "▁l'o",
        -9.730994012017113
      ],
      [
        "▁goo",
        -9.734779439513396
      ],
      [
        "iggéeykat",
        -9.735477851510318
      ],
      [
        "▁vou",
        -9.736748909240575
      ],
      [
        "nement",
        -9.738665204423778
      ],
      [
        "▁taxu",
        -9.741441104375891
      ],
      [
        "▁wo",
        -9.743620806338884
      ],
      [
        "ñoo",
        -9.743962210184074
      ],
      [
        "mes",
        -9.745737579179323
      ],
      [
        "ii",
        -9.745999384169203
      ],
      [
        "dd",
        -9.747358703485421
      ],
      [
        "▁puis",
        -9.758830614899818
      ],
      [
        "▁connaiss",
        -9.759413390161747
      ],
      [
        "▁exc",
        -9.761107136408206
      ],
      [
        "▁banc",
        -9.765760431468497
      ],
      [
        "kki",
        -9.766253766542043
      ],
      [
        "age",
        -9.766951637581169
      ],
      [
        "tion",
        -9.767080147051244
      ],
      [
        "▁voici",
        -9.767258913700777
      ],
      [
        "ar.",
        -9.769480696744605
      ],
      [
        "q",
        -9.76951284804688
      ],
      [
        "tant",
        -9.772333944862856
      ],
      [
        "▁Die",
        -9.773515117284777
      ],
      [
        "fi",
        -9.773823894530233
      ],
      [
        "▁fleur",
        -9.777252348339815
      ],
      [
        "▁d'herbe",
        -9.777765114429393
      ],
      [
        "ici.",
        -9.779046185242112
      ],
      [
        "▁sii",
        -9.779625393387683
      ],
      [
        "nit",
        -9.780203781120985
      ],
      [
        "ange",
        -9.782031105020668
      ],
      [
        "▁n'e",
        -9.782426811345887
      ],
      [
        "ile",
        -9.785284924102198
      ],
      [
        "▁tegal",
        -9.78635015454655
      ],
      [
        "roo",
        -9.787098553158081
      ],
      [
        "▁bay",
        -9.787823818208249
      ],
      [
        "nte",
        -9.789414882303877
      ],
      [
        "▁ë",
        -9.791176176968433
      ],
      [
        "▁nopp",
        -9.791447794019835
      ],
      [
        "arab",
        -9.792358303750374
      ],
      [
        "▁Yooy",
        -9.796421425580276
      ],
      [
        "▁somme",
        -9.800495934535542
      ],
      [
        "▁kë",
        -9.801882549236456
      ],
      [
        "▁mbu",
        -9.803489201016786
      ],
      [
        "▁Gisu",
        -9.804831695513741
      ],
      [
        "'est-à-dire",
        -9.80692730858936
      ],
      [
        "euse",
        -9.806943173214183
      ],
      [
        "llez",
        -9.807833784343929
      ],
      [
        "onfie",
        -9.808518009053127
      ],
      [
        "ëkku",
        -9.810145069797398
      ],
      [
        "▁ŋgoogu",
        -9.810697043195258
      ],
      [
        "▁climatiseurs",
        -9.811229303388675
      ],
      [
        "▁véhicule",
        -9.811229303398052
      ],
      [
        "▁l'extérieur",
        -9.811229303403193
      ],
      [
        "▁superposé",
        -9.811229305631953
      ],
      [
        "▁couvercle",
        -9.811229310309649
      ],
      [
        "▁écrivent",
        -9.811229314237112
      ],
      [
        "histoire",
        -9.81122932870881
      ],
      [
        "▁Radiyasi",
        -9.811229330197461
      ],
      [
        "▁couscous",
        -9.811229384522768
      ],
      [
        "▁alkaati",
        -9.811229386328286
      ],
      [
        "▁messager",
        -9.81122946876349
      ],
      [
        "féexal",
        -9.811229470315633
      ],
      [
        "▁rëdd",
        -9.811229471559347
      ],
      [
        "▁attaché",
        -9.81122952355696
      ],
      [
        "▁Faranse",
        -9.811229650117886
      ],
      [
        "▁jawwu",
        -9.81122985302757
      ],
      [
        "▁cultive",
        -9.81122991409298
      ],
      [
        "▁karaaf",
        -9.811229927127195
      ],
      [
        "▁mboq",
        -9.81122994623047
      ],
      [
        "▁feuilles",
        -9.811231412078657
      ],
      [
        "▁totaux",
        -9.81123171659512
      ],
      [
        "▁meilleur",
        -9.811232328644913
      ],
      [
        "▁nombre",
        -9.811232349315002
      ],
      [
        "▁beurre",
        -9.81123538736152
      ],
      [
        "▁taariix",
        -9.811236688959012
      ],
      [
        "▁Certaine",
        -9.811237480708982
      ],
      [
        "▁mûr",
        -9.81123827141014
      ],
      [
        "▁instant",
        -9.811240660567275
      ],
      [
        "▁xadde",
        -9.811241191868183
      ],
      [
        "▁carafe",
        -9.811244649596672
      ],
      [
        "▁lutteur",
        -9.811247585845841
      ],
      [
        "▁colère",
        -9.811255400754074
      ],
      [
        "▁Kaasamaas",
        -9.811256537491015
      ],
      [
        "▁couvr",
        -9.811256580143905
      ],
      [
        "▁sotti",
        -9.811264555836702
      ],
      [
        "▁adulte",
        -9.811270857852003
      ],
      [
        "▁couvert",
        -9.81127355381667
      ],
      [
        "▁termin",
        -9.811274813873188
      ],
      [
        "▁plaît",
        -9.811280123737491
      ],
      [
        "▁Solda",
        -9.811281258497766
      ],
      [
        "▁bahut",
        -9.811285254075404
      ],
      [
        "▁kéwël",
        -9.811299995577919
      ],
      [
        "▁saŋx",
        -9.811304723565554
      ],
      [
        "▁gros",
        -9.811341526298719
      ],
      [
        "▁batã",
        -9.811353963056067
      ],
      [
        "▁siège",
        -9.81136686509662
      ],
      [
        "▁cinq",
        -9.81138398838956
      ],
      [
        "▁Sëri",
        -9.811396605401796
      ],
      [
        "ëcc",
        -9.811448601588769
      ],
      [
        "▁taabal",
        -9.811465863891017
      ],
      [
        "▁Peul",
        -9.811486399438433
      ],
      [
        "▁l'imp",
        -9.811505333497198
      ],
      [
        "▁paresseu",
        -9.811512834353413
      ],
      [
        "▁jabar",
        -9.811524026620754
      ],
      [
        "▁caisse",
        -9.811542922573942
      ],
      [
        "▁fâch",
        -9.811549428798175
      ],
      [
        "▁dikkul",
        -9.811603110651966
      ],
      [
        "▁l'argent",
        -9.811619589704195
      ],
      [
        "▁Laisse",
        -9.811624813711052
      ],
      [
        "▁sauce",
        -9.811644765763235
      ],
      [
        "▁l'herbe",
        -9.811666007354006
      ],
      [
        "▁riz",
        -9.811695358377452
      ],
      [
        "▁Autre",
        -9.811719739709051
      ],
      [
        "▁bouge",
        -9.811777278279923
      ],
      [
        "▁L'autre",
        -9.81178685190621
      ],
      [
        "▁tàngal",
        -9.811806157762797
      ],
      [
        "▁l'argile",
        -9.811863584732556
      ],
      [
        "▁vérité",
        -9.811942310521799
      ],
      [
        "▁gauche",
        -9.81194654688143
      ],
      [
        "ñëw",
        -9.811961028689737
      ],
      [
        "▁tëj",
        -9.812113517827445
      ],
      [
        "▁dimbali",
        -9.812151400468554
      ],
      [
        "heureuse",
        -9.812217637965885
      ],
      [
        "▁anglais",
        -9.812281693769844
      ],
      [
        "▁Dugg",
        -9.812379455675282
      ],
      [
        "▁rose",
        -9.81239770951937
      ],
      [
        "arloo",
        -9.812570633398847
      ],
      [
        "▁ñeex",
        -9.812768570091887
      ],
      [
        "▁masque",
        -9.812973532599493
      ],
      [
        "▁coup",
        -9.812982065388596
      ],
      [
        "▁Jën",
        -9.81310736038858
      ],
      [
        "▁raison",
        -9.813180775209617
      ],
      [
        "▁manger",
        -9.813202901093652
      ],
      [
        "▁wàll",
        -9.813230544497092
      ],
      [
        "▁veuille",
        -9.813238355843321
      ],
      [
        "-je",
        -9.813296064578743
      ],
      [
        "▁enfant-là",
        -9.813569412650203
      ],
      [
        "▁reç",
        -9.813587262026914
      ],
      [
        "▁Sàll",
        -9.813769546792422
      ],
      [
        "▁yaram",
        -9.813884711069745
      ],
      [
        "ommé",
        -9.813898612251613
      ],
      [
        "▁n'import",
        -9.814339433455533
      ],
      [
        "▁taille",
        -9.814475042584876
      ],
      [
        "▁monté",
        -9.814956417145623
      ],
      [
        "▁Sall",
        -9.815365098338694
      ],
      [
        "▁jouent",
        -9.815536933998503
      ],
      [
        "▁c'est-à-dire",
        -9.815549662922916
      ],
      [
        "▁général",
        -9.81591092518003
      ],
      [
        "▁melo",
        -9.815987574201504
      ],
      [
        "▁l'appelle",
        -9.81609444680899
      ],
      [
        "▁ceux-ci",
        -9.816286476681897
      ],
      [
        "▁jàll",
        -9.816299054211422
      ],
      [
        "ifique",
        -9.816717080272703
      ],
      [
        "▁wóo",
        -9.816780335442754
      ],
      [
        "jet",
        -9.816946041732596
      ],
      [
        "▁dents",
        -9.81704536028656
      ],
      [
        "foncé",
        -9.817291739531468
      ],
      [
        "awbe",
        -9.817571822244767
      ],
      [
        "▁crain",
        -9.81759477023145
      ],
      [
        "▁concert",
        -9.817595152736939
      ],
      [
        "▁d'eux",
        -9.817998973725095
      ],
      [
        "▁ra",
        -9.818039641985662
      ],
      [
        "▁genre",
        -9.818190140977999
      ],
      [
        "▁gardé",
        -9.819679137536557
      ],
      [
        "▁woowe",
        -9.819715792241901
      ],
      [
        "▁jooy",
        -9.820091936600607
      ],
      [
        "▁cuit",
        -9.820508396418616
      ],
      [
        "▁soow",
        -9.820696197723894
      ],
      [
        "rage",
        -9.821707218522391
      ],
      [
        "▁plats",
        -9.821909571716073
      ],
      [
        "▁bonul",
        -9.822029717708174
      ],
      [
        "▁Abal",
        -9.822035850657443
      ],
      [
        "▁Ah",
        -9.822387007515522
      ],
      [
        "▁tentes",
        -9.82242635393711
      ],
      [
        "▁homme-ci",
        -9.823341011019208
      ],
      [
        "▁d'ar",
        -9.823991395454211
      ],
      [
        "▁ñooñ",
        -9.824762214349578
      ],
      [
        "▁Deg",
        -9.82479479613953
      ],
      [
        "ôt",
        -9.825040310696844
      ],
      [
        "▁ñeent",
        -9.825390985769456
      ],
      [
        "yi",
        -9.825558169345712
      ],
      [
        "aison",
        -9.826052132335857
      ],
      [
        "▁Wall",
        -9.826065226594304
      ],
      [
        "▁Celle",
        -9.826948294618418
      ],
      [
        "▁travailler",
        -9.827195404875422
      ],
      [
        "▁Yooyu",
        -9.827278854530093
      ],
      [
        "▁s'échappe",
        -9.827308605520479
      ],
      [
        "▁Jël",
        -9.827732367560964
      ],
      [
        "▁mêmes",
        -9.828320739952009
      ],
      [
        "kke",
        -9.828639748870707
      ],
      [
        "▁suuk",
        -9.828687641397554
      ],
      [
        "▁drapeau",
        -9.829458674738802
      ],
      [
        "▁naat",
        -9.829560596136927
      ],
      [
        "▁voya",
        -9.829714363213334
      ],
      [
        "ts.",
        -9.830813195901014
      ],
      [
        "▁xeet",
        -9.831634955146246
      ],
      [
        "▁Mac",
        -9.831726074054517
      ],
      [
        "veille",
        -9.83228031535086
      ],
      [
        "▁courses",
        -9.833032692437069
      ],
      [
        "moon",
        -9.833154735613977
      ],
      [
        "▁sànn",
        -9.833159642783867
      ],
      [
        "▁pré",
        -9.833331675920455
      ],
      [
        "▁Salaa",
        -9.833344271600273
      ],
      [
        "laire",
        -9.834341285660829
      ],
      [
        "▁mét",
        -9.834598235547622
      ],
      [
        "è",
        -9.83511350762792
      ],
      [
        "▁cuisiner",
        -9.835624894988447
      ],
      [
        "▁fenêtres",
        -9.83638492346713
      ],
      [
        "pace",
        -9.836476646933743
      ],
      [
        "▁objets",
        -9.836756733372697
      ],
      [
        "▁jour.",
        -9.837429391641212
      ],
      [
        "▁yaru",
        -9.83823875799546
      ],
      [
        "▁tiroirs",
        -9.838349932576724
      ],
      [
        "▁sukk",
        -9.838383994905298
      ],
      [
        "▁aucun",
        -9.83922020723368
      ],
      [
        "▁ceeb",
        -9.839737789481358
      ],
      [
        "▁après",
        -9.840010179655035
      ],
      [
        "iff",
        -9.840773152441512
      ],
      [
        "▁trou",
        -9.841135610682773
      ],
      [
        "ches",
        -9.843313109012195
      ],
      [
        "▁daawul",
        -9.84360979973433
      ],
      [
        "▁woowu",
        -9.84546255094873
      ],
      [
        "▁ñj",
        -9.845913279280788
      ],
      [
        "▁assiette",
        -9.846026907635174
      ],
      [
        "▁terre",
        -9.846592275345474
      ],
      [
        "uru",
        -9.846693715755357
      ],
      [
        "▁ño",
        -9.848665412479363
      ],
      [
        "▁Kook",
        -9.84896497957915
      ],
      [
        "▁Dé",
        -9.849455727634199
      ],
      [
        "▁gé",
        -9.850929821545227
      ],
      [
        "▁pren",
        -9.851139985400534
      ],
      [
        "▁woowa",
        -9.851742304864587
      ],
      [
        "▁prop",
        -9.852051729900355
      ],
      [
        "ntière",
        -9.852196249506914
      ],
      [
        "▁bët",
        -9.852885743460487
      ],
      [
        "▁Waxat",
        -9.855684360204863
      ],
      [
        "▁wala",
        -9.855827225139155
      ],
      [
        "▁gone",
        -9.856067153643629
      ],
      [
        "▁marcher",
        -9.856150543060648
      ],
      [
        "hez",
        -9.856245739325093
      ],
      [
        "▁vert",
        -9.857895183679226
      ],
      [
        "O",
        -9.858893705198224
      ],
      [
        "▁donner",
        -9.859182564203998
      ],
      [
        "▁travaill",
        -9.85923876943362
      ],
      [
        "ombin",
        -9.860384815467404
      ],
      [
        "obul",
        -9.860744944228998
      ],
      [
        "ré",
        -9.863365852582204
      ],
      [
        "▁num",
        -9.863806898488384
      ],
      [
        "modes",
        -9.864683969118413
      ],
      [
        "▁terr",
        -9.86519959046555
      ],
      [
        "▁fukk",
        -9.866188476832006
      ],
      [
        "▁Ŋgo",
        -9.866198590412852
      ],
      [
        "▁Lui",
        -9.868244299584587
      ],
      [
        "uver",
        -9.869399250819757
      ],
      [
        "▁présent",
        -9.869945579571588
      ],
      [
        "▁Dégg",
        -9.871296352295355
      ],
      [
        "▁mont",
        -9.872873226677793
      ],
      [
        "▁oreiller",
        -9.873136035905917
      ],
      [
        "▁buur",
        -9.874274803212282
      ],
      [
        "▁Leur",
        -9.874557497591145
      ],
      [
        "neen",
        -9.876199335728272
      ],
      [
        "▁Seeti",
        -9.877247331184968
      ],
      [
        "▁seule",
        -9.87743591449026
      ],
      [
        "▁mé",
        -9.881370932456155
      ],
      [
        "▁marché.",
        -9.88585317741793
      ],
      [
        "▁n'aur",
        -9.886685231619525
      ],
      [
        "oow",
        -9.887217808450007
      ],
      [
        "▁wuu",
        -9.887630323765478
      ],
      [
        "lé",
        -9.890953486068367
      ],
      [
        "▁cuisines",
        -9.891873429871922
      ],
      [
        "▁Kan",
        -9.8935462028501
      ],
      [
        "nnie",
        -9.895270754888914
      ],
      [
        "añse",
        -9.895590192612573
      ],
      [
        "▁fermée",
        -9.895887771511056
      ],
      [
        "▁avion",
        -9.89667835510369
      ],
      [
        "▁Waxul",
        -9.897540445228529
      ],
      [
        "▁press",
        -9.900830947282632
      ],
      [
        "errière",
        -9.90104878686229
      ],
      [
        "▁yooya",
        -9.901968351441827
      ],
      [
        "énorme",
        -9.902366584036724
      ],
      [
        "▁wàn",
        -9.906619864156982
      ],
      [
        "pis",
        -9.906633709664169
      ],
      [
        "oit",
        -9.906824664023391
      ],
      [
        "commenc",
        -9.90777578686285
      ],
      [
        "▁aille",
        -9.908413269220233
      ],
      [
        "gale",
        -9.908814857971572
      ],
      [
        "ru",
        -9.911745858389072
      ],
      [
        "▁tra",
        -9.912995863737658
      ],
      [
        "mour",
        -9.913196972836738
      ],
      [
        "avait",
        -9.914573720866466
      ],
      [
        "▁claire",
        -9.914713316431813
      ],
      [
        "oivent",
        -9.9149013326765
      ],
      [
        "'appelle",
        -9.916527635587368
      ],
      [
        "eurs",
        -9.916596602146647
      ],
      [
        "▁désire",
        -9.916699871631097
      ],
      [
        "▁choses.",
        -9.91867214451189
      ],
      [
        "ouille",
        -9.919609453239945
      ],
      [
        "▁sim",
        -9.919636493182859
      ],
      [
        "▁Yen",
        -9.919798806571833
      ],
      [
        "mon",
        -9.921695202816187
      ],
      [
        "um",
        -9.922032586065619
      ],
      [
        "▁bout",
        -9.922257883519794
      ],
      [
        "▁Nee",
        -9.925880812043957
      ],
      [
        "▁h",
        -9.928901159513263
      ],
      [
        "ejje",
        -9.929960273548955
      ],
      [
        "act",
        -9.932910186714604
      ],
      [
        "che",
        -9.933751087699306
      ],
      [
        "egg",
        -9.933830288733372
      ],
      [
        "▁bou",
        -9.934344626693967
      ],
      [
        "▁Jée",
        -9.936247207825888
      ],
      [
        "▁ñee",
        -9.937543744569679
      ],
      [
        "▁paye",
        -9.938513436705955
      ],
      [
        "▁cor",
        -9.940702894784259
      ],
      [
        "▁ñun",
        -9.942012111616368
      ],
      [
        "'aumône",
        -9.942327865626446
      ],
      [
        "▁mett",
        -9.942757345145896
      ],
      [
        "▁tii",
        -9.942907324250697
      ],
      [
        "góor",
        -9.94628890399302
      ],
      [
        "use",
        -9.948683896895979
      ],
      [
        "fu",
        -9.94922078312414
      ],
      [
        "yé",
        -9.951114369565788
      ],
      [
        "èt",
        -9.953072651421888
      ],
      [
        "ji",
        -9.954719041075862
      ],
      [
        "▁Aie",
        -9.954854794587654
      ],
      [
        "▁inc",
        -9.955330194312882
      ],
      [
        "▁booba",
        -9.95762416565332
      ],
      [
        "▁lions",
        -9.958094075632168
      ],
      [
        "▁jus",
        -9.958146792084396
      ],
      [
        "lon",
        -9.961980996595708
      ],
      [
        "waal",
        -9.962112476990713
      ],
      [
        "▁Dina",
        -9.96372157565865
      ],
      [
        "▁sor",
        -9.965097354504943
      ],
      [
        "û",
        -9.966009161765847
      ],
      [
        "▁waxe",
        -9.966787896954914
      ],
      [
        "▁partai",
        -9.968942709371959
      ],
      [
        "▁Daa",
        -9.969302597654586
      ],
      [
        "▁daamar",
        -9.969711129171497
      ],
      [
        "▁buu",
        -9.973993196149031
      ],
      [
        "cher",
        -9.974055664887498
      ],
      [
        "ng",
        -9.974397748504046
      ],
      [
        "ah",
        -9.974952095191203
      ],
      [
        "père",
        -9.977416394517896
      ],
      [
        "▁Ñen",
        -9.979779211849566
      ],
      [
        "eur",
        -9.98419809614201
      ],
      [
        "▁Defa",
        -9.988658696745738
      ],
      [
        "aa",
        -9.9887471036814
      ],
      [
        "lui",
        -9.989746001265342
      ],
      [
        "uff",
        -9.991095506771675
      ],
      [
        "â",
        -9.998162815624742
      ],
      [
        "▁rentre",
        -10.005874730581924
      ],
      [
        "▁jolies",
        -10.005875000612308
      ],
      [
        "eut",
        -10.006507841040895
      ],
      [
        "▁pos",
        -10.008123263007716
      ],
      [
        "law",
        -10.010015644566073
      ],
      [
        "ff",
        -10.010333316006948
      ],
      [
        "amul",
        -10.010853187627562
      ],
      [
        "▁roi",
        -10.011135418605049
      ],
      [
        "ba",
        -10.011295495177176
      ],
      [
        "âl",
        -10.011699069714826
      ],
      [
        "oir",
        -10.014789203722703
      ],
      [
        "anaa",
        -10.016796653003663
      ],
      [
        "▁cee",
        -10.017363142362619
      ],
      [
        "▁gar",
        -10.017650676601221
      ],
      [
        "gul",
        -10.020511602234405
      ],
      [
        "▁No",
        -10.020987460826547
      ],
      [
        "▁tel",
        -10.021667644125984
      ],
      [
        "▁bat",
        -10.030026017537702
      ],
      [
        "▁rouges",
        -10.035824156214307
      ],
      [
        "▁heure",
        -10.037056921242637
      ],
      [
        "am.",
        -10.039069107144089
      ],
      [
        "wuñu",
        -10.03976085169782
      ],
      [
        "éew",
        -10.041222519839666
      ],
      [
        "▁yooyu.",
        -10.043146906244038
      ],
      [
        "war",
        -10.043615523621531
      ],
      [
        "▁far",
        -10.04697985250094
      ],
      [
        "▁joue",
        -10.048579380480401
      ],
      [
        "▁connaisse",
        -10.052141543770647
      ],
      [
        "▁mba",
        -10.052712204272575
      ],
      [
        "aaw",
        -10.0544577760283
      ],
      [
        "naay",
        -10.05658232880432
      ],
      [
        "▁Sé",
        -10.056653798983556
      ],
      [
        "▁Se",
        -10.056972126158339
      ],
      [
        "▁Def",
        -10.057519966448204
      ],
      [
        "ta",
        -10.057988709298431
      ],
      [
        "argile",
        -10.058861288597727
      ],
      [
        "dem",
        -10.060278714189318
      ],
      [
        "▁nan",
        -10.06087773406763
      ],
      [
        "▁Mo",
        -10.061252450316031
      ],
      [
        "ign",
        -10.063042395915407
      ],
      [
        "▁form",
        -10.064105615851537
      ],
      [
        "▁montr",
        -10.064839932310255
      ],
      [
        "▁gui",
        -10.066060099707473
      ],
      [
        "ver",
        -10.068000038438619
      ],
      [
        "▁xamul",
        -10.06847779169405
      ],
      [
        "pas",
        -10.07011049138637
      ],
      [
        "▁Ho",
        -10.071923139482982
      ],
      [
        "irai",
        -10.073786564394045
      ],
      [
        "▁Bay",
        -10.0793150469272
      ],
      [
        "▁Celui-",
        -10.080829808860566
      ],
      [
        "igne",
        -10.084442575176796
      ],
      [
        "▁parla",
        -10.08676155602586
      ],
      [
        "kh",
        -10.088808560474797
      ],
      [
        "▁m'as",
        -10.091414118781843
      ],
      [
        "▁Nag",
        -10.091681704017194
      ],
      [
        "weer",
        -10.096218240459939
      ],
      [
        "laa",
        -10.097720315520641
      ],
      [
        "café",
        -10.10315441418202
      ],
      [
        "ffi",
        -10.103417606658645
      ],
      [
        "▁be",
        -10.103552959204526
      ],
      [
        "▁bas",
        -10.108516121935756
      ],
      [
        "ule",
        -10.108710109812158
      ],
      [
        "vient",
        -10.110310551245206
      ],
      [
        "▁bul",
        -10.113768410487554
      ],
      [
        "l.",
        -10.115654100353241
      ],
      [
        "agg",
        -10.115809634117158
      ],
      [
        "▁ch",
        -10.117078189477574
      ],
      [
        "▁yaat",
        -10.121540242778046
      ],
      [
        "eguñu",
        -10.124130311139984
      ],
      [
        "▁mb",
        -10.124882465952485
      ],
      [
        "bul",
        -10.125910009202283
      ],
      [
        "▁Be",
        -10.126565000370068
      ],
      [
        "omb",
        -10.127949796326064
      ],
      [
        "▁sant",
        -10.130585045492763
      ],
      [
        "entre",
        -10.135319533375819
      ],
      [
        "oom",
        -10.135347609950507
      ],
      [
        "leur",
        -10.135819504638086
      ],
      [
        "cherche",
        -10.13638675492869
      ],
      [
        "▁tege",
        -10.137822072652465
      ],
      [
        "uy",
        -10.13789518777868
      ],
      [
        "rais",
        -10.140612609598755
      ],
      [
        "▁seenu",
        -10.144658782487687
      ],
      [
        "apprécie",
        -10.146738344570146
      ],
      [
        "US",
        -10.147558882351596
      ],
      [
        "mid",
        -10.162733557858154
      ],
      [
        "▁Xamu",
        -10.164089317223747
      ],
      [
        "▁ŋgoo",
        -10.167193340401914
      ],
      [
        "our",
        -10.172197097745137
      ],
      [
        "met",
        -10.173572695600885
      ],
      [
        "re.",
        -10.173613426245545
      ],
      [
        "▁jur",
        -10.173905664072635
      ],
      [
        "ère.",
        -10.174133819003568
      ],
      [
        "▁ro",
        -10.175120282576788
      ],
      [
        "▁nà",
        -10.179277475409558
      ],
      [
        "▁sera",
        -10.179505317165626
      ],
      [
        "▁prie",
        -10.17971803251945
      ],
      [
        "alal",
        -10.181540809062454
      ],
      [
        "▁Wóo",
        -10.186266216986507
      ],
      [
        "ière.",
        -10.186987133042003
      ],
      [
        "▁fr",
        -10.18803418190553
      ],
      [
        "▁Qua",
        -10.188870291936952
      ],
      [
        "utilis",
        -10.189633451049138
      ],
      [
        "avais",
        -10.193683178518254
      ],
      [
        "▁ha",
        -10.19535983737303
      ],
      [
        "▁too",
        -10.1990925787991
      ],
      [
        "aleekum",
        -10.199250951681462
      ],
      [
        "armes",
        -10.20168891218293
      ],
      [
        "▁deme",
        -10.205381910235989
      ],
      [
        "▁kook",
        -10.20649764170751
      ],
      [
        "kar",
        -10.211015099492517
      ],
      [
        "abal",
        -10.21224507092908
      ],
      [
        "▁bavarda",
        -10.214987886501715
      ],
      [
        "gis",
        -10.215102013825089
      ],
      [
        "▁yab",
        -10.21793220573847
      ],
      [
        "▁commen",
        -10.21967706388671
      ],
      [
        "ho",
        -10.223741977848439
      ],
      [
        "andi",
        -10.223929454184345
      ],
      [
        "▁cherch",
        -10.224908632264196
      ],
      [
        "ssion",
        -10.226463723152936
      ],
      [
        "n.",
        -10.227041129598014
      ],
      [
        "▁ŋg",
        -10.227597959859251
      ],
      [
        "oog",
        -10.22936034318856
      ],
      [
        "▁lait",
        -10.233679312898493
      ],
      [
        "urs",
        -10.234395682233162
      ],
      [
        "▁To",
        -10.235030405377245
      ],
      [
        "▁Degg",
        -10.236819611772196
      ],
      [
        "▁peint",
        -10.237024442993679
      ],
      [
        "▁gra",
        -10.239523435819807
      ],
      [
        "gguma",
        -10.240254372609478
      ],
      [
        "ttends",
        -10.241019402058399
      ],
      [
        "evant",
        -10.243530534165108
      ],
      [
        "ple",
        -10.24455033547827
      ],
      [
        "xam",
        -10.244960144258693
      ],
      [
        "▁dam",
        -10.245902349870324
      ],
      [
        "▁tient",
        -10.246328283495366
      ],
      [
        "▁confi",
        -10.247778331167801
      ],
      [
        "aaka",
        -10.251439374392229
      ],
      [
        "▁taal",
        -10.255843257499404
      ],
      [
        "▁lev",
        -10.258354533366298
      ],
      [
        "▁attrap",
        -10.258972295534788
      ],
      [
        "▁retrait",
        -10.259757111594752
      ],
      [
        "oser",
        -10.260693241241787
      ],
      [
        "ard",
        -10.261952511318706
      ],
      [
        "▁gejj",
        -10.26313281350287
      ],
      [
        "jje",
        -10.263184661979121
      ],
      [
        "at.",
        -10.265545450130709
      ],
      [
        "eil",
        -10.26677197330407
      ],
      [
        "▁tiroir",
        -10.270832538103857
      ],
      [
        "▁objet",
        -10.270878226508062
      ],
      [
        "▁Att",
        -10.27101312533732
      ],
      [
        "▁fenêtre",
        -10.271837049023159
      ],
      [
        "▁cuisin",
        -10.272200221882173
      ],
      [
        "cu",
        -10.273476007123833
      ],
      [
        "▁teint",
        -10.273817309349862
      ],
      [
        "fois",
        -10.274190791681871
      ],
      [
        "ddi",
        -10.274498580111988
      ],
      [
        "▁policier",
        -10.277677152804332
      ],
      [
        "▁gaynd",
        -10.277790837237106
      ],
      [
        "▁foof",
        -10.278529807275945
      ],
      [
        "▁xë",
        -10.278887479003082
      ],
      [
        "▁viendr",
        -10.281413056202533
      ],
      [
        "▁bokku",
        -10.285364780009477
      ],
      [
        "▁s'échapp",
        -10.286136073278188
      ],
      [
        "▁pierre",
        -10.286291634193729
      ],
      [
        "opp",
        -10.286421343236475
      ],
      [
        "▁Foof",
        -10.287612059203008
      ],
      [
        "▁n'ir",
        -10.288287696180905
      ],
      [
        "▁fais",
        -10.291662223985083
      ],
      [
        "gu",
        -10.292947558109875
      ],
      [
        "▁t'e",
        -10.29302110192141
      ],
      [
        "▁ubb",
        -10.29338891863436
      ],
      [
        "exi",
        -10.293527784413719
      ],
      [
        "▁soldat",
        -10.29377061427626
      ],
      [
        "▁gë",
        -10.294044010069738
      ],
      [
        "dée",
        -10.294405518934438
      ],
      [
        "▁po",
        -10.29493100410146
      ],
      [
        "▁parent",
        -10.295195395412707
      ],
      [
        "▁denc",
        -10.295243528924917
      ],
      [
        "▁recon",
        -10.296502193039107
      ],
      [
        "toi",
        -10.297242090808387
      ],
      [
        "▁oreille",
        -10.298383914759523
      ],
      [
        "nn",
        -10.300698216651977
      ],
      [
        "ure",
        -10.300909607776378
      ],
      [
        "▁différent",
        -10.301330019020622
      ],
      [
        "idé",
        -10.301523397748458
      ],
      [
        "iy",
        -10.301744867523107
      ],
      [
        "pe",
        -10.301785058024818
      ],
      [
        "▁Ño",
        -10.302528717593477
      ],
      [
        "▁mang",
        -10.302665557820259
      ],
      [
        "▁génér",
        -10.30387956113987
      ],
      [
        "ngoo",
        -10.304063183870726
      ],
      [
        "ccepte",
        -10.305070293261688
      ],
      [
        "▁Peut-",
        -10.305779952088601
      ],
      [
        "▁jó",
        -10.306470559941939
      ],
      [
        "'import",
        -10.30737633093242
      ],
      [
        "ête",
        -10.307675101330029
      ],
      [
        "àcc",
        -10.307689298823954
      ],
      [
        "oxoom",
        -10.30819254491052
      ],
      [
        "▁jaŋ",
        -10.308676899052264
      ],
      [
        "axkoon",
        -10.30867854131117
      ],
      [
        "▁ti",
        -10.309221710850773
      ],
      [
        "cheur",
        -10.309258003267242
      ],
      [
        "▁tissé",
        -10.310390454158757
      ],
      [
        "ënfandikoo",
        -10.310441077805446
      ],
      [
        "▁jëfandik",
        -10.310486275695146
      ],
      [
        "▁ñép",
        -10.310738554465644
      ],
      [
        "échapp",
        -10.310836104402183
      ],
      [
        "à-bas",
        -10.311178145416577
      ],
      [
        "00",
        -10.311215054128041
      ],
      [
        "▁d'habit",
        -10.311216145286048
      ],
      [
        "▁Français",
        -10.311229303397402
      ],
      [
        "▁Niominka.",
        -10.311229303397488
      ],
      [
        "▁Africaine",
        -10.311229303399497
      ],
      [
        "Ë",
        -10.311229303428256
      ],
      [
        " ",
        -10.311229303428256
      ],
      [
        "É",
        -10.311229303428256
      ],
      [
        "(",
        -10.311229303428256
      ],
      [
        ")",
        -10.311229303428256
      ],
      [
        "▁confortable",
        -10.311229303443184
      ],
      [
        "▁migrateurs",
        -10.311229303851682
      ],
      [
        "'orange'",
        -10.311229304412896
      ],
      [
        "▁impoli",
        -10.311229306337996
      ],
      [
        "▁récipient",
        -10.311229310086281
      ],
      [
        "explose",
        -10.311229312244345
      ],
      [
        "▁accroch",
        -10.311229323688377
      ],
      [
        "▁ngànnaay",
        -10.311229332927274
      ],
      [
        "▁boucliers",
        -10.311229341252263
      ],
      [
        "▁canapé",
        -10.31122936328096
      ],
      [
        "▁tambour",
        -10.31122937140874
      ],
      [
        "▁maasàllaa",
        -10.311229373609192
      ],
      [
        "'accorde",
        -10.311229378155906
      ],
      [
        "▁berceau",
        -10.311229386746323
      ],
      [
        "▁automobile",
        -10.31122938825569
      ],
      [
        "▁rapprochée",
        -10.311229393353148
      ],
      [
        "▁archite",
        -10.311229442954517
      ],
      [
        "▁frigo",
        -10.311229477484536
      ],
      [
        "▁achète",
        -10.311229686127959
      ],
      [
        "'jaune'",
        -10.31123009660338
      ],
      [
        "▁lumineuse",
        -10.311230295783748
      ],
      [
        "▁totalité",
        -10.311230467110056
      ],
      [
        "▁beerso",
        -10.311230810408961
      ],
      [
        "áa",
        -10.311231024728869
      ],
      [
        "▁ñambaan",
        -10.311231218483133
      ],
      [
        "congelé",
        -10.311231324210121
      ],
      [
        "▁Dites-l",
        -10.311231426342022
      ],
      [
        "▁radier",
        -10.311231551653925
      ],
      [
        "▁renversé",
        -10.311231715457593
      ],
      [
        "▁lançant",
        -10.311232978111839
      ],
      [
        "▁yalwaan",
        -10.311233459572433
      ],
      [
        "pérer",
        -10.31123407425066
      ],
      [
        "▁statut",
        -10.311236015512552
      ],
      [
        "▁rassembl",
        -10.311236247146034
      ],
      [
        "▁nouvel",
        -10.311236302090917
      ],
      [
        "▁constituée",
        -10.311236350212681
      ],
      [
        "▁journée",
        -10.311236373948422
      ],
      [
        "▁10",
        -10.311236428040091
      ],
      [
        "000",
        -10.31123642827414
      ],
      [
        "▁fabriqu",
        -10.311236702530687
      ],
      [
        "▁S'agi",
        -10.311240953743798
      ],
      [
        "'ouvre",
        -10.31124120702973
      ],
      [
        "▁assailli",
        -10.311242759328218
      ],
      [
        "▁discut",
        -10.311245046667144
      ],
      [
        "▁France",
        -10.311248648269517
      ],
      [
        "▁meuble",
        -10.311250031478348
      ],
      [
        "▁préparé",
        -10.311250237689041
      ],
      [
        "▁nurool",
        -10.31125330482502
      ],
      [
        "▁marron",
        -10.311257422676062
      ],
      [
        "▁chaîne",
        -10.311260344640829
      ],
      [
        "▁l'allume",
        -10.311263999815765
      ],
      [
        "▁truc",
        -10.31126409943782
      ],
      [
        "▁Taxawa",
        -10.311264206061894
      ],
      [
        "▁visage",
        -10.311265478633723
      ],
      [
        "▁marõ",
        -10.311266361573423
      ],
      [
        "▁entouré",
        -10.311266387568184
      ],
      [
        "▁moontin",
        -10.31126789501501
      ],
      [
        "▁jàkkarloo",
        -10.311272856067292
      ],
      [
        "▁prépare",
        -10.311275163528487
      ],
      [
        "▁nàññ",
        -10.31127574680492
      ],
      [
        "▁L'endroit",
        -10.311286244181593
      ],
      [
        "▁souffr",
        -10.311286341907088
      ],
      [
        "▁porche",
        -10.311289409476387
      ],
      [
        "▁moket",
        -10.311294493706605
      ],
      [
        "grillage",
        -10.311304191814129
      ],
      [
        "▁xelli",
        -10.311310715619523
      ],
      [
        "▁bassin",
        -10.311312435514576
      ],
      [
        "àngaan",
        -10.311315509406393
      ],
      [
        "▁âgé",
        -10.311324491838361
      ],
      [
        "▁Pardon",
        -10.31133406785742
      ],
      [
        "écédé",
        -10.31133909330704
      ],
      [
        "▁descendra",
        -10.311340258137697
      ],
      [
        "▁tamarin",
        -10.311342132284285
      ],
      [
        "▁n'habite",
        -10.311351251091848
      ],
      [
        "▁répét",
        -10.311353725048134
      ],
      [
        "▁gymnas",
        -10.311391677436239
      ],
      [
        "▁aajo",
        -10.311410133756691
      ],
      [
        "vêtement",
        -10.311411876144843
      ],
      [
        "▁propos",
        -10.311435296751405
      ],
      [
        "▁fanane",
        -10.31145508730332
      ],
      [
        "▁salut",
        -10.311465190189232
      ],
      [
        "▁gosse",
        -10.311475238943826
      ],
      [
        "▁sous-",
        -10.311499711283682
      ],
      [
        "▁ancien",
        -10.31150995926315
      ],
      [
        "▁plante",
        -10.3115247977742
      ],
      [
        "▁inter",
        -10.311525570382134
      ],
      [
        "▁faneetar",
        -10.311567433202887
      ],
      [
        "▁français'",
        -10.311584359690999
      ],
      [
        "▁écriture",
        -10.311587349636454
      ],
      [
        "▁Musta",
        -10.311599199634646
      ],
      [
        "▁pleure",
        -10.31160324324835
      ],
      [
        "▁rëy",
        -10.311685398764556
      ],
      [
        "▁visite",
        -10.311786621073106
      ],
      [
        "▁tubaab",
        -10.311796419648909
      ],
      [
        "cture",
        -10.311842275708202
      ],
      [
        "▁gàdd",
        -10.311916121639344
      ],
      [
        "èvre",
        -10.311930289917717
      ],
      [
        "▁yeggee",
        -10.312007442143406
      ],
      [
        "▁jënfandikoo",
        -10.312018138015567
      ],
      [
        "▁vous-même",
        -10.312072147380295
      ],
      [
        "▁fanaan",
        -10.312076372561524
      ],
      [
        "▁Dellu",
        -10.312077283012142
      ],
      [
        "▁cubb",
        -10.312089313331851
      ],
      [
        "▁jumaa",
        -10.31209882629962
      ],
      [
        "▁ndigg",
        -10.31210993356635
      ],
      [
        "▁toi-même",
        -10.312180323717564
      ],
      [
        "▁moi-même",
        -10.312214425155641
      ],
      [
        "▁j'apprécie",
        -10.31230301481346
      ],
      [
        "assoupi",
        -10.31235291309105
      ],
      [
        "▁bënn",
        -10.31240278350264
      ],
      [
        "▁moyen",
        -10.312493367663965
      ],
      [
        "▁droit",
        -10.312583299194813
      ],
      [
        "▁Lebou",
        -10.312584245276028
      ],
      [
        "▁echelle",
        -10.312588917143806
      ],
      [
        "aune'",
        -10.312728798344374
      ],
      [
        "▁élevage",
        -10.312781869698306
      ],
      [
        "▁Wutël",
        -10.313009010469218
      ],
      [
        "▁Arr",
        -10.31318351948647
      ],
      [
        "▁Chacun",
        -10.313249189654409
      ],
      [
        "▁public",
        -10.313249787171804
      ],
      [
        "▁tayel",
        -10.313589506816244
      ],
      [
        "▁googu",
        -10.313605564745579
      ],
      [
        "▁accompagné",
        -10.313617332738259
      ],
      [
        "▁cadre",
        -10.313622290534315
      ],
      [
        "▁karo",
        -10.31367652412409
      ],
      [
        "▁tissées",
        -10.313681134956278
      ],
      [
        "▁doj",
        -10.314001884850015
      ],
      [
        "▁monter",
        -10.314014994010032
      ],
      [
        "▁t'aurai",
        -10.314082269606587
      ],
      [
        "ablement",
        -10.314109821787204
      ],
      [
        "▁kulëer",
        -10.31433124645675
      ],
      [
        "▁Bira",
        -10.314336766549282
      ],
      [
        "▁seef",
        -10.314363622738112
      ],
      [
        "époque",
        -10.314470857019657
      ],
      [
        "▁dawul",
        -10.314499710327443
      ],
      [
        "▁kukk",
        -10.314542175127869
      ],
      [
        "▁loxoom",
        -10.31466758835623
      ],
      [
        "▁ñow",
        -10.314812093963758
      ],
      [
        "▁cohabitent",
        -10.314927293283496
      ],
      [
        "▁tomb",
        -10.314984472472288
      ],
      [
        "▁d'aide",
        -10.315034260624664
      ],
      [
        "▁pilo",
        -10.315256917067881
      ],
      [
        "▁suivent",
        -10.315308851196196
      ],
      [
        "iroir",
        -10.31540643453152
      ],
      [
        "▁révoltent",
        -10.315408793354935
      ],
      [
        "▁mucc",
        -10.315462620004931
      ],
      [
        "▁serré",
        -10.315506655238837
      ],
      [
        "▁appelle'",
        -10.315613584536118
      ],
      [
        "▁wutal",
        -10.315691763155725
      ],
      [
        "▁janool",
        -10.31648616338698
      ],
      [
        "▁fatt",
        -10.316499202038608
      ],
      [
        "▁D'autre",
        -10.316554618846018
      ],
      [
        "▁beneen'",
        -10.31720674211208
      ],
      [
        "▁dajal",
        -10.317424630103085
      ],
      [
        "▁wenn",
        -10.317454700898482
      ],
      [
        "▁dégg",
        -10.317565648275643
      ],
      [
        "▁tàkk",
        -10.3176901959733
      ],
      [
        "▁n'allai",
        -10.317831888413078
      ],
      [
        "▁coule",
        -10.318005495714974
      ],
      [
        "allum",
        -10.318112549924798
      ],
      [
        "ayim",
        -10.318152490922445
      ],
      [
        "▁degg",
        -10.318156887252423
      ],
      [
        "ngalu",
        -10.318172660362505
      ],
      [
        "▁xeex",
        -10.318276723179583
      ],
      [
        "▁par-là",
        -10.318394594967623
      ],
      [
        "▁film",
        -10.318783993342493
      ],
      [
        "ttali",
        -10.318873817262816
      ],
      [
        "▁ardo",
        -10.319138816601573
      ],
      [
        "▁moroom",
        -10.319209053202506
      ],
      [
        "▁travaillait",
        -10.319404941920618
      ],
      [
        "éro",
        -10.319516944044
      ],
      [
        "▁Eux",
        -10.319549379127539
      ],
      [
        "▁publi",
        -10.319574491854468
      ],
      [
        "soup",
        -10.319876903927112
      ],
      [
        "▁yit",
        -10.319945723517195
      ],
      [
        "▁Kaay",
        -10.320059558588412
      ],
      [
        "▁juge",
        -10.320122235876978
      ],
      [
        "lise",
        -10.3201256155757
      ],
      [
        "▁yàqu",
        -10.320446824117687
      ],
      [
        "▁yeg",
        -10.320599034769808
      ],
      [
        "▁casque",
        -10.320746038870844
      ],
      [
        "elle'",
        -10.32089006831848
      ],
      [
        "▁entré",
        -10.321086200601648
      ],
      [
        "nive",
        -10.32117883132804
      ],
      [
        "▁différentes",
        -10.32122476722484
      ],
      [
        "▁ñorul",
        -10.32124622932762
      ],
      [
        "'entend",
        -10.321724818004581
      ],
      [
        "àccee",
        -10.322120291806282
      ],
      [
        "taine",
        -10.322122136208723
      ],
      [
        "joor",
        -10.322273854251863
      ],
      [
        "▁conv",
        -10.322308515256799
      ],
      [
        "ctiv",
        -10.322425307239433
      ],
      [
        "▁s'asse",
        -10.322588009340151
      ],
      [
        "▁écla",
        -10.322779788870031
      ],
      [
        "▁voyage",
        -10.322784305408629
      ],
      [
        "raî",
        -10.322857647065671
      ],
      [
        "▁ginnaawam",
        -10.323525326154453
      ],
      [
        "gico",
        -10.324481740371297
      ],
      [
        "▁police",
        -10.324654889804986
      ],
      [
        "ydina",
        -10.324690780786694
      ],
      [
        "▁bëggu",
        -10.325209158252685
      ],
      [
        "▁àndal",
        -10.3255555102597
      ],
      [
        "▁Ko",
        -10.32564597582977
      ],
      [
        "outer",
        -10.325647594383224
      ],
      [
        "après-",
        -10.325811014160543
      ],
      [
        "▁kanamam",
        -10.325811640404073
      ],
      [
        "▁Sénégal'",
        -10.325831257800152
      ],
      [
        "▁bëggé",
        -10.325833687055676
      ],
      [
        "habitent",
        -10.326906581700214
      ],
      [
        "▁retrouv",
        -10.327156432429854
      ],
      [
        "mbres",
        -10.327302828288087
      ],
      [
        "ëgg",
        -10.327462679917911
      ],
      [
        "▁fekke",
        -10.328253993823699
      ],
      [
        "▁wer",
        -10.328271855438313
      ],
      [
        "▁trai",
        -10.32881638801831
      ],
      [
        "▁sommet",
        -10.329471396184847
      ],
      [
        "gël",
        -10.329537668353712
      ],
      [
        "▁séq",
        -10.329787333432208
      ],
      [
        "▁fë",
        -10.330340892962388
      ],
      [
        "ëlé",
        -10.330986517583211
      ],
      [
        "▁éga",
        -10.331890444268941
      ],
      [
        "▁ben",
        -10.332038879877457
      ],
      [
        "▁reconn",
        -10.332415132534482
      ],
      [
        "ëk",
        -10.33312779501745
      ],
      [
        "▁lieux",
        -10.33390275232199
      ],
      [
        "▁Daawul",
        -10.334275009486424
      ],
      [
        "▁Léeg",
        -10.33451907354114
      ],
      [
        "▁remplie",
        -10.336129860389573
      ],
      [
        "▁voies",
        -10.336148757474094
      ],
      [
        "▁pieds",
        -10.33635195026338
      ],
      [
        "▁laiss",
        -10.337319010939366
      ],
      [
        "accompagne",
        -10.337502480735296
      ],
      [
        "'avion",
        -10.337736029950552
      ],
      [
        "▁surv",
        -10.337898072449136
      ],
      [
        "▁sës",
        -10.338043251756382
      ],
      [
        "▁d'elle",
        -10.338531721252089
      ],
      [
        "jariñ",
        -10.339107321310752
      ],
      [
        "▁voulai",
        -10.339803420238042
      ],
      [
        "dou",
        -10.340098928916195
      ],
      [
        "▁doomam",
        -10.340595907368769
      ],
      [
        "import",
        -10.340781866646612
      ],
      [
        "e-le",
        -10.34085292414196
      ],
      [
        "isée",
        -10.341057858765677
      ],
      [
        "▁ouvertes",
        -10.341111159495759
      ],
      [
        "▁jusqu'ici",
        -10.342135801235461
      ],
      [
        "quelles",
        -10.342325648059843
      ],
      [
        "sant",
        -10.342598020834712
      ],
      [
        "▁doyu",
        -10.342831108683539
      ],
      [
        "▁vertu",
        -10.343097214356106
      ],
      [
        "▁char",
        -10.343927296118462
      ],
      [
        "âche",
        -10.344158589742825
      ],
      [
        "▁content",
        -10.344417564767586
      ],
      [
        "angasin",
        -10.345451199162019
      ],
      [
        "▁élev",
        -10.34639082717995
      ],
      [
        "▁rencontre",
        -10.346640461775326
      ],
      [
        "▁souve",
        -10.346852700836326
      ],
      [
        "▁Ex",
        -10.348761814076273
      ],
      [
        "▁entrer",
        -10.348867168552687
      ],
      [
        "ekum",
        -10.35003737983845
      ],
      [
        "▁bëy",
        -10.350738718623212
      ],
      [
        "ooñii",
        -10.350914584080552
      ],
      [
        "▁rentrer",
        -10.351135577455649
      ],
      [
        "saŋ",
        -10.351944664623822
      ],
      [
        "▁Ab",
        -10.352153753126185
      ],
      [
        "▁tée",
        -10.352672001976936
      ],
      [
        "nég",
        -10.353933287111976
      ],
      [
        "▁convers",
        -10.35399190753169
      ],
      [
        "nent",
        -10.354293326149556
      ],
      [
        "▁bëggoon",
        -10.354722571532713
      ],
      [
        "illage",
        -10.355493043068975
      ],
      [
        "▁lionne",
        -10.35553231926413
      ],
      [
        "ññ",
        -10.355880114035662
      ],
      [
        "▁conna",
        -10.3562158789458
      ],
      [
        "kkan",
        -10.35703292527786
      ],
      [
        "rdo",
        -10.357135538981773
      ],
      [
        "▁fen",
        -10.357483111811515
      ],
      [
        "▁ame",
        -10.358630189889153
      ],
      [
        "▁arriva",
        -10.359042277771866
      ],
      [
        "▁go",
        -10.359082886174201
      ],
      [
        "supp",
        -10.359319257167831
      ],
      [
        "▁gaal",
        -10.36015744443011
      ],
      [
        "▁dedans",
        -10.360431830304385
      ],
      [
        "▁Gi",
        -10.36066238029632
      ],
      [
        "▁poli",
        -10.361725804322473
      ],
      [
        "▁fût",
        -10.362071788351054
      ],
      [
        "▁bëtt",
        -10.363219831610962
      ],
      [
        "▁metti",
        -10.364432844906034
      ],
      [
        "▁étage",
        -10.365122479303645
      ],
      [
        "ful",
        -10.366013895651374
      ],
      [
        "▁Mer",
        -10.366521231758835
      ],
      [
        "sard",
        -10.367504501854125
      ],
      [
        "gaam",
        -10.367560455090041
      ],
      [
        "endant",
        -10.36759563160842
      ],
      [
        "▁Xay",
        -10.367767042899377
      ],
      [
        "ffe",
        -10.369434332493388
      ],
      [
        "jj",
        -10.370431203175823
      ],
      [
        "spé",
        -10.371004134332333
      ],
      [
        "gra",
        -10.371479727108163
      ],
      [
        "lo",
        -10.371727438782003
      ],
      [
        "waa",
        -10.372516879721918
      ],
      [
        "▁daawu",
        -10.373248331574223
      ],
      [
        "▁s'écha",
        -10.373309118759005
      ],
      [
        "▁fini",
        -10.373753933246002
      ],
      [
        "▁chauff",
        -10.374186201847557
      ],
      [
        "▁solo",
        -10.374417421539233
      ],
      [
        "dina",
        -10.374931917141785
      ],
      [
        "▁voulez",
        -10.374989300012933
      ],
      [
        "▁xaritam",
        -10.375231421025859
      ],
      [
        "▁senn",
        -10.376235812019798
      ],
      [
        "▁Amin",
        -10.378246720551402
      ],
      [
        "▁née",
        -10.378371718432085
      ],
      [
        "angé",
        -10.37927186882887
      ],
      [
        "óox",
        -10.38160396013941
      ],
      [
        "▁sta",
        -10.38219499213977
      ],
      [
        "▁taba",
        -10.382346987178783
      ],
      [
        "▁échelle",
        -10.383423120047919
      ],
      [
        "aisir",
        -10.384260860997985
      ],
      [
        "▁blanches.",
        -10.38430107698596
      ],
      [
        "▁waxtu",
        -10.38472324059212
      ],
      [
        "u-",
        -10.385331736176402
      ],
      [
        "▁Jamm",
        -10.386453016437631
      ],
      [
        "nde",
        -10.387050608618932
      ],
      [
        "▁marchan",
        -10.390261568822314
      ],
      [
        "allong",
        -10.390354651361147
      ],
      [
        "omp",
        -10.390731728107653
      ],
      [
        "edress",
        -10.390936684997417
      ],
      [
        "▁lumi",
        -10.391101968711716
      ],
      [
        "▁Nde",
        -10.391274622676232
      ],
      [
        "ourri",
        -10.392901929288254
      ],
      [
        "óol",
        -10.393599520720196
      ],
      [
        "lóo",
        -10.39364120546051
      ],
      [
        "▁salaam",
        -10.394247033768773
      ],
      [
        "▁kote",
        -10.394338945702057
      ],
      [
        "ërëm",
        -10.394993437453365
      ],
      [
        "▁voul",
        -10.395941501074883
      ],
      [
        "▁wut",
        -10.396632471079077
      ],
      [
        "cieuse",
        -10.397339809525484
      ],
      [
        "lement",
        -10.398047937387348
      ],
      [
        "▁ay'",
        -10.398174388477063
      ],
      [
        "▁temps",
        -10.39945228942305
      ],
      [
        "▁yëngu",
        -10.399656842164342
      ],
      [
        "▁rafetul",
        -10.4024509200704
      ],
      [
        "▁joo",
        -10.40253657370106
      ],
      [
        "▁voici.",
        -10.403313627298179
      ],
      [
        "emal",
        -10.403927707664499
      ],
      [
        "▁jale",
        -10.404553873662538
      ],
      [
        "▁jamb",
        -10.405238397449448
      ],
      [
        "añ",
        -10.405630253932763
      ],
      [
        "▁tenue",
        -10.406282181819725
      ],
      [
        "séd",
        -10.406303730426247
      ],
      [
        "lusi",
        -10.406688388108533
      ],
      [
        "dé",
        -10.408959236030721
      ],
      [
        "C'est",
        -10.409066725419255
      ],
      [
        "▁s'assi",
        -10.409848856529987
      ],
      [
        "▁Don",
        -10.409893921818961
      ],
      [
        "▁léeg",
        -10.410837545223487
      ],
      [
        "▁natte",
        -10.412052893347504
      ],
      [
        "jafe",
        -10.412110920921915
      ],
      [
        "▁compos",
        -10.413226475059997
      ],
      [
        "▁Wooy",
        -10.413552264107146
      ],
      [
        "▁ndugge",
        -10.413791451544983
      ],
      [
        "doo",
        -10.413903443769128
      ],
      [
        "bb",
        -10.41423780260354
      ],
      [
        "▁lor",
        -10.415623187991772
      ],
      [
        "▁bavard",
        -10.417406355090193
      ],
      [
        "▁déc",
        -10.418263195303144
      ],
      [
        "▁attrape",
        -10.419945343248497
      ],
      [
        "ures",
        -10.420165055840958
      ],
      [
        "▁ét",
        -10.422110528312858
      ],
      [
        "▁Ñi",
        -10.423227535287992
      ],
      [
        "▁ver",
        -10.423973963528546
      ],
      [
        "▁mal",
        -10.424465418501384
      ],
      [
        "kka",
        -10.42474052772888
      ],
      [
        "▁nanu",
        -10.425448490852126
      ],
      [
        "▁noon",
        -10.426198722256428
      ],
      [
        "▁n'av",
        -10.426320156092423
      ],
      [
        "▁Mel",
        -10.426421414107324
      ],
      [
        "naaw",
        -10.426735456416305
      ],
      [
        "▁réc",
        -10.427574746086579
      ],
      [
        "nce",
        -10.427978270821841
      ],
      [
        "tenu",
        -10.429927957491897
      ],
      [
        "oudre",
        -10.431732913820994
      ],
      [
        "▁morts",
        -10.4356099821016
      ],
      [
        "▁Non",
        -10.435839248642353
      ],
      [
        "▁court",
        -10.440377664460657
      ],
      [
        "▁tol",
        -10.440558307302307
      ],
      [
        "▁Sen",
        -10.44265243324737
      ],
      [
        "▁présidents",
        -10.443944437267373
      ],
      [
        "pa",
        -10.444771507401244
      ],
      [
        "seen",
        -10.444875587362326
      ],
      [
        "le.",
        -10.447350133772616
      ],
      [
        "▁noo",
        -10.449689217650564
      ],
      [
        "▁blanches",
        -10.449874316002623
      ],
      [
        "▁entr",
        -10.450509359979664
      ],
      [
        "'étudiant",
        -10.45106627997802
      ],
      [
        "▁baga",
        -10.451261455580733
      ],
      [
        "lle",
        -10.451279458604795
      ],
      [
        "caak",
        -10.45204008929969
      ],
      [
        "puisé",
        -10.453186696026979
      ],
      [
        "iyaar",
        -10.455254020819538
      ],
      [
        "▁après-",
        -10.456252280423193
      ],
      [
        "▁faç",
        -10.45628401471647
      ],
      [
        "▁trouver",
        -10.457069379510886
      ],
      [
        "ter",
        -10.45782023927736
      ],
      [
        "nee",
        -10.458519881206577
      ],
      [
        "▁taar",
        -10.459897475143869
      ],
      [
        "▁saura",
        -10.460475005778706
      ],
      [
        "▁s'agiss",
        -10.462398681525686
      ],
      [
        "tique",
        -10.462428712828185
      ],
      [
        "▁amoon",
        -10.464260342707767
      ],
      [
        "▁siy",
        -10.467460306973623
      ],
      [
        "▁i",
        -10.468559728658102
      ],
      [
        "biir",
        -10.47307316081805
      ],
      [
        "▁saisi",
        -10.474935958194516
      ],
      [
        "▁sé",
        -10.477958762039625
      ],
      [
        "qu'il",
        -10.478341589740904
      ],
      [
        "▁fon",
        -10.478525537583993
      ],
      [
        "uur",
        -10.482039143908967
      ],
      [
        "▁Wau",
        -10.482296163868822
      ],
      [
        "▁lekku",
        -10.482983918447161
      ],
      [
        "onvers",
        -10.485144014122726
      ],
      [
        "utt",
        -10.485580625838566
      ],
      [
        "enez",
        -10.485927572482812
      ],
      [
        "aix",
        -10.488128324073658
      ],
      [
        "▁We",
        -10.48998437631504
      ],
      [
        "alante",
        -10.49088695141736
      ],
      [
        "▁armes",
        -10.491057386113704
      ],
      [
        "'euss",
        -10.49227306240493
      ],
      [
        "▁baar",
        -10.492518994073835
      ],
      [
        "▁rap",
        -10.492828720021114
      ],
      [
        "▁way",
        -10.494724527667934
      ],
      [
        "▁réewu",
        -10.496413338362066
      ],
      [
        "jud",
        -10.500094196770096
      ],
      [
        "mant",
        -10.500641365712411
      ],
      [
        "nge",
        -10.501393184984764
      ],
      [
        "deau",
        -10.501430260857012
      ],
      [
        "cul",
        -10.501909411578215
      ],
      [
        "▁bols",
        -10.505491978442365
      ],
      [
        "▁reveni",
        -10.505522582226774
      ],
      [
        "▁carre",
        -10.50743969627254
      ],
      [
        "ari",
        -10.508525476540559
      ],
      [
        "yit",
        -10.508538969960075
      ],
      [
        "eau",
        -10.509852276928525
      ],
      [
        "agnes",
        -10.510652886848217
      ],
      [
        "▁meneen",
        -10.512570355278541
      ],
      [
        "ve",
        -10.513162407575965
      ],
      [
        "iennent",
        -10.513697014847118
      ],
      [
        "aintenant",
        -10.514786439639087
      ],
      [
        "iron",
        -10.519755961173576
      ],
      [
        "esquel",
        -10.519774997221596
      ],
      [
        "dre",
        -10.521689443921847
      ],
      [
        "sort",
        -10.523110831399327
      ],
      [
        "cot",
        -10.523935383922169
      ],
      [
        "àgg",
        -10.526668415279707
      ],
      [
        "▁Amu",
        -10.527470438404869
      ],
      [
        "-nd",
        -10.527944713813007
      ],
      [
        "▁yore",
        -10.532379711887966
      ],
      [
        "▁mës",
        -10.533157182096458
      ],
      [
        "▁all",
        -10.533563954243991
      ],
      [
        "▁bala",
        -10.537078795760868
      ],
      [
        "eek",
        -10.537343532050855
      ],
      [
        "meur",
        -10.53901243806348
      ],
      [
        "▁petits",
        -10.54424645180146
      ],
      [
        "ire",
        -10.544898210232358
      ],
      [
        "▁étalée",
        -10.546049069447667
      ],
      [
        "▁Mets",
        -10.546300913681778
      ],
      [
        "rie",
        -10.548031911605538
      ],
      [
        "▁sub",
        -10.548522855512468
      ],
      [
        "he",
        -10.549664244046596
      ],
      [
        "▁tir",
        -10.55232643683339
      ],
      [
        "▁posée",
        -10.559430395394319
      ],
      [
        "▁ciment",
        -10.559568047937871
      ],
      [
        "la.",
        -10.56086691063334
      ],
      [
        "ène",
        -10.561725143402885
      ],
      [
        "nag",
        -10.562157933287063
      ],
      [
        "bar",
        -10.563007080372026
      ],
      [
        "▁voi",
        -10.567501877085057
      ],
      [
        "▁sar",
        -10.569889005365521
      ],
      [
        "▁vent",
        -10.57138741601916
      ],
      [
        "▁Baa",
        -10.573060729093266
      ],
      [
        "▁kà",
        -10.573807994726469
      ],
      [
        "▁sile",
        -10.574019438139612
      ],
      [
        "▁atte",
        -10.574221188817974
      ],
      [
        "li",
        -10.576433942724652
      ],
      [
        "▁serv",
        -10.577152949814005
      ],
      [
        "▁sortie",
        -10.579266552907516
      ],
      [
        "naiss",
        -10.582533931173929
      ],
      [
        "venu",
        -10.583360759754786
      ],
      [
        "lëer",
        -10.586002327955052
      ],
      [
        "ellement",
        -10.587723760431551
      ],
      [
        "▁l'as",
        -10.589650541377443
      ],
      [
        "▁Xarit",
        -10.590976807107046
      ],
      [
        "▁saw",
        -10.591873586313469
      ],
      [
        "▁x",
        -10.593195818258048
      ],
      [
        "▁sembl",
        -10.594706433358215
      ],
      [
        "▁né",
        -10.596590603750139
      ],
      [
        "▁pot",
        -10.60023383005706
      ],
      [
        "▁goog",
        -10.600632983716707
      ],
      [
        "'arbre",
        -10.601302640830038
      ],
      [
        "▁monta",
        -10.601329309367364
      ],
      [
        "bal",
        -10.602335919402355
      ],
      [
        "mmoon",
        -10.603193213138459
      ],
      [
        "homme",
        -10.604773742888362
      ],
      [
        "▁cere",
        -10.60495574304426
      ],
      [
        "▁Pl",
        -10.607113052090769
      ],
      [
        "éri",
        -10.607519427272539
      ],
      [
        "avec",
        -10.607897159900698
      ],
      [
        "▁voie",
        -10.609642030177646
      ],
      [
        "cult",
        -10.611347634524877
      ],
      [
        "uloo",
        -10.611601882166454
      ],
      [
        "▁habite",
        -10.612203315107621
      ],
      [
        "nces",
        -10.613279618805874
      ],
      [
        "iers",
        -10.616119083948371
      ],
      [
        "wu",
        -10.617189562171268
      ],
      [
        "'aide",
        -10.620241256876511
      ],
      [
        "endi",
        -10.620797970940938
      ],
      [
        "chi",
        -10.622307477527162
      ],
      [
        "orts",
        -10.624642539509953
      ],
      [
        "moom",
        -10.624853646331065
      ],
      [
        "▁pointe",
        -10.625323306123475
      ],
      [
        "endu",
        -10.627472503797387
      ],
      [
        "om",
        -10.627728250547142
      ],
      [
        "sées",
        -10.628329518432775
      ],
      [
        "-même",
        -10.629791905321781
      ],
      [
        "rée",
        -10.630837292089382
      ],
      [
        "▁dey",
        -10.632699640670007
      ],
      [
        "▁Ñung",
        -10.633564095631797
      ],
      [
        "ste",
        -10.633599808900762
      ],
      [
        "▁déta",
        -10.636269910232597
      ],
      [
        "ërëb",
        -10.645687952911846
      ],
      [
        "ide",
        -10.646065727681524
      ],
      [
        "yam",
        -10.647382687406264
      ],
      [
        "tions",
        -10.65327095462618
      ],
      [
        "range",
        -10.654548548001458
      ],
      [
        "kaar",
        -10.654776190978154
      ],
      [
        "▁layu",
        -10.657605513746105
      ],
      [
        "atant",
        -10.658510460144326
      ],
      [
        "emment",
        -10.660536824380854
      ],
      [
        "aal",
        -10.660696275420488
      ],
      [
        "▁manifeste",
        -10.662646419409242
      ],
      [
        "eux-ci",
        -10.662960960536198
      ],
      [
        "▁filles",
        -10.663979821837476
      ],
      [
        "egarde",
        -10.666239183371255
      ],
      [
        "oy",
        -10.671948259447738
      ],
      [
        "ŋk",
        -10.672179829827034
      ],
      [
        "vid",
        -10.674243792394307
      ],
      [
        "din",
        -10.676296598959528
      ],
      [
        "ol",
        -10.676378842398787
      ],
      [
        "bine",
        -10.67661781502491
      ],
      [
        "▁wal",
        -10.67747528903009
      ],
      [
        "▁Bëggu",
        -10.677607281612502
      ],
      [
        "uñ",
        -10.679825961342907
      ],
      [
        "ono",
        -10.681975696790973
      ],
      [
        "entourant",
        -10.682603473368772
      ],
      [
        "uróom-ñ",
        -10.682807237045342
      ],
      [
        "▁heureu",
        -10.684337612999204
      ],
      [
        "▁mur",
        -10.685292788082975
      ],
      [
        "▁conçues",
        -10.687461507137442
      ],
      [
        "Il",
        -10.688182473818625
      ],
      [
        "▁tire",
        -10.68825017743509
      ],
      [
        "ort",
        -10.692234301927462
      ],
      [
        "▁Sor",
        -10.6930048242211
      ],
      [
        "▁dét",
        -10.693801732874423
      ],
      [
        "▁jà",
        -10.694320624587085
      ],
      [
        "▁cu",
        -10.700021978170893
      ],
      [
        "▁rentr",
        -10.700033273455727
      ],
      [
        "▁defee",
        -10.700968975926024
      ],
      [
        "▁cat",
        -10.70169167923473
      ],
      [
        "▁Ou",
        -10.704355156233792
      ],
      [
        "ront",
        -10.71150081603698
      ],
      [
        "▁doxu",
        -10.711544821160944
      ],
      [
        "ch",
        -10.719920943585535
      ],
      [
        "▁eu",
        -10.720031049635528
      ],
      [
        "mal",
        -10.720735941977413
      ],
      [
        "▁ŋgii.",
        -10.722285970040744
      ],
      [
        "aam",
        -10.723827253006784
      ],
      [
        "▁prom",
        -10.730679474053865
      ],
      [
        "off",
        -10.732685439940326
      ],
      [
        "▁manifest",
        -10.733594440381903
      ],
      [
        "▁rag",
        -10.733667793432401
      ],
      [
        "ang",
        -10.734632448112833
      ],
      [
        "rog",
        -10.738751851799517
      ],
      [
        "▁év",
        -10.739236729068303
      ],
      [
        "dar",
        -10.739569399366186
      ],
      [
        "▁accompagne",
        -10.74011395207404
      ],
      [
        "uits",
        -10.740621688571967
      ],
      [
        "'il",
        -10.744318662206814
      ],
      [
        "lig",
        -10.753497062206087
      ],
      [
        "ans",
        -10.756297677991078
      ],
      [
        "▁cou",
        -10.760310195707941
      ],
      [
        "veux",
        -10.762977575993018
      ],
      [
        "wax",
        -10.766719361247901
      ],
      [
        "▁ter",
        -10.768607047852047
      ],
      [
        "kku",
        -10.768638476832226
      ],
      [
        "▁Set",
        -10.768892598807172
      ],
      [
        "▁naaj",
        -10.769004445235607
      ],
      [
        "▁jou",
        -10.769559874730021
      ],
      [
        "abax",
        -10.77195476567487
      ],
      [
        "▁juu",
        -10.772120996830132
      ],
      [
        "ière",
        -10.772912273533139
      ],
      [
        "ati",
        -10.776658669476513
      ],
      [
        "▁xal",
        -10.781845137168872
      ],
      [
        "▁Wan",
        -10.78362294780402
      ],
      [
        "▁yeneen.",
        -10.785854824902879
      ],
      [
        "yul",
        -10.787012594756032
      ],
      [
        "bale",
        -10.78787859957539
      ],
      [
        "▁jeu",
        -10.790127288400313
      ],
      [
        "elui-ci",
        -10.790240553968589
      ],
      [
        "'étai",
        -10.793036270993598
      ],
      [
        "omu",
        -10.794162039389157
      ],
      [
        "sur",
        -10.795655868319336
      ],
      [
        "sse",
        -10.797339942503601
      ],
      [
        "▁tawa",
        -10.803027016626856
      ],
      [
        "▁Té",
        -10.803239668185142
      ],
      [
        "ton",
        -10.809194645220039
      ],
      [
        "nez",
        -10.809268892084072
      ],
      [
        "▁poissons",
        -10.81553444948708
      ],
      [
        "▁dà",
        -10.815969721314751
      ],
      [
        "▁Saa",
        -10.815970435264838
      ],
      [
        "u.",
        -10.817840820434823
      ],
      [
        "res",
        -10.818035320202727
      ],
      [
        "api",
        -10.818607395073
      ],
      [
        "i-",
        -10.821986579085827
      ],
      [
        "son",
        -10.824144721454797
      ],
      [
        "▁donn",
        -10.82681236432016
      ],
      [
        "rouill",
        -10.827815064244275
      ],
      [
        "iwaa",
        -10.833496459244413
      ],
      [
        "ur.",
        -10.833850746274283
      ],
      [
        "alla",
        -10.834925187187064
      ],
      [
        "àmmoo",
        -10.835655701903928
      ],
      [
        "▁Deñ",
        -10.835852797245344
      ],
      [
        "▁habit",
        -10.836107986762427
      ],
      [
        "'aurai",
        -10.840693392289314
      ],
      [
        "▁d'o",
        -10.845007694223646
      ],
      [
        "gg",
        -10.845699686429123
      ],
      [
        "ooga",
        -10.846072697920082
      ],
      [
        "pi",
        -10.84649107483902
      ],
      [
        "▁lë",
        -10.847259943261014
      ],
      [
        "da",
        -10.847921568166358
      ],
      [
        "woo",
        -10.849880148271136
      ],
      [
        "ŋgoo",
        -10.854911045282883
      ],
      [
        "ndio",
        -10.855425884666548
      ],
      [
        "to",
        -10.856624249021078
      ],
      [
        "ttais",
        -10.861119842041886
      ],
      [
        "eel",
        -10.861611203102685
      ],
      [
        "ais-t",
        -10.86301155486077
      ],
      [
        "lors",
        -10.863068644727752
      ],
      [
        "éra",
        -10.863618915363897
      ],
      [
        "g.",
        -10.864844942069771
      ],
      [
        "ju",
        -10.867088909273466
      ],
      [
        "ets-t",
        -10.875612863586252
      ],
      [
        "▁Fo",
        -10.88043793832299
      ],
      [
        "▁desquel",
        -10.884429504670116
      ],
      [
        "▁assise",
        -10.885666529472015
      ],
      [
        "aumône",
        -10.890386572197844
      ],
      [
        "rom",
        -10.897893823968415
      ],
      [
        "▁lee",
        -10.897975350625895
      ],
      [
        "▁tonn",
        -10.898411178948276
      ],
      [
        "▁Jusqu'",
        -10.90237090343886
      ],
      [
        "sid",
        -10.903256949509132
      ],
      [
        "▁accompagn",
        -10.90326735095741
      ],
      [
        "posés",
        -10.90476229885531
      ],
      [
        "ha",
        -10.906464745687485
      ],
      [
        "vers",
        -10.917494834252874
      ],
      [
        "▁joxo",
        -10.919097344429387
      ],
      [
        "▁naata",
        -10.920586386193857
      ],
      [
        "argent",
        -10.921195234210746
      ],
      [
        "llu",
        -10.921441605865212
      ],
      [
        "▁buñ",
        -10.921491422170154
      ],
      [
        "ànni",
        -10.923473593912721
      ],
      [
        "matu",
        -10.924486718205635
      ],
      [
        "cri",
        -10.931736582109849
      ],
      [
        "joo",
        -10.936444879164926
      ],
      [
        "intérieur",
        -10.937059253275304
      ],
      [
        "▁rapp",
        -10.937908432740098
      ],
      [
        "poisson",
        -10.938534650119585
      ],
      [
        "m.",
        -10.94090005174313
      ],
      [
        "▁ge",
        -10.941741106652387
      ],
      [
        "ndal",
        -10.942789521993049
      ],
      [
        "lait",
        -10.943751104406523
      ],
      [
        "éegu",
        -10.944847351452971
      ],
      [
        "id",
        -10.945812791082798
      ],
      [
        "ami",
        -10.947033245310907
      ],
      [
        "À",
        -10.947857090559914
      ],
      [
        "▁seeta",
        -10.948076238880125
      ],
      [
        "▁comm",
        -10.948101991875358
      ],
      [
        "▁l'on",
        -10.950677411897965
      ],
      [
        "▁auto",
        -10.952779773039147
      ],
      [
        "ction",
        -10.954599028212279
      ],
      [
        "vin",
        -10.958376911886088
      ],
      [
        "▁désir",
        -10.959205389174958
      ],
      [
        "▁telle",
        -10.959805245551165
      ],
      [
        "gée",
        -10.963200738565234
      ],
      [
        "aang",
        -10.96441123026565
      ],
      [
        "acc",
        -10.968370250798277
      ],
      [
        "▁devi",
        -10.968556583767114
      ],
      [
        "▁Mas",
        -10.969934948914986
      ],
      [
        "▁J'a",
        -10.972263863615897
      ],
      [
        "ément",
        -10.973316343159178
      ],
      [
        "ibbisi",
        -10.97492290762591
      ],
      [
        "gga",
        -10.97525645996785
      ],
      [
        "eg",
        -10.976272754425136
      ],
      [
        "ande",
        -10.97897168931598
      ],
      [
        "I",
        -10.979558296997016
      ],
      [
        "yoon",
        -10.980166886317695
      ],
      [
        "dénk",
        -10.98845829681452
      ],
      [
        "laay",
        -10.990622360456683
      ],
      [
        "▁homm",
        -10.990808561155355
      ],
      [
        "▁dan",
        -10.993638377318808
      ],
      [
        "▁boob",
        -10.995874229494051
      ],
      [
        "▁énorm",
        -10.997162492094574
      ],
      [
        "▁bara",
        -10.99746659014855
      ],
      [
        "▁yen",
        -10.99751909020402
      ],
      [
        "'appelles",
        -10.998242906823904
      ],
      [
        "▁batta",
        -10.99831989115872
      ],
      [
        "aujourd'hui",
        -11.00701703505874
      ],
      [
        "▁qua",
        -11.009634165595468
      ],
      [
        "▁souhait",
        -11.012117391314774
      ],
      [
        "ñuul.",
        -11.012156415382474
      ],
      [
        "aaya",
        -11.013781696306998
      ],
      [
        "▁sont-",
        -11.014319996370391
      ],
      [
        "▁fermé",
        -11.015954678925473
      ],
      [
        "▁lalu",
        -11.017212950648227
      ],
      [
        "table",
        -11.017257274104693
      ],
      [
        "▁Leb",
        -11.017259960470815
      ],
      [
        "pose",
        -11.01787422191709
      ],
      [
        "far",
        -11.018103906219247
      ],
      [
        "bilis",
        -11.018170601936646
      ],
      [
        "autre",
        -11.019528236745138
      ],
      [
        "étudiant",
        -11.021930365141023
      ],
      [
        "▁Bule",
        -11.0233320055425
      ],
      [
        "rob",
        -11.023737176830123
      ],
      [
        "rs",
        -11.024834470816911
      ],
      [
        "én",
        -11.025166217522624
      ],
      [
        "takk-der",
        -11.025355301218312
      ],
      [
        "paré",
        -11.025786958552045
      ],
      [
        "▁Maan",
        -11.028464429355033
      ],
      [
        "con",
        -11.036689039660121
      ],
      [
        "▁reven",
        -11.03739659534325
      ],
      [
        "▁want",
        -11.04044566929156
      ],
      [
        "ogul",
        -11.040540222924436
      ],
      [
        "▁Gej",
        -11.041595740860148
      ],
      [
        "viendra",
        -11.042295581947176
      ],
      [
        "▁Ang",
        -11.046516011273482
      ],
      [
        "▁demand",
        -11.049214944766744
      ],
      [
        "▁faa",
        -11.05703129900866
      ],
      [
        "vertes",
        -11.058865937542226
      ],
      [
        "▁say",
        -11.060691533069335
      ],
      [
        "ndé",
        -11.061631428315678
      ],
      [
        "chaise",
        -11.065744269282483
      ],
      [
        "ngel",
        -11.066936010629068
      ],
      [
        "gukaay",
        -11.068482209243545
      ],
      [
        "▁yonn",
        -11.06848674131459
      ],
      [
        "nor",
        -11.070134379657265
      ],
      [
        "abar",
        -11.071192488521405
      ],
      [
        "bëggée",
        -11.074309506268095
      ],
      [
        "aux",
        -11.076177983226772
      ],
      [
        "▁Pa",
        -11.077706433110379
      ],
      [
        "ana",
        -11.079239304455399
      ],
      [
        "panier",
        -11.079311329071457
      ],
      [
        "vu",
        -11.079666509600033
      ],
      [
        "▁cour",
        -11.080154437583156
      ],
      [
        "Mon",
        -11.080687160955701
      ],
      [
        "▁emp",
        -11.081153571708832
      ],
      [
        "dit",
        -11.082109192574793
      ],
      [
        "▁ri",
        -11.08213059262833
      ],
      [
        "dessin",
        -11.082243628886587
      ],
      [
        "▁ndà",
        -11.084254005986507
      ],
      [
        "▁j'e",
        -11.08507375195139
      ],
      [
        "achi",
        -11.085404009796106
      ],
      [
        "ñaxtu",
        -11.089576889763244
      ],
      [
        "côté",
        -11.090306665251672
      ],
      [
        "▁bër",
        -11.091360828956553
      ],
      [
        "▁refus",
        -11.09143546312515
      ],
      [
        "▁pouv",
        -11.092426051065315
      ],
      [
        "uit",
        -11.093391315113193
      ],
      [
        "écrit",
        -11.0934791660739
      ],
      [
        "▁ñuu",
        -11.094810073669139
      ],
      [
        "fe",
        -11.096730593776178
      ],
      [
        "uuti",
        -11.096751664822929
      ],
      [
        "▁envoyé",
        -11.096949631979626
      ],
      [
        "Par",
        -11.097258003146052
      ],
      [
        "demain",
        -11.099679610259649
      ],
      [
        "▁Fe",
        -11.100425581653306
      ],
      [
        "bba",
        -11.1010263060702
      ],
      [
        "xew",
        -11.107389014918072
      ],
      [
        "marché",
        -11.108581115631546
      ],
      [
        "▁t'app",
        -11.109316596248927
      ],
      [
        "jours",
        -11.110802351608557
      ],
      [
        "oreiller",
        -11.113083302966338
      ],
      [
        "yëngu",
        -11.113739952573422
      ],
      [
        "temps",
        -11.114196384175958
      ],
      [
        "vert",
        -11.115874929659391
      ],
      [
        "fukk",
        -11.116045809505254
      ],
      [
        "mm",
        -11.125182264763033
      ],
      [
        "▁Voi",
        -11.129981995667148
      ],
      [
        "jour",
        -11.131587612912897
      ],
      [
        "ooy",
        -11.131809113930473
      ],
      [
        "présent",
        -11.132292621799337
      ],
      [
        "salaam",
        -11.132563285835873
      ],
      [
        "çon",
        -11.13313818578115
      ],
      [
        "▁dép",
        -11.134265229127516
      ],
      [
        "▁solu",
        -11.134463053920747
      ],
      [
        "▁utilis",
        -11.135342891678503
      ],
      [
        "bët",
        -11.138872053624967
      ],
      [
        "affaire",
        -11.143607785371461
      ],
      [
        "too",
        -11.14468220285268
      ],
      [
        "▁Es",
        -11.145008366717517
      ],
      [
        "échelle",
        -11.148867800866375
      ],
      [
        "sent",
        -11.151233701870684
      ],
      [
        "iñ",
        -11.154637183485065
      ],
      [
        "habite",
        -11.155031135643593
      ],
      [
        "dans",
        -11.158047449197342
      ],
      [
        "bout",
        -11.158682438575823
      ],
      [
        "arrive",
        -11.164347350259948
      ],
      [
        "▁Àn",
        -11.167787090067412
      ],
      [
        "▁U",
        -11.168598706919472
      ],
      [
        "▁jaa",
        -11.172309871778314
      ],
      [
        "jur",
        -11.17483951873962
      ],
      [
        "rëm",
        -11.175614039124047
      ],
      [
        "ui.",
        -11.175642151694653
      ],
      [
        "erai",
        -11.176689649196001
      ],
      [
        "mbe",
        -11.177744339003347
      ],
      [
        "▁Ñé",
        -11.17807813321295
      ],
      [
        "▁cara",
        -11.179269484837011
      ],
      [
        "▁hu",
        -11.181242538227696
      ],
      [
        "E",
        -11.181477377111198
      ],
      [
        "▁rep",
        -11.182876128605551
      ],
      [
        "antee",
        -11.183659317821284
      ],
      [
        "assiette",
        -11.183898552400143
      ],
      [
        "étage",
        -11.187925247773844
      ],
      [
        "▁mó",
        -11.188612295577727
      ],
      [
        "▁waxa",
        -11.189404757342393
      ],
      [
        "irent",
        -11.190848880100852
      ],
      [
        "sël",
        -11.19168869567164
      ],
      [
        "attrape",
        -11.193102879883897
      ],
      [
        "jàpp",
        -11.193429005374693
      ],
      [
        "min",
        -11.193819284437067
      ],
      [
        "bou",
        -11.195017225836509
      ],
      [
        "waan",
        -11.1969216062708
      ],
      [
        "▁Gisul",
        -11.196968295472365
      ],
      [
        "▁allon",
        -11.197150119982311
      ],
      [
        "allu",
        -11.197990394747013
      ],
      [
        "▁fû",
        -11.201412360489885
      ],
      [
        "▁gr",
        -11.204823243132545
      ],
      [
        "àndarma",
        -11.205777062914532
      ],
      [
        "▁Jë",
        -11.206213692037428
      ],
      [
        "ô",
        -11.208108588201036
      ],
      [
        "▁rencontr",
        -11.208585564311628
      ],
      [
        "press",
        -11.210460251638537
      ],
      [
        "sembl",
        -11.217914384676796
      ],
      [
        "▁appar",
        -11.220613724956214
      ],
      [
        "gay",
        -11.222422418828888
      ],
      [
        "aucun",
        -11.222648431875076
      ],
      [
        "▁së",
        -11.222972362099265
      ],
      [
        "▁personn",
        -11.224179015581603
      ],
      [
        "ut",
        -11.228559235887024
      ],
      [
        "▁course",
        -11.230014532915387
      ],
      [
        "▁Ré",
        -11.232433977766304
      ],
      [
        "'entr",
        -11.232580934693283
      ],
      [
        "âch",
        -11.233453232023873
      ],
      [
        "orte",
        -11.234677132859089
      ],
      [
        "versé",
        -11.235349584798094
      ],
      [
        "▁duu",
        -11.236868505233234
      ],
      [
        "ble",
        -11.23922382736193
      ],
      [
        "ille-",
        -11.239409746712854
      ],
      [
        "été",
        -11.242309449824644
      ],
      [
        "plais",
        -11.242400201325383
      ],
      [
        "ñca",
        -11.24520917888305
      ],
      [
        "uuf",
        -11.248521405654547
      ],
      [
        "▁pied",
        -11.249694803862099
      ],
      [
        "orsqu",
        -11.250078952913071
      ],
      [
        "▁rempli",
        -11.250174355192355
      ],
      [
        "pax",
        -11.251876262327391
      ],
      [
        "jul",
        -11.252288868349694
      ],
      [
        "jóo",
        -11.254543281970694
      ],
      [
        "sine",
        -11.255242298982758
      ],
      [
        "▁Daawu",
        -11.255326919571136
      ],
      [
        "enti",
        -11.261909069573704
      ],
      [
        "ciment",
        -11.262707447299068
      ],
      [
        "app",
        -11.264764184038565
      ],
      [
        "men",
        -11.265922671707084
      ],
      [
        "▁présen",
        -11.269765120742433
      ],
      [
        "▁yónne",
        -11.270094253743235
      ],
      [
        "▁nale",
        -11.272145083108933
      ],
      [
        "bë",
        -11.273157131517356
      ],
      [
        "▁ouvert",
        -11.273504522408338
      ],
      [
        "▁fekk",
        -11.273624738188872
      ],
      [
        "nant",
        -11.273688922382638
      ],
      [
        "s-ci",
        -11.274676250753892
      ],
      [
        "▁kaasam",
        -11.275468954228074
      ],
      [
        "ition",
        -11.275586783224465
      ],
      [
        "▁ouverte",
        -11.276710304240572
      ],
      [
        "▁plat",
        -11.277092476671188
      ],
      [
        "▁njà",
        -11.277110007919307
      ],
      [
        "▁bâton",
        -11.277578365614978
      ],
      [
        "▁veu",
        -11.28096064679379
      ],
      [
        "▁s'app",
        -11.284133692453073
      ],
      [
        "oyager",
        -11.284876041703125
      ],
      [
        "▁Ag",
        -11.28578364492734
      ],
      [
        "▁Peut",
        -11.28620247087101
      ],
      [
        "▁mbaxan",
        -11.28740440246697
      ],
      [
        "▁concer",
        -11.288117719926769
      ],
      [
        "blig",
        -11.288143614707248
      ],
      [
        "▁yàq",
        -11.28867541026452
      ],
      [
        "▁mois",
        -11.29085684781605
      ],
      [
        "écu",
        -11.291003675199816
      ],
      [
        "rte",
        -11.291167888864253
      ],
      [
        "▁Yée",
        -11.291242481863508
      ],
      [
        "▁yó",
        -11.29143698909249
      ],
      [
        "émo",
        -11.291811173613299
      ],
      [
        "lam",
        -11.292358515873907
      ],
      [
        "▁jigée",
        -11.292859255243286
      ],
      [
        "▁naqa",
        -11.293714095752387
      ],
      [
        "▁Pr",
        -11.294279291790899
      ],
      [
        "▁jigé",
        -11.29620790399277
      ],
      [
        "▁jour",
        -11.296452854821474
      ],
      [
        "▁tente",
        -11.298182093325222
      ],
      [
        "▁croi",
        -11.299611952123866
      ],
      [
        "'ave",
        -11.299776955724488
      ],
      [
        "▁yë",
        -11.299820448166416
      ],
      [
        "▁cohabite",
        -11.302963746277058
      ],
      [
        "▁épo",
        -11.305033946163284
      ],
      [
        "échan",
        -11.305133634976574
      ],
      [
        "ê",
        -11.305261182830865
      ],
      [
        "olitesse",
        -11.305483739673033
      ],
      [
        "▁daaw",
        -11.306144163212783
      ],
      [
        "perç",
        -11.306784117927698
      ],
      [
        "▁vérit",
        -11.308291607873045
      ],
      [
        "ommag",
        -11.308442954820386
      ],
      [
        "▁étudi",
        -11.30845763381197
      ],
      [
        "chelle",
        -11.30871334695142
      ],
      [
        "▁arme",
        -11.308879966281255
      ],
      [
        "cours",
        -11.309650441653412
      ],
      [
        "eaucoup",
        -11.309748915244377
      ],
      [
        "ivres",
        -11.30990597016003
      ],
      [
        "aleeku",
        -11.310293975864726
      ],
      [
        "▁français",
        -11.31032430269203
      ],
      [
        "▁fleu",
        -11.310635763614815
      ],
      [
        "neetar",
        -11.310639197150177
      ],
      [
        "▁au-dess",
        -11.310783006272665
      ],
      [
        "▁vêt",
        -11.31085735076981
      ],
      [
        "mnasti",
        -11.31095536685994
      ],
      [
        "▁dirige",
        -11.310986064672216
      ],
      [
        "ãŋ",
        -11.311089491010975
      ],
      [
        "irgo",
        -11.31110132130616
      ],
      [
        "▁kéw",
        -11.31110631183615
      ],
      [
        "▁certain",
        -11.311119165141593
      ],
      [
        "õ",
        -11.311134790488827
      ],
      [
        "▁1",
        -11.31121377266338
      ],
      [
        "ń",
        -11.3112293033883
      ],
      [
        "ò",
        -11.311229303428231
      ],
      [
        "í",
        -11.311229303428254
      ],
      [
        "ï",
        -11.311229303428254
      ],
      [
        "ā",
        -11.311229303428254
      ],
      [
        "$",
        -11.311229303428254
      ],
      [
        "[",
        -11.311229303428254
      ],
      [
        "]",
        -11.311229303428254
      ],
      [
        "stitué",
        -11.31124707703259
      ],
      [
        "▁thé",
        -11.311252496452408
      ],
      [
        "▁ŋgee",
        -11.311259433338604
      ],
      [
        "approch",
        -11.311283986082731
      ],
      [
        "▁constru",
        -11.311344545514672
      ],
      [
        "ëlë",
        -11.311561664310574
      ],
      [
        "olof",
        -11.311590305378473
      ],
      [
        "▁l'éc",
        -11.312007170496601
      ],
      [
        "mbali",
        -11.312319352055205
      ],
      [
        "vec",
        -11.312502424280856
      ],
      [
        "▁coute",
        -11.312817379056952
      ],
      [
        "ercle",
        -11.31303081234697
      ],
      [
        "ajal",
        -11.313034788104048
      ],
      [
        "▁descend",
        -11.313234959298057
      ],
      [
        "tuellement",
        -11.31382916927492
      ],
      [
        "àngal",
        -11.313946183395007
      ],
      [
        "▁dëg",
        -11.314190736905804
      ],
      [
        "iki",
        -11.315013702562684
      ],
      [
        "▁mê",
        -11.315200894299611
      ],
      [
        "t-c",
        -11.315650781608944
      ],
      [
        "aîne",
        -11.315661461656997
      ],
      [
        "innaaw",
        -11.31628729603373
      ],
      [
        "googee",
        -11.31633811699269
      ],
      [
        "▁l'ex",
        -11.316668536312203
      ],
      [
        "▁Musa",
        -11.31684281845757
      ],
      [
        "politesse",
        -11.317009062500563
      ],
      [
        "ceaux",
        -11.317127690349562
      ],
      [
        "impl",
        -11.317156578682276
      ],
      [
        "ndi",
        -11.317597678405487
      ],
      [
        "marin",
        -11.317809416765217
      ],
      [
        "▁revien",
        -11.317811735867803
      ],
      [
        "▁yaak",
        -11.318082941443368
      ],
      [
        "bond",
        -11.318254030406951
      ],
      [
        "▁inté",
        -11.318390987292585
      ],
      [
        "proch",
        -11.318428070383849
      ],
      [
        "▁solda",
        -11.318974093461103
      ],
      [
        "çu",
        -11.319051243666818
      ],
      [
        "alité",
        -11.319531831450426
      ],
      [
        "▁just",
        -11.320639124882824
      ],
      [
        "▁tiss",
        -11.3208986282173
      ],
      [
        "illir",
        -11.321289347866815
      ],
      [
        "▁Pou",
        -11.321576278643839
      ],
      [
        "dimbal",
        -11.322241833733653
      ],
      [
        "'ve",
        -11.32361814944516
      ],
      [
        "'enfan",
        -11.32387522411181
      ],
      [
        "ggoon",
        -11.324302312038515
      ],
      [
        "▁fran",
        -11.324768769334076
      ],
      [
        "ndika",
        -11.324841852325855
      ],
      [
        "itude",
        -11.325381342480185
      ],
      [
        "ardé",
        -11.325504905387508
      ],
      [
        "liers",
        -11.325660468807243
      ],
      [
        "amaale",
        -11.326961550584432
      ],
      [
        "tëli",
        -11.327021838268132
      ],
      [
        "▁l'h",
        -11.327061913294447
      ],
      [
        "tbal",
        -11.327512163310189
      ],
      [
        "sang",
        -11.327539754965686
      ],
      [
        "-t",
        -11.328225543516975
      ],
      [
        "eloon",
        -11.32845177244555
      ],
      [
        "▁conce",
        -11.329229737890513
      ],
      [
        "diku",
        -11.330404157000137
      ],
      [
        "atum",
        -11.33063407830713
      ],
      [
        "▁cli",
        -11.332491934386269
      ],
      [
        "▁bã",
        -11.33297584155179
      ],
      [
        "tué",
        -11.33355237736492
      ],
      [
        "étend",
        -11.333774768283204
      ],
      [
        "ller",
        -11.33560236996605
      ],
      [
        "kum",
        -11.33560773197501
      ],
      [
        "▁util",
        -11.335986440894622
      ],
      [
        "mages",
        -11.336294757861603
      ],
      [
        "jus",
        -11.33650683382281
      ],
      [
        "▁yegg",
        -11.336787509373135
      ],
      [
        "asiyo",
        -11.33778851552123
      ],
      [
        "▁fanee",
        -11.337853634538725
      ],
      [
        "▁dég",
        -11.338033821561968
      ],
      [
        "épare",
        -11.338449746237274
      ],
      [
        "▁xel",
        -11.339126600928319
      ],
      [
        "ennent",
        -11.340002275673145
      ],
      [
        "géey",
        -11.34102384846935
      ],
      [
        "ëy",
        -11.34144255502195
      ],
      [
        "ffr",
        -11.342160087412896
      ],
      [
        "▁revi",
        -11.343597333647521
      ],
      [
        "fic",
        -11.34450130454264
      ],
      [
        "▁L'au",
        -11.34569224714083
      ],
      [
        "ège",
        -11.346238046299659
      ],
      [
        "▁Tug",
        -11.346860580677166
      ],
      [
        "▁wë",
        -11.34714457142399
      ],
      [
        "port",
        -11.347436600944915
      ],
      [
        "uche.",
        -11.348255353987826
      ],
      [
        "▁Sig",
        -11.349720481874481
      ],
      [
        "pè",
        -11.350849513287049
      ],
      [
        "acti",
        -11.352296115377195
      ],
      [
        "▁Pala",
        -11.35252346270495
      ],
      [
        "eut-être",
        -11.353633281594245
      ],
      [
        "lave",
        -11.354487991124046
      ],
      [
        "que.",
        -11.357468159137971
      ],
      [
        "eku",
        -11.35773180845353
      ],
      [
        "▁Né",
        -11.357890290140386
      ],
      [
        "▁laq",
        -11.358232639772911
      ],
      [
        "▁travaille",
        -11.359139844224783
      ],
      [
        "▁dikk",
        -11.359245028805988
      ],
      [
        "ges",
        -11.360520962718619
      ],
      [
        "▁env",
        -11.360946122149372
      ],
      [
        "ôn",
        -11.363241835110863
      ],
      [
        "▁kaf",
        -11.363341595463247
      ],
      [
        "isite",
        -11.363497047282005
      ],
      [
        "▁dellu",
        -11.363568221107549
      ],
      [
        "cukaay",
        -11.364925099458652
      ],
      [
        "nglais",
        -11.365106907475125
      ],
      [
        "▁tenu",
        -11.365576052486926
      ],
      [
        "Gis",
        -11.367115607814588
      ],
      [
        "appé",
        -11.367115924155963
      ],
      [
        "ëggu",
        -11.36798650182047
      ],
      [
        "▁jëf",
        -11.368320063775423
      ],
      [
        "esca",
        -11.370999256695988
      ],
      [
        "'agir",
        -11.37140847877891
      ],
      [
        "Ma",
        -11.372717671685066
      ],
      [
        "ssées",
        -11.372797711363752
      ],
      [
        "▁serr",
        -11.372959997309064
      ],
      [
        "▁pre",
        -11.373204481206484
      ],
      [
        "aire",
        -11.37598509003778
      ],
      [
        "▁Lool",
        -11.380104095783683
      ],
      [
        "ments",
        -11.380249213828437
      ],
      [
        "▁sav",
        -11.385192718518315
      ],
      [
        "▁xoole",
        -11.385830755976848
      ],
      [
        "aasamaas",
        -11.385831355761194
      ],
      [
        "éeru",
[...]
