{
  "version": "1.0",
  "truncation": null,
  "padding": null,
  "added_tokens": [
    {
      "id": 0,
      "content": "<cls>",
      "single_word": false,
      "lstrip": false,
      "rstrip": false,
      "normalized": false,
      "special": true
    },
    {
      "id": 1,
      "content": "<sep>",
      "single_word": false,
      "lstrip": false,
      "rstrip": false,
      "normalized": false,
      "special": true
    },
    {
      "id": 2,
      "content": "<unk>",
      "single_word": false,
      "lstrip": false,
      "rstrip": false,
      "normalized": false,
      "special": true
    },
    {
      "id": 3,
      "content": "<pad>",
      "single_word": false,
      "lstrip": false,
      "rstrip": false,
      "normalized": false,
      "special": true
    },
    {
      "id": 4,
      "content": "<mask>",
      "single_word": false,
      "lstrip": false,
      "rstrip": false,
      "normalized": false,
      "special": true
    },
    {
      "id": 5,
      "content": "<s>",
      "single_word": false,
      "lstrip": false,
      "rstrip": false,
      "normalized": false,
      "special": true
    },
    {
      "id": 6,
      "content": "</s>",
      "single_word": false,
      "lstrip": false,
      "rstrip": false,
      "normalized": false,
      "special": true
    }
  ],
  "normalizer": {
    "type": "Replace",
    "pattern": {
      "String": " {2,}"
    },
    "content": " "
  },
  "pre_tokenizer": {
    "type": "Metaspace",
    "replacement": "▁",
    "add_prefix_space": true
  },
  "post_processor": null,
  "decoder": {
    "type": "Metaspace",
    "replacement": "▁",
    "add_prefix_space": true
  },
  "model": {
    "type": "Unigram",
    "unk_id": 2,
    "vocab": [
      [
        "<cls>",
        0.0
      ],
      [
        "<sep>",
        0.0
      ],
      [
        "<unk>",
        0.0
      ],
      [
        "<pad>",
        0.0
      ],
      [
        "<mask>",
        0.0
      ],
      [
        "<s>",
        0.0
      ],
      [
        "</s>",
        0.0
      ],
      [
        ",",
        -3.0485254289766175
      ],
      [
        "▁",
        -3.0567421977859617
      ],
      [
        ".",
        -3.3177133512991634
      ],
      [
        "▁de",
        -4.15094931331412
      ],
      [
        "s",
        -4.192776436542325
      ],
      [
        "▁la",
        -4.256180137229595
      ],
      [
        "▁ci",
        -4.603168229526449
      ],
      [
        "e",
        -4.652023320386365
      ],
      [
        "y",
        -4.671540356379466
      ],
      [
        "i",
        -4.901857627091278
      ],
      [
        "a",
        -4.997790165115487
      ],
      [
        "▁a",
        -5.080564126158333
      ],
      [
        "u",
        -5.084255247100041
      ],
      [
        "▁des",
        -5.203410550012579
      ],
      [
        "▁qui",
        -5.284235643234051
      ],
      [
        "▁à",
        -5.313151383189863
      ],
      [
        "▁les",
        -5.3267374775817204
      ],
      [
        "▁mu",
        -5.360791416902059
      ],
      [
        "▁le",
        -5.371745539424125
      ],
      [
        "▁ni",
        -5.404462437328147
      ],
      [
        "▁na",
        -5.414551478565122
      ],
      [
        "▁ma",
        -5.422070339938128
      ],
      [
        "r",
        -5.460952684563357
      ],
      [
        "▁bi",
        -5.487743564779251
      ],
      [
        "▁ne",
        -5.487750855443225
      ],
      [
        "!",
        -5.489614178605757
      ],
      [
        "▁!",
        -5.493479472711261
      ],
      [
        "▁que",
        -5.497936610521458
      ],
      [
        "▁du",
        -5.531761598708685
      ],
      [
        "▁et",
        -5.5337113526882575
      ],
      [
        "▁di",
        -5.534353264330498
      ],
      [
        "▁un",
        -5.538780101269684
      ],
      [
        "▁ko",
        -5.540223485573005
      ],
      [
        "▁?",
        -5.545878496496647
      ],
      [
        "▁ba",
        -5.552039978314704
      ],
      [
        "t",
        -5.569446927574711
      ],
      [
        "?",
        -5.644426338768567
      ],
      [
        "▁pas",
        -5.66711687119038
      ],
      [
        "▁ñu",
        -5.724174317524514
      ],
      [
        "▁est",
        -5.73548264148667
      ],
      [
        "▁ak",
        -5.746067018795092
      ],
      [
        "n",
        -5.756994803006084
      ],
      [
        "▁gi",
        -5.775839774737274
      ],
      [
        "▁yi",
        -5.7866940877455075
      ],
      [
        "▁yu",
        -5.787029204589094
      ],
      [
        "▁bu",
        -5.791159603131019
      ],
      [
        "▁Il",
        -5.813088711928012
      ],
      [
        "▁dem",
        -5.836144000276128
      ],
      [
        "▁dans",
        -5.839794207396448
      ],
      [
        "une",
        -5.844586357015502
      ],
      [
        "▁en",
        -5.8511278423620245
      ],
      [
        "l",
        -5.971020420096044
      ],
      [
        "▁ay",
        -5.9780027676413905
      ],
      [
        "et",
        -6.00923285981694
      ],
      [
        "▁naa",
        -6.0472996902808775
      ],
      [
        "▁pour",
        -6.122827674885293
      ],
      [
        "▁C'est",
        -6.124689848470087
      ],
      [
        "▁ngi",
        -6.125920208934319
      ],
      [
        "▁fa",
        -6.143707386915988
      ],
      [
        "▁lu",
        -6.147575995914921
      ],
      [
        "▁seen",
        -6.1515781752422
      ],
      [
        "▁ce",
        -6.217405823930203
      ],
      [
        "▁am",
        -6.226623693519563
      ],
      [
        "▁woon",
        -6.236928304243849
      ],
      [
        "▁te",
        -6.238422957942933
      ],
      [
        "▁sama",
        -6.307268555422971
      ],
      [
        "▁sur",
        -6.330280749761278
      ],
      [
        "▁c",
        -6.3375886818502964
      ],
      [
        "▁qu'il",
        -6.349223124748133
      ],
      [
        "▁ca",
        -6.350674234263522
      ],
      [
        "▁au",
        -6.364729621144284
      ],
      [
        "▁je",
        -6.372370656860172
      ],
      [
        "▁vu",
        -6.373823785877664
      ],
      [
        "▁il",
        -6.375083072910401
      ],
      [
        "à",
        -6.381027192101717
      ],
      [
        ":",
        -6.389291154760042
      ],
      [
        "▁Je",
        -6.392408001698758
      ],
      [
        "▁sont",
        -6.3940205278706115
      ],
      [
        "▁daan",
        -6.396062956000068
      ],
      [
        "▁sa",
        -6.405975738653276
      ],
      [
        "▁avec",
        -6.408861036431888
      ],
      [
        "▁y",
        -6.420866406197463
      ],
      [
        "▁gis",
        -6.449363707385864
      ],
      [
        "▁doon",
        -6.453765512052978
      ],
      [
        "▁par",
        -6.4810440014062545
      ],
      [
        "▁ŋga",
        -6.510200954527754
      ],
      [
        "oon",
        -6.5177427953360425
      ],
      [
        "▁nag",
        -6.5186245669009315
      ],
      [
        "▁xam",
        -6.522728643333703
      ],
      [
        "▁leen",
        -6.535066261762993
      ],
      [
        "ent",
        -6.55894831132738
      ],
      [
        "le",
        -6.562944017631372
      ],
      [
        "é",
        -6.5716475852890595
      ],
      [
        "▁mi",
        -6.577620946320408
      ],
      [
        "▁mon",
        -6.5825032615238435
      ],
      [
        "▁père",
        -6.600923532339109
      ],
      [
        "▁wax",
        -6.600978578268826
      ],
      [
        "▁se",
        -6.602797018462813
      ],
      [
        "am",
        -6.61630033720108
      ],
      [
        "▁nekk",
        -6.622636180017634
      ],
      [
        "▁benn",
        -6.630432537535435
      ],
      [
        "k",
        -6.640905714914059
      ],
      [
        "▁Góo",
        -6.647941062454195
      ],
      [
        "▁Baay",
        -6.670945942285928
      ],
      [
        "▁mel",
        -6.6868458987125745
      ],
      [
        "▁nit",
        -6.694406195989661
      ],
      [
        "▁si",
        -6.703904380181933
      ],
      [
        "es",
        -6.706818514426223
      ],
      [
        "▁tu",
        -6.709772253183021
      ],
      [
        "nt",
        -6.709915517233837
      ],
      [
        "▁Gis",
        -6.717433437144246
      ],
      [
        "m",
        -6.720540708935832
      ],
      [
        "▁l'",
        -6.7217921201708455
      ],
      [
        "al",
        -6.735058576534968
      ],
      [
        "▁nga",
        -6.741037509552834
      ],
      [
        "▁été",
        -6.742560072985286
      ],
      [
        "▁sax",
        -6.750503750409638
      ],
      [
        "▁Afrig",
        -6.769642331779077
      ],
      [
        "▁moom",
        -6.773326608367435
      ],
      [
        "▁où",
        -6.7778439655519716
      ],
      [
        "▁son",
        -6.788926294737371
      ],
      [
        "▁homme",
        -6.793298745152371
      ],
      [
        "▁moo",
        -6.793847162796661
      ],
      [
        "ette",
        -6.796343979590748
      ],
      [
        "les",
        -6.805428593557669
      ],
      [
        "er",
        -6.811350179847718
      ],
      [
        "▁ya",
        -6.814457121667943
      ],
      [
        "il",
        -6.82097473806045
      ],
      [
        "▁plus",
        -6.846895260510322
      ],
      [
        "▁Tu",
        -6.853288815670911
      ],
      [
        "▁lui",
        -6.853511753732209
      ],
      [
        "▁def",
        -6.86749547905496
      ],
      [
        "▁biir",
        -6.872858719392703
      ],
      [
        "▁J'ai",
        -6.877766395922848
      ],
      [
        "▁d'un",
        -6.894751191815144
      ],
      [
        "ait",
        -6.902476298465825
      ],
      [
        "▁L'homme",
        -6.903508598759366
      ],
      [
        "▁d",
        -6.904368879922236
      ],
      [
        "▁nu",
        -6.91463561680035
      ],
      [
        "que",
        -6.931178560395162
      ],
      [
        "ak",
        -6.932653882053653
      ],
      [
        "▁su",
        -6.939985044266883
      ],
      [
        "«",
        -6.943016473220169
      ],
      [
        "▁tout",
        -6.946854989027393
      ],
      [
        "▁ñëw",
        -6.947182551876887
      ],
      [
        "▁c'est",
        -6.958744089091621
      ],
      [
        "▁nous",
        -6.966495903191609
      ],
      [
        "▁Le",
        -6.967037625876992
      ],
      [
        "▁La",
        -6.969552769378088
      ],
      [
        "▁avait",
        -6.995040816540536
      ],
      [
        "g",
        -7.002775856230173
      ],
      [
        "▁l",
        -7.003557370649615
      ],
      [
        "▁li",
        -7.009277140843807
      ],
      [
        "▁kenn",
        -7.023837808883012
      ],
      [
        "b",
        -7.024903831577279
      ],
      [
        "▁ku",
        -7.030403227051597
      ],
      [
        "▁Ci",
        -7.042599833798195
      ],
      [
        "▁Les",
        -7.051845620225539
      ],
      [
        "▁»",
        -7.054621860585882
      ],
      [
        "▁s",
        -7.059636464792412
      ],
      [
        "it",
        -7.060057678136425
      ],
      [
        "▁góor",
        -7.061784325034645
      ],
      [
        "s.",
        -7.065032018481711
      ],
      [
        "▁nataal",
        -7.084783978467818
      ],
      [
        "▁ab",
        -7.091040614811349
      ],
      [
        "▁bii",
        -7.113303626387967
      ],
      [
        "▁photo",
        -7.119271503606664
      ],
      [
        "▁gu",
        -7.121178491020567
      ],
      [
        "ment",
        -7.131271312178285
      ],
      [
        "-",
        -7.131696436072038
      ],
      [
        "▁n",
        -7.13720046348636
      ],
      [
        "▁enfants",
        -7.1376853204924755
      ],
      [
        "ul",
        -7.140247792113884
      ],
      [
        "▁fi",
        -7.140708682133785
      ],
      [
        "▁autre",
        -7.147447848346905
      ],
      [
        "▁l'homme",
        -7.149796711284327
      ],
      [
        "ant",
        -7.16104629333205
      ],
      [
        "▁may",
        -7.165787697546271
      ],
      [
        "leurs",
        -7.188883923499244
      ],
      [
        "▁ñi",
        -7.193552280515872
      ],
      [
        "on",
        -7.196856927141018
      ],
      [
        "▁aussi",
        -7.20692037998297
      ],
      [
        "d",
        -7.210452358116674
      ],
      [
        "▁mën",
        -7.212287696339464
      ],
      [
        "▁d'",
        -7.226741108998952
      ],
      [
        "▁rekk",
        -7.231108012780808
      ],
      [
        "▁lool",
        -7.2313302217241695
      ],
      [
        "▁dafa",
        -7.231860442416021
      ],
      [
        "▁comme",
        -7.234380499547178
      ],
      [
        "▁dal",
        -7.248807946615947
      ],
      [
        "te",
        -7.252184669702963
      ],
      [
        "oo",
        -7.254643122736543
      ],
      [
        "▁ou",
        -7.259306874022795
      ],
      [
        "e,",
        -7.2637156971656145
      ],
      [
        "▁dara",
        -7.2676838490822595
      ],
      [
        "▁Nit",
        -7.271636966982686
      ],
      [
        "▁A",
        -7.279483433044208
      ],
      [
        "▁mère",
        -7.279916881511706
      ],
      [
        "▁ces",
        -7.2799417648587585
      ],
      [
        "▁dëkk",
        -7.285663689224552
      ],
      [
        "▁Sur",
        -7.295618381951735
      ],
      [
        "▁ji",
        -7.301578036870765
      ],
      [
        "di",
        -7.305134887222602
      ],
      [
        "▁bëgg",
        -7.3096690669146005
      ],
      [
        "▁parti",
        -7.31356384104537
      ],
      [
        "▁Am",
        -7.317314635057178
      ],
      [
        "▁ju",
        -7.334225085813844
      ],
      [
        "▁me",
        -7.334493845755307
      ],
      [
        "▁ñaar",
        -7.336258970427978
      ],
      [
        "▁fu",
        -7.343433048753963
      ],
      [
        "▁même",
        -7.344441154731039
      ],
      [
        "▁cet",
        -7.34538778492026
      ],
      [
        "▁moi",
        -7.347479889889538
      ],
      [
        "▁maison",
        -7.361313074647536
      ],
      [
        "▁m",
        -7.365368359725456
      ],
      [
        "ee",
        -7.370143859119095
      ],
      [
        "▁teg",
        -7.371770580092473
      ],
      [
        "▁kër",
        -7.383579673256483
      ],
      [
        "▁pays",
        -7.396727275007057
      ],
      [
        "▁xale",
        -7.396930153803285
      ],
      [
        "▁ndax",
        -7.399892287089109
      ],
      [
        "ay",
        -7.400824917675898
      ],
      [
        "x",
        -7.408763837319374
      ],
      [
        "▁la.",
        -7.4122203469532835
      ],
      [
        "▁Nataal",
        -7.416830698871106
      ],
      [
        "▁gën",
        -7.418255865706511
      ],
      [
        "en",
        -7.422768254559918
      ],
      [
        "▁Ce",
        -7.422990611941025
      ],
      [
        "▁jigéen",
        -7.423020121989411
      ],
      [
        "▁était",
        -7.423511290616912
      ],
      [
        "▁là",
        -7.425389108838191
      ],
      [
        "▁ki",
        -7.426268121827168
      ],
      [
        "▁Su",
        -7.4267142770838275
      ],
      [
        "un",
        -7.42836893078052
      ],
      [
        "▁san",
        -7.42967561872879
      ],
      [
        "▁boo",
        -7.4357416851499964
      ],
      [
        "ñ",
        -7.436367781544266
      ],
      [
        "▁mbaa",
        -7.443633496287627
      ],
      [
        "ses",
        -7.463891967777026
      ],
      [
        "▁–",
        -7.483272993458551
      ],
      [
        "▁laa",
        -7.487938283872788
      ],
      [
        "▁ñoo",
        -7.489400167545311
      ],
      [
        "o",
        -7.497670242761517
      ],
      [
        "▁chose",
        -7.509105429327006
      ],
      [
        "▁j'ai",
        -7.50921734177041
      ],
      [
        "▁À",
        -7.510545977236244
      ],
      [
        "ils",
        -7.513650841302341
      ],
      [
        "'est",
        -7.520371420806889
      ],
      [
        "▁lépp",
        -7.5258034585072116
      ],
      [
        "▁Un",
        -7.530933416158405
      ],
      [
        "ne",
        -7.5392786205329205
      ],
      [
        "▁qu'on",
        -7.5415433429875085
      ],
      [
        "▁D",
        -7.552709039542057
      ],
      [
        "▁vois",
        -7.554057018012435
      ],
      [
        "▁yi.",
        -7.556417397617096
      ],
      [
        "▁weex",
        -7.5575531495142565
      ],
      [
        "▁walla",
        -7.56351998564066
      ],
      [
        "▁Mu",
        -7.576130146080294
      ],
      [
        "▁loolu",
        -7.576521097031139
      ],
      [
        "ci",
        -7.579575785813039
      ],
      [
        "▁man",
        -7.5889486790481
      ],
      [
        "▁l'intérieur",
        -7.592147020952174
      ],
      [
        "eneen",
        -7.599621931898259
      ],
      [
        "▁Ma",
        -7.606790193739744
      ],
      [
        "▁Li",
        -7.608097769743164
      ],
      [
        "▁J",
        -7.6111209403100455
      ],
      [
        "▁war",
        -7.615445401472544
      ],
      [
        "ma",
        -7.616465573851654
      ],
      [
        "▁baax",
        -7.618370243385551
      ],
      [
        "▁fait",
        -7.619051328221444
      ],
      [
        "▁parle",
        -7.620811459536822
      ],
      [
        "ŋ",
        -7.622374885429653
      ],
      [
        "▁ŋgi",
        -7.622714705145704
      ],
      [
        "▁De",
        -7.626299257864161
      ],
      [
        "▁Waaye",
        -7.627012901026159
      ],
      [
        "woon",
        -7.630185165841203
      ],
      [
        "▁xar",
        -7.630312058876141
      ],
      [
        "▁leur",
        -7.631839103014885
      ],
      [
        "▁mag",
        -7.638790632604599
      ],
      [
        "▁bien",
        -7.6393957897045945
      ],
      [
        "▁très",
        -7.644935744781828
      ],
      [
        "aient",
        -7.646239742626793
      ],
      [
        "▁cela",
        -7.6543788936517085
      ],
      [
        "▁yaay",
        -7.658132130164389
      ],
      [
        "re",
        -7.658140483943866
      ],
      [
        "▁garab",
        -7.658396377687668
      ],
      [
        "▁Te",
        -7.665537919004342
      ],
      [
        "▁vous",
        -7.67212074043019
      ],
      [
        "▁En",
        -7.67486642807337
      ],
      [
        "e.",
        -7.684009811821653
      ],
      [
        "▁yoon",
        -7.68419342183075
      ],
      [
        "▁ñoom",
        -7.688208831305946
      ],
      [
        "la",
        -7.700532522707771
      ],
      [
        "▁néeg",
        -7.712397469274568
      ],
      [
        "▁mais",
        -7.713350396918228
      ],
      [
        "▁couleur",
        -7.7141404140159855
      ],
      [
        "▁koo",
        -7.715088892927961
      ],
      [
        "▁yépp",
        -7.722746311812639
      ],
      [
        "▁L",
        -7.72565111340918
      ],
      [
        "▁deux",
        -7.728192621359835
      ],
      [
        "▁Waaw",
        -7.728195007144501
      ],
      [
        "▁monde",
        -7.729690942051407
      ],
      [
        ";",
        -7.736954824043813
      ],
      [
        "▁Maa",
        -7.740789968728289
      ],
      [
        "▁demee",
        -7.741275841774195
      ],
      [
        "▁Mais",
        -7.7421602632489055
      ],
      [
        "▁sunu",
        -7.747777151427957
      ],
      [
        "▁guerre",
        -7.749109248101696
      ],
      [
        ")",
        -7.74932715164164
      ],
      [
        "▁yiy",
        -7.750135613130894
      ],
      [
        "▁G",
        -7.750429479219543
      ],
      [
        "▁aux",
        -7.753894235261585
      ],
      [
        "▁jusqu'",
        -7.753960077297219
      ],
      [
        "▁réew",
        -7.755786939864048
      ],
      [
        "▁suuf",
        -7.7615540970797685
      ],
      [
        "▁ka",
        -7.762277492505881
      ],
      [
        "▁Du",
        -7.763805228407489
      ],
      [
        "▁temps",
        -7.764495131797322
      ],
      [
        "ée",
        -7.77399213750504
      ],
      [
        "▁dul",
        -7.775746265567597
      ],
      [
        "▁lañu",
        -7.775839179633339
      ],
      [
        "▁tamit",
        -7.782607607189334
      ],
      [
        "▁bés",
        -7.788336714390543
      ],
      [
        "▁gone",
        -7.7886343797080055
      ],
      [
        "▁P",
        -7.793578867179285
      ],
      [
        "▁dañ",
        -7.798888962977895
      ],
      [
        "▁sol",
        -7.80112403079114
      ],
      [
        "▁Ogosaa",
        -7.803858620277698
      ],
      [
        "▁celui-là",
        -7.804135543776088
      ],
      [
        "▁porte",
        -7.804305869439695
      ],
      [
        "▁vie",
        -7.808828012371809
      ],
      [
        "▁n'es",
        -7.811802825337903
      ],
      [
        "▁toog",
        -7.812813970390047
      ],
      [
        "ont",
        -7.823035641922829
      ],
      [
        "▁bopp",
        -7.823560242996797
      ],
      [
        "▁yooyu",
        -7.824324610144453
      ],
      [
        "▁dit",
        -7.826733172010206
      ],
      [
        "▁Ñu",
        -7.827328095719512
      ],
      [
        "▁lii",
        -7.828007820995398
      ],
      [
        "▁femme",
        -7.830494854641437
      ],
      [
        "▁tax",
        -7.834516447627571
      ],
      [
        "▁n'",
        -7.837250694009473
      ],
      [
        "▁part",
        -7.841724617922811
      ],
      [
        "▁partir",
        -7.8480350204004825
      ],
      [
        "▁xel",
        -7.848811987879288
      ],
      [
        "▁S",
        -7.850212907743759
      ],
      [
        "▁noppi",
        -7.8506821974695296
      ],
      [
        "▁quelque",
        -7.85165592516415
      ],
      [
        "▁tey",
        -7.85356579687842
      ],
      [
        "is",
        -7.856978680441409
      ],
      [
        "▁fekk",
        -7.86776559517226
      ],
      [
        "▁ndaw",
        -7.86971775930199
      ],
      [
        "▁yaram",
        -7.873294767565245
      ],
      [
        "▁tou",
        -7.8760134649126385
      ],
      [
        "▁ag",
        -7.883269585991051
      ],
      [
        "w",
        -7.885068064571927
      ],
      [
        "▁cha",
        -7.888413562663624
      ],
      [
        "▁waay",
        -7.888934500930325
      ],
      [
        "▁Tugal",
        -7.893651881126253
      ],
      [
        "▁jëm",
        -7.894832193038255
      ],
      [
        "▁b",
        -7.897029939469946
      ],
      [
        "▁Nou",
        -7.901846276244919
      ],
      [
        "▁ànd",
        -7.903191774085733
      ],
      [
        "▁O",
        -7.907463674017256
      ],
      [
        "▁f",
        -7.912236062698684
      ],
      [
        "▁Dem",
        -7.913704172535659
      ],
      [
        "'",
        -7.914634772543604
      ],
      [
        "▁on",
        -7.915954452343204
      ],
      [
        "▁doŋŋ",
        -7.917378285202243
      ],
      [
        "▁mouton",
        -7.91828835414459
      ],
      [
        "▁boobu",
        -7.919132429109867
      ],
      [
        "▁n'a",
        -7.919558518993039
      ],
      [
        "▁gens",
        -7.920542007393123
      ],
      [
        "▁Cet",
        -7.923326568128902
      ],
      [
        "eux",
        -7.9310325273383615
      ],
      [
        "yeek",
        -7.933807383815209
      ],
      [
        "▁venu",
        -7.935848915325932
      ],
      [
        "de",
        -7.937125748232955
      ],
      [
        "▁maa",
        -7.941371166927388
      ],
      [
        "▁jamono",
        -7.941851000590789
      ],
      [
        "▁encore",
        -7.941886845102055
      ],
      [
        "▁as",
        -7.944164591424286
      ],
      [
        "▁doole",
        -7.94581844334046
      ],
      [
        "▁veux",
        -7.946738008846086
      ],
      [
        "▁faire",
        -7.946996752141628
      ],
      [
        "▁it",
        -7.949036454161066
      ],
      [
        "▁toi",
        -7.951159998566574
      ],
      [
        "▁k",
        -7.9529058792324925
      ],
      [
        "▁wër",
        -7.9562694365255044
      ],
      [
        "▁soo",
        -7.959490910113724
      ],
      [
        "▁amul",
        -7.9611284169567895
      ],
      [
        "▁ñuul",
        -7.962371911369752
      ],
      [
        "▁kow",
        -7.962910678958393
      ],
      [
        "▁nañ",
        -7.963535761711993
      ],
      [
        "ngir",
        -7.967633014652662
      ],
      [
        "▁qu'elle",
        -7.967635782804727
      ],
      [
        "c",
        -7.96765847690794
      ],
      [
        "▁ga",
        -7.97086220374001
      ],
      [
        "ñu",
        -7.971542548575484
      ],
      [
        "▁j'",
        -7.971991952415675
      ],
      [
        "▁ñax",
        -7.976212126605117
      ],
      [
        "▁dont",
        -7.976252714860259
      ],
      [
        "▁yëg",
        -7.976747395201649
      ],
      [
        "▁être",
        -7.987909895382796
      ],
      [
        "▁rafet",
        -7.989157118057667
      ],
      [
        "▁réer",
        -7.99207360772361
      ],
      [
        "▁voilà",
        -7.992441379132155
      ],
      [
        "▁Si",
        -7.993404257687626
      ],
      [
        "▁(",
        -7.99719795251501
      ],
      [
        "▁t",
        -7.99734929119167
      ],
      [
        "▁Quel",
        -7.997509543316692
      ],
      [
        "▁nañu",
        -7.999776220424048
      ],
      [
        "▁naan",
        -8.001653926288249
      ],
      [
        "▁Moo",
        -8.004177742801748
      ],
      [
        "▁demul",
        -8.011725623604024
      ],
      [
        "▁liggéey",
        -8.01494480612975
      ],
      [
        "▁p",
        -8.018395146240735
      ],
      [
        "▁àll",
        -8.018434865915125
      ],
      [
        "▁l'a",
        -8.021319927997476
      ],
      [
        "▁N",
        -8.027382884487176
      ],
      [
        "▁C",
        -8.027950052017529
      ],
      [
        "▁daal",
        -8.029179126003468
      ],
      [
        "tu",
        -8.0314594408154
      ],
      [
        "▁ont",
        -8.032028280317776
      ],
      [
        "▁peu",
        -8.034021074337256
      ],
      [
        "▁ñépp",
        -8.045814188471113
      ],
      [
        "▁Ndax",
        -8.046720507461277
      ],
      [
        "tre",
        -8.049222502842303
      ],
      [
        "eek",
        -8.049587472128543
      ],
      [
        "ù",
        -8.054927397701096
      ],
      [
        "▁lañ",
        -8.05967764465123
      ],
      [
        "▁wi",
        -8.060070194631512
      ],
      [
        "▁l'autre",
        -8.073790494924346
      ],
      [
        "▁dañu",
        -8.079010447673484
      ],
      [
        "▁Mon",
        -8.080209279531246
      ],
      [
        "▁bari",
        -8.082909674861668
      ],
      [
        "▁jël",
        -8.087408610616155
      ],
      [
        "ions",
        -8.087479564045488
      ],
      [
        "▁xare",
        -8.08774341057175
      ],
      [
        "▁itam",
        -8.089976581474307
      ],
      [
        "..",
        -8.094270330311984
      ],
      [
        "▁àddina",
        -8.094483244070382
      ],
      [
        "és",
        -8.094813396869913
      ],
      [
        "▁jot",
        -8.094957135286535
      ],
      [
        "est",
        -8.095799906218613
      ],
      [
        "▁taxaw",
        -8.10073316282266
      ],
      [
        "▁jamais",
        -8.102023715809752
      ],
      [
        "▁génn",
        -8.108750978112818
      ],
      [
        "▁saa",
        -8.110401380289325
      ],
      [
        "▁rien",
        -8.110540299362574
      ],
      [
        "▁m'a",
        -8.116186524162517
      ],
      [
        "▁semble",
        -8.116260123676296
      ],
      [
        "▁personne",
        -8.11779984320853
      ],
      [
        "▁at",
        -8.118540616123449
      ],
      [
        "▁loxo",
        -8.122271014354913
      ],
      [
        "quelle",
        -8.123612823358734
      ],
      [
        "▁femmes",
        -8.130370800740433
      ],
      [
        "ce",
        -8.130931950536823
      ],
      [
        "▁corps",
        -8.131800045473302
      ],
      [
        "▁Comme",
        -8.132257053472117
      ],
      [
        "▁xonq",
        -8.13442002296825
      ],
      [
        "▁Ba",
        -8.141329575115117
      ],
      [
        "▁sous",
        -8.143039072815956
      ],
      [
        "épp",
        -8.143501748854623
      ],
      [
        "▁M",
        -8.144186406670485
      ],
      [
        "ni",
        -8.146482035669266
      ],
      [
        "▁ŋgeen",
        -8.14702429992643
      ],
      [
        "▁Daf",
        -8.14710823778518
      ],
      [
        "▁jóge",
        -8.149018431308418
      ],
      [
        "▁waa",
        -8.150523136520576
      ],
      [
        "▁Xam",
        -8.154613483701679
      ],
      [
        "▁xarit",
        -8.156693143736975
      ],
      [
        "▁bët",
        -8.157343527021572
      ],
      [
        "▁doute",
        -8.161675240230757
      ],
      [
        "▁ban",
        -8.16517544041658
      ],
      [
        "▁dugg",
        -8.174322791976612
      ],
      [
        "s-tu",
        -8.178979642065368
      ],
      [
        "▁i",
        -8.183238418904219
      ],
      [
        "ation",
        -8.183503384846002
      ],
      [
        "f",
        -8.187753027981849
      ],
      [
        "▁va",
        -8.188017211369221
      ],
      [
        "▁ja",
        -8.192345094892545
      ],
      [
        "▁da",
        -8.194598045590723
      ],
      [
        "▁dégg",
        -8.195427895148175
      ],
      [
        "▁noonu",
        -8.198066341011828
      ],
      [
        "▁mes",
        -8.20278910109786
      ],
      [
        "kat",
        -8.215421554360754
      ],
      [
        "▁mbir",
        -8.219289772532372
      ],
      [
        "▁kaw",
        -8.223782777219174
      ],
      [
        "▁loin",
        -8.224562700529614
      ],
      [
        "▁sorte",
        -8.224746087721712
      ],
      [
        "▁là-bas",
        -8.225033483506733
      ],
      [
        "▁Kamerun",
        -8.225148937269141
      ],
      [
        "▁léeg-léeg",
        -8.225302443447934
      ],
      [
        "▁yaa",
        -8.22715970149397
      ],
      [
        "▁Tubaab",
        -8.235074772766914
      ],
      [
        "▁terre",
        -8.240212320783016
      ],
      [
        "▁jour",
        -8.240441574785855
      ],
      [
        "▁dex",
        -8.240504631403809
      ],
      [
        "▁nii",
        -8.244687889489876
      ],
      [
        "▁peut",
        -8.247654572769607
      ],
      [
        "▁Lu",
        -8.249735356116622
      ],
      [
        "▁bare",
        -8.251565239007029
      ],
      [
        "▁F",
        -8.254865178197141
      ],
      [
        "▁ginnaaw",
        -8.257226938904662
      ],
      [
        "▁foofu",
        -8.259115049538638
      ],
      [
        "▁fii",
        -8.261820740378615
      ],
      [
        "▁d'autres",
        -8.26516544328567
      ],
      [
        "▁fois",
        -8.276092743253798
      ],
      [
        "▁Fa",
        -8.276190370978233
      ],
      [
        "▁Lii",
        -8.282036992649887
      ],
      [
        "▁Xar",
        -8.282807984395669
      ],
      [
        "ale",
        -8.289972342854083
      ],
      [
        "▁bois",
        -8.295263640028285
      ],
      [
        "▁waaw",
        -8.295603817933731
      ],
      [
        "▁Bu",
        -8.29732240755486
      ],
      [
        "▁B",
        -8.298707419559298
      ],
      [
        "▁Et",
        -8.299190608117591
      ],
      [
        "▁g",
        -8.304432598224897
      ],
      [
        "▁re",
        -8.307110021211082
      ],
      [
        "▁elle",
        -8.312746920775623
      ],
      [
        "▁Ku",
        -8.314911151725997
      ],
      [
        "▁jaar",
        -8.319832439544232
      ],
      [
        "▁daw",
        -8.320181102460582
      ],
      [
        "▁bunt",
        -8.325911769751304
      ],
      [
        "▁wu",
        -8.326188492649488
      ],
      [
        "▁beaucoup",
        -8.328695178501755
      ],
      [
        "▁c'était",
        -8.330867316888437
      ],
      [
        "▁crois",
        -8.331070452639526
      ],
      [
        "▁boppam",
        -8.331789540121132
      ],
      [
        "▁après",
        -8.335825495536247
      ],
      [
        "▁peut-être",
        -8.336110402155049
      ],
      [
        "▁dund",
        -8.337550543352595
      ],
      [
        "▁On",
        -8.339383175170918
      ],
      [
        "▁dox",
        -8.3405445907022
      ],
      [
        "▁yeneen",
        -8.343316744763376
      ],
      [
        "▁neex",
        -8.343853165036075
      ],
      [
        "▁arbres",
        -8.34469023436717
      ],
      [
        "▁route",
        -8.351059041735184
      ],
      [
        "lu",
        -8.357728601563043
      ],
      [
        "▁entre",
        -8.36245058255463
      ],
      [
        "▁l'Afrique",
        -8.365727340100843
      ],
      [
        "▁Loolu",
        -8.366106008134613
      ],
      [
        "▁bañ",
        -8.366833280265173
      ],
      [
        "▁so",
        -8.368313620753185
      ],
      [
        "▁devant",
        -8.36953585668619
      ],
      [
        "▁années",
        -8.371089270228618
      ],
      [
        "▁non",
        -8.37390650919264
      ],
      [
        "▁ňu",
        -8.378216839086486
      ],
      [
        "▁solo",
        -8.388122116589717
      ],
      [
        "▁yoo",
        -8.388275768130677
      ],
      [
        "▁voir",
        -8.389075371347
      ],
      [
        "▁chambre",
        -8.390254893570184
      ],
      [
        "▁veut",
        -8.391644511492814
      ],
      [
        "▁nee",
        -8.393957803195736
      ],
      [
        "▁lay",
        -8.395591988909516
      ],
      [
        "▁forêt",
        -8.40363656744333
      ],
      [
        "▁dëgg",
        -8.406351633589189
      ],
      [
        "▁Qui",
        -8.407150878772637
      ],
      [
        "▁Xale",
        -8.408096763748425
      ],
      [
        "▁Oui",
        -8.408202222993507
      ],
      [
        "h",
        -8.409048839593328
      ],
      [
        "▁topp",
        -8.410384060214325
      ],
      [
        "▁Ogoja",
        -8.4107513971291
      ],
      [
        "▁Afrique",
        -8.412296515013894
      ],
      [
        "▁Ni",
        -8.418308424076038
      ],
      [
        "▁avant",
        -8.419800308836582
      ],
      [
        "▁xaw",
        -8.42106138571156
      ],
      [
        "▁j",
        -8.421175466107151
      ],
      [
        "▁rouge",
        -8.421300133958752
      ],
      [
        "▁haut",
        -8.423228670429488
      ],
      [
        "um",
        -8.423440872053842
      ],
      [
        "▁Sée",
        -8.425342888377514
      ],
      [
        "▁daa",
        -8.435250867874919
      ],
      [
        "▁nuit",
        -8.43659005711035
      ],
      [
        "▁Mi",
        -8.436806945270874
      ],
      [
        "▁wet",
        -8.439767692567528
      ],
      [
        "▁ñ",
        -8.440702753349886
      ],
      [
        "▁celui",
        -8.444281017438595
      ],
      [
        "▁daanaka",
        -8.444811519910992
      ],
      [
        "▁travers",
        -8.44587261832778
      ],
      [
        "▁jooju",
        -8.447278601821758
      ],
      [
        "▁Ceci",
        -8.447408181865745
      ],
      [
        "▁Bi",
        -8.44788905674952
      ],
      [
        "▁moutons",
        -8.450877926617835
      ],
      [
        "▁contre",
        -8.453314785151125
      ],
      [
        "▁médecin",
        -8.457137717252603
      ],
      [
        "▁sui",
        -8.459602519268367
      ],
      [
        "▁kooku",
        -8.459986213485408
      ],
      [
        "▁amis",
        -8.460847193644712
      ],
      [
        "ou",
        -8.46097335975425
      ],
      [
        "▁tànk",
        -8.464909178127211
      ],
      [
        "ante",
        -8.465081883616662
      ],
      [
        "▁tudd",
        -8.465938346305744
      ],
      [
        "-là",
        -8.466791509921556
      ],
      [
        "▁gii",
        -8.46808064166147
      ],
      [
        "▁blanche",
        -8.46856431459544
      ],
      [
        "▁s'",
        -8.473384806009467
      ],
      [
        "▁Soo",
        -8.479886775824685
      ],
      [
        "uñu",
        -8.480668130616348
      ],
      [
        "▁Ca",
        -8.48101377903575
      ],
      [
        "▁Vous",
        -8.485029513765395
      ],
      [
        "▁fàww",
        -8.485061527254842
      ],
      [
        "▁France",
        -8.485313415307953
      ],
      [
        "▁matin",
        -8.485518486251715
      ],
      [
        "▁ceux-là",
        -8.485560582532651
      ],
      [
        "▁Cameroun",
        -8.485615383523342
      ],
      [
        "▁quelqu'un",
        -8.485642027041006
      ],
      [
        "▁E",
        -8.486567755375066
      ],
      [
        "▁voit",
        -8.489874037439229
      ],
      [
        "▁aucun",
        -8.49204726651991
      ],
      [
        "▁Elle",
        -8.494302914228133
      ],
      [
        "▁Sama",
        -8.49536370880316
      ],
      [
        "▁vers",
        -8.495618778930552
      ],
      [
        "▁dé",
        -8.495683357632467
      ],
      [
        "▁Man",
        -8.497873739943444
      ],
      [
        "na",
        -8.498447886549924
      ],
      [
        "tte",
        -8.500732423316988
      ],
      [
        "▁metti",
        -8.50327307092258
      ],
      [
        "▁noir",
        -8.503275560056164
      ],
      [
        "▁case",
        -8.503831324566598
      ],
      [
        "▁blanc",
        -8.506373921580547
      ],
      [
        "▁nuy",
        -8.508858002490003
      ],
      [
        "r.",
        -8.517617998425958
      ],
      [
        "▁ko.",
        -8.518334580216978
      ],
      [
        "▁Que",
        -8.520784277172968
      ],
      [
        "▁autres",
        -8.52885687736222
      ],
      [
        "autour",
        -8.529168239115146
      ],
      [
        "▁pouvait",
        -8.532722000191919
      ],
      [
        "▁donné",
        -8.53576749796894
      ],
      [
        "▁ceux",
        -8.536907913961434
      ],
      [
        "▁soit",
        -8.538477644904427
      ],
      [
        "▁aujourd'hui",
        -8.539043912749934
      ],
      [
        "▁jàpp",
        -8.539425206196286
      ],
      [
        "in",
        -8.542862492786947
      ],
      [
        "▁Tout",
        -8.542984932624943
      ],
      [
        "avoir",
        -8.54887201948451
      ],
      [
        "▁mer",
        -8.553042720356487
      ],
      [
        "eurs",
        -8.553628531482783
      ],
      [
        "▁jox",
        -8.553634006882469
      ],
      [
        "ées",
        -8.554748339517566
      ],
      [
        "▁Ay",
        -8.556484575539443
      ],
      [
        "▁personnes",
        -8.55751868217102
      ],
      [
        "▁day",
        -8.557636537350954
      ],
      [
        "▁kan",
        -8.557807595357557
      ],
      [
        "▁Na",
        -8.562587436009219
      ],
      [
        "▁fas",
        -8.567697104693718
      ],
      [
        "ient",
        -8.568413118750929
      ],
      [
        "▁Naka",
        -8.573956642120073
      ],
      [
        "▁yaakaar",
        -8.57422643360092
      ],
      [
        "▁au-dessus",
        -8.574443835339705
      ],
      [
        "▁lequel",
        -8.57508245663814
      ],
      [
        "▁mas",
        -8.579238709606756
      ],
      [
        "elle",
        -8.58047206783514
      ],
      [
        "▁Sa",
        -8.583186470110729
      ],
      [
        "▁verre",
        -8.584449386423142
      ],
      [
        "▁weer",
        -8.584451258962805
      ],
      [
        "ir",
        -8.587266891980313
      ],
      [
        "▁xamul",
        -8.587295712664254
      ],
      [
        "▁gaal",
        -8.590042196406237
      ],
      [
        "▁xol",
        -8.59204968283028
      ],
      [
        "▁qu'",
        -8.592293713665864
      ],
      [
        "▁ëpp",
        -8.595184902676476
      ],
      [
        "▁seul",
        -8.596164048023933
      ],
      [
        "▁bout",
        -8.598989598947787
      ],
      [
        "▁leer",
        -8.599497961446168
      ],
      [
        "leen",
        -8.600899706718016
      ],
      [
        "▁dee",
        -8.605077496272944
      ],
      [
        "▁fàttaliku",
        -8.605190918330644
      ],
      [
        "▁C'étai",
        -8.605317435801755
      ],
      [
        "▁Dan",
        -8.607144333741326
      ],
      [
        "▁Ken",
        -8.608425030084673
      ],
      [
        "▁passé",
        -8.6090663472237
      ],
      [
        "aan",
        -8.61249189013679
      ],
      [
        "▁ans",
        -8.61309912916495
      ],
      [
        "▁dóor",
        -8.613336100971214
      ],
      [
        "si",
        -8.614781165970344
      ],
      [
        "▁hommes",
        -8.615914158126749
      ],
      [
        "▁dana",
        -8.619701005751612
      ],
      [
        "▁J'",
        -8.620414647327605
      ],
      [
        "▁Wànte",
        -8.62150032835579
      ],
      [
        "▁soleil",
        -8.62168023169287
      ],
      [
        "▁xalaat",
        -8.621733237293792
      ],
      [
        "▁milieu",
        -8.621836811651317
      ],
      [
        "▁seulement",
        -8.622369924104573
      ],
      [
        "j",
        -8.624586899182642
      ],
      [
        "▁yàgg",
        -8.627708863875604
      ],
      [
        "▁For",
        -8.628069438090257
      ],
      [
        "être",
        -8.630340105344748
      ],
      [
        "▁coté",
        -8.63055440615723
      ],
      [
        "▁lan",
        -8.63445852180268
      ],
      [
        "▁quan",
        -8.637909443493006
      ],
      [
        "at",
        -8.638438931285725
      ],
      [
        "quoi",
        -8.642361304986604
      ],
      [
        "▁n'avai",
        -8.643985100025285
      ],
      [
        "ook",
        -8.645070521879829
      ],
      [
        "▁puis",
        -8.64546886459831
      ],
      [
        "▁tali",
        -8.648309810304731
      ],
      [
        "▁village",
        -8.650049127772226
      ],
      [
        "▁Au",
        -8.651531540816563
      ],
      [
        "▁defar",
        -8.652920093016007
      ],
      [
        "▁quelle",
        -8.655221777633997
      ],
      [
        "▁no",
        -8.657550321698379
      ],
      [
        "▁parler",
        -8.659670533436493
      ],
      [
        "▁Waa",
        -8.66293785149882
      ],
      [
        "▁posé",
        -8.667274760439632
      ],
      [
        "▁ressemble",
        -8.66767699019147
      ],
      [
        "▁n'ai",
        -8.669290064151763
      ],
      [
        "▁Bëgg",
        -8.669321639620248
      ],
      [
        "am.",
        -8.669431518238005
      ],
      [
        "igéen",
        -8.670150815252011
      ],
      [
        "▁Móris",
        -8.671377311118714
      ],
      [
        "▁debout",
        -8.673293907960554
      ],
      [
        "▁Ben",
        -8.67377390905393
      ],
      [
        "▁dina",
        -8.674423424214043
      ],
      [
        "▁Niseryaa",
        -8.675156028844235
      ],
      [
        "▁réy",
        -8.676751294388257
      ],
      [
        "▁reste",
        -8.67784910293335
      ],
      [
        "pendant",
        -8.67848140011765
      ],
      [
        "▁jeex",
        -8.680377751415497
      ],
      [
        "▁murs",
        -8.68068173012277
      ],
      [
        "▁ta",
        -8.683332431291932
      ],
      [
        "▁say",
        -8.68406331379023
      ],
      [
        "▁guddi",
        -8.685035081687403
      ],
      [
        "▁lal",
        -8.687153500248506
      ],
      [
        "vaient",
        -8.688597138956972
      ],
      [
        "▁ai",
        -8.692488167976167
      ],
      [
        "▁fin",
        -8.693778258224574
      ],
      [
        "▁vo",
        -8.695771946140855
      ],
      [
        "▁So",
        -8.695948182284475
      ],
      [
        "▁bord",
        -8.697225759350317
      ],
      [
        "▁passe",
        -8.701991035201173
      ],
      [
        "▁ndox",
        -8.702290993610589
      ],
      [
        "nu",
        -8.706054956086097
      ],
      [
        "▁wàn",
        -8.708893386750736
      ],
      [
        "▁bind",
        -8.70911155032017
      ],
      [
        "▁vrai",
        -8.7092708086892
      ],
      [
        "ans",
        -8.712684237042215
      ],
      [
        "▁ville",
        -8.717300088420261
      ],
      [
        "▁v",
        -8.72077335631921
      ],
      [
        "▁l'eau",
        -8.724187295574811
      ],
      [
        "▁Nigeria",
        -8.724191081701072
      ],
      [
        "▁souviens",
        -8.724197321088502
      ],
      [
        "▁question",
        -8.724266507607778
      ],
      [
        "▁grand-mère",
        -8.724361813399604
      ],
      [
        "▁doom-aadama",
        -8.724408696222284
      ],
      [
        "▁nettali",
        -8.724416765949886
      ],
      [
        "▁wéy",
        -8.724655262448639
      ],
      [
        "▁Keneen",
        -8.724745383025331
      ],
      [
        "▁Quan",
        -8.724978834997028
      ],
      [
        "▁manière",
        -8.725310214491888
      ],
      [
        "▁étai",
        -8.726033735990699
      ],
      [
        "▁Bansoo",
        -8.72689712350876
      ],
      [
        "▁Yaa",
        -8.731018332106744
      ],
      [
        "▁Cela",
        -8.73235355431726
      ],
      [
        "▁jaay",
        -8.733133909734253
      ],
      [
        "▁n'étai",
        -8.735721702840603
      ],
      [
        "▁grand",
        -8.736774571565071
      ],
      [
        "▁gaa",
        -8.73696750946803
      ],
      [
        "▁pu",
        -8.7373518343607
      ],
      [
        "▁regard",
        -8.739250526238493
      ],
      [
        "▁côté",
        -8.740294041976577
      ],
      [
        "té",
        -8.74107388416174
      ],
      [
        "▁door",
        -8.74402254716481
      ],
      [
        "▁enfant",
        -8.744720459586084
      ],
      [
        "as-tu",
        -8.745684327683406
      ],
      [
        "iers",
        -8.746523216726189
      ],
      [
        "▁dellu",
        -8.750534740045603
      ],
      [
        "▁égaré",
        -8.750822171319946
      ],
      [
        "▁poisson",
        -8.750918809325613
      ],
      [
        "▁maam",
        -8.751388129862182
      ],
      [
        "▁yeux",
        -8.752368641391456
      ],
      [
        "▁fan",
        -8.756567650745449
      ],
      [
        "▁gàtt",
        -8.757324405647397
      ],
      [
        "▁jiit",
        -8.759967759773307
      ],
      [
        "naa",
        -8.761388414020924
      ],
      [
        "▁rivière",
        -8.764726716946011
      ],
      [
        "▁ici",
        -8.769732100133929
      ],
      [
        "ez",
        -8.769846060036787
      ],
      [
        "▁bay",
        -8.775212919466815
      ],
      [
        "▁bokk",
        -8.77626984704807
      ],
      [
        "▁seet",
        -8.777672571150031
      ],
      [
        "▁bàyyi",
        -8.778315047518712
      ],
      [
        "▁Samba",
        -8.779446937248863
      ],
      [
        "▁S'il",
        -8.779546856238742
      ],
      [
        "▁cheval",
        -8.77954772869655
      ],
      [
        "▁njëkk",
        -8.779825986510117
      ],
      [
        "▁téere",
        -8.78034211320872
      ],
      [
        "▁xeer",
        -8.78044315422223
      ],
      [
        "▁Laobe",
        -8.780569931744155
      ],
      [
        "▁séen",
        -8.780823195710497
      ],
      [
        "▁vache",
        -8.781253947316442
      ],
      [
        "▁fourmis",
        -8.781934373644557
      ],
      [
        "▁yee",
        -8.782554081427154
      ],
      [
        "▁Moom",
        -8.78514461717221
      ],
      [
        "▁dénk",
        -8.786282280632314
      ],
      [
        "▁bon",
        -8.786856628383365
      ],
      [
        "▁ubbi",
        -8.787191915504447
      ],
      [
        "▁soir",
        -8.789538748802322
      ],
      [
        "▁Pour",
        -8.791714485328724
      ],
      [
        "ri",
        -8.792359661298391
      ],
      [
        "▁faj",
        -8.792546520044194
      ],
      [
        "▁kii",
        -8.793042302566123
      ],
      [
        "▁photo,",
        -8.794202303076256
      ],
      [
        "▁Seet",
        -8.795226557065815
      ],
      [
        "▁eux",
        -8.796385776693914
      ],
      [
        "béré",
        -8.801934690142359
      ],
      [
        "▁amoon",
        -8.803480118204742
      ],
      [
        "▁in",
        -8.803976536679912
      ],
      [
        "▁tudde",
        -8.808576358157673
      ],
      [
        "▁Y",
        -8.812386815034603
      ],
      [
        "▁Ra",
        -8.814188218053467
      ],
      [
        "'exil",
        -8.814871779572034
      ],
      [
        "loo",
        -8.815013205634392
      ],
      [
        "▁aller",
        -8.815243085236835
      ],
      [
        "voir",
        -8.815287843111275
      ],
      [
        "uma",
        -8.815768551702064
      ],
      [
        "koon",
        -8.816025240564612
      ],
      [
        "▁moment",
        -8.824013059130912
      ],
      [
        "▁Di",
        -8.824610730889901
      ],
      [
        "▁fo",
        -8.82978859082518
      ],
      [
        "▁jours",
        -8.83024442402094
      ],
      [
        "▁lion",
        -8.83162147520539
      ],
      [
        "vait",
        -8.832818698165287
      ],
      [
        "▁Banso",
        -8.834871234644764
      ],
      [
        "▁wut",
        -8.835587285639178
      ],
      [
        "▁aperç",
        -8.835681694503371
      ],
      [
        "▁baay",
        -8.836374331967718
      ],
      [
        "▁Alors",
        -8.838063564482823
      ],
      [
        "▁tàmbal",
        -8.838168750463755
      ],
      [
        "▁gunóor",
        -8.838258070679267
      ],
      [
        "▁do",
        -8.838347843034256
      ],
      [
        "▁Àngalteer",
        -8.838444013059602
      ],
      [
        "▁seetlu",
        -8.838943463511514
      ],
      [
        "▁Àngale",
        -8.838971871012745
      ],
      [
        "▁Ñoom",
        -8.839081626679775
      ],
      [
        "▁dëkki",
        -8.840892868590856
      ],
      [
        "▁dàll",
        -8.842446333560465
      ],
      [
        "▁yaatu",
        -8.843819819676384
      ],
      [
        "▁beneen",
        -8.844723521540036
      ],
      [
        "▁tuuti",
        -8.844823254405945
      ],
      [
        "▁mujje",
        -8.845169812032498
      ],
      [
        "tôt",
        -8.846535908274182
      ],
      [
        "▁assis",
        -8.847441662972525
      ],
      [
        "▁trois",
        -8.847449948105766
      ],
      [
        "▁masu",
        -8.84753211003655
      ],
      [
        "▁plaine",
        -8.847861451946184
      ],
      [
        "▁maanaa",
        -8.848354221722062
      ],
      [
        "aat",
        -8.848370125418807
      ],
      [
        "faral",
        -8.848669203803606
      ],
      [
        "▁doomu",
        -8.849920553585486
      ],
      [
        "▁miir",
        -8.849922285182856
      ],
      [
        "▁gaynde",
        -8.853432967819103
      ],
      [
        "▁peau",
        -8.853569231780307
      ],
      [
        "▁w",
        -8.855879018588553
      ],
      [
        "nga",
        -8.856354009135428
      ],
      [
        "▁mains",
        -8.856611935160943
      ],
      [
        "▁long",
        -8.857679618817414
      ],
      [
        "▁mat",
        -8.858567791524957
      ],
      [
        "▁toit",
        -8.85904315077997
      ],
      [
        "▁tel",
        -8.860570286044005
      ],
      [
        "▁montre",
        -8.861478821488909
      ],
      [
        "▁dire",
        -8.864244454728269
      ],
      [
        "maa",
        -8.865435843660046
      ],
      [
        "-na",
        -8.866485186104825
      ],
      [
        "an",
        -8.866817971188919
      ],
      [
        "ek",
        -8.871715409536018
      ],
      [
        "▁ñàkk",
        -8.871855417024134
      ],
      [
        "▁gee",
        -8.872114899783067
      ],
      [
        "▁toute",
        -8.874193753686473
      ],
      [
        "▁près",
        -8.875433256770654
      ],
      [
        "▁plu",
        -8.875778656873202
      ],
      [
        "ux",
        -8.87704493850574
      ],
      [
        "▁quel",
        -8.87739907204619
      ],
      [
        "se",
        -8.877458315004754
      ],
      [
        "▁lanu",
        -8.87766556029106
      ],
      [
        "▁bant",
        -8.88054551123705
      ],
      [
        "▁grande",
        -8.882306338385446
      ],
      [
        "bi",
        -8.883727595136913
      ],
      [
        "▁voyage",
        -8.884572774495993
      ],
      [
        "ependant",
        -8.885399463579299
      ],
      [
        "▁port",
        -8.887548260296208
      ],
      [
        "▁dama",
        -8.888314485584718
      ],
      [
        "ur",
        -8.88841679236503
      ],
      [
        "ère",
        -8.889151314664021
      ],
      [
        "▁mii",
        -8.889611667433167
      ],
      [
        "▁gudd",
        -8.889867318079395
      ],
      [
        "▁doom",
        -8.891327783344924
      ],
      [
        "▁yor",
        -8.891630120671373
      ],
      [
        "▁lorsqu",
        -8.893557309702725
      ],
      [
        "▁waaj",
        -8.896149332766536
      ],
      [
        "▁portes",
        -8.896200338722808
      ],
      [
        "▁way-jur",
        -8.897141493253791
      ],
      [
        "àddaay",
        -8.898651534430394
      ],
      [
        "▁nun",
        -8.899082205945739
      ],
      [
        "▁Bamenda",
        -8.899889385690802
      ],
      [
        "▁Kooku",
        -8.900312307974355
      ],
      [
        "▁mort",
        -8.900318057362563
      ],
      [
        "▁jeune",
        -8.900382938949495
      ],
      [
        "▁jardin",
        -8.900559601597715
      ],
      [
        "▁<mask>",
        -8.90056042407081
      ],
      [
        "▁dunyaa",
        -8.900670974922374
      ],
      [
        "▁l'Ouest",
        -8.900695696841403
      ],
      [
        "▁moroom",
        -8.900810327899313
      ],
      [
        "tes",
        -8.902448020399135
      ],
      [
        "▁demkoon",
        -8.902865016609455
      ],
      [
        "▁K",
        -8.903349685189871
      ],
      [
        "▁Kon",
        -8.904959918999836
      ],
      [
        "▁dëkku",
        -8.905700320185423
      ],
      [
        "▁s'il",
        -8.907241890343169
      ],
      [
        "▁kanam",
        -8.907912761319363
      ],
      [
        "▁faa",
        -8.911075441508801
      ],
      [
        "▁montagnes",
        -8.911281728455517
      ],
      [
        "▁xeet",
        -8.911840118227747
      ],
      [
        "▁trop",
        -8.912430111150726
      ],
      [
        "ng",
        -8.915029232568514
      ],
      [
        "▁takk",
        -8.91610903863008
      ],
      [
        "▁l'ai",
        -8.921686613071959
      ],
      [
        "▁feebar",
        -8.922405213736539
      ],
      [
        "▁mot",
        -8.923124853047252
      ],
      [
        "▁Boo",
        -8.92363034573818
      ],
      [
        "▁laaj",
        -8.92746100207206
      ],
      [
        "▁wone",
        -8.929775838642968
      ],
      [
        "enn",
        -8.934468298431014
      ],
      [
        "▁na.",
        -8.935006451055399
      ],
      [
        "avons",
        -8.935762822219154
      ],
      [
        "es.",
        -8.936058466930017
      ],
      [
        "▁ét",
        -8.939444787415189
      ],
      [
        "▁vient",
        -8.940352230492735
      ],
      [
        "▁mal",
        -8.946205043748257
      ],
      [
        "▁L'",
        -8.946656268895342
      ],
      [
        "▁won",
        -8.946682682185529
      ],
      [
        "ement",
        -8.949755578024433
      ],
      [
        "or",
        -8.951418311438394
      ],
      [
        "ël",
        -8.954492484948858
      ],
      [
        "▁Va",
        -8.956574664688402
      ],
      [
        "▁marche",
        -8.956894069893039
      ],
      [
        "▁nos",
        -8.958685010680647
      ],
      [
        "▁Ak",
        -8.961021012960417
      ],
      [
        "▁Da",
        -8.96265694742296
      ],
      [
        "▁leneen",
        -8.96367935315808
      ],
      [
        "▁Yaw",
        -8.966963609576938
      ],
      [
        "▁House",
        -8.966964354687514
      ],
      [
        "▁Aucun",
        -8.967000177634294
      ],
      [
        "▁làrme",
        -8.967018296249591
      ],
      [
        "▁jéem",
        -8.96705248911123
      ],
      [
        "▁violence",
        -8.967257291210506
      ],
      [
        "▁tollu",
        -8.967279371537636
      ],
      [
        "▁doktoor",
        -8.967297972655503
      ],
      [
        "▁Celui-là",
        -8.967301021638109
      ],
      [
        "▁simplement",
        -8.967648249737188
      ],
      [
        "▁yónnee",
        -8.96867940351607
      ],
      [
        "▁tëj",
        -8.96884267570573
      ],
      [
        "▁salle",
        -8.969643724517539
      ],
      [
        "▁cause",
        -8.969858234628566
      ],
      [
        "ons",
        -8.970732426224899
      ],
      [
        "▁lieu",
        -8.970743244056088
      ],
      [
        "▁niroo",
        -8.97107125621022
      ],
      [
        "▁ňaar",
        -8.971329628062474
      ],
      [
        "▁bëggul",
        -8.97143907734635
      ],
      [
        "▁gént",
        -8.971654626300774
      ],
      [
        "▁Dama",
        -8.972498056387561
      ],
      [
        "▁boog",
        -8.973634693968355
      ],
      [
        "▁Noonu",
        -8.973849080435489
      ],
      [
        "▁portent",
        -8.97515462264636
      ],
      [
        "▁deret",
        -8.976411287041852
      ],
      [
        "▁moomu",
        -8.976619682455427
      ],
      [
        "où",
        -8.977275215388381
      ],
      [
        "atum",
        -8.977680391694015
      ],
      [
        "wul",
        -8.977700544892041
      ],
      [
        "▁trouve",
        -8.98085578145563
      ],
      [
        "▁aw",
        -8.981702261329671
      ],
      [
        "▁biti",
        -8.982816937930227
      ],
      [
        "▁ëe",
        -8.983396590987917
      ],
      [
        "p",
        -8.983797997883844
      ],
      [
        "▁qu",
        -8.984715803270968
      ],
      [
        "▁parte",
        -8.98494256467789
      ],
      [
        "▁yére",
        -8.985200070517461
      ],
      [
        "▁dame",
        -8.985449945756084
      ],
      [
        "▁romb",
        -8.986470135306982
      ],
      [
        "mu",
        -8.986557522437632
      ],
      [
        "me",
        -8.98763924325651
      ],
      [
        "▁lit",
        -8.98812545078402
      ],
      [
        "▁réewu",
        -8.988848425435467
      ],
      [
        "▁ciel",
        -8.990166005995146
      ],
      [
        "▁ñan",
        -8.990352364659028
      ],
      [
        "▁ña",
        -8.994013212097252
      ],
      [
        "▁buntu",
        -8.996923436699419
      ],
      [
        "▁villages",
        -8.997050304799119
      ],
      [
        "▁néegu",
        -8.999648671146012
      ],
      [
        "▁defe",
        -9.003747919680748
      ],
      [
        "▁fut",
        -9.004677124162775
      ],
      [
        "▁travail",
        -9.005233291133969
      ],
      [
        "▁sais",
        -9.006472215015865
      ],
      [
        "▁blancs",
        -9.01146245720384
      ],
      [
        "▁Mën",
        -9.012332020995354
      ],
      [
        "▁jii",
        -9.012470728948571
      ],
      [
        "▁petit",
        -9.013378661108344
      ],
      [
        "▁jolie",
        -9.021569375470804
      ],
      [
        "▁souvenir",
        -9.022841473758511
      ],
      [
        "▁fond",
        -9.024547823542898
      ],
      [
        "▁aurait",
        -9.024832275382138
      ],
      [
        "▁R",
        -9.027936996592398
      ],
      [
        "▁Fu",
        -9.029707881960089
      ],
      [
        "kk",
        -9.031074152371026
      ],
      [
        "▁forme",
        -9.034875455341883
      ],
      [
        "du",
        -9.035443651531672
      ],
      [
        "▁parles",
        -9.035721057686734
      ],
      [
        "▁paix",
        -9.038143646913745
      ],
      [
        "▁tangor",
        -9.038384970889773
      ],
      [
        "▁mémoire",
        -9.038452345578316
      ],
      [
        "▁famille",
        -9.038516586997227
      ],
      [
        "▁diiwaan",
        -9.038538618898848
      ],
      [
        "▁ngelaw",
        -9.038593573068201
      ],
      [
        "▁Saint-Louis",
        -9.038683090501502
      ],
      [
        "▁celui-ci",
        -9.038959639500037
      ],
      [
        "▁gaaw",
        -9.039068081124167
      ],
      [
        "▁l'hôpital",
        -9.039113249175237
      ],
      [
        "▁Qu'il",
        -9.03926553291639
      ],
      [
        "▁wóor",
        -9.039633336777085
      ],
      [
        "▁heures",
        -9.039999371214034
      ],
      [
        "▁Wall",
        -9.040319942626546
      ],
      [
        "▁taxoon",
        -9.04167613570848
      ],
      [
        "▁ami",
        -9.042353410710373
      ],
      [
        "▁mépp",
        -9.042636022502485
      ],
      [
        "▁vécu",
        -9.043479442636109
      ],
      [
        "▁Yàlla",
        -9.044360321818889
      ],
      [
        "▁tard",
        -9.044449439826574
      ],
      [
        "as",
        -9.04445582448216
      ],
      [
        "▁Ndar",
        -9.045334472399746
      ],
      [
        "▁Là",
        -9.045476962058604
      ],
      [
        "bu",
        -9.046086381341137
      ],
      [
        "▁Seen",
        -9.046184149441887
      ],
      [
        "▁qu'un",
        -9.046435610551011
      ],
      [
        "▁bras",
        -9.04673562282932
      ],
      [
        "▁endroit",
        -9.04876545829123
      ],
      [
        "óon",
        -9.049116862836831
      ],
      [
        "▁dexu",
        -9.05133481084101
      ],
      [
        "▁ñuul.",
        -9.054268173462503
      ],
      [
        "▁partie",
        -9.054947223103806
      ],
      [
        "▁gendarmes",
        -9.057269653944013
      ],
      [
        "▁togg",
        -9.057642279439854
      ],
      [
        "▁doomi",
        -9.060538164683399
      ],
      [
        "gi",
        -9.063309854838215
      ],
      [
        "▁song",
        -9.064342352440661
      ],
      [
        "je",
        -9.065399368200486
      ],
      [
        "▁jënd",
        -9.067305662941417
      ],
      [
        "aux",
        -9.068317478301879
      ],
      [
        "▁Kan",
        -9.071684755853816
      ],
      [
        "ukaay",
        -9.074298293516705
      ],
      [
        "▁X",
        -9.075375724259239
      ],
      [
        "▁mënoo",
        -9.076772915019147
      ],
      [
        "▁Wax",
        -9.07814123320556
      ],
      [
        "▁sore",
        -9.079392815581976
      ],
      [
        "▁W",
        -9.080242062260035
      ],
      [
        "em",
        -9.082317511094386
      ],
      [
        "▁pa",
        -9.083708492810182
      ],
      [
        "▁tabax",
        -9.084013543693406
      ],
      [
        "▁toutes",
        -9.084396204546021
      ],
      [
        "▁connu",
        -9.084648458131692
      ],
      [
        "▁Nga",
        -9.08726596603259
      ],
      [
        "uis",
        -9.087465908392868
      ],
      [
        "▁fàtte",
        -9.088655764205777
      ],
      [
        "▁marché",
        -9.090770930617124
      ],
      [
        "▁xool",
        -9.092185929335386
      ],
      [
        "▁fille",
        -9.092498662958917
      ],
      [
        "mi",
        -9.093762652711572
      ],
      [
        "▁noirs",
        -9.095606436431336
      ],
      [
        "ns",
        -9.097038847155734
      ],
      [
        "estr",
        -9.097428810881862
      ],
      [
        "▁Par",
        -9.099634641354978
      ],
      [
        "▁vieille",
        -9.102019566941024
      ],
      [
        "geen",
        -9.102345793255008
      ],
      [
        "▁s'en",
        -9.103434472182569
      ],
      [
        "▁googu",
        -9.104419537653452
      ],
      [
        "ku",
        -9.108529424794828
      ],
      [
        "▁tàng",
        -9.113413407019095
      ],
      [
        "▁wirgo",
        -9.114987876299198
      ],
      [
        "▁tëdd",
        -9.114993890882621
      ],
      [
        "▁sucre",
        -9.115024057626993
      ],
      [
        "▁palais",
        -9.115084487111389
      ],
      [
        "▁weesoo",
        -9.115106981594678
      ],
      [
        "▁Mbaa",
        -9.115157704408546
      ],
      [
        "▁soldaar",
        -9.11519014698753
      ],
      [
        "▁liberté",
        -9.115196830978098
      ],
      [
        "▁gis-gis",
        -9.115243712391818
      ],
      [
        "▁théière",
        -9.115289700980702
      ],
      [
        "▁sedd",
        -9.115322262954958
      ],
      [
        "▁asamaan",
        -9.115412472385518
      ],
      [
        "▁britannique",
        -9.115423030458444
      ],
      [
        "▁kese",
        -9.115709171962541
      ],
      [
        "▁Bés",
        -9.115814341505066
      ],
      [
        "▁Yéen",
        -9.115939070348563
      ],
      [
        "▁surtout",
        -9.116491303096492
      ],
      [
        "▁vas-tu",
        -9.116565372279938
      ],
      [
        "een",
        -9.117685595565035
      ],
      [
        "▁lekk",
        -9.118404634305165
      ],
      [
        "▁Ibo",
        -9.118869439627108
      ],
      [
        "▁faut",
        -9.120071663661983
      ],
      [
        "▁sori",
        -9.120222458702314
      ],
      [
        "▁dëkke",
        -9.121320223821538
      ],
      [
        "▁xelam",
        -9.121349663306399
      ],
      [
        "age",
        -9.12138673013937
      ],
      [
        "▁d'herbes",
        -9.122945363211713
      ],
      [
        "▁ainsi",
        -9.124062542717713
      ],
      [
        "▁Maurice",
        -9.124346727246147
      ],
      [
        "▁jëkk",
        -9.124505856014569
      ],
      [
        "ais",
        -9.12454879370766
      ],
      [
        "▁acheté",
        -9.12459608494819
      ],
      [
        "▁géej",
        -9.12459717350224
      ],
      [
        "▁allé",
        -9.125227033064506
      ],
      [
        "▁Jox",
        -9.125374123497888
      ],
      [
        "▁Frãs",
        -9.12553472012686
      ],
      [
        "▁rek",
        -9.125966538138584
      ],
      [
        "▁habits",
        -9.12726639763713
      ],
      [
        "▁Bamendaa",
        -9.127508927731803
      ],
      [
        "kër",
        -9.130466635338813
      ],
      [
        "ra",
        -9.131233128157405
      ],
      [
        "▁dellusi",
        -9.132734389910956
      ],
      [
        "armée",
        -9.134066044776851
      ],
      [
        "▁àgg",
        -9.135074237289086
      ],
      [
        "▁sàkk",
        -9.135167805738181
      ],
      [
        "▁café",
        -9.135189158016972
      ],
      [
        "st-ce",
        -9.13546950806254
      ],
      [
        "▁celle",
        -9.13605973572528
      ],
      [
        "▁viendra",
        -9.136783442027848
      ],
      [
        "q",
        -9.1379281265216
      ],
      [
        "ul.",
        -9.139601186038103
      ],
      [
        "ň",
        -9.139962727393442
      ],
      [
        "aa",
        -9.14047253168298
      ],
      [
        "▁grands",
        -9.146220631612625
      ],
      [
        "▁suba",
        -9.146788632976067
      ],
      [
        "▁wetu",
        -9.147194655180016
      ],
      [
        "▁per",
        -9.147450989045591
      ],
      [
        "▁jant",
        -9.147605469672852
      ],
      [
        "▁n'en",
        -9.149177331176814
      ],
      [
        "▁avions",
        -9.149690963838726
      ],
      [
        "▁pris",
        -9.149936365447232
      ],
      [
        "▁nanu",
        -9.152470065907028
      ],
      [
        "oŋ",
        -9.156400834417987
      ],
      [
        "des",
        -9.157447243711546
      ],
      [
        "waat",
        -9.15852273150101
      ],
      [
        "▁pars",
        -9.161046600140223
      ],
      [
        "▁parlait",
        -9.163208119455142
      ],
      [
        "ngi",
        -9.163514200203531
      ],
      [
        "▁tur",
        -9.164280065734568
      ],
      [
        "▁fàttali",
        -9.170169574924463
      ],
      [
        "▁ça",
        -9.170858172873482
      ],
      [
        "▁l'un",
        -9.171231285448945
      ],
      [
        "▁carte",
        -9.171433979145366
      ],
      [
        "▁vienne",
        -9.177824688502975
      ],
      [
        "▁bee",
        -9.182849913580732
      ],
      [
        "▁May",
        -9.183235834540275
      ],
      [
        "▁garçon",
        -9.183368669552452
      ],
      [
        "▁arrivé",
        -9.18389417306368
      ],
      [
        "▁main",
        -9.18731050214338
      ],
      [
        "▁noo",
        -9.18949114139043
      ],
      [
        "▁baa",
        -9.19279351041984
      ],
      [
        "▁coup",
        -9.19631693215501
      ],
      [
        "▁Kër",
        -9.196365083019046
      ],
      [
        "▁deme",
        -9.197212808556037
      ],
      [
        "▁làmp",
        -9.197963414489507
      ],
      [
        "▁Homme",
        -9.198132929187338
      ],
      [
        "▁Lawbe",
        -9.198231233013187
      ],
      [
        "▁déglu",
        -9.19832431442457
      ],
      [
        "▁Cherche",
        -9.198340901048256
      ],
      [
        "▁région",
        -9.198370948617592
      ],
      [
        "▁delloo",
        -9.198439669213473
      ],
      [
        "▁Ceux-là",
        -9.198460089790856
      ],
      [
        "▁xar-kanam",
        -9.198481625227977
      ],
      [
        "▁mellentaan",
        -9.19851455309815
      ],
      [
        "▁boroom",
        -9.198543335738691
      ],
      [
        "▁passage",
        -9.198585706613105
      ],
      [
        "▁manger",
        -9.198644064158328
      ],
      [
        "▁raison",
        -9.198795808557602
      ],
      [
        "▁large",
        -9.19880320389197
      ],
      [
        "▁yuuxu",
        -9.198994828944777
      ],
      [
        "▁appris",
        -9.199184219792118
      ],
      [
        "▁Jaam",
        -9.199645343082398
      ],
      [
        "▁longue",
        -9.199797256412452
      ],
      [
        "▁fépp",
        -9.199903926532642
      ],
      [
        "pp",
        -9.200434731362488
      ],
      [
        "▁xanaa",
        -9.201042697053198
      ],
      [
        "▁Demal",
        -9.20194545897712
      ],
      [
        "▁Defe",
        -9.201993519886436
      ],
      [
        "▁derrière",
        -9.202388726466586
      ],
      [
        "▁ngoon",
        -9.203480306393232
      ],
      [
        "▁kàddu",
        -9.203830386548473
      ],
      [
        "▁herbes",
        -9.205358819038867
      ],
      [
        "▁màggat",
        -9.205965764848115
      ],
      [
        "▁màgget",
        -9.20612086326303
      ],
      [
        "▁yaw",
        -9.206304064755624
      ],
      [
        "iy",
        -9.206972166426969
      ],
      [
        "▁nangu",
        -9.20735500544611
      ],
      [
        "▁ñii",
        -9.208658000148526
      ],
      [
        "'était",
        -9.208710792715465
      ],
      [
        "▁takk-der",
        -9.210129656870649
      ],
      [
        "▁baat",
        -9.212506340136734
      ],
      [
        "▁envoyée",
        -9.21387491915871
      ],
      [
        "▁pieds",
        -9.21433637185272
      ],
      [
        "▁woo",
        -9.215440766101205
      ],
      [
        "and",
        -9.216333262340566
      ],
      [
        "i.",
        -9.216554403156334
      ],
      [
        "▁Fan",
        -9.217755522108352
      ],
      [
        "ance",
        -9.21852690040054
      ],
      [
        "est-ce",
        -9.22126175031329
      ],
      [
        "aw",
        -9.221833793869692
      ],
      [
        "fin",
        -9.222559170115238
      ],
      [
        "▁An",
        -9.223118712098417
      ],
      [
        "▁Ñ",
        -9.224281866375902
      ],
      [
        "eur",
        -9.225258914019136
      ],
      [
        "yan",
        -9.22631582043903
      ],
      [
        "▁lakk",
        -9.227128584873096
      ],
      [
        "▁seule",
        -9.230478757699915
      ],
      [
        "▁pres",
        -9.231327705170969
      ],
      [
        "▁fleuves",
        -9.231731777060851
      ],
      [
        "▁couleurs",
        -9.232439720464363
      ],
      [
        "▁T",
        -9.233586673760971
      ],
      [
        "»",
        -9.234944176169844
      ],
      [
        "▁garde",
        -9.235668160538975
      ],
      [
        "▁duñu",
        -9.239026120194458
      ],
      [
        "▁fees",
        -9.240212477941535
      ],
      [
        "▁choses",
        -9.240413140693663
      ],
      [
        "▁séché",
        -9.243934723326355
      ],
      [
        "▁serai",
        -9.244436309772034
      ],
      [
        "▁D'",
        -9.24559168927497
      ],
      [
        "ub",
        -9.247463562802144
      ],
      [
        "▁fleuve",
        -9.253609367144152
      ],
      [
        "ité",
        -9.254955309936856
      ],
      [
        "yu",
        -9.256422277751643
      ],
      [
        "▁mêmes",
        -9.256845867792396
      ],
      [
        "▁conçue",
        -9.257014957194379
      ],
      [
        "-ci",
        -9.257153921585143
      ],
      [
        "aire",
        -9.257642884990553
      ],
      [
        "óor",
        -9.263172725561823
      ],
      [
        "uy",
        -9.263817486746909
      ],
      [
        "▁première",
        -9.266751675682553
      ],
      [
        "atul",
        -9.268997572781913
      ],
      [
        "▁jàng",
        -9.26923419171029
      ],
      [
        "▁sang",
        -9.269649969655633
      ],
      [
        "▁lesquel",
        -9.270097493871603
      ],
      [
        "beek",
        -9.27051857956632
      ],
      [
        "iez",
        -9.27174711310671
      ],
      [
        "ine",
        -9.2726851789451
      ],
      [
        "▁vi",
        -9.274569529277523
      ],
      [
        "▁të",
        -9.27480680428739
      ],
      [
        "▁dayo",
        -9.275450444478851
      ],
      [
        "▁t'a",
        -9.276212925885375
      ],
      [
        "▁po",
        -9.277756010377228
      ],
      [
        "▁yit",
        -9.283908060776248
      ],
      [
        "▁dagg",
        -9.284950361719133
      ],
      [
        "▁yem",
        -9.285056554938011
      ],
      [
        "▁frère",
        -9.287255177845232
      ],
      [
        "▁force",
        -9.28742666610388
      ],
      [
        "▁téye",
        -9.28749897859128
      ],
      [
        "zone",
        -9.287749017285876
      ],
      [
        "▁tiim",
        -9.28777451348683
      ],
      [
        "▁xéy",
        -9.287854944047462
      ],
      [
        "▁Gone",
        -9.288326452985462
      ],
      [
        "▁yéeg",
        -9.288351417363538
      ],
      [
        "▁jéggi",
        -9.288474187432083
      ],
      [
        "▁rawati",
        -9.288939003675383
      ],
      [
        "▁Moussa",
        -9.288955675718523
      ],
      [
        "▁Guyane",
        -9.288966810589976
      ],
      [
        "▁Xammee",
        -9.288994745088015
      ],
      [
        "▁lumière",
        -9.28903894561203
      ],
      [
        "▁yëkkati",
        -9.289048957225893
      ],
      [
        "▁chevaux",
        -9.289088749744698
      ],
      [
        "▁Guwiyaan",
        -9.289112289538018
      ],
      [
        "▁feuilles",
        -9.289121450056246
      ],
      [
        "▁d'Ogoja",
        -9.289165582474581
      ],
      [
        "▁bëj-saalum",
        -9.289210790492875
      ],
      [
        "▁poste",
        -9.289366922919491
      ],
      [
        "▁chez",
        -9.289408521727548
      ],
      [
        "▁toogukaay",
        -9.289601862516372
      ],
      [
        "▁jëfandikoo",
        -9.289809931098524
      ],
      [
        "▁Moonte",
        -9.290437319730687
      ],
      [
        "▁faisait",
        -9.290929265510028
      ],
      [
        "▁bateau",
        -9.29118786620905
      ],
      [
        "▁Ñii",
        -9.2915033415613
      ],
      [
        "▁bépp",
        -9.292049235552863
      ],
      [
        "▁yóbbu",
        -9.292650247635189
      ],
      [
        "▁silence",
        -9.293038956595227
      ],
      [
        "▁retraite",
        -9.295451077627968
      ],
      [
        "▁fenn",
        -9.296119360289337
      ],
      [
        "▁Moi",
        -9.297106220427164
      ],
      [
        "▁pierres",
        -9.298029477839107
      ],
      [
        "▁cuir",
        -9.298096327168443
      ],
      [
        "▁Sud",
        -9.298759927828396
      ],
      [
        "▁d'Europe",
        -9.298875511176623
      ],
      [
        "avait",
        -9.299369556999793
      ],
      [
        "▁Koo",
        -9.299980962863028
      ],
      [
        "▁tund",
        -9.300601985800535
      ],
      [
        "▁xaar",
        -9.300830153859396
      ],
      [
        "▁sortir",
        -9.301125145398586
      ],
      [
        "▁toujours",
        -9.301596737826738
      ],
      [
        "ko",
        -9.30184349464476
      ],
      [
        "▁kilifa",
        -9.302046697526597
      ],
      [
        "▁meloon",
        -9.303267764224444
      ],
      [
        "▁feneen",
        -9.303897886815733
      ],
      [
        "vent",
        -9.30421969832499
      ],
      [
        "▁baxa",
        -9.305617206535794
      ],
      [
        "▁ñetti",
        -9.310421429239971
      ],
      [
        "▁naaj",
        -9.310747076353586
      ],
      [
        "nte",
        -9.311562294428038
      ],
      [
        "▁mis",
        -9.312259035010147
      ],
      [
        "▁Daan",
        -9.312418220959126
      ],
      [
        "▁Quelle",
        -9.313864469440345
      ],
      [
        "kati",
        -9.314364944809673
      ],
      [
        "▁miin",
        -9.316944473513356
      ],
      [
        "▁teel",
        -9.317040858337917
      ],
      [
        "▁ŋgii",
        -9.31803680524603
      ],
      [
        "▁Loo",
        -9.32612387737094
      ],
      [
        "▁roi",
        -9.328680930247124
      ],
      [
        "▁point",
        -9.330593507315232
      ],
      [
        "ati",
        -9.330595098854406
      ],
      [
        "li",
        -9.332733754694974
      ],
      [
        "belle",
        -9.33308883759247
      ],
      [
        "ag",
        -9.335629139234449
      ],
      [
        "▁égarée",
        -9.336901444585807
      ],
      [
        "kkali",
        -9.341082547225673
      ],
      [
        "▁waxtaan",
        -9.34186723340593
      ],
      [
        "ab",
        -9.344116052105681
      ],
      [
        "▁tàkk",
        -9.345511009975883
      ],
      [
        "▁sera",
        -9.346091512161262
      ],
      [
        "▁ragal",
        -9.348797318164948
      ],
      [
        "▁vent",
        -9.350183880369826
      ],
      [
        "▁Xa",
        -9.350286164864155
      ],
      [
        "▁jàll",
        -9.35077921847353
      ],
      [
        "▁cuisine",
        -9.35109062461654
      ],
      [
        "▁doxandéem",
        -9.351258073662308
      ],
      [
        "ug",
        -9.352521851415364
      ],
      [
        "▁rëdd",
        -9.352753917220095
      ],
      [
        "naka",
        -9.354373365188337
      ],
      [
        "woo",
        -9.354722906917086
      ],
      [
        "▁cases",
        -9.355199964709518
      ],
      [
        "wu",
        -9.359302516707132
      ],
      [
        "▁daj",
        -9.359438511996922
      ],
      [
        "▁arbre",
        -9.362493708838446
      ],
      [
        "▁livre",
        -9.3630022918573
      ],
      [
        "▁partis",
        -9.365918173600537
      ],
      [
        "eut-être",
        -9.367865679906775
      ],
      [
        "▁Foo",
        -9.371312670843851
      ],
      [
        "▁visage",
        -9.37193907832569
      ],
      [
        "tant",
        -9.372682084467133
      ],
      [
        "▁toogu",
        -9.374700741557994
      ],
      [
        "▁doy",
        -9.374873302757615
      ],
      [
        "réer",
        -9.3795076781158
      ],
      [
        "▁Fi",
        -9.381906653381481
      ],
      [
        "û",
        -9.38344301926428
      ],
      [
        "▁pirogue",
        -9.387191921090919
      ],
      [
        "▁chaussures",
        -9.387193559956676
      ],
      [
        "▁nouveau",
        -9.38719874743639
      ],
      [
        "▁U2",
        -9.387204131829456
      ],
      [
        "-fukk",
        -9.387232560000204
      ],
      [
        "▁mbóot",
        -9.387266590124833
      ],
      [
        "▁diggante",
        -9.38727702343377
      ],
      [
        "▁façon",
        -9.387286538561794
      ],
      [
        "▁Nord",
        -9.387288191729267
      ],
      [
        "▁janook",
        -9.38735169039041
      ],
      [
        "▁subë",
        -9.387362026667436
      ],
      [
        "▁sentiment",
        -9.387373824687046
      ],
      [
        "▁Ñàkk",
        -9.38739395646408
      ],
      [
        "▁Fatim",
        -9.387431004771804
      ],
      [
        "▁kook",
        -9.38744809666566
      ],
      [
        "z",
        -9.38751354881332
      ],
      [
        "▁morceau",
        -9.388059491729948
      ],
      [
        "▁l'enfant",
        -9.388371975443368
      ],
      [
        "mettre",
        -9.388603716895684
      ],
      [
        "▁metit",
        -9.388705719667858
      ],
      [
        "▁yëf",
        -9.388767741404337
      ],
      [
        "▁loxoom",
        -9.38881178268759
      ],
      [
        "▁fanaan",
        -9.388979041441189
      ],
      [
        "▁xuus",
        -9.389197092634113
      ],
      [
        "▁voix",
        -9.389200299942395
      ],
      [
        "ti",
        -9.389880760448932
      ],
      [
        "▁moins",
        -9.390006524282947
      ],
      [
        "▁njiit",
        -9.390467166126758
      ],
      [
        "▁yëngu",
        -9.39075441409075
      ],
      [
        "▁Ta",
        -9.390887640675773
      ],
      [
        "venir",
        -9.39107135796322
      ],
      [
        "▁bonne",
        -9.391899398635264
      ],
      [
        "▁mar",
        -9.392398010365518
      ],
      [
        "▁Voil",
        -9.392796508330408
      ],
      [
        "▁petite",
        -9.393271809997048
      ],
      [
        "▁tubaab",
        -9.393606891732388
      ],
      [
        "atim",
        -9.39425314415448
      ],
      [
        "▁train",
        -9.39481943917869
      ],
      [
        "▁jege",
        -9.394852888878399
      ],
      [
        "▁genn",
        -9.395539893784756
      ],
      [
        "▁tay",
        -9.401361116884361
      ],
      [
        "▁hautes",
        -9.40226030591831
      ],
      [
        "▁donc",
        -9.402629073160918
      ],
      [
        "▁gor",
        -9.403192891630152
      ],
      [
        "▁fils",
        -9.403230294367443
      ],
      [
        "▁jan",
        -9.405297685007339
      ],
      [
        "▁tàll",
        -9.405364285577711
      ],
      [
        "▁garçons",
        -9.4055680036725
      ],
      [
        "▁buur",
        -9.407931611951991
      ],
      [
        "▁Non",
        -9.411128493380872
      ],
      [
        "'avez",
        -9.412954526023873
      ],
      [
        "▁Bon",
        -9.414010791302577
      ],
      [
        "▁joor",
        -9.414182922068385
      ],
      [
        "▁fer",
        -9.4147409327144
      ],
      [
        "tion",
        -9.414945572598642
      ],
      [
        "▁neen",
        -9.416561625845667
      ],
      [
        "▁ñëwul",
        -9.417869462806973
      ],
      [
        "▁danga",
        -9.41811322225946
      ],
      [
        "impression",
        -9.418808055265297
      ],
      [
        "▁waral",
        -9.4217502897524
      ],
      [
        "▁telle",
        -9.422487740023438
      ],
      [
        "▁partes",
        -9.424698867139229
      ],
      [
        "▁xamant",
        -9.427538735258059
      ],
      [
        "▁Jo",
        -9.428495643829597
      ],
      [
        "▁fukk",
        -9.4305163408244
      ],
      [
        "▁doo",
        -9.430833021985716
      ],
      [
        "▁yab",
        -9.433709577619428
      ],
      [
        "part",
        -9.433981973355404
      ],
      [
        "▁wa",
        -9.43468089405399
      ],
      [
        "rait",
        -9.436002580796979
      ],
      [
        "▁eu",
        -9.436484950616244
      ],
      [
        "▁kaa",
        -9.43719016153393
      ],
      [
        "▁wuti",
        -9.437497276436426
      ],
      [
        "▁froid",
        -9.43892852587869
      ],
      [
        "▁s'agi",
        -9.440036954094742
      ],
      [
        "▁tan",
        -9.44602997311189
      ],
      [
        "▁noon",
        -9.44694788955982
      ],
      [
        "-tu",
        -9.448068931896133
      ],
      [
        "▁neneen",
        -9.448085471647703
      ],
      [
        "▁cons",
        -9.450515872219507
      ],
      [
        "▁es",
        -9.451879538506581
      ],
      [
        "▁samp",
        -9.452035562044088
      ],
      [
        "▁Ou",
        -9.45258098300399
      ],
      [
        "▁xëcc",
        -9.453814239503796
      ],
      [
        "▁tere",
        -9.456629207483948
      ],
      [
        "▁ciment",
        -9.45743741688479
      ],
      [
        "▁garabi",
        -9.46189876079131
      ],
      [
        "▁partira",
        -9.463634742277714
      ],
      [
        "▁feeñ",
        -9.464177228017675
      ],
      [
        "▁connais",
        -9.464806685080084
      ],
      [
        "▁tefes",
        -9.464897283132963
      ],
      [
        "▁Saa",
        -9.465164969012513
      ],
      [
        "▁r",
        -9.472062948785485
      ],
      [
        "▁car",
        -9.475477365131557
      ],
      [
        "▁we",
        -9.477452006402489
      ],
      [
        "▁table",
        -9.478224679683208
      ],
      [
        "▁jeu",
        -9.478493758125646
      ],
      [
        "vant",
        -9.481539427575463
      ],
      [
        "▁Nu",
        -9.4820389606889
      ],
      [
        "añoo",
        -9.483433694417531
      ],
      [
        "ar",
        -9.48412259419379
      ],
      [
        "▁cour",
        -9.488264720973262
      ],
      [
        "▁tekk",
        -9.4885317133086
      ],
      [
        "-il",
        -9.48854743389045
      ],
      [
        "▁Ri",
        -9.489009866829708
      ],
      [
        "ès",
        -9.489286515949601
      ],
      [
        "▁drap",
        -9.492952702081759
      ],
      [
        "éy",
        -9.493516187768375
      ],
      [
        "▁dënn",
        -9.494129012666773
      ],
      [
        "▁palanteer",
        -9.496646745526986
      ],
      [
        "▁nom",
        -9.496938304870408
      ],
      [
        "▁chef",
        -9.497426613861785
      ],
      [
        "▁Sénégal",
        -9.497511708430165
      ],
      [
        "▁yegg",
        -9.497722266723722
      ],
      [
        "▁Woo",
        -9.497882837832348
      ],
      [
        "▁entrai",
        -9.498295340864107
      ],
      [
        "▁Aujourd'hui",
        -9.498303019519803
      ],
      [
        "▁bëj-gànnaar",
        -9.498303019666002
      ],
      [
        "▁wëndéelu",
        -9.49830301967807
      ],
      [
        "▁médicaments",
        -9.498303019781758
      ],
      [
        "▁Biyaafaraa",
        -9.498303020200572
      ],
      [
        "▁lëndëm",
        -9.498303023030054
      ],
      [
        "▁sowu-jant",
        -9.498303388068006
      ],
      [
        "▁bànneex",
        -9.498304449029732
      ],
      [
        "▁société",
        -9.498304698309303
      ],
      [
        "▁complète",
        -9.49830480191257
      ],
      [
        "▁Senegaal",
        -9.498305976200761
      ],
      [
        "▁Jamono",
        -9.498308266569376
      ],
      [
        "▁Ainsi",
        -9.498313297400994
      ],
      [
        "▁Déedéet",
        -9.498333680840078
      ],
      [
        "▁Sérère",
        -9.498345732028874
      ],
      [
        "us",
        -9.498346987917897
      ],
      [
        "▁Almaañ",
        -9.498348238317611
      ],
      [
        "▁cosaan",
        -9.49836938274281
      ],
      [
        "▁d'Afrique",
        -9.498475755513732
      ],
      [
        "▁woto",
        -9.498485394663772
      ],
      [
        "▁lampe",
        -9.498501070112717
      ],
      [
        "▁l'âge",
        -9.498519440787547
      ],
      [
        "▁Teewul",
        -9.498651689866067
      ],
      [
        "▁gémmiñ",
        -9.498739821682255
      ],
      [
        "▁paaka",
        -9.49882103774693
      ],
      [
        "▁naqar",
        -9.498879509680036
      ],
      [
        "▁longtemps",
        -9.498891134922173
      ],
      [
        "▁baraada",
        -9.49891361034306
      ],
      [
        "▁yow",
        -9.499020731320357
      ],
      [
        "▁parfois",
        -9.499021461648946
      ],
      [
        "-t-il",
        -9.499133725275316
      ],
      [
        "▁chaleur",
        -9.49917347268066
      ],
      [
        "▁wanag",
        -9.499181820701843
      ],
      [
        "▁tukki",
        -9.499397889956777
      ],
      [
        "▁mucc",
        -9.499431715402856
      ],
      [
        "▁weñ",
        -9.499507871182509
      ],
      [
        "▁wépp",
        -9.499641762949574
      ],
      [
        "▁Musaa",
        -9.5001219397529
      ],
      [
        "▁gisaat",
        -9.500143671648283
      ],
      [
        "▁comport",
        -9.500376065771375
      ],
      [
        "▁wow",
        -9.50045788433494
      ],
      [
        "▁ràbb",
        -9.500552212187664
      ],
      [
        "▁pourtant",
        -9.500564484644507
      ],
      [
        "▁juste",
        -9.500634614496796
      ],
      [
        "▁jaŋg",
        -9.500720242898083
      ],
      [
        "▁yar",
        -9.501145260492326
      ],
      [
        "▁jàmm",
        -9.501185893895506
      ],
      [
        "▁woowe",
        -9.50150713419477
      ],
      [
        "▁Niis",
        -9.502649479739786
      ],
      [
        "▁Ici",
        -9.502730203211245
      ],
      [
        "▁meubles",
        -9.502918264898769
      ],
      [
        "▁insectes",
        -9.502939017612238
      ],
      [
        "▁feu",
        -9.503526860657436
      ],
      [
        "▁sànni",
        -9.503776114772991
      ],
      [
        "▁Toi",
        -9.504447183796527
      ],
      [
        "▁Doo",
        -9.504527696233747
      ],
      [
        "▁Ne",
        -9.504565117096305
      ],
      [
        "Après",
        -9.505023843675124
      ],
      [
        "▁ŋgoon",
        -9.505189797211807
      ],
      [
        "▁gan",
        -9.505508811259986
      ],
      [
        "▁étions",
        -9.505941884007616
      ],
      [
        "▁alors",
        -9.506681284697223
      ],
      [
        "▁place",
        -9.50776563182241
      ],
      [
        "▁prend",
        -9.5081502349193
      ],
      [
        "▁jo",
        -9.508176806667379
      ],
      [
        "▁foo",
        -9.509931545073261
      ],
      [
        "▁parlé",
        -9.510500089927701
      ],
      [
        "▁savane",
        -9.511425872533474
      ],
      [
        "▁lieux",
        -9.512652562055218
      ],
      [
        "▁sew",
        -9.51284459421189
      ],
      [
        "▁San",
        -9.513506527539132
      ],
      [
        "▁wan",
        -9.513675450250078
      ],
      [
        "▁Fii",
        -9.514612214700682
      ],
      [
        "▁bâtons",
        -9.51475383036865
      ],
      [
        "▁fleurs",
        -9.516538863120427
      ],
      [
        "ai",
        -9.516588666571405
      ],
      [
        "▁objets",
        -9.517123028389895
      ],
      [
        "▁pro",
        -9.517234306463834
      ],
      [
        "▁Tay",
        -9.517418713673843
      ],
      [
        "▁demande",
        -9.517983763993913
      ],
      [
        "▁booba",
        -9.518163647892491
      ],
      [
        "▁bleu",
        -9.519254495572664
      ],
      [
        "▁Noon",
        -9.520029473971727
      ],
      [
        "ter",
        -9.520131618015384
      ],
      [
        "▁appelle",
        -9.5217650177351
      ],
      [
        "▁ñooñu",
        -9.522162110813161
      ],
      [
        "▁Yo",
        -9.522283237599618
      ],
      [
        "▁nag.",
        -9.523004506487837
      ],
      [
        "▁këram",
        -9.52329317463318
      ],
      [
        "'habitude",
        -9.525226387553863
      ],
      [
        "▁enfance",
        -9.525798930359167
      ],
      [
        "▁pou",
        -9.528184160398254
      ],
      [
        "▁ñaan",
        -9.528562794480273
      ],
      [
        "▁africain",
        -9.530079755202898
      ],
      [
        "▁ceci",
        -9.531931619759911
      ],
      [
        "▁côte",
        -9.532156299525326
      ],
      [
        "▁jeunes",
        -9.53492852264748
      ],
      [
        "▁Alma",
        -9.535767837389862
      ],
      [
        "ewul",
        -9.535805597790652
      ],
      [
        "▁bol",
        -9.535945161275754
      ],
      [
        "▁avais",
        -9.536912089500523
      ],
      [
        "▁jusqu'au",
        -9.540533082672487
      ],
      [
        "▁viennes",
        -9.541709747338745
      ],
      [
        "ture",
        -9.541948497808685
      ],
      [
        "▁nul",
        -9.543395464622774
      ],
      [
        "▁routes",
        -9.543863733321016
      ],
      [
        "▁gardé",
        -9.544268982310365
      ],
      [
        "▁diis",
        -9.544740900572707
      ],
      [
        "▁bes",
        -9.545317701756133
      ],
      [
        "dé",
        -9.548263472743804
      ],
      [
        "▁bees",
        -9.54868636834744
      ],
      [
        "▁vas",
        -9.549728629930783
      ],
      [
        "▁petits",
        -9.549762227996261
      ],
      [
        "ata",
        -9.552253229923949
      ],
      [
        "euse",
        -9.553820067209415
      ],
      [
        "▁ng",
        -9.555380412034875
      ],
      [
        "▁Ña",
        -9.555390207923342
      ],
      [
        "aller",
        -9.555856371138528
      ],
      [
        "▁donne",
        -9.55855636356504
      ],
      [
        "▁lim",
        -9.561134279427007
      ],
      [
        "▁alal",
        -9.561273853483737
      ],
      [
        "▁H",
        -9.562297580514944
      ],
      [
        "▁mo",
        -9.56502825174571
      ],
      [
        "▁vais",
        -9.565602090561477
      ],
      [
        "ji",
        -9.566140140959927
      ],
      [
        "▁Me",
        -9.56772420376127
      ],
      [
        "▁tool",
        -9.570875560347137
      ],
      [
        "▁kee",
        -9.573676351225334
      ],
      [
        "▁entier",
        -9.575713052166826
      ],
      [
        "▁guy",
        -9.577323726194631
      ],
      [
        "▁raconte",
        -9.57821413304337
      ],
      [
        "lle",
        -9.578565974007791
      ],
      [
        "▁rêve",
        -9.580484899544425
      ],
      [
        "▁m'en",
        -9.582045646976857
      ],
      [
        "ppelle",
        -9.5836944751172
      ],
      [
        "▁fee",
        -9.58432970968402
      ],
      [
        "▁nature",
        -9.585548117775993
      ],
      [
        "▁wute",
        -9.588641349040255
      ],
      [
        "▁Go",
        -9.588954304069567
      ],
      [
        "▁e",
        -9.593931186136437
      ],
      [
        "ral",
        -9.593980848111045
      ],
      [
        "▁parc",
        -9.594293930935788
      ],
      [
        "▁luy",
        -9.59647728256737
      ],
      [
        "▁d'a",
        -9.597713636247803
      ],
      [
        "▁rey",
        -9.600808531582507
      ],
      [
        "▁Ya",
        -9.603467668741589
      ],
      [
        "▁bula",
        -9.603776637753112
      ],
      [
        "gré",
        -9.605232240384566
      ],
      [
        "▁tête",
        -9.60594386035099
      ],
      [
        "▁nan",
        -9.607725232698964
      ],
      [
        "oom",
        -9.610517158861796
      ],
      [
        "▁jën",
        -9.611111967919282
      ],
      [
        "▁montagne",
        -9.611555044438859
      ],
      [
        "▁nopp",
        -9.612685976256099
      ],
      [
        "▁pied",
        -9.61363770693877
      ],
      [
        "▁ira",
        -9.615442397551046
      ],
      [
        "▁në",
        -9.615992791292848
      ],
      [
        "▁bool",
        -9.61926960378922
      ],
      [
        "▁Ñoo",
        -9.619956033533843
      ],
      [
        "▁kay",
        -9.620837775784814
      ],
      [
        "▁yilif",
        -9.622040429240997
      ],
      [
        "▁Victoria",
        -9.623303019529155
      ],
      [
        "▁Léeg-léeg",
        -9.623303019572656
      ],
      [
        "▁kéemaane",
        -9.623303023369246
      ],
      [
        "▁difficile",
        -9.623303148674054
      ],
      [
        "▁assurément",
        -9.62330324359127
      ],
      [
        "▁pantalon",
        -9.623303351019823
      ],
      [
        "▁xàmmee",
        -9.623303414495059
      ],
      [
        "▁chaussettes",
        -9.62330588965118
      ],
      [
        "▁xaalis",
        -9.623310790362876
      ],
      [
        "▁Legoos",
        -9.62331330826455
      ],
      [
        "▁Monsieur",
        -9.623319385278538
      ],
      [
        "▁mauvais",
        -9.623325570198144
      ],
      [
        "▁Réew",
        -9.623337047982155
      ],
      [
        "▁L'Afrique",
        -9.623338953197408
      ],
      [
        "▁puissance",
        -9.623340493765653
      ],
      [
        "▁keroog",
        -9.623345077003977
      ],
      [
        "▁yëngal",
        -9.623357158470569
      ],
      [
        "▁frontière",
        -9.623359658239211
      ],
      [
        "▁janeer",
        -9.623362081778547
      ],
      [
        "▁juddoo",
        -9.623398490385014
      ],
      [
        "▁plein",
        -9.623398756826154
      ],
      [
        "▁l'amour",
        -9.623439289321736
      ],
      [
        "▁palaat",
        -9.62349590867397
      ],
      [
        "▁taxu",
        -9.62351899598869
      ],
      [
        "▁douceur",
        -9.623550194776245
      ],
      [
        "▁Dëkk",
        -9.623613616176101
      ],
      [
        "▁dernier",
        -9.623656884782037
      ],
      [
        "▁fajkat",
        -9.623739082367312
      ],
      [
        "▁Officer",
        -9.623741526644217
      ],
      [
        "▁colère",
        -9.623919481990498
      ],
      [
        "▁bouche",
        -9.623949831733686
      ],
      [
        "▁bomb",
        -9.624039697779425
      ],
      [
        "▁Laobé",
        -9.62420886127582
      ],
      [
        "▁ensemble",
        -9.62423613303441
      ],
      [
        "▁Nice",
        -9.625726007343086
      ],
      [
        "▁Buur",
        -9.626023489802815
      ],
      [
        "▁Kookule",
        -9.628144311102162
      ],
      [
        "▁départ",
        -9.62864021464026
      ],
      [
        "▁Plu",
        -9.628755214901132
      ],
      [
        "▁histoire",
        -9.629098738802483
      ],
      [
        "▁riir",
        -9.630298032797901
      ],
      [
        "▁accroché",
        -9.63091015508156
      ],
      [
        "▁cherche",
        -9.631367625180419
      ],
      [
        "▁daawu",
        -9.631642515795626
      ],
      [
        "▁regarder",
        -9.6317678588331
      ],
      [
        "▁gejje",
        -9.634556506484094
      ],
      [
        "▁sës",
        -9.635290913096382
      ],
      [
        "▁proche",
        -9.636166952564363
      ],
      [
        "▁waxtu",
        -9.636276902294613
      ],
      [
        "▁goût",
        -9.637307072926397
      ],
      [
        "▁sauvages",
        -9.637609239143975
      ],
      [
        "▁compte",
        -9.637609650599922
      ],
      [
        "ba",
        -9.638095030456938
      ],
      [
        "▁six",
        -9.638153172238365
      ],
      [
        "▁tóo",
        -9.638222690456375
      ],
      [
        "▁Sunu",
        -9.63832036706083
      ],
      [
        "▁cœur",
        -9.638573185981237
      ],
      [
        "▁jaune",
        -9.63866314110845
      ],
      [
        "▁bekk",
        -9.63899860792301
      ],
      [
        "ous",
        -9.63995999996318
      ],
      [
        "▁lonk",
        -9.640402147035966
      ],
      [
        "▁noms",
        -9.641478604073871
      ],
      [
        "▁Wu",
        -9.641928580486969
      ],
      [
        "▁ndey",
        -9.642108705923699
      ],
      [
        "▁viennent",
        -9.642170465212686
      ],
      [
        "▁co",
        -9.642444826360455
      ],
      [
        "▁yat",
        -9.643036762371409
      ],
      [
        "▁kaas",
        -9.645505927959617
      ],
      [
        "▁unique",
        -9.645887165025751
      ],
      [
        "▁soppi",
        -9.646883009307361
      ],
      [
        "▁ex",
        -9.64741267869226
      ],
      [
        "▁bëggée",
        -9.648240141921963
      ],
      [
        "▁t'ai",
        -9.64972792565592
      ],
      [
        "▁Ki",
        -9.65033442110962
      ],
      [
        "▁noire.",
        -9.650465846565957
      ],
      [
        "oir",
        -9.651539180411463
      ],
      [
        "▁dalal",
        -9.651863484526274
      ],
      [
        "àll",
        -9.652516997773162
      ],
      [
        "oivent",
        -9.654930654890807
      ],
      [
        "▁parents",
        -9.65679032245262
      ],
      [
        "▁Vas",
        -9.657839071745043
      ],
      [
        "près",
        -9.657878952753993
      ],
      [
        "ñoo",
        -9.660859190737343
      ],
      [
        "▁waar",
        -9.662860722909915
      ],
      [
        "▁kon",
        -9.662973405035
      ],
      [
        "▁boy",
        -9.663652094437198
      ],
      [
        "▁bo",
        -9.663762059127407
      ],
      [
        "▁inter",
        -9.664059756705846
      ],
      [
        "ez-vous",
        -9.665127503925165
      ],
      [
        "▁Cha",
        -9.665975353741477
      ],
      [
        "▁No",
        -9.666451951979475
      ],
      [
        "▁instant",
        -9.668904548986621
      ],
      [
        "▁Tou",
        -9.674422207013283
      ],
      [
        "os",
        -9.676372251571802
      ],
      [
        "boo",
        -9.677894202257272
      ],
      [
        "▁sonal",
        -9.678278135945394
      ],
      [
        "▁Dañ",
        -9.680762693457371
      ],
      [
        "nce",
        -9.683009158197539
      ],
      [
        "▁teew",
        -9.683147386918723
      ],
      [
        "▁Tey",
        -9.68676500307554
      ],
      [
        "▁gise",
        -9.68726245967975
      ],
      [
        "▁men",
        -9.687916575395315
      ],
      [
        "istrict",
        -9.687917865846458
      ],
      [
        "sait",
        -9.688652098477467
      ],
      [
        "llait",
        -9.689192066762768
      ],
      [
        "▁photos",
        -9.690805183992026
      ],
      [
        "▁Ceux",
        -9.692142207664654
      ],
      [
        "▁dénd",
        -9.692625238742723
      ],
      [
        "▁max",
        -9.692884232266366
      ],
      [
        "lon",
        -9.693464845710384
      ],
      [
        "▁sago",
        -9.693725209545683
      ],
      [
        "ré",
        -9.696141128305927
      ],
      [
        "▁devai",
        -9.69740208904998
      ],
      [
        "ooy",
        -9.698925135628466
      ],
      [
        "waay",
        -9.699036206585337
      ],
      [
        "▁éta",
        -9.699141743437586
      ],
      [
        "▁nëbb",
        -9.700332099457
      ],
      [
        "▁raay",
        -9.701711156543627
      ],
      [
        "ique",
        -9.702647014814104
      ],
      [
        "o,",
        -9.704738605194944
      ],
      [
        "kaay",
        -9.705295571697844
      ],
      [
        "▁dessin",
        -9.706349359731707
      ],
      [
        "▁pënd",
        -9.708745809476067
      ],
      [
        "okk",
        -9.710061968601572
      ],
      [
        "▁gris",
        -9.710264867344407
      ],
      [
        "ax",
        -9.710270848031803
      ],
      [
        "▁buñ",
        -9.71052612776582
      ],
      [
        "qui",
        -9.71655766239705
      ],
      [
        "biy",
        -9.718457179926787
      ],
      [
        "▁der",
        -9.718697586299003
      ],
      [
        "▁ven",
        -9.722882327927849
      ],
      [
        "ga",
        -9.724682995197076
      ],
      [
        "mes",
        -9.728166529169917
      ],
      [
        "▁êtes",
        -9.729672348462758
      ],
      [
        "▁retour",
        -9.731132156839259
      ],
      [
        "oit",
        -9.73351517723427
      ],
      [
        "moon",
        -9.733796808680344
      ],
      [
        "▁sokolaa",
        -9.735299356071923
      ],
      [
        "▁scorpion",
        -9.739085238621183
      ],
      [
        "eŋ",
        -9.742194138858483
      ],
      [
        "▁tar",
        -9.74290488585125
      ],
      [
        "▁peur",
        -9.74386412679817
      ],
      [
        "▁tày",
        -9.746139992797914
      ],
      [
        "mbaar",
        -9.747267500126071
      ],
      [
        "▁présent",
        -9.747820540965947
      ],
      [
        "▁bir",
        -9.748059036099374
      ],
      [
        "▁mënu",
        -9.748610167618214
      ],
      [
        "▁vivre",
        -9.750467591917426
      ],
      [
        "ces",
        -9.75303588332503
      ],
      [
        "▁cours",
        -9.753540860079534
      ],
      [
        "gu",
        -9.75513333268595
      ],
      [
        "▁ñett",
        -9.755600887890346
      ],
      [
        "▁traverse",
        -9.75819991571389
      ],
      [
        "▁defare",
        -9.759043342104597
      ],
      [
        "▁eû",
        -9.759723807707765
      ],
      [
        "▁pouvai",
        -9.760610224588783
      ],
      [
        "▁Xan",
        -9.761030252154335
      ],
      [
        "▁askan",
        -9.761839665415586
      ],
      [
        "▁simple",
        -9.765635066127544
      ],
      [
        "▁gouvernement",
        -9.766160162629681
      ],
      [
        "▁gàncax",
        -9.766160171252398
      ],
      [
        "▁calebasse",
        -9.766160193111235
      ],
      [
        "▁loppitaan",
        -9.766160217514845
      ],
      [
        "▁Casamance",
        -9.766160247129093
      ],
      [
        "▁bonheur",
        -9.766160254166367
      ],
      [
        "▁sukkuraat",
        -9.76616029878212
      ],
      [
        "▁Ayijoo",
        -9.76616075055522
      ],
      [
        "▁tôle",
        -9.766160893680828
      ],
      [
        "▁boeuf",
        -9.766160941471188
      ],
      [
        "▁màrse",
        -9.766161589259601
      ],
      [
        "▁besoin",
        -9.766162295857654
      ],
      [
        "▁Yaakaar",
        -9.766162724958527
      ],
      [
        "▁premier",
        -9.766164112894572
      ],
      [
        "▁Óbudu",
        -9.766169887612289
      ],
      [
        "▁Deŋk",
        -9.766182950798786
      ],
      [
        "▁visite",
        -9.766187020411143
      ],
      [
        "▁solitude",
        -9.766190893519763
      ],
      [
        "▁rëcc",
        -9.766195549008772
      ],
      [
        "▁mourir",
        -9.766197249446758
      ],
      [
        "▁wurus",
        -9.766200803528353
      ],
      [
        "▁magasin",
        -9.766205152424664
      ],
      [
        "▁réalité",
        -9.766209177960029
      ],
      [
        "▁Palais",
        -9.766216906241992
      ],
      [
        "▁suukër",
        -9.766218238974956
      ],
      [
        "▁terrain",
        -9.766225341126999
      ],
      [
        "▁mbedd",
        -9.7662360683026
      ],
      [
        "▁l'Angleterre",
        -9.766250895271417
      ],
      [
        "▁servir",
        -9.76626833019564
      ],
      [
        "▁campement",
        -9.76626862885897
      ],
      [
        "▁bâtiment",
        -9.766297466114167
      ],
      [
        "▁yeksi",
        -9.766309005483642
      ],
      [
        "▁plateaux",
        -9.766345019263992
      ],
      [
        "▁croyai",
        -9.766351946766074
      ],
      [
        "▁pañe",
        -9.766365358156943
      ],
      [
        "▁dëgër",
        -9.766370870256292
      ],
      [
        "▁simoŋ",
        -9.766401408544919
      ],
      [
        "▁yànj",
        -9.766530238183195
      ],
      [
        "▁d'abord",
        -9.766560298604674
      ],
      [
        "▁nelaw",
        -9.766626819034128
      ],
      [
        "▁journée",
        -9.766720789003458
      ],
      [
        "▁Pël",
        -9.766802590563898
      ],
      [
        "▁ensuite",
        -9.766820574298974
      ],
      [
        "▁jàppale",
        -9.767207701148338
      ],
      [
        "▁courant",
        -9.76746183891009
      ],
      [
        "▁Xaw",
        -9.767538564702223
      ],
      [
        "thme",
        -9.767547868185616
      ],
      [
        "▁raglu",
        -9.767675508695165
      ],
      [
        "▁laisser",
        -9.76810693365649
      ],
      [
        "▁kukk",
        -9.768111730474704
      ],
      [
        "▁nuages",
        -9.768126223244016
      ],
      [
        "▁lëf",
        -9.7686153473572
      ],
      [
        "▁bett",
        -9.76875987222348
      ],
      [
        "▁dajale",
        -9.768821053317474
      ],
      [
        "▁reconnu",
        -9.768985891991576
      ],
      [
        "ñeen",
        -9.769021556613582
      ],
      [
        "▁palmes",
        -9.769214776659107
      ],
      [
        "▁Ó",
        -9.769255342115848
      ],
      [
        "▁Ayaa",
        -9.769523482966624
      ],
      [
        "▁couteau",
        -9.769532940230176
      ],
      [
        "▁Fais",
        -9.770148045011009
      ],
      [
        "▁teewu",
        -9.770162046521548
      ],
      [
        "▁depuis",
        -9.770402189576368
      ],
      [
        "▁reçu",
        -9.770472978159482
      ],
      [
        "▁d'eux",
        -9.770522722053776
      ],
      [
        "▁ventre",
        -9.770544569044004
      ],
      [
        "▁xeex",
        -9.770900156630281
      ],
      [
        "▁dehors",
        -9.77093433180577
      ],
      [
        "▁époque",
        -9.771007529672808
      ],
      [
        "▁naqadi",
        -9.771100164125691
      ],
      [
        "▁dirait",
        -9.771201529838105
      ],
      [
        "▁yenu",
        -9.771323394009835
      ],
      [
        "▁moto",
        -9.77238989814359
      ],
      [
        "t.",
        -9.77252120918119
      ],
      [
        "▁Parle",
        -9.772537470804016
      ],
      [
        "▁images",
        -9.772556264815776
      ],
      [
        "▁termites",
        -9.772574530844084
      ],
      [
        "▁vaste",
        -9.772660848173347
      ],
      [
        "▁jeeg",
        -9.772812277673964
      ],
      [
        "▁district",
        -9.773032644394958
      ],
      [
        "▁far",
        -9.773100312378846
      ],
      [
        "▁Bunt",
        -9.773131163271962
      ],
      [
        "▁màndi",
        -9.773157580265634
      ],
      [
        "▁propre",
        -9.773992109739469
      ],
      [
        "▁jooy",
        -9.774461643435195
      ],
      [
        "▁seng",
        -9.774679260731435
      ],
      [
        "▁l'entr",
        -9.77513238780563
      ],
      [
        "▁ňuul",
        -9.775539551123044
      ],
      [
        "▁ton",
        -9.775779631359825
      ],
      [
        "▁fuir",
        -9.776022291461524
      ],
      [
        "▁Foofu",
        -9.776029480335925
      ],
      [
        "▁mukk",
        -9.77658811347633
      ],
      [
        "▁gros",
        -9.776688744120644
      ],
      [
        "▁àngale",
        -9.777366284187288
      ],
      [
        "▁sowu",
        -9.77773737867571
      ],
      [
        "ngóor",
        -9.778072382614475
      ],
      [
        "▁dessus",
        -9.778480055327138
      ],
      [
        "▁xoolee",
        -9.778556128130631
      ],
      [
        "▁immense",
        -9.778572934462233
      ],
      [
        "▁tub",
        -9.778753616444805
      ],
      [
        "▁bëggoon",
        -9.779007397266414
      ],
      [
        "▁assiette",
        -9.77921317502183
      ],
      [
        "▁porteurs",
        -9.77953178585467
      ],
      [
        "ta",
        -9.779953152335572
      ],
      [
        "▁Fekk",
        -9.781945750746646
      ],
      [
        "éjà",
        -9.782366626613351
      ],
      [
        "▁droit",
        -9.782967076086562
      ],
      [
        "▁malade",
        -9.783295361578784
      ],
      [
        "▁jur",
        -9.783323195036779
      ],
      [
        "▁sàmm",
        -9.783586232500744
      ],
      [
        "▁wàll",
        -9.78399211310712
      ],
      [
        "▁vêtu",
        -9.783993040408978
      ],
      [
        "odeur",
        -9.78462787210833
      ],
      [
        "▁sens",
        -9.784932778825393
      ],
      [
        "▁yooyu.",
        -9.785298807511168
      ],
      [
        "▁000",
        -9.78600321863963
      ],
      [
        "▁chemins",
        -9.786341748042993
      ],
      [
        "▁âge",
        -9.786566192965438
      ],
      [
        "nd",
        -9.787505531543943
      ],
      [
        "▁pom",
        -9.787814322447273
      ],
      [
        "▁comment",
        -9.78803064244701
      ],
      [
        "▁yii",
        -9.788101761291074
      ],
      [
        "▁regardes",
        -9.788164257183634
      ],
      [
        "▁kowam",
        -9.788209594189063
      ],
      [
        "▁masuma",
        -9.788567323002358
      ],
      [
        "▁chaise",
        -9.788630138706512
      ],
      [
        "▁donner",
        -9.78983884643878
      ],
      [
        "uukar",
        -9.790031197769856
      ],
      [
        "▁wutal",
        -9.79107904636874
      ],
      [
        "▁waxoon",
        -9.791266711715245
      ],
      [
        "▁jag",
        -9.791521498168233
      ],
      [
        "▁égale",
        -9.79171677575753
      ],
      [
        "▁tour",
        -9.793709336569156
      ],
      [
        "▁t'en",
        -9.794636388411865
      ],
      [
        "▁arrivés",
        -9.795274934031118
      ],
      [
        "▁sorti",
        -9.795337683909487
      ],
      [
        "ût",
        -9.797925502187194
      ],
      [
        "▁set",
        -9.79962390086239
      ],
      [
        "▁cru",
        -9.79974616411271
      ],
      [
        "▁L'un",
        -9.801566309809669
      ],
      [
        "son",
        -9.801606132517543
      ],
      [
        "été",
        -9.801832025789798
      ],
      [
        "garde",
        -9.801844122314995
      ],
      [
        "▁premières",
        -9.80346925586186
      ],
      [
        "▁muur",
        -9.807507774012153
      ],
      [
        "▁dakk",
        -9.807531676084523
      ],
      [
        "▁cas",
        -9.807838014022156
      ],
      [
        "koo",
        -9.809882256690411
      ],
      [
        "▁sou",
        -9.810076306865646
      ],
      [
        "▁yaak",
        -9.814834465633897
      ],
      [
        "▁française",
        -9.816022004261308
      ],
      [
        "▁Yan",
        -9.816266459367272
      ],
      [
        "▁enfant-",
        -9.81728734920419
      ],
      [
        "nt.",
        -9.81780026354979
      ],
      [
        "▁siy",
        -9.819181859540107
      ],
      [
        "▁jàkk",
        -9.82022194596672
      ],
      [
        "▁ñibbi",
        -9.82044445651691
      ],
      [
        "▁beau",
        -9.820854927857464
      ],
      [
        "▁ñen",
        -9.82406323909771
      ],
      [
        "ables",
        -9.827359868907942
      ],
      [
        "▁sor",
        -9.828873878103263
      ],
      [
        "▁wane",
        -9.829414402094104
      ],
      [
        "niki",
        -9.829875513327309
      ],
      [
        "autorité",
        -9.831923243395284
      ],
      [
        "▁Nda",
        -9.833395928024755
      ],
      [
        "▁cinq",
        -9.834603775951463
      ],
      [
        "ssent",
        -9.835077033788028
      ],
      [
        "▁coloniale",
        -9.835262142128123
      ],
      [
        "▁tànki",
        -9.83639053864522
      ],
      [
        "▁Car",
        -9.83657149393256
      ],
      [
        "▁con",
        -9.838390358853395
      ],
      [
        "ëf",
        -9.839523682029183
      ],
      [
        "▁elles",
        -9.840291641154325
      ],
      [
        "▁cee",
        -9.84114112283124
      ],
      [
        "▁anglaise",
        -9.841364616845524
      ],
      [
        "▁provi",
        -9.842435682833717
      ],
      [
        "▁doxe",
        -9.843352585647345
      ],
      [
        "▁Ka",
        -9.844048668790302
      ],
      [
        "▁crise",
        -9.844398480355327
      ],
      [
        "▁Nko",
        -9.845211977318389
      ],
      [
        "lli",
        -9.847052735138847
      ],
      [
        "el",
        -9.849615056068846
      ],
      [
        "▁xob",
        -9.850271961810709
      ],
      [
        "▁anglais",
        -9.85072385370144
      ],
      [
        "▁màndarga",
        -9.852904936490424
      ],
      [
        "▁chasse",
        -9.856465972802804
      ],
      [
        "▁danu",
        -9.856530772632663
      ],
      [
        "-je",
        -9.85680091267526
      ],
      [
        "aale",
        -9.857911068790846
      ],
      [
        "▁më",
        -9.858002478471047
      ],
      [
        "▁donn",
        -9.859714365184452
      ],
      [
        "▁coupé",
        -9.859975337192996
      ],
      [
        "▁nañoo",
        -9.86059373317886
      ],
      [
        "▁refuse",
        -9.861092926787808
      ],
      [
        "ŋga",
        -9.863491047738137
      ],
      [
        "▁mbë",
        -9.864636561335509
      ],
      [
        "kom",
        -9.86480203760364
      ],
      [
        "▁colonial",
        -9.866363949989095
      ],
      [
        "▁Liggéey",
        -9.867068456280784
      ],
      [
        "entiers",
        -9.86760131285846
      ],
      [
        "quel",
        -9.868751838688897
      ],
      [
        "▁Aw",
        -9.869002986843281
      ],
      [
        "▁j'en",
        -9.870156611708007
      ],
      [
        "▁woy",
        -9.87236286515331
      ],
      [
        "▁ré",
        -9.872451319365346
      ],
      [
        "garder",
        -9.87386286203743
      ],
      [
        "▁fall",
        -9.874967448005409
      ],
      [
        "ton",
        -9.876234081834061
      ],
      [
        "▁neex.",
        -9.876977364888615
      ],
      [
        "▁waroo",
        -9.880355731082586
      ],
      [
        "êtes",
        -9.880375972238529
      ],
      [
        "ire",
        -9.882201990818311
      ],
      [
        "ure",
        -9.882883186263182
      ],
      [
        "▁jàngal",
        -9.88435768815411
      ],
      [
        "▁Re",
        -9.886922952202603
      ],
      [
        "▁taabal",
        -9.886994399328218
      ],
      [
        "au",
        -9.887339597929518
      ],
      [
        "▁jànq",
        -9.888183235899149
      ],
      [
        "▁siiw",
        -9.889933117953333
      ],
      [
        "▁all",
        -9.891535240612884
      ],
      [
        "▁duma",
        -9.894655354627064
      ],
      [
        "▁sant",
        -9.895035131653
      ],
      [
        "▁fût",
        -9.89621774977164
      ],
      [
        "▁fenêtre",
        -9.897045519453009
      ],
      [
        "▁d'autre",
        -9.898153232496103
      ],
      [
        "▁cont",
        -9.898721593806235
      ],
      [
        "it.",
        -9.899547437518905
      ],
      [
        "▁suiv",
        -9.90125267833613
      ],
      [
        "▁ñaa",
        -9.901561634967173
      ],
      [
        "▁ñooña",
        -9.90168314579794
      ],
      [
        "▁jàn",
        -9.90195262125367
      ],
      [
        "àkk",
        -9.902320367792054
      ],
      [
        "▁Com",
        -9.903822124591377
      ],
      [
        "▁kàttan",
        -9.904879106443762
      ],
      [
        "neen",
        -9.905459134109314
      ],
      [
        "vient",
        -9.907107646331175
      ],
      [
        "▁V",
        -9.907418119387515
      ],
      [
        "▁ressenti",
        -9.908493799632573
      ],
      [
        "▁peut-",
        -9.910082614409843
      ],
      [
        "ar.",
        -9.91008921371767
      ],
      [
        "aay",
        -9.910418499508747
      ],
      [
        "▁juróom",
        -9.911316175638044
      ],
      [
        "▁boue",
        -9.914587906778843
      ],
      [
        "avais",
        -9.916232248367232
      ],
      [
        "▁fais",
        -9.916714022949233
      ],
      [
        "▁maladie",
        -9.91705634994468
      ],
      [
        "▁destin",
        -9.917649231154252
      ],
      [
        "▁met",
        -9.919188691685903
      ],
      [
        "▁Wa",
        -9.923691954327936
      ],
      [
        "▁Ñe",
        -9.923970556172215
      ],
      [
        "▁étranger",
        -9.924432406207037
      ],
      [
        "ndax",
        -9.925270617425298
      ],
      [
        "▁doomi-",
        -9.926505891745997
      ],
      [
        "x-ci",
        -9.926928523908236
      ],
      [
        "▁chemin",
        -9.927233951446857
      ],
      [
        "▁utilise",
        -9.927994704687297
      ],
      [
        "père",
        -9.929783450850444
      ],
      [
        "▁Ar",
        -9.930591307507763
      ],
      [
        "▁chapeau",
        -9.932172070116753
      ],
      [
        "▁juum",
        -9.932692457044777
      ],
      [
        "▁tàngaay",
        -9.93270006900693
      ],
      [
        "8",
        -9.93280892998213
      ],
      [
        "▁Wiktoryaa",
        -9.932826829052946
      ],
      [
        "▁dëggëntaan",
        -9.93282682934328
      ],
      [
        "▁Mellentaan",
        -9.932826831125604
      ],
      [
        "▁petorool",
        -9.932826840951707
      ],
      [
        "▁officer",
        -9.932826849145558
      ],
      [
        "▁territoire",
        -9.932826850938818
      ],
      [
        "▁dóomu-taal",
        -9.932826865309998
      ],
      [
        "▁auparavant",
        -9.932826896743132
      ],
      [
        "▁jaxasoo",
        -9.93282691829141
      ],
      [
        "▁dëgg-dëgg",
        -9.932826954808133
      ],
      [
        "▁ponkal",
        -9.932827113153868
      ],
      [
        "▁ngëlén",
        -9.932827598196667
      ],
      [
        "▁règle",
        -9.932827731895827
      ],
      [
        "▁rideau",
        -9.932827796028775
      ],
      [
        "▁coiff",
        -9.93282809578666
      ],
      [
        "▁chemise",
        -9.932830169192941
      ],
      [
        "▁Lagos",
        -9.932831950901507
      ],
      [
        "▁désert",
        -9.932831991230799
      ],
      [
        "▁Wolof",
        -9.932835937209084
      ],
      [
        "▁veulent",
        -9.932837619671417
      ],
      [
        "▁domaine",
        -9.93283885518063
      ],
      [
        "▁Waxtaan",
        -9.932839046667588
      ],
      [
        "▁contact",
        -9.932840875784105
      ],
      [
        "▁chacun",
        -9.932841022114925
      ],
      [
        "▁construction",
        -9.932850181288906
      ],
      [
        "▁xibaar",
        -9.932850577160671
      ],
      [
        "▁bërëb",
        -9.932850867261706
      ],
      [
        "▁vingt",
        -9.93285182946663
      ],
      [
        "▁féete",
        -9.932854860662545
      ],
      [
        "▁L'enfant",
        -9.932864008667925
      ],
      [
        "▁cheveux",
        -9.932864034793388
      ],
      [
        "▁l'époque",
        -9.932872381438306
      ],
      [
        "▁vérité",
        -9.932873106486092
      ],
      [
        "▁d'autrefois",
        -9.932878570148581
      ],
      [
        "▁adulte",
        -9.932883505747217
      ],
      [
        "▁tàmm",
        -9.932883751290563
      ],
      [
        "▁jékkee-j",
        -9.932902159553224
      ],
      [
        "▁werante",
        -9.932931035763774
      ],
      [
        "▁peinture",
        -9.932933257395149
      ],
      [
        "▁jumtukaay",
        -9.933021593364682
      ],
      [
        "▁comprendre",
        -9.93305323568006
      ],
      [
        "▁cofeel",
        -9.93306873971463
      ],
      [
        "▁fetal",
        -9.933078631990222
      ],
      [
        "▁Tugël",
        -9.933095761041086
      ],
      [
        "▁chocolatée",
        -9.933104756988907
      ],
      [
        "▁jabar",
        -9.93313561484321
      ],
      [
        "▁mbokk",
        -9.93313594809677
      ],
      [
        "▁début",
        -9.93314675808454
      ],
      [
        "▁accompagné",
        -9.933205096505837
      ],
      [
        "▁j'étais",
        -9.933224185163052
      ],
      [
        "▁légère",
        -9.933241130830778
      ],
      [
        "▁caaxaan",
        -9.933279708274355
      ],
      [
        "▁meňň",
        -9.93333157653708
      ],
      [
        "▁j'imagine",
        -9.933339499120297
      ],
      [
        "▁Génn",
        -9.933381525646254
      ],
      [
        "▁d'esprit",
        -9.933390098611294
      ],
      [
        "▁gunge",
        -9.933471793715801
      ],
      [
        "▁certainement",
        -9.933560410832365
      ],
      [
        "▁njabootam",
        -9.933595413147277
      ],
      [
        "▁rêvé",
        -9.933619523906053
      ],
      [
        "▁Donne",
        -9.933625299974583
      ],
      [
        "▁mbind",
        -9.933733734814256
      ],
      [
        "▁seetaan",
        -9.933800943750878
      ],
      [
        "▁connaissent",
        -9.933809470912957
      ],
      [
        "▁revenir",
        -9.933849563392384
      ],
      [
        "▁commun",
        -9.933925782641214
      ],
      [
        "▁gox",
        -9.933933253777479
      ],
      [
        "▁Jënd",
        -9.934025126118618
      ],
      [
        "▁sëkk",
        -9.934028164190643
      ],
      [
        "▁arrêté",
        -9.934056961496005
      ],
      [
        "tal",
        -9.934195655401384
      ],
      [
        "▁lonet",
        -9.934229502328943
      ],
      [
        "▁Force",
        -9.934295871245777
      ],
      [
        "▁mangé",
        -9.934311461068582
      ],
      [
        "▁wéet",
        -9.934506259465325
      ],
      [
        "▁coucher",
        -9.934669610035126
      ],
      [
        "▁travailleurs",
        -9.934681072628432
      ],
      [
        "▁jouer",
        -9.934728986763371
      ],
      [
        "▁ressens",
        -9.93495938094924
      ],
      [
        "▁néew",
        -9.935013948918783
      ],
      [
        "▁comprends",
        -9.935133396238461
      ],
      [
        "▁baaraam",
        -9.935267807894604
      ],
      [
        "▁tàngal",
        -9.935275137857982
      ],
      [
        "▁autre-là",
        -9.93528750943733
      ],
      [
        "▁partout",
        -9.93544605191222
      ],
      [
        "▁njël",
        -9.93547250083113
      ],
      [
        "▁taaru",
        -9.935657322028469
      ],
      [
        "▁Africains",
        -9.93571139190405
      ],
      [
        "▁fey",
        -9.935762936995093
      ],
      [
        "▁sotti",
        -9.935767590824025
      ],
      [
        "▁agsi",
        -9.93589543176137
      ],
      [
        "▁souffle",
        -9.936028688623056
      ],
      [
        "▁doonkoon",
        -9.936110492506609
      ],
      [
        "ch",
        -9.936381338249298
      ],
      [
        "▁habitants",
        -9.936446644072426
      ],
      [
        "▁dàq",
        -9.936525146569414
      ],
      [
        "▁tolloo",
        -9.936583097254006
      ],
      [
        "▁courir",
        -9.937190348788162
      ],
      [
        "▁tontu",
        -9.93732426623922
      ],
      [
        "▁Aro",
        -9.937341989683748
      ],
      [
        "▁l'aventure",
        -9.937498895387396
      ],
      [
        "▁rencontrer",
        -9.937953446345068
      ],
      [
        "▁tiit",
        -9.93867181067094
      ],
      [
        "ble",
        -9.938766202649962
      ],
      [
        "▁soosu",
        -9.939848736092104
      ],
      [
        "▁yëre",
        -9.940061025701752
      ],
      [
        "▁brousse",
        -9.940368094708218
      ],
      [
        "▁monter",
        -9.94054370529957
      ],
      [
        "▁yéene",
        -9.941548232109396
      ],
      [
        "▁melo",
        -9.942037709576471
      ],
      [
        "▁surga",
        -9.942259243433973
      ],
      [
        "▁kawas",
        -9.942767758887468
      ],
      [
        "▁nja",
        -9.942943505337784
      ],
      [
        "▁ñaxtu",
        -9.943191858829778
      ],
      [
        "▁commence",
        -9.943337119882928
      ],
      [
        "▁taamu",
        -9.94343414899168
      ],
      [
        "▁tata",
        -9.943451200960451
      ],
      [
        "▁yéemu",
        -9.944221889166826
      ],
      [
        "éeri",
        -9.944352115182216
      ],
      [
        "▁ñor",
        -9.944857450124342
      ],
      [
        "▁buum",
        -9.945171963521348
      ],
      [
        "▁masques",
        -9.945323924439679
      ],
      [
        "▁Obudu",
        -9.945563672828
      ],
      [
        "▁policiers",
        -9.945788709514275
      ],
      [
        "▁regarde",
        -9.945822073356585
      ],
      [
        "ène",
        -9.946486200144198
      ],
      [
        "▁aime",
        -9.94654208687823
      ],
      [
        "▁kafe",
        -9.947140677700947
      ],
      [
        "▁Ver",
        -9.94751644179771
      ],
      [
        "▁démb",
        -9.947525591678978
      ],
      [
        "▁charge",
        -9.947907295774218
      ],
      [
        "▁habit",
        -9.949330167929602
      ],
      [
        "▁Port",
        -9.949482835694841
      ],
      [
        "▁juróomi",
        -9.949731010076535
      ],
      [
        "re.",
        -9.94976489348221
      ],
      [
        "▁wetam",
        -9.950051357217705
      ],
      [
        "▁thé",
        -9.950064479304265
      ],
      [
        "▁loo",
        -9.950107708461648
      ],
      [
        "▁Yara",
        -9.951069116258076
      ],
      [
        "▁yeew",
        -9.951267064038916
      ],
      [
        "▁jambes",
        -9.952751937532536
      ],
      [
        "endant",
        -9.952876414001262
      ],
      [
        "▁darab",
        -9.952958326743172
      ],
      [
        "▁woowu",
        -9.953006359783233
      ],
      [
        "ières",
        -9.953419137202783
      ],
      [
        "ëgg",
        -9.95413903443382
      ],
      [
        "▁dois",
        -9.954492463135727
      ],
      [
        "rends",
        -9.95463998112266
      ],
      [
        "▁suñ",
        -9.954722049625268
      ],
      [
        "▁écrit",
        -9.956617631665404
      ],
      [
        "▁sanc",
        -9.958273136544996
      ],
      [
        "▁visages",
        -9.9596910460373
      ],
      [
        "▁Mag",
        -9.960802543748429
      ],
      [
        "▁dawal",
        -9.961916943576579
      ],
      [
        "▁tekki",
        -9.96207210751101
      ],
      [
        "▁reer",
        -9.962169862227
      ],
      [
        "▁passer",
        -9.962232423741838
      ],
      [
        "▁ressentir",
        -9.962246286885133
      ],
      [
        "▁ra",
        -9.96329871295924
      ],
      [
        "▁certaine",
        -9.964022574954402
      ],
      [
        "▁lenn",
        -9.964465103297997
      ],
      [
        "▁xamoon",
        -9.964507354189633
      ],
      [
        "aata",
        -9.964579887880047
      ],
      [
        "▁bas",
        -9.96474699086318
      ],
      [
        "▁hu",
        -9.965309496175184
      ],
      [
        "▁l'avai",
        -9.965828227697234
      ],
      [
        "▁entend",
        -9.966621561891053
      ],
      [
        "▁wàcce",
        -9.967864165892728
      ],
      [
        "▁tours",
        -9.968921624862633
      ],
      [
        "▁jotee",
        -9.96930701111644
      ],
      [
        "▁humaine",
        -9.969705139826793
      ],
      [
        "▁fenêtres",
        -9.970146021187984
      ],
      [
        "▁déet",
        -9.970309422978277
      ],
      [
        "▁sokolaa.",
        -9.97053864503837
      ],
      [
        "▁dun",
        -9.970709156734827
      ],
      [
        "▁noire",
        -9.971512322748826
      ],
      [
        "▁Dina",
        -9.971718186596966
      ],
      [
        "▁tab",
        -9.97184121891082
      ],
      [
        "▁Quelque",
        -9.973113233554193
      ],
      [
        "▁nguuru",
        -9.973127972536139
      ],
      [
        "▁Dañu",
        -9.973799290085978
      ],
      [
        "ka",
        -9.97430243396803
      ],
      [
        "▁somme",
        -9.974750529546085
      ],
      [
        "▁àtte",
        -9.974910471623714
      ],
      [
        "x.",
        -9.975191720835348
      ],
      [
        "v",
        -9.976602951959935
      ],
      [
        "▁yen",
        -9.97703358114367
      ],
      [
        "▁entré",
        -9.977686237224262
      ],
      [
        "▁dan",
        -9.97827152376656
      ],
      [
        "▁yax",
        -9.978662768061533
      ],
      [
        "▁nak",
        -9.979011213243172
      ],
      [
        "▁rivières",
        -9.981610255415141
      ],
      [
        "▁coono",
        -9.981681412574765
      ],
      [
        "▁taal",
        -9.986830915166696
      ],
      [
        "▁Dis",
        -9.986920681088947
      ],
      [
        "▁arrivée",
        -9.986950002112563
      ],
      [
        "00",
        -9.987075575924665
      ],
      [
        "▁dikk",
        -9.987371531886678
      ],
      [
        "▁coups",
        -9.987427003174123
      ],
      [
        "t-il",
        -9.987910458760192
      ],
      [
        "▁tableau",
        -9.991197549502704
      ],
      [
        "▁jaam",
        -9.991400700524967
      ],
      [
        "▁souhaite",
        -9.99177145219279
      ],
      [
        "▁haute",
        -9.992713340358474
      ],
      [
        "ju",
        -9.995565622797308
      ],
      [
        "'individu",
        -9.997319449205353
      ],
      [
        "▁tas",
        -9.997534202581896
      ],
      [
        "nde",
        -10.002096846033352
      ],
      [
        "umes",
        -10.004219237131293
      ],
      [
        "▁sain",
        -10.004875893818685
      ],
      [
        "indre",
        -10.006063812201997
      ],
      [
        "waa",
        -10.006845293612004
      ],
      [
        "▁I",
        -10.006863746753043
      ],
      [
        "▁aurais",
        -10.006887157356752
      ],
      [
        "▁qua",
        -10.007640342054652
      ],
      [
        "▁ch",
        -10.00911937731592
      ],
      [
        "▁bou",
        -10.012392476413169
      ],
      [
        "▁Ceux-",
        -10.012603064577503
      ],
      [
        "éel",
        -10.01260391793152
      ],
      [
        "▁mb",
        -10.013369599534899
      ],
      [
        "▁l'é",
        -10.01472061053165
      ],
      [
        "exe",
        -10.015716451546798
      ],
      [
        "▁xa",
        -10.016221803233915
      ],
      [
        "▁wor",
        -10.017008393035333
      ],
      [
        "▁Dana",
        -10.019108240212688
      ],
      [
        "waan",
        -10.019476381228433
      ],
      [
        "▁naissance",
        -10.021839823909191
      ],
      [
        "ieux",
        -10.022299615099062
      ],
      [
        "▁kowe",
        -10.022525898177681
      ],
      [
        "▁2",
        -10.022647163388605
      ],
      [
        "▁arrive",
        -10.023636841837522
      ],
      [
        "n.",
        -10.023962606956726
      ],
      [
        "▁soup",
        -10.025519737190956
      ],
      [
        "▁devenu",
        -10.026153561049684
      ],
      [
        "▁allai",
        -10.02686940210641
      ],
      [
        "aanaka",
        -10.026874309189884
      ],
      [
        "▁clair",
        -10.027276664276041
      ],
      [
        "▁féex",
        -10.029244500282022
      ],
      [
        "ër",
        -10.030130839553578
      ],
      [
        "kàlla",
        -10.031450057006724
      ],
      [
        "waale",
        -10.031873260394878
      ],
      [
        "ca",
        -10.033107852721388
      ],
      [
        "instant",
        -10.033468785235147
      ],
      [
        "▁serais",
        -10.034383048990762
      ],
      [
        "ya",
        -10.034826907388593
      ],
      [
        "naissance",
        -10.035712947036465
      ],
      [
        "▁rouges",
        -10.03842290189001
      ],
      [
        "▁xet",
        -10.038752476793366
      ],
      [
        "▁pos",
        -10.04076182301081
      ],
      [
        "ts",
        -10.041225137882538
      ],
      [
        "nement",
        -10.042128961168203
      ],
      [
        "-y",
        -10.042856463578362
      ],
      [
        "▁jar",
        -10.044135390078562
      ],
      [
        "▁alla",
        -10.04446513679088
      ],
      [
        "maana",
        -10.044472922427095
      ],
      [
        "▁Bii",
        -10.044919099689677
      ],
      [
        "▁mari",
        -10.045900141204854
      ],
      [
        "▁Abo",
        -10.048961212690447
      ],
      [
        "▁xew",
        -10.049033300170507
      ],
      [
        "▁jigéen.",
        -10.049100535683232
      ],
      [
        "▁maître",
        -10.050026184387391
      ],
      [
        "▁Afrigam",
        -10.050491518590514
      ],
      [
        "▁Waxa",
        -10.05167747807926
      ],
      [
        "▁ñeme",
        -10.052282693033296
      ],
      [
        "▁léeb",
        -10.052301742060404
      ],
      [
        "▁champ",
        -10.054281194297046
      ],
      [
        "▁africaine",
        -10.057053330397915
      ],
      [
        "fi",
        -10.059068220399675
      ],
      [
        "▁faite",
        -10.06009026061091
      ],
      [
        "▁rue",
        -10.06077952169801
      ],
      [
        "▁Ngi",
        -10.06270443440362
      ],
      [
        "▁français",
        -10.064520763327028
      ],
      [
        "▁quelles",
        -10.064996184630521
      ],
      [
        "▁Ko",
        -10.066182213212247
      ],
      [
        "▁prêt",
        -10.066457413063166
      ],
      [
        "▁àpp",
        -10.066681280775386
      ],
      [
        "hoisi",
        -10.066964951665472
      ],
      [
        "▁conti",
        -10.068363111546775
      ],
      [
        "▁Luga",
        -10.070637851644392
      ],
      [
        "tions",
        -10.071689532064791
      ],
      [
        "▁chaud",
        -10.071752117176844
      ],
      [
        "kkal",
        -10.074398514104956
      ],
      [
        "▁viens",
        -10.075632210474815
      ],
      [
        "▁séq",
        -10.076125722618487
      ],
      [
        "▁Toute",
        -10.076691635873694
      ],
      [
        "ssant",
        -10.076744453419217
      ],
      [
        "▁mba",
        -10.07841864566648
      ],
      [
        "▁x",
        -10.080108402134467
      ],
      [
        "▁naň",
        -10.080288761437423
      ],
      [
        "▁grandi",
        -10.080600258501667
      ],
      [
        "rie",
        -10.080669502525737
      ],
      [
        "▁jou",
        -10.081178623108654
      ],
      [
        "▁four",
        -10.082541369904662
      ],
      [
        "ékk",
        -10.083343846539744
      ],
      [
        "▁couvert",
        -10.084175590307053
      ],
      [
        "▁joli",
        -10.084668229311049
      ],
      [
        "▁nguur",
        -10.085898322141478
      ],
      [
        "bët",
        -10.08604897020641
      ],
      [
        "tation",
        -10.086409256966078
      ],
      [
        "l.",
        -10.087660220328633
      ],
      [
        "▁nus",
        -10.088877678805396
      ],
      [
        "▁ser",
        -10.089603307032464
      ],
      [
        "▁jaa",
        -10.09036319726924
      ],
      [
        "▁ñooñ",
        -10.090929379174494
      ],
      [
        "sant",
        -10.091770047250492
      ],
      [
        "entre",
        -10.094616560611048
      ],
      [
        "▁Mar",
        -10.094856204370167
      ],
      [
        "▁entendu",
        -10.095090653948835
      ],
      [
        "▁porta",
        -10.095601288344588
      ],
      [
        "▁not",
        -10.099418348059489
      ],
      [
        "ëpp",
        -10.099854615388663
      ],
      [
        "▁chang",
        -10.10015708981401
      ],
      [
        "▁Leur",
        -10.100530417955406
      ],
      [
        "▁éclat",
        -10.100920355396413
      ],
      [
        "▁bâton",
        -10.102563044324555
      ],
      [
        "leur",
        -10.104957132593427
      ],
      [
        "▁Men",
        -10.106862751539513
      ],
      [
        "▁daawul",
        -10.107141595029368
      ],
      [
        "▁digg",
        -10.108817595847174
      ],
      [
        "▁sauvage",
        -10.109535479723588
      ],
      [
        "▁taw",
        -10.110167932274164
      ],
      [
        "▁jafe",
        -10.111054024154193
      ],
      [
        "t-ce",
        -10.111452299841162
      ],
      [
        "▁pierre",
        -10.112047591817955
      ],
      [
        "our",
        -10.112437029377583
      ],
      [
        "▁waru",
        -10.112500018039004
      ],
      [
        "▁indi",
        -10.11334489823768
      ],
      [
        "▁làq",
        -10.1137973268283
      ],
      [
        "▁wi.",
        -10.11433015522535
      ],
      [
        "▁Xare",
        -10.114776053727498
      ],
      [
        "▁sûr",
        -10.114786191364617
      ],
      [
        "▁voiture",
        -10.116963059947212
      ],
      [
        "▁sopp",
        -10.11708455258315
      ],
      [
        "▁ñe",
        -10.117313836424954
      ],
      [
        "▁frapp",
        -10.117465204164128
      ],
      [
        "▁denc",
        -10.11760330304112
      ],
      [
        "▁rage",
        -10.117837263656693
      ],
      [
        "▁taax",
        -10.121820720102075
      ],
      [
        "▁fort",
        -10.123711447755843
      ],
      [
        "▁mise",
        -10.124681871927315
      ],
      [
        "-mo",
        -10.124707105828643
      ],
      [
        "0",
        -10.125466243044725
      ],
      [
        "óo",
        -10.126365293752517
      ],
      [
        "qu'un",
        -10.126372496610294
      ],
      [
        "▁new",
        -10.127486417822517
      ],
      [
        "▁affaire",
        -10.129084953499078
      ],
      [
        "▁trente",
        -10.132214671396335
      ],
      [
        "▁camerounais",
        -10.132826829071016
      ],
      [
        "”",
        -10.13282682909267
      ],
      [
        "Ç",
        -10.13282682909267
      ],
      [
        "▁Southampton",
        -10.13282682909267
      ],
      [
        "▁Sefiriis",
        -10.132826829093627
      ],
      [
        "▁Georgetown",
        -10.132826829139487
      ],
      [
        "▁bûcheron",
        -10.132826829140114
      ],
      [
        "▁njàqare",
        -10.132826829201004
      ],
      [
        "▁Adekunle",
        -10.132826829395619
      ],
      [
        "▁ustensile",
        -10.132826833585407
      ],
      [
        "▁termitières",
        -10.132826833768341
      ],
      [
        "▁Abaakaliki",
        -10.132826836777067
      ],
      [
        "▁biafrais",
        -10.132826846270675
      ],
      [
        "▁Biafra",
        -10.132826847725287
      ],
      [
        "▁alkaati",
        -10.13282693281934
      ],
      [
        "▁photographi",
        -10.132826948975378
      ],
      [
        "▁“",
        -10.132827009793521
      ],
      [
        "▁Yoruba",
        -10.132827081550461
      ],
      [
        "▁mosquée",
        -10.132827354908484
      ],
      [
        "▁grand-père",
        -10.13282735999391
      ],
      [
        "▁sàndarm",
        -10.132827476187845
      ],
      [
        "▁Anglais",
        -10.132827642302495
      ],
      [
        "▁Sorstaawun",
        -10.132828004859764
      ],
      [
        "▁Cross",
        -10.13282905005321
      ],
      [
        "▁rejoindre",
        -10.132831357583093
      ],
      [
        "▁mélang",
        -10.13283258409491
      ],
      [
        "▁métier",
        -10.132834800238731
      ],
      [
        "▁service",
        -10.132835554589619
      ],
      [
        "▁tronc",
        -10.13283744585455
      ],
      [
        "▁collines",
        -10.132840227530222
      ],
      [
        "▁Guddi",
        -10.132842694629717
      ],
      [
        "▁ndóol",
        -10.132844232584798
      ],
      [
        "▁kalaate",
        -10.13284519257406
      ],
      [
        "▁poussière",
        -10.132846355240577
      ],
      [
        "▁continent",
        -10.132847108249717
      ],
      [
        "▁compris",
        -10.132847179441217
      ],
      [
        "▁terrible",
        -10.132849120772066
      ],
      [
        "▁brûlure",
        -10.132849603326413
      ],
      [
        "▁alkol",
        -10.132849645939611
      ],
      [
        "▁probable",
        -10.132851743809306
      ],
      [
        "▁ndànk",
        -10.132856676435253
      ],
      [
        "▁soxla",
        -10.132864349482698
      ],
      [
        "▁zinc",
        -10.132871034045039
      ],
      [
        "▁fonction",
        -10.132875050066385
      ],
      [
        "▁karaw",
        -10.132875398483286
      ],
      [
        "▁Salut",
        -10.132882828383375
      ],
      [
        "▁fecc",
        -10.132889565266701
      ],
      [
        "▁Moontin",
        -10.132900036101127
      ],
      [
        "▁gannaaw",
        -10.132900444853268
      ],
      [
        "▁xaaju",
        -10.132902401057803
      ],
      [
        "▁Qu'est-ce",
        -10.132902951515314
      ],
      [
        "▁fowukaay",
        -10.132918606276979
      ],
      [
        "▁noyyi",
        -10.132922954808922
      ],
      [
        "▁gànnaay",
        -10.132924319201532
      ],
      [
        "▁semaine",
        -10.132929982381537
      ],
      [
        "▁gentil",
        -10.132947591735217
      ],
      [
        "▁xayma",
        -10.132948235920722
      ],
      [
        "▁këll",
        -10.132961523641246
      ],
      [
        "▁doxantu",
        -10.132963483558447
      ],
      [
        "▁làquji",
        -10.13296480014488
      ],
      [
        "▁douche",
        -10.132984406577698
      ],
      [
        "▁fauve",
        -10.13298885716852
      ],
      [
        "-tiir",
        -10.133006431173285
      ],
      [
        "▁lui-même",
        -10.133022555699583
      ],
      [
        "science",
        -10.133037893965145
      ],
      [
        "▁dirigeant",
        -10.133053682089017
      ],
      [
        "▁d'arbres",
        -10.13305634098457
      ],
      [
        "▁rares",
        -10.133061131627464
      ],
      [
        "▁maintenant",
        -10.133074021223804
      ],
      [
        "▁Pourtant",
        -10.133088876804711
      ],
      [
        "▁l'argent",
        -10.133135071913925
      ],
      [
        "▁raxas",
        -10.133178674817659
      ],
      [
        "▁hutte",
        -10.133270124957594
      ],
      [
        "▁jàppukaay",
        -10.133283533724674
      ],
      [
        "▁courage",
        -10.133284511034908
      ],
      [
        "▁soppiku",
        -10.133295105937863
      ],
      [
        "▁branche",
        -10.133311515445
      ],
      [
        "▁m'",
        -10.133336504161727
      ],
      [
        "▁doi",
        -10.133378437441044
      ],
      [
        "▁ondul",
        -10.133387308075601
      ],
      [
        "▁mbégte",
        -10.133547548447686
      ],
      [
        "▁d'eau",
        -10.13356201614475
      ],
      [
        "▁assez",
        -10.133613375920898
      ],
      [
        "▁nàññ",
        -10.133647735405857
      ],
      [
        "▁ndigg",
        -10.133654951251236
      ],
      [
        "▁vivant",
        -10.133753869106814
      ],
      [
        "▁connaissais",
        -10.133831629764186
      ],
      [
        "▁awsa",
        -10.133854700662448
      ],
      [
        "▁puj",
        -10.134057525075564
      ],
      [
        "▁dékku",
        -10.134065510850442
      ],
      [
        "▁brave",
        -10.134170483388356
      ],
      [
        "▁ndab",
        -10.134197011430471
      ],
      [
        "▁juddu",
        -10.13422452979442
      ],
      [
        "▁Xe",
        -10.13426695721158
      ],
      [
        "▁apporté",
        -10.134461834216992
      ],
      [
        "▁recherche",
        -10.134596189601583
      ],
      [
        "▁sensation",
        -10.134614948556607
      ],
      [
        "▁ŋgoogule",
        -10.134687995669648
      ],
      [
        "▁yàlla",
        -10.134750665613517
      ],
      [
        "▁cacher",
        -10.13493450589087
      ],
      [
        "▁delsi",
        -10.134937134170189
      ],
      [
        "▁volets",
        -10.13495030308329
      ],
      [
        "▁fortune",
        -10.135143405623134
      ],
      [
        "▁fitna",
        -10.135216777834609
      ],
      [
        "▁daaneel",
        -10.135256551101412
      ],
      [
        "dar",
        -10.135385349884999
      ],
      [
        "▁oncle",
        -10.135392304017788
      ],
      [
        "▁gàddaay",
        -10.135732300675555
      ],
      [
        "at.",
        -10.135999682198195
      ],
      [
        "▁mbooloo",
        -10.136010229240128
      ],
      [
        "▁yàq",
        -10.136098793636211
      ],
      [
        "▁l'ét",
        -10.136118760308934
      ],
      [
        "▁causé",
        -10.13628551714312
      ],
      [
        "▁màgge",
        -10.136393995103482
      ],
      [
        "▁revienne",
        -10.136522762383363
      ],
      [
        "▁parole",
        -10.136931270386341
      ],
      [
        "▁yàpp",
        -10.137146705299777
      ],
      [
        "▁amen",
        -10.137362291401812
      ],
      [
        "▁yëgaat",
        -10.137383818117756
      ],
      [
        "▁dinaa",
        -10.137427217767886
      ],
      [
        "▁simis",
        -10.137551969850898
      ],
      [
        "▁Ñooñu",
        -10.138261423605114
      ],
      [
        "▁kookee",
        -10.138582196796456
      ],
      [
        "▁xur",
        -10.138598717452792
      ],
      [
        "▁d'ici",
        -10.139390900198041
      ],
      [
        "fippu",
        -10.139640098827998
      ],
      [
        "▁Garab",
        -10.139723203885072
      ],
      [
        "▁resté",
        -10.140096955266078
      ],
      [
        "▁way-",
        -10.140193286765884
      ],
      [
        "▁pince",
        -10.14025969085477
      ],
      [
        "ati-",
        -10.140699478100887
      ],
      [
        "nore",
        -10.141124007847244
      ],
      [
        "▁mbaxana",
        -10.141132911431388
      ],
      [
        "▁Ñaar",
        -10.14129418823217
      ],
      [
        "▁marchent",
        -10.141491421207979
      ],
      [
        "▁tiis",
        -10.141891230489922
      ],
      [
        "▁julli",
        -10.142272714060017
      ],
      [
        "▁ëmb",
        -10.142426408357576
      ],
      [
        "▁douce",
        -10.142485992217988
      ],
      [
        "▁wér",
        -10.142593659757434
      ],
      [
        "▁armes",
        -10.143296804576025
      ],
      [
        "▁nouvelles",
        -10.143867819839478
      ],
      [
        "▁ñeent",
        -10.14401265420066
      ],
      [
        "▁voulu",
        -10.144097945123683
      ],
      [
        "▁doomam",
        -10.14415365221208
      ],
      [
        "▁Vie",
        -10.1442581568804
      ],
      [
        "▁dàtt",
        -10.144434814912497
      ],
      [
        "▁après-midi",
        -10.144636913681861
      ],
      [
        "▁sommet",
        -10.144832815563959
      ],
      [
        "▁këru",
        -10.14626853278518
      ],
      [
        "▁allemande",
        -10.14638540171004
      ],
      [
        "▁tee",
        -10.146670244210096
      ],
      [
        "▁melax",
        -10.14674230824943
      ],
      [
        "▁soldats",
        -10.146839641706812
      ],
      [
        "▁njort",
        -10.147114897837241
      ],
      [
        "▁nijaay",
        -10.14743517219347
      ],
      [
        "▁vide",
        -10.14755556016646
      ],
      [
        "▁daanu",
        -10.147658136224173
      ],
      [
        "▁sombre",
        -10.1481433977344
      ],
      [
        "▁casque",
        -10.148661356216772
      ],
      [
        "ok",
        -10.148714057422772
      ],
      [
        "▁Ch",
        -10.148726999324346
      ],
      [
        "▁mesure",
        -10.149210641777165
      ],
      [
        "▁tawat",
        -10.149759242095197
      ],
      [
        "▁militaires",
        -10.150119750977792
      ],
      [
        "▁liggéeye",
        -10.150120124008225
      ],
      [
        "sion",
        -10.150260173632818
      ],
      [
        "kóon",
        -10.150405337064116
      ],
      [
        "▁dessiné",
        -10.150779640257985
      ],
      [
        "gé",
        -10.151493632400062
      ],
      [
        "▁waxe",
        -10.1517004086885
      ],
      [
        "▁hamacs",
        -10.151792024143262
      ],
      [
        "▁joge",
        -10.15198715362289
      ],
      [
        "▁savoir",
        -10.153302220618027
      ],
      [
        "▁guyy",
        -10.153325282150345
      ],
      [
        "▁Aiya",
        -10.153360589184494
      ],
      [
        "▁exemple",
        -10.15411903889731
      ],
      [
        "▁dëkkoon",
        -10.15424311763266
      ],
      [
        "ches",
        -10.155411180622293
      ],
      [
        "▁prendre",
        -10.156333153210934
      ],
      [
        "▁làqu",
        -10.156741717697905
      ],
      [
        "▁l'entoure",
        -10.156744474350416
      ],
      [
        "▁wóolu",
        -10.1586451822547
      ],
      [
        "▁see",
        -10.158713649677631
      ],
      [
        "ages",
        -10.158725513136654
      ],
      [
        "▁pans",
        -10.159525565489796
      ],
      [
        "▁avance",
        -10.15993451602315
      ],
      [
        "▁dugal",
        -10.160133936304852
      ],
      [
        "▁mënuma",
        -10.160216661011301
      ],
      [
        "vec",
        -10.160226717620553
      ],
      [
        "▁taille",
        -10.160471630488804
      ],
      [
        "▁bancs",
        -10.1606934414277
      ],
      [
        "ande",
        -10.160727507852913
      ],
      [
        "▁Néeg",
        -10.160734341046368
      ],
      [
        "gal",
        -10.161405921373852
      ],
      [
        "ommé",
        -10.161534022855818
      ],
      [
        "▁panier",
        -10.162943678109041
      ],
      [
        "andoo",
        -10.163055415719372
      ],
      [
        "▁naaxi",
        -10.163785918528351
      ],
      [
        "'image",
        -10.163961187496247
      ],
      [
        "ier",
        -10.16517627527585
      ],
      [
        "▁couch",
        -10.165319040908807
      ],
      [
        "▁devenus",
        -10.165335908892784
      ],
      [
        "▁Yen",
        -10.165371050868139
      ],
      [
        "'imagine",
        -10.166817412067191
      ],
      [
        "▁feeñu",
        -10.167983047926834
      ],
      [
        "ser",
        -10.168875288914244
      ],
      [
        "▁forte",
        -10.169432768260824
      ],
      [
        "mar",
        -10.169441967772501
      ],
      [
        "▁vertes",
        -10.169840971275962
      ],
      [
        "▁marcher",
        -10.170113521860857
      ],
      [
        "aatu",
        -10.17065334311836
      ],
      [
        "▁Bum",
        -10.170718043141875
      ],
      [
        "éer",
        -10.171712840277706
      ],
      [
        "▁idée",
        -10.171759727915829
      ],
      [
        "▁Daŋg",
        -10.17347503517292
      ],
      [
        "▁scorpions",
        -10.173635421333348
      ],
      [
        "▁laine",
        -10.174984548461772
      ],
      [
        "▁yéeme",
        -10.175128841236795
      ],
      [
        "▁h",
        -10.175215162663173
      ],
      [
        "▁rappelle",
        -10.17582861296249
      ],
      [
        "▁rayon",
        -10.176288815217783
      ],
      [
        "▁troupeau",
        -10.17719004572839
      ],
      [
        "▁monté",
        -10.177492979287047
      ],
      [
        "▁eusse",
        -10.177670143656293
      ],
      [
        "▁nourri",
        -10.178233685666044
      ],
      [
        "▁rive",
        -10.17890348422769
      ],
      [
        "▁sàcc",
        -10.17991743199601
      ],
      [
        "▁xaritam",
        -10.180533388630142
      ],
      [
        "▁soi",
        -10.181008091162347
      ],
      [
        "▁retourne",
        -10.181780946767358
      ],
      [
        "▁rire",
        -10.18215726605361
      ],
      [
        "▁goog",
        -10.183660442106708
      ],
      [
        "▁Kor",
        -10.183915242425883
      ],
      [
        "▁saba",
        -10.18658483959364
      ],
      [
        "googule",
        -10.18937852715079
      ],
      [
        "▁pluie",
        -10.189683634123845
      ],
      [
        "▁livres",
        -10.189856851927264
      ],
      [
        "tendre",
        -10.191925542486441
      ],
      [
        "▁pareil",
        -10.19201539668657
      ],
      [
        "▁kookuu",
        -10.192065027981654
      ],
      [
        "ŋŋ",
        -10.192510270802579
      ],
      [
        "▁ňi",
        -10.192798524498903
      ],
      [
        "▁armé",
        -10.192821462487672
      ],
      [
        "▁saf",
        -10.19352801288582
      ],
      [
        "▁Gan",
        -10.193632605104586
      ],
      [
        "▁sec",
        -10.194646661776346
      ],
      [
        "▁t'",
        -10.1947467209036
      ],
      [
        "▁mënee",
        -10.19514292033847
      ],
      [
        "▁auto",
        -10.195305712526801
      ],
      [
        "▁désir",
        -10.195540606819574
      ],
      [
        "▁baŋ",
        -10.196809771864448
      ],
      [
        "▁xaj",
        -10.196927778129588
      ],
      [
        "▁niir",
        -10.19941276065996
      ],
      [
        "–",
        -10.20013181137181
      ],
      [
        "▁be",
        -10.200743190874034
      ],
      [
        "aires",
        -10.2019738391094
      ],
      [
        "eef",
        -10.202091018406932
      ],
      [
        "espère",
        -10.204187526353184
      ],
      [
        "existe",
        -10.204591740724002
      ],
      [
        "▁seuls",
        -10.20481414426767
      ],
      [
        "▁Ji",
        -10.204929581326155
      ],
      [
        "celle",
        -10.205325806535171
      ],
      [
        "▁étage",
        -10.205837692878154
      ],
      [
        "eelu",
        -10.206232729834355
      ],
      [
        "lal",
        -10.207706691969925
      ],
      [
        "▁seetu",
        -10.208939874360784
      ],
      [
        "▁vari",
        -10.209422515470411
      ],
      [
        "angoisse",
        -10.210824523177113
      ],
      [
        "añse",
        -10.210916726447383
      ],
      [
        "ï",
        -10.21104764621086
      ],
      [
        "connais",
        -10.212785306648897
      ],
      [
        "nn",
        -10.214346316010742
      ],
      [
        "F",
        -10.214375433520352
      ],
      [
        "pe",
        -10.215171758199176
      ],
      [
        "▁bleus",
        -10.215811042044102
      ],
      [
        "▁Se",
        -10.216102226545388
      ],
      [
        "▁sub",
        -10.216301310748523
      ],
      [
        "▁dis",
        -10.216785132667367
      ],
      [
        "▁croi",
        -10.216964887692528
      ],
      [
        "▁ndo",
        -10.21722224697663
      ],
      [
        "▁lire",
        -10.217566955191295
      ],
      [
        "▁Jam",
        -10.217998919317
      ],
      [
        "▁daje",
        -10.219489314770566
      ],
      [
        "▁Mas",
        -10.219972912775157
      ],
      [
        "▁Fo",
        -10.221396178760461
      ],
      [
        "▁maîtres",
        -10.223078015278588
      ],
      [
        "▁bleue",
        -10.224357165324655
      ],
      [
        "▁lits",
        -10.224781658933884
      ],
      [
        "▁naat",
        -10.225210386225202
      ],
      [
        "deux",
        -10.225989773356707
      ],
      [
        "▁mënut",
        -10.226219442836314
      ],
      [
        "cc",
        -10.227274870448653
      ],
      [
        "ille",
        -10.227546320975094
      ],
      [
        "hier",
        -10.22778323132373
      ],
      [
        "war",
        -10.229765687939567
      ],
      [
        "▁cherch",
        -10.230122940292805
      ],
      [
        "▁rencontre",
        -10.231663325615619
      ],
      [
        "ins",
        -10.231885087196074
      ],
      [
        "▁fit",
        -10.232963235998177
      ],
      [
        "▁pis",
        -10.23646758733436
      ],
      [
        "ers",
        -10.236629146728621
      ],
      [
        "urs",
        -10.237173619803057
      ],
      [
        "u-ñax",
        -10.237625118275812
      ],
      [
        "▁retrouve",
        -10.237847595569361
      ],
      [
        "ailles",
        -10.239564902202115
      ],
      [
        "▁cercl",
        -10.2399886376394
      ],
      [
        "▁Amu",
        -10.240555008843932
      ],
      [
        "seen",
        -10.24057563364584
      ],
      [
        "▁Mii",
        -10.240922608477456
      ],
      [
        "su",
        -10.242050406856308
      ],
      [
        "ombre",
        -10.242199930234968
      ],
      [
        "commencer",
        -10.242435753570792
      ],
      [
        "▁fermée",
        -10.242795092184462
      ],
      [
        "▁J'en",
        -10.243360680857839
      ],
      [
        "▁At",
        -10.245409951103799
      ],
      [
        "▁séchée",
        -10.246554325073848
      ],
      [
        "toon",
        -10.247434457942159
      ],
      [
        "▁defaree",
        -10.248059690129468
      ],
      [
        "ll",
        -10.249358882715626
      ],
      [
        "tends",
        -10.249571557705568
      ],
      [
        "▁kë",
        -10.250317756744158
      ],
      [
        "▁batt",
        -10.250692078047033
      ],
      [
        "▁plan",
        -10.25188431972665
      ],
      [
        "éri",
        -10.254659665440544
      ],
      [
        "▁d'or",
        -10.2549249622542
      ],
      [
        "fa",
        -10.25627520207258
      ],
      [
        "▁été.",
        -10.256928859797249
      ],
      [
        "sse",
        -10.257369948672842
      ],
      [
        "▁deey",
        -10.257396351042543
      ],
      [
        "rage",
        -10.258293236403984
      ],
      [
        "nitu",
        -10.259887316393867
      ],
      [
        "▁prise",
        -10.260060452546039
      ],
      [
        "sin",
        -10.26015659534608
      ],
      [
        "▁(ce",
        -10.260947789836731
      ],
      [
        "▁Waxu",
        -10.26297209810853
      ],
      [
        "'appartien",
        -10.263352521516666
      ],
      [
        "▁pointe",
        -10.264140719484972
      ],
      [
        "'occupa",
        -10.264248830406652
      ],
      [
        "ànte",
        -10.266360377032402
      ],
      [
        "▁yé",
        -10.266971759290334
      ],
      [
        "ë",
        -10.26924611104657
      ],
      [
        "▁Ŋg",
        -10.269316126361698
      ],
      [
        "enti",
        -10.270952675188783
      ],
      [
        "sa",
        -10.272597542293143
      ],
      [
        "▁chambres",
        -10.273317365334016
      ],
      [
        "▁n'as",
        -10.274262689113598
      ],
      [
        "▁pensé",
        -10.274586580965062
      ],
      [
        "fu",
        -10.274866869610227
      ],
      [
        "faites",
        -10.275261526109091
      ],
      [
        "yi",
        -10.27551982604935
      ],
      [
        "▁pourra",
        -10.277761718923525
      ],
      [
        "aayu",
        -10.278625981535548
      ],
      [
        "▁yemu",
        -10.27905682438168
      ],
      [
        "▁pré",
        -10.279480230043333
      ],
      [
        "▁d'Ar",
        -10.283670938221997
      ],
      [
        "▁entouré",
        -10.283712871423786
      ],
      [
        "▁coupe",
        -10.283862867968454
      ],
      [
        "▁néegi",
        -10.284542565321724
      ],
      [
        "▁étalé",
        -10.284744345268415
      ],
      [
        "ã",
        -10.285306227738818
      ],
      [
        "lé",
        -10.288497724607584
      ],
      [
        "▁wara",
        -10.288789617972668
      ],
      [
        "oy",
        -10.289474013857271
      ],
      [
        "ama",
        -10.28999916900647
      ],
      [
        "arrière",
        -10.290270344943458
      ],
      [
        "▁faf",
        -10.290304102067058
      ],
      [
        "▁jàkka",
        -10.291545275312462
      ],
      [
        "u.",
        -10.292995248049882
      ],
      [
        "baar",
        -10.29355905003021
      ],
      [
        "▁ro",
        -10.295594876939008
      ],
      [
        "▁différent",
        -10.297218883220957
      ],
      [
        "use",
        -10.297557286185533
      ],
      [
        "▁face",
        -10.298125062349687
      ],
      [
        "pas",
        -10.299796136357504
      ],
      [
        "▁jë",
        -10.300019478972594
      ],
      [
        "▁Xo",
        -10.300389601725508
      ],
      [
        "allaient",
        -10.302172841157267
      ],
      [
        "ois",
        -10.30306857281262
      ],
      [
        "▁bë",
        -10.304506784793144
      ],
      [
        "A",
        -10.305347740831195
      ],
      [
        "andis",
        -10.30720860617406
      ],
      [
        "ersonne",
        -10.307523496454236
      ],
      [
        "▁ressembl",
        -10.307921692746282
      ],
      [
        "ool",
        -10.311923638797701
      ],
      [
        "▁gendarme",
        -10.312832754057341
      ],
      [
        "▁mur",
        -10.313590811175184
      ],
      [
        "sement",
        -10.314332348526682
      ],
      [
        "▁jàppe",
        -10.314667652693991
      ],
      [
        "▁cr",
        -10.314678607484895
      ],
      [
        "-d",
        -10.317367683143049
      ],
      [
        "aurais",
        -10.318624865317828
      ],
      [
        "▁fur",
        -10.318707352297722
      ],
      [
        "xam",
        -10.31946859533474
      ],
      [
        "▁découvert",
        -10.319947650280628
      ],
      [
        "▁général",
        -10.319969349225683
      ],
      [
        "kki",
        -10.320703568450314
      ],
      [
        "▁reconna",
        -10.32088079601442
      ],
      [
        "tul",
        -10.323083514306138
      ],
      [
        "▁individu",
        -10.32406105704489
      ],
      [
        "▁tir",
        -10.325032309044687
      ],
      [
        "▁nombre",
        -10.325392646565868
      ],
      [
        "▁précédé",
        -10.325507863028589
      ],
      [
        "▁yéem",
        -10.326083504399614
      ],
      [
        "▁impression",
        -10.326980284991121
      ],
      [
        "▁Daawu",
        -10.327766380089347
      ],
      [
        "▁président",
        -10.328463401376833
      ],
      [
        "▁cou",
        -10.328717510394863
      ],
      [
        "avez",
        -10.330237295087194
      ],
      [
        "▁miroir",
        -10.33156401102432
      ],
      [
        "▁wàcc",
        -10.331724119588527
      ],
      [
        "▁ouvert",
        -10.332025357775699
      ],
      [
        "▁ndugg",
        -10.332955450625313
      ],
      [
        "▁pouv",
        -10.333044489806333
      ],
      [
        "elles",
        -10.334448907316228
      ],
      [
        "▁certain",
        -10.334768707271623
      ],
      [
        "vions",
        -10.3352045617244
      ],
      [
        "▁moomee",
        -10.335301682363722
      ],
      [
        "▁quitte",
        -10.335446554755821
      ],
      [
        "▁l'on",
        -10.335479082472604
      ],
      [
        "▁soxna",
        -10.335649659847267
      ],
      [
        "▁wiy",
        -10.33605144893421
      ],
      [
        "▁suffi",
        -10.336065525051886
      ],
      [
        "g.",
        -10.336643118794358
      ],
      [
        "ion",
        -10.337644716399844
      ],
      [
        "aar",
        -10.341489667785773
      ],
      [
        "ourquoi",
        -10.342444691530963
      ],
      [
        "▁amour",
        -10.342793022937741
      ],
      [
        "auté",
        -10.344728071245965
      ],
      [
        "▁rëbb",
        -10.34689366480022
      ],
      [
        "▁voul",
        -10.346990675286447
      ],
      [
        "avions",
        -10.348189260666949
      ],
      [
        "▁chocolat",
        -10.34862527366555
      ],
      [
        "jaa",
        -10.35013098281466
      ],
      [
        "eel",
        -10.352550999730486
      ],
      [
        "▁ancien",
        -10.353651361251337
      ],
      [
        "▁beg",
        -10.353951302256487
      ],
      [
        "con",
        -10.354799871206655
      ],
      [
        "▁d'herbe",
        -10.3556950198619
      ],
      [
        "roule",
        -10.35601594990699
      ],
      [
        "▁doxal",
        -10.356371272755286
      ],
      [
        "▁méng",
        -10.358016314898796
      ],
      [
        "mbres",
        -10.361232629623077
      ],
      [
        "▁natt",
        -10.362135050575066
      ],
      [
        "▁toj",
        -10.36276501233035
      ],
      [
        "▁Moka",
        -10.36535988780345
      ],
      [
        "▁kàdd",
        -10.365367041347737
      ],
      [
        "yaa",
        -10.365560115489002
      ],
      [
        "▁déci",
        -10.365666398788191
      ],
      [
        "able",
        -10.365921253432436
      ],
      [
        "▁tasse",
        -10.367980045651123
      ],
      [
        "▁ño",
        -10.368060949355758
      ],
      [
        "ish",
        -10.368120607131022
      ],
      [
        "▁ti",
        -10.369264851055028
      ],
      [
        "▁laissé",
        -10.36948841814004
      ],
      [
        "▁xii",
        -10.370055508328313
      ],
      [
        "▁jooja",
        -10.372355148909381
      ],
      [
        "'orage",
        -10.372398538878066
      ],
      [
        "▁Ai",
        -10.37453121486647
      ],
      [
        "▁c'étai",
        -10.375080546721485
      ],
      [
        "aal",
        -10.375117619047195
      ],
      [
        "▁Doom",
        -10.375646598956358
      ],
      [
        "▁mill",
        -10.376517699644028
      ],
      [
        "▁gëm",
        -10.376592257825525
      ],
      [
        "aloon",
        -10.376737672783566
      ],
      [
        "▁dur",
        -10.377998630295108
      ],
      [
        "ien",
        -10.378700335421781
      ],
      [
        "▁Qu'",
        -10.379685232192681
      ],
      [
        "ro",
        -10.381070994019069
      ],
      [
        "▁révolte",
        -10.381242502862973
      ],
      [
        "▁to",
        -10.382374456301843
      ],
      [
        "▁xërëm",
        -10.38270809906697
      ],
      [
        "▁décor",
        -10.382715200083233
      ],
      [
        "ddina",
        -10.38279116828238
      ],
      [
        "▁trapèze",
        -10.382826829052958
      ],
      [
        "▁véhicule",
        -10.382826829064625
      ],
      [
        "▁Harcourt",
        -10.382826829079164
      ],
      [
        "▁privilèges",
        -10.382826829083424
      ],
      [
        "▁junniy-junni",
        -10.382826829090703
      ],
      [
        "…",
        -10.38282682909267
      ],
      [
        "▁ndànk-ndànk",
        -10.382826829136452
      ],
      [
        "▁incapable",
        -10.382826829317128
      ],
      [
        "▁discipline",
        -10.382826829367229
      ],
      [
        "▁Ahidjo",
        -10.382826829388392
      ],
      [
        "▁1948",
        -10.382826829484918
      ],
      [
        "▁béjjén",
        -10.382826829496711
      ],
      [
        "▁1928",
        -10.38282682957641
      ],
      [
        "▁tés-tés",
        -10.382826830226374
      ],
      [
        "▁lorgnons",
        -10.382826830369254
      ],
      [
        "▁Jeffries",
        -10.38282683373193
      ],
      [
        "▁tekk-tekkaaral",
        -10.38282683557871
      ],
      [
        "▁grâce",
        -10.382826835765256
      ],
      [
        "▁l'extérieur",
        -10.382826836081266
      ],
      [
        "▁éprouv",
        -10.382826837596193
      ],
      [
        "▁proximité",
        -10.382826839968658
      ],
      [
        "▁kaaraange",
        -10.382826843125033
      ],
      [
        "▁rajaxe",
        -10.382826843280515
      ],
      [
        "▁Bërëtaañ",
        -10.382826845199643
      ],
      [
        "▁BBC",
        -10.38282688332154
      ],
      [
        "▁caravane",
        -10.382826894750881
      ],
      [
        "▁Bretagne",
        -10.382826911237807
      ],
      [
        "▁officier",
        -10.38282692952826
      ],
      [
        "▁combinaison",
        -10.382826930553355
      ],
      [
        "▁sibbiru",
        -10.382826996554913
      ],
      [
        "▁Kalabaar",
        -10.382827013818849
      ],
      [
        "▁excessive",
        -10.382827019481596
      ],
      [
        "▁trésor",
        -10.382827021604486
      ],
      [
        "▁possible",
        -10.382827027714876
      ],
      [
        "▁Voyage",
        -10.382827048302946
      ],
      [
        "▁sèche",
        -10.382827070018118
      ],
      [
        "▁Ñëw",
        -10.382827102800357
      ],
      [
        "▁cliché",
        -10.382827254195359
      ],
      [
        "▁Calabar",
        -10.382827493429216
      ],
      [
        "▁saxaaru-géej",
        -10.38282761093868
      ],
      [
        "▁pénétr",
        -10.382827768686328
      ],
      [
        "▁extraordinaire",
        -10.382828170696493
      ],
      [
        "▁alentour",
        -10.382828183237878
      ],
      [
        "▁ruisseau",
        -10.382828892680852
      ],
      [
        "▁Birayim",
        -10.382829741911882
      ],
      [
        "▁Louga",
        -10.382830098742572
      ],
      [
        "▁ndanka",
        -10.382831329094476
      ],
      [
        "▁soixante",
        -10.382832296473511
      ],
      [
        "▁Chuku",
        -10.382832470739107
      ],
      [
        "▁tropicale",
        -10.382832999423224
      ],
      [
        "D.O.",
        -10.382833452172887
      ],
      [
        "▁yëngatu",
        -10.382834215664937
      ],
      [
        "▁l'abri",
        -10.382835186268622
      ],
      [
        "▁kilomet",
        -10.382836859924337
      ],
      [
        "▁radio",
        -10.382837021438753
      ],
      [
        "▁ràññe",
        -10.382837539467552
      ],
      [
        "▁Macron",
        -10.382839989350607
      ],
      [
        "▁légende",
        -10.38284276822246
      ],
      [
        "▁obsession",
        -10.382843223592563
      ],
      [
        "▁chèvres",
        -10.382843890439844
      ],
      [
        "▁1968",
        -10.382848401675115
      ],
      [
        "▁répond",
        -10.382848615880954
      ],
      [
        "▁ëlëk",
        -10.382851248971788
      ],
      [
        "▁présence",
        -10.382851250046711
      ],
      [
        "▁bakkan",
        -10.382852798203812
      ],
      [
        "▁Kipli",
        -10.382854748078607
      ],
      [
        "▁mbindeef",
        -10.382859974817386
      ],
      [
        "▁guyaab",
        -10.382861002124814
      ],
      [
        "▁poitrine",
        -10.382862895608136
      ],
      [
        "▁ayubes",
        -10.382864338004616
      ],
      [
        "▁toilettes",
        -10.382872778820815
      ],
      [
        "▁NGo",
        -10.382876787109915
      ],
      [
        "▁caract",
        -10.382877697462911
      ],
      [
        "▁fauteuil",
        -10.382882080673461
      ],
      [
        "▁gazelle",
        -10.382882586859374
      ],
      [
        "▁l'aube",
        -10.382883172571729
      ],
      [
        "▁jërr",
        -10.382893993161945
      ],
      [
        "▁Confi",
        -10.38289650060909
      ],
      [
        "▁Au-dessus",
        -10.382900294712814
      ],
      [
        "▁règne",
        -10.382923040476522
      ],
      [
        "▁l'hum",
        -10.38292407109911
      ],
      [
        "▁xamantane",
        -10.382924943542267
      ],
      [
        "▁coow",
        -10.3829327445083
      ],
      [
        "▁sept",
        -10.38293354438902
      ],
      [
        "▁interdit",
        -10.382934643911007
      ],
      [
        "▁firndeel",
        -10.382938598131751
      ],
      [
        "▁l'après-midi",
        -10.382939988937924
      ],
      [
        "▁habituellement",
        -10.382945013420072
      ],
      [
        "▁Gaynd",
        -10.382953656975678
      ],
      [
        "▁foudre",
        -10.382963478237771
      ],
      [
        "▁dencukaay",
        -10.382968918386702
      ],
      [
        "▁dëll",
        -10.382974468164702
      ],
      [
        "▁Agsil",
        -10.382974597631412
      ],
      [
        "▁heureux",
        -10.382992616899053
      ],
      [
        "▁effect",
        -10.383002460892353
      ],
      [
        "▁lentement",
        -10.38301172614162
      ],
      [
        "▁maasaloo",
        -10.383031532175284
      ],
      [
        "▁Alfa",
        -10.38304314072563
      ],
      [
        "▁fièvre",
        -10.3830687829574
      ],
      [
        "▁dëppoo",
        -10.383075974873037
      ],
      [
        "▁fanweer",
        -10.38307600001574
      ],
      [
        "▁njege",
        -10.383079440907075
      ],
      [
        "▁riz",
        -10.38308252657982
      ],
      [
        "▁ňàkk",
        -10.383100205207658
      ],
      [
        "▁Demuloo",
        -10.383103077301419
      ],
      [
        "▁fureur",
        -10.383104088862428
      ],
      [
        "▁frappions",
        -10.383116808271431
      ],
      [
        "▁capable",
        -10.383135140140913
      ],
      [
        "▁fomp",
        -10.383141941425954
      ],
      [
        "▁L'autre",
        -10.383157242923849
      ],
      [
        "▁naître",
        -10.38316091466615
      ],
      [
        "▁électrique",
        -10.383176904071018
      ],
      [
        "▁contraire",
        -10.38319311982176
      ],
      [
        "▁bënn",
        -10.383201917336201
      ],
      [
        "▁pension",
        -10.383203505922003
      ],
      [
        "▁móobal",
        -10.383217807254868
      ],
      [
        "▁bãŋ",
        -10.383222860484484
      ],
      [
        "▁meetar",
        -10.383237900462785
      ],
      [
        "▁daŋar",
        -10.383247095628544
      ],
      [
        "▁weesu",
        -10.383276332147364
      ],
      [
        "▁larmes",
        -10.383290309713937
      ],
      [
        "▁dég",
        -10.383322951883919
      ],
      [
        "▁échappé",
        -10.383329984859516
      ],
      [
        "▁njariñ",
        -10.3833308275566
      ],
      [
        "▁Bateri",
        -10.3833426151626
      ],
      [
        "▁vieillard",
        -10.383357442766371
      ],
      [
        "▁bruit",
        -10.383375646785602
      ],
      [
        "▁semble-t-il",
        -10.383401784238623
      ],
      [
        "▁lëmm",
        -10.383415826527154
      ],
      [
        "▁miirloo",
        -10.383416312593333
      ],
      [
        "▁soxor",
        -10.383445888563298
      ],
      [
        "▁l'indépendance",
        -10.383495761977011
      ],
      [
        "▁appelé",
        -10.383527376586521
      ],
      [
        "▁meññ",
        -10.383532917597629
      ],
      [
        "▁commencé",
        -10.383565464333408
      ],
      [
        "▁moyen",
        -10.38359437792165
      ],
      [
        "▁baobab",
        -10.383615736550091
      ],
      [
        "▁disparu",
        -10.383684893679487
      ],
      [
        "▁pegg",
        -10.383689153589705
      ],
      [
        "▁perdre",
        -10.383699735581372
      ],
      [
        "▁dimbali",
        -10.383712630026503
      ],
      [
        "▁yemale",
        -10.38371868375136
      ],
      [
        "▁ràpp",
        -10.383726710242534
      ],
      [
        "▁dijj",
        -10.38375524361126
      ],
      [
        "▁accepté",
        -10.38376352166748
      ],
      [
        "▁sauce",
        -10.383788537779965
      ],
      [
        "▁serré",
        -10.38385078683207
      ],
      [
        "▁neuf",
        -10.383879629938942
      ],
      [
        "▁Mbam",
        -10.383909883534983
      ],
      [
        "▁flamme",
        -10.383913104010604
      ],
      [
        "▁soxal",
        -10.383938159024947
      ],
      [
        "▁décrit",
        -10.38399210446681
      ],
      [
        "▁absent",
        -10.383996176773548
      ],
      [
        "▁chapeaux",
        -10.384062569623694
      ],
      [
        "▁brûlant",
        -10.38417269411055
      ],
      [
        "▁gëléem",
        -10.384187934011404
      ],
      [
        "▁Demkoon",
        -10.384196425082965
      ],
      [
        "▁tàggat",
        -10.384216866238248
      ],
      [
        "▁élevé",
        -10.384299158777115
      ],
      [
        "▁Demuma",
        -10.384434324426621
      ],
      [
        "▁taq",
        -10.384463838082448
      ],
      [
        "▁battant",
        -10.384528558848515
      ],
      [
        "▁nangoo",
        -10.384540700559736
      ],
      [
        "▁Joor",
        -10.384592084170547
      ],
      [
        "▁surveill",
        -10.384601068994233
      ],
      [
        "▁gosse",
        -10.384649660186627
      ],
      [
        "▁raconté",
        -10.384674098672086
      ],
      [
        "▁soirée",
        -10.384723997141863
      ],
      [
        "▁màtt",
        -10.384754350954728
      ],
      [
        "▁penku",
        -10.38489063270081
      ],
      [
        "▁voudrait",
        -10.384925816672279
      ],
      [
        "▁Celui-",
        -10.384974750654273
      ],
      [
        "▁muraille",
        -10.38498396212055
      ],
      [
        "▁rajo",
        -10.385027820719596
      ],
      [
        "▁caisse",
        -10.385059504255581
      ],
      [
        "▁repas",
        -10.385065303864577
      ],
      [
        "▁Banyo",
        -10.385186066813516
      ],
      [
        "▁Looloo",
        -10.38530784025914
      ],
      [
        "àww",
        -10.385433365112334
      ],
      [
        "▁Foof",
        -10.38543801263071
      ],
      [
        "▁revenu",
        -10.38552257645805
      ],
      [
        "▁matinée",
        -10.385522961303623
      ],
      [
        "▁Bamako",
        -10.385541458770522
      ],
      [
        "▁sooke",
        -10.385546571773347
      ],
      [
        "▁tuuru",
        -10.385603929409301
      ],
      [
        "▁c'est-à-dire",
        -10.385618464801638
      ],
      [
        "▁marqué",
        -10.385633903777089
      ],
      [
        "▁dikkul",
        -10.385672781791618
      ],
      [
        "ki",
        -10.385707626654174
      ],
      [
        "▁remis",
        -10.3859706685562
      ],
      [
        "▁d'entre",
        -10.386128941466499
      ],
      [
        "▁wert",
        -10.386291915576649
      ],
      [
        "▁simila",
        -10.386553105181486
      ],
      [
        "▁guerr",
        -10.386568284217732
      ],
      [
        "▁Mbir",
        -10.38664092542517
      ],
      [
        "▁yeggee",
        -10.386720145492518
      ],
      [
        "empire",
        -10.387002989264625
      ],
      [
        "▁prière",
        -10.387014102035238
      ],
      [
        "▁aigu",
        -10.387039016496601
      ],
      [
        "▁oublier",
        -10.387150789335113
      ],
      [
        "▁tëgg",
        -10.3871611916615
      ],
      [
        "▁kookale",
        -10.387284389224394
      ],
      [
        "▁tubay",
        -10.387328894446544
      ],
      [
        "▁peine",
        -10.387340512325537
      ],
      [
        "▁Dieu",
        -10.387560243194986
      ],
      [
        "▁Bul",
        -10.387644181282338
      ],
      [
        "▁nuru",
        -10.38771205229952
      ],
      [
        "▁portale",
        -10.387791918266633
      ],
      [
        "▁móol",
        -10.387915668321556
      ],
      [
        "▁Cependant",
        -10.388401705076511
      ],
      [
        "▁charme",
        -10.388424584124493
      ],
      [
        "▁Njiit",
        -10.388425921061108
      ],
      [
        "▁waaxu",
        -10.388439706566658
      ],
      [
        "cteur",
        -10.388494706016322
      ],
      [
        "leel",
        -10.388530813737745
      ],
      [
        "▁puur",
        -10.388557794194915
      ],
      [
        "itié",
        -10.38872209505427
      ],
      [
        "▁poudre",
        -10.38876312417374
      ],
      [
        "▁Dégg",
        -10.389405375748044
      ],
      [
        "▁genre",
        -10.3897102022558
      ],
      [
        "▁créé",
        -10.39012171507677
      ],
      [
        "▁juges",
        -10.390178476647353
      ],
      [
        "ee.",
        -10.390195057386737
      ],
      [
        "▁d'habitude",
        -10.3903463435474
      ],
      [
        "▁sœurs",
        -10.390425702207239
      ],
      [
        "▁kayit",
        -10.390541043940535
      ],
      [
        "▁fowu",
        -10.390821884507403
      ],
      [
        "▁Tann",
        -10.390842082589554
      ],
      [
        "▁ràkkaaju",
        -10.391154736359963
      ],
      [
        "▁pourquoi",
        -10.391767993198435
      ],
      [
        "▁travailler",
        -10.391889534324593
      ],
      [
        "▁jàppoon",
        -10.391976084168707
      ],
      [
        "▁oreilles",
        -10.3923453665965
      ],
      [
        "▁rose",
        -10.39235856362863
      ],
      [
        "▁n'importe",
        -10.392423268194573
      ],
      [
        "▁cultive",
        -10.392566888658203
      ],
      [
        "▁cré",
        -10.392614055524547
      ],
      [
        "▁plats",
        -10.39282570238062
      ],
      [
        "cture",
        -10.393469180829342
      ],
      [
        "tiens",
        -10.393760530103688
      ],
      [
        "▁ouverte",
        -10.394253513525072
      ],
      [
        "▁install",
        -10.394547428927314
      ],
      [
        "▁secondes",
        -10.39464485752495
      ],
      [
        "▁vagues",
        -10.394649554255448
      ],
      [
        "▁baň",
        -10.394864259142203
      ],
      [
        "▁d'art",
        -10.395086913815875
      ],
      [
        "▁drapeau",
        -10.395885589548554
      ],
      [
        "▁dig",
        -10.396268154762685
      ],
      [
        "▁Éta",
        -10.396465180035428
      ],
      [
        "sama",
        -10.396475243263046
      ],
      [
        "▁faax",
        -10.396625365643505
      ],
      [
        "▁tente",
        -10.397538094868708
      ],
      [
        "▁fameuse",
        -10.397665906035835
      ],
      [
        "▁joow",
        -10.398066958133361
      ],
      [
        "▁toogoon",
        -10.398117874691161
      ],
      [
        "ndait",
        -10.398119468898928
      ],
      [
        "▁fruits",
        -10.398161348347363
      ],
      [
        "▁conduis",
        -10.398194709524905
      ],
      [
        "▁càkk",
        -10.398215189211507
      ],
      [
        "▁way-juram",
        -10.398507638783515
      ],
      [
        "▁kilomètres",
        -10.398634798822663
      ],
      [
        "▁waxee",
        -10.398690880475307
      ],
      [
        "▁naŋg",
        -10.398977752110701
      ],
      [
        "▁Amin",
        -10.399003260191927
      ],
      [
        "▁ndeysaan.",
        -10.399378814134963
      ],
      [
        "▁golf",
        -10.399473137691803
      ],
      [
        "▁rendu",
        -10.399701093851174
      ],
      [
        "kkati",
        -10.399708190421991
      ],
      [
        "▁tege",
        -10.399960725732369
      ],
      [
        "▁battu",
        -10.400575093791018
      ],
      [
        "▁apparaissent",
        -10.400653783931766
      ],
      [
        "▁Mokaa",
        -10.40114673476415
      ],
      [
        "▁woowa",
        -10.40116683117433
      ],
      [
        "▁wuut",
        -10.401626119889443
      ],
      [
        "▁sipp",
        -10.401861525405517
      ],
      [
        "▁Ho",
        -10.402054686798163
      ],
      [
        "▁n'ira",
        -10.40245439965902
      ],
      [
        "▁sell",
        -10.402639739795958
      ],
      [
        "▁corde",
        -10.403002837646154
      ],
      [
        "▁demuñu",
        -10.403225234113915
      ],
      [
        "▁kaki",
        -10.403851885271727
      ],
      [
        "▁pétrole",
        -10.404331559882245
      ],
      [
        "▁jeux",
        -10.404647431396969
      ],
      [
        "▁Europe",
        -10.40467318121255
      ],
      [
        "▁l'inst",
        -10.404954293628334
      ],
      [
        "▁diine",
        -10.405068182867618
      ],
      [
        "ard",
        -10.4052448450972
      ],
      [
        "'arachide",
        -10.406061162636698
      ],
      [
        "▁jog",
        -10.406237372396077
      ],
      [
        "▁ñaaw",
        -10.40649687380033
      ],
      [
        "nie",
        -10.406876504726926
      ],
      [
        "▁fui",
        -10.407841152149668
      ],
      [
        "▁accepter",
        -10.408160018533964
      ],
      [
        "▁maladies",
        -10.40816317743914
      ],
      [
        "▁méngale",
        -10.408471417813908
      ],
      [
        "▁tegu",
        -10.409384828535941
      ],
      [
        "▁verra",
        -10.40962761938539
      ],
      [
        "▁léeg",
        -10.40997598243966
      ],
      [
        "iques",
        -10.410017109820817
      ],
      [
        "▁d'enfants",
        -10.410337493605796
      ],
      [
        "▁gisu",
        -10.410894117947418
      ],
      [
        "▁ňa",
        -10.41141835255824
      ],
      [
        "▁weg",
        -10.411811471561343
      ],
      [
        "▁pri",
        -10.412386309132128
      ],
      [
        "▁fen",
        -10.412996618766224
      ],
      [
        "▁mêl",
        -10.4130475742685
      ],
      [
        "st",
        -10.413183530610025
      ],
      [
        "▁partent",
        -10.414934088234572
      ],
      [
        "isme",
        -10.41498178594981
      ],
      [
        "▁US",
        -10.415264012181332
      ],
      [
        "▁Mac",
        -10.41547630841108
      ],
      [
        "▁kam",
        -10.415609732357428
      ],
      [
        "▁libre",
        -10.41602716811615
      ],
      [
        "▁chameau",
        -10.416120690099845
      ],
      [
        "ññ",
        -10.416540376215565
      ],
      [
        "▁jafee",
        -10.416608620840503
      ],
      [
        "▁imagin",
        -10.416768013816235
      ],
      [
        "men",
        -10.416964672575709
      ],
      [
        "tam",
        -10.417135782189375
      ],
      [
        "▁chocolat.",
        -10.417781211273434
      ],
      [
        "▁instants",
        -10.418427897418422
      ],
      [
        "▁yóbb",
        -10.418590644437245
      ],
      [
        "-tuut",
        -10.419031802940465
      ],
      [
        "innaaw",
        -10.419184352407388
      ],
      [
        "▁jaaxa",
        -10.419296874834188
      ],
      [
        "ait-il",
        -10.419910747077697
      ],
      [
        "▁pourrai",
        -10.420466237666812
      ],
      [
        "▁travaill",
        -10.421016527359027
      ],
      [
        "aas",
        -10.42122928439146
      ],
      [
        "venus",
        -10.422318983243288
      ],
      [
        "▁tama",
        -10.422879432457128
      ],
      [
        "▁Aa",
        -10.422891031164738
      ],
      [
        "▁diggu",
        -10.423043605192651
      ],
      [
        "ards",
        -10.423680533453373
      ],
      [
        "▁l'aide",
        -10.4241161484409
      ],
      [
        "▁rëbbi",
        -10.424237563535447
      ],
      [
        "▁ceeb",
        -10.424356183441713
      ],
      [
        "▁Aka",
        -10.425001907727404
      ],
      [
        "▁Combi",
        -10.425211003987357
      ],
      [
        "waaw",
        -10.42579024589851
      ],
      [
        "▁col",
        -10.425880518608608
      ],
      [
        "▁confie",
        -10.426213880385902
      ],
      [
        "▁marque",
        -10.427061777727983
      ],
      [
        "alal",
        -10.427781231433917
      ],
      [
        "nge",
        -10.42841305707483
      ],
      [
        "▁prenant",
        -10.429132339931195
      ],
      [
        "▁Doon",
        -10.429187583810602
      ],
      [
        "▁d'il",
        -10.429674650061825
      ],
      [
        "oroom",
[...]
