{
  "version": "1.0",
  "truncation": null,
  "padding": null,
  "added_tokens": [
    {
      "id": 0,
      "content": "<cls>",
      "single_word": false,
      "lstrip": false,
      "rstrip": false,
      "normalized": false,
      "special": true
    },
    {
      "id": 1,
      "content": "<sep>",
      "single_word": false,
      "lstrip": false,
      "rstrip": false,
      "normalized": false,
      "special": true
    },
    {
      "id": 2,
      "content": "<unk>",
      "single_word": false,
      "lstrip": false,
      "rstrip": false,
      "normalized": false,
      "special": true
    },
    {
      "id": 3,
      "content": "<pad>",
      "single_word": false,
      "lstrip": false,
      "rstrip": false,
      "normalized": false,
      "special": true
    },
    {
      "id": 4,
      "content": "<mask>",
      "single_word": false,
      "lstrip": false,
      "rstrip": false,
      "normalized": false,
      "special": true
    },
    {
      "id": 5,
      "content": "<s>",
      "single_word": false,
      "lstrip": false,
      "rstrip": false,
      "normalized": false,
      "special": true
    },
    {
      "id": 6,
      "content": "</s>",
      "single_word": false,
      "lstrip": false,
      "rstrip": false,
      "normalized": false,
      "special": true
    }
  ],
  "normalizer": {
    "type": "Replace",
    "pattern": {
      "String": " {2,}"
    },
    "content": " "
  },
  "pre_tokenizer": {
    "type": "Metaspace",
    "replacement": "▁",
    "add_prefix_space": true
  },
  "post_processor": null,
  "decoder": {
    "type": "Metaspace",
    "replacement": "▁",
    "add_prefix_space": true
  },
  "model": {
    "type": "Unigram",
    "unk_id": 2,
    "vocab": [
      [
        "<cls>",
        0.0
      ],
      [
        "<sep>",
        0.0
      ],
      [
        "<unk>",
        0.0
      ],
      [
        "<pad>",
        0.0
      ],
      [
        "<mask>",
        0.0
      ],
      [
        "<s>",
        0.0
      ],
      [
        "</s>",
        0.0
      ],
      [
        "▁",
        -2.582640495876431
      ],
      [
        ".",
        -3.1650737254675674
      ],
      [
        ",",
        -3.7192926095375025
      ],
      [
        "?",
        -4.096485588605709
      ],
      [
        "!",
        -4.198790764221501
      ],
      [
        "s",
        -4.253054703494029
      ],
      [
        "▁la",
        -4.404766407307703
      ],
      [
        "▁de",
        -4.579299039841615
      ],
      [
        "e",
        -4.6417508959172356
      ],
      [
        "a",
        -4.739900522442805
      ],
      [
        "u",
        -4.786852253105133
      ],
      [
        "▁ci",
        -4.797535868867377
      ],
      [
        "▁qui",
        -4.942803662167233
      ],
      [
        "y",
        -4.967565716190055
      ],
      [
        "▁na",
        -4.987145394104461
      ],
      [
        "i",
        -5.017536110275926
      ],
      [
        "n",
        -5.020228180566576
      ],
      [
        "▁est",
        -5.103038086723937
      ],
      [
        "▁!",
        -5.134177135443156
      ],
      [
        "▁dem",
        -5.1451426083381255
      ],
      [
        "▁que",
        -5.218511339475113
      ],
      [
        "▁ne",
        -5.240722689337928
      ],
      [
        "▁un",
        -5.2526133911553154
      ],
      [
        "▁pas",
        -5.261518310617207
      ],
      [
        "t",
        -5.273852723782918
      ],
      [
        "▁C'est",
        -5.27488259409866
      ],
      [
        "▁gi",
        -5.2894957680494565
      ],
      [
        "▁Il",
        -5.3136734828125665
      ],
      [
        "▁a",
        -5.323220502912881
      ],
      [
        "▁des",
        -5.353281774727434
      ],
      [
        "et",
        -5.387476142495742
      ],
      [
        "▁naa",
        -5.462600918955234
      ],
      [
        "▁vu",
        -5.48009212368798
      ],
      [
        "▁bi",
        -5.527601003324913
      ],
      [
        "▁ŋga",
        -5.569535567073263
      ],
      [
        "▁ay",
        -5.598332449161364
      ],
      [
        "▁G",
        -5.602937997105811
      ],
      [
        "une",
        -5.60525772519382
      ],
      [
        "óor",
        -5.664549401537163
      ],
      [
        "▁y",
        -5.727351347370086
      ],
      [
        "▁am",
        -5.72987523168182
      ],
      [
        "▁le",
        -5.770708827750333
      ],
      [
        "▁Gis",
        -5.788889906609243
      ],
      [
        "▁tu",
        -5.812844025251213
      ],
      [
        "▁ce",
        -5.813134507415508
      ],
      [
        "l",
        -5.8287051699569705
      ],
      [
        "▁à",
        -5.862049054098702
      ],
      [
        "▁mu",
        -5.865946655012283
      ],
      [
        "▁Je",
        -5.866262377611099
      ],
      [
        "r",
        -5.879290144466048
      ],
      [
        "▁gis",
        -5.884205671409316
      ],
      [
        "▁sont",
        -5.889202270333745
      ],
      [
        "▁di",
        -5.897384113386262
      ],
      [
        "▁Tu",
        -5.907203907027975
      ],
      [
        "▁homme",
        -5.921666777114488
      ],
      [
        "▁nag",
        -5.941964365288986
      ],
      [
        "▁bu",
        -5.950844814159918
      ],
      [
        "▁été",
        -5.964322801220068
      ],
      [
        "on",
        -5.972319990979235
      ],
      [
        "▁les",
        -5.974345249372615
      ],
      [
        "▁L'homme",
        -5.992642016898076
      ],
      [
        "▁ñu",
        -5.994065218986122
      ],
      [
        "▁du",
        -6.023046787470655
      ],
      [
        "▁yu",
        -6.035934890869981
      ],
      [
        "▁c",
        -6.055886405619558
      ],
      [
        "▁ni",
        -6.09407060152374
      ],
      [
        "▁photo",
        -6.096978821895569
      ],
      [
        "▁J'ai",
        -6.097526615195529
      ],
      [
        "▁ko",
        -6.10589075377024
      ],
      [
        "▁ak",
        -6.121231525244079
      ],
      [
        "▁xam",
        -6.125590432322152
      ],
      [
        "▁ngi",
        -6.134927640087329
      ],
      [
        "▁nit",
        -6.166281529525552
      ],
      [
        "▁ba",
        -6.166907702910422
      ],
      [
        "▁ñëw",
        -6.1690006469692005
      ],
      [
        "▁wax",
        -6.17597982357515
      ],
      [
        "▁yi",
        -6.183596861792152
      ],
      [
        "le",
        -6.1965199411074545
      ],
      [
        "▁il",
        -6.2111774421098636
      ],
      [
        "▁l'homme",
        -6.237374335309781
      ],
      [
        "▁en",
        -6.248388967076718
      ],
      [
        "▁n",
        -6.251368850532821
      ],
      [
        "à",
        -6.258845207054208
      ],
      [
        "▁bii",
        -6.280253054857807
      ],
      [
        "▁ma",
        -6.2981794992342515
      ],
      [
        "▁qu'il",
        -6.316074328720353
      ],
      [
        "▁nekk",
        -6.327207859680566
      ],
      [
        "il",
        -6.342138547566659
      ],
      [
        "▁góor",
        -6.3444865532030645
      ],
      [
        "▁avec",
        -6.3463740638138155
      ],
      [
        "▁c'est",
        -6.361594971888348
      ],
      [
        "m",
        -6.36362635962525
      ],
      [
        "▁Nit",
        -6.399657284016083
      ],
      [
        "▁parti",
        -6.402336783467463
      ],
      [
        "nt",
        -6.449428824651237
      ],
      [
        "▁pour",
        -6.469968292220103
      ],
      [
        "▁Sur",
        -6.47375230024396
      ],
      [
        "▁te",
        -6.474036182383138
      ],
      [
        "▁ab",
        -6.4887151515175425
      ],
      [
        "▁lu",
        -6.496635365157461
      ],
      [
        "▁autre",
        -6.509045821557772
      ],
      [
        "▁dans",
        -6.509437465716533
      ],
      [
        "▁sur",
        -6.5130051455977735
      ],
      [
        "▁benn",
        -6.515385981279019
      ],
      [
        "▁la.",
        -6.516005407822004
      ],
      [
        "é",
        -6.524393532232991
      ],
      [
        "▁biir",
        -6.527581504538367
      ],
      [
        "▁boo",
        -6.539304913133292
      ],
      [
        "▁mi",
        -6.546327499598256
      ],
      [
        "▁d",
        -6.571004908917316
      ],
      [
        "▁se",
        -6.592307142944011
      ],
      [
        "▁aussi",
        -6.594097817215574
      ],
      [
        "▁Nataal",
        -6.611382851024644
      ],
      [
        "▁je",
        -6.618726226969666
      ],
      [
        "▁cet",
        -6.629551999892005
      ],
      [
        "▁ñi",
        -6.673370841071465
      ],
      [
        "▁ŋgi",
        -6.674964755179288
      ],
      [
        "▁O",
        -6.6763527468226975
      ],
      [
        "▁bëgg",
        -6.676905926726567
      ],
      [
        "▁si",
        -6.686115830657499
      ],
      [
        "▁moom",
        -6.703784917073028
      ],
      [
        "▁fi",
        -6.7202005966307645
      ],
      [
        "▁ki",
        -6.720826390136555
      ],
      [
        "s-t",
        -6.723548763079259
      ],
      [
        "eneen",
        -6.723737183260909
      ],
      [
        "ette",
        -6.731220738396618
      ],
      [
        "▁mel",
        -6.73391365217371
      ],
      [
        "▁def",
        -6.736918311465464
      ],
      [
        "▁ñoo",
        -6.7394118699993095
      ],
      [
        "▁xale",
        -6.756104872749102
      ],
      [
        "▁Le",
        -6.758121243738106
      ],
      [
        "▁là",
        -6.75957276484837
      ],
      [
        "ay",
        -6.769884467426381
      ],
      [
        "▁A",
        -6.771126844520856
      ],
      [
        "▁Ce",
        -6.7722921272385275
      ],
      [
        "▁l'intérieur",
        -6.775485108375943
      ],
      [
        "▁Am",
        -6.775883743277832
      ],
      [
        "▁vois",
        -6.7841074393134715
      ],
      [
        "▁nga",
        -6.792913465691672
      ],
      [
        "al",
        -6.799053008056743
      ],
      [
        "x",
        -6.831927641172132
      ],
      [
        "▁Ci",
        -6.832468402646761
      ],
      [
        "▁parle",
        -6.833698045921551
      ],
      [
        "oon",
        -6.835469953291783
      ],
      [
        "o",
        -6.858604143832994
      ],
      [
        "▁tout",
        -6.859010782314343
      ],
      [
        "▁La",
        -6.860592091349002
      ],
      [
        "▁as",
        -6.869534096283767
      ],
      [
        "▁woon",
        -6.871192318338385
      ],
      [
        "▁lui",
        -6.877249652738289
      ],
      [
        "▁celui-là",
        -6.879419710786147
      ],
      [
        "▁néeg",
        -6.881677222447861
      ],
      [
        "es",
        -6.884060141832917
      ],
      [
        "▁seen",
        -6.891512248471568
      ],
      [
        "▁moo",
        -6.895254256684292
      ],
      [
        "am",
        -6.897566908792053
      ],
      [
        "s.",
        -6.89770594328127
      ],
      [
        "▁qu'",
        -6.899558830058228
      ],
      [
        "woon",
        -6.917076604936255
      ],
      [
        "▁ka",
        -6.919163765924091
      ],
      [
        "▁weex",
        -6.923231322757655
      ],
      [
        "'",
        -6.924563108136792
      ],
      [
        "▁E",
        -6.930286508587219
      ],
      [
        "▁chose",
        -6.930679467409719
      ],
      [
        "▁couleur",
        -6.9432872670623516
      ],
      [
        "ne",
        -6.94862275014182
      ],
      [
        "▁Waaw",
        -6.955016942118079
      ],
      [
        "▁ji",
        -6.960123715016103
      ],
      [
        "▁Les",
        -6.98855717510437
      ],
      [
        "ataal",
        -6.991619850210664
      ],
      [
        "▁xar",
        -6.994519950900977
      ],
      [
        "▁voilà",
        -7.019992512288432
      ],
      [
        "▁mouton",
        -7.020518562327279
      ],
      [
        "'est",
        -7.028260335482258
      ],
      [
        "▁moi",
        -7.03073896143181
      ],
      [
        "▁sa",
        -7.039787753339419
      ],
      [
        "▁enfants",
        -7.051144173122594
      ],
      [
        "▁vous",
        -7.055250644467512
      ],
      [
        "-",
        -7.057826539505234
      ],
      [
        "▁toi",
        -7.060646990133214
      ],
      [
        "▁ca",
        -7.0658550036412375
      ],
      [
        "▁Dem",
        -7.067364875473192
      ],
      [
        "ment",
        -7.074546900593008
      ],
      [
        "▁s",
        -7.076749741563517
      ],
      [
        "▁laa",
        -7.081102648644245
      ],
      [
        "▁au",
        -7.081290362845397
      ],
      [
        "▁demee",
        -7.083813698732861
      ],
      [
        "▁C",
        -7.084213276209308
      ],
      [
        "▁fa",
        -7.090401037988345
      ],
      [
        "▁Un",
        -7.101279636087545
      ],
      [
        "▁l",
        -7.105138296793229
      ],
      [
        "eux",
        -7.106248398305641
      ],
      [
        "▁venu",
        -7.106355565847455
      ],
      [
        "ñ",
        -7.107327449243053
      ],
      [
        "▁kenn",
        -7.1269564178234965
      ],
      [
        "▁partir",
        -7.131704790478404
      ],
      [
        "▁ag",
        -7.134756999771577
      ],
      [
        "▁porte",
        -7.1362412369494
      ],
      [
        "▁dit",
        -7.1413466291989085
      ],
      [
        "...",
        -7.142129192224443
      ],
      [
        "ci",
        -7.153678287568521
      ],
      [
        "▁Quel",
        -7.153815648304384
      ],
      [
        "▁maison",
        -7.156091367367383
      ],
      [
        "▁demul",
        -7.158533832361448
      ],
      [
        "▁part",
        -7.163377394539552
      ],
      [
        "▁lool",
        -7.166885060864326
      ],
      [
        "▁Cet",
        -7.169822609387467
      ],
      [
        "▁où",
        -7.1767017008326555
      ],
      [
        "▁jigéen",
        -7.185686020935032
      ],
      [
        "▁da",
        -7.1882046239664685
      ],
      [
        "▁veux",
        -7.192939564118536
      ],
      [
        "▁bien",
        -7.195279981747456
      ],
      [
        "▁ŋgeen",
        -7.206317175336641
      ],
      [
        "▁j'",
        -7.208206816096167
      ],
      [
        "k",
        -7.216950483691651
      ],
      [
        "ù",
        -7.220002284884149
      ],
      [
        "▁ku",
        -7.220729276836066
      ],
      [
        "te",
        -7.222306602100244
      ],
      [
        "▁plus",
        -7.22701893107266
      ],
      [
        "▁Maa",
        -7.229493493152538
      ],
      [
        "▁De",
        -7.237962307371188
      ],
      [
        "▁rafet",
        -7.241288207592719
      ],
      [
        "ez",
        -7.24138828773245
      ],
      [
        "▁n'es",
        -7.251339758826438
      ],
      [
        "▁leen",
        -7.260063567986824
      ],
      [
        "ant",
        -7.2701620126158595
      ],
      [
        "▁m",
        -7.2730862282336375
      ],
      [
        "▁très",
        -7.277678168323806
      ],
      [
        "▁garab",
        -7.278128592195902
      ],
      [
        "en",
        -7.280771213242435
      ],
      [
        "▁ou",
        -7.2820730848254644
      ],
      [
        "▁kaw",
        -7.311944648117862
      ],
      [
        "w",
        -7.316697593425479
      ],
      [
        "▁sol",
        -7.324227119096195
      ],
      [
        "ont",
        -7.328342874286372
      ],
      [
        "▁xarit",
        -7.3438486645970364
      ],
      [
        "▁Lii",
        -7.352675976696104
      ],
      [
        "g",
        -7.354811003659348
      ],
      [
        "▁doon",
        -7.355647926748496
      ],
      [
        "▁lii",
        -7.358598520124062
      ],
      [
        "▁Xar",
        -7.3682980362845605
      ],
      [
        "▁ñax",
        -7.381127300010742
      ],
      [
        "▁là-bas",
        -7.381763059110371
      ],
      [
        "▁soo",
        -7.385041619097237
      ],
      [
        "▁gens",
        -7.387388447036282
      ],
      [
        "▁réer",
        -7.391435803509593
      ],
      [
        "▁J",
        -7.3967565456798265
      ],
      [
        "▁femme",
        -7.399340068947045
      ],
      [
        "▁personne",
        -7.402296817824577
      ],
      [
        "d",
        -7.408496184986505
      ],
      [
        "▁n'a",
        -7.424370838308304
      ],
      [
        "▁À",
        -7.427568089011313
      ],
      [
        "▁man",
        -7.428837687777781
      ],
      [
        "oo",
        -7.4336516098522365
      ],
      [
        "▁waaw",
        -7.437371178472835
      ],
      [
        "▁Su",
        -7.446844203973156
      ],
      [
        "▁veut",
        -7.45690268913668
      ],
      [
        "▁rekk",
        -7.456968939725386
      ],
      [
        "er",
        -7.459544131534309
      ],
      [
        "▁teg",
        -7.459794588709021
      ],
      [
        "▁semble",
        -7.459962875349483
      ],
      [
        "▁Qui",
        -7.461425168108764
      ],
      [
        "▁Comme",
        -7.462899005666447
      ],
      [
        "▁ñaar",
        -7.46658353296549
      ],
      [
        "▁dañ",
        -7.468376527630219
      ],
      [
        "▁on",
        -7.469345374086147
      ],
      [
        "▁ami",
        -7.472503263649537
      ],
      [
        "▁va",
        -7.4739694124757685
      ],
      [
        "▁Si",
        -7.477106860511817
      ],
      [
        "▁lañu",
        -7.478380439300187
      ],
      [
        "épp",
        -7.4854232666680565
      ],
      [
        "▁b",
        -7.486442886202734
      ],
      [
        "▁Ba",
        -7.492217525326447
      ],
      [
        "▁gu",
        -7.494246435632653
      ],
      [
        "▁jusqu'",
        -7.4950059651266265
      ],
      [
        "▁j'ai",
        -7.497660197205817
      ],
      [
        "▁Oui",
        -7.497939929212118
      ],
      [
        "▁moutons",
        -7.498547808993986
      ],
      [
        "▁noppi",
        -7.49893854965099
      ],
      [
        "▁Ceci",
        -7.499909323577008
      ],
      [
        "▁yépp",
        -7.500253214704127
      ],
      [
        "▁kër",
        -7.501406848347992
      ],
      [
        "tu",
        -7.503336733693373
      ],
      [
        "▁Sée",
        -7.508700455500037
      ],
      [
        "▁k",
        -7.50953292743554
      ],
      [
        "▁l'a",
        -7.514287232719576
      ],
      [
        "▁waa",
        -7.515803553137918
      ],
      [
        "▁fu",
        -7.516589390867477
      ],
      [
        "la",
        -7.5188541894568
      ],
      [
        "▁Mi",
        -7.523546286315032
      ],
      [
        "it",
        -7.524725606268245
      ],
      [
        "ent",
        -7.524769601984425
      ],
      [
        "b",
        -7.526555935736062
      ],
      [
        "▁yoo",
        -7.529739517596495
      ],
      [
        "▁Fa",
        -7.532347554709345
      ],
      [
        "▁So",
        -7.5366162807173165
      ],
      [
        "▁l'autre",
        -7.538710589701213
      ],
      [
        "▁ceux-là",
        -7.538768587726815
      ],
      [
        "▁peut-être",
        -7.538967127089082
      ],
      [
        "▁maa",
        -7.542408685076152
      ],
      [
        "leurs",
        -7.544569448090318
      ],
      [
        "▁Ma",
        -7.5455015008714765
      ],
      [
        "▁d'autres",
        -7.5464360806603885
      ],
      [
        "▁kooku",
        -7.551033499341518
      ],
      [
        "de",
        -7.5531519026704075
      ],
      [
        "quelle",
        -7.561756118435282
      ],
      [
        "▁toog",
        -7.566057740143069
      ],
      [
        "▁L",
        -7.567208003355075
      ],
      [
        "▁D",
        -7.569936264915899
      ],
      [
        "▁nañu",
        -7.580510676561623
      ],
      [
        "▁Vous",
        -7.581296055198606
      ],
      [
        "▁Mais",
        -7.5825535925471925
      ],
      [
        "▁wet",
        -7.582724099770553
      ],
      [
        "▁Na",
        -7.588182941481801
      ],
      [
        "▁mën",
        -7.595789069277563
      ],
      [
        "h",
        -7.601393807449233
      ],
      [
        "▁chambre",
        -7.603921146098617
      ],
      [
        "▁personnes",
        -7.6045798479733175
      ],
      [
        "▁Du",
        -7.609360168433976
      ],
      [
        "taal",
        -7.6110826782100585
      ],
      [
        "▁Que",
        -7.613219346753737
      ],
      [
        "▁ñuul",
        -7.613711657562459
      ],
      [
        "▁ya",
        -7.615113351896128
      ],
      [
        "is",
        -7.61875164195157
      ],
      [
        "▁baax",
        -7.619991806836129
      ],
      [
        "re",
        -7.624038268462957
      ],
      [
        "▁tamit",
        -7.626918915214525
      ],
      [
        "un",
        -7.627210922572866
      ],
      [
        "▁quelqu'un",
        -7.627762791422674
      ],
      [
        "▁sax",
        -7.629808190467191
      ],
      [
        "est",
        -7.634170506278605
      ],
      [
        "▁daal",
        -7.637166045265451
      ],
      [
        "que",
        -7.648881277521884
      ],
      [
        "fa",
        -7.652729914918396
      ],
      [
        "▁s'",
        -7.655988906037818
      ],
      [
        "▁nii",
        -7.664192895382849
      ],
      [
        "di",
        -7.671749661250349
      ],
      [
        "▁Moo",
        -7.67372755354603
      ],
      [
        "▁coté",
        -7.674096745998124
      ],
      [
        "▁Xale",
        -7.674815008705904
      ],
      [
        "▁qu",
        -7.675201879891653
      ],
      [
        "▁foofu",
        -7.677157266556888
      ],
      [
        "▁voit",
        -7.678783821336607
      ],
      [
        "▁Te",
        -7.678798868445927
      ],
      [
        "▁F",
        -7.681968384605403
      ],
      [
        "▁dana",
        -7.692029708255235
      ],
      [
        "ependant",
        -7.703554554929507
      ],
      [
        "▁fait",
        -7.706275312719361
      ],
      [
        "▁d'",
        -7.710515849885053
      ],
      [
        "voir",
        -7.715551829803749
      ],
      [
        "▁dara",
        -7.7231811416665614
      ],
      [
        "▁Ndax",
        -7.724329173970993
      ],
      [
        "▁d'un",
        -7.726141978032565
      ],
      [
        "uñu",
        -7.741206600105382
      ],
      [
        "▁autres",
        -7.742932181003407
      ],
      [
        "▁dañu",
        -7.749209475117675
      ],
      [
        "▁daa",
        -7.749895050066472
      ],
      [
        "▁passe",
        -7.755804790623188
      ],
      [
        "▁posé",
        -7.755815712074705
      ],
      [
        "▁quelle",
        -7.756664785534721
      ],
      [
        "-là",
        -7.772609938690886
      ],
      [
        "▁donné",
        -7.776882521511887
      ],
      [
        "▁crois",
        -7.77734062617176
      ],
      [
        "▁ñépp",
        -7.777366852502007
      ],
      [
        "▁celui",
        -7.777446146612434
      ],
      [
        "▁Keneen",
        -7.777892504014869
      ],
      [
        "▁taxaw",
        -7.777954548009426
      ],
      [
        "▁yooyu",
        -7.778316020310183
      ],
      [
        "na",
        -7.780162041564537
      ],
      [
        "▁verre",
        -7.782508617293441
      ],
      [
        "▁bari",
        -7.785480904317117
      ],
      [
        "▁fii",
        -7.787525611798477
      ],
      [
        "▁Yaa",
        -7.789950151743449
      ],
      [
        "ul",
        -7.795830843223065
      ],
      [
        "▁ont",
        -7.798083787684089
      ],
      [
        "▁même",
        -7.8029142839844035
      ],
      [
        "▁femmes",
        -7.804912294172158
      ],
      [
        "▁Ñu",
        -7.805875565184916
      ],
      [
        "c",
        -7.806708657097818
      ],
      [
        "▁su",
        -7.807107530244322
      ],
      [
        "▁égaré",
        -7.815248349534032
      ],
      [
        "koon",
        -7.815408502312193
      ],
      [
        "▁peut",
        -7.823380741716358
      ],
      [
        "ux",
        -7.8266928309514165
      ],
      [
        "▁quelqu",
        -7.831710014564937
      ],
      [
        "▁doŋŋ",
        -7.831839473369763
      ],
      [
        "▁Samba",
        -7.832188222957625
      ],
      [
        "▁aperç",
        -7.832368040991624
      ],
      [
        "▁p",
        -7.838448114708845
      ],
      [
        "▁ai",
        -7.840991170775741
      ],
      [
        "▁itam",
        -7.841921706481891
      ],
      [
        "▁Mu",
        -7.845851530544316
      ],
      [
        "▁blanc",
        -7.857471076272973
      ],
      [
        "▁son",
        -7.858524326863542
      ],
      [
        "▁rouge",
        -7.860698004530078
      ],
      [
        "tte",
        -7.8619573452411675
      ],
      [
        "▁Bëgg",
        -7.863387456699321
      ],
      [
        "▁poisson",
        -7.865428336300129
      ],
      [
        "▁n'",
        -7.867205460530192
      ],
      [
        "▁blanche",
        -7.873235206154376
      ],
      [
        "▁kan",
        -7.8734353927554945
      ],
      [
        "▁lion",
        -7.874774433572744
      ],
      [
        "▁Waa",
        -7.8773421665547865
      ],
      [
        "▁ban",
        -7.88077974668423
      ],
      [
        "▁bunt",
        -7.884259252602441
      ],
      [
        ";",
        -7.885331706536815
      ],
      [
        "igéen",
        -7.8862291085102125
      ],
      [
        "▁jëm",
        -7.890606374757642
      ],
      [
        "▁beaucoup",
        -7.891469522562315
      ],
      [
        "▁ressemble",
        -7.8915360984754646
      ],
      [
        "▁ndaw",
        -7.895915470399572
      ],
      [
        "▁P",
        -7.897709757834732
      ],
      [
        "▁soit",
        -7.899202562968985
      ],
      [
        "▁Seet",
        -7.907012548789632
      ],
      [
        "▁arbres",
        -7.912298698124292
      ],
      [
        "▁t",
        -7.921928470408384
      ],
      [
        "ël",
        -7.925218676118805
      ],
      [
        "▁dëkk",
        -7.93185852623858
      ],
      [
        "oi",
        -7.935613037790713
      ],
      [
        "▁Va",
        -7.938184239268269
      ],
      [
        "▁dul",
        -7.939531103569866
      ],
      [
        "▁M",
        -7.940817012334946
      ],
      [
        "▁lañ",
        -7.945298734834561
      ],
      [
        "▁yeneen",
        -7.951538268801381
      ],
      [
        "▁suuf",
        -7.952933161244706
      ],
      [
        "▁génn",
        -7.953116827957885
      ],
      [
        "▁Naka",
        -7.953156002463379
      ],
      [
        "▁<mask>",
        -7.953407248611022
      ],
      [
        "▁lequel",
        -7.954308188943996
      ],
      [
        "▁parte",
        -7.954349521791787
      ],
      [
        "▁Laobe",
        -7.954559355063571
      ],
      [
        "▁vache",
        -7.9552926662110455
      ],
      [
        "▁gaynde",
        -7.956801429034644
      ],
      [
        "▁rien",
        -7.957147254220915
      ],
      [
        "▁sorte",
        -7.957558851999652
      ],
      [
        "▁Xam",
        -7.957741625648653
      ],
      [
        "▁demkoon",
        -7.957936908592135
      ],
      [
        "▁yor",
        -7.958946483565983
      ],
      [
        "▁v",
        -7.960227443953411
      ],
      [
        "▁j",
        -7.963468224581465
      ],
      [
        "▁dénk",
        -7.9642671646428935
      ],
      [
        "▁leur",
        -7.964582172937952
      ],
      [
        "ale",
        -7.9651482265452485
      ],
      [
        "▁dee",
        -7.966169940195989
      ],
      [
        "▁re",
        -7.967824025617132
      ],
      [
        "▁pars",
        -7.972535610306446
      ],
      [
        "▁tou",
        -7.980808209470011
      ],
      [
        "▁m'a",
        -7.986897720270981
      ],
      [
        "▁li",
        -7.987101035643607
      ],
      [
        "elle",
        -7.993450542824507
      ],
      [
        "▁noir",
        -7.998049990718951
      ],
      [
        "▁avait",
        -8.00018941731476
      ],
      [
        "ukaay",
        -8.000497215072123
      ],
      [
        ":",
        -8.014498373203494
      ],
      [
        "e.",
        -8.018344614600434
      ],
      [
        "▁xonq",
        -8.019290790454773
      ],
      [
        "▁S'il",
        -8.019372178164765
      ],
      [
        "▁Aucun",
        -8.019645862771515
      ],
      [
        "▁Celui-là",
        -8.020278139317186
      ],
      [
        "▁Kooku",
        -8.020303648805132
      ],
      [
        "▁au-dessus",
        -8.020304521060703
      ],
      [
        "▁bois",
        -8.022419031522679
      ],
      [
        "▁Yaw",
        -8.022813853743768
      ],
      [
        "▁qu'elle",
        -8.02310561373857
      ],
      [
        "▁ñan",
        -8.023427700161808
      ],
      [
        "▁Ya",
        -8.023463298285492
      ],
      [
        "▁doom",
        -8.027176893636607
      ],
      [
        "▁quel",
        -8.029309270597926
      ],
      [
        "▁lal",
        -8.029652979330558
      ],
      [
        "r.",
        -8.029795657458207
      ],
      [
        "▁Tout",
        -8.030020430224509
      ],
      [
        "▁koo",
        -8.035376499027747
      ],
      [
        "▁peu",
        -8.037337783199714
      ],
      [
        "▁ëe",
        -8.03791120802095
      ],
      [
        "▁waay",
        -8.041179333257622
      ],
      [
        "▁Li",
        -8.041804676649198
      ],
      [
        "▁Daf",
        -8.042631835243768
      ],
      [
        "▁parles",
        -8.044322034493685
      ],
      [
        "▁pa",
        -8.045100883027903
      ],
      [
        "naa",
        -8.045160920396574
      ],
      [
        "▁wall",
        -8.046799477259169
      ],
      [
        "les",
        -8.046880478650358
      ],
      [
        "or",
        -8.048944436078504
      ],
      [
        "▁B",
        -8.06285254893476
      ],
      [
        "▁J'",
        -8.064681113354755
      ],
      [
        "ee",
        -8.070662896710136
      ],
      [
        "▁jolie",
        -8.07442025405069
      ],
      [
        "▁ici",
        -8.081393151374531
      ],
      [
        "▁nee",
        -8.082021934305487
      ],
      [
        "aw",
        -8.083012388449843
      ],
      [
        "▁gii",
        -8.083310159659746
      ],
      [
        "▁dugg",
        -8.085959753447899
      ],
      [
        "▁Bu",
        -8.087331325556104
      ],
      [
        "▁S",
        -8.08853140124122
      ],
      [
        "▁matin",
        -8.090849425624265
      ],
      [
        "gi",
        -8.091096109152291
      ],
      [
        "▁may",
        -8.091142983956008
      ],
      [
        "▁simplement",
        -8.091586627547802
      ],
      [
        "▁celui-ci",
        -8.092184294059852
      ],
      [
        "▁mépp",
        -8.09414224338631
      ],
      [
        "▁dame",
        -8.100234881202278
      ],
      [
        "▁mais",
        -8.10139754921192
      ],
      [
        "▁Bi",
        -8.104205173352845
      ],
      [
        "▁Ken",
        -8.113596148526197
      ],
      [
        "▁bon",
        -8.1152142548252
      ],
      [
        "▁nda",
        -8.123632496249606
      ],
      [
        "▁t'a",
        -8.124704283446869
      ],
      [
        "▁comme",
        -8.125129951073799
      ],
      [
        "▁liggéey",
        -8.136037887568014
      ],
      [
        "ée",
        -8.147472047396418
      ],
      [
        "▁'",
        -8.148414036632984
      ],
      [
        "ñu",
        -8.148416114070532
      ],
      [
        "▁lay",
        -8.148815101761532
      ],
      [
        "▁jeune",
        -8.152320717836634
      ],
      [
        "▁Y",
        -8.152511264580784
      ],
      [
        "dax",
        -8.154535278293132
      ],
      [
        "▁par",
        -8.15489405902068
      ],
      [
        "-ci",
        -8.154911394796136
      ],
      [
        "▁kii",
        -8.156919075607199
      ],
      [
        "ag",
        -8.16154542161507
      ],
      [
        "▁wirgo",
        -8.167510897442625
      ],
      [
        "▁seulement",
        -8.16833562432346
      ],
      [
        "▁Yéen",
        -8.168503014711552
      ],
      [
        "▁fas",
        -8.16877593384209
      ],
      [
        "▁habits",
        -8.17006766128538
      ],
      [
        "▁bëggul",
        -8.170983273225453
      ],
      [
        "vais",
        -8.181975574590714
      ],
      [
        "▁viendra",
        -8.182091419194277
      ],
      [
        "óon",
        -8.182129888708985
      ],
      [
        "▁gendarmes",
        -8.184874248166267
      ],
      [
        "▁W",
        -8.1856996475655
      ],
      [
        "▁fut",
        -8.187018039559163
      ],
      [
        "yan",
        -8.189526526845226
      ],
      [
        "▁ça",
        -8.191054155100396
      ],
      [
        "▁xaw",
        -8.191895932734289
      ],
      [
        "▁café",
        -8.192861154230515
      ],
      [
        "▁vo",
        -8.196642417384307
      ],
      [
        "▁Mon",
        -8.197485064270257
      ],
      [
        "ri",
        -8.199159095833878
      ],
      [
        "▁f",
        -8.204058919534983
      ],
      [
        "p",
        -8.209580810595597
      ],
      [
        "▁Ñoo",
        -8.217360140233428
      ],
      [
        "-t",
        -8.222621291340609
      ],
      [
        "▁Man",
        -8.223782465193572
      ],
      [
        "▁ŋgii",
        -8.227093923120187
      ],
      [
        "▁vienne",
        -8.232565401780832
      ],
      [
        "ma",
        -8.237673624673302
      ],
      [
        "était",
        -8.238887211073791
      ],
      [
        "▁trouve",
        -8.238897296993448
      ],
      [
        "lu",
        -8.24076658408756
      ],
      [
        "faire",
        -8.247520370425061
      ],
      [
        "▁Jox",
        -8.249809702823164
      ],
      [
        "▁Ku",
        -8.249888038267322
      ],
      [
        "▁Jaam",
        -8.250740838688266
      ],
      [
        "▁encore",
        -8.250767033022909
      ],
      [
        "▁Waaye",
        -8.25079321364602
      ],
      [
        "▁Cherche",
        -8.250948317405932
      ],
      [
        "▁théière",
        -8.250951936560623
      ],
      [
        "aada",
        -8.250973421435077
      ],
      [
        "▁Quelle",
        -8.25099323685263
      ],
      [
        "▁question",
        -8.251108965634781
      ],
      [
        "▁Ceux-là",
        -8.251162638176094
      ],
      [
        "▁debout",
        -8.251346351230996
      ],
      [
        "▁Saint-Louis",
        -8.25136532765897
      ],
      [
        "▁pays",
        -8.251933217570464
      ],
      [
        "▁es",
        -8.252755126813403
      ],
      [
        "▁yónnee",
        -8.25282185404427
      ],
      [
        "ul.",
        -8.253559637299759
      ],
      [
        "mi",
        -8.253850266499228
      ],
      [
        "▁Demal",
        -8.2543983123946
      ],
      [
        "▁sui",
        -8.254608957843379
      ],
      [
        "▁Defe",
        -8.254816420664197
      ],
      [
        "▁Ndar",
        -8.254824593986335
      ],
      [
        "▁yaw",
        -8.256411673574062
      ],
      [
        "▁bañ",
        -8.257577582769066
      ],
      [
        "▁beneen",
        -8.259640032357591
      ],
      [
        "▁envoyée",
        -8.262487476186934
      ],
      [
        "▁mon",
        -8.265712289200186
      ],
      [
        "▁jën",
        -8.268076151170073
      ],
      [
        "▁mag",
        -8.271769815942779
      ],
      [
        "▁assis",
        -8.277456138497085
      ],
      [
        "ou",
        -8.278485184673757
      ],
      [
        "▁Ben",
        -8.279715723373876
      ],
      [
        "▁dëkku",
        -8.280232875486053
      ],
      [
        "▁ñuul.",
        -8.286826237626562
      ],
      [
        "▁N",
        -8.289448420044902
      ],
      [
        "ab",
        -8.292505775697173
      ],
      [
        "▁vas",
        -8.293833230503623
      ],
      [
        "afa",
        -8.298591219761358
      ],
      [
        "▁voir",
        -8.300813844129307
      ],
      [
        "▁defe",
        -8.30107562407934
      ],
      [
        "▁fille",
        -8.302980431654994
      ],
      [
        "▁T",
        -8.3029944895795
      ],
      [
        "▁entre",
        -8.30505223679762
      ],
      [
        "▁wi",
        -8.307554198265233
      ],
      [
        "nt.",
        -8.309276776002793
      ],
      [
        "▁conçue",
        -8.311796619025268
      ],
      [
        "▁réew",
        -8.31605430433702
      ],
      [
        "▁Di",
        -8.319574925156612
      ],
      [
        "ak",
        -8.320029022620458
      ],
      [
        "près",
        -8.320168548965656
      ],
      [
        "f",
        -8.325949248919056
      ],
      [
        "gee",
        -8.327273843745562
      ],
      [
        "▁g",
        -8.328105594341864
      ],
      [
        "tes",
        -8.328483110681326
      ],
      [
        "tre",
        -8.329158094549802
      ],
      [
        "▁nul",
        -8.329615715098571
      ],
      [
        "▁dal",
        -8.331297955699103
      ],
      [
        "▁paix",
        -8.340973415068564
      ],
      [
        "▁séché",
        -8.34110755892484
      ],
      [
        "▁Homme",
        -8.3411355438606
      ],
      [
        "▁cheval",
        -8.341234685380641
      ],
      [
        "▁tabax",
        -8.341335543776843
      ],
      [
        "▁Xammee",
        -8.341368763348957
      ],
      [
        "▁manière",
        -8.342045718627293
      ],
      [
        "▁Qu'il",
        -8.342234427242978
      ],
      [
        "▁toogukaay",
        -8.34238034486027
      ],
      [
        "▁ñett",
        -8.344939223619381
      ],
      [
        "▁noonu",
        -8.34495491024629
      ],
      [
        "▁portent",
        -8.346908654040373
      ],
      [
        "▁kow",
        -8.347383136123451
      ],
      [
        "▁Moom",
        -8.347843328623666
      ],
      [
        "ces",
        -8.350498593003005
      ],
      [
        "être",
        -8.350780499869243
      ],
      [
        "▁bind",
        -8.353153948889846
      ],
      [
        "▁nañ",
        -8.354581533821493
      ],
      [
        "▁ñ",
        -8.355191704040656
      ],
      [
        "▁takk-der",
        -8.356918099229874
      ],
      [
        "▁Par",
        -8.357187771090484
      ],
      [
        "▁couleurs",
        -8.358112540573206
      ],
      [
        "▁ré",
        -8.360964372246258
      ],
      [
        "▁Là",
        -8.361430798242722
      ],
      [
        "▁partira",
        -8.363154550800893
      ],
      [
        "▁xamant",
        -8.364473108585093
      ],
      [
        "▁égarée",
        -8.370116877860667
      ],
      [
        "ais",
        -8.370763807160932
      ],
      [
        "▁tay",
        -8.375530638255608
      ],
      [
        "ir",
        -8.378831144520188
      ],
      [
        "▁ga",
        -8.379719153598664
      ],
      [
        "▁aller",
        -8.382364984704331
      ],
      [
        "▁An",
        -8.382538318569438
      ],
      [
        "▁Wax",
        -8.3895001109903
      ],
      [
        "▁ira",
        -8.389985088898381
      ],
      [
        "ses",
        -8.390045606054116
      ],
      [
        "▁Nou",
        -8.390187860717651
      ],
      [
        "réer",
        -8.392961169671919
      ],
      [
        "▁Me",
        -8.393623117811806
      ],
      [
        "▁partis",
        -8.3957861729044
      ],
      [
        "enn",
        -8.397845501411316
      ],
      [
        "▁dox",
        -8.3983975421412
      ],
      [
        "▁Ca",
        -8.40263283981828
      ],
      [
        "▁R",
        -8.406049460590538
      ],
      [
        "baar",
        -8.407226078202276
      ],
      [
        "v",
        -8.418174182497744
      ],
      [
        "▁serai",
        -8.432208085093706
      ],
      [
        "geen",
        -8.432973508259991
      ],
      [
        "atim",
        -8.437507395754883
      ],
      [
        "▁Koo",
        -8.439840392202765
      ],
      [
        "▁subë",
        -8.440536265797142
      ],
      [
        "▁vrai",
        -8.440562658150071
      ],
      [
        "▁trois",
        -8.440754819749603
      ],
      [
        "▁sucre",
        -8.440776212352372
      ],
      [
        "▁Alors",
        -8.44085401312811
      ],
      [
        "▁Lawbe",
        -8.440916011142441
      ],
      [
        "▁garçon",
        -8.440995560306467
      ],
      [
        "▁Moussa",
        -8.440997351112511
      ],
      [
        "▁palais",
        -8.441030640297916
      ],
      [
        "▁Fatim",
        -8.441199934538659
      ],
      [
        "▁milieu",
        -8.441252155930169
      ],
      [
        "▁d'Europe",
        -8.441286682107503
      ],
      [
        "▁allé",
        -8.442024181988591
      ],
      [
        "▁Sa",
        -8.442279311015715
      ],
      [
        "▁Ñii",
        -8.442852263333391
      ],
      [
        "▁gën",
        -8.443376531072339
      ],
      [
        "▁Boo",
        -8.443473655529605
      ],
      [
        "▁Bon",
        -8.443930272058978
      ],
      [
        "ngi",
        -8.44501855702535
      ],
      [
        "▁endroit",
        -8.445525476936002
      ],
      [
        "▁biti",
        -8.445832488916698
      ],
      [
        "'habitude",
        -8.449478431530459
      ],
      [
        "▁Cela",
        -8.453128512462545
      ],
      [
        "and",
        -8.454209566091798
      ],
      [
        "▁contre",
        -8.45472262524325
      ],
      [
        "▁Voil",
        -8.456125849376477
      ],
      [
        "een",
        -8.456171618328197
      ],
      [
        "▁port",
        -8.456922774722225
      ],
      [
        "▁aujourd'hui",
        -8.459272366779519
      ],
      [
        "▁l'un",
        -8.459806800894244
      ],
      [
        "▁mo",
        -8.459918074697145
      ],
      [
        "▁ta",
        -8.460274932763918
      ],
      [
        "▁ànd",
        -8.460643591228461
      ],
      [
        "▁ceux",
        -8.461256933617813
      ],
      [
        "▁eux",
        -8.464801399265419
      ],
      [
        "▁buntu",
        -8.467063222132754
      ],
      [
        "pp",
        -8.467526934824168
      ],
      [
        "ki",
        -8.467993578461348
      ],
      [
        "▁Doo",
        -8.469748985022681
      ],
      [
        "▁bare",
        -8.47123364104512
      ],
      [
        "▁partes",
        -8.47280456560135
      ],
      [
        "▁bar",
        -8.474213134719214
      ],
      [
        "▁weer",
        -8.476608175131144
      ],
      [
        "▁ñëwul",
        -8.478642683172733
      ],
      [
        "uma",
        -8.481300233385726
      ],
      [
        "▁sama",
        -8.485143721141357
      ],
      [
        "ait",
        -8.496220293773622
      ],
      [
        "▁blancs",
        -8.50113938169109
      ],
      [
        "▁K",
        -8.50366638570778
      ],
      [
        "▁lit",
        -8.506691931041743
      ],
      [
        "▁ju",
        -8.510267505710353
      ],
      [
        "àll",
        -8.517541084998594
      ],
      [
        "▁it",
        -8.519933181154197
      ],
      [
        "leen",
        -8.522987764033031
      ],
      [
        "▁yaa",
        -8.527853756721957
      ],
      [
        "ère",
        -8.528532465403625
      ],
      [
        "'était",
        -8.529153179890649
      ],
      [
        "▁arrivé",
        -8.53737495265439
      ],
      [
        "▁appelle",
        -8.538546510599515
      ],
      [
        "▁mis",
        -8.541385172882725
      ],
      [
        "▁w",
        -8.54225453106855
      ],
      [
        "▁l'",
        -8.545911593460492
      ],
      [
        "▁rek",
        -8.550049497146578
      ],
      [
        "kat",
        -8.550213608988889
      ],
      [
        "▁Mbaa",
        -8.551259370655542
      ],
      [
        "▁wër",
        -8.551357242220293
      ],
      [
        "▁Ne",
        -8.551497137748402
      ],
      [
        "▁acheté",
        -8.551694483712925
      ],
      [
        "▁Sérère",
        -8.551710754696439
      ],
      [
        "▁tudd",
        -8.551795859038156
      ],
      [
        "▁chevaux",
        -8.551847441029826
      ],
      [
        "▁morceau",
        -8.551876397727803
      ],
      [
        "▁reste",
        -8.552055741875046
      ],
      [
        "▁jaŋg",
        -8.552092012974978
      ],
      [
        "▁mère",
        -8.552347277647605
      ],
      [
        "▁fils",
        -8.552911191420414
      ],
      [
        "▁Loolu",
        -8.554138997458676
      ],
      [
        "st-ce",
        -8.555395396357515
      ],
      [
        "▁devant",
        -8.555657796254915
      ],
      [
        "▁bépp",
        -8.556445217543574
      ],
      [
        "▁ŋgoon",
        -8.556924943026798
      ],
      [
        "▁s'en",
        -8.558124336543552
      ],
      [
        "▁téer",
        -8.558765408552448
      ],
      [
        "▁Tay",
        -8.560170204068424
      ],
      [
        "▁Loo",
        -8.560932093216884
      ],
      [
        "ient",
        -8.56172415397298
      ],
      [
        "est-ce",
        -8.567553907730698
      ],
      [
        "▁ceci",
        -8.575308139071968
      ],
      [
        "▁viennes",
        -8.579937040252656
      ],
      [
        "▁lan",
        -8.580476561721078
      ],
      [
        "se",
        -8.582662083193975
      ],
      [
        "▁me",
        -8.585236094331341
      ],
      [
        "ement",
        -8.585939801749818
      ],
      [
        "▁connais",
        -8.586780622365305
      ],
      [
        "▁lanu",
        -8.587461281484922
      ],
      [
        "in",
        -8.590537956647964
      ],
      [
        "▁V",
        -8.59360308667928
      ],
      [
        "▁jan",
        -8.595014092295022
      ],
      [
        "▁L'",
        -8.597907179438323
      ],
      [
        "as",
        -8.599275560093268
      ],
      [
        "▁bula",
        -8.599321502923468
      ],
      [
        "ar",
        -8.601044604928015
      ],
      [
        "▁May",
        -8.60106058728679
      ],
      [
        "ils",
        -8.608728877460955
      ],
      [
        "▁montre",
        -8.61193461221883
      ],
      [
        "iez",
        -8.613706937011859
      ],
      [
        "▁seet",
        -8.619168602086553
      ],
      [
        "fin",
        -8.619209889251472
      ],
      [
        "ées",
        -8.619958936455598
      ],
      [
        "▁no",
        -8.627552633176784
      ],
      [
        "▁portes",
        -8.634615382496122
      ],
      [
        "▁comp",
        -8.634698780838763
      ],
      [
        "▁av",
        -8.63518355700176
      ],
      [
        "ppelle",
        -8.63609145700574
      ],
      [
        "▁travail",
        -8.639027396671523
      ],
      [
        "▁avais",
        -8.639724484240409
      ],
      [
        "j",
        -8.645195660537937
      ],
      [
        "▁eû",
        -8.646333219167412
      ],
      [
        "▁defar",
        -8.657466897257159
      ],
      [
        "▁nu",
        -8.658724474592063
      ],
      [
        "▁jii",
        -8.662751731718695
      ],
      [
        "▁woo",
        -8.66870056303622
      ],
      [
        "▁ràbb",
        -8.673207271268415
      ],
      [
        "▁route",
        -8.673226529224266
      ],
      [
        "▁ainsi",
        -8.673257128899808
      ],
      [
        "▁Laobé",
        -8.67385590592378
      ],
      [
        "▁wanag",
        -8.674213082026931
      ],
      [
        "▁Sénégal",
        -8.674943500611093
      ],
      [
        "óo",
        -8.675232790650234
      ],
      [
        "▁Musaa",
        -8.675313062359985
      ],
      [
        "▁com",
        -8.675607001321449
      ],
      [
        "▁entier",
        -8.676323498666417
      ],
      [
        "▁Senegaal",
        -8.676498165452383
      ],
      [
        "▁assurément",
        -8.67665961501445
      ],
      [
        "▁pourtant",
        -8.677001100038058
      ],
      [
        "▁jël",
        -8.67784802924682
      ],
      [
        "▁Elle",
        -8.678114257015165
      ],
      [
        "▁pierres",
        -8.678300970696748
      ],
      [
        "▁kanam",
        -8.678394216863602
      ],
      [
        "▁sortir",
        -8.680156490987333
      ],
      [
        "▁Kookule",
        -8.680645435902283
      ],
      [
        "▁lieu",
        -8.680781494530121
      ],
      [
        "▁Toi",
        -8.681776717219433
      ],
      [
        "▁pou",
        -8.683348910208998
      ],
      [
        "▁gejje",
        -8.683376660415565
      ],
      [
        "▁con",
        -8.684383855045809
      ],
      [
        "parlé",
        -8.6853583981543
      ],
      [
        "▁Woo",
        -8.685685082202962
      ],
      [
        "▁Noonu",
        -8.687825593222097
      ],
      [
        "▁Wu",
        -8.690713868064817
      ],
      [
        "▁boobu",
        -8.69405506057557
      ],
      [
        "▁s'agi",
        -8.696892224943221
      ],
      [
        "▁Tou",
        -8.697897725565205
      ],
      [
        "G",
        -8.70185151878428
      ],
      [
        "▁tali",
        -8.703216933837497
      ],
      [
        "▁bëggée",
        -8.707217081891224
      ],
      [
        "▁Jën",
        -8.70954885584535
      ],
      [
        "▁t'ai",
        -8.712242014293421
      ],
      [
        "ŋga",
        -8.713653455239223
      ],
      [
        "▁Ñ",
        -8.713780985444423
      ],
      [
        "nga",
        -8.714581881373917
      ],
      [
        "▁sokolaa",
        -8.71637549380941
      ],
      [
        "▁Noon",
        -8.724704972961144
      ],
      [
        "▁vient",
        -8.72796897680762
      ],
      [
        "▁dé",
        -8.730335138403708
      ],
      [
        "vous",
        -8.730992194472734
      ],
      [
        "▁cela",
        -8.73103433235016
      ],
      [
        "tient",
        -8.73143679801164
      ],
      [
        "▁cherche",
        -8.734272257615995
      ],
      [
        "gal",
        -8.734429799974281
      ],
      [
        "z",
        -8.738243632533116
      ],
      [
        "▁wa",
        -8.74043453543395
      ],
      [
        "▁Lu",
        -8.741284584751515
      ],
      [
        "▁nak",
        -8.747510012438688
      ],
      [
        "▁table",
        -8.749142192886092
      ],
      [
        "▁toute",
        -8.751078600841518
      ],
      [
        "▁yoon",
        -8.756384731599342
      ],
      [
        "▁Ki",
        -8.759278316654482
      ],
      [
        "es.",
        -8.760028472865903
      ],
      [
        "garde",
        -8.763865060165118
      ],
      [
        "quel",
        -8.764305603036703
      ],
      [
        "ation",
        -8.764794386279025
      ],
      [
        "sieur",
        -8.767398001110076
      ],
      [
        "▁petit",
        -8.768797865343608
      ],
      [
        "▁loolu",
        -8.773558416423626
      ],
      [
        "▁sorti",
        -8.77381355303085
      ],
      [
        "▁Ra",
        -8.780799308941074
      ],
      [
        "▁l'ai",
        -8.781046192497914
      ],
      [
        "▁enfant",
        -8.783043470024555
      ],
      [
        "▁në",
        -8.783792999811212
      ],
      [
        "▁Fan",
        -8.784648247442135
      ],
      [
        "▁Mang",
        -8.786698440385093
      ],
      [
        "ier",
        -8.790366722889285
      ],
      [
        "▁so",
        -8.790867348308957
      ],
      [
        "▁tax",
        -8.794353012745628
      ],
      [
        "waay",
        -8.796066017241193
      ],
      [
        "▁arbre",
        -8.798163268541465
      ],
      [
        "porte",
        -8.806301745677523
      ],
      [
        "▁më",
        -8.807064830683764
      ],
      [
        "an",
        -8.80760970066241
      ],
      [
        "▁drap",
        -8.808811855476796
      ],
      [
        "▁seul",
        -8.8154841367803
      ],
      [
        "▁case",
        -8.815747604859503
      ],
      [
        "▁bâtiment",
        -8.816060699932713
      ],
      [
        "▁Casamance",
        -8.816060707858519
      ],
      [
        "▁yeksi",
        -8.816062142397602
      ],
      [
        "▁Ainsi",
        -8.816062775193162
      ],
      [
        "▁boeuf",
        -8.816071682491323
      ],
      [
        "▁l'enfant",
        -8.816089280304801
      ],
      [
        "▁Deŋk",
        -8.816102099366992
      ],
      [
        "▁dellusi",
        -8.816143684706368
      ],
      [
        "▁Palais",
        -8.816146634344868
      ],
      [
        "▁togg",
        -8.8161864629333
      ],
      [
        "▁pañe",
        -8.816197096376332
      ],
      [
        "▁peut-",
        -8.816232246268195
      ],
      [
        "ñeen",
        -8.8164703248137
      ],
      [
        "▁yére",
        -8.81652289631257
      ],
      [
        "▁moto",
        -8.816683524537607
      ],
      [
        "▁xeer",
        -8.81694533668417
      ],
      [
        "▁êtes",
        -8.817017918635988
      ],
      [
        "▁salle",
        -8.817114471318371
      ],
      [
        "▁tày",
        -8.817138411976702
      ],
      [
        "▁dirait",
        -8.81725242363841
      ],
      [
        "▁Ici",
        -8.817803919233132
      ],
      [
        "spère",
        -8.818523173818278
      ],
      [
        "▁mains",
        -8.818566667537475
      ],
      [
        "moi",
        -8.818824647110723
      ],
      [
        "▁derrière",
        -8.8192782745369
      ],
      [
        "▁tàll",
        -8.819495442411641
      ],
      [
        "▁regardes",
        -8.819892076354733
      ],
      [
        "▁Parle",
        -8.820587090952552
      ],
      [
        "▁nous",
        -8.820650667904667
      ],
      [
        "ce",
        -8.821156675260958
      ],
      [
        "▁Foofu",
        -8.822981261530598
      ],
      [
        "▁chez",
        -8.825842093747688
      ],
      [
        "▁bol",
        -8.826424641268826
      ],
      [
        "▁neex",
        -8.826706507943454
      ],
      [
        "▁jaune",
        -8.82958767884735
      ],
      [
        "▁soir",
        -8.830137434365218
      ],
      [
        "▁fleurs",
        -8.832893407713962
      ],
      [
        "▁dessus",
        -8.833081022395444
      ],
      [
        "▁caus",
        -8.83451381628771
      ],
      [
        "▁père",
        -8.835484831655302
      ],
      [
        "▁arrivés",
        -8.835731532115304
      ],
      [
        "▁t'en",
        -8.836115954204224
      ],
      [
        "▁dessin",
        -8.83618097717632
      ],
      [
        "▁L'un",
        -8.838393106751079
      ],
      [
        "▁marche",
        -8.839899197550645
      ],
      [
        "▁allai",
        -8.841121809333982
      ],
      [
        "▁chaise",
        -8.841898595898964
      ],
      [
        "▁wane",
        -8.842273722585709
      ],
      [
        "▁ñooñu",
        -8.842317395089909
      ],
      [
        "▁n'ai",
        -8.842486011699382
      ],
      [
        "vent",
        -8.843748706694473
      ],
      [
        "▁demande",
        -8.850802168490569
      ],
      [
        "▁gan",
        -8.853425876204499
      ],
      [
        "kk",
        -8.856865788786502
      ],
      [
        "individu",
        -8.860592152515494
      ],
      [
        "▁jooju",
        -8.861213640734263
      ],
      [
        "▁daan",
        -8.86201092121319
      ],
      [
        "au",
        -8.865049451057514
      ],
      [
        "eer",
        -8.868257562755645
      ],
      [
        "▁fois",
        -8.868883557621658
      ],
      [
        "ra",
        -8.870368686147877
      ],
      [
        "▁haute",
        -8.870530000918375
      ],
      [
        "▁wan",
        -8.870715797278368
      ],
      [
        "▁mii",
        -8.873537671732027
      ],
      [
        "▁leneen",
        -8.876152530836347
      ],
      [
        "▁juróom",
        -8.883253397076972
      ],
      [
        "ai",
        -8.883872963129347
      ],
      [
        "ît",
        -8.890652468223958
      ],
      [
        "▁bool",
        -8.891137190479158
      ],
      [
        "▁noire.",
        -8.892905053123462
      ],
      [
        "ax",
        -8.897718370486785
      ],
      [
        "▁beau",
        -8.897896536719646
      ],
      [
        "▁Daŋg",
        -8.913467793354709
      ],
      [
        "▁yee",
        -8.914343855310122
      ],
      [
        "▁na.",
        -8.916534809931031
      ],
      [
        "▁noirs",
        -8.91771168584432
      ],
      [
        "▁haut",
        -8.922087496376886
      ],
      [
        "ñii",
        -8.9230840216901
      ],
      [
        "▁ñooña",
        -8.928311705095751
      ],
      [
        "ons",
        -8.934510828889726
      ],
      [
        "▁met",
        -8.93596930093168
      ],
      [
        "▁Ñe",
        -8.936665817881416
      ],
      [
        "ë",
        -8.945573490983648
      ],
      [
        "▁X",
        -8.946381732307804
      ],
      [
        "▁Ceux",
        -8.94767116550461
      ],
      [
        "▁regard",
        -8.950670165464304
      ],
      [
        "▁Moi",
        -8.953219526493761
      ],
      [
        "▁garde",
        -8.958368021425832
      ],
      [
        "▁alla",
        -8.958476034428735
      ],
      [
        "▁J'e",
        -8.959434357453095
      ],
      [
        "éel",
        -8.960123979232412
      ],
      [
        "▁to",
        -8.960668900943737
      ],
      [
        "▁don",
        -8.963256663233643
      ],
      [
        "▁d'autre",
        -8.966425727749563
      ],
      [
        "ool",
        -8.972044286594508
      ],
      [
        "▁kaa",
        -8.974477486410574
      ],
      [
        "ëf",
        -8.974737530628191
      ],
      [
        "▁ginnaaw",
        -8.979365425247442
      ],
      [
        "▁bë",
        -8.981450368434931
      ],
      [
        "▁Aujourd'hui",
        -8.982727366485236
      ],
      [
        "▁d'esprit",
        -8.98272736667511
      ],
      [
        "▁calebasse",
        -8.982727368448815
      ],
      [
        "▁croyai",
        -8.98272793062122
      ],
      [
        "▁Waxtaan",
        -8.982728812245487
      ],
      [
        "▁tëdd",
        -8.982729738529375
      ],
      [
        "▁veulent",
        -8.98273670888494
      ],
      [
        "▁Wolof",
        -8.982751651860097
      ],
      [
        "▁suukër",
        -8.982761990534804
      ],
      [
        "▁peinture",
        -8.98279697044176
      ],
      [
        "▁Génn",
        -8.982852779908681
      ],
      [
        "▁chocolatée",
        -8.982985092401647
      ],
      [
        "▁tuuti",
        -8.983014987228785
      ],
      [
        "▁tasse",
        -8.983024844292403
      ],
      [
        "▁takk",
        -8.983111863724083
      ],
      [
        "▁gris",
        -8.983122871848295
      ],
      [
        "▁fowu",
        -8.983331648377519
      ],
      [
        "▁couteau",
        -8.983339604009755
      ],
      [
        "▁ndox",
        -8.983423225322287
      ],
      [
        "▁Tugël",
        -8.98355479868577
      ],
      [
        "▁njiit",
        -8.983620997711709
      ],
      [
        "▁Jam",
        -8.983778319444344
      ],
      [
        "▁Donne",
        -8.983866277716812
      ],
      [
        "▁doonkoon",
        -8.984075680132399
      ],
      [
        "▁taaru",
        -8.98444334342842
      ],
      [
        "▁Dama",
        -8.984677224896414
      ],
      [
        "▁feeñ",
        -8.984711442610177
      ],
      [
        "▁bokk",
        -8.985147858600367
      ],
      [
        "▁fépp",
        -8.985804447150944
      ],
      [
        "▁lëf",
        -8.985907806622476
      ],
      [
        "▁jaar",
        -8.986177046207416
      ],
      [
        "▁autre-là",
        -8.986732005439338
      ],
      [
        "▁ville",
        -8.987040537812433
      ],
      [
        "▁Bunt",
        -8.98712280675787
      ],
      [
        "▁...",
        -8.98729492028776
      ],
      [
        "▁dàll",
        -8.98791673159689
      ],
      [
        "▁Më",
        -8.988746546865956
      ],
      [
        "▁Men",
        -8.990841544687743
      ],
      [
        "ŋ",
        -8.992408823004798
      ],
      [
        "▁digg",
        -8.992423015558863
      ],
      [
        "▁feneen",
        -8.993720181482578
      ],
      [
        "▁sain",
        -8.994201664305567
      ],
      [
        "▁Nda",
        -8.994911933215352
      ],
      [
        "▁baxa",
        -8.99497500365363
      ],
      [
        "▁enfant-",
        -8.996448420714174
      ],
      [
        "▁bekk",
        -8.99682474091343
      ],
      [
        "▁Vas",
        -8.996928910171048
      ],
      [
        "▁herbes",
        -8.996957476023933
      ],
      [
        "▁ñaan",
        -8.998412042140354
      ],
      [
        "▁kaas",
        -8.998589131510586
      ],
      [
        "▁pri",
        -8.999077000140637
      ],
      [
        "oroom",
        -8.999596653384819
      ],
      [
        "mu",
        -9.007602087394881
      ],
      [
        "▁refuse",
        -9.009823412129414
      ],
      [
        "▁veni",
        -9.009960076518212
      ],
      [
        "▁Dana",
        -9.01273999335082
      ],
      [
        "▁souhaite",
        -9.014282953215849
      ],
      [
        "-t-il",
        -9.014744481880475
      ],
      [
        "▁Dan",
        -9.01484939882162
      ],
      [
        "▁ñaxtu",
        -9.017028854355758
      ],
      [
        "connais",
        -9.0181413703077
      ],
      [
        "ance",
        -9.022540470585104
      ],
      [
        "uite",
        -9.024111687422433
      ],
      [
        "garder",
        -9.026088317267773
      ],
      [
        "▁elle",
        -9.026325236842078
      ],
      [
        "▁ñen",
        -9.027028069562519
      ],
      [
        "▁entra",
        -9.029596802467935
      ],
      [
        "▁Bar",
        -9.030823686644037
      ],
      [
        "▁cases",
        -9.044088840776705
      ],
      [
        "▁gen",
        -9.04438491436721
      ],
      [
        "▁jam",
        -9.04592595351237
      ],
      [
        "▁alal",
        -9.047423838714938
      ],
      [
        "▁bleu",
        -9.052633550723181
      ],
      [
        "▁amen",
        -9.055172981362418
      ],
      [
        "éer",
        -9.055835090246523
      ],
      [
        "bi",
        -9.062125948514318
      ],
      [
        "▁co",
        -9.06277087680689
      ],
      [
        "ur",
        -9.064236163880977
      ],
      [
        "▁aurai",
        -9.064904327437047
      ],
      [
        "i.",
        -9.065425062162413
      ],
      [
        "▁gaa",
        -9.065472626105961
      ],
      [
        "e,",
        -9.068050324922464
      ],
      [
        "▁n'avai",
        -9.0684430915201
      ],
      [
        "▁Dis",
        -9.073015279011791
      ],
      [
        "▁Qu",
        -9.080562009743229
      ],
      [
        "▁ng",
        -9.081733325033413
      ],
      [
        "▁Ta",
        -9.084960075251653
      ],
      [
        "tour",
        -9.089866081273351
      ],
      [
        "▁Fi",
        -9.092302811983641
      ],
      [
        "▁bant",
        -9.094518502397099
      ],
      [
        "bër",
        -9.094537199471729
      ],
      [
        "▁quelles",
        -9.094881453047947
      ],
      [
        "el",
        -9.101274398743833
      ],
      [
        "où",
        -9.101364265276628
      ],
      [
        "▁viens",
        -9.105592549197166
      ],
      [
        "lal",
        -9.108172565905459
      ],
      [
        "▁Re",
        -9.108470870864606
      ],
      [
        "▁Yo",
        -9.114519226977787
      ],
      [
        "▁sokolaa.",
        -9.11483342213746
      ],
      [
        "ton",
        -9.117555741471431
      ],
      [
        "▁marché",
        -9.123393731877586
      ],
      [
        "ien",
        -9.123558833660441
      ],
      [
        "▁jooj",
        -9.125915146710497
      ],
      [
        "▁individu",
        -9.126427335846758
      ],
      [
        "▁war",
        -9.12734509446524
      ],
      [
        "ous",
        -9.13624224458292
      ],
      [
        "▁joli",
        -9.137735495018813
      ],
      [
        "ore",
        -9.139240243183046
      ],
      [
        "▁soi",
        -9.139299813669195
      ],
      [
        "▁cuisine",
        -9.143261070983792
      ],
      [
        "▁elles",
        -9.1487806860079
      ],
      [
        "▁moomu",
        -9.149549814875762
      ],
      [
        "vait",
        -9.152109335422553
      ],
      [
        "q",
        -9.15548101534273
      ],
      [
        "▁pro",
        -9.158007728634349
      ],
      [
        "ko",
        -9.158116240316094
      ],
      [
        "rends",
        -9.159934905270182
      ],
      [
        "▁defare",
        -9.162104402240262
      ],
      [
        "▁Ka",
        -9.163935097210803
      ],
      [
        "ge",
        -9.166933218516863
      ],
      [
        "▁livre",
        -9.167241017477428
      ],
      [
        "▁bir",
        -9.168677741692434
      ],
      [
        "▁vers",
        -9.1703001865116
      ],
      [
        "▁yi.",
        -9.170735680286457
      ],
      [
        "▁See",
        -9.171803163675582
      ],
      [
        "▁t'",
        -9.179675322880517
      ],
      [
        "▁jo",
        -9.180962858215699
      ],
      [
        "▁wu",
        -9.181758184952729
      ],
      [
        "▁loxo",
        -9.182632396527252
      ],
      [
        "▁forêt",
        -9.182727366445281
      ],
      [
        "▁bûcheron",
        -9.182727366453022
      ],
      [
        "Ç",
        -9.182727366485235
      ],
      [
        "▁chaussures",
        -9.182727366649122
      ],
      [
        "▁ustensile",
        -9.182727367595337
      ],
      [
        "▁auparavant",
        -9.18272736834813
      ],
      [
        "▁mosquée",
        -9.182727404958255
      ],
      [
        "▁domaine",
        -9.18272743644905
      ],
      [
        "▁pantalon",
        -9.182727606564175
      ],
      [
        "▁dehors",
        -9.18272824759726
      ],
      [
        "▁fortune",
        -9.182728450306138
      ],
      [
        "▁construction",
        -9.182728552040796
      ],
      [
        "▁chapeau",
        -9.182728611571946
      ],
      [
        "▁maître",
        -9.18272943126191
      ],
      [
        "▁xaalis",
        -9.182730479339217
      ],
      [
        "▁Moontin",
        -9.182730767280358
      ],
      [
        "▁jàkka",
        -9.182743762186163
      ],
      [
        "▁gannaaw",
        -9.182746264677311
      ],
      [
        "▁L'enfant",
        -9.182750397950375
      ],
      [
        "▁travers",
        -9.182758603458376
      ],
      [
        "▁mbokk",
        -9.182764219898518
      ],
      [
        "▁palaat",
        -9.1827777296249
      ],
      [
        "▁Salut",
        -9.182789900018825
      ],
      [
        "▁gentil",
        -9.182797577732268
      ],
      [
        "▁këll",
        -9.18280111120481
      ],
      [
        "▁dirigeant",
        -9.182802804889231
      ],
      [
        "▁vieille",
        -9.18282839538996
      ],
      [
        "▁courage",
        -9.182846800010593
      ],
      [
        "▁xëcc",
        -9.182893576386247
      ],
      [
        "▁tànk",
        -9.182896816180326
      ],
      [
        "▁large",
        -9.182905840095668
      ],
      [
        "▁parole",
        -9.1829815045537
      ],
      [
        "▁puj",
        -9.182990873258168
      ],
      [
        "▁màgg",
        -9.182998769220468
      ],
      [
        "▁jàppukaay",
        -9.183014722895248
      ],
      [
        "▁revienne",
        -9.183287470428581
      ],
      [
        "▁yéeg",
        -9.18330960727096
      ],
      [
        "▁bërëb",
        -9.183348568948809
      ],
      [
        "▁Dañu",
        -9.18352360542042
      ],
      [
        "▁travailleurs",
        -9.183629254210954
      ],
      [
        "▁dëgg",
        -9.183817857724856
      ],
      [
        "▁kookee",
        -9.184057321583397
      ],
      [
        "▁four",
        -9.184077606563436
      ],
      [
        "▁unique",
        -9.18412795836247
      ],
      [
        "▁ŋgoogule",
        -9.184337650373077
      ],
      [
        "▁topp",
        -9.184536681102045
      ],
      [
        "▁accepte",
        -9.184841854126367
      ],
      [
        "▁plac",
        -9.184928837921348
      ],
      [
        "▁Néeg",
        -9.185238440789607
      ],
      [
        "▁surtout",
        -9.185259025124754
      ],
      [
        "aar",
        -9.185996391471853
      ],
      [
        "▁Foo",
        -9.186405099510882
      ],
      [
        "▁nuit",
        -9.186783945260593
      ],
      [
        "▁bâtons",
        -9.187206352133657
      ],
      [
        "▁viennent",
        -9.187678182803623
      ],
      [
        "▁kafe",
        -9.187710304875607
      ],
      [
        "googule",
        -9.187753608423147
      ],
      [
        "aay",
        -9.188598405625203
      ],
      [
        "▁xoolee",
        -9.188761803848452
      ],
      [
        "▁reconnu",
        -9.189270686951112
      ],
      [
        "▁jaam",
        -9.189518254982792
      ],
      [
        "▁c'était",
        -9.189864330184543
      ],
      [
        "▁yé",
        -9.190305376496262
      ],
      [
        "▁dessiné",
        -9.191221244159173
      ],
      [
        "▁l'entoure",
        -9.192066486385954
      ],
      [
        "▁ubbi",
        -9.193460779701049
      ],
      [
        "▁fenn",
        -9.19399761262617
      ],
      [
        "▁d'il",
        -9.19404798253035
      ],
      [
        "▁jar",
        -9.197448419430565
      ],
      [
        "▁duñ",
        -9.197951936941989
      ],
      [
        "-il",
        -9.20211799016
      ],
      [
        "▁eusse",
        -9.202591549850373
      ],
      [
        "▁Sama",
        -9.202754885558964
      ],
      [
        "▁joge",
        -9.205764913700852
      ],
      [
        "▁naan",
        -9.205770561056339
      ],
      [
        "▁D'",
        -9.206085001425329
      ],
      [
        "▁affaire",
        -9.208184403614398
      ],
      [
        "▁face",
        -9.20850847600121
      ],
      [
        "iens",
        -9.213315404460923
      ],
      [
        "▁jàpp",
        -9.213720587765524
      ],
      [
        "▁côté",
        -9.215789372962803
      ],
      [
        "▁kee",
        -9.216755956636787
      ],
      [
        "t.",
        -9.216800095863587
      ],
      [
        "▁panier",
        -9.218300594923713
      ],
      [
        "▁xo",
        -9.21847182234412
      ],
      [
        "nd",
        -9.21908388858884
      ],
      [
        "kóon",
        -9.219536148915719
      ],
      [
        "▁vertes",
        -9.220573986384261
      ],
      [
        "▁mes",
        -9.223927465573345
      ],
      [
        "▁deey",
        -9.224708747199262
      ],
      [
        "▁n'as",
        -9.230813029550516
      ],
      [
        "'en",
        -9.234662604422732
      ],
      [
        "▁noire",
        -9.23495675490655
      ],
      [
        "▁ven",
        -9.235727061408065
      ],
      [
        "▁ñibbi",
        -9.237296351439982
      ],
      [
        "▁bleus",
        -9.238009225800742
      ],
      [
        "wul",
        -9.238606657237705
      ],
      [
        "▁tub",
        -9.239578670383267
      ],
      [
        "▁fam",
        -9.241560811385742
      ],
      [
        "▁defaree",
        -9.24660431346498
      ],
      [
        "▁ser",
        -9.249217729070157
      ],
      [
        "▁kookuu",
        -9.250163028679163
      ],
      [
        "▁loo",
        -9.251968011595785
      ],
      [
        "▁jeunes",
        -9.253644739104447
      ],
      [
        "▁doi",
        -9.257315620516575
      ],
      [
        "▁set",
        -9.269895845862184
      ],
      [
        "kaay",
        -9.270650708219287
      ],
      [
        "àkk",
        -9.270902278424533
      ],
      [
        "▁chocolat",
        -9.273593519884415
      ],
      [
        "▁jox",
        -9.275062753851593
      ],
      [
        "ã",
        -9.275081940329283
      ],
      [
        "ici",
        -9.275347282351232
      ],
      [
        "▁Bii",
        -9.275508322355575
      ],
      [
        "▁cas",
        -9.2755422105799
      ],
      [
        "▁ja",
        -9.278119472503231
      ],
      [
        "tout",
        -9.283018714799413
      ],
      [
        "▁lesquel",
        -9.284902180925881
      ],
      [
        "▁pu",
        -9.284962290100681
      ],
      [
        "ection",
        -9.285443656626725
      ],
      [
        "▁e",
        -9.287326082089423
      ],
      [
        "▁bes",
        -9.288700854048365
      ],
      [
        "ût",
        -9.288864519828701
      ],
      [
        "▁aux",
        -9.291771616425283
      ],
      [
        "▁tey",
        -9.293188876536561
      ],
      [
        "aller",
        -9.297135166080018
      ],
      [
        "▁chambres",
        -9.302698886649145
      ],
      [
        "appelles",
        -9.30287486659374
      ],
      [
        "▁yar",
        -9.30386558988429
      ],
      [
        "ion",
        -9.310348681117178
      ],
      [
        "▁fan",
        -9.32085652476522
      ],
      [
        "mbaa",
        -9.321583162129043
      ],
      [
        "rait",
        -9.322583836159568
      ],
      [
        "▁Waxa",
        -9.32276647452736
      ],
      [
        "ille",
        -9.323247323436572
      ],
      [
        "▁Ch",
        -9.325576381352995
      ],
      [
        "wal",
        -9.32892614084761
      ],
      [
        "▁xa",
        -9.330166389906177
      ],
      [
        "▁plu",
        -9.332030929853401
      ],
      [
        "▁Com",
        -9.33207322727626
      ],
      [
        "▁Xo",
        -9.33280839887803
      ],
      [
        "si",
        -9.340745932036318
      ],
      [
        "▁étalé",
        -9.343358806813674
      ],
      [
        "vant",
        -9.343557671778756
      ],
      [
        "mar",
        -9.346877104730279
      ],
      [
        "ui",
        -9.352491063335858
      ],
      [
        "ral",
        -9.352890048117814
      ],
      [
        "▁Cha",
        -9.3560143665029
      ],
      [
        "▁Au",
        -9.36062039983436
      ],
      [
        "▁choses",
        -9.36707041486079
      ],
      [
        "▁bel",
        -9.372613843576763
      ],
      [
        "▁gendarme",
        -9.373623787257266
      ],
      [
        "yu",
        -9.375513834753002
      ],
      [
        "▁président",
        -9.380841216531948
      ],
      [
        "▁nd",
        -9.381996256976148
      ],
      [
        "▁partie",
        -9.38433633439681
      ],
      [
        "▁Ñaa",
        -9.386034657276682
      ],
      [
        "▁conçu",
        -9.386117933923238
      ],
      [
        "▁car",
        -9.386292825128251
      ],
      [
        "▁ans",
        -9.387877262494241
      ],
      [
        "▁Bul",
        -9.391262347070846
      ],
      [
        "▁ndugg",
        -9.391755924517813
      ],
      [
        "▁Ŋg",
        -9.395249415798345
      ],
      [
        "▁jàmm",
        -9.399742757443706
      ],
      [
        "ku",
        -9.400720650565622
      ],
      [
        "▁do",
        -9.401878542139691
      ],
      [
        "▁nge",
        -9.40436560226827
      ],
      [
        "▁ñaa",
        -9.407880522626375
      ],
      [
        "▁jog",
        -9.412544629537045
      ],
      [
        "▁xool",
        -9.413021714576919
      ],
      [
        "▁étai",
        -9.413392055041294
      ],
      [
        "▁Ng",
        -9.41966684880249
      ],
      [
        "▁fr",
        -9.421564442779932
      ],
      [
        "ni",
        -9.422086087067925
      ],
      [
        "ouche",
        -9.422931226296294
      ],
      [
        "▁dóo",
        -9.423651501520762
      ],
      [
        "éy",
        -9.428501294373955
      ],
      [
        "▁révolte",
        -9.430857332042999
      ],
      [
        "appartien",
        -9.431557591306536
      ],
      [
        "▁donne",
        -9.432483700448193
      ],
      [
        "▁prêt",
        -9.432727366452546
      ],
      [
        "«",
        -9.432727366485235
      ],
      [
        "»",
        -9.432727366485235
      ],
      [
        "…",
        -9.432727366485235
      ],
      [
        "▁certainement",
        -9.432727369824374
      ],
      [
        "▁habituellement",
        -9.432727376651634
      ],
      [
        "▁Au-dessus",
        -9.432727385000168
      ],
      [
        "▁apparaissent",
        -9.432727386106563
      ],
      [
        "▁gëléem",
        -9.432727548888195
      ],
      [
        "▁baobab",
        -9.432727587960846
      ],
      [
        "▁gazelle",
        -9.432727628104182
      ],
      [
        "▁Ñëw",
        -9.432728086306165
      ],
      [
        "▁Louga",
        -9.432728421508212
      ],
      [
        "▁Birayim",
        -9.432728431610798
      ],
      [
        "▁sûr",
        -9.432728544229088
      ],
      [
        "▁brave",
        -9.43272906217556
      ],
      [
        "▁zinc",
        -9.432730833711853
      ],
      [
        "▁toilettes",
        -9.43273131314459
      ],
      [
        "▁njege",
        -9.432733259461653
      ],
      [
        "▁Macron",
        -9.432733648893965
      ],
      [
        "▁xayma",
        -9.432740465241967
      ],
      [
        "▁yànj",
        -9.432743905803022
      ],
      [
        "▁chameau",
        -9.432748778783697
      ],
      [
        "▁rideau",
        -9.432750335519524
      ],
      [
        "▁ndanka",
        -9.43275207413411
      ],
      [
        "▁Alfa",
        -9.43277827365862
      ],
      [
        "▁Agsil",
        -9.43279418763367
      ],
      [
        "▁Yaakaar",
        -9.432807830085718
      ],
      [
        "▁ëlëk",
        -9.432841638687325
      ],
      [
        "▁d'arbres",
        -9.432862503832105
      ],
      [
        "▁xamantane",
        -9.432876228295786
      ],
      [
        "▁champ",
        -9.432878616397739
      ],
      [
        "▁Qu'est-ce",
        -9.432909768769477
      ],
      [
        "▁d'entre",
        -9.432990967225138
      ],
      [
        "▁NGo",
        -9.433018852234397
      ],
      [
        "▁jëfandikoo",
        -9.433040934232533
      ],
      [
        "▁Luga",
        -9.433050776605015
      ],
      [
        "▁l'eau",
        -9.433050825055696
      ],
      [
        "▁làmp",
        -9.433069333755576
      ],
      [
        "▁outil",
        -9.433080374967401
      ],
      [
        "▁bãŋ",
        -9.433087144265432
      ],
      [
        "▁Demuloo",
        -9.43319033442087
      ],
      [
        "▁Gaynd",
        -9.433260374116069
      ],
      [
        "▁soirée",
        -9.433340476079893
      ],
      [
        "▁bras",
        -9.43346135596043
      ],
      [
        "▁weñ",
        -9.433563113231541
      ],
      [
        "▁fond",
        -9.433611812929701
      ],
      [
        "▁tête",
        -9.433693274353999
      ],
      [
        "▁serais",
        -9.433695462956841
      ],
      [
        "qui",
        -9.433791189761767
      ],
      [
        "▁Pour",
        -9.43379221319417
      ],
      [
        "▁ensemble",
        -9.433966668359401
      ],
      [
        "▁matinée",
        -9.433975719239683
      ],
      [
        "▁alors",
        -9.434025436223067
      ],
      [
        "▁rencontrer",
        -9.434057708658774
      ],
      [
        "▁Demuma",
        -9.434086198940424
      ],
      [
        "▁bopp",
        -9.434234264591902
      ],
      [
        "▁wert",
        -9.434303828918816
      ],
      [
        "▁long",
        -9.434304207661386
      ],
      [
        "▁douche",
        -9.434344702515679
      ],
      [
        "▁Qu'",
        -9.434668000850923
      ],
      [
        "▁dagg",
        -9.434690305520876
      ],
      [
        "▁voulu",
        -9.434804326497135
      ],
      [
        "▁wone",
        -9.435113246566306
      ],
      [
        "▁ñor",
        -9.435274606855652
      ],
      [
        "▁naqar",
        -9.43539455690289
      ],
      [
        "▁bày",
        -9.435396159345608
      ],
      [
        "▁Demkoon",
        -9.435805018118032
      ],
      [
        "▁gudd",
        -9.436007101935957
      ],
      [
        "▁wépp",
        -9.43602124549545
      ],
      [
        "▁Tann",
        -9.436047454452941
      ],
      [
        "▁kookale",
        -9.436114919768436
      ],
      [
        "▁passé",
        -9.43617251302821
      ],
      [
        "▁Ñooñu",
        -9.436196642293503
      ],
      [
        "▁Ver",
        -9.436509519854573
      ],
      [
        "▁donc",
        -9.43655328005683
      ],
      [
        "▁mbaxana",
        -9.437060744949406
      ],
      [
        "▁baŋ",
        -9.437220981530606
      ],
      [
        "hacun",
        -9.437248858651916
      ],
      [
        "bu",
        -9.437565902671142
      ],
      [
        "▁nuru",
        -9.4389269649681
      ],
      [
        "▁Cependant",
        -9.438953330983642
      ],
      [
        "▁Ni",
        -9.439799579828309
      ],
      [
        "▁d'habitude",
        -9.440299740822852
      ],
      [
        "▁marchent",
        -9.440539650619431
      ],
      [
        "'av",
        -9.44222522704248
      ],
      [
        "▁per",
        -9.442362507108207
      ],
      [
        "▁darab",
        -9.443154307301231
      ],
      [
        "hoisi",
        -9.443571392322985
      ],
      [
        "▁suba",
        -9.445072154961114
      ],
      [
        "▁soldats",
        -9.445774224146879
      ],
      [
        "▁parents",
        -9.44725901020941
      ],
      [
        "▁danga",
        -9.447472194610246
      ],
      [
        "▁policiers",
        -9.447484754530588
      ],
      [
        "▁Yee",
        -9.44852081371755
      ],
      [
        "rent",
        -9.448542723911112
      ],
      [
        "ois",
        -9.448798215491452
      ],
      [
        "▁juste",
        -9.449591677669087
      ],
      [
        "▁wetam",
        -9.450185194901827
      ],
      [
        "▁nom",
        -9.450416363539137
      ],
      [
        "Après",
        -9.450666528690965
      ],
      [
        "▁sàndarm",
        -9.45120963468589
      ],
      [
        "euse",
        -9.452443808907265
      ],
      [
        "▁livres",
        -9.453315293069725
      ],
      [
        "▁dois",
        -9.45501412181598
      ],
      [
        "▁verra",
        -9.455752912782877
      ],
      [
        "▁d'herbes",
        -9.456841442588722
      ],
      [
        "lève",
        -9.456846650841626
      ],
      [
        "aka",
        -9.457655922917278
      ],
      [
        "ailleurs",
        -9.458622847750636
      ],
      [
        "▁Ña",
        -9.458644945708492
      ],
      [
        "▁foo",
        -9.458804958046516
      ],
      [
        "▁kooka",
        -9.45902483280949
      ],
      [
        "ète",
        -9.459208828775322
      ],
      [
        "▁n'en",
        -9.461068293329488
      ],
      [
        "▁partent",
        -9.461599311269486
      ],
      [
        "▁n'ira",
        -9.46320468803136
      ],
      [
        "▁demuñu",
        -9.46391042267206
      ],
      [
        "▁ñe",
        -9.464402435898219
      ],
      [
        "▁confie",
        -9.465708206148783
      ],
      [
        "cc",
        -9.466112274671717
      ],
      [
        "abond",
        -9.46747858540445
      ],
      [
        "▁peinte",
        -9.467888121144153
      ],
      [
        "▁Wa",
        -9.46886138166998
      ],
      [
        "▁prot",
        -9.46941810033569
      ],
      [
        "▁Celui",
        -9.471545678454651
      ],
      [
        "▁aime",
        -9.47155273484389
      ],
      [
        "ersonne",
        -9.472821242250301
      ],
      [
        "autrefois",
        -9.473110158532004
      ],
      [
        "▁fer",
        -9.473466519566196
      ],
      [
        "▁xew",
        -9.473805142628956
      ],
      [
        "▁bancs",
        -9.473818219344057
      ],
      [
        "▁gisu",
        -9.47446631866595
      ],
      [
        "faites",
        -9.475527989413706
      ],
      [
        "▁att",
        -9.477403672554221
      ],
      [
        "▁guy",
        -9.477561936775134
      ],
      [
        "des",
        -9.482606427958835
      ],
      [
        "▁cont",
        -9.482944243321342
      ],
      [
        "▁you",
        -9.483343608617416
      ],
      [
        "▁demain",
        -9.483369174672792
      ],
      [
        "▁vi",
        -9.484280973431142
      ],
      [
        "▁Ho",
        -9.484319944870345
      ],
      [
        "▁Nil",
        -9.484815637100443
      ],
      [
        "▁bo",
        -9.485198667237098
      ],
      [
        "▁allez",
        -9.486194320178319
      ],
      [
        "▁batt",
        -9.48749261812209
      ],
      [
        "▁conten",
        -9.488888788779823
      ],
      [
        "▁daw",
        -9.492350324493303
      ],
      [
        "omprends",
        -9.492499756319468
      ],
      [
        "▁daje",
        -9.492963513647819
      ],
      [
        "▁Combi",
        -9.493386375127052
      ],
      [
        "▁yaay",
        -9.499840202800263
      ],
      [
        "tal",
        -9.502935892752227
      ],
      [
        "nañu",
        -9.505713474963247
      ],
      [
        "▁nag.",
        -9.506228845772386
      ],
      [
        "▁voici",
        -9.51175792304986
      ],
      [
        "▁été.",
        -9.512952394589421
      ],
      [
        "▁san",
        -9.517241016593058
      ],
      [
        "▁ens",
        -9.518700275919931
      ],
      [
        "▁faite",
        -9.52079846849752
      ],
      [
        "me",
        -9.521378686752971
      ],
      [
        "▁doo",
        -9.521888360348507
      ],
      [
        "▁fo",
        -9.522507928865883
      ],
      [
        "ti",
        -9.524782742100705
      ],
      [
        "▁naŋg",
        -9.52901399986108
      ],
      [
        "▁Nu",
        -9.529760371470816
      ],
      [
        "▁liggéeye",
        -9.530586272274242
      ],
      [
        "part",
        -9.531134115550708
      ],
      [
        "qu",
        -9.53408498987094
      ],
      [
        "▁Go",
        -9.534917733573412
      ],
      [
        "as-",
        -9.535908452032883
      ],
      [
        "▁toogu",
        -9.536741455170176
      ],
      [
        "▁cons",
        -9.54106465244217
      ],
      [
        "t-il",
        -9.541218985424367
      ],
      [
        "▁denc",
        -9.54363744674216
      ],
      [
        "▁demb",
        -9.544287604586723
      ],
      [
        "▁bleue",
        -9.5494586830448
      ],
      [
        "▁fro",
        -9.549739985181914
      ],
      [
        "je",
        -9.55074275004662
      ],
      [
        "yee",
        -9.556185288934707
      ],
      [
        "aat",
        -9.560848416615935
      ],
      [
        "▁Ngo",
        -9.56412918697148
      ],
      [
        "▁lawoon",
        -9.566860151959759
      ],
      [
        "▁fui",
        -9.568548466560342
      ],
      [
        "▁n'étai",
        -9.573788781781648
      ],
      [
        "kub",
        -9.574502684996988
      ],
      [
        "▁s'i",
        -9.579035057683441
      ],
      [
        "▁Ceux-",
        -9.580085773823141
      ],
      [
        "▁trai",
        -9.580596248456983
      ],
      [
        "ssent",
        -9.58355762326806
      ],
      [
        "La",
        -9.583625486455935
      ],
      [
        "ages",
        -9.584677616695522
      ],
      [
        "▁gà",
        -9.586655816161795
      ],
      [
        "▁bee",
        -9.58837352835681
      ],
      [
        "errière",
        -9.59203221325135
      ],
      [
        "▁maye",
        -9.59798743738538
      ],
      [
        "iggéeykat",
        -9.601818326682245
      ],
      [
        "▁sée",
        -9.602634580819494
      ],
      [
        "nit",
        -9.60519516856744
      ],
      [
        "▁point",
        -9.60752003185234
      ],
      [
        "▁Noo",
        -9.608670390279746
      ],
      [
        "ŋgeen",
        -9.610727170161304
      ],
      [
        "▁taxu",
        -9.61282016577407
      ],
      [
        "▁dis",
        -9.615061698246473
      ],
      [
        "ka",
        -9.615996979106175
      ],
      [
        "ente",
        -9.619695501504385
      ],
      [
        "J",
        -9.620122314538305
      ],
      [
        "▁chocolat.",
        -9.621344439788347
      ],
      [
        "daamar",
        -9.629021370672849
      ],
      [
        "▁clair",
        -9.631096345754191
      ],
      [
        "▁heure",
        -9.633426620451235
      ],
      [
        "mis",
        -9.633706312007085
      ],
      [
        "▁s'ag",
        -9.638772393035367
      ],
      [
        "leur",
        -9.640242800861097
      ],
      [
        "ouille",
        -9.644030109765414
      ],
      [
        "at",
        -9.646988522953164
      ],
      [
        "jà",
        -9.648517813375022
      ],
      [
        "▁d'a",
        -9.649859091935136
      ],
      [
        "▁men",
        -9.65302973879861
      ],
      [
        "du",
        -9.654017169904682
      ],
      [
        "ulëer",
        -9.655724552328405
      ],
      [
        "ó",
        -9.657869249249014
      ],
      [
        "moon",
        -9.659401196640465
      ],
      [
        "▁nëw",
        -9.65973272681356
      ],
      [
        "ër",
        -9.662414500712671
      ],
      [
        "us",
        -9.66294419449978
      ],
      [
        "ange",
        -9.66811590571675
      ],
      [
        "▁l'o",
        -9.668684174661339
      ],
      [
        "mp",
        -9.668867433211208
      ],
      [
        "age",
        -9.669792646495914
      ],
      [
        "▁Aa",
        -9.67071736872019
      ],
      [
        "▁dire",
        -9.671882659361005
      ],
      [
        "▁goo",
        -9.67435659723475
      ],
      [
        "▁connaiss",
        -9.68495250428594
      ],
      [
        "▁mont",
        -9.685807013193688
      ],
      [
        "obul",
        -9.68647630426177
      ],
      [
        "ez-",
        -9.690141491183265
      ],
      [
        "▁sii",
        -9.697255733339949
      ],
      [
        "▁Die",
        -9.69832783813054
      ],
      [
        "fi",
        -9.700584882714095
      ],
      [
        "rëb",
        -9.701796506911
      ],
      [
        "met",
        -9.703350820786259
      ],
      [
        "▁n'e",
        -9.703916544494813
      ],
      [
        "pose",
        -9.705629774798755
      ],
      [
        "ache",
        -9.708555087340493
      ],
      [
        "▁Waxu",
        -9.7093025944556
      ],
      [
        "ici.",
        -9.715732670613876
      ],
      [
        "kki",
        -9.720093395003026
      ],
      [
        "▁banc",
        -9.72222612494165
      ],
      [
        "mes",
        -9.722340743766676
      ],
      [
        "▁bay",
        -9.72812558165253
      ],
      [
        "ii",
        -9.728512473816977
      ],
      [
        "tant",
        -9.728952814820175
      ],
      [
        "▁pren",
        -9.729462860717128
      ],
      [
        "uff",
        -9.72949293484452
      ],
      [
        "▁mêmes",
        -9.731177078092117
      ],
      [
        "arab",
        -9.732845636277661
      ],
      [
        "▁fleur",
        -9.733010161938342
      ],
      [
        "▁d'herbe",
        -9.733504007524923
      ],
      [
        "A",
        -9.736505328061188
      ],
      [
        "▁taa",
        -9.736608699167656
      ],
      [
        "▁U",
        -9.739449665659773
      ],
      [
        "▁nopp",
        -9.746172502149081
      ],
      [
        "▁tegal",
        -9.748353784507758
      ],
      [
        "mour",
        -9.7487453619596
      ],
      [
        "▁Yooy",
        -9.74954441785128
      ],
      [
        "▁mbu",
        -9.749792324773669
      ],
      [
        "ñëw",
        -9.753058880796733
      ],
      [
        "▁kë",
        -9.754899998494395
      ],
      [
        "▁r",
        -9.756755656174324
      ],
      [
        "'est-à-dire",
        -9.76171047113823
      ],
      [
        "▁Dé",
        -9.762131533972434
      ],
      [
        "▁lekk",
        -9.7624511679806
      ],
      [
        "llez",
        -9.76444186172643
      ],
      [
        "ëkku",
        -9.76507645074157
      ],
      [
        "onfie",
        -9.765098996364225
      ],
      [
        "▁ŋgoogu",
        -9.765733603994704
      ],
      [
        "▁l'extérieur",
        -9.766060699778615
      ],
      [
        "▁climatiseurs",
        -9.766060699778851
      ],
      [
        "▁véhicule",
        -9.766060699780487
      ],
      [
        "▁français",
        -9.76606069989645
      ],
      [
        "▁superposé",
        -9.766060701712455
      ],
      [
        "▁couvercle",
        -9.766060708398168
      ],
      [
        "▁écrivent",
        -9.766060712129574
      ],
      [
        "▁alkaati",
        -9.766060763022754
      ],
      [
        "▁couscous",
        -9.766060763666484
      ],
      [
        "féexal",
        -9.766060804095753
      ],
      [
        "▁rëdd",
        -9.76606083108427
      ],
      [
        "▁attaché",
        -9.766060855313105
      ],
      [
        "▁fâch",
        -9.766060894691806
      ],
      [
        "▁messager",
        -9.766060972208932
      ],
      [
        "▁Faranse",
        -9.766061050401913
      ],
      [
        "▁karaaf",
        -9.766061243771247
      ],
      [
        "▁mûr",
        -9.766061313803059
      ],
      [
        "▁cultive",
        -9.766061492303352
      ],
      [
        "▁mboq",
        -9.766061498818257
      ],
      [
        "▁appelé",
        -9.766062071095796
      ],
      [
        "▁siège",
        -9.766062110801421
      ],
      [
        "▁meilleur",
        -9.766063951334816
      ],
      [
        "▁trop",
        -9.766065763885582
      ],
      [
        "▁beurre",
        -9.766066413740107
      ],
      [
        "▁Certaine",
        -9.76606973305308
      ],
      [
        "▁instant",
        -9.76607039096357
      ],
      [
        "▁xadde",
        -9.766073161243467
      ],
      [
        "▁carafe",
        -9.766074185536292
      ],
      [
        "▁lutteur",
        -9.766075944536198
      ],
      [
        "▁colère",
        -9.766087941126525
      ],
      [
        "▁Kaasamaas",
        -9.766089166268063
      ],
      [
        "▁sotti",
        -9.766090120751542
      ],
      [
        "▁waxtaan",
        -9.766092463895475
      ],
      [
        "foncé",
        -9.766092559847618
      ],
      [
        "▁plaît",
        -9.766093370040497
      ],
      [
        "▁adulte",
        -9.766104550601959
      ],
      [
        "▁couvert",
        -9.766110279529045
      ],
      [
        "▁bahut",
        -9.766119681068377
      ],
      [
        "▁Solda",
        -9.766122371881549
      ],
      [
        "▁gros",
        -9.766122839041849
      ],
      [
        "▁kéwël",
        -9.766129542765519
      ],
      [
        "▁saŋx",
        -9.766136486492314
      ],
      [
        "▁batã",
        -9.766191185064569
      ],
      [
        "▁Sëri",
        -9.766215772554903
      ],
      [
        "èvre",
        -9.766218299495156
      ],
      [
        "ëcc",
        -9.766222838924113
      ],
      [
        "▁sànn",
        -9.766224384913409
      ],
      [
        "▁paresseu",
        -9.766242479076148
      ],
      [
        "▁taabal",
        -9.766300390501318
      ],
      [
        "▁jabar",
        -9.766308302233806
      ],
      [
        "▁feuilles",
        -9.766310042254485
      ],
      [
        "▁sauce",
        -9.766310484056692
      ],
      [
        "▁caisse",
        -9.766310851415385
      ],
      [
        "▁Laisse",
        -9.766371963964703
      ],
      [
        "▁l'herbe",
        -9.766379438804774
      ],
      [
        "▁l'argent",
        -9.766413508763453
      ],
      [
        "▁dikkul",
        -9.766420665234277
      ],
      [
        "▁riz",
        -9.766486324538668
      ],
      [
        "▁Peul",
        -9.766537731344911
      ],
      [
        "▁Autre",
        -9.766586140064177
      ],
      [
        "▁l'argile",
        -9.76660024103286
      ],
      [
        "▁L'autre",
        -9.766606845623578
      ],
      [
        "▁bouge",
        -9.766609903695011
      ],
      [
        "▁tàngal",
        -9.766648112802056
      ],
      [
        "▁vérité",
        -9.766703439018846
      ],
      [
        "▁gauche",
        -9.766767383231713
      ],
      [
        "▁masque",
        -9.767017764169804
      ],
      [
        "▁prop",
        -9.767085595165472
      ],
      [
        "▁anglais",
        -9.767095135443439
      ],
      [
        "▁rose",
        -9.76713188483335
      ],
      [
        "▁grand",
        -9.767261808825527
      ],
      [
        "arloo",
        -9.767436961563627
      ],
      [
        "▁manger",
        -9.767473069727853
      ],
      [
        "▁ñeex",
        -9.767545919261483
      ],
      [
        "▁taille",
        -9.767742161276377
      ],
      [
        "▁coup",
        -9.767823174284425
      ],
      [
        "▁wàll",
        -9.7680819349701
      ],
      [
        "▁fukk",
        -9.76817047424843
      ],
      [
        "▁enfant-là",
        -9.768216159400493
      ],
      [
        "▁général",
        -9.768320762746463
      ],
      [
        "-je",
        -9.768481407472851
      ],
      [
        "▁Sàll",
        -9.768569625915537
      ],
      [
        "▁yaram",
        -9.768848099305055
      ],
      [
        "▁n'import",
        -9.769364866816794
      ],
      [
        "▁faut",
        -9.769410250972845
      ],
      [
        "▁monté",
        -9.76949827772233
      ],
      [
        "▁l'appelle",
        -9.770027795689066
      ],
      [
        "▁indi",
        -9.770206703627894
      ],
      [
        "▁sopp",
        -9.770217458973047
      ],
      [
        "▁crain",
        -9.770243010000652
      ],
      [
        "▁jouent",
        -9.770271777433292
      ],
      [
        "onne",
        -9.770390673340916
      ],
      [
        "▁c'est-à-dire",
        -9.770429708186189
      ],
      [
        "▁wóo",
        -9.770887578384135
      ],
      [
        "▁Sall",
        -9.771092817395886
      ],
      [
        "▁clé",
        -9.771130491184056
      ],
      [
        "▁ceux-ci",
        -9.771406118417016
      ],
      [
        "▁genre",
        -9.771557173603071
      ],
      [
        "▁dents",
        -9.771660504565117
      ],
      [
        "awbe",
        -9.771846353255437
      ],
      [
        "▁suuk",
        -9.771944446871832
      ],
      [
        "▁d'eux",
        -9.772114608628197
      ],
      [
        "▁concert",
        -9.772617098814546
      ],
      [
        "▁commen",
        -9.773469250993632
      ],
      [
        "▁terre",
        -9.773919343437889
      ],
      [
        "▁bët",
        -9.773969844918408
      ],
      [
        "▁woowe",
        -9.774581707576617
      ],
      [
        "▁soow",
        -9.77550062498463
      ],
      [
        "roo",
        -9.775811850477258
      ],
      [
        "▁cuit",
        -9.776001594120919
      ],
      [
        "▁beg",
        -9.776002412096744
      ],
      [
        "▁d'ar",
        -9.776313793025386
      ],
      [
        "▁yëf",
        -9.776327143810768
      ],
      [
        "▁plats",
        -9.776385756831909
      ],
      [
        "rage",
        -9.776436783099438
      ],
      [
        "▁tentes",
        -9.77690173904065
      ],
      [
        "▁Abal",
        -9.776989292230692
      ],
      [
        "▁Ah",
        -9.777202448840825
      ],
      [
        "▁bonul",
        -9.777743682667998
      ],
      [
        "▁ñooñ",
        -9.778227885591125
      ],
      [
        "▁homme-ci",
        -9.779000616821486
      ],
      [
        "ôt",
        -9.77975647270399
      ],
      [
        "▁sais",
        -9.78016758810173
      ],
      [
        "▁Deg",
        -9.780191262707605
      ],
      [
        "▁Wall",
        -9.780457584442766
      ],
      [
        "▁parl",
        -9.781644019588391
      ],
      [
        "▁pré",
        -9.7829020401445
      ],
      [
        "▁voya",
        -9.782988640475038
      ],
      [
        "▁sukk",
        -9.783399668222827
      ],
      [
        "▁Yooyu",
        -9.783874321315713
      ],
      [
        "▁trou",
        -9.784627081850326
      ],
      [
        "▁drapeau",
        -9.78495560615062
      ],
      [
        "▁Mac",
        -9.786602760912592
      ],
      [
        "▁cuisiner",
        -9.786857588048644
      ],
      [
        "▁courses",
        -9.787056037303227
      ],
      [
        "▁mét",
        -9.787056209072162
      ],
      [
        "▁ceeb",
        -9.787075138648937
      ],
      [
        "ches",
        -9.787217492343958
      ],
      [
        "iff",
        -9.787967676760621
      ],
      [
        "uru",
        -9.788125760769624
      ],
      [
        "▁Celle",
        -9.788535983993697
      ],
      [
        "▁xeet",
        -9.788745713918543
      ],
      [
        "▁fenêtres",
        -9.790457093169909
      ],
      [
        "▁objets",
        -9.790819880813382
      ],
      [
        "ga",
        -9.791650934299579
      ],
      [
        "▁tiroirs",
        -9.792366675229838
      ],
      [
        "qu'un",
        -9.792397447974775
      ],
      [
        "▁prend",
        -9.794441765847505
      ],
      [
        "nu",
        -9.79451073359996
      ],
      [
        "▁yaru",
        -9.795796983753
      ],
      [
        "▁Kook",
        -9.796704254430493
      ],
      [
        "▁ñj",
        -9.797618597915298
      ],
      [
        "laire",
        -9.798432031759742
      ],
      [
        "ile",
        -9.798535254536745
      ],
      [
        "veille",
        -9.799908364160546
      ],
      [
        "▁woowu",
        -9.800314219206284
      ],
      [
        "▁daawul",
        -9.800988900452186
      ],
      [
        "▁assiette",
        -9.801230207644128
      ],
      [
        "▁wala",
        -9.801732005755408
      ],
      [
        "▁Gisu",
        -9.803521974105196
      ],
      [
        "ntière",
        -9.803620127095005
      ],
      [
        "pace",
        -9.804799101232968
      ],
      [
        "▁Salaa",
        -9.805579722163783
      ],
      [
        "▁Waxat",
        -9.806494921460356
      ],
      [
        "▁travaille",
        -9.806733167527643
      ],
      [
        "▁Aie",
        -9.807655618713419
      ],
      [
        "▁vert",
        -9.808378255341323
      ],
      [
        "▁marcher",
        -9.80987967997327
      ],
      [
        "ré",
        -9.810684695607337
      ],
      [
        "▁woowa",
        -9.814413970678833
      ],
      [
        "cher",
        -9.817376060183397
      ],
      [
        "▁Lui",
        -9.817631804998237
      ],
      [
        "▁vou",
        -9.81806472906619
      ],
      [
        "▁Seeti",
        -9.819493197927086
      ],
      [
        "▁Ŋgo",
        -9.820638779638521
      ],
      [
        "▁mé",
        -9.820641103763288
      ],
      [
        "▁buur",
        -9.82267813506928
      ],
      [
        "hez",
        -9.826195366061107
      ],
      [
        "▁Leur",
        -9.826235358084269
      ],
      [
        "▁sim",
        -9.826328077769297
      ],
      [
        "é.",
        -9.826535700447351
      ],
      [
        "▁oreiller",
        -9.827660646673397
      ],
      [
        "▁présent",
        -9.828182040031457
      ],
      [
        "ve",
        -9.828836108100724
      ],
      [
        "▁partai",
        -9.832386741844733
      ],
      [
        "▁be",
        -9.833484479316201
      ],
      [
        "▁parla",
        -9.841322143092041
      ],
      [
        "▁forme",
        -9.841894443615088
      ],
      [
        "▁Kan",
        -9.84259648092429
      ],
      [
        "pis",
        -9.842920033160937
      ],
      [
        "▁yeux",
        -9.843372535729607
      ],
      [
        "▁cuisines",
        -9.844525825266679
      ],
      [
        "▁Waxul",
        -9.845753421917156
      ],
      [
        "▁Dégg",
        -9.848444769893128
      ],
      [
        "▁fe",
        -9.850451679667678
      ],
      [
        "añse",
        -9.850707194744164
      ],
      [
        "▁fermée",
        -9.851293191197756
      ],
      [
        "énorme",
        -9.851724051620627
      ],
      [
        "neen",
        -9.852206606129956
      ],
      [
        "té",
        -9.852440821237273
      ],
      [
        "modes",
        -9.854096730922377
      ],
      [
        "oow",
        -9.855217504260475
      ],
      [
        "góor",
        -9.855995152978261
      ],
      [
        "▁n'aur",
        -9.856063995868201
      ],
      [
        "▁h",
        -9.856569493477163
      ],
      [
        "▁yooya",
        -9.858618740377871
      ],
      [
        "O",
        -9.859112900915985
      ],
      [
        "▁ex",
        -9.861844869736494
      ],
      [
        "dd",
        -9.862316068838467
      ],
      [
        "▁Ñen",
        -9.863711870948299
      ],
      [
        "▁désire",
        -9.865091307516975
      ],
      [
        "▁utilise",
        -9.86544713227033
      ],
      [
        "ts.",
        -9.86578256195953
      ],
      [
        "exi",
        -9.869284570965135
      ],
      [
        "▁Daa",
        -9.869522458235421
      ],
      [
        "▁ch",
        -9.869622346500194
      ],
      [
        "▁Yen",
        -9.870025390659105
      ],
      [
        "▁jus",
        -9.870315393819762
      ],
      [
        "'aumône",
        -9.87132558325375
      ],
      [
        "eur",
        -9.8726597289751
      ],
      [
        "ante",
        -9.872897852554447
      ],
      [
        "▁bout",
        -9.873636191171896
      ],
      [
        "▁ñee",
        -9.874451525096774
      ],
      [
        "boo",
        -9.876461043284399
      ],
      [
        "▁Jée",
        -9.87844614002437
      ],
      [
        "▁lions",
        -9.878943478217515
      ],
      [
        "use",
        -9.880150997911949
      ],
      [
        "egg",
        -9.880510800710827
      ],
      [
        "ejje",
        -9.882217239995493
      ],
      [
        "▁s'écha",
        -9.883466415499486
      ],
      [
        "▁cor",
        -9.88512441550236
      ],
      [
        "▁Nee",
        -9.885341398053834
      ],
      [
        "▁tubaa",
        -9.88719178741841
      ],
      [
        "▁paye",
        -9.889258738363262
      ],
      [
        "oivent",
        -9.891194447738812
      ],
      [
        "▁dina",
        -9.892188368730782
      ],
      [
        "yi",
        -9.892739785368232
      ],
      [
        "▁buu",
        -9.894371867069864
      ],
      [
        "eurs",
        -9.89563942590041
      ],
      [
        "▁pr",
        -9.895654201540296
      ],
      [
        "▁Sor",
        -9.905766333926763
      ],
      [
        "▁gra",
        -9.911076537289821
      ],
      [
        "▁aille",
        -9.911290329894204
      ],
      [
        "▁ño",
        -9.914529506259846
      ],
      [
        "rain",
        -9.918129259496977
      ],
      [
        "▁booba",
        -9.918365568958778
      ],
      [
        "heureu",
        -9.919261791230047
      ],
      [
        "war",
        -9.9222362840164
      ],
      [
        "ji",
        -9.923352518354537
      ],
      [
        "▁joue",
        -9.92337539766445
      ],
      [
        "▁mett",
        -9.924308704148746
      ],
      [
        "dre",
        -9.925242243542709
      ],
      [
        "ah",
        -9.926962926964416
      ],
      [
        "▁claire",
        -9.927455371024475
      ],
      [
        "able",
        -9.928092893326038
      ],
      [
        "▁daamar",
        -9.928700009500206
      ],
      [
        "▁joo",
        -9.936569037730901
      ],
      [
        "uis",
        -9.936980180631512
      ],
      [
        "lui",
        -9.946745609905573
      ],
      [
        "▁jolies",
        -9.951233291099737
      ],
      [
        "▁po",
        -9.951751683612349
      ],
      [
        "▁cee",
        -9.954176104762336
      ],
      [
        "â",
        -9.957464923270265
      ],
      [
        "▁Defa",
        -9.959852407090128
      ],
      [
        "eut",
        -9.961722690187369
      ],
      [
        "ques",
        -9.962032838344514
      ],
      [
        "ions",
        -9.962668408653908
      ],
      [
        "tion",
        -9.96294269576912
      ],
      [
        "âl",
        -9.96380707038994
      ],
      [
        "fu",
        -9.964354316853928
      ],
      [
        "wuñu",
        -9.967164869501623
      ],
      [
        "▁roi",
        -9.96815177965853
      ],
      [
        "▁mar",
        -9.969575172259935
      ],
      [
        "▁ro",
        -9.969705057366385
      ],
      [
        "▁tel",
        -9.972651639193598
      ],
      [
        "▁mbe",
        -9.974292445847967
      ],
      [
        "▁ndo",
        -9.976374607161308
      ],
      [
        "gul",
        -9.976662367925766
      ],
      [
        "aal",
        -9.979584784371472
      ],
      [
        "▁sant",
        -9.982387586672639
      ],
      [
        "ign",
        -9.98287138541452
      ],
      [
        "oir",
        -9.983347131054172
      ],
      [
        "▁prie",
        -9.98342749518392
      ],
      [
        "▁rentre",
        -9.984114150547951
      ],
      [
        "▁rouges",
        -9.988622526523327
      ],
      [
        "éew",
        -9.991383014396241
      ],
      [
        "▁mba",
        -9.994786471418958
      ],
      [
        "▁fee",
        -9.995266144661818
      ],
      [
        "▁connaisse",
        -10.001875740515722
      ],
      [
        "irai",
        -10.002960313263927
      ],
      [
        "▁Def",
        -10.0039802323388
      ],
      [
        "aa",
        -10.00556853464909
      ],
      [
        "▁far",
        -10.005615415194542
      ],
      [
        "llu",
        -10.007268855744268
      ],
      [
        "▁pos",
        -10.007311747009016
      ],
      [
        "law",
        -10.010646277569556
      ],
      [
        "▁Se",
        -10.015262212802252
      ],
      [
        "▁ra",
        -10.019405840552828
      ],
      [
        "▁yaat",
        -10.019847529149427
      ],
      [
        "orte",
        -10.021087159367138
      ],
      [
        "naay",
        -10.021784114209963
      ],
      [
        "avait",
        -10.024307039785363
      ],
      [
        "▁bat",
        -10.025889941735624
      ],
      [
        "S",
        -10.02614146569531
      ],
      [
        "▁gui",
        -10.0267651689999
      ],
      [
        "▁bas",
        -10.026894242109508
      ],
      [
        "argile",
        -10.03411004395098
      ],
      [
        "igne",
        -10.035021272004965
      ],
      [
        "▁xamul",
        -10.035275762052144
      ],
      [
        "▁Sé",
        -10.040128872939716
      ],
      [
        "ort",
        -10.042094926787893
      ],
      [
        "ver",
        -10.04540973848907
      ],
      [
        "▁Qua",
        -10.046112681483336
      ],
      [
        "▁montr",
        -10.046180180552756
      ],
      [
        "▁m'as",
        -10.050377930998906
      ],
      [
        "act",
        -10.050917958294049
      ],
      [
        "café",
        -10.051685255348636
      ],
      [
        "▁mise",
        -10.05326938567115
      ],
      [
        "weer",
        -10.056722572053284
      ],
      [
        "▁Nag",
        -10.057273630131057
      ],
      [
        "▁Liggéey",
        -10.058096127630256
      ],
      [
        "lo",
        -10.06099051325067
      ],
      [
        "▁parler",
        -10.061886502772778
      ],
      [
        "um",
        -10.065067257599683
      ],
      [
        "vient",
        -10.066739227319145
      ],
      [
        "laa",
        -10.067587491611343
      ],
      [
        "▁No",
        -10.068576588808567
      ],
      [
        "ff",
        -10.071379374232365
      ],
      [
        "▁Bay",
        -10.071986648327334
      ],
      [
        "eguñu",
        -10.073263541095406
      ],
      [
        "▁lev",
        -10.077199431612206
      ],
      [
        "ba",
        -10.078232881677547
      ],
      [
        "entre",
        -10.078871673828795
      ],
      [
        "mid",
        -10.079048653911997
      ],
      [
        "ais-t",
        -10.082909188175272
      ],
      [
        "cherche",
        -10.084729063781301
      ],
      [
        "am.",
        -10.084922227731088
      ],
      [
        "▁tege",
        -10.090632733394347
      ],
      [
        "ful",
        -10.096969872341536
      ],
      [
        "abal",
        -10.097350787714076
      ],
      [
        "▁ŋg",
        -10.098755806237781
      ],
      [
        "là",
        -10.100052969570838
      ],
      [
        "ru",
        -10.100202287578208
      ],
      [
        "alal",
        -10.103689263014578
      ],
      [
        "ain",
        -10.105147527573925
      ],
      [
        "▁seenu",
        -10.11231644174159
      ],
      [
        "▁Be",
        -10.117155206424435
      ],
      [
        "rais",
        -10.117805863260758
      ],
      [
        "agg",
        -10.118245186515896
      ],
      [
        "ta",
        -10.119136800468365
      ],
      [
        "▁too",
        -10.119536052982228
      ],
      [
        "ddi",
        -10.120260904921874
      ],
      [
        "apprécie",
        -10.121273970883049
      ],
      [
        "fois",
        -10.122261304530841
      ],
      [
        "angé",
        -10.12748476630828
      ],
      [
        "échapp",
        -10.128106910186593
      ],
      [
        "▁sera",
        -10.131001662009828
      ],
      [
        "▁t'app",
        -10.134019155493458
      ],
      [
        "gguma",
        -10.138640458853214
      ],
      [
        "gis",
        -10.139350280857315
      ],
      [
        "▁yab",
        -10.140804330971633
      ],
      [
        "▁nà",
        -10.145381366231167
      ],
      [
        "oog",
        -10.146881089650647
      ],
      [
        "▁deme",
        -10.147775641304627
      ],
      [
        "▁Da",
        -10.150411916536552
      ],
      [
        "urs",
        -10.154627441056482
      ],
      [
        "▁mb",
        -10.156283042637513
      ],
      [
        "aaka",
        -10.157701673138446
      ],
      [
        "l.",
        -10.15912625204016
      ],
      [
        "aleekum",
        -10.164441846259802
      ],
      [
        "ng",
        -10.165051890165076
      ],
      [
        "▁kook",
        -10.167383571604391
      ],
      [
        "▁ŋgoo",
        -10.16908815230879
      ],
      [
        "▁bavarda",
        -10.171193904244042
      ],
      [
        "ho",
        -10.173526150149755
      ],
      [
        "▁ha",
        -10.174394505433737
      ],
      [
        "anaa",
        -10.175205132105763
      ],
      [
        "pe",
        -10.177484521299792
      ],
      [
        "▁Celui-",
        -10.178452644062034
      ],
      [
        "▁waxe",
        -10.180439433416396
      ],
      [
        "ule",
        -10.181147311196453
      ],
      [
        "re.",
        -10.182705086540022
      ],
      [
        "▁cherch",
        -10.182706816067876
      ],
      [
        "▁bul",
        -10.184124743085542
      ],
      [
        "▁ti",
        -10.186287818416792
      ],
      [
        "▁lait",
        -10.186749404565958
      ],
      [
        "▁peint",
        -10.190394031608065
      ],
      [
        "▁Xa",
        -10.192466255932615
      ],
      [
        "uy",
        -10.192588320988738
      ],
      [
        "▁puis",
        -10.19849467475862
      ],
      [
        "eil",
        -10.198586598263942
      ],
      [
        "▁confi",
        -10.20145213924316
      ],
      [
        "lé",
        -10.202091854806374
      ],
      [
        "ttends",
        -10.206832158420301
      ],
      [
        "jje",
        -10.208982974318744
      ],
      [
        "andi",
        -10.210504275943535
      ],
      [
        "ère.",
        -10.214148125942046
      ],
      [
        "▁attrap",
        -10.215224535114716
      ],
      [
        "▁gejj",
        -10.21910851226892
      ],
      [
        "ière.",
        -10.221878814072015
      ],
      [
        "▁Att",
        -10.221913397206588
      ],
      [
        "▁objet",
        -10.226877744387473
      ],
      [
        "▁tiroir",
        -10.22694046836215
      ],
      [
        "▁cuisin",
        -10.227208141936183
      ],
      [
        "dem",
        -10.227706890577057
      ],
      [
        "▁fenêtre",
        -10.22775074484266
      ],
      [
        "xam",
        -10.228799122416023
      ],
      [
        "▁teint",
        -10.228891806388534
      ],
      [
        "▁dam",
        -10.23001523377485
      ],
      [
        "▁xë",
        -10.231830017526867
      ],
      [
        "▁gaynd",
        -10.232899912363283
      ],
      [
        "▁policier",
        -10.233432909797763
      ],
      [
        "▁tient",
        -10.234416170796095
      ],
      [
        "mal",
        -10.235383881044255
      ],
      [
        "▁viendr",
        -10.235774705857645
      ],
      [
        "▁rapp",
        -10.237549032532575
      ],
      [
        "▁Foof",
        -10.240307330144137
      ],
      [
        "▁pierre",
        -10.241730550339124
      ],
      [
        "ngoo",
        -10.244657078573647
      ],
      [
        "▁n'ir",
        -10.245498701090213
      ],
      [
        "▁yit",
        -10.24601312327761
      ],
      [
        "▁parent",
        -10.246755225809052
      ],
      [
        "▁go",
        -10.249194170888641
      ],
      [
        "▁soldat",
        -10.249826365794995
      ],
      [
        "▁recon",
        -10.250519183071244
      ],
      [
        "lors",
        -10.251746281336798
      ],
      [
        "▁gë",
        -10.252633692488384
      ],
      [
        "evant",
        -10.253998682861361
      ],
      [
        "▁somme",
        -10.254783873872356
      ],
      [
        "▁oreille",
        -10.255160774475797
      ],
      [
        "axkoon",
        -10.25553638037689
      ],
      [
        "▁foof",
        -10.255719738833752
      ],
      [
        "nde",
        -10.256207075937544
      ],
      [
        "ure",
        -10.256224572088499
      ],
      [
        "range",
        -10.25682149111122
      ],
      [
        "ête",
        -10.258625308954624
      ],
      [
        "▁t'e",
        -10.259693799139837
      ],
      [
        "ccepte",
        -10.259924697679194
      ],
      [
        "▁jó",
        -10.261228379197616
      ],
      [
        "'import",
        -10.261244500353675
      ],
      [
        "▁bokku",
        -10.261467455547665
      ],
      [
        "▁génér",
        -10.26238430668437
      ],
      [
        "oxoom",
        -10.263064521412577
      ],
      [
        "▁jaŋ",
        -10.26331051202318
      ],
      [
        "▁ubb",
        -10.263365973497482
      ],
      [
        "▁tée",
        -10.263726694308236
      ],
      [
        "▁sou",
        -10.264246603877877
      ],
      [
        "cheur",
        -10.264863365728827
      ],
      [
        "▁tissé",
        -10.265102671649458
      ],
      [
        "▁jëfandik",
        -10.26535264458759
      ],
      [
        "▁d'habit",
        -10.266046266966093
      ],
      [
        "▁Africaine",
        -10.26606069978211
      ],
      [
        "▁Français",
        -10.266060699786212
      ],
      [
        "▁migrateurs",
        -10.266060699787948
      ],
      [
        "É",
        -10.266060699818564
      ],
      [
        "Ë",
        -10.266060699818567
      ],
      [
        "(",
        -10.266060699818567
      ],
      [
        ")",
        -10.266060699818567
      ],
      [
        "▁Niominka.",
        -10.266060699819443
      ],
      [
        "▁confortable",
        -10.266060699848127
      ],
      [
        "▁impoli",
        -10.266060702809694
      ],
      [
        "▁récipient",
        -10.266060705787112
      ],
      [
        "▁accroch",
        -10.266060713921522
      ],
      [
        "▁renversé",
        -10.266060714982878
      ],
      [
        "▁archite",
        -10.266060715958927
      ],
      [
        "▁ngànnaay",
        -10.266060726013837
      ],
      [
        "▁boucliers",
        -10.266060734126164
      ],
      [
        "▁canapé",
        -10.266060746146303
      ],
      [
        "▁tambour",
        -10.266060758520776
      ],
      [
        "▁maasàllaa",
        -10.266060767411854
      ],
      [
        "▁berceau",
        -10.266060779276431
      ],
      [
        "▁rapprochée",
        -10.266060781241903
      ],
      [
        "▁préparé",
        -10.266060892791131
      ],
      [
        "▁frigo",
        -10.266060901122449
      ],
      [
        "▁'jaune'",
        -10.266060905167333
      ],
      [
        "▁chaîne",
        -10.266060941433885
      ],
      [
        "▁automobile",
        -10.266060989539206
      ],
      [
        "▁tamarin",
        -10.266061211549012
      ],
      [
        "▁fabriqu",
        -10.266061255534082
      ],
      [
        "▁totalité",
        -10.266061869629349
      ],
      [
        "▁lumineuse",
        -10.266061948319201
      ],
      [
        "▁beerso",
        -10.266062027408653
      ],
      [
        "▁achète",
        -10.266062303642425
      ],
      [
        "áa",
        -10.266062448832747
      ],
      [
        "▁radier",
        -10.26606248654182
      ],
      [
        "congelé",
        -10.266062549060406
      ],
      [
        "▁ñambaan",
        -10.266062793415502
      ],
      [
        "▁nombre",
        -10.266063330293049
      ],
      [
        "▁lançant",
        -10.266063915885201
      ],
      [
        "▁Dites-l",
        -10.266064903430387
      ],
      [
        "▁yalwaan",
        -10.266065220301046
      ],
      [
        "▁nouvel",
        -10.266066576640203
      ],
      [
        "▁magasin",
        -10.266067239931571
      ],
      [
        "▁constituée",
        -10.26606788866219
      ],
      [
        "▁rassembl",
        -10.266068963155114
      ],
      [
        "▁statut",
        -10.266070169821655
      ],
      [
        "▁discut",
        -10.266071361294347
      ],
      [
        "▁S'agi",
        -10.266072137208777
      ],
      [
        "'ouvre",
        -10.266074343455633
      ],
      [
        "▁besoin",
        -10.266074738486697
      ],
      [
        "▁assailli",
        -10.266075916350538
      ],
      [
        "▁France",
        -10.266077890491493
      ],
      [
        "▁meuble",
        -10.266080398618186
      ],
      [
        "▁marron",
        -10.266082330341868
      ],
      [
        "▁l'allume",
        -10.266082564806302
      ],
      [
        "écédé",
        -10.26608760880174
      ],
      [
        "▁marõ",
        -10.266091809716668
      ],
      [
        "▁Taxawa",
        -10.266092945714362
      ],
      [
        "▁moontin",
        -10.266094580807327
      ],
      [
        "▁prépare",
        -10.266095295026679
      ],
      [
        "▁entouré",
        -10.266098272589609
      ],
      [
        "▁jàkkarloo",
        -10.266099453727762
      ],
      [
        "▁truc",
        -10.266100393126067
      ],
      [
        "▁souffr",
        -10.266107873366078
      ],
      [
        "▁nàññ",
        -10.266112175376744
      ],
      [
        "grillage",
        -10.26611555711559
      ],
      [
        "▁L'endroit",
        -10.266122703186394
      ],
      [
        "▁moket",
        -10.266127758443018
      ],
      [
        "àngaan",
        -10.266136498898845
      ],
      [
        "▁xelli",
        -10.266141666877658
      ],
      [
        "àccee",
        -10.266142029611158
      ],
      [
        "▁âgé",
        -10.266148785348355
      ],
      [
        "▁descendra",
        -10.266160792108915
      ],
      [
        "▁couvr",
        -10.26616142381381
      ],
      [
        "aalekum",
        -10.266164965004345
      ],
      [
        "à-bas",
        -10.266166531065288
      ],
      [
        "▁n'habite",
        -10.266175758392581
      ],
      [
        "▁bassin",
        -10.266177469218427
      ],
      [
        "▁répét",
        -10.266194250605567
      ],
      [
        "▁yàqu",
        -10.266208402402349
      ],
      [
        "▁aajo",
        -10.266234457881014
      ],
      [
        "▁plante",
        -10.26624143132334
      ],
      [
        "▁gosse",
        -10.266267708488048
      ],
      [
        "▁salut",
        -10.26627818527053
      ],
      [
        "▁fanane",
        -10.266298333161862
      ],
      [
        "▁inter",
        -10.266304346167162
      ],
      [
        "▁jour.",
        -10.266305981289154
      ],
      [
        "s-",
        -10.266311754294074
      ],
      [
        "▁propos",
        -10.266316757230422
      ],
      [
        "▁ancien",
        -10.266344389151365
      ],
      [
        "▁rëy",
        -10.266360057890422
      ],
      [
        "âche",
        -10.266421206285857
      ],
      [
        "▁l'imp",
        -10.266446538964617
      ],
      [
        "▁faneetar",
        -10.26644730075101
      ],
      [
        "▁écriture",
        -10.266447620301145
      ],
      [
        "▁Musta",
        -10.266548524535779
      ],
      [
        "pérer",
        -10.266590084821775
      ],
      [
        "▁jumaa",
        -10.2666298559922
      ],
      [
        "▁visite",
        -10.266645663500832
      ],
      [
        "cture",
        -10.266674723342529
      ],
      [
        "▁gàdd",
        -10.266739155887809
      ],
      [
        "▁yeggee",
        -10.266811079169038
      ],
      [
        "▁fanaan",
        -10.266878476742331
      ],
      [
        "▁chef",
        -10.266881909692714
      ],
      [
        "▁vous-même",
        -10.266922547499519
      ],
      [
        "▁gardé",
        -10.26693922376572
      ],
      [
        "▁cubb",
        -10.266965655809582
      ],
      [
        "▁toi-même",
        -10.26704848991034
      ],
      [
        "▁moi-même",
        -10.26706152857736
      ],
      [
        "▁ndigg",
        -10.267135281534106
      ],
      [
        "▁j'apprécie",
        -10.267204037896448
      ],
      [
        "▁Dellu",
        -10.267233723248818
      ],
      [
        "vêt",
        -10.267311315846399
      ],
      [
        "▁moyen",
        -10.267342967936083
      ],
      [
        "▁Lebou",
        -10.267346281645379
      ],
      [
        "▁bënn",
        -10.267405249752453
      ],
      [
        "▁mang",
        -10.267458034597077
      ],
      [
        "▁droit",
        -10.267458621668963
      ],
      [
        "▁echelle",
        -10.26748850685334
      ],
      [
        "ablement",
        -10.267654043676334
      ],
      [
        "▁mort",
        -10.267690781329655
      ],
      [
        "▁élevage",
        -10.267743710582725
      ],
      [
        "▁karo",
        -10.267750661932993
      ],
      [
        "▁raison",
        -10.2677515373908
      ],
      [
        "mbres",
        -10.267910703230593
      ],
      [
        "▁Wutël",
        -10.267916477888937
      ],
      [
        "▁fekk",
        -10.268052647905531
      ],
      [
        "▁public",
        -10.268089724351915
      ],
      [
        "▁Arr",
        -10.268099265088056
      ],
      [
        "▁Chacun",
        -10.268129507219989
      ],
      [
        "▁doj",
        -10.26814227282206
      ],
      [
        "taine",
        -10.26818831596593
      ],
      [
        "aune'",
        -10.268211673031345
      ],
      [
        "▁accompagné",
        -10.268256654979687
      ],
      [
        "▁waawaaw",
        -10.268326076933358
      ],
      [
        "▁Dugg",
        -10.268349554360567
      ],
      [
        "assoupi",
        -10.268356978142204
      ],
      [
        "▁tissées",
        -10.268495536449423
      ],
      [
        "▁t'aurai",
        -10.26862530779488
      ],
      [
        "▁tayel",
        -10.268702752227837
      ],
      [
        "▁convers",
        -10.268938967709728
      ],
      [
        "▁Bira",
        -10.268945413691434
      ],
      [
        "époque",
        -10.269007952077917
      ],
      [
        "iroir",
        -10.269022066353777
      ],
      [
        "▁kulëer",
        -10.269200261760451
      ],
      [
        "▁kukk",
        -10.26924170068834
      ],
      [
        "▁seef",
        -10.269388934194613
      ],
      [
        "▁loxoom",
        -10.269421711744
      ],
      [
        "▁gymnas",
        -10.269598944150154
      ],
      [
        "▁cohabitent",
        -10.26964165079465
      ],
      [
        "▁dawul",
        -10.269799676427835
      ],
      [
        "▁différentes",
        -10.269925484476882
      ],
      [
        "▁Ko",
        -10.270076524995833
      ],
      [
        "▁suivent",
        -10.270192407350933
      ],
      [
        "▁révoltent",
        -10.270322779771394
      ],
      [
        "▁googu",
        -10.270456831578244
      ],
      [
        "▁serré",
        -10.27046997602814
      ],
      [
        "soup",
        -10.270764095928621
      ],
      [
        "aucun",
        -10.270773312340324
      ],
      [
        "▁wutal",
        -10.271023005164928
      ],
      [
        "▁xeex",
        -10.271090096306294
      ],
      [
        "ëlë",
        -10.271170713616165
      ],
      [
        "▁fatt",
        -10.271345783805275
      ],
      [
        "▁janool",
        -10.271425060653877
      ],
      [
        "▁wenn",
        -10.271519970358904
      ],
      [
        "▁par-là",
        -10.271609222842251
      ],
      [
        "▁armes",
        -10.271811074773073
      ],
      [
        "▁D'autre",
        -10.271901700141163
      ],
      [
        "▁gone",
        -10.272185801608194
      ],
      [
        "ngalu",
        -10.27227633628192
      ],
      [
        "▁dégg",
        -10.272591260589813
      ],
      [
        "▁jàll",
        -10.272627088228761
      ],
      [
        "▁coule",
        -10.272774725081495
      ],
      [
        "▁n'allai",
        -10.272842857514632
      ],
      [
        "▁tàkk",
        -10.273031823484184
      ],
      [
        "▁Sénégal'",
        -10.273103636080151
      ],
      [
        "angasin",
        -10.273365701401568
      ],
      [
        "▁ardo",
        -10.273772716787613
      ],
      [
        "▁moroom",
        -10.274231964530841
      ],
      [
        "▁travaillait",
        -10.274329183595633
      ],
      [
        "ayim",
        -10.274335222879781
      ],
      [
        "▁dajal",
        -10.274438561166145
      ],
      [
        "allum",
        -10.274710696593733
      ],
      [
        "▁casque",
        -10.274949261088095
      ],
      [
        "joor",
        -10.274995647629236
      ],
      [
        "▁Ño",
        -10.275023661423422
      ],
      [
        "▁Eux",
        -10.275061565823606
      ],
      [
        "che",
        -10.275167937262115
      ],
      [
        "▁degg",
        -10.275449396056166
      ],
      [
        "▁yeg",
        -10.275621402774325
      ],
      [
        "'entend",
        -10.275633368836026
      ],
      [
        "▁bëggé",
        -10.275674995074148
      ],
      [
        "▁jamb",
        -10.275835216372624
      ],
      [
        "quelles",
        -10.275879796569296
      ],
      [
        "oto",
        -10.275904138019056
      ],
      [
        "▁publi",
        -10.275947775967362
      ],
      [
        "▁Kaay",
        -10.276086341063131
      ],
      [
        "▁ñorul",
        -10.276796073981776
      ],
      [
        "▁sës",
        -10.276815272176368
      ],
      [
        "nive",
        -10.27687252446087
      ],
      [
        "ifique",
        -10.277106347810966
      ],
      [
        "▁mucc",
        -10.277166351730308
      ],
      [
        "outer",
        -10.277458925747501
      ],
      [
        "▁àndal",
        -10.277671550684802
      ],
      [
        "▁sommet",
        -10.27795706762112
      ],
      [
        "ari",
        -10.278134534184758
      ],
      [
        "▁s'asse",
        -10.278241227068182
      ],
      [
        "▁ginnaawam",
        -10.27828414941665
      ],
      [
        "ydina",
        -10.278554840697986
      ],
      [
        "▁ë",
        -10.278818157708784
      ],
      [
        "▁voulez",
        -10.279033462033365
      ],
      [
        "▁police",
        -10.279466781707294
      ],
      [
        "▁écla",
        -10.280049873810444
      ],
      [
        "▁voyage",
        -10.280122913863265
      ],
      [
        "bul",
        -10.280144315398642
      ],
      [
        "gico",
        -10.280496908466684
      ],
      [
        "habitent",
        -10.28072883234778
      ],
      [
        "ste",
        -10.282461267453659
      ],
      [
        "gël",
        -10.282522882541064
      ],
      [
        "▁ñeent",
        -10.28280510214061
      ],
      [
        "▁retrouv",
        -10.283663797096589
      ],
      [
        "lise",
        -10.284486223587097
      ],
      [
        "ëk",
        -10.284596997286153
      ],
      [
        "ëlé",
        -10.28495138394928
      ],
      [
        "éra",
        -10.285128433606413
      ],
      [
        "▁séq",
        -10.286437548058467
      ],
      [
        "▁Léeg",
        -10.287420613306404
      ],
      [
        "▁char",
        -10.287464097842953
      ],
      [
        "▁lieux",
        -10.288620797681562
      ],
      [
        "ñca",
        -10.28878506373348
      ],
      [
        "▁fë",
        -10.28942551081384
      ],
      [
        "▁remplie",
        -10.290093933860074
      ],
      [
        "▁pieds",
        -10.290321648319992
      ],
      [
        "▁voies",
        -10.290334319895065
      ],
      [
        "▁Daawul",
        -10.290695967285682
      ],
      [
        "▁content",
        -10.290857127688012
      ],
      [
        "▁d'elle",
        -10.291241220055415
      ],
      [
        "▁doyu",
        -10.292900063471505
      ],
      [
        "supp",
        -10.29321298284083
      ],
      [
        "▁voulai",
        -10.29325840740488
      ],
      [
        "▁laiss",
        -10.294340379384845
      ],
      [
        "kka",
        -10.294404070215142
      ],
      [
        "▁doomam",
        -10.295309661529062
      ],
      [
        "lusi",
        -10.295409298712613
      ],
      [
        "▁jusqu'ici",
        -10.29619686412352
      ],
      [
        "▁arriva",
        -10.296920539077558
      ],
      [
        "▁fen",
        -10.29888219370241
      ],
      [
        "▁bëtt",
        -10.299296722419955
      ],
      [
        "▁sox",
        -10.299406244860274
      ],
      [
        "▁rentrer",
        -10.299434680383307
      ],
      [
        "C'est",
        -10.299739481907594
      ],
      [
        "▁vertu",
        -10.301671395313988
      ],
      [
        "▁entrer",
        -10.301872563737923
      ],
      [
        "▁jour",
        -10.302751445271605
      ],
      [
        "▁Ex",
        -10.303226929752286
      ],
      [
        "àgg",
        -10.303273133774136
      ],
      [
        "▁élev",
        -10.303577714783014
      ],
      [
        "▁fais",
        -10.304064638758106
      ],
      [
        "nég",
        -10.304209598114284
      ],
      [
        "aix",
        -10.304257876239447
      ],
      [
        "▁Xay",
        -10.304999188102286
      ],
      [
        "'appelle",
        -10.305648030807204
      ],
      [
        "▁Ab",
        -10.30651111377135
      ],
      [
        "ëgg",
        -10.306647809919241
      ],
      [
        "rdo",
        -10.307635978448282
      ],
      [
        "ène",
        -10.307834750100337
      ],
      [
        "illage",
        -10.30784122257705
      ],
      [
        "our",
        -10.307946918622306
      ],
      [
        "saŋ",
        -10.308244646071742
      ],
      [
        "▁fini",
        -10.308264669981831
      ],
      [
        "▁ben",
        -10.309305054092619
      ],
      [
        "▁poli",
        -10.309750608285121
      ],
      [
        "▁conna",
        -10.310191637209991
      ],
      [
        "kkan",
        -10.312515014817386
      ],
      [
        "sard",
        -10.31261017714128
      ],
      [
        "▁lionne",
        -10.312622572318773
      ],
      [
        "euilles",
        -10.313707953585276
      ],
      [
        "▁Jë",
        -10.31407385364219
      ],
      [
        "▁dedans",
        -10.314602510531163
      ],
      [
        "ññ",
        -10.314785928342102
      ],
      [
        "▁bëggu",
        -10.315117920681036
      ],
      [
        "mps",
        -10.31534083436365
      ],
      [
        "iennent",
        -10.316596758728481
      ],
      [
        "lle",
        -10.3166068072239
      ],
      [
        "▁metti",
        -10.318535264697012
      ],
      [
        "ourri",
        -10.318689492727326
      ],
      [
        "▁fût",
        -10.318920001367
      ],
      [
        "▁étage",
        -10.318983974206612
      ],
      [
        "▁gaal",
        -10.320062884212396
      ],
      [
        "▁morts",
        -10.3211332266537
      ],
      [
        "tions",
        -10.322088477799337
      ],
      [
        "endant",
        -10.322601199818433
      ],
      [
        "après-",
        -10.323916647315546
      ],
      [
        "▁Jamm",
        -10.325705710525343
      ],
      [
        "sid",
        -10.32736156125164
      ],
      [
        "▁senn",
        -10.327876270717244
      ],
      [
        "▁bou",
        -10.328333331959918
      ],
      [
        "▁xaritam",
        -10.329276225353894
      ],
      [
        "▁wut",
        -10.329794319826
      ],
      [
        "▁saura",
        -10.330326590434398
      ],
      [
        "▁ouverte",
        -10.33103251721287
      ],
      [
        "ooñii",
        -10.331348483063046
      ],
      [
        "▁lumi",
        -10.332815764467632
      ],
      [
        "▁sta",
        -10.334276451412546
      ],
      [
        "iy",
        -10.334509765416804
      ],
      [
        "▁blanches.",
        -10.336231577624384
      ],
      [
        "gaam",
        -10.336336837790856
      ],
      [
        "▁marchan",
        -10.337408704970724
      ],
      [
        "e-le",
        -10.337651252837428
      ],
      [
        "▁travaill",
        -10.338378478964064
      ],
      [
        "ple",
        -10.338504567738237
      ],
      [
        "▁échelle",
        -10.339120792124515
      ],
      [
        "gu",
        -10.339125209284393
      ],
      [
        "▁taba",
        -10.33912800009358
      ],
      [
        "▁kote",
        -10.340906038786455
      ],
      [
        "nent",
        -10.341633976238233
      ],
      [
        "▁Nde",
        -10.343024414754467
      ],
      [
        "allong",
        -10.343409033817686
      ],
      [
        "▁chauff",
        -10.343911689112904
      ],
      [
        "óox",
        -10.344229901577801
      ],
      [
        "▁jale",
        -10.345502079301422
      ],
      [
        "▁wuu",
        -10.346258319739878
      ],
      [
        "bb",
        -10.347859522062613
      ],
      [
        "▁salaam",
        -10.348578801660231
      ],
      [
        "ërëm",
        -10.349401980244341
      ],
      [
        "emal",
        -10.350460300792863
      ],
      [
        "puisé",
        -10.350640437026716
      ],
      [
        "▁waxtu",
        -10.350974206165803
      ],
      [
        "séd",
        -10.352426885018733
      ],
      [
        "▁donner",
        -10.354440010488204
      ],
      [
        "▁nanu",
        -10.354487398733234
      ],
      [
        "▁exc",
        -10.354595665416037
      ],
      [
        "▁Wooy",
        -10.355859890801163
      ],
      [
        "▁ét",
        -10.356636262869793
      ],
      [
        "▁léeg",
        -10.356783276841625
      ],
      [
        "▁daawu",
        -10.356848223844807
      ],
      [
        "nee",
        -10.358517209720869
      ],
      [
        "▁Don",
        -10.35964428875477
      ],
      [
        "▁tenue",
        -10.360319194114995
      ],
      [
        "aî",
        -10.362994015039657
      ],
      [
        "▁rafetul",
        -10.363033381320811
      ],
      [
        "deau",
        -10.363088091553804
      ],
      [
        "lóo",
        -10.364444346750647
      ],
      [
        "▁s'assi",
        -10.366773499809716
      ],
      [
        "edress",
        -10.368501931176365
      ],
      [
        "▁ndugge",
        -10.369248498688561
      ],
      [
        "ures",
        -10.369278925677596
      ],
      [
        "▁bavard",
        -10.370567066406021
      ],
      [
        "'étudiant",
        -10.371438586792014
      ],
      [
        "▁attrape",
        -10.371961906474844
      ],
      [
        "▁Wau",
        -10.372009352968856
      ],
      [
        "▁seule",
        -10.372121494775907
      ],
      [
        "dina",
        -10.37317938436356
      ],
      [
        "aisir",
        -10.373351569481091
      ],
      [
        "àmm",
        -10.37536759117202
      ],
      [
        "▁melo",
        -10.375488464145725
      ],
      [
        "accompagne",
        -10.376341221370627
      ],
      [
        "▁reconn",
        -10.377579065456844
      ],
      [
        "▁Ñi",
        -10.37779789736214
      ],
      [
        "▁Non",
        -10.378423739256512
      ],
      [
        "C",
        -10.378534124128338
      ],
      [
        "ërëb",
        -10.3795605614186
      ],
      [
        "▁Peut-",
        -10.379725672718719
      ],
      [
        "▁jur",
        -10.382024306593873
      ],
      [
        "▁Mel",
        -10.383193938185473
      ],
      [
        "kke",
        -10.38604640100606
      ],
      [
        "eek",
        -10.386087573392125
      ],
      [
        "okk",
        -10.386395396156239
      ],
      [
        "naaw",
        -10.38772491047594
      ],
      [
        "iyaar",
        -10.387820236914848
      ],
      [
        "seen",
        -10.388170681683484
      ],
      [
        "▁jee",
        -10.389479562823443
      ],
      [
        "▁siy",
        -10.389910426957467
      ],
      [
        "alante",
        -10.39116988403657
      ],
      [
        "▁saisi",
        -10.391253124709968
      ],
      [
        "dé",
        -10.39207267000743
      ],
      [
        "achi",
        -10.392621429690767
      ],
      [
        "waaw",
        -10.393091569508668
      ],
      [
        "▁Sen",
        -10.394488690905625
      ],
      [
        "▁présidents",
        -10.394760363296145
      ],
      [
        "▁née",
        -10.396148433296199
      ],
      [
        "▁lekku",
        -10.398165324569375
      ],
      [
        "uloo",
        -10.398226210060098
      ],
      [
        "▁natte",
        -10.398715497290537
      ],
      [
        "da",
        -10.399492112118416
      ],
      [
        "▁court",
        -10.400546831902332
      ],
      [
        "añ",
        -10.400905272281145
      ],
      [
        "..",
        -10.401116980794937
      ],
      [
        "▁baga",
        -10.401595269939225
      ],
      [
        "▁blanches",
        -10.402974840208458
      ],
      [
        "▁noo",
        -10.403638449010987
      ],
      [
        "▁noon",
        -10.40823948071375
      ],
      [
        "▁tra",
        -10.408956222616723
      ],
      [
        "uñ",
        -10.411743264259147
      ],
      [
        "caak",
        -10.412947539448725
      ],
      [
        "oudre",
        -10.414184215303385
      ],
      [
        "▁après-",
        -10.414950889805493
      ],
      [
        "ffi",
        -10.417832807248754
      ],
      [
        "▁carre",
        -10.420370702263824
      ],
      [
        "▁baar",
        -10.428632870389466
      ],
      [
        "biir",
        -10.43003915197502
      ],
      [
        "▁faç",
        -10.43004476085591
      ],
      [
        "uur",
        -10.431466863456084
      ],
      [
        "▁jours",
        -10.432000756128081
      ],
      [
        "ront",
        -10.432888433354782
      ],
      [
        "▁gé",
        -10.433011996338779
      ],
      [
        "pas",
        -10.433939605283708
      ],
      [
        "▁sar",
        -10.437308048204866
      ],
      [
        "yit",
        -10.437814272792458
      ],
      [
        "enez",
        -10.43834541565375
      ],
      [
        "mant",
        -10.438585529388646
      ],
      [
        "▁s'agiss",
        -10.439918669157473
      ],
      [
        "▁Amin",
        -10.443516469173353
      ],
      [
        "nag",
        -10.443755351547551
      ],
      [
        "-nd",
        -10.443974894573275
      ],
      [
        "▁way",
        -10.444258403796884
      ],
      [
        "lè",
        -10.445682877109167
      ],
      [
        "ter",
        -10.44962941885214
      ],
      [
        "▁réewu",
        -10.45322601715906
      ],
      [
        "onvers",
        -10.454826931044986
      ],
      [
        "▁bols",
        -10.455610011428497
      ],
      [
        "pendant",
        -10.45570810087569
      ],
      [
        "cult",
        -10.458275193086534
      ],
      [
        "sant",
        -10.458927568502283
      ],
      [
        "esquel",
        -10.459863857378812
      ],
      [
        "off",
        -10.461246931241147
      ],
      [
        "orts",
        -10.463311549550456
      ],
      [
        "▁sor",
        -10.46364319391138
      ],
      [
        "agnes",
        -10.464747640608907
      ],
      [
        "▁reveni",
        -10.466217217909204
      ],
      [
        "aintenant",
        -10.466685318056063
      ],
      [
        "▁H",
        -10.466707468351146
      ],
      [
        "▁Mets",
        -10.467184890907676
      ],
      [
        "▁ter",
        -10.468784165074831
      ],
      [
        "▁meneen",
        -10.47212695446516
      ],
      [
        "cot",
        -10.473244167114803
      ],
      [
        "óol",
        -10.473279566154622
      ],
      [
        "▁ciment",
        -10.475430569554863
      ],
      [
        "▁sembl",
        -10.476741252568546
      ],
      [
        "meur",
        -10.47743890605701
      ],
      [
        "toi",
        -10.484826202534569
      ],
      [
        "'euss",
        -10.488200493669169
      ],
      [
        "eau",
        -10.490862156888094
      ],
      [
        "lëer",
        -10.492059403624555
      ],
      [
        "▁petits",
        -10.49250653759776
      ],
      [
        "▁sub",
        -10.49332784623094
      ],
      [
        "waa",
        -10.493841675023408
      ],
      [
        "homme",
        -10.494730113630037
      ],
      [
        "▁mur",
        -10.496896788067112
      ],
      [
        "rie",
        -10.497836286239435
      ],
      [
        "iques",
        -10.499258429620582
      ],
      [
        "naiss",
        -10.500551006403406
      ],
      [
        "he",
        -10.503648578558892
      ],
      [
        "▁étalée",
        -10.503998245472221
      ],
      [
        "▁sé",
        -10.50537337180664
      ],
      [
        "gg",
        -10.512153123074087
      ],
      [
        "▁kà",
        -10.512741234715676
      ],
      [
        "▁nan",
        -10.515147272324132
      ],
      [
        "bine",
        -10.516386812280516
      ],
      [
        "'arbre",
        -10.5173155090637
      ],
      [
        "eux-ci",
        -10.517889081596174
      ],
      [
        "▁trouver",
        -10.518094998253709
      ],
      [
        "min",
        -10.51862361843657
      ],
      [
        "▁Xarit",
        -10.519671042005784
      ],
      [
        "▁posée",
        -10.519867303405617
      ],
      [
        "▁l'as",
        -10.521065238680277
      ],
      [
        "▁cere",
        -10.523094757431444
      ],
      [
        "qu'il",
        -10.525947761383557
      ],
      [
        "la.",
        -10.528977161545148
      ],
      [
        "▁all",
        -10.52942091527263
      ],
      [
        "▁cha",
        -10.530606398750749
      ],
      [
        "waan",
        -10.532545377198629
      ],
      [
        "endu",
        -10.535680475688467
      ],
      [
        "-même",
        -10.537256858779832
      ],
      [
        "n.",
        -10.537958293753729
      ],
      [
        "ŋk",
        -10.53846271735836
      ],
      [
        "▁lakk",
        -10.540288763293168
      ],
      [
        "sage",
        -10.542297813560142
      ],
      [
        "nte",
        -10.545040236843928
      ],
      [
        "▁sortie",
        -10.546285060506701
      ],
      [
        "▁Ñung",
        -10.54756328731939
      ],
      [
        "iron",
        -10.547707348860222
      ],
      [
        "▁voie",
        -10.547931851606258
      ],
      [
        "sées",
        -10.55571481656725
      ],
      [
        "▁monta",
        -10.558085125328766
      ],
      [
        "▁To",
        -10.562119738945905
      ],
      [
        "è",
        -10.56373032903557
      ],
      [
        "▁cou",
        -10.565122394462044
      ],
      [
        "▁Baa",
        -10.567865835289673
      ],
      [
        "▁wal",
        -10.571356579265213
      ],
      [
        "▁rag",
        -10.571859300153225
      ],
      [
        "▁voi",
        -10.572317420395779
      ],
      [
        "▁nur",
        -10.572741646036933
      ],
      [
        "▁nja",
        -10.578158107678453
      ],
      [
        "▁dey",
        -10.578577954477243
      ],
      [
        "aam",
        -10.580290938289624
      ],
      [
        "▁goog",
        -10.581896715591517
      ],
      [
        "nces",
        -10.583791285157046
      ],
      [
        "▁filles",
        -10.58432270735402
      ],
      [
        "▁habite",
        -10.584429142908794
      ],
      [
        "▁duu",
        -10.585249675468821
      ],
      [
        "▁marché.",
        -10.590662286495505
      ],
      [
        "amul",
        -10.591370308297547
      ],
      [
        "▁layu",
        -10.592872388722974
      ],
      [
        "▁pointe",
        -10.593168386478748
      ],
      [
        "▁x",
        -10.593676037432095
      ],
      [
        "▁We",
        -10.601090998593568
      ],
      [
        "▁i",
        -10.603618629461938
      ],
      [
        "▁pot",
        -10.603933905666208
      ],
      [
        "▁manifeste",
        -10.604133131765279
      ],
      [
        "ace",
        -10.60908197263375
      ],
      [
        "▁doxu",
        -10.611464869279873
      ],
      [
        "omu",
        -10.612483681959972
      ],
      [
        "u-",
        -10.613215958347507
      ],
      [
        "rrière",
        -10.6155896071422
      ],
      [
        "din",
        -10.61872890996087
      ],
      [
        "▁tire",
        -10.618793235674985
      ],
      [
        "eg",
        -10.619935172300359
      ],
      [
        "▁saw",
        -10.622661092260175
      ],
      [
        "▁tii",
        -10.6232037389886
      ],
      [
        "▁Bëggu",
        -10.624233427166182
      ],
      [
        "▁arrive",
        -10.628567943455211
      ],
      [
        "maa",
        -10.631259554005165
      ],
      [
        "li",
        -10.632993497896713
      ],
      [
        "▁conçues",
        -10.633893321364038
      ],
      [
        "▁donn",
        -10.635368144041465
      ],
      [
        "▁tir",
        -10.635773270038406
      ],
      [
        "waal",
        -10.635845604610791
      ],
      [
        "▁juu",
        -10.638322090553459
      ],
      [
        "▁cat",
        -10.638724029629113
      ],
      [
        "bal",
        -10.638821331558136
      ],
      [
        "▁Wan",
        -10.64007044922389
      ],
      [
        "▁defee",
        -10.642643767154327
      ],
      [
        "▁jà",
        -10.64765000308296
      ],
      [
        "▁réc",
        -10.649555258982003
      ],
      [
        "wu",
        -10.651027622206108
      ],
      [
        "▁serv",
        -10.65309822546114
      ],
      [
        "ol",
        -10.653303085608567
      ],
      [
        "elui-ci",
        -10.653693139519996
      ],
      [
        "▁Ou",
        -10.655280909781073
      ],
      [
        "egarde",
        -10.662141102201144
      ],
      [
        "abax",
        -10.663725329763194
      ],
      [
        "Il",
        -10.671280094536748
      ],
      [
        "ha",
        -10.674998831908177
      ],
      [
        "▁vent",
        -10.677771905899602
      ],
      [
        "ur.",
        -10.678851415396025
      ],
      [
        "▁rentr",
        -10.678861025114912
      ],
      [
        "▁yonn",
        -10.68135777982241
      ],
      [
        "▁naaj",
        -10.68162915098516
      ],
      [
        "sort",
        -10.681736312840684
      ],
      [
        "bale",
        -10.684714950114088
      ],
      [
        "ire",
        -10.686365095443472
      ],
      [
        "▁Ha",
        -10.690468140617007
      ],
      [
        "▁d'o",
        -10.691235923024003
      ],
      [
        "▁Ang",
        -10.698237988598747
      ],
      [
        "▁lee",
        -10.699017040692425
      ],
      [
        "om",
        -10.699911382111111
      ],
      [
        "rom",
        -10.70197140485162
      ],
      [
        "▁manifest",
        -10.702888738500706
      ],
      [
        "▁accompagne",
        -10.70434273980452
      ],
      [
        "▁tawa",
        -10.704933656381664
      ],
      [
        "opp",
        -10.705473974308298
      ],
      [
        "▁ndi",
        -10.705632258204604
      ],
      [
        "app",
        -10.70602447829272
      ],
      [
        "▁entr",
        -10.707363272989246
      ],
      [
        "▁wo",
        -10.709873746754354
      ],
      [
        "ans",
        -10.71122413278375
      ],
      [
        "lig",
        -10.714432024695789
      ],
      [
        "éri",
        -10.716934649578063
      ],
      [
        "sur",
        -10.717638705490613
      ],
      [
        "veux",
        -10.718318320257529
      ],
      [
        "▁Set",
        -10.724025113240918
      ],
      [
        "▁cu",
        -10.725314415145155
      ],
      [
        "▁eu",
        -10.726466976740186
      ],
      [
        "uróom-ñ",
        -10.726650309764432
      ],
      [
        "rée",
        -10.728304405001838
      ],
      [
        "abar",
        -10.73216416406074
      ],
      [
        "ité",
        -10.732484285127718
      ],
      [
        "▁dà",
        -10.733828086684428
      ],
      [
        "nor",
        -10.734059020243137
      ],
      [
        "▁Leb",
        -10.735414747320178
      ],
      [
        "uits",
        -10.736744780178478
      ],
      [
        "entourant",
        -10.73940926470039
      ],
      [
        "ŋgoo",
        -10.740370338201284
      ],
      [
        "▁jeu",
        -10.743299748045452
      ],
      [
        "orsqu",
        -10.74648967442225
      ],
      [
        "▁pl",
        -10.74844692449513
      ],
      [
        "▁Saa",
        -10.750359526673222
      ],
      [
        "▁poissons",
        -10.758264843098988
      ],
      [
        "▁joxo",
        -10.759484066956318
      ],
      [
        "ets-t",
        -10.762490303203286
      ],
      [
        "yul",
        -10.763184746821697
      ],
      [
        "g.",
        -10.764511537176725
      ],
      [
        "res",
        -10.765948058392908
      ],
      [
        "nez",
        -10.772111628386327
      ],
      [
        "ow",
        -10.772745414002772
      ],
      [
        "▁Maan",
        -10.773291917275975
      ],
      [
        "▁Xan",
        -10.773335546703343
      ],
      [
        "eel",
        -10.774919681630525
      ],
      [
        "ttais",
        -10.776338262491118
      ],
      [
        "▁habit",
        -10.77772438732884
      ],
      [
        "▁xal",
        -10.78035636603113
      ],
      [
        "ang",
        -10.781065850622312
      ],
      [
        "gale",
        -10.783223564671527
      ],
      [
        "ière",
        -10.787673705552342
      ],
      [
        "▁Té",
        -10.789572162404419
      ],
      [
        "tenu",
        -10.795100667024993
      ],
      [
        "▁l'on",
        -10.795773843319477
      ],
      [
        "'il",
        -10.796792462619168
      ],
      [
        "ch",
        -10.797912568346407
      ],
      [
        "▁dencu",
        -10.800772789454498
      ],
      [
        "▁cara",
        -10.805274139234687
      ],
      [
        "ges",
        -10.805853477747773
      ],
      [
        "at.",
        -10.806072504800829
      ],
      [
        "ñoo",
        -10.808447772482344
      ],
      [
        "wax",
        -10.808538322879574
      ],
      [
        "▁comm",
        -10.811130999270507
      ],
      [
        "woo",
        -10.812815208904402
      ],
      [
        "ndio",
        -10.814577930880928
      ],
      [
        "cri",
        -10.814682173217763
      ],
      [
        "lait",
        -10.81485072148995
      ],
      [
        "ande",
        -10.819013176633282
      ],
      [
        "atant",
        -10.822034937540217
      ],
      [
        "▁lë",
        -10.823614859127941
      ],
      [
        "ooy",
        -10.823828480932638
      ],
      [
        "▁gar",
        -10.823891540829612
      ],
      [
        "▁naata",
        -10.824611603803918
      ],
      [
        "▁want",
        -10.824690524378495
      ],
      [
        "posés",
        -10.825996895519914
      ],
      [
        "À",
        -10.832106085248308
      ],
      [
        "▁Fe",
        -10.835619886293223
      ],
      [
        "▁accompagn",
        -10.84734201432862
      ],
      [
        "▁Pl",
        -10.847602685096776
      ],
      [
        "▁Jusqu'",
        -10.847925993910051
      ],
      [
        "▁assise",
        -10.848584774065271
      ],
      [
        "nce",
        -10.849422689103724
      ],
      [
        "kku",
        -10.84957755189593
      ],
      [
        "pi",
        -10.858359523881571
      ],
      [
        "▁jou",
        -10.86079282418196
      ],
      [
        "'aurai",
        -10.863345850571367
      ],
      [
        "ard",
        -10.863532466758162
      ],
      [
        "sin",
        -10.864541066030624
      ],
      [
        "▁desquel",
        -10.866691121136267
      ],
      [
        "dée",
        -10.871350008347965
      ],
      [
        "ide",
        -10.871404498397014
      ],
      [
        "nn",
        -10.871778170032425
      ],
      [
        "entré",
        -10.880752651263185
      ],
      [
        "poisson",
        -10.885597336508285
      ],
      [
        "intérieur",
        -10.89043663446424
      ],
      [
        "pir",
        -10.89280724123072
      ],
      [
        "▁ge",
        -10.893452670449166
      ],
      [
        "ndal",
        -10.900244147455025
      ],
      [
        "autre",
        -10.902563422804969
      ],
      [
        "que.",
        -10.903161438468812
      ],
      [
        "ngel",
        -10.906437493910767
      ],
      [
        "▁seeta",
        -10.90714107422009
      ],
      [
        "éegu",
        -10.911320268138828
      ],
      [
        "aumône",
        -10.91252828070073
      ],
      [
        "▁cin",
        -10.91449196449153
      ],
      [
        "allu",
        -10.914912442602231
      ],
      [
        "argent",
        -10.916238222371904
      ],
      [
        "▁Mas",
        -10.919780025007352
      ],
      [
        "▁voici.",
        -10.92027367275529
      ],
      [
        "alla",
        -10.9213792089598
      ],
      [
        "▁boob",
        -10.926338699078386
      ],
      [
        "▁Fo",
        -10.926807806114995
      ],
      [
        "joo",
        -10.927870809125022
      ],
      [
        "dénk",
        -10.928310559739902
      ],
      [
        "rs",
        -10.92879863616737
      ],
      [
        "ibbisi",
        -10.92881205882436
      ],
      [
        "▁utilis",
        -10.92941837817196
      ],
      [
        "▁désir",
        -10.930077150602642
      ],
      [
        "aaya",
        -10.931239492107618
      ],
      [
        "aan",
        -10.93155867791348
      ],
      [
        "én",
        -10.932800629021546
      ],
      [
        "vers",
        -10.935884867314696
      ],
      [
        "aaroo",
        -10.935925898883532
      ],
      [
        "I",
        -10.936790104968656
      ],
      [
        "▁batta",
        -10.938372836147277
      ],
      [
        "▁yen",
        -10.939087122952982
      ],
      [
        "▁homm",
        -10.939780757505762
      ],
      [
        "▁té",
        -10.944307348333425
      ],
      [
        "table",
        -10.954125123968154
      ],
      [
        "▁auto",
        -10.954830970560959
      ],
      [
        "▁reven",
        -10.955229590246466
      ],
      [
        "vu",
        -10.956072716472324
      ],
      [
        "le.",
        -10.96132967366984
      ],
      [
        "m.",
        -10.962304546803601
      ],
      [
        "ñuul.",
        -10.96316568812886
      ],
      [
        "aujourd'hui",
        -10.967060295324611
      ],
      [
        "▁énorm",
        -10.967828442651536
      ],
      [
        "▁fermé",
        -10.969098190865978
      ],
      [
        "laay",
        -10.969871926157698
      ],
      [
        "takk-der",
        -10.969959755125068
      ],
      [
        "ati",
        -10.975550628764125
      ],
      [
        "▁ri",
        -10.980457239960765
      ],
      [
        "kar",
        -10.982633049125832
      ],
      [
        "▁nj",
        -10.984963227849185
      ],
      [
        "▁Bule",
        -10.986028945588249
      ],
      [
        "acc",
        -10.989560584260955
      ],
      [
        "viendra",
        -10.990691594825392
      ],
      [
        "ro",
        -10.992084571918728
      ],
      [
        "ément",
        -10.997125065787372
      ],
      [
        "rob",
        -10.998285732349208
      ],
      [
        "▁ndà",
        -10.998329504606719
      ],
      [
        "▁lalu",
        -11.005139808387757
      ],
      [
        "▁Gej",
        -11.007140765553117
      ],
      [
        "▁Bë",
        -11.007344584148791
      ],
      [
        "uuti",
        -11.009555458040062
      ],
      [
        "'appelles",
        -11.011569470089881
      ],
      [
        "▁sont-",
        -11.012753486384687
      ],
      [
        "antee",
        -11.013387547840374
      ],
      [
        "tali",
        -11.013745231709922
      ],
      [
        "▁souhait",
        -11.014854595061886
      ],
      [
        "ogul",
        -11.01693552329936
      ],
      [
        "e-t-il",
        -11.01820082596798
      ],
      [
        "sël",
        -11.02026008849645
      ],
      [
        "bëggée",
        -11.021343355134501
      ],
      [
        "vertes",
        -11.021573952839171
      ],
      [
        "jour",
        -11.021591161308285
      ],
      [
        "▁j'e",
        -11.022311635943275
      ],
      [
        "Mon",
        -11.023256532070533
      ],
      [
        "▁cour",
        -11.023668978290138
      ],
      [
        "chaise",
        -11.024163738371454
      ],
      [
        "'opp",
        -11.02496340734452
      ],
      [
        "▁pouv",
        -11.024963567546802
      ],
      [
        "uit",
        -11.026085978313311
      ],
      [
        "çon",
        -11.026895563877602
      ],
      [
        "▁waxa",
        -11.027033230146653
      ],
      [
        "▁demand",
        -11.027436045823704
      ],
      [
        "dessin",
        -11.029890180561699
      ],
      [
        "▁ñuu",
        -11.031127751551903
      ],
      [
        "panier",
        -11.032859277392092
      ],
      [
        "Par",
        -11.033376046017162
      ],
      [
        "marché",
        -11.038364137569758
      ],
      [
        "ñaxtu",
        -11.038384964328689
      ],
      [
        "étudiant",
        -11.038558895563302
      ],
      [
        "▁form",
        -11.039875964629704
      ],
      [
        "sent",
        -11.042276606555632
      ],
      [
        "ppe",
        -11.042398545630045
      ],
      [
        "eû",
        -11.042556365602813
      ],
      [
        "écrit",
        -11.043561798606827
      ],
      [
        "demain",
        -11.045665207183735
      ],
      [
        "▁refus",
        -11.046873005383846
      ],
      [
        "ana",
        -11.047100861007266
      ],
      [
        "côté",
        -11.047383454148882
      ],
      [
        "eut-être",
        -11.05004576954544
      ],
      [
        "gukaay",
        -11.05125268613908
      ],
      [
        "▁envoyé",
        -11.054154393089132
      ],
      [
        "▁jaa",
        -11.056817663695579
      ],
      [
        "xew",
        -11.058423929624828
      ],
      [
        "oy",
        -11.062188941072097
      ],
      [
        "dans",
        -11.063887993851164
      ],
      [
        "ui.",
        -11.063906430692436
      ],
      [
        "oreiller",
        -11.064675913785816
      ],
      [
        "jàpp",
        -11.064890713154245
      ],
      [
        "dit",
        -11.06675394560095
      ],
      [
        "vert",
        -11.067057258561732
      ],
      [
        "▁naat",
        -11.069158204115844
      ],
      [
        "bba",
        -11.069200562881843
      ],
      [
        "aang",
        -11.069441543784226
      ],
      [
        "nge",
        -11.070656685094582
      ],
      [
        "▁faa",
        -11.071763209308203
      ],
      [
        "présent",
        -11.072193396313379
      ],
      [
        "api",
        -11.07348756191597
      ],
      [
        "▁bër",
        -11.074567939822321
      ],
      [
        "vin",
        -11.07816202000097
      ],
      [
        "irent",
        -11.078396893060175
      ],
      [
        "salaam",
        -11.084525305728066
      ],
      [
        "jiit",
        -11.087844805410306
      ],
      [
        "▁Voi",
        -11.089798759986556
      ],
      [
        "jours",
        -11.091854064983632
      ],
      [
        "ima",
        -11.095997161162467
      ],
      [
        "plais",
        -11.100329123515444
      ],
      [
        "ju",
        -11.101585643463846
      ],
      [
        "échelle",
        -11.10201816619344
      ],
      [
        "habite",
        -11.102247584016874
      ],
      [
        "jul",
        -11.10753199478133
      ],
      [
        "jur",
        -11.108940825737488
      ],
      [
        "affaire",
        -11.11113661837042
      ],
      [
        "▁dan",
        -11.114266984870483
      ],
      [
        "▁Àn",
        -11.118873120592106
      ],
      [
        "bout",
        -11.119443202050654
      ],
      [
        "arrive",
        -11.12408854499277
      ],
      [
        "née",
        -11.124363694161808
      ],
      [
        "▁exce",
        -11.125513549261846
      ],
      [
        "rëm",
        -11.126311947617909
      ],
      [
        "▁solu",
        -11.12655613123173
      ],
      [
        "▁Es",
        -11.129832742435926
      ],
      [
        "far",
        -11.131594328531568
      ],
      [
        "em",
        -11.132088908725846
      ],
      [
        "▁fon",
        -11.133887184345635
      ],
      [
        "▁bara",
        -11.136632621476275
      ],
      [
        "ition",
        -11.137336937046936
      ],
      [
        "tué",
        -11.13945408288099
      ],
      [
        "assiette",
        -11.141299821188086
      ],
      [
        "▁ouvert",
        -11.142359096311706
      ],
      [
        "▁yër",
        -11.143253820991895
      ],
      [
        "étage",
        -11.144591158944714
      ],
      [
        "ami",
        -11.145485237893554
      ],
      [
        "▁taal",
        -11.147381963663664
      ],
      [
        "bond",
        -11.147988460463546
      ],
      [
        "▁fû",
        -11.148111723041776
      ],
      [
        "attrape",
        -11.150371270306636
      ],
      [
        "▁veu",
        -11.151777485460364
      ],
      [
        "▁emp",
        -11.152221272258066
      ],
      [
        "été",
        -11.154093351841253
      ],
      [
        "▁allon",
        -11.155594741422773
      ],
      [
        "▁Ré",
        -11.155719658696032
      ],
      [
        "▁Tug",
        -11.158032774556991
      ],
      [
        "▁choses.",
        -11.158287371954584
      ],
      [
        "ille-",
        -11.161786303787437
      ],
      [
        "▁Gisul",
        -11.162326539572906
      ],
      [
        "▁seri",
        -11.16338456121444
      ],
      [
        "sembl",
        -11.16385686283947
      ],
      [
        "E",
        -11.164067562054523
      ],
      [
        "àndarma",
        -11.164652860373202
      ],
      [
        "▁mó",
        -11.165091997987481
      ],
      [
        "iki",
        -11.165457601997364
      ],
      [
        "ô",
        -11.168603572250671
      ],
      [
        "▁rencontr",
        -11.169558464014248
      ],
      [
        "▁appar",
        -11.171224526415282
      ],
      [
        "bou",
        -11.17712460119883
      ],
      [
        "▁personn",
        -11.178482683411785
      ],
      [
        "pax",
        -11.183730472662841
      ],
      [
        "èt",
        -11.18669447745087
      ],
      [
        "art",
        -11.187010270152308
      ],
      [
        "▁course",
        -11.18772981108076
      ],
      [
        "émo",
        -11.188678360925675
      ],
      [
        "▁Ñé",
        -11.192642816037816
      ],
      [
        "jóo",
        -11.196735521641646
      ],
      [
        "▁hu",
        -11.197086359055827
      ],
      [
        "▁nale",
        -11.19846653255553
      ],
      [
        "▁Ju",
        -11.200733069702206
      ],
      [
        "ar.",
        -11.200922465275495
      ],
      [
        "ooñ",
        -11.201226442670517
      ],
      [
        "gay",
        -11.201904264898069
      ],
      [
        "▁Daawu",
        -11.20636782616508
      ],
      [
        "▁pied",
        -11.206585420749978
      ],
      [
        "▁rempli",
        -11.207053257995012
      ],
      [
        "aux",
        -11.207915289498768
      ],
      [
        "▁Degg",
        -11.208052179865641
      ],
      [
        "posé",
        -11.208319382806287
      ],
      [
        "'agir",
        -11.219732505654273
      ],
      [
        "sang",
        -11.22311499773426
      ],
      [
        "▁yónne",
        -11.223973671148212
      ],
      [
        "▁s'app",
        -11.225258660008278
      ],
      [
        "▁së",
        -11.226939315327574
      ],
      [
        "▁présen",
        -11.228111035861694
      ],
      [
        "▁kaasam",
        -11.228911237873893
      ],
      [
        "aire",
        -11.230187052178735
      ],
      [
        "bë",
        -11.230602048484513
      ],
      [
        "ger",
        -11.230609654700414
      ],
      [
        "▁plat",
        -11.232916982913114
      ],
      [
        "▁bâton",
        -11.233328230157179
      ],
      [
        "oyager",
        -11.234118391343575
      ],
      [
        "▁Peut",
        -11.235819953371356
      ],
      [
        "Gis",
        -11.237391324976445
      ],
      [
        "blig",
        -11.238946764494525
      ],
      [
        "uuf",
        -11.240684247835244
      ],
      [
        "▁mbaxan",
        -11.24159983777333
      ],
      [
        "▁concer",
        -11.242097972569612
      ],
      [
        "avant",
        -11.243588662350774
      ],
      [
        "auf",
        -11.244697408921764
      ],
      [
        "▁Yée",
        -11.245019766688891
      ],
      [
        "▁jigée",
        -11.245492146827075
      ],
      [
        "maan",
        -11.248844268196606
      ],
      [
        "▁Pr",
        -11.249376794406565
      ],
      [
        "▁Ag",
        -11.250393058407285
      ],
      [
        "▁jigé",
        -11.250617331638686
      ],
      [
        "▁tente",
        -11.25198794522925
      ],
      [
        "▁naqa",
        -11.252254003861538
      ],
      [
        "ciment",
        -11.25443072154901
      ],
      [
        "▁croi",
        -11.254667753732154
      ],
      [
        "▁différent",
        -11.256264647579723
      ],
      [
        "elu",
        -11.257019246194803
      ],
      [
        "mnasti",
        -11.257923088243647
      ],
      [
        "▁cohabite",
        -11.25810653099467
      ],
      [
        "▁Pe",
        -11.259371991858432
      ],
      [
        "▁yaak",
        -11.259656235958392
      ],
      [
        "▁épo",
        -11.260326409560518
      ],
      [
        "olitesse",
        -11.260570333189422
      ],
      [
        "perç",
        -11.260653024184913
      ],
      [
        "ble",
        -11.260862712209702
      ],
      [
        "▁arme",
        -11.261375777728434
      ],
      [
        "aleeku",
        -11.261735547309925
      ],
      [
        "▁yó",
        -11.262408992324204
      ],
      [
        "▁'ve",
        -11.262745722294346
      ],
      [
        "chelle",
        -11.263148027179922
      ],
      [
        "échan",
        -11.263185734861127
      ],
      [
        "▁étudi",
        -11.263281842028945
      ],
      [
        "▁vérit",
        -11.263410459973743
      ],
      [
        "ommag",
        -11.263520022588727
      ],
      [
        "▁ŋgee",
        -11.26360131392773
      ],
      [
        "cours",
        -11.26453412421997
      ],
      [
        "eaucoup",
        -11.264636470289465
      ],
      [
        "neetar",
        -11.265358295172051
      ],
      [
        "▁fleu",
        -11.26552842169327
      ],
      [
        "▁au-dess",
        -11.265619588783801
      ],
      [
        "▁l'éc",
        -11.265732638334404
      ],
      [
        "▁sout",
        -11.265775988484869
      ],
      [
        "ãŋ",
        -11.26577686795901
      ],
      [
        "▁mê",
        -11.265793801280662
      ],
      [
        "▁dirige",
        -11.26585188809075
      ],
      [
        "irgo",
        -11.26591236343744
      ],
      [
        "çue",
        -11.26592288458785
      ],
      [
        "▁kéw",
        -11.265933584949014
      ],
      [
        "õ",
        -11.265981356483412
      ],
      [
        "]",
        -11.266060699818567
      ],
      [
        "ï",
        -11.266060699818567
      ],
      [
        "í",
        -11.266060699818567
      ],
      [
        "ā",
        -11.266060699818567
      ],
      [
        "ń",
        -11.266060699818567
      ],
      [
        "[",
        -11.266060699818567
      ],
      [
        "▁thé",
        -11.26606399593114
      ],
      [
        "approch",
        -11.266065823574635
      ],
      [
        "stitué",
        -11.266079790407762
      ],
      [
        "tuellement",
        -11.266104824955624
      ],
      [
        "▁s'acco",
        -11.26610644429614
      ],
      [
        "mobil",
        -11.26613548429117
      ],
      [
        "olof",
        -11.266139270253582
      ],
      [
        "▁constru",
        -11.26618422478867
      ],
      [
        "ercle",
        -11.267630176022937
      ],
      [
        "àngal",
        -11.267977803107723
      ],
      [
        "ajal",
        -11.268250648227841
      ],
      [
        "▁descend",
        -11.26851154346954
      ],
      [
        "ecti",
        -11.268621638252926
      ],
      [
        "innaaw",
        -11.268950020191578
      ],
      [
        "▁coute",
        -11.26904215291321
      ],
      [
        "erai",
        -11.269529644081398
      ],
      [
        "▁tenu",
        -11.269629713095608
      ],
      [
        "alité",
        -11.270418922400095
      ],
      [
        "impl",
        -11.27065036118725
      ],
      [
        "googee",
        -11.270728034902689
      ],
      [
        "ceaux",
        -11.27129344709153
      ],
      [
        "s-ci",
        -11.271432629868418
      ],
      [
        "politesse",
        -11.271582440500202
      ],
      [
        "▁Musa",
        -11.27261437457972
      ],
      [
        "t-c",
        -11.272857830457923
      ],
      [
        "gui",
        -11.273001470155423
      ],
      [
        "▁revien",
        -11.27311855358549
      ],
      [
        "vid",
        -11.27321252528385
      ],
      [
        "illir",
        -11.27356118523251
      ],
      [
        "liers",
        -11.274446902987911
      ],
      [
        "▁tiss",
        -11.27510415690114
      ],
      [
        "tbal",
        -11.276071189094424
      ],
      [
        "géey",
        -11.278069189898401
      ],
      [
        "▁l'h",
        -11.278271044653012
      ],
      [
        "▁Pou",
        -11.278874102734079
      ],
      [
        "▁solda",
        -11.279195711145622
      ],
      [
        "tëli",
        -11.280373887810033
      ],
      [
        "▁wë",
        -11.280459720270693
      ],
      [
        "▁dét",
        -11.280462377122403
      ],
      [
        "itude",
        -11.280642667271138
      ],
      [
        "▁conce",
        -11.28197861432421
      ],
      [
        "diku",
        -11.282736161622639
      ],
      [
        "▁dég",
        -11.28320873838921
      ],
      [
        "▁util",
        -11.283491693356241
      ],
      [
        "edd",
        -11.284627942913282
      ],
      [
        "vec",
        -11.284803006143118
      ],
      [
        "épare",
        -11.28554886187137
      ],
      [
        "imnas",
        -11.286168471004778
      ],
      [
        "amaale",
        -11.28717557048318
      ],
      [
        "▁bã",
        -11.287349730650698
      ],
      [
        "▁Pa",
        -11.288004352080918
      ],
      [
        "lam",
        -11.290403559163492
      ],
      [
        "▁yegg",
        -11.291753781042557
      ],
      [
        "▁xel",
        -11.294731250943233
      ],
      [
        "venue",
        -11.295069407028517
      ],
      [
        "▁fanee",
        -11.295142989316592
      ],
      [
        "étend",
        -11.296646641311092
      ],
      [
        "con",
        -11.297598990088568
      ],
      [
        "▁n'av",
        -11.29915550148748
      ],
      [
        "▁Sig",
        -11.300380602442223
      ],
      [
        "▁revi",
        -11.300707826263544
      ],
      [
        "▁vena",
        -11.300934106903439
      ],
      [
        "uche.",
        -11.302519454053915
      ],
      [
        "sont",
        -11.303271765362558
      ],
      [
        "appé",
        -11.304154148384619
      ],
      [
        "▁l'am",
        -11.304727545302036
      ],
      [
        "mmi",
        -11.304741208359086
      ],
      [
        "trent",
        -11.305147443522083
      ],
      [
        "▁Pala",
        -11.30684333030658
      ],
      [
        "'or",
        -11.307197006376057
      ],
      [
        "▁just",
        -11.309582083738634
      ],
      [
        "▁s'asso",
        -11.3097831097254
      ],
      [
        "▁dikk",
        -11.31103670949206
      ],
      [
        "ôn",
        -11.312020624391508
      ],
      [
        "esca",
        -11.314318909474876
      ],
      [
        "▁ho",
        -11.31487390858105
      ],
      [
        "▁Né",
        -11.316834458000752
      ],
      [
        "L'homme",
        -11.319285640535867
      ],
      [
        "▁wer",
        -11.319809686906929
      ],
      [
        "▁kaf",
        -11.320803941607103
      ],
      [
        "ous-même",
        -11.321791868514037
      ],
      [
        "ffr",
        -11.324001059889886
      ],
      [
        "ssion",
        -11.324468622727448
      ],
      [
        "▁Sal",
        -11.324935504755528
      ],
      [
        "isite",
        -11.32560184093851
      ],
      [
        "▁env",
        -11.325685776471605
      ],
      [
        "ssées",
        -11.32648900494391
      ],
      [
        "▁laq",
        -11.32684417517563
      ],
      [
        "ennent",
        -11.327495254252401
      ],
      [
        "ivres",
        -11.328814992039916
      ],
      [
        "nglais",
        -11.328816355805653
      ],
      [
        "▁jëf",
        -11.329587324568738
      ],
      [
        "ëggu",
        -11.331115174353608
      ],
      [
        "▁dellu",
        -11.331213202982193
      ],
      [
        "lave",
        -11.331832632621445
      ],
      [
        "▁daaw",
        -11.332323702356593
      ],
      [
        "bind",
        -11.332365413532958
      ],
      [
        "▁serr",
        -11.333394408453447
      ],
      [
        "▁Lool",
        -11.33487512605764
      ],
      [
        "▁mat",
        -11.334941316345233
      ],
      [
        "Ma",
        -11.339913231473092
      ],
      [
        "ardé",
        -11.340723161011809
      ],
      [
        "aasamaas",
        -11.341531424344552
      ],
      [
        "àpp",
        -11.342068017884827
      ],
      [
        "▁xoole",
        -11.342148509871949
      ],
      [
        "▁dell",
        -11.342598438838966
      ],
      [
        "dal",
        -11.349628308598263
      ],
      [
        "▁vie",
        -11.350236259093304
      ],
      [
        "▁reg",
        -11.350499223585913
      ],
      [
        "▁descen",
        -11.352019543453046
      ],
      [
        "âc",
        -11.352765377767781
      ],
      [
        "▁janoo",
        -11.353381458790512
      ],
      [
        "roit",
        -11.353844341064352
      ],
      [
        "âg",
        -11.355067653534485
      ],
      [
        "▁const",
        -11.357848306194956
      ],
      [
        "éeru",
        -11.357968660512991
      ],
      [
        "kaar",
        -11.36017905437782
      ],
      [
        "alé",
        -11.36308853454766
      ],
      [
        "▁rencontre",
        -11.363205633719332
      ],
      [
        "▁Ga",
        -11.3658444723449
      ],
      [
        "▁Atte",
        -11.366272564696555
      ],
      [
        "▁main",
        -11.36661975863498
      ],
      [
        "ci.",
        -11.367451845222826
      ],
      [
        "leel",
        -11.369119352660988
      ],
      [
        "levé",
        -11.369824148563605
      ],
      [
        "▁travaillai",
        -11.370042134752424
      ],
      [
        "eeku",
        -11.370255567007288
      ],
      [
        "és",
        -11.370348044268368
      ],
      [
        "L",
        -11.370373262947325
      ],
      [
        "einture",
        -11.371417623773015
      ],
      [
        "ller",
        -11.373710542171084
      ],
      [
        "▁cho",
        -11.377502463931542
      ],
      [
        "wuñ",
        -11.377603657443473
      ],
      [
        "-de",
        -11.378253685613796
      ],
      [
        "oogu",
        -11.379518520843865
      ],
      [
        "▁pe",
        -11.380148517302457
      ],
      [
        "▁tek",
        -11.381765010709314
      ],
      [
        "▁pose",
        -11.384282178639623
      ],
      [
        "ber",
        -11.384642630948271
      ],
      [
        "import",
        -11.386177971724827
      ],
      [
        "▁suive",
        -11.386591793691764
      ],
      [
        "▁éga",
        -11.386716149853878
      ],
      [
        "▁rid",
        -11.387327749737892
      ],
      [
        "▁éc",
        -11.38778377221007
      ],
      [
        "nal",
        -11.389152832800887
      ],
      [
        "▁éle",
        -11.389385507327525
      ],
      [
        "▁bah",
        -11.390494978948016
      ],
      [
        "ërë",
        -11.392297038725545
      ],
      [
        "ns",
        -11.394587562966331
      ],
      [
        "▁monte",
        -11.396483709716087
      ],
      [
        "▁ver",
        -11.397808189532501
      ],
      [
        "mon",
        -11.400855694053758
      ],
      [
        "éen",
        -11.407553567574197
      ],
      [
        "ze",
        -11.409120413538663
      ],
      [
        "tudi",
        -11.412925421035816
      ],
      [
        "appelle",
        -11.415015126851307
      ],
      [
        "rte",
        -11.415774846455381
      ],
      [
        "rde",
        -11.415945766817657
      ],
      [
        "▁jë",
        -11.41725534172064
      ],
      [
        "egguma",
        -11.41750857409903
      ],
      [
        "jus",
        -11.418191738898125
      ],
      [
        "xana",
        -11.420294137705378
      ],
      [
        "pier",
        -11.420682142974792
      ],
      [
        "▁xee",
        -11.420799199458157
      ],
      [
        "rru",
        -11.421295207051163
      ],
      [
        "ables",
        -11.425590415139398
      ],
      [
        "▁Gan",
        -11.428567235073688
      ],
      [
        "lage",
        -11.430382617208089
      ],
      [
        "aaw",
        -11.433293555097642
      ],
      [
        "aañ",
        -11.4338293036584
      ],
      [
        "asam",
        -11.434200174387778
      ],
      [
        "▁gr",
        -11.434379615034764
      ],
      [
        "▁see",
        -11.441670114212164
      ],
      [
        "ompa",
        -11.442664774435656
      ],
      [
        "oŋ",
        -11.443672466498093
      ],
      [
        "▁Wut",
        -11.444481325720448
      ],
      [
        "▁aim",
        -11.448000372177326
      ],
      [
        "ontent",
        -11.450314737759024
      ],
      [
        "▁të",
        -11.450790469999705
      ],
      [
        "ddu",
        -11.45219713319674
      ],
      [
        "▁rév",
        -11.452220651639339
      ],
      [
        "▁mets",
        -11.45499782561366
      ],
      [
        "▁après",
        -11.455546133136842
      ],
      [
        "ëri",
        -11.45592652886506
      ],
      [
        "ég",
        -11.45887379161463
      ],
      [
        "kum",
        -11.458980523675626
      ],
      [
        "cien",
        -11.465691939107206
      ],
      [
        "▁baa",
        -11.467933210699883
      ],
      [
        "ekku",
        -11.471457163400961
      ],
      [
        "auc",
        -11.47335109966102
      ],
      [
        "loo",
        -11.477903516582069
      ],
      [
        "etal",
        -11.479372218690472
      ],
      [
        "doo",
        -11.479842702541292
      ],
      [
        "▁jàmma",
        -11.481489750601902
      ],
      [
        "▁wé",
        -11.484743930397833
      ],
      [
        "iers",
        -11.485849139187799
      ],
      [
        "dic",
        -11.488010062210178
      ],
      [
        "he.",
        -11.488681756100997
      ],
      [
        "▁Tan",
        -11.49468738050243
      ],
      [
        "a.",
        -11.500075529744446
      ],
      [
        "aurai",
        -11.501295998674854
      ],
      [
        "▁Ac",
        -11.504511895377755
      ],
      [
        "eff",
        -11.51363437711166
      ],
      [
        "ends-",
        -11.514789646554567
      ],
      [
        "pè",
        -11.516284598241189
      ],
      [
        "▁Sér",
        -11.51643404038282
      ],
      [
        "x-",
        -11.51813291545025
      ],
      [
        "jj",
        -11.51907759321353
      ],
      [
        "aakaar",
        -11.521083880861308
      ],
      [
        "▁ins",
        -11.523388121068997
      ],
      [
        "në",
        -11.52480094963924
      ],
      [
        "spér",
        -11.52906619686695
      ],
      [
        "to",
        -11.531018796857282
      ],
      [
        "cu",
        -11.531659721422933
      ],
      [
        "amp",
        -11.5333691468392
      ],
      [
        "év",
        -11.535127468480628
      ],
      [
        "han",
        -11.538102686152055
      ],
      [
        "ñaar",
        -11.54140607170121
      ],
      [
        "▁écrit",
        -11.542281826114582
      ],
      [
        "gii",
        -11.544007326926213
      ],
      [
        "▁Gu",
        -11.544709217814672
      ],
      [
        "ogu",
        -11.5463006719814
      ],
      [
        "aska",
        -11.548334016704077
      ],
      [
        "ëy",
        -11.548505865596304
      ],
      [
        "anse",
        -11.549629465453817
      ],
      [
        "▁Mà",
        -11.551695991243589
      ],
      [
        "mine",
        -11.553452696541225
      ],
      [
        "▁sec",
        -11.554944361836961
      ],
      [
        "ub",
        -11.557007015230774
      ],
      [
        "▁d'an",
        -11.557701380402708
      ],
      [
        "▁feu",
        -11.560012057561226
      ],
      [
        "'ici",
        -11.561163551743823
      ],
      [
        "▁tend",
        -11.563866736202856
      ],
      [
        "▁wà",
        -11.56484717133181
      ],
      [
        "▁duggu",
        -11.565402228420712
      ],
      [
        "▁l'ar",
        -11.5665929165045
      ],
      [
        "ayer",
        -11.568391461459385
      ],
      [
        "▁Gé",
        -11.56840341645682
      ],
      [
        "trouvé",
        -11.572390466961169
      ],
      [
        "jet",
        -11.572564977593826
      ],
      [
        "▁J'a",
        -11.573737670529649
      ],
      [
        "▁kat",
        -11.57673711013908
      ],
      [
        "▁Ja",
        -11.57922759987431
      ],
      [
        "énk",
        -11.57969319990262
      ],
      [
        "ipi",
        -11.580678697755463
      ],
      [
        "▁fara",
        -11.582493199483208
      ],
      [
        "▁xe",
        -11.584849780503664
      ],
      [
        "aaleekum",
        -11.585949144289513
      ],
      [
        "men",
        -11.58783443803243
      ],
      [
        "antan",
        -11.588399858136054
      ],
      [
        "don",
        -11.591020760239592
      ],
      [
        "mm",
        -11.591159841452315
      ],
      [
        "qué",
        -11.591447060740277
      ],
      [
        "oc",
        -11.592443185981647
      ],
      [
        "▁l'e",
        -11.597865458582774
      ],
      [
        "▁ñuula",
        -11.599700025421436
      ],
      [
        "▁ava",
        -11.60048156790569
      ],
      [
        "photo",
        -11.604291892751808
      ],
      [
        "▁I",
        -11.605119722996553
      ],
      [
        "geant",
        -11.60695957135592
      ],
      [
        "mple",
        -11.607005031336202
      ],
      [
        "suiv",
        -11.608130018348286
      ],
      [
        "drai",
        -11.616162612507424
      ],
      [
        "▁ame",
        -11.616840670709855
      ],
      [
        "tard",
        -11.622309684309068
      ],
      [
        "nnée",
        -11.62502464082122
      ],
      [
        "id",
        -11.62626977036622
      ],
      [
        "▁nek",
        -11.632448603729278
      ],
      [
        "▁polici",
        -11.63673812495272
      ],
      [
        "▁rà",
        -11.642206372665683
      ],
      [
        "Je",
        -11.644055299393859
      ],
      [
        "eu",
        -11.646667895741919
      ],
      [
        "guma",
        -11.648885858274157
      ],
      [
        "ouver",
        -11.650428415444841
      ],
      [
        "▁fil",
        -11.65120069089284
      ],
      [
        "▁ras",
        -11.652687770164626
      ],
      [
        "nc",
        -11.652908016127277
      ],
      [
        "ept",
        -11.658367801695867
      ],
      [
        "verse",
        -11.658861443632324
      ],
      [
        "▁ŋgii.",
        -11.660875085367437
      ],
      [
        "rou",
        -11.6635751810924
      ],
      [
        "omp",
        -11.66404888752185
      ],
      [
        "▁Ji",
        -11.666075545780417
      ],
      [
        "laam",
        -11.666259360508784
      ],
      [
        "▁lama",
        -11.668006780627223
      ],
      [
        "oppi",
        -11.66823202494915
      ],
      [
        "▁regarde",
        -11.674708560275791
      ],
      [
        "gent",
        -11.677657935379475
      ],
      [
        "iss",
        -11.679079823809852
      ],
      [
        "▁cous",
        -11.679429131815263
      ],
      [
        "achet",
        -11.681873123621799
      ],
      [
        "osit",
        -11.68212296838117
      ],
      [
        "▁ense",
        -11.68282661926332
      ],
      [
        "'aime",
        -11.684838160500085
      ],
      [
        "Tu",
        -11.688922087696895
      ],
      [
        "▁ña",
        -11.68953948790844
      ],
      [
        "J'ai",
        -11.693489039168295
      ],
      [
        "uiss",
        -11.693757269317059
      ],
      [
        "urent",
        -11.694458704628639
      ],
      [
        "ut",
        -11.69680540616729
      ],
      [
        "▁envo",
        -11.698230923826523
      ],
      [
        "▁bule",
        -11.701402683201428
      ],
      [
        "▁qua",
        -11.701435024622201
      ],
      [
        "ata",
        -11.702242486184765
      ],
      [
        "lum",
        -11.703226663971947
      ],
      [
        "▁vé",
        -11.703822332942915
      ],
      [
        "elles-",
        -11.70716429170448
      ],
      [
        "lée",
        -11.709876761362283
      ],
      [
        "▁nap",
        -11.714043219988971
      ],
      [
        "▁Nan",
        -11.714077247837078
      ],
      [
        "▁pre",
        -11.722383608292471
      ],
      [
        "be",
        -11.72651261319799
      ],
      [
        "kan",
        -11.73178590137493
      ],
      [
        "se-",
        -11.732415404067035
      ],
      [
        "▁yeneen.",
        -11.734538266195937
      ],
      [
        "▁ay,",
        -11.739191827489726
      ],
      [
        "àlla",
        -11.739541550295254
      ],
      [
        "all",
        -11.742388246638434
      ],
      [
        "▁Ñun",
        -11.743154768378732
      ],
      [
        "uk",
        -11.743275704470044
      ],
      [
        "▁moy",
        -11.743845379311864
      ],
      [
        "tière",
        -11.746740568270699
      ],
      [
        "'apprécie",
        -11.747863694905611
      ],
      [
        "▁wana",
        -11.7530026589149
      ],
      [
        "avais",
        -11.754279164732186
      ],
      [
        "ailli",
        -11.75747252552851
      ],
      [
        "ikoo",
        -11.7620482875308
      ],
      [
        "▁disp",
        -11.764750536510409
      ],
      [
        "ànk",
        -11.767308497591843
      ],
      [
        "t-ce",
        -11.770519585262857
      ],
      [
        "ppartien",
        -11.77294853550035
      ],
      [
        "vo",
        -11.776102460314842
      ],
      [
        "▁Mus",
[...]
