{
  "version": "1.0",
  "truncation": null,
  "padding": null,
  "added_tokens": [
    {
      "id": 0,
      "content": "<cls>",
      "single_word": false,
      "lstrip": false,
      "rstrip": false,
      "normalized": false,
      "special": true
    },
    {
      "id": 1,
      "content": "<sep>",
      "single_word": false,
      "lstrip": false,
      "rstrip": false,
      "normalized": false,
      "special": true
    },
    {
      "id": 2,
      "content": "<unk>",
      "single_word": false,
      "lstrip": false,
      "rstrip": false,
      "normalized": false,
      "special": true
    },
    {
      "id": 3,
      "content": "<pad>",
      "single_word": false,
      "lstrip": false,
      "rstrip": false,
      "normalized": false,
      "special": true
    },
    {
      "id": 4,
      "content": "<mask>",
      "single_word": false,
      "lstrip": false,
      "rstrip": false,
      "normalized": false,
      "special": true
    },
    {
      "id": 5,
      "content": "<s>",
      "single_word": false,
      "lstrip": false,
      "rstrip": false,
      "normalized": false,
      "special": true
    },
    {
      "id": 6,
      "content": "</s>",
      "single_word": false,
      "lstrip": false,
      "rstrip": false,
      "normalized": false,
      "special": true
    }
  ],
  "normalizer": {
    "type": "Replace",
    "pattern": {
      "String": " {2,}"
    },
    "content": " "
  },
  "pre_tokenizer": {
    "type": "Metaspace",
    "replacement": "▁",
    "add_prefix_space": true
  },
  "post_processor": null,
  "decoder": {
    "type": "Metaspace",
    "replacement": "▁",
    "add_prefix_space": true
  },
  "model": {
    "type": "Unigram",
    "unk_id": 2,
    "vocab": [
      [
        "<cls>",
        0.0
      ],
      [
        "<sep>",
        0.0
      ],
      [
        "<unk>",
        0.0
      ],
      [
        "<pad>",
        0.0
      ],
      [
        "<mask>",
        0.0
      ],
      [
        "<s>",
        0.0
      ],
      [
        "</s>",
        0.0
      ],
      [
        "▁",
        -2.3938712720105304
      ],
      [
        ".",
        -3.221785900312258
      ],
      [
        "?",
        -3.604470153805451
      ],
      [
        "!",
        -3.683288887721706
      ],
      [
        ",",
        -4.041040228087035
      ],
      [
        "s",
        -4.0758066863269695
      ],
      [
        "▁la",
        -4.460004919104655
      ],
      [
        "'est",
        -4.56028810881856
      ],
      [
        "u",
        -4.589361524807402
      ],
      [
        "▁dem",
        -4.681800121144171
      ],
      [
        "▁!",
        -4.747854641361563
      ],
      [
        "a",
        -4.759453769595638
      ],
      [
        "e",
        -4.7873808781958695
      ],
      [
        "▁pas",
        -4.815229689995405
      ],
      [
        "▁C",
        -4.8329419285148845
      ],
      [
        "n",
        -4.897497895706054
      ],
      [
        "▁de",
        -4.90769476351715
      ],
      [
        "t",
        -4.970285015251989
      ],
      [
        "▁gi",
        -4.971966649260442
      ],
      [
        "▁qui",
        -4.995998427427055
      ],
      [
        "▁que",
        -5.018068842923002
      ],
      [
        "▁ŋga",
        -5.076586208595604
      ],
      [
        "▁na",
        -5.110019461725115
      ],
      [
        "▁G",
        -5.160794557629222
      ],
      [
        "▁est",
        -5.171253864159737
      ],
      [
        "óor",
        -5.177909967643314
      ],
      [
        "i",
        -5.18186089481961
      ],
      [
        "▁vu",
        -5.2578228587296385
      ],
      [
        "▁naa",
        -5.264402427420055
      ],
      [
        "▁ne",
        -5.284355384479624
      ],
      [
        "▁Il",
        -5.384356016496161
      ],
      [
        "▁Gis",
        -5.403383481137134
      ],
      [
        "▁Tu",
        -5.444522750086956
      ],
      [
        "▁homme",
        -5.468574313844168
      ],
      [
        "▁Je",
        -5.471156558373212
      ],
      [
        "▁un",
        -5.472782092451945
      ],
      [
        "▁été",
        -5.478785353978546
      ],
      [
        "▁L'homme",
        -5.498041886745287
      ],
      [
        "y",
        -5.555519381388257
      ],
      [
        "▁tu",
        -5.559983826419298
      ],
      [
        "l",
        -5.619031501499353
      ],
      [
        "▁ci",
        -5.661047910413406
      ],
      [
        "▁J'ai",
        -5.6862661707396125
      ],
      [
        "▁l'homme",
        -5.742782471965648
      ],
      [
        "▁ñëw",
        -5.744618718703557
      ],
      [
        "▁wax",
        -5.7447047180079265
      ],
      [
        "▁ce",
        -5.780199638635864
      ],
      [
        "r",
        -5.784902663353537
      ],
      [
        "le",
        -5.869655110288328
      ],
      [
        "▁mu",
        -5.872904064928896
      ],
      [
        "▁parti",
        -5.906017213231948
      ],
      [
        "▁nit",
        -5.928030893099729
      ],
      [
        "▁Nit",
        -5.932591056379555
      ],
      [
        "▁góor",
        -5.953596180349161
      ],
      [
        "▁a",
        -5.958236605756784
      ],
      [
        "▁à",
        -5.961608029284333
      ],
      [
        "▁qu'il",
        -5.96781285108899
      ],
      [
        "▁c",
        -5.994047856871774
      ],
      [
        "▁di",
        -6.001339599817369
      ],
      [
        "et",
        -6.028096042391079
      ],
      [
        "▁les",
        -6.030194849878578
      ],
      [
        "▁le",
        -6.063174554362713
      ],
      [
        "à",
        -6.073847028225604
      ],
      [
        "▁sont",
        -6.128269699160065
      ],
      [
        "▁autre",
        -6.1425093313466315
      ],
      [
        "▁cet",
        -6.146048777410842
      ],
      [
        "▁te",
        -6.155138409417662
      ],
      [
        "▁yi",
        -6.155995967090479
      ],
      [
        "é",
        -6.158247007914674
      ],
      [
        "x",
        -6.161726432168334
      ],
      [
        "▁bi",
        -6.17457296983048
      ],
      [
        "▁ŋgi",
        -6.182202346633493
      ],
      [
        "▁ba",
        -6.216555373732763
      ],
      [
        "▁ki",
        -6.241360431122436
      ],
      [
        "eneen",
        -6.267096143787663
      ],
      [
        "▁bëgg",
        -6.297428000050395
      ],
      [
        "▁xale",
        -6.3011361790706175
      ],
      [
        "nt",
        -6.305833292146589
      ],
      [
        "s-t",
        -6.3198039897262035
      ],
      [
        "▁gis",
        -6.323261832700232
      ],
      [
        "▁parle",
        -6.35415040287253
      ],
      [
        "oon",
        -6.359943351824951
      ],
      [
        "▁as",
        -6.37945501534807
      ],
      [
        "▁celui-là",
        -6.38484521141886
      ],
      [
        "al",
        -6.390401904373102
      ],
      [
        "▁ma",
        -6.39522691768253
      ],
      [
        "woon",
        -6.4201476611818125
      ],
      [
        "▁woon",
        -6.429255809217409
      ],
      [
        "▁je",
        -6.444911459671477
      ],
      [
        "▁ka",
        -6.47730659736065
      ],
      [
        "▁xar",
        -6.4986148800909405
      ],
      [
        "▁mi",
        -6.5036895359502775
      ],
      [
        "il",
        -6.504438759092892
      ],
      [
        "▁A",
        -6.511599134301514
      ],
      [
        "▁lui",
        -6.513004013590513
      ],
      [
        "▁voilà",
        -6.525251314016689
      ],
      [
        "▁mouton",
        -6.527157154355642
      ],
      [
        "▁n",
        -6.543103754634516
      ],
      [
        "▁fi",
        -6.54488530204754
      ],
      [
        "m",
        -6.552249346264401
      ],
      [
        "▁il",
        -6.564314897388034
      ],
      [
        "▁toi",
        -6.565684963799576
      ],
      [
        "▁là",
        -6.569333053500922
      ],
      [
        "▁Dem",
        -6.594792384151224
      ],
      [
        "▁demee",
        -6.609349183153881
      ],
      [
        "▁ji",
        -6.6113254611295895
      ],
      [
        "▁moi",
        -6.61175694364495
      ],
      [
        "▁venu",
        -6.612964579464373
      ],
      [
        "▁biir",
        -6.613670676423399
      ],
      [
        "▁laa",
        -6.633911488301754
      ],
      [
        "▁partir",
        -6.637997462076828
      ],
      [
        "▁J",
        -6.643090460028549
      ],
      [
        "▁du",
        -6.645089724941389
      ],
      [
        "▁des",
        -6.64766636517418
      ],
      [
        "▁demul",
        -6.657423816639852
      ],
      [
        "▁enfants",
        -6.667274828849822
      ],
      [
        "▁O",
        -6.667312423593135
      ],
      [
        "o",
        -6.67580086776909
      ],
      [
        "▁en",
        -6.678199318715184
      ],
      [
        "ci",
        -6.694793039253616
      ],
      [
        "▁ya",
        -6.699618566241466
      ],
      [
        "▁Quel",
        -6.707114563749126
      ],
      [
        "▁Ci",
        -6.707737490857301
      ],
      [
        "▁ŋgeen",
        -6.713917464974332
      ],
      [
        "▁dit",
        -6.71475762134636
      ],
      [
        "ù",
        -6.718430169722213
      ],
      [
        "▁se",
        -6.729064721932247
      ],
      [
        "▁tout",
        -6.73710915356712
      ],
      [
        "▁nag",
        -6.750664605838594
      ],
      [
        "▁kenn",
        -6.751717076074714
      ],
      [
        "▁l'intérieur",
        -6.752102213902518
      ],
      [
        "▁ami",
        -6.764612846837661
      ],
      [
        "ul",
        -6.768610438983062
      ],
      [
        "re",
        -6.772160507751728
      ],
      [
        "ne",
        -6.7735285757847965
      ],
      [
        "▁E",
        -6.775919445110006
      ],
      [
        "▁Cet",
        -6.7771217791871186
      ],
      [
        "▁pour",
        -6.783105907402859
      ],
      [
        "-",
        -6.786869747055336
      ],
      [
        "ak",
        -6.792147959053736
      ],
      [
        "▁sa",
        -6.803226874331875
      ],
      [
        "▁Maa",
        -6.812655796468571
      ],
      [
        "▁part",
        -6.8154335324133015
      ],
      [
        "▁n'a",
        -6.8168246902923295
      ],
      [
        "▁peut-",
        -6.824198259814803
      ],
      [
        "▁veux",
        -6.825951313758766
      ],
      [
        "▁vous",
        -6.831310386649628
      ],
      [
        "▁Le",
        -6.851744966293593
      ],
      [
        "▁xarit",
        -6.851854104568309
      ],
      [
        "▁ñi",
        -6.854193419583398
      ],
      [
        "▁Ce",
        -6.8551776646050095
      ],
      [
        "▁Xar",
        -6.868646604689043
      ],
      [
        "▁l",
        -6.872357285552982
      ],
      [
        "▁avec",
        -6.886239273990496
      ],
      [
        "w",
        -6.8866600991820945
      ],
      [
        "▁réer",
        -6.902312092553754
      ],
      [
        "est",
        -6.9026934786937115
      ],
      [
        "▁Les",
        -6.909299765463098
      ],
      [
        "▁ag",
        -6.916865107983348
      ],
      [
        "▁jigéen",
        -6.924455072220789
      ],
      [
        "▁s",
        -6.925606748061611
      ],
      [
        "es",
        -6.941158891179846
      ],
      [
        "▁d",
        -6.966597777646463
      ],
      [
        "▁Qui",
        -6.966643915007852
      ],
      [
        "ont",
        -6.970343261627119
      ],
      [
        "▁L",
        -6.979424136353951
      ],
      [
        "▁si",
        -6.981292149297924
      ],
      [
        "▁moom",
        -6.986635363773808
      ],
      [
        "▁Sée",
        -6.988889382979279
      ],
      [
        "▁moutons",
        -7.00049716738555
      ],
      [
        "▁Comme",
        -7.003371578391939
      ],
      [
        "uñu",
        -7.005551943242377
      ],
      [
        "▁veut",
        -7.018972768429741
      ],
      [
        "▁femme",
        -7.020816091086806
      ],
      [
        "▁Fa",
        -7.031739134733016
      ],
      [
        "oo",
        -7.035520949078092
      ],
      [
        "▁dans",
        -7.0454894244795625
      ],
      [
        "▁Su",
        -7.048426013348358
      ],
      [
        "▁nga",
        -7.051990265848515
      ],
      [
        "▁So",
        -7.058437519513575
      ],
      [
        "▁kooku",
        -7.063143220117077
      ],
      [
        "▁nda",
        -7.063424233944765
      ],
      [
        "▁La",
        -7.064828429642535
      ],
      [
        "▁def",
        -7.0727890349762115
      ],
      [
        "te",
        -7.076514551949143
      ],
      [
        "▁Na",
        -7.081696471213696
      ],
      [
        "▁m",
        -7.086054789952484
      ],
      [
        "▁maison",
        -7.087341796578217
      ],
      [
        "on",
        -7.0910379513610415
      ],
      [
        "▁personne",
        -7.09109061892493
      ],
      [
        "tu",
        -7.09373755924532
      ],
      [
        "▁Que",
        -7.095022732582294
      ],
      [
        "▁k",
        -7.09861385413522
      ],
      [
        "fa",
        -7.099956501323216
      ],
      [
        "is",
        -7.1048457017909605
      ],
      [
        "▁chose",
        -7.107945736629803
      ],
      [
        "▁ni",
        -7.1101736778665625
      ],
      [
        "▁où",
        -7.120547852322768
      ],
      [
        "▁Vous",
        -7.131786449804526
      ],
      [
        "▁ceux-là",
        -7.1326368545201575
      ],
      [
        "▁waa",
        -7.14748393118796
      ],
      [
        "ez",
        -7.1504763539653435
      ],
      [
        "▁va",
        -7.162518928930089
      ],
      [
        "▁ku",
        -7.167796431124108
      ],
      [
        "épp",
        -7.171194817076475
      ],
      [
        "▁y",
        -7.171455970822172
      ],
      [
        "s.",
        -7.1737333388849365
      ],
      [
        "▁aussi",
        -7.179628083842469
      ],
      [
        "▁gens",
        -7.1813456072374855
      ],
      [
        "▁foofu",
        -7.183563667020021
      ],
      [
        "▁Nda",
        -7.186106733582356
      ],
      [
        "▁moo",
        -7.189991695089668
      ],
      [
        "▁doon",
        -7.190179449747147
      ],
      [
        "▁Ma",
        -7.198763611256541
      ],
      [
        "am",
        -7.209496173015703
      ],
      [
        "c",
        -7.211044156449969
      ],
      [
        "▁F",
        -7.226064019221852
      ],
      [
        "▁dana",
        -7.230950582780204
      ],
      [
        "▁baax",
        -7.236184089636144
      ],
      [
        "h",
        -7.238304754801817
      ],
      [
        "▁man",
        -7.239792544908008
      ],
      [
        "▁su",
        -7.243982762894694
      ],
      [
        "▁vois",
        -7.255494035845242
      ],
      [
        "koon",
        -7.262231667484869
      ],
      [
        "▁nañu",
        -7.270566778557015
      ],
      [
        "▁Te",
        -7.274589520919585
      ],
      [
        "ay",
        -7.274907628126535
      ],
      [
        "-là",
        -7.275577403238529
      ],
      [
        "ment",
        -7.278073987792387
      ],
      [
        "▁Du",
        -7.278978892456183
      ],
      [
        "▁jusqu'",
        -7.28097671349871
      ],
      [
        "▁dara",
        -7.281773605475935
      ],
      [
        "▁Xale",
        -7.281905790777178
      ],
      [
        "▁rekk",
        -7.2823625202513895
      ],
      [
        "▁yépp",
        -7.283146678787892
      ],
      [
        "une",
        -7.284012139727881
      ],
      [
        "▁Keneen",
        -7.284068534915377
      ],
      [
        "▁De",
        -7.285925105245997
      ],
      [
        "▁bien",
        -7.28982505483315
      ],
      [
        "▁Yaa",
        -7.294540368999117
      ],
      [
        "▁K",
        -7.296508599651926
      ],
      [
        "▁fu",
        -7.30077233777012
      ],
      [
        "en",
        -7.307574592460512
      ],
      [
        "▁kan",
        -7.316154811277993
      ],
      [
        "...",
        -7.32189147110712
      ],
      [
        "▁ñu",
        -7.322810541838738
      ],
      [
        "▁égaré",
        -7.33315988214945
      ],
      [
        "▁lion",
        -7.335304595873843
      ],
      [
        "▁doŋŋ",
        -7.336896824814305
      ],
      [
        "▁Samba",
        -7.3373526395772934
      ],
      [
        "▁donné",
        -7.337494833160822
      ],
      [
        "▁là-bas",
        -7.337861890921715
      ],
      [
        "▁l'autre",
        -7.33811517965065
      ],
      [
        "▁quelqu'un",
        -7.338323941167663
      ],
      [
        "▁Mais",
        -7.33902637325183
      ],
      [
        "g",
        -7.341040024434875
      ],
      [
        "▁croi",
        -7.3451970381259155
      ],
      [
        "▁fa",
        -7.3487128909474215
      ],
      [
        "▁Ba",
        -7.348985283869743
      ],
      [
        "▁Bëgg",
        -7.353735975364163
      ],
      [
        "▁Da",
        -7.375348431668874
      ],
      [
        "tre",
        -7.3774172429314095
      ],
      [
        "▁quelle",
        -7.37960514818897
      ],
      [
        "igéen",
        -7.390586761590937
      ],
      [
        "▁Moo",
        -7.3932957856905155
      ],
      [
        "or",
        -7.394996738904539
      ],
      [
        "▁celui",
        -7.396482760647231
      ],
      [
        "rç",
        -7.399003264921104
      ],
      [
        "▁lañu",
        -7.401915662580028
      ],
      [
        "▁dee",
        -7.404815689747416
      ],
      [
        "▁Seet",
        -7.405912229529234
      ],
      [
        "ère",
        -7.408644422734643
      ],
      [
        "▁S",
        -7.409899562949492
      ],
      [
        "soo",
        -7.411319171140375
      ],
      [
        "▁fait",
        -7.411431672108064
      ],
      [
        "▁autres",
        -7.413228068736763
      ],
      [
        "it",
        -7.413354883844158
      ],
      [
        "▁D",
        -7.4147443337645464
      ],
      [
        "▁Mi",
        -7.424159482904226
      ],
      [
        "▁ñoo",
        -7.42445419804296
      ],
      [
        "eux",
        -7.428973884575586
      ],
      [
        "▁dul",
        -7.42996479690546
      ],
      [
        "▁Va",
        -7.43083676207033
      ],
      [
        "un",
        -7.4430947640357354
      ],
      [
        "▁parte",
        -7.451539655119558
      ],
      [
        "▁Naka",
        -7.4581527721456435
      ],
      [
        "▁benn",
        -7.45844605436344
      ],
      [
        "▁Un",
        -7.4603573985870515
      ],
      [
        "▁vache",
        -7.461699358101316
      ],
      [
        "▁j",
        -7.463124834065804
      ],
      [
        "ent",
        -7.46313337273622
      ],
      [
        "▁demkoon",
        -7.4660908800844235
      ],
      [
        "▁Laobe",
        -7.468033756604014
      ],
      [
        "▁Waa",
        -7.468557697169677
      ],
      [
        "ël",
        -7.469126198721673
      ],
      [
        "▁Y",
        -7.4711755260452115
      ],
      [
        "▁pars",
        -7.473576467678302
      ],
      [
        "er",
        -7.476474200065469
      ],
      [
        "▁Si",
        -7.505021054119702
      ],
      [
        "êt",
        -7.509699976224689
      ],
      [
        "▁leen",
        -7.513821121735399
      ],
      [
        "▁so",
        -7.514750243276158
      ],
      [
        "▁kër",
        -7.523422955866165
      ],
      [
        "▁S'il",
        -7.524412843084226
      ],
      [
        "▁rien",
        -7.524700700592195
      ],
      [
        "▁ñépp",
        -7.525044322804805
      ],
      [
        "▁ñan",
        -7.525121532700052
      ],
      [
        "▁Kooku",
        -7.525298236380371
      ],
      [
        "▁yooyu",
        -7.526016185863697
      ],
      [
        "k",
        -7.528037258528227
      ],
      [
        "▁Yaw",
        -7.530235827606991
      ],
      [
        "▁P",
        -7.531830478715326
      ],
      [
        "▁Ya",
        -7.534124360224324
      ],
      [
        "▁gii",
        -7.53614727167428
      ],
      [
        "▁À",
        -7.544278764979363
      ],
      [
        "▁parles",
        -7.557969223273613
      ],
      [
        "▁n'es",
        -7.559008566650105
      ],
      [
        "▁fii",
        -7.5596139053445714
      ],
      [
        "de",
        -7.580403123662341
      ],
      [
        "▁nee",
        -7.582598855859853
      ],
      [
        "▁matin",
        -7.595564164103976
      ],
      [
        "▁Aucun",
        -7.5958813019005555
      ],
      [
        "▁Celui-là",
        -7.596649654794275
      ],
      [
        "▁simplement",
        -7.596772102882671
      ],
      [
        "▁celui-ci",
        -7.597419743507745
      ],
      [
        "▁jeune",
        -7.597441657254352
      ],
      [
        "oi",
        -7.598052641056047
      ],
      [
        "▁tou",
        -7.5981272142669205
      ],
      [
        "ñ",
        -7.598211558192969
      ],
      [
        "▁es",
        -7.598485915862854
      ],
      [
        "▁mépp",
        -7.598723855672608
      ],
      [
        "▁gaynde",
        -7.599137338623372
      ],
      [
        "▁dame",
        -7.600794584859919
      ],
      [
        "la",
        -7.601496348601536
      ],
      [
        "▁Tout",
        -7.603251799620365
      ],
      [
        "▁d'",
        -7.606251227681721
      ],
      [
        "na",
        -7.612646620721566
      ],
      [
        "▁d'autres",
        -7.613176050898485
      ],
      [
        "▁l'",
        -7.615584460287903
      ],
      [
        "C",
        -7.6325586280726565
      ],
      [
        "▁t'a",
        -7.635196753992037
      ],
      [
        "▁son",
        -7.642723323506603
      ],
      [
        "▁M",
        -7.653098088355788
      ],
      [
        "▁avait",
        -7.657875860309132
      ],
      [
        "▁quel",
        -7.6589294653941575
      ],
      [
        "b",
        -7.660506343180895
      ],
      [
        ":",
        -7.666713702450405
      ],
      [
        "▁da",
        -7.667754046348309
      ],
      [
        "▁jëm",
        -7.672240551576925
      ],
      [
        "▁Yéen",
        -7.673511078092752
      ],
      [
        "▁bon",
        -7.676682848684653
      ],
      [
        "-t",
        -7.678060681935504
      ],
      [
        "▁bëggul",
        -7.678252095408826
      ],
      [
        "▁Mu",
        -7.681841731035643
      ],
      [
        "▁viendra",
        -7.687823358812359
      ],
      [
        "▁étai",
        -7.698602161704264
      ],
      [
        "óon",
        -7.706942236700293
      ],
      [
        "naa",
        -7.710888344176443
      ],
      [
        "▁fas",
        -7.71427095091005
      ],
      [
        "▁bii",
        -7.715699827766997
      ],
      [
        "▁ŋgii",
        -7.716428622533867
      ],
      [
        "▁femmes",
        -7.716464246002203
      ],
      [
        "▁Bi",
        -7.720591358879334
      ],
      [
        "ape",
        -7.724604680896762
      ],
      [
        "tes",
        -7.725815989656181
      ],
      [
        "▁Ken",
        -7.728830895273234
      ],
      [
        "▁vienne",
        -7.736222819658556
      ],
      [
        "d",
        -7.737313199258199
      ],
      [
        "▁qu",
        -7.739608086609446
      ],
      [
        "▁Quelle",
        -7.744566522643471
      ],
      [
        "▁am",
        -7.747379864408824
      ],
      [
        "▁n'",
        -7.747606243649694
      ],
      [
        "▁Jox",
        -7.754771911948353
      ],
      [
        "▁génn",
        -7.755163234284922
      ],
      [
        "▁Jaam",
        -7.755523761939597
      ],
      [
        "▁Defe",
        -7.7559230478182695
      ],
      [
        "-ci",
        -7.7559438639200025
      ],
      [
        "▁Cherche",
        -7.756008330791844
      ],
      [
        "▁question",
        -7.75619661039239
      ],
      [
        "▁seulement",
        -7.756401592769869
      ],
      [
        "▁Saint-Louis",
        -7.756505321162727
      ],
      [
        "▁t",
        -7.756638828625448
      ],
      [
        "▁bañ",
        -7.757133675351179
      ],
      [
        "▁soi",
        -7.7572108624698295
      ],
      [
        "▁R",
        -7.759361963087275
      ],
      [
        "▁Demal",
        -7.760516351844351
      ],
      [
        "▁vo",
        -7.760833571764187
      ],
      [
        "▁Xam",
        -7.761393669325681
      ],
      [
        "▁fille",
        -7.762095785307872
      ],
      [
        "gee",
        -7.766268748988583
      ],
      [
        "▁Ndar",
        -7.768415781975241
      ],
      [
        "voir",
        -7.7690604847943465
      ],
      [
        "▁doom",
        -7.770558399513407
      ],
      [
        "▁fut",
        -7.77217291138208
      ],
      [
        "▁Wax",
        -7.776792156912233
      ],
      [
        "▁vas",
        -7.777768617256109
      ],
      [
        "▁no",
        -7.782316357884999
      ],
      [
        "mi",
        -7.783946174058203
      ],
      [
        "▁v",
        -7.786138975012838
      ],
      [
        "que",
        -7.7894313432599915
      ],
      [
        "▁Mon",
        -7.793902503085258
      ],
      [
        "een",
        -7.807204835811639
      ],
      [
        "ê",
        -7.807248190820426
      ],
      [
        "▁Li",
        -7.808183624119183
      ],
      [
        "▁nul",
        -7.810132594917074
      ],
      [
        "▁Bu",
        -7.821261506634762
      ],
      [
        "▁V",
        -7.824399891454123
      ],
      [
        "▁qu'",
        -7.825714865315206
      ],
      [
        "▁daa",
        -7.830493699593379
      ],
      [
        "▁kii",
        -7.831462771917083
      ],
      [
        "▁Di",
        -7.831619993238888
      ],
      [
        "ñu",
        -7.836162451095368
      ],
      [
        "ais",
        -7.836773150398763
      ],
      [
        "▁parl",
        -7.838043624216134
      ],
      [
        "▁ca",
        -7.839259636946355
      ],
      [
        "▁liggéey",
        -7.8403626865673175
      ],
      [
        "▁N",
        -7.840457616227966
      ],
      [
        "▁paix",
        -7.8458066368851895
      ],
      [
        "▁Homme",
        -7.846077009663696
      ],
      [
        "▁cheval",
        -7.8462313752778226
      ],
      [
        "▁Xammee",
        -7.846354010868888
      ],
      [
        "▁Qu'il",
        -7.846680601001443
      ],
      [
        "▁dañu",
        -7.846860184633079
      ],
      [
        "▁plus",
        -7.847401628912417
      ],
      [
        "▁yaw",
        -7.848464069291
      ],
      [
        "▁gu",
        -7.850270746839172
      ],
      [
        "▁égarée",
        -7.853166521453753
      ],
      [
        "f",
        -7.854036961028655
      ],
      [
        "▁An",
        -7.856576322976639
      ],
      [
        "an",
        -7.863720449610437
      ],
      [
        "▁ira",
        -7.867530744322304
      ],
      [
        "▁re",
        -7.870571874377644
      ],
      [
        "▁partira",
        -7.8707612129884925
      ],
      [
        "▁B",
        -7.872671252935222
      ],
      [
        "réer",
        -7.876667513620079
      ],
      [
        "▁serai",
        -7.87699174135709
      ],
      [
        "▁lan",
        -7.8787800760141415
      ],
      [
        "▁Man",
        -7.884848394478535
      ],
      [
        "▁defe",
        -7.886878852111921
      ],
      [
        "ces",
        -7.886974199889719
      ],
      [
        "▁passe",
        -7.889105472263223
      ],
      [
        "▁ban",
        -7.8934619480739565
      ],
      [
        "ait",
        -7.894314860312177
      ],
      [
        "▁Sa",
        -7.899137432645643
      ],
      [
        "enn",
        -7.910097349841553
      ],
      [
        "▁partis",
        -7.910578356602596
      ],
      [
        "▁voir",
        -7.924705205690495
      ],
      [
        "é.",
        -7.928195585414501
      ],
      [
        "▁w",
        -7.928405982698859
      ],
      [
        "▁j'a",
        -7.9312169858701695
      ],
      [
        "les",
        -7.936504547018549
      ],
      [
        "vais",
        -7.939093639751001
      ],
      [
        "atim",
        -7.940772214873773
      ],
      [
        "▁dugg",
        -7.945440304944093
      ],
      [
        "▁subë",
        -7.9454632162601335
      ],
      [
        "▁Alors",
        -7.945789391107937
      ],
      [
        "▁Lawbe",
        -7.945793371813572
      ],
      [
        "▁Moussa",
        -7.945954577585114
      ],
      [
        "ette",
        -7.946168888075559
      ],
      [
        "▁d'Europe",
        -7.946285084363028
      ],
      [
        "▁toog",
        -7.946331685537158
      ],
      [
        "▁Fatim",
        -7.946357973668198
      ],
      [
        "▁biti",
        -7.947627406254641
      ],
      [
        "uma",
        -7.950685718507431
      ],
      [
        "▁yeneen",
        -7.953227207908392
      ],
      [
        "G",
        -7.95428671018084
      ],
      [
        "▁ñëwul",
        -7.955012707282849
      ],
      [
        "▁sama",
        -7.957722774286909
      ],
      [
        "▁Koo",
        -7.958842312155738
      ],
      [
        "▁ici",
        -7.960835742111133
      ],
      [
        "▁aujourd'hui",
        -7.965978541764924
      ],
      [
        "▁bu",
        -7.96634098791867
      ],
      [
        "▁par",
        -7.970014752490204
      ],
      [
        "▁ja",
        -7.980703504754835
      ],
      [
        "▁partes",
        -7.980923951318763
      ],
      [
        "▁Voil",
        -7.980979173705396
      ],
      [
        "▁Nou",
        -8.001309785699226
      ],
      [
        "▁Me",
        -8.002640978694503
      ],
      [
        "fin",
        -8.011944273591265
      ],
      [
        "▁C'",
        -8.012373806342554
      ],
      [
        "▁b",
        -8.015872802412776
      ],
      [
        "ons",
        -8.018170897049295
      ],
      [
        "▁entre",
        -8.020840375692053
      ],
      [
        "▁Ñ",
        -8.029550067853297
      ],
      [
        "▁ou",
        -8.036039423009635
      ],
      [
        "▁même",
        -8.041758902983279
      ],
      [
        "▁Mbaa",
        -8.056294329324293
      ],
      [
        "▁dëkk",
        -8.056536158452355
      ],
      [
        "▁acheté",
        -8.056579688947096
      ],
      [
        "▁rek",
        -8.056588968206015
      ],
      [
        "▁Sérère",
        -8.056615121213897
      ],
      [
        "▁néeg",
        -8.056895162304489
      ],
      [
        "▁jaŋg",
        -8.057196751739863
      ],
      [
        "▁ndaw",
        -8.058481598588067
      ],
      [
        "▁bépp",
        -8.058538803288894
      ],
      [
        "▁Tay",
        -8.058894998187075
      ],
      [
        "▁ŋgoon",
        -8.064249393852203
      ],
      [
        "▁Là",
        -8.065235419283068
      ],
      [
        "▁itam",
        -8.067430038503105
      ],
      [
        "'étai",
        -8.068586383254427
      ],
      [
        "est-ce",
        -8.06904064874631
      ],
      [
        "▁tay",
        -8.069076186450193
      ],
      [
        "nd",
        -8.070147735017379
      ],
      [
        "▁seen",
        -8.071734578903648
      ],
      [
        "▁Bon",
        -8.07512112108665
      ],
      [
        "ce",
        -8.077724281728635
      ],
      [
        "▁g",
        -8.07839748442621
      ],
      [
        "▁viennes",
        -8.087326027741735
      ],
      [
        "▁May",
        -8.087451651690623
      ],
      [
        "st-ce",
        -8.089979750579172
      ],
      [
        "ŋga",
        -8.093768279540797
      ],
      [
        "▁ay",
        -8.097470641023447
      ],
      [
        "ag",
        -8.097986541957654
      ],
      [
        "▁connais",
        -8.10189720249647
      ],
      [
        "pp",
        -8.106665087564146
      ],
      [
        "▁...",
        -8.10759593394716
      ],
      [
        "ale",
        -8.110993843663296
      ],
      [
        "ppelle",
        -8.111610357682917
      ],
      [
        "▁may",
        -8.115162553548144
      ],
      [
        "▁eû",
        -8.127879338975664
      ],
      [
        "▁avais",
        -8.128486050429432
      ],
      [
        "▁au",
        -8.128989177657704
      ],
      [
        "▁na.",
        -8.129446306096117
      ],
      [
        "iez",
        -8.13055905163465
      ],
      [
        "▁Doo",
        -8.130855308331085
      ],
      [
        "▁mo",
        -8.135426762086158
      ],
      [
        "▁Am",
        -8.136205570875196
      ],
      [
        "▁L'",
        -8.13685122708414
      ],
      [
        "▁comme",
        -8.137364869344927
      ],
      [
        "▁enfant",
        -8.139527259246197
      ],
      [
        "ra",
        -8.143857069161193
      ],
      [
        "as",
        -8.144104895740977
      ],
      [
        "▁don",
        -8.146284469311995
      ],
      [
        "▁ko",
        -8.154745178882354
      ],
      [
        "elle",
        -8.155621523418155
      ],
      [
        "ngi",
        -8.164401129627803
      ],
      [
        "▁arrivé",
        -8.164947271245804
      ],
      [
        "▁gan",
        -8.167488251671122
      ],
      [
        "▁Woo",
        -8.17019673870507
      ],
      [
        "ee",
        -8.171303043800293
      ],
      [
        "▁rafet",
        -8.17950138848378
      ],
      [
        "oom",
        -8.180063659906798
      ],
      [
        "▁Waaye",
        -8.180971998596993
      ],
      [
        "▁encore",
        -8.181025353076482
      ],
      [
        "▁entier",
        -8.181047216278218
      ],
      [
        "▁Loolu",
        -8.181085916175238
      ],
      [
        "▁allé",
        -8.181189778267125
      ],
      [
        "▁chevaux",
        -8.181211805423315
      ],
      [
        "▁pourtant",
        -8.181573870380792
      ],
      [
        "▁s'en",
        -8.182530897047672
      ],
      [
        "▁Musaa",
        -8.182772734440505
      ],
      [
        "▁Toi",
        -8.1836793568374
      ],
      [
        "gal",
        -8.184691234362356
      ],
      [
        "▁sortir",
        -8.184860766146834
      ],
      [
        "▁Kookule",
        -8.185910178523809
      ],
      [
        "leen",
        -8.188672817622894
      ],
      [
        "▁W",
        -8.18994105827256
      ],
      [
        "▁sax",
        -8.19096036935896
      ],
      [
        "óo",
        -8.19219620231786
      ],
      [
        "▁Noonu",
        -8.195401193329749
      ],
      [
        "▁cherche",
        -8.196967297801509
      ],
      [
        "'habitude",
        -8.19906835066878
      ],
      [
        "▁mais",
        -8.199224769118425
      ],
      [
        "t-il",
        -8.20097545815082
      ],
      [
        "▁Qu",
        -8.201850380131042
      ],
      [
        "▁T",
        -8.202667481459567
      ],
      [
        "▁av",
        -8.204031363564594
      ],
      [
        "ma",
        -8.205594748324732
      ],
      [
        "▁t'ai",
        -8.209404315654552
      ],
      [
        "▁Loo",
        -8.21025672436678
      ],
      [
        "▁bëggée",
        -8.210738331459131
      ],
      [
        "▁Ne",
        -8.216168248126552
      ],
      [
        "ënd",
        -8.226232172785863
      ],
      [
        "el",
        -8.227126046264091
      ],
      [
        "▁vient",
        -8.229800934998488
      ],
      [
        "vous",
        -8.232497689223358
      ],
      [
        "p",
        -8.241555217950252
      ],
      [
        "and",
        -8.244426311036104
      ],
      [
        "ir",
        -8.244983445018276
      ],
      [
        "▁jii",
        -8.252437189924814
      ],
      [
        "gi",
        -8.254603481543969
      ],
      [
        "▁Noon",
        -8.25649297479411
      ],
      [
        "ou",
        -8.258500054162893
      ],
      [
        "▁Ra",
        -8.262627143916403
      ],
      [
        "mbaa",
        -8.267662571877292
      ],
      [
        "▁travail",
        -8.269129090639279
      ],
      [
        "▁ta",
        -8.271893944365466
      ],
      [
        "kk",
        -8.275641715114112
      ],
      [
        "cc",
        -8.276624765775214
      ],
      [
        "▁Fan",
        -8.27781926756938
      ],
      [
        "▁ñ",
        -8.278361015754692
      ],
      [
        "kat",
        -8.286332791569668
      ],
      [
        "▁dé",
        -8.293715148615215
      ],
      [
        "moi",
        -8.298777921683811
      ],
      [
        "▁Laob",
        -8.300053925159528
      ],
      [
        "▁nak",
        -8.309142622472141
      ],
      [
        "▁allai",
        -8.316005822676274
      ],
      [
        "▁boeuf",
        -8.319924727180807
      ],
      [
        "▁yeksi",
        -8.319925650107223
      ],
      [
        "▁Ainsi",
        -8.319925883619188
      ],
      [
        "▁Deŋk",
        -8.319981478938171
      ],
      [
        "▁téer",
        -8.320308523602705
      ],
      [
        "▁dellusi",
        -8.320587594840088
      ],
      [
        "▁l'enfant",
        -8.320944781487174
      ],
      [
        "▁tày",
        -8.321017168930815
      ],
      [
        "▁lequel",
        -8.321702619584904
      ],
      [
        "▁xam",
        -8.322074833134494
      ],
      [
        "▁Parle",
        -8.322593928828939
      ],
      [
        "▁êtes",
        -8.324233614723902
      ],
      [
        "▁seul",
        -8.325310919059577
      ],
      [
        "▁mère",
        -8.325653050236378
      ],
      [
        "▁Oui",
        -8.326716066146723
      ],
      [
        "▁n'ai",
        -8.327773600446756
      ],
      [
        "▁caus",
        -8.328288542725934
      ],
      [
        "▁Moom",
        -8.329403918452488
      ],
      [
        "▁Foofu",
        -8.329739979410437
      ],
      [
        "▁woo",
        -8.331292027509543
      ],
      [
        "▁t'en",
        -8.33144568846977
      ],
      [
        "ée",
        -8.332002985177011
      ],
      [
        "▁Cela",
        -8.332470651197319
      ],
      [
        "▁p",
        -8.333300799590125
      ],
      [
        "▁soir",
        -8.335727053312773
      ],
      [
        "individu",
        -8.337427165441726
      ],
      [
        "éel",
        -8.3387092468959
      ],
      [
        "▁arrivés",
        -8.34086302943357
      ],
      [
        "▁waay",
        -8.341831461594282
      ],
      [
        "▁l'a",
        -8.343667430352209
      ],
      [
        "▁toute",
        -8.344537767515366
      ],
      [
        "▁leneen",
        -8.346518672102171
      ],
      [
        "ieur",
        -8.347300400975968
      ],
      [
        "▁ñooñu",
        -8.350433316020634
      ],
      [
        "▁demande",
        -8.350611093189746
      ],
      [
        "▁wall",
        -8.35190404015077
      ],
      [
        "▁d'un",
        -8.35868336953181
      ],
      [
        "▁fil",
        -8.363536023044517
      ],
      [
        "▁Sur",
        -8.365341376304112
      ],
      [
        "▁jooju",
        -8.388685119217254
      ],
      [
        "ore",
        -8.390030903401518
      ],
      [
        "▁d'autre",
        -8.399337423758002
      ],
      [
        "▁Ben",
        -8.401941699325178
      ],
      [
        "▁m'a",
        -8.40538652987605
      ],
      [
        "ille",
        -8.418838688776477
      ],
      [
        "▁ñooña",
        -8.418950799686229
      ],
      [
        "▁wa",
        -8.429913414783655
      ],
      [
        "▁wan",
        -8.432026204100362
      ],
      [
        "▁ju",
        -8.432353103006609
      ],
      [
        "e.",
        -8.432951759674973
      ],
      [
        "▁Moi",
        -8.441723830062216
      ],
      [
        "▁li",
        -8.447155612690805
      ],
      [
        "▁me",
        -8.447264112879429
      ],
      [
        "▁mën",
        -8.451067527299767
      ],
      [
        "ien",
        -8.453348077660936
      ],
      [
        "ëf",
        -8.456051150566509
      ],
      [
        "ax",
        -8.459416526625224
      ],
      [
        "uis",
        -8.467423460327518
      ],
      [
        "▁pay",
        -8.470414843679617
      ],
      [
        "▁f",
        -8.470471536858923
      ],
      [
        "▁më",
        -8.4782126682665
      ],
      [
        "▁nous",
        -8.481283317039587
      ],
      [
        "quel",
        -8.486432605785684
      ],
      [
        "près",
        -8.48647635632072
      ],
      [
        "▁Aujourd'hui",
        -8.486591047380436
      ],
      [
        "▁d'esprit",
        -8.486591057168257
      ],
      [
        "▁Wolof",
        -8.486615910427853
      ],
      [
        "▁Waxtaan",
        -8.486624812227674
      ],
      [
        "▁croyai",
        -8.486628714970342
      ],
      [
        "▁manière",
        -8.486686783111034
      ],
      [
        "▁taxaw",
        -8.486807322301486
      ],
      [
        "▁Génn",
        -8.486839579107295
      ],
      [
        "▁Donne",
        -8.487798717805124
      ],
      [
        "▁Tugël",
        -8.487913640354307
      ],
      [
        "▁noonu",
        -8.487928106269669
      ],
      [
        "▁doonkoon",
        -8.488243943951861
      ],
      [
        "▁reste",
        -8.488333388577473
      ],
      [
        "▁Mang",
        -8.488403481399207
      ],
      [
        "▁L'un",
        -8.488920624703944
      ],
      [
        "▁fépp",
        -8.489198601709539
      ],
      [
        "▁Waaw",
        -8.48944635811005
      ],
      [
        "▁ànd",
        -8.490153870810337
      ],
      [
        "▁lëf",
        -8.490193899826052
      ],
      [
        "▁sain",
        -8.490848376157599
      ],
      [
        "j",
        -8.491474805888327
      ],
      [
        "▁autre-là",
        -8.492442905189401
      ],
      [
        "▁feneen",
        -8.492501920556915
      ],
      [
        "▁ñaan",
        -8.492854330890925
      ],
      [
        "▁n'étai",
        -8.493024664261116
      ],
      [
        "▁amen",
        -8.493608408845887
      ],
      [
        "▁ville",
        -8.495236025164495
      ],
      [
        "▁Wa",
        -8.495318337902383
      ],
      [
        "▁endroit",
        -8.495568285832867
      ],
      [
        "▁Dama",
        -8.495790861469253
      ],
      [
        "▁chez",
        -8.496690329716685
      ],
      [
        "▁Par",
        -8.49995233927651
      ],
      [
        "▁Ki",
        -8.504394280189
      ],
      [
        "bër",
        -8.509231172510367
      ],
      [
        "▁boobu",
        -8.51233729745108
      ],
      [
        "▁refuse",
        -8.51273879166402
      ],
      [
        "'esp",
        -8.512992626852013
      ],
      [
        "▁boo",
        -8.513003970681588
      ],
      [
        "▁Men",
        -8.521448949558907
      ],
      [
        "▁l'ai",
        -8.52484637981851
      ],
      [
        "connais",
        -8.5249171758722
      ],
      [
        "▁Dan",
        -8.525071648338765
      ],
      [
        "▁Dana",
        -8.531266525309155
      ],
      [
        "▁souhaite",
        -8.53248663660723
      ],
      [
        "▁tax",
        -8.554338455243249
      ],
      [
        "▁alal",
        -8.557039316397338
      ],
      [
        "▁fois",
        -8.55935662225778
      ],
      [
        "▁it",
        -8.560468931216755
      ],
      [
        "▁bir",
        -8.563536446191549
      ],
      [
        "as-",
        -8.564763589869223
      ],
      [
        "▁aurai",
        -8.566395574154598
      ],
      [
        "aar",
        -8.566614093150946
      ],
      [
        "ton",
        -8.568518556467978
      ],
      [
        "▁D'",
        -8.569867959601398
      ],
      [
        "▁moomu",
        -8.572846756311717
      ],
      [
        "ii",
        -8.573589185628682
      ],
      [
        "▁yaa",
        -8.574259013875475
      ],
      [
        "▁Waxa",
        -8.578734662106253
      ],
      [
        "▁Daŋg",
        -8.57902239454521
      ],
      [
        "▁aller",
        -8.587069802377815
      ],
      [
        "▁Dis",
        -8.587189906503339
      ],
      [
        "hez",
        -8.588167702706828
      ],
      [
        "ti",
        -8.590553568497715
      ],
      [
        "ient",
        -8.590728919493012
      ],
      [
        "▁Vas",
        -8.594964843194878
      ],
      [
        "▁n'avai",
        -8.597038674787235
      ],
      [
        "▁jooj",
        -8.59772765986673
      ],
      [
        "▁viens",
        -8.599847326755274
      ],
      [
        "ñee",
        -8.612950196559858
      ],
      [
        "ement",
        -8.625132787047939
      ],
      [
        "vait",
        -8.643135421408807
      ],
      [
        "▁mes",
        -8.6442733382477
      ],
      [
        "▁s'i",
        -8.645206266403244
      ],
      [
        "ki",
        -8.648733994777201
      ],
      [
        "▁ven",
        -8.653735380122384
      ],
      [
        "udd",
        -8.654496434229479
      ],
      [
        "où",
        -8.65603515063643
      ],
      [
        "▁Ñe",
        -8.656392047025449
      ],
      [
        "▁individu",
        -8.661887892461179
      ],
      [
        "▁leur",
        -8.66336457459698
      ],
      [
        "▁livre",
        -8.66544803875501
      ],
      [
        "vant",
        -8.667831428124781
      ],
      [
        "▁doi",
        -8.680899916965537
      ],
      [
        "ë",
        -8.681977156287061
      ],
      [
        "▁lieu",
        -8.684833767714908
      ],
      [
        "▁bûcheron",
        -8.686591047359512
      ],
      [
        "▁auparavant",
        -8.686591049237148
      ],
      [
        "▁fortune",
        -8.686591192911234
      ],
      [
        "▁garçon",
        -8.686591689365681
      ],
      [
        "▁dehors",
        -8.686591710168287
      ],
      [
        "▁maître",
        -8.686591832391851
      ],
      [
        "▁Moontin",
        -8.686593382008187
      ],
      [
        "▁courage",
        -8.686593507591246
      ],
      [
        "▁gentil",
        -8.68660970352974
      ],
      [
        "▁xaalis",
        -8.686613121106898
      ],
      [
        "▁travailleurs",
        -8.686670232484992
      ],
      [
        "▁Ceux-là",
        -8.686737313488258
      ],
      [
        "▁parole",
        -8.686780825636358
      ],
      [
        "▁dëgg",
        -8.686957833628231
      ],
      [
        "▁unique",
        -8.6870586259579
      ],
      [
        "▁Ñii",
        -8.68740564513895
      ],
      [
        "▁kookee",
        -8.687549450437299
      ],
      [
        "▁surtout",
        -8.687778944086048
      ],
      [
        "▁ŋgoogule",
        -8.687999009706658
      ],
      [
        "▁accepte",
        -8.688439635595195
      ],
      [
        "googule",
        -8.688926587700658
      ],
      [
        "▁nekk",
        -8.692261167515344
      ],
      [
        "▁Foo",
        -8.692438083457377
      ],
      [
        "▁revienne",
        -8.693027347787432
      ],
      [
        "▁wet",
        -8.693078338435452
      ],
      [
        "▁reconnu",
        -8.693501187749728
      ],
      [
        "ôt",
        -8.696888229664124
      ],
      [
        "▁beneen",
        -8.698174855740811
      ],
      [
        "▁deey",
        -8.699161692562662
      ],
      [
        "▁eusse",
        -8.699498520761264
      ],
      [
        "ri",
        -8.699890992385177
      ],
      [
        "▁gaa",
        -8.702082160911406
      ],
      [
        "▁beau",
        -8.702275123919927
      ],
      [
        "▁kee",
        -8.703447779428018
      ],
      [
        "▁sorti",
        -8.70542705204732
      ],
      [
        "xee",
        -8.706563598495563
      ],
      [
        "rends",
        -8.706670968509806
      ],
      [
        "▁joge",
        -8.707937250540663
      ],
      [
        "-il",
        -8.71216571800033
      ],
      [
        "eur",
        -8.716210040700041
      ],
      [
        "▁mag",
        -8.71714196560215
      ],
      [
        "▁veni",
        -8.718972218951166
      ],
      [
        "iens",
        -8.719455074982797
      ],
      [
        "ar",
        -8.727160275758825
      ],
      [
        "▁cela",
        -8.727969497578833
      ],
      [
        "▁ñibbi",
        -8.72983412759405
      ],
      [
        "nga",
        -8.730109990513741
      ],
      [
        "age",
        -8.733506975887884
      ],
      [
        "di",
        -8.73367541228835
      ],
      [
        "r.",
        -8.735514758887325
      ],
      [
        "▁bes",
        -8.741071890516901
      ],
      [
        "esquel",
        -8.744205217554331
      ],
      [
        "▁kookuu",
        -8.754214953028608
      ],
      [
        "▁Tou",
        -8.754773256192106
      ],
      [
        "z",
        -8.755173037945866
      ],
      [
        "mu",
        -8.755361833502475
      ],
      [
        "ile",
        -8.755710904196286
      ],
      [
        "▁lanu",
        -8.756575205886858
      ],
      [
        "▁bokk",
        -8.758544698719279
      ],
      [
        "▁enfant-",
        -8.758913727805272
      ],
      [
        "▁be",
        -8.75966875862705
      ],
      [
        "aller",
        -8.761862263825199
      ],
      [
        "▁n'as",
        -8.763253096812422
      ],
      [
        "ral",
        -8.76341105805719
      ],
      [
        "me",
        -8.764952752068496
      ],
      [
        "ba",
        -8.766027047922451
      ],
      [
        "▁donne",
        -8.767739402628274
      ],
      [
        "rent",
        -8.776346489447015
      ],
      [
        "▁t'",
        -8.776524577193527
      ],
      [
        "▁mon",
        -8.77803031081797
      ],
      [
        "▁në",
        -8.7807950953387
      ],
      [
        "kóon",
        -8.785909788670194
      ],
      [
        "▁ye",
        -8.79141582307852
      ],
      [
        "▁J'",
        -8.799713147302826
      ],
      [
        "▁Lu",
        -8.805012015763795
      ],
      [
        "▁alla",
        -8.807006097043317
      ],
      [
        "▁yar",
        -8.809830777643114
      ],
      [
        "▁choses",
        -8.810369800970191
      ],
      [
        "mour",
        -8.814794419816689
      ],
      [
        "▁bà",
        -8.819767398358952
      ],
      [
        "▁set",
        -8.824334168951076
      ],
      [
        "▁Sal",
        -8.830073379811124
      ],
      [
        "▁seet",
        -8.83526387338302
      ],
      [
        "ût",
        -8.854718009788145
      ],
      [
        "▁d'a",
        -8.855183095697639
      ],
      [
        "▁Xo",
        -8.856115012811818
      ],
      [
        "si",
        -8.85680300934381
      ],
      [
        "▁ap",
        -8.85982210908616
      ],
      [
        "▁Bul",
        -8.862770130861849
      ],
      [
        "▁Ka",
        -8.867587082429084
      ],
      [
        "▁pri",
        -8.868933873460595
      ],
      [
        "▁Com",
        -8.87160325085768
      ],
      [
        "▁peu",
        -8.872749718082645
      ],
      [
        "au",
        -8.88142205415642
      ],
      [
        "▁n'en",
        -8.885224009238401
      ],
      [
        "▁X",
        -8.885594859465375
      ],
      [
        "lal",
        -8.885676010458301
      ],
      [
        "▁gisu",
        -8.885769207056272
      ],
      [
        "▁Ŋg",
        -8.886964110754791
      ],
      [
        "obul",
        -8.88725443180668
      ],
      [
        "▁ñooñ",
        -8.897900845149387
      ],
      [
        "▁lool",
        -8.901099089708437
      ],
      [
        "▁jog",
        -8.910027085053406
      ],
      [
        "geen",
        -8.914793154004222
      ],
      [
        "wal",
        -8.921602443276392
      ],
      [
        "ici",
        -8.92413289105788
      ],
      [
        "▁wi",
        -8.929279555606655
      ],
      [
        "▁naŋg",
        -8.932429380822452
      ],
      [
        "ŋgeen",
        -8.932522265962541
      ],
      [
        "▁habituellement",
        -8.936591047340489
      ],
      [
        "»",
        -8.936591047380436
      ],
      [
        "«",
        -8.936591047380436
      ],
      [
        "…",
        -8.936591047380436
      ],
      [
        "▁brave",
        -8.936591371182791
      ],
      [
        "▁Ñëw",
        -8.936591879668779
      ],
      [
        "▁Birayim",
        -8.93659210428954
      ],
      [
        "▁rencontr",
        -8.93659566328518
      ],
      [
        "▁chambre",
        -8.936598919953935
      ],
      [
        "▁petit",
        -8.936599026032766
      ],
      [
        "▁veulent",
        -8.93661812783228
      ],
      [
        "▁Agsil",
        -8.93664448254797
      ],
      [
        "▁ndanka",
        -8.936645225990489
      ],
      [
        "▁ëlëk",
        -8.936665346902688
      ],
      [
        "▁Alfa",
        -8.93667623034045
      ],
      [
        "▁prêt",
        -8.936768259529146
      ],
      [
        "▁Qu'est-ce",
        -8.936887266980307
      ],
      [
        "▁champ",
        -8.936920160906112
      ],
      [
        "▁Gaynd",
        -8.936924545908957
      ],
      [
        "▁assis",
        -8.93694279533273
      ],
      [
        "▁soirée",
        -8.937221020838516
      ],
      [
        "▁Demuloo",
        -8.937270267213046
      ],
      [
        "▁NGo",
        -8.93732895593538
      ],
      [
        "▁vrai",
        -8.937661819961527
      ],
      [
        "▁Qu'",
        -8.937760869153854
      ],
      [
        "▁matinée",
        -8.937809612618741
      ],
      [
        "▁pro",
        -8.937832531890287
      ],
      [
        "▁alors",
        -8.937918544513083
      ],
      [
        "▁nuit",
        -8.93819575164363
      ],
      [
        "▁Ñooñu",
        -8.938393019706993
      ],
      [
        "▁Demuma",
        -8.93869377222438
      ],
      [
        "▁Tann",
        -8.939058059357684
      ],
      [
        "▁kookale",
        -8.939513355473643
      ],
      [
        "▁jaam",
        -8.939584285128408
      ],
      [
        "▁wépp",
        -8.940281831191019
      ],
      [
        "▁donc",
        -8.941274571407032
      ],
      [
        "hoisi",
        -8.941293677058203
      ],
      [
        "▁d'habitude",
        -8.941307278713822
      ],
      [
        "▁Demkoon",
        -8.941825336257166
      ],
      [
        "'agit",
        -8.942987977129212
      ],
      [
        "▁gën",
        -8.943363702494077
      ],
      [
        "▁fenn",
        -8.944581059451858
      ],
      [
        "▁Nil",
        -8.944965763481608
      ],
      [
        "▁noppi",
        -8.94717058849971
      ],
      [
        "▁serais",
        -8.9479388095696
      ],
      [
        "▁you",
        -8.948045427094774
      ],
      [
        "ches",
        -8.9484293676229
      ],
      [
        "▁jamb",
        -8.94982498024147
      ],
      [
        "▁partent",
        -8.951629359026882
      ],
      [
        "▁suba",
        -8.951785934689672
      ],
      [
        "ailleurs",
        -8.955586670214199
      ],
      [
        "▁Yee",
        -8.956160124837748
      ],
      [
        "▁viennent",
        -8.956612811037262
      ],
      [
        "▁Fo",
        -8.957911896216835
      ],
      [
        "▁Ta",
        -8.9585230287636
      ],
      [
        "bon",
        -8.95895081051674
      ],
      [
        "baa",
        -8.960887018848593
      ],
      [
        "ses",
        -8.962397972424558
      ],
      [
        "▁Ni",
        -8.962728453084285
      ],
      [
        "▁fui",
        -8.962785333906002
      ],
      [
        "▁j'",
        -8.964605922481786
      ],
      [
        "▁kooka",
        -8.96471993305931
      ],
      [
        "appelles",
        -8.965776701966924
      ],
      [
        "▁fam",
        -8.968485611287248
      ],
      [
        "▁aime",
        -8.97556654569753
      ],
      [
        "▁n'ira",
        -8.975782909823765
      ],
      [
        "▁Ho",
        -8.975797954824133
      ],
      [
        "egarde",
        -8.976432302919616
      ],
      [
        "ule",
        -8.97657136849243
      ],
      [
        "▁daw",
        -8.983732229256338
      ],
      [
        "▁demain",
        -8.989172344380213
      ],
      [
        "▁Combi",
        -8.993055583061462
      ],
      [
        "ier",
        -8.993487169686206
      ],
      [
        "▁Sama",
        -8.995196114961296
      ],
      [
        "▁demb",
        -8.996043844435691
      ],
      [
        "▁demuñu",
        -8.997931107537664
      ],
      [
        "▁pu",
        -9.000262068766883
      ],
      [
        "▁con",
        -9.003226223656046
      ],
      [
        "ion",
        -9.006552156964453
      ],
      [
        "▁nd",
        -9.007441298046974
      ],
      [
        "▁doo",
        -9.007644065183094
      ],
      [
        "aux",
        -9.008504976899035
      ],
      [
        "vers",
        -9.009495434348612
      ],
      [
        "▁rë",
        -9.010538756975457
      ],
      [
        "û",
        -9.012378548721545
      ],
      [
        "▁été.",
        -9.01322644150651
      ],
      [
        "▁voici",
        -9.017949676119887
      ],
      [
        "▁Ngo",
        -9.023531775441741
      ],
      [
        "▁maye",
        -9.024400260531483
      ],
      [
        "nde",
        -9.025330980042625
      ],
      [
        "ux",
        -9.027719969456225
      ],
      [
        "elui-ci",
        -9.030013977827243
      ],
      [
        "▁Ña",
        -9.03209486301675
      ],
      [
        "wul",
        -9.035349125097254
      ],
      [
        "▁connaiss",
        -9.035962487488797
      ],
      [
        "appartien",
        -9.03736524281158
      ],
      [
        "▁maa",
        -9.037782799414485
      ],
      [
        "nañu",
        -9.041773750589948
      ],
      [
        "▁rée",
        -9.048152061020089
      ],
      [
        "dé",
        -9.050742997142278
      ],
      [
        "▁Noo",
        -9.050917812511432
      ],
      [
        "▁lawoon",
        -9.062250223746563
      ],
      [
        "▁mêmes",
        -9.067317770260882
      ],
      [
        "ut",
        -9.067948593524738
      ],
      [
        "aw",
        -9.070013492369156
      ],
      [
        "▁ngi",
        -9.070414702710707
      ],
      [
        "se",
        -9.071478345827895
      ],
      [
        "qu",
        -9.07308079658921
      ],
      [
        "tout",
        -9.0731384269285
      ],
      [
        "▁xa",
        -9.075201496057522
      ],
      [
        "fu",
        -9.078465884688908
      ],
      [
        "▁mb",
        -9.085018441238704
      ],
      [
        "▁san",
        -9.09292923975153
      ],
      [
        "ez-",
        -9.098954860892645
      ],
      [
        "▁bo",
        -9.099086505221562
      ],
      [
        "▁jà",
        -9.09990655827314
      ],
      [
        "autrefois",
        -9.106960168140946
      ],
      [
        "iggéeykat",
        -9.112010245229436
      ],
      [
        "ache",
        -9.118908316622875
      ],
      [
        "▁nà",
        -9.122347648332088
      ],
      [
        "▁veu",
        -9.129814506251414
      ],
      [
        "â",
        -9.130347462876653
      ],
      [
        "jà",
        -9.13119955442733
      ],
      [
        "▁ñen",
        -9.131363694339063
      ],
      [
        "▁t'app",
        -9.133709039224502
      ],
      [
        "▁cla",
        -9.139832133318514
      ],
      [
        "▁Yo",
        -9.140709358930035
      ],
      [
        "▁voul",
        -9.14223832181227
      ],
      [
        "war",
        -9.145928077875164
      ],
      [
        "ous",
        -9.151138142696627
      ],
      [
        "▁ser",
        -9.154377434955249
      ],
      [
        "off",
        -9.155880992707631
      ],
      [
        "▁partie",
        -9.157780649213825
      ],
      [
        "che",
        -9.1611967892484
      ],
      [
        "▁dey",
        -9.161650063411743
      ],
      [
        "mes",
        -9.165516216255513
      ],
      [
        "nit",
        -9.167201959525418
      ],
      [
        "ur",
        -9.192207867765578
      ],
      [
        "▁Cha",
        -9.196811692136892
      ],
      [
        "lles",
        -9.1970460784944
      ],
      [
        "▁quelqu",
        -9.202068793431813
      ],
      [
        "uille",
        -9.20665276478163
      ],
      [
        "▁Ja",
        -9.210221364568488
      ],
      [
        "kki",
        -9.21910389744516
      ],
      [
        "use",
        -9.220322574609002
      ],
      [
        "ñëw",
        -9.221604583487938
      ],
      [
        "je",
        -9.221795380832646
      ],
      [
        "▁jour",
        -9.227162335094482
      ],
      [
        "▁lekk",
        -9.232919723125363
      ],
      [
        "okk",
        -9.235778016358855
      ],
      [
        "fi",
        -9.239732280165356
      ],
      [
        "▁Seeti",
        -9.241580575177293
      ],
      [
        "▁U",
        -9.244614622646123
      ],
      [
        "vent",
        -9.249998185518274
      ],
      [
        "▁yu",
        -9.250043313036604
      ],
      [
        "▁Yooy",
        -9.251067139156477
      ],
      [
        "▁too",
        -9.254735712658402
      ],
      [
        "heureu",
        -9.255468551261554
      ],
      [
        "▁cha",
        -9.255961390315242
      ],
      [
        "▁See",
        -9.258066923097672
      ],
      [
        "▁Ñaa",
        -9.259122620757148
      ],
      [
        "▁Kan",
        -9.267080570391453
      ],
      [
        "onfie",
        -9.267433110106223
      ],
      [
        "▁nëw",
        -9.268572520895907
      ],
      [
        "▁ñaa",
        -9.269329200320158
      ],
      [
        "▁l'extérieur",
        -9.269924380673901
      ],
      [
        "▁Faranse",
        -9.269924443146214
      ],
      [
        "▁gëléem",
        -9.26992456997602
      ],
      [
        "▁fâch",
        -9.269924604492548
      ],
      [
        "▁appelé",
        -9.269924620905936
      ],
      [
        "▁messager",
        -9.269925002590766
      ],
      [
        "▁lutteur",
        -9.269925215469975
      ],
      [
        "▁meilleur",
        -9.269925269095966
      ],
      [
        "▁instant",
        -9.26992537391817
      ],
      [
        "▁ressemble",
        -9.269925569155818
      ],
      [
        "▁saŋx",
        -9.269925623121507
      ],
      [
        "▁cultive",
        -9.269925679800405
      ],
      [
        "▁chameau",
        -9.269929807409587
      ],
      [
        "▁regard",
        -9.269931453148528
      ],
      [
        "▁ensemble",
        -9.269932024530405
      ],
      [
        "▁plaît",
        -9.269933299583965
      ],
      [
        "▁Sëri",
        -9.269942922429086
      ],
      [
        "échapp",
        -9.269946400585336
      ],
      [
        "▁Yaakaar",
        -9.26997725220718
      ],
      [
        "▁ainsi",
        -9.26998805817749
      ],
      [
        "▁paresseu",
        -9.270012586942592
      ],
      [
        "▁Laisse",
        -9.270085798915288
      ],
      [
        "▁parents",
        -9.270135589833473
      ],
      [
        "▁haut",
        -9.270169168586635
      ],
      [
        "▁dikkul",
        -9.270180482139274
      ],
      [
        "▁d'entre",
        -9.270419917675754
      ],
      [
        "▁jox",
        -9.270483494722722
      ],
      [
        "▁Peut-",
        -9.270507092269838
      ],
      [
        "▁jabar",
        -9.270511529714373
      ],
      [
        "▁Peul",
        -9.270589197780286
      ],
      [
        "▁l'argent",
        -9.27067316511723
      ],
      [
        "▁Autre",
        -9.27082099602432
      ],
      [
        "▁anglais",
        -9.270876847634835
      ],
      [
        "▁n'import",
        -9.271020866591561
      ],
      [
        "▁indi",
        -9.271040804216707
      ],
      [
        "èvre",
        -9.271208307288514
      ],
      [
        "▁vérité",
        -9.271452537880608
      ],
      [
        "▁Abal",
        -9.271517840299694
      ],
      [
        "▁ŋgoogu",
        -9.271585345737332
      ],
      [
        "▁crain",
        -9.271620941760249
      ],
      [
        "▁Pour",
        -9.271728568330056
      ],
      [
        "▁Ici",
        -9.271818032699008
      ],
      [
        "-je",
        -9.271914196293592
      ],
      [
        "▁général",
        -9.272178359914657
      ],
      [
        "bout",
        -9.272569243729015
      ],
      [
        "▁Deg",
        -9.272591825162433
      ],
      [
        "▁ceux-ci",
        -9.272627170773614
      ],
      [
        "llez",
        -9.272869832397603
      ],
      [
        "▁enfant-là",
        -9.273479139017763
      ],
      [
        "▁ñuu",
        -9.273829574727754
      ],
      [
        "▁bonul",
        -9.27472862874683
      ],
      [
        "▁sopp",
        -9.274951228886643
      ],
      [
        "▁beg",
        -9.275114185571969
      ],
      [
        "▁clé",
        -9.275463669368415
      ],
      [
        "▁form",
        -9.275560228144828
      ],
      [
        "▁debout",
        -9.275654609661643
      ],
      [
        "faire",
        -9.27582817787064
      ],
      [
        "▁wóo",
        -9.276173814916788
      ],
      [
        "eux-ci",
        -9.27904488150423
      ],
      [
        "▁passé",
        -9.279381234108882
      ],
      [
        "omprends",
        -9.27982473036173
      ],
      [
        "▁buur",
        -9.28077155068909
      ],
      [
        "▁po",
        -9.28127059938452
      ],
      [
        "oow",
        -9.282328598125705
      ],
      [
        "là",
        -9.283080248499045
      ],
      [
        "ëkk",
        -9.285526852648182
      ],
      [
        "veille",
        -9.285813453104277
      ],
      [
        "▁ver",
        -9.2890365237538
      ],
      [
        "▁homme-ci",
        -9.290378396443888
      ],
      [
        "▁Gisu",
        -9.290938077852465
      ],
      [
        "▁s'",
        -9.291283568763545
      ],
      [
        "ddi",
        -9.292323672263596
      ],
      [
        "erë",
        -9.292692127222589
      ],
      [
        "▁jar",
        -9.29412967794247
      ],
      [
        "ign",
        -9.294641558222029
      ],
      [
        "▁Lui",
        -9.296194188449615
      ],
      [
        "▁daawul",
        -9.296825944004368
      ],
      [
        "▁yaru",
        -9.297511697528257
      ],
      [
        "▁Aie",
        -9.298709457983986
      ],
      [
        "▁Ñu",
        -9.299221305499
      ],
      [
        "▁dois",
        -9.301718601388746
      ],
      [
        "'un",
        -9.303074745669791
      ],
      [
        "▁fan",
        -9.30391445757663
      ],
      [
        "▁booba",
        -9.30431913512492
      ],
      [
        "fait",
        -9.30578046138127
      ],
      [
        "▁Kook",
        -9.306125642366782
      ],
      [
        "▁wu",
        -9.306615372841325
      ],
      [
        "▁daal",
        -9.30767769489117
      ],
      [
        "bi",
        -9.30794796412137
      ],
      [
        "ob",
        -9.308817415581261
      ],
      [
        "ça",
        -9.309090152285062
      ],
      [
        "ku",
        -9.30952467323299
      ],
      [
        "▁heure",
        -9.31167044668131
      ],
      [
        "mm",
        -9.31244804690651
      ],
      [
        "▁pou",
        -9.31483986219739
      ],
      [
        "A",
        -9.31505455574404
      ],
      [
        "▁sais",
        -9.315064150188377
      ],
      [
        "ka",
        -9.315780760744012
      ],
      [
        "▁confie",
        -9.317360444385518
      ],
      [
        "▁ré",
        -9.31773214329301
      ],
      [
        "▁buu",
        -9.317968404960965
      ],
      [
        "'enfant",
        -9.31930685136142
      ],
      [
        "▁woowu",
        -9.321167788416265
      ],
      [
        "▁roi",
        -9.321243126446717
      ],
      [
        "▁woowa",
        -9.321248125657288
      ],
      [
        "▁gui",
        -9.32173407453255
      ],
      [
        "▁xamul",
        -9.324817220535685
      ],
      [
        "ui",
        -9.325548255614056
      ],
      [
        "▁Defa",
        -9.32692774753128
      ],
      [
        "tion",
        -9.32946742638413
      ],
      [
        "▁yooya",
        -9.331841632320973
      ],
      [
        "▁Jam",
        -9.332309480519385
      ],
      [
        "▁ñj",
        -9.33249036262936
      ],
      [
        "v",
        -9.333283217939691
      ],
      [
        "ffi",
        -9.33413352435833
      ],
      [
        "▁sant",
        -9.337565432775317
      ],
      [
        "▁Dé",
        -9.340267908983108
      ],
      [
        "▁Ŋgo",
        -9.343306307238258
      ],
      [
        "âl",
        -9.343762180285408
      ],
      [
        "▁sout",
        -9.348449752453622
      ],
      [
        "▁n'aur",
        -9.348525922588506
      ],
      [
        "▁Dégg",
        -9.349073108971567
      ],
      [
        "▁bar",
        -9.350125607644745
      ],
      [
        "▁Waxul",
        -9.35288618074179
      ],
      [
        "▁parler",
        -9.353558832159631
      ],
      [
        "in",
        -9.358600905923218
      ],
      [
        "▁désire",
        -9.362833696345142
      ],
      [
        "▁Waxu",
        -9.36444340064801
      ],
      [
        "▁fo",
        -9.365018489625516
      ],
      [
        "rage",
        -9.365574250458176
      ],
      [
        "▁ñe",
        -9.368149301300301
      ],
      [
        "▁tel",
        -9.368230220431279
      ],
      [
        "▁mang",
        -9.368628054004343
      ],
      [
        "▁loolu",
        -9.369221392210662
      ],
      [
        "aix",
        -9.375109183350906
      ],
      [
        "lé",
        -9.376133082951693
      ],
      [
        "iennent",
        -9.376991821416887
      ],
      [
        "▁to",
        -9.377794979130117
      ],
      [
        "▁fr",
        -9.37940634586758
      ],
      [
        "able",
        -9.3797472372042
      ],
      [
        "▁allez",
        -9.384624862564657
      ],
      [
        "ant",
        -9.39351452316204
      ],
      [
        "ooñii",
        -9.39378266808657
      ],
      [
        "aay",
        -9.400244963073884
      ],
      [
        "éeg",
        -9.400372201478355
      ],
      [
        "▁Nee",
        -9.400909387500851
      ],
      [
        "▁prie",
        -9.401897475799917
      ],
      [
        "róo",
        -9.403517926211087
      ],
      [
        "ab",
        -9.405451287884587
      ],
      [
        "lui",
        -9.406083640000485
      ],
      [
        "neen",
        -9.409944039691446
      ],
      [
        "tte",
        -9.410021478960186
      ],
      [
        "fois",
        -9.410265381073213
      ],
      [
        "▁n'e",
        -9.410672955032013
      ],
      [
        "int",
        -9.412844220581016
      ],
      [
        "ta",
        -9.416781269819422
      ],
      [
        "eut",
        -9.418542236183368
      ],
      [
        "'aumône",
        -9.426829919750462
      ],
      [
        "▁gra",
        -9.432126878089667
      ],
      [
        "▁Sor",
        -9.434017104650732
      ],
      [
        "▁partai",
        -9.438351071295152
      ],
      [
        "▁juu",
        -9.438437543690162
      ],
      [
        "▁dam",
        -9.443808966342251
      ],
      [
        "▁Certaine",
        -9.444174892813598
      ],
      [
        "mid",
        -9.451869665830344
      ],
      [
        "▁Jée",
        -9.452594984844719
      ],
      [
        "▁pa",
        -9.463931056829356
      ],
      [
        "S",
        -9.46450777778583
      ],
      [
        "▁kook",
        -9.465794468102073
      ],
      [
        "▁jam",
        -9.484551128270457
      ],
      [
        "▁att",
        -9.485965573021899
      ],
      [
        "rain",
        -9.48927012942905
      ],
      [
        "qui",
        -9.491176975738837
      ],
      [
        "irai",
        -9.492394156730391
      ],
      [
        "ages",
        -9.499843917992763
      ],
      [
        "ais-t",
        -9.50078013416621
      ],
      [
        "mal",
        -9.512548125719098
      ],
      [
        "ques",
        -9.512597122414366
      ],
      [
        "endu",
        -9.526607624421711
      ],
      [
        "our",
        -9.528278831671182
      ],
      [
        "▁sou",
        -9.534812108516906
      ],
      [
        "he",
        -9.535680159293623
      ],
      [
        "entre",
        -9.53722594456961
      ],
      [
        "▁Celui",
        -9.538505822462575
      ],
      [
        "▁Au",
        -9.540092368997737
      ],
      [
        "q",
        -9.545658240268573
      ],
      [
        "avait",
        -9.547059524520707
      ],
      [
        "aan",
        -9.547202300920155
      ],
      [
        "▁ter",
        -9.547761602961788
      ],
      [
        "apprécie",
        -9.54777025079055
      ],
      [
        "▁No",
        -9.548103129052272
      ],
      [
        "ité",
        -9.55172429339217
      ],
      [
        "▁Liggéey",
        -9.553364347918311
      ],
      [
        "lle",
        -9.565232867524417
      ],
      [
        "vient",
        -9.566728805174003
      ],
      [
        "▁ndo",
        -9.568974991502483
      ],
      [
        "▁entra",
        -9.569891824008824
      ],
      [
        "dem",
        -9.57201871526534
      ],
      [
        "▁all",
        -9.57213240294877
      ],
      [
        "e-le",
        -9.572937265914797
      ],
      [
        "▁bavard",
        -9.576091511759705
      ],
      [
        "▁seri",
        -9.579029731511891
      ],
      [
        "agg",
        -9.57990019224914
      ],
      [
        "▁batt",
        -9.580464018131575
      ],
      [
        "▁ŋgoo",
        -9.589789896400962
      ],
      [
        "▁men",
        -9.595976148332708
      ],
      [
        "-même",
        -9.597399510600201
      ],
      [
        "▁Jë",
        -9.601285623971524
      ],
      [
        "ko",
        -9.604003721212468
      ],
      [
        "oba",
        -9.609467352485007
      ],
      [
        "wuñu",
        -9.614083541990746
      ],
      [
        "▁Xa",
        -9.61648766013278
      ],
      [
        "nu",
        -9.619919359875373
      ],
      [
        "▁Nag",
        -9.630810699792674
      ],
      [
        "ful",
        -9.635343365934919
      ],
      [
        "▁sot",
        -9.636453089184496
      ],
      [
        "▁Yen",
        -9.63866542698711
      ],
      [
        "▁Ko",
        -9.640205499799542
      ],
      [
        "bokk",
        -9.646957044328447
      ],
      [
        "ew",
        -9.647063510828435
      ],
      [
        "alal",
        -9.647071137631624
      ],
      [
        "lu",
        -9.64834364785617
      ],
      [
        "▁ŋg",
        -9.653590035621741
      ],
      [
        "▁vi",
        -9.654155948703682
      ],
      [
        "ance",
        -9.659023533487352
      ],
      [
        "gul",
        -9.659297513866466
      ],
      [
        "▁e",
        -9.663232474430048
      ],
      [
        "dul",
        -9.663453650687739
      ],
      [
        "▁Baa",
        -9.667017708042945
      ],
      [
        "ool",
        -9.668140971814452
      ],
      [
        "▁l'o",
        -9.670813551937156
      ],
      [
        "gaam",
        -9.674578204076047
      ],
      [
        "après-",
        -9.681393687559824
      ],
      [
        "nee",
        -9.686428561265009
      ],
      [
        "gguma",
        -9.687538537884214
      ],
      [
        "▁cherch",
        -9.695128361662977
      ],
      [
        "▁mba",
        -9.697658592957307
      ],
      [
        "▁co",
        -9.699405576616645
      ],
      [
        "▁Ch",
        -9.699923070140821
      ],
      [
        "▁Att",
        -9.70001462692015
      ],
      [
        "▁confi",
        -9.702231381049181
      ],
      [
        "abal",
        -9.703260891837456
      ],
      [
        "▁Die",
        -9.706640053256423
      ],
      [
        "ers",
        -9.70796963544664
      ],
      [
        "▁nan",
        -9.70801976287201
      ],
      [
        "s-",
        -9.708443517522774
      ],
      [
        "aleekum",
        -9.713144841475259
      ],
      [
        "▁trouve",
        -9.722323452344652
      ],
      [
        "ër",
        -9.72711041584349
      ],
      [
        "▁foof",
        -9.730840720151345
      ],
      [
        "▁sort",
        -9.730969697199338
      ],
      [
        "▁n'ir",
        -9.731821324155169
      ],
      [
        "▁puis",
        -9.732880077030698
      ],
      [
        "▁Foof",
        -9.73299930514227
      ],
      [
        "yi",
        -9.733577218613481
      ],
      [
        "a.",
        -9.734320971855473
      ],
      [
        "▁viendr",
        -9.738149240876606
      ],
      [
        "jóo",
        -9.738258990009662
      ],
      [
        "tant",
        -9.740027694262785
      ],
      [
        "▁pré",
        -9.741125657595738
      ],
      [
        "ence",
        -9.74138826824662
      ],
      [
        "▁bëggu",
        -9.742776153380609
      ],
      [
        "▁gaynd",
        -9.742790452015031
      ],
      [
        "elles-",
        -9.744116649833611
      ],
      [
        "lors",
        -9.744819943825453
      ],
      [
        "▁degg",
        -9.74620104366211
      ],
      [
        "▁né",
        -9.746316666994717
      ],
      [
        "▁connaisse",
        -9.747337312728263
      ],
      [
        "▁parla",
        -9.749584892981769
      ],
      [
        "▁sub",
        -9.749734720653386
      ],
      [
        "▁vill",
        -9.749829112369605
      ],
      [
        "▁daaw",
        -9.750065011305088
      ],
      [
        "▁nopp",
        -9.752285444775234
      ],
      [
        "min",
        -9.75372234690578
      ],
      [
        "▁recon",
        -9.753889723176744
      ],
      [
        "illes",
        -9.754594143537135
      ],
      [
        "è",
        -9.754958615930743
      ],
      [
        "▁rapp",
        -9.755382871393762
      ],
      [
        "ttends",
        -9.755769145332927
      ],
      [
        "onvers",
        -9.756439475774242
      ],
      [
        "▁vou",
        -9.759070362511205
      ],
      [
        "ëk",
        -9.759250736565988
      ],
      [
        "▁To",
        -9.76097784128316
      ],
      [
        "mar",
        -9.761190750133451
      ],
      [
        "▁gë",
        -9.762229314605248
      ],
      [
        "▁mort",
        -9.762896353413183
      ],
      [
        "ccepte",
        -9.764556635743812
      ],
      [
        "▁jaŋ",
        -9.766290906476009
      ],
      [
        "▁génér",
        -9.766293323125206
      ],
      [
        "J",
        -9.766352346172921
      ],
      [
        "à-bas",
        -9.767180053583097
      ],
      [
        "mps",
        -9.769829963723533
      ],
      [
        "É",
        -9.769924380673812
      ],
      [
        "(",
        -9.769924380673812
      ],
      [
        "▁Français",
        -9.769924380690162
      ],
      [
        ")",
        -9.769924380713768
      ],
      [
        "▁impoli",
        -9.76992438073146
      ],
      [
        "▁Niominka.",
        -9.769924380829739
      ],
      [
        "▁tambour",
        -9.769924401739303
      ],
      [
        "▁totalité",
        -9.769924409162039
      ],
      [
        "▁yalwaan",
        -9.769924572703976
      ],
      [
        "áa",
        -9.769925566246958
      ],
      [
        "politesse",
        -9.769925745601036
      ],
      [
        "▁Dites-l",
        -9.76992805399407
      ],
      [
        "▁bouge",
        -9.769934201005473
      ],
      [
        "▁moontin",
        -9.76993843840823
      ],
      [
        "▁répét",
        -9.769943035314316
      ],
      [
        "▁Taxawa",
        -9.769949024629039
      ],
      [
        "▁nouvel",
        -9.76995178471072
      ],
      [
        "▁L'endroit",
        -9.769989474113558
      ],
      [
        "▁gosse",
        -9.770037684332943
      ],
      [
        "▁propos",
        -9.770058994971915
      ],
      [
        "▁descendra",
        -9.770089360512578
      ],
      [
        "▁poli",
        -9.7701345656911
      ],
      [
        "▁Dellu",
        -9.770187251908357
      ],
      [
        "▁yeggee",
        -9.770206414807047
      ],
      [
        "âche",
        -9.770275530873038
      ],
      [
        "▁oreille",
        -9.770286607622038
      ],
      [
        "▁bënn",
        -9.770342906066126
      ],
      [
        "▁certainement",
        -9.770370354174409
      ],
      [
        "▁Wutël",
        -9.770387633914808
      ],
      [
        "▁fanane",
        -9.770392935752577
      ],
      [
        "▁j'apprécie",
        -9.770428591274088
      ],
      [
        "▁Lebou",
        -9.770466333920854
      ],
      [
        "affaire",
        -9.77054932069057
      ],
      [
        "pérer",
        -9.770574654697933
      ],
      [
        "▁cohabitent",
        -9.770643400671458
      ],
      [
        "▁Musta",
        -9.770652457148016
      ],
      [
        "▁présen",
        -9.77072736333417
      ],
      [
        "▁prop",
        -9.770973413790587
      ],
      [
        "▁content",
        -9.77109684131054
      ],
      [
        "▁vous-même",
        -9.771137073949276
      ],
      [
        "ayim",
        -9.771165132175362
      ],
      [
        "▁moi-même",
        -9.771214953012224
      ],
      [
        "drai",
        -9.771245561396126
      ],
      [
        "▁toi-même",
        -9.771310123383175
      ],
      [
        "époque",
        -9.771395832424217
      ],
      [
        "cert",
        -9.771418537363978
      ],
      [
        "▁genre",
        -9.771442539193691
      ],
      [
        "▁raison",
        -9.771788855388257
      ],
      [
        "▁Dugg",
        -9.771951284708372
      ],
      [
        "▁inter",
        -9.772043414525262
      ],
      [
        "▁L'autre",
        -9.772198605165816
      ],
      [
        "▁tayel",
        -9.772267850580574
      ],
      [
        "▁Arr",
        -9.772409769283835
      ],
      [
        "awbe",
        -9.772463197417197
      ],
      [
        "▁t'aurai",
        -9.77250351687928
      ],
      [
        "▁conna",
        -9.773471555875508
      ],
      [
        "èv",
        -9.773721946368028
      ],
      [
        "▁Bira",
        -9.773731168699275
      ],
      [
        "▁trou",
        -9.773824767643418
      ],
      [
        "▁vertu",
        -9.77403221807283
      ],
      [
        "▁dawul",
        -9.774084756928694
      ],
      [
        "▁ardo",
        -9.77412481559778
      ],
      [
        "▁dents",
        -9.774868372235616
      ],
      [
        "▁Kaay",
        -9.775019436391723
      ],
      [
        "▁wenn",
        -9.775027516361043
      ],
      [
        "▁travaillait",
        -9.775070733223739
      ],
      [
        "ît",
        -9.775414413493245
      ],
      [
        "▁feeñ",
        -9.775549295090212
      ],
      [
        "▁port",
        -9.775904755811666
      ],
      [
        "▁doomam",
        -9.776041115994886
      ],
      [
        "▁rafetul",
        -9.776215246456744
      ],
      [
        "▁yëf",
        -9.776510242176265
      ],
      [
        "▁disc",
        -9.776951567085312
      ],
      [
        "▁àndal",
        -9.777234208294956
      ],
      [
        "▁yeg",
        -9.777822156454736
      ],
      [
        "▁par-là",
        -9.777893297837577
      ],
      [
        "▁noir",
        -9.777977549062822
      ],
      [
        "▁Daawul",
        -9.779138345608748
      ],
      [
        "▁lieux",
        -9.779984639822898
      ],
      [
        "▁bëtt",
        -9.780600938047773
      ],
      [
        "▁peut",
        -9.780706883364253
      ],
      [
        "ërëm",
        -9.780952260401161
      ],
      [
        "▁n'allai",
        -9.780998120851315
      ],
      [
        "▁voyage",
        -9.781182642415468
      ],
      [
        "trouvé",
        -9.781668451328457
      ],
      [
        "góor",
        -9.782196009054841
      ],
      [
        "▁lumi",
        -9.784294439521341
      ],
      [
        "▁doyu",
        -9.784412005777291
      ],
      [
        "▁koo",
        -9.784824763401677
      ],
      [
        "▁jusqu'ici",
        -9.785054463199591
      ],
      [
        "gël",
        -9.786471104040311
      ],
      [
        "▁xaritam",
        -9.78742830721763
      ],
      [
        "séd",
        -9.787737528429279
      ],
      [
        "▁Amin",
        -9.7877888341861
      ],
      [
        "rdo",
        -9.788128828554713
      ],
      [
        "▁rentrer",
        -9.78984098912947
      ],
      [
        "ëlé",
        -9.791597681337983
      ],
      [
        "▁Leur",
        -9.791674934087315
      ],
      [
        "ersonne",
        -9.792333624636399
      ],
      [
        "▁mor",
        -9.793381986147796
      ],
      [
        "▁wut",
        -9.793964018300807
      ],
      [
        "▁voya",
        -9.794476909802592
      ],
      [
        "cun",
        -9.794654937735501
      ],
      [
        "▁fen",
        -9.794840040520597
      ],
      [
        "pas",
        -9.795756623842031
      ],
      [
        "▁gaal",
        -9.797157791672408
      ],
      [
        "ndio",
        -9.798364449625321
      ],
      [
        "▁t'e",
        -9.799646200447295
      ],
      [
        "oudr",
        -9.7998803337074
      ],
      [
        "▁qu'e",
        -9.801697297065235
      ],
      [
        "▁jë",
        -9.80220948260435
      ],
      [
        "sard",
        -9.802288716507444
      ],
      [
        "▁Yooyu",
        -9.802764918229968
      ],
      [
        "aucun",
        -9.802766944724077
      ],
      [
        "▁Don",
        -9.803149821234285
      ],
      [
        "▁lionne",
        -9.803364116492059
      ],
      [
        "▁ndà",
        -9.80395423107511
      ],
      [
        "ourri",
        -9.804068476248537
      ],
      [
        "ide",
        -9.804266288687863
      ],
      [
        "▁Ré",
        -9.804420921195316
      ],
      [
        "▁coute",
        -9.805704448584112
      ],
      [
        "lig",
        -9.806883572636853
      ],
      [
        "âg",
        -9.807277762968061
      ],
      [
        "▁bëggé",
        -9.80731433398341
      ],
      [
        "▁réc",
        -9.808293993099348
      ],
      [
        "▁Jamm",
        -9.808636735950284
      ],
      [
        "mmes",
        -9.809299981083296
      ],
      [
        "met",
        -9.809405389713358
      ],
      [
        "▁Ex",
        -9.809724185779892
      ],
      [
        "toi",
        -9.810268656622295
      ],
      [
        "▁foo",
        -9.81150597820211
      ],
      [
        "vé",
        -9.812179080278742
      ],
      [
        "xaw",
        -9.814347810530926
      ],
      [
        "▁disp",
        -9.81555370829357
      ],
      [
        "▁desquel",
        -9.818635565216447
      ],
      [
        "▁Leb",
        -9.818792107270111
      ],
      [
        "ai",
        -9.820128080979263
      ],
      [
        "▁Ñung",
        -9.820464987948629
      ],
      [
        "▁reconn",
        -9.82072255791302
      ],
      [
        "▁Go",
        -9.821365854909049
      ],
      [
        "▁morts",
        -9.821600070602079
      ],
      [
        "étend",
        -9.822340007690531
      ],
      [
        "nnée",
        -9.822801573693052
      ],
      [
        "outer",
        -9.823001856148192
      ],
      [
        "▁trouver",
        -9.823427541516736
      ],
      [
        "▁voit",
        -9.823752714589888
      ],
      [
        "▁ceux",
        -9.825130689539808
      ],
      [
        "ŋk",
        -9.825887500955817
      ],
      [
        "▁Non",
        -9.826103529426408
      ],
      [
        "nq",
        -9.82813605763327
      ],
      [
        "▁ga",
        -9.830273523669206
      ],
      [
        "▁travaill",
        -9.83263853378396
      ],
      [
        "▁jale",
        -9.833594839559371
      ],
      [
        "▁livres",
        -9.83415239308357
      ],
      [
        "▁appelle",
        -9.837262633839757
      ],
      [
        "▁Ñen",
        -9.839137466070117
      ],
      [
        "homme",
        -9.839848895172619
      ],
      [
        "ek",
        -9.840457270527143
      ],
      [
        "▁bë",
        -9.842581017279171
      ],
      [
        "▁ng",
        -9.843704277271055
      ],
      [
        "▁Sen",
        -9.844232042825983
      ],
      [
        "moon",
        -9.8451125733515
      ],
      [
        "▁l'as",
        -9.84820322173669
      ],
      [
        "▁jours",
        -9.848694305517036
      ],
      [
        "puisé",
        -9.849315034902048
      ],
      [
        "▁Set",
        -9.849995216136891
      ],
      [
        "▁fût",
        -9.85067862346997
      ],
      [
        "▁Ang",
        -9.852564740506114
      ],
      [
        "▁meneen",
        -9.852663834243799
      ],
      [
        "▁xal",
        -9.853001868476802
      ],
      [
        "▁êt",
        -9.853655590284399
      ],
      [
        "bal",
        -9.856475091426345
      ],
      [
        "emal",
        -9.861293336504472
      ],
      [
        "▁yaay",
        -9.86184628992777
      ],
      [
        "▁sur",
        -9.863590129304207
      ],
      [
        "edress",
        -9.866628953403069
      ],
      [
        "autre",
        -9.867223928592994
      ],
      [
        "▁Wooy",
        -9.867515622178136
      ],
      [
        "▁yen",
        -9.867552160572043
      ],
      [
        "ets-t",
        -9.869762931931525
      ],
      [
        "▁bul",
        -9.874065894677722
      ],
      [
        "▁Mets",
        -9.874625277909516
      ],
      [
        "▁vie",
        -9.875552408599326
      ],
      [
        "▁waxtu",
        -9.877176047745909
      ],
      [
        "kon",
        -9.883990484602986
      ],
      [
        "▁Wau",
        -9.884235290020733
      ],
      [
        "▁rag",
        -9.88640950837961
      ],
      [
        "nversé",
        -9.88811417239625
      ],
      [
        "abar",
        -9.8902739410731
      ],
      [
        "eegu",
        -9.890723200467237
      ],
      [
        "lóo",
        -9.89293535824871
      ],
      [
        "çon",
        -9.894362933046613
      ],
      [
        "onne",
        -9.8946474884005
      ],
      [
        "▁ño",
        -9.899267361345515
      ],
      [
        "▁voulez",
        -9.900391726001335
      ],
      [
        "ffr",
        -9.900975769041915
      ],
      [
        "▁s'assi",
        -9.910007540363836
      ],
      [
        "▁dina",
        -9.916185632677633
      ],
      [
        "▁bant",
        -9.91809977294277
      ],
      [
        "pir",
        -9.918915738736311
      ],
      [
        "dina",
        -9.919106617633688
      ],
      [
        "uloo",
        -9.920586764607144
      ],
      [
        "▁lama",
        -9.92226664165308
      ],
      [
        "▁Nu",
        -9.922753198321038
      ],
      [
        "▁éc",
        -9.923799710764738
      ],
      [
        "art",
        -9.925238740618912
      ],
      [
        "▁donn",
        -9.927168647943526
      ],
      [
        "▁voulai",
        -9.93183828425699
      ],
      [
        "▁goog",
        -9.932481063809393
      ],
      [
        "'étudiant",
        -9.933647184897838
      ],
      [
        "▁Ha",
        -9.93810305614056
      ],
      [
        "▁après-",
        -9.938160491892495
      ],
      [
        "accompagne",
        -9.938228669030346
      ],
      [
        "▁lekku",
        -9.943963562767692
      ],
      [
        "▁Té",
        -9.951087399716727
      ],
      [
        "qu'il",
        -9.95894434790965
      ],
      [
        "'en",
        -9.963099485241798
      ],
      [
        "ête",
        -9.96607613714834
      ],
      [
        "▁h",
        -9.9660883099657
      ],
      [
        "▁Ño",
        -9.969625622334776
      ],
      [
        "'entend",
        -9.969907015181272
      ],
      [
        "itu",
        -9.970800707023821
      ],
      [
        "aam",
        -9.97241379746646
      ],
      [
        "▁née",
        -9.97700354959337
      ],
      [
        "ver",
        -9.979034693001175
      ],
      [
        "'euss",
        -9.979736748548563
      ],
      [
        "▁war",
        -9.980676060006644
      ],
      [
        "aaw",
        -9.981028907354892
      ],
      [
        "▁rentr",
        -9.983081176044772
      ],
      [
        "aurai",
        -9.986284623865217
      ],
      [
        "'il",
        -9.989047360492616
      ],
      [
        "▁él",
        -9.992085286600137
      ],
      [
        "aboo",
        -9.993907662742641
      ],
      [
        "▁sor",
        -9.99899383227316
      ],
      [
        "nez",
        -9.999940646038066
      ],
      [
        "▁paye",
        -10.000987537554256
      ],
      [
        "▁reveni",
        -10.004595484138939
      ],
      [
        "ga",
        -10.004886179501158
      ],
      [
        "igne",
        -10.00732477257843
      ],
      [
        "▁lë",
        -10.007412431392966
      ],
      [
        "té",
        -10.007890326506413
      ],
      [
        "▁bavarda",
        -10.008887821698973
      ],
      [
        "▁Ca",
        -10.011487340217467
      ],
      [
        "enez",
        -10.014274617790655
      ],
      [
        "▁fe",
        -10.015108675330753
      ],
      [
        "▁cu",
        -10.015876013229214
      ],
      [
        "▁l'e",
        -10.017238265857635
      ],
      [
        "▁chan",
        -10.018172391319464
      ],
      [
        "ré",
        -10.018637228808824
      ],
      [
        "▁d'o",
        -10.027963768037393
      ],
      [
        "ros",
        -10.029984018167227
      ],
      [
        "▁jee",
        -10.036020064529069
      ],
      [
        "▁comm",
        -10.043998570194997
      ],
      [
        "'appelle",
        -10.046218248650385
      ],
      [
        "▁Wan",
        -10.054179011964127
      ],
      [
        "▁eux",
        -10.054633081090522
      ],
      [
        "▁d'an",
        -10.055288538906813
      ],
      [
        "▁Saa",
        -10.057850799020716
      ],
      [
        "▁voie",
        -10.0586199429846
      ],
      [
        "ji",
        -10.069406497209023
      ],
      [
        "axtaan",
        -10.081343668033023
      ],
      [
        "▁tra",
        -10.085316627017605
      ],
      [
        "ndal",
        -10.088039966320046
      ],
      [
        "▁seeta",
        -10.08872206412742
      ],
      [
        "ttais",
        -10.09045169715184
      ],
      [
        "bas",
        -10.091199279371532
      ],
      [
        "dd",
        -10.091538025926315
      ],
      [
        "biir",
        -10.092295094987954
      ],
      [
        "▁tawa",
        -10.09757105056483
      ],
      [
        "▁arriv",
        -10.107328250146157
      ],
      [
        "gui",
        -10.107881335585656
      ],
      [
        "ha",
        -10.114457391134273
      ],
      [
        "joo",
        -10.117214134150775
      ],
      [
        "aî",
        -10.118475360912722
      ],
      [
        "éen",
        -10.121824051418614
      ],
      [
        "▁gr",
        -10.122264072449012
      ],
      [
        "▁m'as",
        -10.126865983553932
      ],
      [
        "leurs",
        -10.135867221873642
      ],
      [
        "▁Xarit",
        -10.13642342129864
      ],
      [
        "euse",
        -10.13766726714529
      ],
      [
        "▁ex",
        -10.145423139244482
      ],
      [
        "▁mar",
        -10.154626723440114
      ],
      [
        "quelle",
        -10.155699727018069
      ],
      [
        "▁daawu",
        -10.163765558406691
      ],
      [
        "▁aille",
        -10.164783779260427
      ],
      [
        "res",
        -10.165866403671465
      ],
      [
        "uti",
        -10.171311916884301
      ],
      [
        "ourn",
        -10.172179454611573
      ],
      [
        "ort",
        -10.174750931514657
      ],
      [
        "yul",
        -10.177130680714038
      ],
      [
        "elqu'un",
        -10.183265956912047
      ],
      [
        "▁arrive",
        -10.194734395291787
      ],
      [
        "▁Ou",
        -10.197773418344584
      ],
      [
        "ni",
        -10.198765358714779
      ],
      [
        "ñii",
        -10.200166189979159
      ],
      [
        "veux",
        -10.20178392365676
      ],
      [
        "app",
        -10.20242958465027
      ],
      [
        "daje",
        -10.211160315471082
      ],
      [
        "ois",
        -10.21278240044885
      ],
      [
        "aat",
        -10.216202946048522
      ],
      [
        "ekk",
        -10.216280276802207
      ],
      [
        "erai",
        -10.227336328241956
      ],
      [
        "nent",
        -10.23411583636088
      ],
      [
        "dit",
        -10.23597630917141
      ],
      [
        "i.",
        -10.236580711581148
      ],
      [
        "nif",
        -10.237922591125555
      ],
      [
        "▁ho",
        -10.245617545605302
      ],
      [
        "axul",
        -10.246219482643989
      ],
      [
        "ande",
        -10.247420548655183
      ],
      [
        "eel",
        -10.251951374856485
      ],
      [
        "▁ri",
        -10.254281523186275
      ],
      [
        "enfant",
        -10.260710597903262
      ],
      [
        "gu",
        -10.261719903809846
      ],
      [
        "'aurai",
        -10.27421077102267
      ],
      [
        "us",
        -10.277400125126773
      ],
      [
        "▁H",
        -10.27885206819208
      ],
      [
        "ooy",
        -10.2809918413673
      ],
      [
        "ah",
        -10.282211980048857
      ],
      [
        "▁Es",
        -10.284855174311515
      ],
      [
        "aumône",
        -10.28735431334693
      ],
      [
        "▁Fe",
        -10.291110395799151
      ],
      [
        "▁dis",
        -10.2969291910166
      ],
      [
        "attrap",
        -10.298006200628443
      ],
      [
        "eex",
        -10.300534294296437
      ],
      [
        "▁waxa",
        -10.308711032351864
      ],
      [
        "uiss",
        -10.312174353187526
      ],
      [
        "ggoo",
        -10.312526913320841
      ],
      [
        "aille",
        -10.313027833447407
      ],
      [
        "ve",
        -10.316004458554518
      ],
      [
        "▁yab",
        -10.320118939496528
      ],
      [
        "dée",
        -10.328116018808611
      ],
      [
        "fec",
        -10.32899128240458
      ],
      [
        "enu",
        -10.342128254139617
      ],
      [
        "▁waxe",
        -10.344836231323946
      ],
      [
        "opp",
        -10.345799552605266
      ],
      [
        "éra",
        -10.353044375634692
      ],
      [
        "irent",
        -10.355242125715115
      ],
      [
        "▁xe",
        -10.355885221914184
      ],
      [
        "▁Mas",
        -10.3561738878901
      ],
      [
        "avant",
        -10.35714502981509
      ],
      [
        "orsqu",
        -10.36042582112458
      ],
      [
        "▁rentre",
        -10.360831431098488
      ],
      [
        "wax",
        -10.36777269487902
      ],
      [
        "cu",
        -10.369494431643785
      ],
      [
        "▁ad",
        -10.378907187047968
      ],
      [
        "▁Xan",
        -10.379833128260215
      ],
      [
        "▁Bëggu",
        -10.382711544838347
      ],
      [
        "▁Voi",
        -10.38468596638807
      ],
      [
        "illi",
        -10.390687986686366
      ],
      [
        "ày",
        -10.396673072358054
      ],
      [
        "leur",
        -10.400316639751765
      ],
      [
        "▁lu",
        -10.402475766479053
      ],
      [
        "▁voici.",
        -10.40409366377017
      ],
      [
        "▁ch",
        -10.42216824665587
      ],
      [
        "gé",
        -10.422950865806236
      ],
      [
        "▁souhait",
        -10.423268976277047
      ],
      [
        "act",
        -10.425657425539898
      ],
      [
        "été",
        -10.427906684845851
      ],
      [
        "uff",
        -10.431037665900266
      ],
      [
        "▁accompagn",
        -10.431236672646362
      ],
      [
        "aujourd'hui",
        -10.43829459331049
      ],
      [
        "étudiant",
        -10.439076002852609
      ],
      [
        "▁Ñoo",
        -10.444946502113517
      ],
      [
        "▁reven",
        -10.445678719865885
      ],
      [
        "▁désir",
        -10.451830412325943
      ],
      [
        "argent",
        -10.452822073842658
      ],
      [
        "tif",
        -10.459591349351724
      ],
      [
        "ati",
        -10.460944247640615
      ],
      [
        "▁bel",
        -10.462179253479086
      ],
      [
        "née",
        -10.462375996550998
      ],
      [
        "jur",
        -10.464504244336212
      ],
      [
        "nn",
        -10.46538175479695
      ],
      [
        "viendra",
        -10.475396144468315
      ],
      [
        "▁s'ass",
        -10.4783292043162
      ],
      [
        "nte",
        -10.479341655955904
      ],
      [
        "▁woow",
        -10.48795891787701
      ],
      [
        "ibbisi",
        -10.493207302980007
      ],
      [
        "gis",
        -10.493900936766995
      ],
      [
        "aa",
        -10.502033533670415
      ],
      [
        "bëggée",
        -10.507100937932622
      ],
      [
        "▁dég",
        -10.514772833766942
      ],
      [
        "vin",
        -10.515117226848181
      ],
      [
        "▁bule",
        -10.515808438079254
      ],
      [
        "demain",
        -10.52690418461598
      ],
      [
        "rais",
        -10.532305262397545
      ],
      [
        "voie",
        -10.535234194404842
      ],
      [
        "▁ge",
        -10.539512021858545
      ],
      [
        "ata",
        -10.54453679216991
      ],
      [
        "▁sera",
        -10.549065806959423
      ],
      [
        "cult",
        -10.550619419929397
      ],
      [
        "▁Bule",
        -10.551751144881507
      ],
      [
        "▁refus",
        -10.557827182860075
      ],
      [
        "▁yaak",
        -10.559115324420386
      ],
      [
        "ari",
        -10.559450328309627
      ],
      [
        "▁Ag",
        -10.560529977439579
      ],
      [
        "'appelles",
        -10.565734813316652
      ],
      [
        "xam",
        -10.56691464480648
      ],
      [
        "L'homme",
        -10.567655255435696
      ],
      [
        "rai",
        -10.57281952126794
      ],
      [
        "t-ce",
        -10.573063754912074
      ],
      [
        "▁tuu",
        -10.573250694084393
      ],
      [
        "▁kaa",
        -10.575331774595876
      ],
      [
        "da",
        -10.578398965111655
      ],
      [
        "▁demand",
        -10.581617819022808
      ],
      [
        "ëy",
        -10.583085429127916
      ],
      [
        "axkoon",
        -10.583337171628658
      ],
      [
        "ouv",
        -10.584594250295165
      ],
      [
        "O",
        -10.585838051210056
      ],
      [
        "▁nj",
        -10.587022778137547
      ],
      [
        "▁fra",
        -10.587444575817912
      ],
      [
        "du",
        -10.590064438429387
      ],
      [
        "▁fû",
        -10.597709793083887
      ],
      [
        "sang",
        -10.607724488353742
      ],
      [
        "yy",
        -10.608460978361148
      ],
      [
        "ll",
        -10.615027189419212
      ],
      [
        "ŋgoo",
        -10.617604670813062
      ],
      [
        "don",
        -10.618695514180553
      ],
      [
        "ami",
        -10.619632828679018
      ],
      [
        "▁voi",
        -10.619949420760852
      ],
      [
        "bul",
        -10.625146171290353
      ],
      [
        "ŋ",
        -10.629781468420175
      ],
      [
        "▁wal",
        -10.630796242029772
      ],
      [
        "yóo",
        -10.633165487530956
      ],
      [
        "gg",
        -10.635391550156506
      ],
      [
        "▁personn",
        -10.636137598920309
      ],
      [
        "uru",
        -10.637812942138162
      ],
      [
        "▁yi.",
        -10.639031692657612
      ],
      [
        "sage",
        -10.644852929665054
      ],
      [
        "ô",
        -10.646993091678898
      ],
      [
        "xal",
        -10.653051250816915
      ],
      [
        "▁baa",
        -10.658998787507683
      ],
      [
        "▁Pr",
        -10.668347066245948
      ],
      [
        "▁pr",
        -10.668783401747534
      ],
      [
        "Gis",
        -10.67194850618323
      ],
      [
        "ogul",
        -10.672394571746997
      ],
      [
        "con",
        -10.6735754484746
      ],
      [
        "om",
        -10.677256882176444
      ],
      [
        "▁ab",
        -10.677781422420017
      ],
      [
        "pè",
        -10.679256216580228
      ],
      [
        "vu",
        -10.684148350848977
      ],
      [
        "▁yoo",
        -10.68666911392129
      ],
      [
        "▁Nd",
        -10.686760573404465
      ],
      [
        "▁Degg",
        -10.690613981224718
      ],
      [
        "▁d'i",
        -10.695682438025198
      ],
      [
        "▁Ñé",
        -10.700142461511206
      ],
      [
        "▁go",
        -10.701211176440456
      ],
      [
        "ff",
        -10.703775821326545
      ],
      [
        "wa",
        -10.708207422612613
      ],
      [
        "▁Gisul",
        -10.708650749001773
      ],
      [
        "gii",
        -10.70945042033252
      ],
      [
        "▁do",
        -10.710264396314972
      ],
      [
        "jul",
        -10.710856938197706
      ],
      [
        "lusi",
        -10.71602066011284
      ],
      [
        "eau",
        -10.731929463538513
      ],
      [
        "oyager",
        -10.742183723170495
      ],
      [
        "▁Daawu",
        -10.747265565760117
      ],
      [
        "uy",
        -10.749034264850915
      ],
      [
        "ille-",
        -10.750267478450299
      ],
      [
        "▁Né",
        -10.755325020222406
      ],
      [
        "▁Yée",
        -10.756354720674704
      ],
      [
        "▁ai",
        -10.757244556879446
      ],
      [
        "▁Bë",
        -10.759060821517256
      ],
      [
        "▁aim",
        -10.760527740746813
      ],
      [
        "Ma",
        -10.761580990664458
      ],
      [
        "venue",
        -10.763560825470663
      ],
      [
        "▁vérit",
        -10.763587376150467
      ],
      [
        "▁revien",
        -10.765048709419403
      ],
      [
        "'import",
        -10.765369129141732
      ],
      [
        "▁n'av",
        -10.76541786809193
      ],
      [
        "▁plu",
        -10.76619307244196
      ],
      [
        "▁épo",
        -10.766854841139656
      ],
      [
        "▁cohabite",
        -10.768258541729242
      ],
      [
        "rès",
        -10.768414801060421
      ],
      [
        "id",
        -10.768591789898316
      ],
      [
        "usqu'ici",
        -10.768776537723758
      ],
      [
        "▁ŋgee",
        -10.76905443533128
      ],
      [
        "ayer",
        -10.769064751713614
      ],
      [
        "▁descend",
        -10.769526984951424
      ],
      [
        "ard",
        -10.76958011534777
      ],
      [
        "habite",
        -10.769759889338411
      ],
      [
        "▁étudi",
        -10.76978599271241
      ],
      [
        "olof",
        -10.769800283422448
      ],
      [
        "[",
        -10.769924380713768
      ],
      [
        "Ç",
        -10.769924380713768
      ],
      [
        "]",
        -10.769924380713768
      ],
      [
        "ï",
        -10.769924380713768
      ],
      [
        "géey",
        -10.77153810623448
      ],
      [
        "écha",
        -10.771619791758582
      ],
      [
        "▁Musa",
        -10.772480138904239
      ],
      [
        "▁s'e",
        -10.772507279811952
      ],
      [
        "sembl",
        -10.772518856810064
      ],
      [
        "vid",
        -10.774782158146087
      ],
      [
        "oir",
        -10.775027521984413
      ],
      [
        "▁dellu",
        -10.776040961525702
      ],
      [
        "▁Pou",
        -10.777028015813148
      ],
      [
        "▁kë",
        -10.777152553055636
      ],
      [
        "roit",
        -10.778551885975482
      ],
      [
        "ju",
        -10.778658165570072
      ],
      [
        "vec",
        -10.778729025823049
      ],
      [
        "aamu",
        -10.778799246576032
      ],
      [
        "omp",
        -10.778896083071306
      ],
      [
        "googee",
        -10.78017823394786
      ],
      [
        "oobu",
        -10.7804823141861
      ],
      [
        "tive",
        -10.780895429485753
      ],
      [
        "spér",
        -10.7831088035651
      ],
      [
        "rach",
        -10.783273214896905
      ],
      [
        "voy",
        -10.783553715571594
      ],
      [
        "eeku",
        -10.784743266907135
      ],
      [
        "arab",
        -10.785342385501346
      ],
      [
        "▁Pl",
        -10.785491063262286
      ],
      [
        "▁appr",
        -10.786995013223983
      ],
      [
        "tëli",
        -10.78711149196453
      ],
      [
        "▁Wut",
        -10.788422001256585
      ],
      [
        "mbre",
        -10.789052208309336
      ],
      [
        "▁fais",
        -10.789127060271213
      ],
      [
        "▁l'h",
        -10.789627107621278
      ],
      [
        "heur",
        -10.792757886284377
      ],
      [
        "droit",
        -10.795142512514479
      ],
      [
        "ëggu",
        -10.796775744478015
      ],
      [
        "blan",
        -10.800592832032123
      ],
      [
        "ya",
        -10.803167897231187
      ],
      [
        "▁dikk",
        -10.804083055045565
      ],
      [
        "▁bët",
        -10.811242285319999
      ],
      [
        "entré",
        -10.811308922815003
      ],
      [
        "▁sau",
        -10.811413078671187
      ],
      [
        "ser",
        -10.813918662621996
      ],
      [
        "ubë",
        -10.815791919441986
      ],
      [
        "▁googu",
        -10.816468855953612
      ],
      [
        "▁Ñun",
        -10.817405311435897
      ],
      [
        "vert",
        -10.817616325346762
      ],
      [
        "nglais",
        -10.81898349070599
      ],
      [
        "▁ense",
        -10.819000970034644
      ],
      [
        "anaa",
        -10.819969113176416
      ],
      [
        "ogu",
        -10.82210552637602
      ],
      [
        "ôn",
        -10.825043912844087
      ],
      [
        "ends-",
        -10.8287270994516
      ],
      [
        "contre",
        -10.831403666595033
      ],
      [
        "llusi",
        -10.838989510408823
      ],
      [
        "oogu",
        -10.839424652137405
      ],
      [
        "▁pla",
        -10.839879487521632
      ],
      [
        "▁Atte",
        -10.841902488273696
      ],
      [
        "▁revi",
        -10.84677749847626
      ],
      [
        "Il",
        -10.846911871665379
      ],
      [
        "yent",
        -10.847544809643402
      ],
      [
        "ontent",
        -10.84977852010026
      ],
      [
        "▁Àn",
        -10.8501576622972
      ],
      [
        "▁Sér",
        -10.851794174012968
      ],
      [
        "oit",
        -10.85238267315265
      ],
      [
        "tali",
        -10.854505163677969
      ],
      [
        "kan",
        -10.85702614897038
      ],
      [
        "bre",
        -10.858774407772852
      ],
      [
        "▁reg",
        -10.859131584499789
      ],
      [
        "▁goo",
        -10.864117863628255
      ],
      [
        "▁Tug",
        -10.864706890119269
      ],
      [
        "op",
        -10.864821588121059
      ],
      [
        "▁mê",
        -10.865841190847476
      ],
      [
        "jal",
        -10.867168978166587
      ],
      [
        "eeg",
        -10.87845316072615
      ],
      [
        "auc",
        -10.879077181157268
      ],
      [
        "egguma",
        -10.881912992487731
      ],
      [
        "▁sortie",
        -10.88421467762601
      ],
      [
        "ous-même",
        -10.88568951331212
      ],
      [
        "lut",
        -10.886997771791561
      ],
      [
        "-de",
        -10.891042837552156
      ],
      [
        "▁kat",
        -10.89138737185057
      ],
      [
        "▁J'a",
        -10.897690273079993
      ],
      [
        "aire",
        -10.898658188262335
      ],
      [
        "ges",
        -10.903902361422645
      ],
      [
        "prends",
        -10.904740759646227
      ],
      [
        "L",
        -10.904874256389947
      ],
      [
        "mmo",
        -10.909554772597561
      ],
      [
        "doo",
        -10.909774076193164
      ],
      [
        "▁tro",
        -10.913315994923508
      ],
      [
        "▁fee",
        -10.914396251283126
      ],
      [
        "▁lee",
        -10.915953472744203
      ],
      [
        "gay",
        -10.917840888540933
      ],
      [
        "▁Se",
        -10.917950132025634
      ],
      [
        "ici.",
        -10.920584549550464
      ],
      [
        "▁travaillai",
        -10.92198576622564
      ],
      [
        "rëm",
        -10.92500123123208
      ],
      [
        "pa",
        -10.926778210849807
      ],
      [
        "yam",
        -10.926927832368364
      ],
      [
        "tés",
        -10.928355347940945
      ],
      [
        "aaleekum",
        -10.929566276157056
      ],
      [
        "laa",
        -10.930293262763538
      ],
      [
        "oxoo",
        -10.934421618446462
      ],
      [
        "be",
        -10.935617258260901
      ],
      [
        "tudi",
        -10.936815859429153
      ],
      [
        "▁Tan",
        -10.940084054739629
      ],
      [
        "▁yo",
        -10.941413723576852
      ],
      [
        "ble",
        -10.941948489747386
      ],
      [
        "lum",
        -10.944306874144058
      ],
      [
        "ours",
        -10.94474105730708
      ],
      [
        "acc",
        -10.955814030181632
      ],
      [
        "në",
        -10.960683891158624
      ],
      [
        "uf.",
        -10.965212205593375
      ],
      [
        "▁Gan",
        -10.965419669032956
      ],
      [
        "tient",
        -10.96582610444002
      ],
      [
        "Tu",
        -10.966990054290235
      ],
      [
        "mon",
        -10.973214514644406
      ],
      [
        "arac",
        -10.973992789127703
      ],
      [
        "▁xamu",
        -10.979952747790746
      ],
      [
        "▁mange",
        -10.981775212433991
      ],
      [
        "cle",
        -10.9857195757584
      ],
      [
        "l'homme",
        -10.99816792137314
      ],
      [
        "▁ét",
        -10.998873306226594
      ],
      [
        "ng",
        -10.999423529676074
      ],
      [
        "▁l'é",
        -11.000667865327047
      ],
      [
        "ana",
        -11.00079635529493
      ],
      [
        "▁Ceux-",
        -11.005201668814117
      ],
      [
        "alis",
        -11.008566392060374
      ],
      [
        "▁cher",
        -11.015190900263871
      ],
      [
        "ur.",
        -11.016975366163997
      ],
      [
        "ose",
        -11.020791163267438
      ],
      [
        "alé",
        -11.020815208162048
      ],
      [
        "mine",
        -11.022796308152502
      ],
      [
        "▁Pe",
        -11.029231757277541
      ],
      [
        "âc",
        -11.029765054628738
      ],
      [
        "ol",
        -11.030584121005228
      ],
      [
        "llu",
        -11.035026105226352
      ],
      [
        "ëgg",
        -11.035092353978676
      ],
      [
        "urtout",
        -11.040156659419303
      ],
      [
        "uwu",
        -11.042786226684399
      ],
      [
        "▁sar",
        -11.043317947478052
      ],
      [
        "▁ava",
        -11.044066317789289
      ],
      [
        "rie",
        -11.046189429761066
      ],
      [
        "Je",
        -11.04775965726965
      ],
      [
        "ang",
        -11.0602268852578
      ],
      [
        "alla",
        -11.061111710867099
      ],
      [
        "J'ai",
        -11.067924975770733
      ],
      [
        "oppi",
        -11.078673841491762
      ],
      [
        "ller",
        -11.07894927761154
      ],
      [
        "▁Ga",
        -11.085154213842754
      ],
      [
        "añu",
        -11.085912073636631
      ],
      [
        "▁travaille",
        -11.101590500855913
      ],
      [
        "guma",
        -11.114280808617684
      ],
      [
        "▁aff",
        -11.114443164379805
      ],
      [
        "han",
        -11.117376712468047
      ],
      [
        "▁Nan",
        -11.122528223832166
      ],
      [
        "▁wé",
        -11.123805638994234
      ],
      [
        "aakaar",
        -11.124920225095131
      ],
      [
        "▁cont",
        -11.124996752226043
      ],
      [
        "rère",
        -11.126702611380889
      ],
      [
        "oola",
        -11.132377807127082
      ],
      [
        "parti",
        -11.138890964981877
      ],
      [
        "▁ŋgii.",
        -11.141974544994913
      ],
      [
        "▁qu'i",
        -11.143685375097679
      ],
      [
        "'ici",
        -11.149320819676326
      ],
      [
        "▁gana",
        -11.15249626821619
      ],
      [
        "▁Laa",
        -11.161523679013836
      ],
      [
        "▁jus",
        -11.161587903780669
      ],
      [
        "nda",
        -11.16845855382256
      ],
      [
        "ert",
        -11.173134701367157
      ],
      [
        "▁sé",
        -11.173993000941698
      ],
      [
        "pe",
        -11.178248767294313
      ],
      [
        "'argent",
        -11.20769000058411
      ],
      [
        "dre",
        -11.214816427430295
      ],
      [
        "▁noo",
        -11.216692164098376
      ],
      [
        "aru",
        -11.217674125189905
      ],
      [
        "lqu'un",
        -11.224861664245397
      ],
      [
        "▁pui",
        -11.22591456812063
      ],
      [
        "▁elle",
        -11.227014454625113
      ],
      [
        "óol",
        -11.228274042446762
      ],
      [
        "▁deva",
        -11.22845488798764
      ],
      [
        "▁Mus",
        -11.236815983406672
      ],
      [
        "réci",
        -11.248097228077574
      ],
      [
        "cor",
        -11.252401772490066
      ],
      [
        "eurs",
        -11.253143035590766
      ],
      [
        "se-",
        -11.265558282561523
      ],
      [
        "qu'un",
        -11.269011921504898
      ],
      [
        "bil",
        -11.274372417797666
      ],
      [
        "gue",
        -11.274673653226738
      ],
      [
        "▁Ve",
        -11.290188471349575
      ],
      [
        "▁gen",
        -11.301565808816086
      ],
      [
        "agit",
        -11.308740827390958
      ],
      [
        "▁mënk",
        -11.329372718830003
      ],
      [
        "co",
        -11.32942187524754
      ],
      [
        "lor",
        -11.33343430936997
      ],
      [
        "main",
        -11.341173183861283
      ],
      [
        "eul",
        -11.354442968992606
      ],
      [
        "E",
        -11.357167037880382
      ],
      [
        "ssent",
        -11.365797574945901
      ],
      [
        "goon",
        -11.366832020275659
      ],
      [
        "▁Ji",
        -11.373662481397435
      ],
      [
        "▁Celui-",
        -11.37837799570241
      ],
      [
        "▁Wu",
        -11.383018635033444
      ],
      [
        "add",
        -11.38811412675215
      ],
      [
        "jii",
        -11.394144680265958
      ],
      [
        "▁Re",
        -11.398229883636212
      ],
      [
        "uleen",
        -11.407638577846441
      ],
      [
        "eh",
        -11.41333534776714
      ],
      [
        "dik",
        -11.435370395998333
      ],
      [
        "olul",
        -11.441283313302236
      ],
      [
        "les-",
        -11.44334764770602
      ],
      [
        "des",
        -11.453479447393239
      ],
      [
        "▁Gu",
        -11.465756563545145
      ],
      [
        "adi",
        -11.469377999194098
      ],
      [
        "amoon",
        -11.471862262446754
      ],
      [
        "▁tus",
        -11.472830298798623
      ],
      [
        "arit",
        -11.47432958736782
      ],
      [
        "va",
        -11.49996404473055
      ],
      [
        "oy",
        -11.500548197750167
      ],
      [
        "ange",
        -11.502242983521803
      ],
      [
        "bu",
        -11.506092734149428
      ],
      [
        "▁Sé",
        -11.51485483545485
      ],
      [
        "amin",
        -11.536229299896355
      ],
      [
        "rons",
        -11.536285524881658
      ],
      [
        "eill",
        -11.543398921662524
      ],
      [
        "ar.",
        -11.54434408028096
      ],
      [
        "anqu",
        -11.56067103364833
      ],
      [
        "▁Dee",
        -11.575901461815956
      ],
      [
        "ef",
        -11.583472638693188
      ],
      [
        "rappe",
        -11.583531666520448
      ],
      [
        "▁tà",
        -11.58815558327752
      ],
      [
        "ain",
        -11.588575247171308
      ],
      [
        "egg",
        -11.595018992873861
      ],
      [
        "gir",
        -11.622880768356707
      ],
      [
        "'aime",
        -11.625979994179353
      ],
      [
        "dey",
        -11.628489362336243
      ],
      [
        "▁ña",
        -11.632435848873694
      ],
      [
        "▁deg",
        -11.636865729490061
      ],
      [
        "'apprécie",
        -11.675776036322164
      ],
      [
        "venu",
        -11.679258836644122
      ],
      [
        "anu",
        -11.688457937383122
      ],
      [
        "sse",
        -11.689899612977674
      ],
      [
        "dal",
        -11.713535206887332
      ],
      [
        "st",
        -11.731885223827069
      ],
      [
        "ët",
        -11.731888949144913
      ],
      [
        "aba",
        -11.737538324237434
      ],
      [
        "▁es-",
        -11.739651401473477
      ],
      [
        "▁Ke",
        -11.746157539175863
      ],
      [
        "Nit",
        -11.747206021105677
      ],
      [
        "oi-même",
        -11.753541058346357
      ],
      [
        "bir",
        -11.755787960457063
      ],
      [
        "tais",
        -11.761942323324186
      ],
      [
        "nqu",
        -11.762286576920475
      ],
      [
        "▁Dema",
        -11.76244201075428
      ],
      [
        "▁vien",
        -11.768253003943634
      ],
      [
        "▁Bo",
        -11.773555249384067
      ],
      [
        "ég",
        -11.776886275979841
      ],
      [
        "boo",
        -11.781464151517815
      ],
      [
        "erais",
        -11.782561831039144
      ],
      [
        "eû",
        -11.78805787400176
      ],
      [
        "a-",
        -11.802489912896254
      ],
      [
        "ond",
        -11.806748249253795
      ],
      [
        "cher",
        -11.816861860723096
      ],
      [
        "fus",
        -11.818954874228949
      ],
      [
        "▁wo",
        -11.829068555847481
      ],
      [
        "▁x",
        -11.8301551985605
      ],
      [
        "lait",
        -11.835173802829596
      ],
      [
        "lam",
        -11.83529037510485
      ],
      [
        "bo",
        -11.846060583795278
      ],
      [
        "▁lé",
        -11.848668618282417
      ],
      [
        "▁sal",
        -11.852323034288153
      ],
      [
        "▁r",
        -11.85470104051466
      ],
      [
        "itam",
        -11.861646024788522
      ],
      [
        "▁ret",
        -11.87369464016116
      ],
      [
        "▁voil",
        -11.876411487019627
      ],
      [
        "▁jen",
        -11.877550991916966
      ],
      [
        "▁che",
        -11.877709408464108
      ],
      [
        "góon",
        -11.895128848823799
      ],
      [
        "rs",
        -11.896352661553692
      ],
      [
        "rée",
        -11.904655499227431
      ],
      [
        "squel",
        -11.905273775822964
      ],
      [
        "edd",
        -11.925155009446893
      ],
      [
        "▁pe",
        -11.93829968550592
      ],
      [
        "▁Ng",
        -11.968544054986491
      ],
      [
        "ors",
        -11.969393447414799
      ],
      [
        "uf",
        -11.994961231799506
      ],
      [
        "M",
        -11.996507944969206
      ],
      [
        "▁ŋgoog",
        -12.009041319451565
      ],
      [
        "e-",
        -12.011374279810633
      ],
      [
        "▁tr",
        -12.017850035210303
      ],
      [
        "ret",
        -12.026245885528278
      ],
      [
        "ëlë",
        -12.070284284071914
      ],
      [
        "este",
        -12.077242083850019
      ],
      [
        "sont",
        -12.07817659976936
      ],
      [
        "ées",
        -12.089395896250767
      ],
      [
        "▁ngo",
        -12.099814353150952
      ],
      [
        "▁ni.",
        -12.106683982170576
      ],
      [
        "amba",
        -12.108354484692704
      ],
      [
        "▁ha",
        -12.11096969686175
      ],
      [
        "t-",
        -12.13001878546675
      ],
      [
        "P",
        -12.144260653793928
      ],
      [
        "T",
        -12.144360653793928
      ],
      [
        "K",
        -12.144460653793928
      ],
      [
        "F",
        -12.144560653793928
      ],
      [
        "á",
        -12.14466065379393
      ],
      [
        "I",
        -12.144760653793929
      ],
      [
        "X",
        -12.144860653793929
      ],
      [
        "ó",
        -12.144960653793929
      ],
      [
        "'",
        -12.145060653793928
      ],
      [
        "W",
        -12.145160653793928
      ],
      [
        "H",
        -12.145260653793928
      ],
      [
        "ç",
        -12.145360653793928
      ],
      [
        "V",
        -12.14546065379393
      ],
      [
        "î",
        -12.145560653793929
      ],
      [
        "À",
        -12.145660653793929
      ],
      [
        "D",
        -12.145760653793928
      ],
      [
        "B",
        -12.145860653793928
      ],
      [
        "Ŋ",
        -12.145960653793928
      ],
      [
        "U",
        -12.146060653793928
      ],
      [
        "N",
        -12.146160653793928
      ],
      [
        "R",
        -12.146260653793929
      ],
      [
        "Q",
        -12.146360653793929
      ],
      [
        "Y",
        -12.146460653793929
      ],
      [
        "Ñ",
        -12.146560653793928
      ],
      [
        "rte",
        -12.146560653793928
      ]
    ]
  }
}