{
  "version": "1.0",
  "truncation": null,
  "padding": null,
  "added_tokens": [
    {
      "id": 0,
      "content": "<cls>",
      "single_word": false,
      "lstrip": false,
      "rstrip": false,
      "normalized": false,
      "special": true
    },
    {
      "id": 1,
      "content": "<sep>",
      "single_word": false,
      "lstrip": false,
      "rstrip": false,
      "normalized": false,
      "special": true
    },
    {
      "id": 2,
      "content": "<unk>",
      "single_word": false,
      "lstrip": false,
      "rstrip": false,
      "normalized": false,
      "special": true
    },
    {
      "id": 3,
      "content": "<pad>",
      "single_word": false,
      "lstrip": false,
      "rstrip": false,
      "normalized": false,
      "special": true
    },
    {
      "id": 4,
      "content": "<mask>",
      "single_word": false,
      "lstrip": false,
      "rstrip": false,
      "normalized": false,
      "special": true
    },
    {
      "id": 5,
      "content": "<s>",
      "single_word": false,
      "lstrip": false,
      "rstrip": false,
      "normalized": false,
      "special": true
    },
    {
      "id": 6,
      "content": "</s>",
      "single_word": false,
      "lstrip": false,
      "rstrip": false,
      "normalized": false,
      "special": true
    }
  ],
  "normalizer": {
    "type": "Replace",
    "pattern": {
      "String": " {2,}"
    },
    "content": " "
  },
  "pre_tokenizer": {
    "type": "Metaspace",
    "replacement": "▁",
    "add_prefix_space": true
  },
  "post_processor": null,
  "decoder": {
    "type": "Metaspace",
    "replacement": "▁",
    "add_prefix_space": true
  },
  "model": {
    "type": "Unigram",
    "unk_id": 2,
    "vocab": [
      [
        "<cls>",
        0.0
      ],
      [
        "<sep>",
        0.0
      ],
      [
        "<unk>",
        0.0
      ],
      [
        "<pad>",
        0.0
      ],
      [
        "<mask>",
        0.0
      ],
      [
        "<s>",
        0.0
      ],
      [
        "</s>",
        0.0
      ],
      [
        "▁",
        -2.5379467584897704
      ],
      [
        ".",
        -3.1739479272512092
      ],
      [
        ",",
        -3.832650029740708
      ],
      [
        "?",
        -3.983156262458282
      ],
      [
        "!",
        -4.064322944228343
      ],
      [
        "s",
        -4.178823917319131
      ],
      [
        "▁la",
        -4.396066964438125
      ],
      [
        "e",
        -4.598603601553704
      ],
      [
        "▁de",
        -4.605457297785461
      ],
      [
        "a",
        -4.702105178578639
      ],
      [
        "u",
        -4.725045602862974
      ],
      [
        "▁ci",
        -4.879352481103241
      ],
      [
        "▁qui",
        -4.971420415862951
      ],
      [
        "n",
        -4.985473915318788
      ],
      [
        "▁na",
        -4.98938938073939
      ],
      [
        "▁dem",
        -5.035807019319013
      ],
      [
        "▁!",
        -5.061447436871976
      ],
      [
        "y",
        -5.066487122454988
      ],
      [
        "t",
        -5.066745098507869
      ],
      [
        "▁est",
        -5.09365545986424
      ],
      [
        "i",
        -5.093878571147506
      ],
      [
        "▁que",
        -5.165556855617393
      ],
      [
        "▁pas",
        -5.167699920719488
      ],
      [
        "▁ne",
        -5.205051317311763
      ],
      [
        "▁C'est",
        -5.212392414976603
      ],
      [
        "▁gi",
        -5.215358124226757
      ],
      [
        "▁un",
        -5.254246262489283
      ],
      [
        "▁Il",
        -5.334384032109872
      ],
      [
        "▁a",
        -5.382989527457982
      ],
      [
        "▁naa",
        -5.424174105274012
      ],
      [
        "▁ŋga",
        -5.453362884576008
      ],
      [
        "▁vu",
        -5.458664819885228
      ],
      [
        "et",
        -5.472213408452726
      ],
      [
        "▁G",
        -5.493687163527638
      ],
      [
        "óor",
        -5.556941079941887
      ],
      [
        "▁des",
        -5.56957252380777
      ],
      [
        "▁bi",
        -5.5901450687897425
      ],
      [
        "une",
        -5.69094574977041
      ],
      [
        "▁Gis",
        -5.725352959185777
      ],
      [
        "▁tu",
        -5.735077552300859
      ],
      [
        "r",
        -5.771355045035699
      ],
      [
        "▁y",
        -5.785553565792405
      ],
      [
        "l",
        -5.789001998059848
      ],
      [
        "▁Je",
        -5.789682344291197
      ],
      [
        "▁Tu",
        -5.806130729508587
      ],
      [
        "▁am",
        -5.81898227618957
      ],
      [
        "▁homme",
        -5.8284230323630375
      ],
      [
        "▁été",
        -5.847348716965531
      ],
      [
        "▁ce",
        -5.847499906199647
      ],
      [
        "▁ay",
        -5.864043269840262
      ],
      [
        "▁L'homme",
        -5.8756974405435525
      ],
      [
        "▁mu",
        -5.883330720375208
      ],
      [
        "▁à",
        -5.89873454366022
      ],
      [
        "▁le",
        -5.915744567715713
      ],
      [
        "▁gis",
        -5.9196978471302755
      ],
      [
        "▁sont",
        -5.95681590139351
      ],
      [
        "▁di",
        -6.0106135513933845
      ],
      [
        "on",
        -6.020105096912698
      ],
      [
        "▁J'ai",
        -6.021466168862873
      ],
      [
        "▁nag",
        -6.037789481598321
      ],
      [
        "▁les",
        -6.0622582481517115
      ],
      [
        "▁bu",
        -6.079646140966695
      ],
      [
        "▁ñëw",
        -6.088292781908315
      ],
      [
        "▁wax",
        -6.0892065361923935
      ],
      [
        "▁nit",
        -6.105409216159514
      ],
      [
        "▁l'homme",
        -6.120428862238303
      ],
      [
        "▁il",
        -6.1247699529519295
      ],
      [
        "▁yi",
        -6.127082115111663
      ],
      [
        "▁ak",
        -6.143651525062103
      ],
      [
        "le",
        -6.18124929733522
      ],
      [
        "▁ba",
        -6.1842127882280575
      ],
      [
        "▁photo",
        -6.191758465844843
      ],
      [
        "▁du",
        -6.196393286336481
      ],
      [
        "à",
        -6.202142196826608
      ],
      [
        "▁xam",
        -6.204140644351421
      ],
      [
        "▁ni",
        -6.2081295354997446
      ],
      [
        "▁yu",
        -6.21700344547069
      ],
      [
        "▁ma",
        -6.255071247394711
      ],
      [
        "▁ñu",
        -6.261734561556717
      ],
      [
        "▁qu'il",
        -6.262843212918289
      ],
      [
        "▁parti",
        -6.283814572379707
      ],
      [
        "▁góor",
        -6.28894640036309
      ],
      [
        "▁Ce",
        -6.292917707005974
      ],
      [
        "▁Nit",
        -6.29640461121324
      ],
      [
        "▁n",
        -6.303028381312062
      ],
      [
        "il",
        -6.30572164346634
      ],
      [
        "▁en",
        -6.309718236779299
      ],
      [
        "▁avec",
        -6.309897011985182
      ],
      [
        "▁c'est",
        -6.314413992220864
      ],
      [
        "▁c",
        -6.326035002214656
      ],
      [
        "nt",
        -6.337890659484541
      ],
      [
        "▁te",
        -6.370427180407526
      ],
      [
        "▁bii",
        -6.37293590681713
      ],
      [
        "▁autre",
        -6.391092693594427
      ],
      [
        "é",
        -6.4063138566935915
      ],
      [
        "▁nekk",
        -6.420930719091662
      ],
      [
        "▁dans",
        -6.436151237915904
      ],
      [
        "▁ngi",
        -6.452301770560038
      ],
      [
        "▁ko",
        -6.459484366089666
      ],
      [
        "▁biir",
        -6.4725672129650835
      ],
      [
        "▁cet",
        -6.473361500426454
      ],
      [
        "▁la.",
        -6.482706107625945
      ],
      [
        "▁boo",
        -6.486744383593619
      ],
      [
        "▁pour",
        -6.510637068956139
      ],
      [
        "ci",
        -6.510672633070791
      ],
      [
        "▁je",
        -6.538467221995357
      ],
      [
        "m",
        -6.541349685555324
      ],
      [
        "▁ŋgi",
        -6.558501114751037
      ],
      [
        "▁mi",
        -6.561559098279233
      ],
      [
        "▁ab",
        -6.566980694931714
      ],
      [
        "▁Sur",
        -6.586857557713595
      ],
      [
        "▁bëgg",
        -6.596723108176736
      ],
      [
        "▁ki",
        -6.609871487526663
      ],
      [
        "s-t",
        -6.612712643279197
      ],
      [
        "▁d",
        -6.617627848211742
      ],
      [
        "▁benn",
        -6.619587760310548
      ],
      [
        "eneen",
        -6.6247369868843204
      ],
      [
        "▁lu",
        -6.635131224541261
      ],
      [
        "▁xale",
        -6.639188696629308
      ],
      [
        "▁l'intérieur",
        -6.678529129092633
      ],
      [
        "▁moom",
        -6.6823652843091965
      ],
      [
        "ay",
        -6.686524656619656
      ],
      [
        "▁si",
        -6.689710179373741
      ],
      [
        "▁sur",
        -6.692308302055325
      ],
      [
        "▁A",
        -6.694086240222811
      ],
      [
        "▁aussi",
        -6.697939152833875
      ],
      [
        "▁Nataal",
        -6.698629328175356
      ],
      [
        "▁O",
        -6.7064748024793825
      ],
      [
        "▁fi",
        -6.711202726044705
      ],
      [
        "al",
        -6.713911448303963
      ],
      [
        "▁là",
        -6.723676532295407
      ],
      [
        "▁parle",
        -6.733231098982101
      ],
      [
        "▁Ci",
        -6.736522063910653
      ],
      [
        "▁celui-là",
        -6.762479248472964
      ],
      [
        "▁as",
        -6.762983299346718
      ],
      [
        "▁woon",
        -6.7817398307070125
      ],
      [
        "▁def",
        -6.7863316344377225
      ],
      [
        "woon",
        -6.794564557091588
      ],
      [
        "oon",
        -6.795188761094341
      ],
      [
        "▁néeg",
        -6.809809847039621
      ],
      [
        "▁tout",
        -6.810856431227604
      ],
      [
        "▁ka",
        -6.816082373704964
      ],
      [
        "o",
        -6.824214121326907
      ],
      [
        "▁mel",
        -6.828165159675402
      ],
      [
        "ne",
        -6.828802838713132
      ],
      [
        "▁La",
        -6.830555248524462
      ],
      [
        "▁nga",
        -6.834369031376735
      ],
      [
        "▁vois",
        -6.841201348150427
      ],
      [
        "▁se",
        -6.842864604323944
      ],
      [
        "es",
        -6.843544073408998
      ],
      [
        "▁chose",
        -6.860953740409407
      ],
      [
        "▁E",
        -6.862107920089907
      ],
      [
        "am",
        -6.863045688465646
      ],
      [
        "▁Le",
        -6.864975679475409
      ],
      [
        "▁lui",
        -6.867659151283879
      ],
      [
        "▁xar",
        -6.8770912848351715
      ],
      [
        "ette",
        -6.895055633564876
      ],
      [
        "s.",
        -6.90037199403371
      ],
      [
        "▁Am",
        -6.90272567373219
      ],
      [
        "▁voilà",
        -6.903010324081864
      ],
      [
        "▁mouton",
        -6.903264579807045
      ],
      [
        "▁ñi",
        -6.911703698789472
      ],
      [
        "▁moi",
        -6.912008658569371
      ],
      [
        "x",
        -6.92434179274556
      ],
      [
        "▁enfants",
        -6.934438814009209
      ],
      [
        "▁sa",
        -6.937197952943041
      ],
      [
        "▁toi",
        -6.943140735264886
      ],
      [
        "'est",
        -6.943849986917625
      ],
      [
        "▁Les",
        -6.944019068299202
      ],
      [
        "▁ji",
        -6.945719433077057
      ],
      [
        "▁Dem",
        -6.946462450071018
      ],
      [
        "▁ñoo",
        -6.957218980676572
      ],
      [
        "▁demee",
        -6.962648950052124
      ],
      [
        "-",
        -6.972707584408884
      ],
      [
        "▁couleur",
        -6.9816512806766315
      ],
      [
        "▁venu",
        -6.989550250165143
      ],
      [
        "▁vous",
        -6.99369547176126
      ],
      [
        "▁moo",
        -6.998719007092401
      ],
      [
        "te",
        -7.011666209354744
      ],
      [
        "▁partir",
        -7.01612924224569
      ],
      [
        "▁laa",
        -7.017630321339969
      ],
      [
        "▁fa",
        -7.019920408720338
      ],
      [
        "▁qu'",
        -7.028377939131213
      ],
      [
        "▁Cet",
        -7.031179158313181
      ],
      [
        "▁demul",
        -7.038011071175237
      ],
      [
        "▁kenn",
        -7.038515006621189
      ],
      [
        "▁maison",
        -7.039028568163046
      ],
      [
        "▁Quel",
        -7.0418131897909415
      ],
      [
        "▁dit",
        -7.074126274347853
      ],
      [
        "▁veux",
        -7.075718759427598
      ],
      [
        "▁s",
        -7.080929201779431
      ],
      [
        "▁n'es",
        -7.089291308558387
      ],
      [
        "▁ŋgeen",
        -7.090073453297912
      ],
      [
        "▁où",
        -7.090145843042863
      ],
      [
        "▁Un",
        -7.100191001744234
      ],
      [
        "ù",
        -7.102147567378387
      ],
      [
        "▁part",
        -7.1100271632518925
      ],
      [
        "▁C",
        -7.1103626765759
      ],
      [
        "▁l",
        -7.114507199634528
      ],
      [
        "▁Maa",
        -7.128201645359139
      ],
      [
        "▁jigéen",
        -7.129551972116002
      ],
      [
        "▁seen",
        -7.138308875980439
      ],
      [
        "ataal",
        -7.139100731222332
      ],
      [
        "▁Waaw",
        -7.143445448607997
      ],
      [
        "ment",
        -7.143452696444342
      ],
      [
        "▁ag",
        -7.1451197608925945
      ],
      [
        "ul",
        -7.157441741421724
      ],
      [
        "eux",
        -7.160549437120698
      ],
      [
        "▁bien",
        -7.171585486009836
      ],
      [
        "ez",
        -7.176803548336686
      ],
      [
        "ñ",
        -7.18406975226779
      ],
      [
        "▁t",
        -7.190536469239548
      ],
      [
        "▁rafet",
        -7.193437536852361
      ],
      [
        "▁weex",
        -7.193937428366921
      ],
      [
        "ont",
        -7.20821904429404
      ],
      [
        "er",
        -7.208956585541452
      ],
      [
        "▁m",
        -7.214404954123603
      ],
      [
        "▁xarit",
        -7.228443856475639
      ],
      [
        "▁garab",
        -7.2287844609887095
      ],
      [
        "...",
        -7.233709661804538
      ],
      [
        "▁ca",
        -7.239595554104643
      ],
      [
        "▁da",
        -7.249397264358927
      ],
      [
        "▁Xar",
        -7.251499911150551
      ],
      [
        "▁toog",
        -7.257017012457897
      ],
      [
        "▁soo",
        -7.2636014981178265
      ],
      [
        "en",
        -7.270442238866221
      ],
      [
        "▁doon",
        -7.274126863738472
      ],
      [
        "▁réer",
        -7.276348419983767
      ],
      [
        "▁plus",
        -7.284487588899598
      ],
      [
        "w",
        -7.285358831286403
      ],
      [
        "rès",
        -7.292660418708803
      ],
      [
        "d",
        -7.298515705055625
      ],
      [
        "▁J",
        -7.303165300233287
      ],
      [
        "▁De",
        -7.305550851748844
      ],
      [
        "▁n'a",
        -7.307500865928819
      ],
      [
        "▁ami",
        -7.310706300226542
      ],
      [
        "▁porte",
        -7.316525150721166
      ],
      [
        "▁femme",
        -7.319152879077901
      ],
      [
        "▁man",
        -7.329028314532197
      ],
      [
        "▁Su",
        -7.332235937322614
      ],
      [
        "▁ñax",
        -7.33803298596661
      ],
      [
        "▁À",
        -7.340094532373859
      ],
      [
        "▁gens",
        -7.344901335270693
      ],
      [
        "▁Qui",
        -7.345156375926846
      ],
      [
        "▁veut",
        -7.349650632157054
      ],
      [
        "▁Comme",
        -7.3523580780671365
      ],
      [
        "▁ou",
        -7.36754991800847
      ],
      [
        "▁Sée",
        -7.371033954766349
      ],
      [
        "ent",
        -7.380672090191226
      ],
      [
        "▁moutons",
        -7.381878577310818
      ],
      [
        "▁yépp",
        -7.382849732120627
      ],
      [
        "▁kër",
        -7.3851560211962255
      ],
      [
        "▁bunt",
        -7.385548240337059
      ],
      [
        "▁fu",
        -7.399956230008435
      ],
      [
        "▁Fa",
        -7.401486998662834
      ],
      [
        "oo",
        -7.405236432628392
      ],
      [
        "▁k",
        -7.41000581756975
      ],
      [
        "épp",
        -7.410979087585344
      ],
      [
        "▁jusqu'",
        -7.420179345195841
      ],
      [
        "▁ceux-là",
        -7.421740476577539
      ],
      [
        "▁j'",
        -7.4218049013872145
      ],
      [
        "▁peut-être",
        -7.421998172223802
      ],
      [
        "▁Lii",
        -7.429356873584987
      ],
      [
        "▁So",
        -7.435378621608761
      ],
      [
        "▁kooku",
        -7.435613444413136
      ],
      [
        "▁Si",
        -7.44105243912982
      ],
      [
        "▁waaw",
        -7.443013669297626
      ],
      [
        "ukaay",
        -7.443634564094603
      ],
      [
        "▁lool",
        -7.448307719578664
      ],
      [
        "it",
        -7.451807407576327
      ],
      [
        "▁va",
        -7.4530127321879736
      ],
      [
        "▁L",
        -7.453294225326526
      ],
      [
        "▁là-bas",
        -7.465009827011006
      ],
      [
        "▁l'autre",
        -7.465193711413892
      ],
      [
        "▁au",
        -7.467307541434419
      ],
      [
        "▁Na",
        -7.468231021700547
      ],
      [
        "▁d'autres",
        -7.473289483454206
      ],
      [
        "▁Ba",
        -7.479521900676193
      ],
      [
        "est",
        -7.480252091483206
      ],
      [
        "▁ku",
        -7.4805099836252165
      ],
      [
        "▁lañu",
        -7.483866902934876
      ],
      [
        "▁chambre",
        -7.486525600148113
      ],
      [
        "▁waa",
        -7.487010006976716
      ],
      [
        "▁Du",
        -7.49065810131968
      ],
      [
        "quelle",
        -7.491054734619615
      ],
      [
        "▁Que",
        -7.496965405872348
      ],
      [
        "g",
        -7.50658861770107
      ],
      [
        "▁Vous",
        -7.509620598835221
      ],
      [
        "taal",
        -7.509997714761511
      ],
      [
        "▁rekk",
        -7.5101786635193974
      ],
      [
        "▁Mais",
        -7.510789904541086
      ],
      [
        "▁kaw",
        -7.511376057192381
      ],
      [
        "▁leen",
        -7.514479995807764
      ],
      [
        "la",
        -7.525538819319236
      ],
      [
        "re",
        -7.525727951632504
      ],
      [
        "tu",
        -7.531117484466375
      ],
      [
        "▁b",
        -7.531866660160331
      ],
      [
        "h",
        -7.535252115437517
      ],
      [
        "k",
        -7.541309084324928
      ],
      [
        "▁personne",
        -7.541970311134776
      ],
      [
        "▁baax",
        -7.54477604341187
      ],
      [
        "▁ya",
        -7.5478472666800105
      ],
      [
        "uñu",
        -7.55220650907355
      ],
      [
        "▁nañu",
        -7.554152358338428
      ],
      [
        "is",
        -7.557158739496398
      ],
      [
        "▁Xale",
        -7.557422912268224
      ],
      [
        "▁noppi",
        -7.5591113326227495
      ],
      [
        "▁gu",
        -7.55983927733007
      ],
      [
        "▁foofu",
        -7.560384592083523
      ],
      [
        "▁Te",
        -7.5626895896877455
      ],
      [
        "fa",
        -7.56903500365223
      ],
      [
        "▁mën",
        -7.5737042882949375
      ],
      [
        "▁Ma",
        -7.574623370710071
      ],
      [
        "▁d'",
        -7.597757938047529
      ],
      [
        "▁s'",
        -7.5993033728919945
      ],
      [
        "▁semble",
        -7.599412048641859
      ],
      [
        "▁l'a",
        -7.60280898952519
      ],
      [
        "▁su",
        -7.603727513132068
      ],
      [
        "▁dara",
        -7.6063028774384716
      ],
      [
        "▁D",
        -7.606606417703285
      ],
      [
        "▁j'ai",
        -7.608104642762308
      ],
      [
        "un",
        -7.608949629506121
      ],
      [
        "▁lii",
        -7.621757173024605
      ],
      [
        "c",
        -7.622633158259401
      ],
      [
        "▁dana",
        -7.625318819061444
      ],
      [
        "▁dañ",
        -7.626523739689114
      ],
      [
        "▁teg",
        -7.634501983876894
      ],
      [
        "▁quelle",
        -7.635221322596165
      ],
      [
        "▁Mi",
        -7.636212580450568
      ],
      [
        "de",
        -7.639673896145853
      ],
      [
        "▁qu",
        -7.653642536827462
      ],
      [
        "-là",
        -7.654223503835504
      ],
      [
        "▁Moo",
        -7.658069977627859
      ],
      [
        "▁crois",
        -7.6603603948974595
      ],
      [
        "▁Keneen",
        -7.660911084961958
      ],
      [
        "▁yooyu",
        -7.66107262601432
      ],
      [
        "▁Oui",
        -7.661478641594941
      ],
      [
        "▁sax",
        -7.663046633192143
      ],
      [
        "▁wet",
        -7.663493441861965
      ],
      [
        "▁maa",
        -7.663572444305949
      ],
      [
        "\"",
        -7.672900666443397
      ],
      [
        "▁Yaa",
        -7.673161395768724
      ],
      [
        "▁on",
        -7.6738862579374025
      ],
      [
        "▁autres",
        -7.676531746946032
      ],
      [
        "▁dañu",
        -7.681344850477281
      ],
      [
        "koon",
        -7.6836762869033475
      ],
      [
        "▁F",
        -7.691473077289778
      ],
      [
        "▁daa",
        -7.692476612572493
      ],
      [
        "▁fait",
        -7.696606147188067
      ],
      [
        "▁égaré",
        -7.699123284757204
      ],
      [
        "▁yoo",
        -7.707450607036991
      ],
      [
        "or",
        -7.711531234985866
      ],
      [
        "voir",
        -7.7115990903327765
      ],
      [
        "▁doŋŋ",
        -7.714792326488322
      ],
      [
        "▁Samba",
        -7.715165469272055
      ],
      [
        "▁Ndax",
        -7.715239288343513
      ],
      [
        "▁lion",
        -7.715263677230762
      ],
      [
        "▁donné",
        -7.715301266877066
      ],
      [
        "▁aperç",
        -7.715347104743438
      ],
      [
        "▁celui",
        -7.715678075192739
      ],
      [
        "▁quelqu'un",
        -7.71607461267485
      ],
      [
        "▁daal",
        -7.72401740204193
      ],
      [
        "na",
        -7.734916593033699
      ],
      [
        "▁Bëgg",
        -7.745754810707203
      ],
      [
        "▁n'",
        -7.74910546299294
      ],
      [
        "▁kan",
        -7.752794826855476
      ],
      [
        "▁même",
        -7.753671739920449
      ],
      [
        "▁ban",
        -7.754270785566959
      ],
      [
        "▁Waa",
        -7.754828125267537
      ],
      [
        "igéen",
        -7.769009719800521
      ],
      [
        "▁Seet",
        -7.773157682515686
      ],
      [
        "▁soit",
        -7.781941135895437
      ],
      [
        "▁bari",
        -7.783497504956401
      ],
      [
        "b",
        -7.785679323817298
      ],
      [
        "▁ñuul",
        -7.787731086587421
      ],
      [
        "oi",
        -7.792291280734456
      ],
      [
        "▁arbres",
        -7.7934828330594055
      ],
      [
        "ël",
        -7.794016164312537
      ],
      [
        "▁personnes",
        -7.797172848571176
      ],
      [
        "▁P",
        -7.803598513928645
      ],
      [
        "▁dul",
        -7.815527005512531
      ],
      [
        "▁fii",
        -7.816103463631576
      ],
      [
        "▁Va",
        -7.819203826463488
      ],
      [
        "▁quelqu",
        -7.827018999793909
      ],
      [
        "que",
        -7.832671452894116
      ],
      [
        "▁pa",
        -7.8335829448389545
      ],
      [
        "▁génn",
        -7.836030708767272
      ],
      [
        "▁Naka",
        -7.836109711283086
      ],
      [
        "▁tamit",
        -7.836130539816974
      ],
      [
        "▁ñépp",
        -7.836739144462232
      ],
      [
        "▁beaucoup",
        -7.836779119469135
      ],
      [
        "▁p",
        -7.836835810886969
      ],
      [
        "▁Laobe",
        -7.8375616101513526
      ],
      [
        "▁parte",
        -7.838289123770144
      ],
      [
        "▁vache",
        -7.838309224114288
      ],
      [
        "▁verre",
        -7.84115861923606
      ],
      [
        "▁demkoon",
        -7.841380238149247
      ],
      [
        "▁voit",
        -7.842607029240838
      ],
      [
        "▁passe",
        -7.8426864157157254
      ],
      [
        "▁Mu",
        -7.8494933348691545
      ],
      [
        "▁pars",
        -7.8586381892873485
      ],
      [
        "▁dee",
        -7.858717911562408
      ],
      [
        "ñu",
        -7.8639161352847875
      ],
      [
        "▁femmes",
        -7.870993232635243
      ],
      [
        "▁S",
        -7.875317835726575
      ],
      [
        "▁poisson",
        -7.878991060113478
      ],
      [
        "▁peut",
        -7.889992082904926
      ],
      [
        "▁M",
        -7.895365878697536
      ],
      [
        "▁m'a",
        -7.896388694856775
      ],
      [
        ":",
        -7.897048162751526
      ],
      [
        "▁yeneen",
        -7.901675799766734
      ],
      [
        "▁coté",
        -7.90215094457483
      ],
      [
        "▁S'il",
        -7.902318593657639
      ],
      [
        "▁Aucun",
        -7.902601009793176
      ],
      [
        "▁Yaw",
        -7.90271311801998
      ],
      [
        "▁rien",
        -7.902815066274279
      ],
      [
        "▁Kooku",
        -7.903343998254713
      ],
      [
        "▁Xam",
        -7.907112237434758
      ],
      [
        "▁ñan",
        -7.9073519915791195
      ],
      [
        "▁ndaw",
        -7.908116594482442
      ],
      [
        "▁Ya",
        -7.909387234394822
      ],
      [
        "dax",
        -7.910269006775031
      ],
      [
        "▁itam",
        -7.91279960904744
      ],
      [
        "▁tou",
        -7.913657687820596
      ],
      [
        "▁ont",
        -7.918918909558946
      ],
      [
        "▁Li",
        -7.921394106337796
      ],
      [
        "▁Daf",
        -7.9271415861710866
      ],
      [
        "▁quel",
        -7.927325166749666
      ],
      [
        "▁parles",
        -7.930554702123761
      ],
      [
        "▁posé",
        -7.939942284833391
      ],
      [
        "▁étai",
        -7.946004798424845
      ],
      [
        "▁blanc",
        -7.947398047210378
      ],
      [
        "▁Ñu",
        -7.947680274708542
      ],
      [
        "▁gii",
        -7.951959916819753
      ],
      [
        "▁avait",
        -7.954800802533033
      ],
      [
        "di",
        -7.956975330574066
      ],
      [
        "leurs",
        -7.961142953113706
      ],
      [
        "▁B",
        -7.967501784793837
      ],
      [
        "ag",
        -7.972131679588806
      ],
      [
        "▁matin",
        -7.973857415150087
      ],
      [
        "▁blanche",
        -7.974411114865001
      ],
      [
        "▁Celui-là",
        -7.97445110751416
      ],
      [
        "▁ressemble",
        -7.9744878912574455
      ],
      [
        "▁simplement",
        -7.974583481381615
      ],
      [
        "▁lequel",
        -7.97498494723789
      ],
      [
        "▁celui-ci",
        -7.975149761112082
      ],
      [
        "▁qu'elle",
        -7.976727065556449
      ],
      [
        "▁mépp",
        -7.976854941093684
      ],
      [
        "▁gaynde",
        -7.977430648986356
      ],
      [
        "▁bon",
        -7.979453402133805
      ],
      [
        "▁son",
        -7.979499451473595
      ],
      [
        "▁dame",
        -7.983343841186128
      ],
      [
        "▁Tout",
        -7.984460591575322
      ],
      [
        "▁\"",
        -7.985103722444737
      ],
      [
        "▁sorte",
        -7.987118494773744
      ],
      [
        "▁par",
        -7.992539793020688
      ],
      [
        "▁nii",
        -7.9940527480178405
      ],
      [
        "▁j",
        -7.995469953955548
      ],
      [
        "▁wall",
        -8.002347635676484
      ],
      [
        "▁t'a",
        -8.004956357487938
      ],
      [
        "ee",
        -8.010652456451375
      ],
      [
        "aw",
        -8.019275397185378
      ],
      [
        "▁Y",
        -8.021749436921887
      ],
      [
        "naa",
        -8.023023086860928
      ],
      [
        "▁dëkk",
        -8.026083507292466
      ],
      [
        "▁jolie",
        -8.031638309032335
      ],
      [
        "een",
        -8.0354787069306
      ],
      [
        "▁ici",
        -8.039719012289945
      ],
      [
        "▁jëm",
        -8.050067821516773
      ],
      [
        "▁wirgo",
        -8.050452713143828
      ],
      [
        "▁<mask>",
        -8.05068817553764
      ],
      [
        "▁Yéen",
        -8.051415134623932
      ],
      [
        "▁bois",
        -8.053019544298191
      ],
      [
        "▁dugg",
        -8.054655358945185
      ],
      [
        "▁bëggul",
        -8.054973226289507
      ],
      [
        "ant",
        -8.057090093407751
      ],
      [
        "▁mais",
        -8.061306079785336
      ],
      [
        "▁doom",
        -8.06286632258981
      ],
      [
        "▁dénk",
        -8.063963651992644
      ],
      [
        "óon",
        -8.064072140707209
      ],
      [
        "▁viendra",
        -8.065094256697428
      ],
      [
        "▁fut",
        -8.070907511348501
      ],
      [
        "▁Ken",
        -8.073932285897833
      ],
      [
        "▁café",
        -8.07646560011106
      ],
      [
        "-ci",
        -8.0772816062434
      ],
      [
        "▁f",
        -8.077972255980312
      ],
      [
        "▁es",
        -8.083755432741842
      ],
      [
        "les",
        -8.095922147915806
      ],
      [
        "▁Man",
        -8.097517064781442
      ],
      [
        "-t",
        -8.101885655507752
      ],
      [
        "▁liggéey",
        -8.102279673275708
      ],
      [
        "ri",
        -8.105727621869633
      ],
      [
        "▁vo",
        -8.106976125294468
      ],
      [
        "▁ŋgii",
        -8.107185448793848
      ],
      [
        "▁nda",
        -8.107200358096186
      ],
      [
        "e.",
        -8.108406522207936
      ],
      [
        "▁vienne",
        -8.115078660808678
      ],
      [
        "▁may",
        -8.116703946731455
      ],
      [
        "tes",
        -8.116783011270487
      ],
      [
        "ñaar",
        -8.117030815405652
      ],
      [
        "▁kii",
        -8.120561467786937
      ],
      [
        "▁d'un",
        -8.12122983163744
      ],
      [
        "▁R",
        -8.123585495997041
      ],
      [
        "▁Quelle",
        -8.124723188998296
      ],
      [
        "▁Ku",
        -8.128644832520077
      ],
      [
        ";",
        -8.128733144436673
      ],
      [
        "▁lal",
        -8.131090435810169
      ],
      [
        "▁Bu",
        -8.132643848291712
      ],
      [
        "▁Jox",
        -8.132715596475844
      ],
      [
        "▁suuf",
        -8.13307333318302
      ],
      [
        "▁yónne",
        -8.133482189920581
      ],
      [
        "▁Jaam",
        -8.133530521783797
      ],
      [
        "▁fas",
        -8.133625631912174
      ],
      [
        "▁Waaye",
        -8.133685985131812
      ],
      [
        "aada",
        -8.133847165755776
      ],
      [
        "▁Cherche",
        -8.133904670501158
      ],
      [
        "▁théière",
        -8.13391026281784
      ],
      [
        "▁question",
        -8.134069684343993
      ],
      [
        "▁Saint-Louis",
        -8.1343482369952
      ],
      [
        "▁seulement",
        -8.13435076399422
      ],
      [
        "yan",
        -8.135189803214825
      ],
      [
        "▁taxaw",
        -8.135969858736143
      ],
      [
        "▁nee",
        -8.137472762819304
      ],
      [
        "▁Ndar",
        -8.137487958057019
      ],
      [
        "▁Demal",
        -8.137577719650139
      ],
      [
        "▁Defe",
        -8.137858057354672
      ],
      [
        "▁bañ",
        -8.13921825421528
      ],
      [
        "▁beneen",
        -8.142278755565178
      ],
      [
        "▁Mon",
        -8.151321173746627
      ],
      [
        "▁lay",
        -8.151330441628783
      ],
      [
        "▁mag",
        -8.15164952901446
      ],
      [
        "▁li",
        -8.154032086089643
      ],
      [
        "ma",
        -8.154894112376398
      ],
      [
        "▁ëe",
        -8.159972800916925
      ],
      [
        "▁Bi",
        -8.160114980584305
      ],
      [
        "▁voir",
        -8.160381236640768
      ],
      [
        "▁dëkku",
        -8.16095827742074
      ],
      [
        "▁vas",
        -8.166707947683399
      ],
      [
        "▁T",
        -8.167311776708248
      ],
      [
        "▁W",
        -8.18555468395117
      ],
      [
        "▁fille",
        -8.186070414763654
      ],
      [
        "▁Di",
        -8.186209063473907
      ],
      [
        "f",
        -8.189893253267613
      ],
      [
        "▁v",
        -8.190277939230509
      ],
      [
        "tte",
        -8.193033528182648
      ],
      [
        "gee",
        -8.193314541484293
      ],
      [
        "▁comme",
        -8.19738025989673
      ],
      [
        "ce",
        -8.198761892943208
      ],
      [
        "afa",
        -8.203603772256034
      ],
      [
        "▁jeune",
        -8.208903467318002
      ],
      [
        "▁lañ",
        -8.209015495345149
      ],
      [
        "▁Wax",
        -8.210545649639208
      ],
      [
        "▁Bon",
        -8.212871786318257
      ],
      [
        "▁nul",
        -8.216189122744721
      ],
      [
        "ces",
        -8.216219032093594
      ],
      [
        "vais",
        -8.22082060606848
      ],
      [
        "'étai",
        -8.220884130647322
      ],
      [
        "▁paix",
        -8.223799195764034
      ],
      [
        "▁assis",
        -8.22399805888556
      ],
      [
        "▁Homme",
        -8.224051544899819
      ],
      [
        "▁séché",
        -8.2241303917247
      ],
      [
        "▁cheval",
        -8.224183521926513
      ],
      [
        "▁Xammee",
        -8.224300334392556
      ],
      [
        "▁tabax",
        -8.224322720873566
      ],
      [
        "▁defe",
        -8.224724161166115
      ],
      [
        "▁Qu'il",
        -8.224810678009453
      ],
      [
        "▁couleurs",
        -8.226898599111388
      ],
      [
        "▁yaw",
        -8.229875204911803
      ],
      [
        "▁koo",
        -8.233094204773504
      ],
      [
        "▁xamant",
        -8.238682826513578
      ],
      [
        "and",
        -8.239109809558283
      ],
      [
        "▁An",
        -8.239188095979948
      ],
      [
        "ux",
        -8.239337216899408
      ],
      [
        "▁partira",
        -8.242644335466531
      ],
      [
        "▁Là",
        -8.242847999239054
      ],
      [
        "▁leur",
        -8.248098012485778
      ],
      [
        "▁xaw",
        -8.249742028543402
      ],
      [
        "▁égarée",
        -8.251465928230196
      ],
      [
        "▁tay",
        -8.25490079885126
      ],
      [
        "▁Ben",
        -8.255117435765417
      ],
      [
        "▁sui",
        -8.256707033493115
      ],
      [
        "▁sol",
        -8.2661652672217
      ],
      [
        "▁ira",
        -8.26617925371785
      ],
      [
        "réer",
        -8.268820173187244
      ],
      [
        "▁peu",
        -8.276451092887019
      ],
      [
        "▁no",
        -8.278868221375504
      ],
      [
        "▁partis",
        -8.281821226469264
      ],
      [
        "elle",
        -8.282246507291923
      ],
      [
        "▁entre",
        -8.282293578409655
      ],
      [
        "ngi",
        -8.284734388315464
      ],
      [
        "▁w",
        -8.286273731726737
      ],
      [
        "▁parl",
        -8.287993101531022
      ],
      [
        "▁serai",
        -8.289007438724964
      ],
      [
        "▁ai",
        -8.303585946420782
      ],
      [
        "ais",
        -8.307010659005215
      ],
      [
        "pp",
        -8.309020745635161
      ],
      [
        "ab",
        -8.309427516139896
      ],
      [
        "mi",
        -8.309703542378912
      ],
      [
        "atim",
        -8.319909612991916
      ],
      [
        "p",
        -8.321420805218985
      ],
      [
        "▁l'",
        -8.321501585372364
      ],
      [
        "gi",
        -8.32223583767495
      ],
      [
        "▁Koo",
        -8.32250451235868
      ],
      [
        "▁subë",
        -8.323413526225199
      ],
      [
        "▁ñett",
        -8.323576217954445
      ],
      [
        "▁sucre",
        -8.323676770970454
      ],
      [
        "▁trois",
        -8.323688939462533
      ],
      [
        "▁Alors",
        -8.323762886106659
      ],
      [
        "▁Lawbe",
        -8.323824485385016
      ],
      [
        "▁encore",
        -8.323901851615743
      ],
      [
        "▁Moussa",
        -8.32391287494502
      ],
      [
        "▁Fatim",
        -8.32411158697236
      ],
      [
        "▁d'Europe",
        -8.324222442425217
      ],
      [
        "▁au-dessus",
        -8.324335461327264
      ],
      [
        "▁allé",
        -8.324917491705172
      ],
      [
        "▁envoyée",
        -8.325891074470178
      ],
      [
        "▁gën",
        -8.326269614371663
      ],
      [
        "▁Me",
        -8.326377688816628
      ],
      [
        "ée",
        -8.327326108377655
      ],
      [
        "▁Sa",
        -8.327471979103747
      ],
      [
        "▁biti",
        -8.327927417521032
      ],
      [
        "▁endroit",
        -8.32873435456811
      ],
      [
        "▁ñëwul",
        -8.330188358923909
      ],
      [
        "▁Moom",
        -8.330225806927409
      ],
      [
        "▁g",
        -8.331468555787422
      ],
      [
        "être",
        -8.332519705748766
      ],
      [
        "ou",
        -8.333254947225274
      ],
      [
        "▁Voil",
        -8.342688202392438
      ],
      [
        "▁aujourd'hui",
        -8.34273926640019
      ],
      [
        "▁N",
        -8.344348006310227
      ],
      [
        "▁jën",
        -8.346469524676387
      ],
      [
        "ale",
        -8.34820384625102
      ],
      [
        "▁waay",
        -8.348718858915277
      ],
      [
        "enn",
        -8.356781957082076
      ],
      [
        "▁partes",
        -8.357028648690846
      ],
      [
        "▁weer",
        -8.360439580613352
      ],
      [
        "▁ré",
        -8.361807139594648
      ],
      [
        "▁sama",
        -8.370824799972842
      ],
      [
        "▁aller",
        -8.370964973530644
      ],
      [
        "▁Nou",
        -8.372529619728725
      ],
      [
        "▁re",
        -8.373706588346067
      ],
      [
        "lu",
        -8.376144208773967
      ],
      [
        "baar",
        -8.377182418946218
      ],
      [
        "▁bar",
        -8.377211856239715
      ],
      [
        "▁lit",
        -8.3855419761942
      ],
      [
        "▁ñ",
        -8.391622280576057
      ],
      [
        "▁conçue",
        -8.398403825829085
      ],
      [
        "▁pay",
        -8.399048300709092
      ],
      [
        "àll",
        -8.400686576758487
      ],
      [
        "fin",
        -8.405948495661374
      ],
      [
        "▁wi",
        -8.406306199430777
      ],
      [
        "ait",
        -8.406940150505365
      ],
      [
        "près",
        -8.424184078453495
      ],
      [
        "▁Ne",
        -8.424909507803083
      ],
      [
        "uma",
        -8.431556514104939
      ],
      [
        "▁Mbaa",
        -8.434119975408894
      ],
      [
        "▁vrai",
        -8.434197674868685
      ],
      [
        "▁rek",
        -8.434237590074357
      ],
      [
        "▁acheté",
        -8.434596171936754
      ],
      [
        "▁Sérère",
        -8.434613030630878
      ],
      [
        "▁morceau",
        -8.434754128701796
      ],
      [
        "▁Loolu",
        -8.434850842701
      ],
      [
        "▁jaŋg",
        -8.434917814191934
      ],
      [
        "▁manière",
        -8.43491805405437
      ],
      [
        "▁l'un",
        -8.436153023070432
      ],
      [
        "▁s'en",
        -8.436866186773203
      ],
      [
        "▁noonu",
        -8.437108844644035
      ],
      [
        "▁J'",
        -8.437686293232662
      ],
      [
        "▁Boo",
        -8.438435894728626
      ],
      [
        "▁bépp",
        -8.438933216335448
      ],
      [
        "▁dox",
        -8.439804145874351
      ],
      [
        "▁téer",
        -8.441112133476592
      ],
      [
        "▁Tay",
        -8.44290421398416
      ],
      [
        "st-ce",
        -8.442918127138055
      ],
      [
        "▁ŋgoon",
        -8.442963767887125
      ],
      [
        "▁ça",
        -8.447183580991641
      ],
      [
        "▁bind",
        -8.448229095968081
      ],
      [
        "▁Doo",
        -8.450170052606829
      ],
      [
        "est-ce",
        -8.45031301372448
      ],
      [
        "▁Loo",
        -8.450508310904137
      ],
      [
        "▁jan",
        -8.450516486497618
      ],
      [
        "▁ju",
        -8.450589464045615
      ],
      [
        "▁V",
        -8.463467720692423
      ],
      [
        "▁viennes",
        -8.463675582259647
      ],
      [
        "▁lanu",
        -8.466731024009137
      ],
      [
        "geen",
        -8.467433059537697
      ],
      [
        "▁bare",
        -8.469910145861492
      ],
      [
        "▁connais",
        -8.473772898472028
      ],
      [
        "▁May",
        -8.474372503344878
      ],
      [
        "▁me",
        -8.474952193818394
      ],
      [
        "iez",
        -8.478837217099077
      ],
      [
        "▁Ca",
        -8.479270848692904
      ],
      [
        "▁ga",
        -8.480260420921619
      ],
      [
        "▁L'",
        -8.490412451292553
      ],
      [
        "leen",
        -8.492098661157879
      ],
      [
        "▁lan",
        -8.501434017802334
      ],
      [
        "r.",
        -8.504936562062124
      ],
      [
        "▁avais",
        -8.506331855891357
      ],
      [
        "ppelle",
        -8.51422111282
      ],
      [
        "v",
        -8.51430319317251
      ],
      [
        "ons",
        -8.514547085572662
      ],
      [
        "▁mo",
        -8.519234285941794
      ],
      [
        "ir",
        -8.520526380855955
      ],
      [
        "▁eû",
        -8.526077977325665
      ],
      [
        "es.",
        -8.528702313764569
      ],
      [
        "▁arrivé",
        -8.544340331556644
      ],
      [
        "▁Ñ",
        -8.547802814374357
      ],
      [
        "óo",
        -8.5478713582662
      ],
      [
        "ées",
        -8.548282559073105
      ],
      [
        "j",
        -8.550675883143258
      ],
      [
        "▁woo",
        -8.552013691531558
      ],
      [
        "▁K",
        -8.555473163503903
      ],
      [
        "▁réew",
        -8.555954347586527
      ],
      [
        "▁Laobé",
        -8.556444489076206
      ],
      [
        "▁reste",
        -8.556817858409815
      ],
      [
        "▁Musaa",
        -8.55792127666428
      ],
      [
        "G",
        -8.558598515434571
      ],
      [
        "▁ànd",
        -8.558653107454276
      ],
      [
        "▁appelle",
        -8.558722070525521
      ],
      [
        "▁rouge",
        -8.558877588521225
      ],
      [
        "▁ainsi",
        -8.55889158646072
      ],
      [
        "▁milieu",
        -8.55913808874104
      ],
      [
        "▁entier",
        -8.559146281613781
      ],
      [
        "▁chevaux",
        -8.559254947952368
      ],
      [
        "▁wër",
        -8.559331291367451
      ],
      [
        "▁assurément",
        -8.559563039994826
      ],
      [
        "▁pourtant",
        -8.559697262484224
      ],
      [
        "▁wanag",
        -8.559712446107381
      ],
      [
        "▁dé",
        -8.560006761998764
      ],
      [
        "▁yaa",
        -8.560854083183088
      ],
      [
        "▁lieu",
        -8.561780568505437
      ],
      [
        "▁Par",
        -8.562363027469807
      ],
      [
        "▁sortir",
        -8.562485394003897
      ],
      [
        "▁Kookule",
        -8.56332871390849
      ],
      [
        "▁Toi",
        -8.563868768051618
      ],
      [
        "▁gejje",
        -8.565985537313434
      ],
      [
        "▁Woo",
        -8.566096501663562
      ],
      [
        "'habitude",
        -8.567665516929193
      ],
      [
        "▁kow",
        -8.568376481936536
      ],
      [
        "▁Wu",
        -8.56966561799878
      ],
      [
        "ŋga",
        -8.56979654087274
      ],
      [
        "▁Noonu",
        -8.570340022737218
      ],
      [
        "▁cherche",
        -8.5756846050617
      ],
      [
        "▁boobu",
        -8.579188953865515
      ],
      [
        "▁nañ",
        -8.580008718185077
      ],
      [
        "▁bëggée",
        -8.5885633242867
      ],
      [
        "▁t'ai",
        -8.595075930413511
      ],
      [
        "▁Jën",
        -8.59776196818361
      ],
      [
        "▁sokolaa",
        -8.603645777732176
      ],
      [
        "vous",
        -8.605539292813901
      ],
      [
        "▁Noon",
        -8.606182359641172
      ],
      [
        "▁noir",
        -8.60623908188576
      ],
      [
        "▁cela",
        -8.609308525353311
      ],
      [
        "▁vient",
        -8.609925159566657
      ],
      [
        "gal",
        -8.613008168107067
      ],
      [
        "kat",
        -8.616790609263033
      ],
      [
        "▁wa",
        -8.619388808969516
      ],
      [
        "ient",
        -8.620397747242935
      ],
      [
        "▁av",
        -8.622397051701958
      ],
      [
        "▁portes",
        -8.625973379719682
      ],
      [
        "▁yoon",
        -8.626059222380844
      ],
      [
        "▁toute",
        -8.627358464291376
      ],
      [
        "sieur",
        -8.6297340725957
      ],
      [
        "quel",
        -8.630489674783615
      ],
      [
        "▁jii",
        -8.631975567273658
      ],
      [
        "▁seet",
        -8.633314411493188
      ],
      [
        "▁tax",
        -8.644963185826597
      ],
      [
        "▁l'ai",
        -8.64717089543927
      ],
      [
        "▁travail",
        -8.648534533107883
      ],
      [
        "▁Ra",
        -8.651038753679096
      ],
      [
        "▁petit",
        -8.652062168659077
      ],
      [
        "▁enfant",
        -8.654633732118887
      ],
      [
        "▁sorti",
        -8.658415403434752
      ],
      [
        "▁nu",
        -8.660577178604177
      ],
      [
        "▁pou",
        -8.66978710373906
      ],
      [
        "▁Fan",
        -8.673146440258241
      ],
      [
        "nga",
        -8.67471814257047
      ],
      [
        "▁mis",
        -8.674937522452014
      ],
      [
        "▁peut-",
        -8.677923778481867
      ],
      [
        "▁seul",
        -8.679765807444408
      ],
      [
        "▁më",
        -8.688988919888368
      ],
      [
        "▁mon",
        -8.689102091381525
      ],
      [
        "▁case",
        -8.68921470403007
      ],
      [
        "waay",
        -8.689717826263745
      ],
      [
        "moi",
        -8.694369579516259
      ],
      [
        "▁Casamance",
        -8.698610494194503
      ],
      [
        "▁boeuf",
        -8.698610747485017
      ],
      [
        "▁yeksi",
        -8.698611566077272
      ],
      [
        "▁drap",
        -8.698612449301553
      ],
      [
        "▁Ainsi",
        -8.698612456310162
      ],
      [
        "▁xonq",
        -8.6986260099445
      ],
      [
        "▁l'enfant",
        -8.698643129246635
      ],
      [
        "▁Deŋk",
        -8.698650183528517
      ],
      [
        "▁togg",
        -8.698691814541633
      ],
      [
        "▁dellusi",
        -8.698702470288353
      ],
      [
        "▁tudd",
        -8.699146768017568
      ],
      [
        "▁êtes",
        -8.69942425692141
      ],
      [
        "▁salle",
        -8.69956219695517
      ],
      [
        "▁tày",
        -8.699623963230467
      ],
      [
        "▁Parle",
        -8.701739820950982
      ],
      [
        "▁nous",
        -8.70174467991735
      ],
      [
        "▁devant",
        -8.702739289886216
      ],
      [
        "faire",
        -8.70302789283739
      ],
      [
        "▁mère",
        -8.70460886941716
      ],
      [
        "▁Foofu",
        -8.706145100452398
      ],
      [
        "▁chez",
        -8.706499150125367
      ],
      [
        "▁allai",
        -8.70661735605486
      ],
      [
        "▁Qu",
        -8.707600410313413
      ],
      [
        "▁soir",
        -8.709184465595706
      ],
      [
        "▁regard",
        -8.710434194529057
      ],
      [
        "▁so",
        -8.710778503152438
      ],
      [
        "▁jaune",
        -8.711502309184311
      ],
      [
        "▁neex",
        -8.711534740666092
      ],
      [
        "spère",
        -8.712165059554321
      ],
      [
        "▁caus",
        -8.713424014414043
      ],
      [
        "▁fleurs",
        -8.7146109743375
      ],
      [
        "ère",
        -8.716925536015543
      ],
      [
        "▁arrivés",
        -8.717220621673231
      ],
      [
        "▁n'ai",
        -8.720129650037133
      ],
      [
        "▁wane",
        -8.72185163818613
      ],
      [
        "▁Cela",
        -8.722863530656053
      ],
      [
        "▁...",
        -8.723059790879423
      ],
      [
        "▁t'en",
        -8.723230725650062
      ],
      [
        "▁ñooñu",
        -8.725395384797977
      ],
      [
        "▁com",
        -8.727183144859978
      ],
      [
        "▁Tou",
        -8.734322876618341
      ],
      [
        "▁demande",
        -8.735197186485951
      ],
      [
        "▁beau",
        -8.7369092136071
      ],
      [
        "▁daan",
        -8.738270124989215
      ],
      [
        "▁bol",
        -8.741424021311111
      ],
      [
        "▁na.",
        -8.741561409143904
      ],
      [
        "aay",
        -8.741865264711437
      ],
      [
        "individu",
        -8.742283020687077
      ],
      [
        "▁jooju",
        -8.748328200282096
      ],
      [
        "▁montre",
        -8.751156276771304
      ],
      [
        "▁fois",
        -8.754614858903405
      ],
      [
        "as",
        -8.759315628068268
      ],
      [
        "an",
        -8.761116866230516
      ],
      [
        "▁leneen",
        -8.76139174322333
      ],
      [
        "▁bula",
        -8.765077838085812
      ],
      [
        "▁fil",
        -8.767257738889953
      ],
      [
        "z",
        -8.76745287045857
      ],
      [
        "ë",
        -8.76941001045288
      ],
      [
        "▁nak",
        -8.769819394540725
      ],
      [
        "ra",
        -8.772524817632615
      ],
      [
        "▁në",
        -8.77669942332464
      ],
      [
        "ement",
        -8.77941762473446
      ],
      [
        "▁ñaa",
        -8.779932986433783
      ],
      [
        "▁Lu",
        -8.786335090393266
      ],
      [
        "▁loolu",
        -8.789579238624825
      ],
      [
        "▁ñooña",
        -8.792613385896022
      ],
      [
        "▁Daŋg",
        -8.795734332109225
      ],
      [
        "▁J'e",
        -8.801471948560787
      ],
      [
        "▁Ki",
        -8.80334713931398
      ],
      [
        "éel",
        -8.804342740404918
      ],
      [
        "▁s'agi",
        -8.825490922356867
      ],
      [
        "▁Moi",
        -8.829162007464284
      ],
      [
        "▁yee",
        -8.830220381214172
      ],
      [
        "ki",
        -8.83500260007504
      ],
      [
        "▁trouve",
        -8.835260449332765
      ],
      [
        "ous",
        -8.835638553639102
      ],
      [
        "tre",
        -8.836288116487504
      ],
      [
        "▁elle",
        -8.840773574577906
      ],
      [
        "▁d'autre",
        -8.842814465559734
      ],
      [
        "kk",
        -8.844052222284988
      ],
      [
        "▁Mang",
        -8.845534606310764
      ],
      [
        "▁arbre",
        -8.848651355384513
      ],
      [
        "▁it",
        -8.848699303688004
      ],
      [
        "▁ñen",
        -8.854146819211469
      ],
      [
        "ëf",
        -8.857568934316632
      ],
      [
        "▁Ñoo",
        -8.858602282268592
      ],
      [
        "ses",
        -8.85928271067066
      ],
      [
        "▁Men",
        -8.86045009706128
      ],
      [
        "ar",
        -8.861666556163136
      ],
      [
        "▁Jam",
        -8.86409222436148
      ],
      [
        "▁Ñe",
        -8.865149607270212
      ],
      [
        "▁d'esprit",
        -8.865277156008954
      ],
      [
        "▁Aujourd'hui",
        -8.865277156033265
      ],
      [
        "▁garçon",
        -8.8652772625738
      ],
      [
        "▁croyai",
        -8.865277627086655
      ],
      [
        "▁ràbb",
        -8.86527869854699
      ],
      [
        "▁peinture",
        -8.865296461072585
      ],
      [
        "▁loxo",
        -8.865299462989459
      ],
      [
        "▁Wolof",
        -8.86530187178451
      ],
      [
        "▁Waxtaan",
        -8.86531136704129
      ],
      [
        "▁suukër",
        -8.865312466935645
      ],
      [
        "▁route",
        -8.865321093434567
      ],
      [
        "▁jàkka",
        -8.865442954451504
      ],
      [
        "▁tasse",
        -8.865461897545126
      ],
      [
        "▁Génn",
        -8.865555318030106
      ],
      [
        "▁Ceux-là",
        -8.865672958145861
      ],
      [
        "▁fowu",
        -8.865819802262445
      ],
      [
        "▁ndox",
        -8.865971170374266
      ],
      [
        "▁couteau",
        -8.866010390344199
      ],
      [
        "▁Tugël",
        -8.866187792753797
      ],
      [
        "▁marchent",
        -8.86623683456574
      ],
      [
        "▁debout",
        -8.866405823556143
      ],
      [
        "▁Donne",
        -8.866491220270603
      ],
      [
        "▁dirait",
        -8.866509761649796
      ],
      [
        "▁dal",
        -8.866657741361855
      ],
      [
        "▁doonkoon",
        -8.866719321510594
      ],
      [
        "▁jaar",
        -8.867142158720188
      ],
      [
        "▁L'un",
        -8.867229735310712
      ],
      [
        "▁Dama",
        -8.867396314313762
      ],
      [
        "▁Ñii",
        -8.867648881194276
      ],
      [
        "▁mains",
        -8.868344746571957
      ],
      [
        "▁lëf",
        -8.868525203659127
      ],
      [
        "▁fépp",
        -8.868589466167544
      ],
      [
        "▁don",
        -8.868686315644508
      ],
      [
        "▁autre-là",
        -8.869890245080782
      ],
      [
        "▁kanam",
        -8.870052063893095
      ],
      [
        "▁tàll",
        -8.870154101426651
      ],
      [
        "▁habits",
        -8.870344331779837
      ],
      [
        "▁Më",
        -8.87101945442617
      ],
      [
        "▁Elle",
        -8.871059856227962
      ],
      [
        "▁n'étai",
        -8.873247347502438
      ],
      [
        "▁ville",
        -8.873268408618351
      ],
      [
        "▁wu",
        -8.8748785412939
      ],
      [
        "▁Nda",
        -8.874896157824239
      ],
      [
        "▁sain",
        -8.875315152418718
      ],
      [
        "el",
        -8.875842076995081
      ],
      [
        "▁kaas",
        -8.87590826919792
      ],
      [
        "▁feneen",
        -8.877665578048997
      ],
      [
        "oroom",
        -8.880114450519029
      ],
      [
        "▁jam",
        -8.880133274658956
      ],
      [
        "▁bekk",
        -8.880564041894278
      ],
      [
        "▁herbes",
        -8.880655403927602
      ],
      [
        "vent",
        -8.880794203360843
      ],
      [
        "ier",
        -8.885736283119586
      ],
      [
        "ax",
        -8.886040957945186
      ],
      [
        "▁X",
        -8.886383614426858
      ],
      [
        "▁dessin",
        -8.889767577193853
      ],
      [
        "▁ñaan",
        -8.890324156045102
      ],
      [
        "▁ceux",
        -8.891164402492413
      ],
      [
        "▁Dan",
        -8.891312136792465
      ],
      [
        "▁enfant-",
        -8.8918990170193
      ],
      [
        "▁refuse",
        -8.89379721187111
      ],
      [
        "▁wan",
        -8.894284841822463
      ],
      [
        "▁Dana",
        -8.894874553745824
      ],
      [
        "▁Vas",
        -8.895774104478551
      ],
      [
        "▁tali",
        -8.895941692881014
      ],
      [
        "▁mii",
        -8.89701846405765
      ],
      [
        "▁souhaite",
        -8.897942654987506
      ],
      [
        "ation",
        -8.898991655379689
      ],
      [
        "se",
        -8.909127272704943
      ],
      [
        "▁Waxa",
        -8.911567012647923
      ],
      [
        "▁Bar",
        -8.916442440133233
      ],
      [
        "▁garde",
        -8.922644911853329
      ],
      [
        "▁amen",
        -8.929365752147083
      ],
      [
        "kaay",
        -8.930730328819461
      ],
      [
        "▁pri",
        -8.933200745245578
      ],
      [
        "▁alal",
        -8.934232277852674
      ],
      [
        "▁aurai",
        -8.934464074221053
      ],
      [
        "rière",
        -8.937262439608936
      ],
      [
        "▁gen",
        -8.940656414053356
      ],
      [
        "▁comp",
        -8.945489039453257
      ],
      [
        "▁n'avai",
        -8.946309187359887
      ],
      [
        "ton",
        -8.947202013549614
      ],
      [
        "▁D'",
        -8.951050224964996
      ],
      [
        "bër",
        -8.954351219642119
      ],
      [
        "▁chocolat.",
        -8.954505504505255
      ],
      [
        "in",
        -8.956286482986032
      ],
      [
        "mu",
        -8.95707552407484
      ],
      [
        "▁Dis",
        -8.959175405885542
      ],
      [
        "ŋ",
        -8.967580526205357
      ],
      [
        "ien",
        -8.967928638931637
      ],
      [
        "connais",
        -8.97134870096687
      ],
      [
        "▁bleu",
        -8.97174114191269
      ],
      [
        "▁eux",
        -8.972827739903876
      ],
      [
        "ît",
        -8.974336816656725
      ],
      [
        "▁quelles",
        -8.980977590787072
      ],
      [
        "où",
        -8.9825276498992
      ],
      [
        "▁haut",
        -8.988175447677408
      ],
      [
        "▁viens",
        -8.992186699941076
      ],
      [
        "▁sokolaa.",
        -8.995175892630645
      ],
      [
        "▁alla",
        -8.999537540002617
      ],
      [
        "age",
        -9.001227416646659
      ],
      [
        "▁jooj",
        -9.004054159977308
      ],
      [
        "▁ta",
        -9.005645517912953
      ],
      [
        "▁Yo",
        -9.007501654171499
      ],
      [
        "▁individu",
        -9.011189987213056
      ],
      [
        "ool",
        -9.017364558420326
      ],
      [
        "▁t'",
        -9.018376785503772
      ],
      [
        "t.",
        -9.018657000344378
      ],
      [
        "lal",
        -9.02397542967761
      ],
      [
        "vait",
        -9.025366600912648
      ],
      [
        "bi",
        -9.025468505179933
      ],
      [
        "▁joli",
        -9.026776935652764
      ],
      [
        "▁cuisine",
        -9.02678353116052
      ],
      [
        "▁gan",
        -9.02931085920955
      ],
      [
        "▁bir",
        -9.030443446375115
      ],
      [
        "▁defare",
        -9.033086720428786
      ],
      [
        "▁moomu",
        -9.03483395935663
      ],
      [
        "▁to",
        -9.041060741796407
      ],
      [
        "▁livre",
        -9.048771955010043
      ],
      [
        "-il",
        -9.049784807730843
      ],
      [
        "rends",
        -9.051904773438096
      ],
      [
        "père",
        -9.053586553364141
      ],
      [
        "▁forêt",
        -9.065277155993314
      ],
      [
        "▁bûcheron",
        -9.065277156002393
      ],
      [
        "Ç",
        -9.065277156033266
      ],
      [
        "▁ustensile",
        -9.065277157177054
      ],
      [
        "▁auparavant",
        -9.06527715826637
      ],
      [
        "▁construction",
        -9.065277165303296
      ],
      [
        "▁domaine",
        -9.065277205525177
      ],
      [
        "▁fortune",
        -9.065278004341817
      ],
      [
        "▁dehors",
        -9.065278146601127
      ],
      [
        "▁maître",
        -9.065279019242771
      ],
      [
        "▁mosquée",
        -9.065279604287236
      ],
      [
        "▁Moontin",
        -9.065279755768833
      ],
      [
        "▁xaalis",
        -9.06527983811537
      ],
      [
        "▁veulent",
        -9.065293123643011
      ],
      [
        "▁mbokk",
        -9.065304560926604
      ],
      [
        "▁L'enfant",
        -9.065304794317111
      ],
      [
        "▁pierre",
        -9.065312614078415
      ],
      [
        "▁gentil",
        -9.06532808371191
      ],
      [
        "▁këll",
        -9.065349392768654
      ],
      [
        "▁màgg",
        -9.065363853238813
      ],
      [
        "▁courage",
        -9.065392103141555
      ],
      [
        "▁xëcc",
        -9.06543923494759
      ],
      [
        "▁vieille",
        -9.065447089361038
      ],
      [
        "▁large",
        -9.065489933091426
      ],
      [
        "▁kafe",
        -9.065509416675141
      ],
      [
        "▁puj",
        -9.065529731246338
      ],
      [
        "▁parole",
        -9.065570725908017
      ],
      [
        "▁dëgg",
        -9.065662130396028
      ],
      [
        "▁jàppukaay",
        -9.065666422933816
      ],
      [
        "▁tuuti",
        -9.065678978586151
      ],
      [
        "▁travailleurs",
        -9.065838429251482
      ],
      [
        "▁gris",
        -9.065867709134093
      ],
      [
        "▁bërëb",
        -9.065870152404582
      ],
      [
        "▁contre",
        -9.06619323202706
      ],
      [
        "▁unique",
        -9.066341622270832
      ],
      [
        "▁ŋgoogule",
        -9.066514857994187
      ],
      [
        "▁kookee",
        -9.06669500564983
      ],
      [
        "ore",
        -9.06676592104027
      ],
      [
        "▁jaam",
        -9.06741419392521
      ],
      [
        "▁taaru",
        -9.067473315281243
      ],
      [
        "▁accepte",
        -9.067490734882687
      ],
      [
        "▁surtout",
        -9.067573642999218
      ],
      [
        "▁pro",
        -9.067677813218772
      ],
      [
        "▁Néeg",
        -9.06782854403784
      ],
      [
        "▁Ici",
        -9.068019894179386
      ],
      [
        "▁nuit",
        -9.068697429648166
      ],
      [
        "▁revienne",
        -9.068729703116828
      ],
      [
        "▁Foo",
        -9.069655329296271
      ],
      [
        "googule",
        -9.070037173219319
      ],
      [
        "▁Bunt",
        -9.070590862562497
      ],
      [
        "▁ñaxtu",
        -9.072153944943345
      ],
      [
        "▁reconnu",
        -9.072222935365799
      ],
      [
        "▁jël",
        -9.072801946640197
      ],
      [
        "▁fenn",
        -9.076958645081795
      ],
      [
        "▁baxa",
        -9.077849113861877
      ],
      [
        "wul",
        -9.0795822164731
      ],
      [
        "▁ser",
        -9.080211284961052
      ],
      [
        "-t-il",
        -9.083188333635832
      ],
      [
        "▁bë",
        -9.08413279196672
      ],
      [
        "▁kee",
        -9.085673036721452
      ],
      [
        "▁eusse",
        -9.087000946195756
      ],
      [
        "▁veni",
        -9.08763999331951
      ],
      [
        "▁Sama",
        -9.088274539367436
      ],
      [
        "▁joge",
        -9.088740568353641
      ],
      [
        "▁entra",
        -9.09033335418303
      ],
      [
        "porte",
        -9.091891688406061
      ],
      [
        "▁côté",
        -9.094277017056545
      ],
      [
        "iens",
        -9.095674393661255
      ],
      [
        "▁mes",
        -9.096041370720766
      ],
      [
        "▁set",
        -9.096538754603168
      ],
      [
        "▁deey",
        -9.09706764290054
      ],
      [
        "kóon",
        -9.103503212676532
      ],
      [
        "▁ven",
        -9.1053337633395
      ],
      [
        "▁toogu",
        -9.11034305949993
      ],
      [
        "▁yé",
        -9.11216304462402
      ],
      [
        "▁con",
        -9.11283180721937
      ],
      [
        "ak",
        -9.11402724036709
      ],
      [
        "▁ñibbi",
        -9.11421924781045
      ],
      [
        "▁ceci",
        -9.116453108094822
      ],
      [
        "▁n'as",
        -9.11928955819284
      ],
      [
        "▁fam",
        -9.119806796732506
      ],
      [
        "▁jeunes",
        -9.126559333338761
      ],
      [
        "▁cases",
        -9.128036142010892
      ],
      [
        "▁kookuu",
        -9.132673362031065
      ],
      [
        "àkk",
        -9.13548744611044
      ],
      [
        "▁Bii",
        -9.141894831736597
      ],
      [
        "▁gaa",
        -9.143092277102184
      ],
      [
        "éer",
        -9.145577624683558
      ],
      [
        "▁blancs",
        -9.1482507657798
      ],
      [
        "▁haute",
        -9.148954629395885
      ],
      [
        "▁donne",
        -9.149462649298137
      ],
      [
        "▁noire",
        -9.154819932261635
      ],
      [
        "eer",
        -9.155704771948695
      ],
      [
        "▁soi",
        -9.156110107985269
      ],
      [
        "▁bant",
        -9.158529490812137
      ],
      [
        "▁bool",
        -9.159079581467715
      ],
      [
        "▁aux",
        -9.163001433020998
      ],
      [
        "▁bes",
        -9.16442714448009
      ],
      [
        "tout",
        -9.165046713779953
      ],
      [
        "▁lesquel",
        -9.167732778305744
      ],
      [
        "▁Com",
        -9.169181751689388
      ],
      [
        "ille",
        -9.170992264302049
      ],
      [
        "▁yar",
        -9.174632066191755
      ],
      [
        "▁Ch",
        -9.175145814021645
      ],
      [
        "▁plu",
        -9.176510836161377
      ],
      [
        "si",
        -9.179634909478104
      ],
      [
        "ût",
        -9.179812534092502
      ],
      [
        "wal",
        -9.18182910468392
      ],
      [
        "▁chambres",
        -9.187505861185993
      ],
      [
        "▁chocolat",
        -9.1894365088439
      ],
      [
        "aller",
        -9.19150428540389
      ],
      [
        "▁co",
        -9.191752960415057
      ],
      [
        "▁Xo",
        -9.195297058520595
      ],
      [
        "▁fr",
        -9.196924520326625
      ],
      [
        "ral",
        -9.196955464856375
      ],
      [
        "opp",
        -9.198027577001962
      ],
      [
        "▁fan",
        -9.199758897414725
      ],
      [
        "mbaa",
        -9.205418109626292
      ],
      [
        "▁pu",
        -9.205970101442132
      ],
      [
        "ge",
        -9.206011004941818
      ],
      [
        "aka",
        -9.211557706082164
      ],
      [
        "rent",
        -9.22422548783969
      ],
      [
        "bu",
        -9.225487190535162
      ],
      [
        "▁d'a",
        -9.226696666280304
      ],
      [
        "▁table",
        -9.231808839634159
      ],
      [
        "▁Cha",
        -9.231964432857895
      ],
      [
        "ion",
        -9.23779810997254
      ],
      [
        "▁Au",
        -9.238995423122569
      ],
      [
        "mes",
        -9.239503976398971
      ],
      [
        "▁elles",
        -9.24221629092499
      ],
      [
        "▁Ka",
        -9.242792834702579
      ],
      [
        "▁Ta",
        -9.253919722893198
      ],
      [
        "▁choses",
        -9.253953446868998
      ],
      [
        "▁Bul",
        -9.254964216858236
      ],
      [
        "ssent",
        -9.255410319221964
      ],
      [
        "▁yi.",
        -9.257326803801545
      ],
      [
        "ois",
        -9.262351184264837
      ],
      [
        "ai",
        -9.266413657930286
      ],
      [
        "▁Ŋg",
        -9.274133582328174
      ],
      [
        "▁Ng",
        -9.276925169305057
      ],
      [
        "▁bel",
        -9.277153321646157
      ],
      [
        "appartien",
        -9.279971537702645
      ],
      [
        "▁cons",
        -9.286540883285364
      ],
      [
        "▁e",
        -9.290172776299023
      ],
      [
        "cc",
        -9.29372423370229
      ],
      [
        "▁jog",
        -9.293810413905682
      ],
      [
        "▁regarde",
        -9.294343831642452
      ],
      [
        "i.",
        -9.297612738971083
      ],
      [
        "▁naan",
        -9.301089767003269
      ],
      [
        "ñe",
        -9.302861310614809
      ],
      [
        "▁jo",
        -9.311213292631152
      ],
      [
        "ur",
        -9.311526798440218
      ],
      [
        "▁Wa",
        -9.313230116027668
      ],
      [
        "▁prêt",
        -9.31527715599909
      ],
      [
        "▁certainement",
        -9.31527715602407
      ],
      [
        "«",
        -9.315277156033266
      ],
      [
        "»",
        -9.315277156033266
      ],
      [
        "…",
        -9.315277156033266
      ],
      [
        "▁calebasse",
        -9.315277156280402
      ],
      [
        "▁rencontr",
        -9.315277157842662
      ],
      [
        "▁rapidement",
        -9.315277160339964
      ],
      [
        "▁habituellement",
        -9.315277160794627
      ],
      [
        "▁Au-dessus",
        -9.315277161392464
      ],
      [
        "▁baobab",
        -9.31527730110194
      ],
      [
        "▁gëléem",
        -9.31527730305011
      ],
      [
        "▁gazelle",
        -9.315277340830857
      ],
      [
        "▁bâton",
        -9.315277379807306
      ],
      [
        "▁zinc",
        -9.315277553584108
      ],
      [
        "▁Ñëw",
        -9.315277943177499
      ],
      [
        "▁Birayim",
        -9.315278056911122
      ],
      [
        "▁brave",
        -9.315278551701057
      ],
      [
        "▁toilettes",
        -9.315280689426801
      ],
      [
        "▁njege",
        -9.315283851785864
      ],
      [
        "▁chameau",
        -9.315286417445222
      ],
      [
        "▁xayma",
        -9.315302855321267
      ],
      [
        "▁Yaakaar",
        -9.315303746372027
      ],
      [
        "▁ndanka",
        -9.31530575920703
      ],
      [
        "▁rideau",
        -9.315307359181105
      ],
      [
        "▁point",
        -9.315328585964181
      ],
      [
        "▁Alfa",
        -9.31533367610485
      ],
      [
        "▁panier",
        -9.315334282673879
      ],
      [
        "▁Agsil",
        -9.31533440631905
      ],
      [
        "▁Salut",
        -9.315349264948548
      ],
      [
        "▁ëlëk",
        -9.31538076943249
      ],
      [
        "▁outil",
        -9.315411320925497
      ],
      [
        "▁d'arbres",
        -9.315429967230562
      ],
      [
        "▁Qu'est-ce",
        -9.315481698671938
      ],
      [
        "▁champ",
        -9.315493025727733
      ],
      [
        "▁yànj",
        -9.31551218733405
      ],
      [
        "▁tànk",
        -9.31551576885201
      ],
      [
        "▁l'eau",
        -9.315572516883629
      ],
      [
        "▁d'entre",
        -9.31557270866158
      ],
      [
        "▁jëfandikoo",
        -9.31560617478292
      ],
      [
        "▁bãŋ",
        -9.31562563317496
      ],
      [
        "▁làmp",
        -9.315628792711394
      ],
      [
        "▁NGo",
        -9.315638107492283
      ],
      [
        "▁takk",
        -9.315687092133771
      ],
      [
        "▁chocolatée",
        -9.315692703952942
      ],
      [
        "▁Qu'",
        -9.31573134197491
      ],
      [
        "▁Demuloo",
        -9.315761944434648
      ],
      [
        "▁Gaynd",
        -9.315817604509611
      ],
      [
        "▁douche",
        -9.315827523695866
      ],
      [
        "▁soirée",
        -9.315866027391706
      ],
      [
        "▁weñ",
        -9.316111296102939
      ],
      [
        "▁ensemble",
        -9.316201102049343
      ],
      [
        "▁fond",
        -9.316279262156606
      ],
      [
        "▁matinée",
        -9.316505848825075
      ],
      [
        "▁alors",
        -9.316590862929356
      ],
      [
        "▁dagg",
        -9.316604245003099
      ],
      [
        "▁Demuma",
        -9.316606847637207
      ],
      [
        "▁dóo",
        -9.316610019402571
      ],
      [
        "▁digg",
        -9.316672208475548
      ],
      [
        "▁four",
        -9.316936464104375
      ],
      [
        "▁voulu",
        -9.317382047629863
      ],
      [
        "▁plac",
        -9.317716659767024
      ],
      [
        "▁naqar",
        -9.31774055464764
      ],
      [
        "▁kookale",
        -9.317801465044187
      ],
      [
        "▁Ñooñu",
        -9.317803712919673
      ],
      [
        "▁serais",
        -9.318595811992346
      ],
      [
        "▁Demkoon",
        -9.31871205019722
      ],
      [
        "▁Tann",
        -9.318746533639338
      ],
      [
        "▁wépp",
        -9.318770143249216
      ],
      [
        "▁passé",
        -9.318775145791014
      ],
      [
        "▁donc",
        -9.319167920717874
      ],
      [
        "▁d'habitude",
        -9.321048223515572
      ],
      [
        "▁s'i",
        -9.322937206245548
      ],
      [
        "▁dàll",
        -9.323391296509199
      ],
      [
        "hoisi",
        -9.324028383494404
      ],
      [
        "▁darab",
        -9.324565934724438
      ],
      [
        "▁dessiné",
        -9.324799510781558
      ],
      [
        "▁Nil",
        -9.327283873474686
      ],
      [
        "lève",
        -9.327594584483473
      ],
      [
        "▁suba",
        -9.328206320418367
      ],
      [
        "▁viennent",
        -9.329352329878251
      ],
      [
        "▁parents",
        -9.329787814229022
      ],
      [
        "▁Ver",
        -9.330752394946172
      ],
      [
        "▁partent",
        -9.331538086288852
      ],
      [
        "▁Yee",
        -9.33308310331283
      ],
      [
        "▁dois",
        -9.333148330607305
      ],
      [
        "▁verra",
        -9.333387024913382
      ],
      [
        "▁Fo",
        -9.334494915872373
      ],
      [
        "▁yor",
        -9.336099137607725
      ],
      [
        "ches",
        -9.33611276973933
      ],
      [
        "ailleurs",
        -9.33669067007178
      ],
      [
        "▁livres",
        -9.337225338071944
      ],
      [
        "euse",
        -9.337503275248457
      ],
      [
        "▁n'en",
        -9.33861783652945
      ],
      [
        "▁att",
        -9.338857887146427
      ],
      [
        "▁d'herbes",
        -9.339424552973329
      ],
      [
        "▁bo",
        -9.340008736880812
      ],
      [
        "▁xe",
        -9.341481524514673
      ],
      [
        "▁kooka",
        -9.34369524040385
      ],
      [
        "t-il",
        -9.345441819951159
      ],
      [
        "▁affaire",
        -9.34548809032009
      ],
      [
        "▁xoole",
        -9.346524740559559
      ],
      [
        "▁nge",
        -9.347826688314868
      ],
      [
        "▁chaise",
        -9.347906472522956
      ],
      [
        "rait",
        -9.349275154706959
      ],
      [
        "dé",
        -9.35019056781747
      ],
      [
        "▁Ni",
        -9.350258150744429
      ],
      [
        "▁guy",
        -9.350326386198619
      ],
      [
        "▁n'ira",
        -9.350720960160004
      ],
      [
        "▁fer",
        -9.351446099444985
      ],
      [
        "▁you",
        -9.35187420683048
      ],
      [
        "abond",
        -9.351980395908022
      ],
      [
        "▁demuñu",
        -9.353950670307357
      ],
      [
        "▁jàpp",
        -9.354106570239177
      ],
      [
        "▁aime",
        -9.354216581971214
      ],
      [
        "▁foo",
        -9.35429442140249
      ],
      [
        "▁bancs",
        -9.355296888095241
      ],
      [
        "▁nd",
        -9.356638953931407
      ],
      [
        "as-",
        -9.357183861947485
      ],
      [
        "faites",
        -9.357487648428162
      ],
      [
        "▁vers",
        -9.357557921696099
      ],
      [
        "me",
        -9.359959486301024
      ],
      [
        "▁Ña",
        -9.362156238456507
      ],
      [
        "▁Ho",
        -9.36312547514894
      ],
      [
        "▁Ceux",
        -9.364960636641703
      ],
      [
        "▁demain",
        -9.366541806534533
      ],
      [
        "autrefois",
        -9.367289772726142
      ],
      [
        "▁dis",
        -9.369821011068467
      ],
      [
        "ici",
        -9.370064143115052
      ],
      [
        "▁Ceux-",
        -9.370865100488592
      ],
      [
        "au",
        -9.370899463465545
      ],
      [
        "▁defaree",
        -9.375067094686202
      ],
      [
        "▁daw",
        -9.375994861038441
      ],
      [
        "ui",
        -9.377762220012803
      ],
      [
        "▁ng",
        -9.378014666257823
      ],
      [
        "cher",
        -9.378502268246773
      ],
      [
        "▁cas",
        -9.38389188367416
      ],
      [
        "▁Combi",
        -9.384396272613532
      ],
      [
        "▁conten",
        -9.386477592527184
      ],
      [
        "▁kaa",
        -9.393210623042135
      ],
      [
        "▁faite",
        -9.394410795593735
      ],
      [
        "▁Da",
        -9.396094959450817
      ],
      [
        "▁doo",
        -9.397703317247645
      ],
      [
        "▁voici",
        -9.397796550849641
      ],
      [
        "▁été.",
        -9.398188674672063
      ],
      [
        "▁marche",
        -9.399175080766252
      ],
      [
        "▁naŋg",
        -9.401385577842213
      ],
      [
        "uite",
        -9.402769655481187
      ],
      [
        "kub",
        -9.404240869621294
      ],
      [
        "▁connaiss",
        -9.40518452193157
      ],
      [
        "'en",
        -9.405956513391574
      ],
      [
        "nit",
        -9.406735667886366
      ],
      [
        "nañu",
        -9.407240255534168
      ],
      [
        "▁liggéeye",
        -9.407970826876406
      ],
      [
        "▁loo",
        -9.412821208770916
      ],
      [
        "▁demb",
        -9.413944768652478
      ],
      [
        "part",
        -9.414473950759772
      ],
      [
        "▁bleue",
        -9.415523876974834
      ],
      [
        "▁denc",
        -9.421628878523675
      ],
      [
        "vant",
        -9.424665082775464
      ],
      [
        "ñee",
        -9.42660513827904
      ],
      [
        "mour",
        -9.430956543374538
      ],
      [
        "appelles",
        -9.43138605743199
      ],
      [
        "ile",
        -9.434451807348362
      ],
      [
        "▁cee",
        -9.444858503375348
      ],
      [
        "▁Fi",
        -9.445602138321307
      ],
      [
        "▁bee",
        -9.446535153454619
      ],
      [
        "▁met",
        -9.447045293799608
      ],
      [
        "▁lawoon",
        -9.448439627399559
      ],
      [
        "▁ñooñ",
        -9.449139583381449
      ],
      [
        "▁cha",
        -9.449443558747443
      ],
      [
        "▁bokk",
        -9.450995595386775
      ],
      [
        "ã",
        -9.452394065201638
      ],
      [
        "▁gisu",
        -9.456163315765073
      ],
      [
        "▁fui",
        -9.4568238942336
      ],
      [
        "iff",
        -9.458082039171734
      ],
      [
        "▁maye",
        -9.46047744959239
      ],
      [
        "▁Ngo",
        -9.461505358579121
      ],
      [
        "ko",
        -9.466082539882485
      ],
      [
        "iggéeykat",
        -9.469357426233113
      ],
      [
        "ii",
        -9.473180239015466
      ],
      [
        "▁car",
        -9.473631968069826
      ],
      [
        "▁doi",
        -9.475370490722067
      ],
      [
        "è",
        -9.47719107865136
      ],
      [
        "vers",
        -9.477547439367513
      ],
      [
        "ka",
        -9.478108735571329
      ],
      [
        "▁Nu",
        -9.482083014922093
      ],
      [
        "J",
        -9.485418439259135
      ],
      [
        "▁mba",
        -9.48734003849835
      ],
      [
        "ŋgeen",
        -9.487946183639938
      ],
      [
        "▁ñe",
        -9.492131001971233
      ],
      [
        "▁Noo",
        -9.49327277830336
      ],
      [
        "qui",
        -9.499170866354437
      ],
      [
        "▁vi",
        -9.50263361173254
      ],
      [
        "egarde",
        -9.50541601440851
      ],
      [
        "ni",
        -9.50848107437284
      ],
      [
        "▁clair",
        -9.52062746535296
      ],
      [
        "nu",
        -9.52391408290303
      ],
      [
        "ente",
        -9.52413875575742
      ],
      [
        "▁xee",
        -9.525258009702391
      ],
      [
        "jà",
        -9.528113614494131
      ],
      [
        "▁mett",
        -9.53058466125269
      ],
      [
        "ques",
        -9.533527830481889
      ],
      [
        "ers",
        -9.536430088652216
      ],
      [
        "ez-",
        -9.537451083950874
      ],
      [
        "▁bà",
        -9.53905023294129
      ],
      [
        "té",
        -9.540510118954677
      ],
      [
        "▁commen",
        -9.541704612547091
      ],
      [
        "mis",
        -9.543119981165368
      ],
      [
        "▁goo",
        -9.543795311710777
      ],
      [
        "ance",
        -9.544272052031495
      ],
      [
        "▁fe",
        -9.545811064801649
      ],
      [
        "ulëer",
        -9.5459791129549
      ],
      [
        "▁Ñaa",
        -9.547701114288644
      ],
      [
        "▁Go",
        -9.548793454422658
      ],
      [
        "obul",
        -9.549729142695558
      ],
      [
        "mp",
        -9.550872486548013
      ],
      [
        "▁men",
        -9.554122509394169
      ],
      [
        "▁heure",
        -9.55947613940646
      ],
      [
        "▁taxu",
        -9.55982244265843
      ],
      [
        "eur",
        -9.561254056186112
      ],
      [
        "▁veu",
        -9.565477790815736
      ],
      [
        "je",
        -9.569204922729222
      ],
      [
        "om",
        -9.570443460909402
      ],
      [
        "▁n'e",
        -9.571686976434224
      ],
      [
        "▁mêmes",
        -9.57313988762624
      ],
      [
        "▁See",
        -9.573510836409442
      ],
      [
        "▁Die",
        -9.5738408420156
      ],
      [
        "▁tra",
        -9.577368938091396
      ],
      [
        "▁accompagn",
        -9.580771614786705
      ],
      [
        "rëb",
        -9.58100825921642
      ],
      [
        "ache",
        -9.582323237882797
      ],
      [
        "kki",
        -9.583121364533254
      ],
      [
        "fi",
        -9.58341090417809
      ],
      [
        "▁nag.",
        -9.586234805246656
      ],
      [
        "▁fo",
        -9.591244936209597
      ],
      [
        "▁batt",
        -9.591754729236428
      ],
      [
        "▁partie",
        -9.592597373125173
      ],
      [
        "met",
        -9.598108407078144
      ],
      [
        "▁cou",
        -9.599113257149453
      ],
      [
        "▁banc",
        -9.607110743703942
      ],
      [
        "▁xool",
        -9.607231741826777
      ],
      [
        "▁conçu",
        -9.608238319981647
      ],
      [
        "ër",
        -9.608288260029918
      ],
      [
        "▁Waxu",
        -9.609986477505243
      ],
      [
        "▁sais",
        -9.611434020707543
      ],
      [
        "q",
        -9.612757560378117
      ],
      [
        "▁fleur",
        -9.614334332870182
      ],
      [
        "▁d'herbe",
        -9.616020782718696
      ],
      [
        "ire",
        -9.618140250327437
      ],
      [
        "A",
        -9.620656161413883
      ],
      [
        "▁U",
        -9.623355751349347
      ],
      [
        "nnaaw",
        -9.62365098179345
      ],
      [
        "▁Dé",
        -9.624294622131675
      ],
      [
        "ti",
        -9.625787063263239
      ],
      [
        "▁lekk",
        -9.626766874060552
      ],
      [
        "ñëw",
        -9.62779274218222
      ],
      [
        "▁sée",
        -9.629303910330943
      ],
      [
        "▁Yooy",
        -9.630156610688068
      ],
      [
        "qu",
        -9.632111831415465
      ],
      [
        "yu",
        -9.63582861883652
      ],
      [
        "▁kë",
        -9.637093072817452
      ],
      [
        "▁jàmm",
        -9.637504227188051
      ],
      [
        "▁defar",
        -9.64246496637566
      ],
      [
        "llez",
        -9.646963517489569
      ],
      [
        "ëkku",
        -9.648139062856352
      ],
      [
        "onfie",
        -9.64841267266608
      ],
      [
        "▁l'extérieur",
        -9.648610489326646
      ],
      [
        "▁bâtiment",
        -9.6486104896154
      ],
      [
        "▁chaussures",
        -9.64861048979799
      ],
      [
        "▁couvercle",
        -9.648610499135932
      ],
      [
        "▁écrivent",
        -9.648610506893627
      ],
      [
        "▁Certaine",
        -9.648610546825957
      ],
      [
        "▁messager",
        -9.648610648582657
      ],
      [
        "▁fâch",
        -9.64861070779593
      ],
      [
        "▁Faranse",
        -9.64861091070635
      ],
      [
        "▁l'entoure",
        -9.648610926452031
      ],
      [
        "▁mûr",
        -9.64861112912043
      ],
      [
        "▁karaaf",
        -9.648611138172845
      ],
      [
        "▁cultive",
        -9.648611255684095
      ],
      [
        "échapp",
        -9.648612237514378
      ],
      [
        "▁sûr",
        -9.64861258469057
      ],
      [
        "▁appelé",
        -9.648612804370421
      ],
      [
        "▁meilleur",
        -9.648613411401756
      ],
      [
        "▁juróom",
        -9.64861412068298
      ],
      [
        "▁beurre",
        -9.64861636259294
      ],
      [
        "▁instant",
        -9.64861773346338
      ],
      [
        "▁xadde",
        -9.648621542473345
      ],
      [
        "▁lutteur",
        -9.64862165359699
      ],
      [
        "▁carafe",
        -9.648624507510545
      ],
      [
        "▁colère",
        -9.648633525755823
      ],
      [
        "▁Sëri",
        -9.648634761986386
      ],
      [
        "▁sotti",
        -9.648635383002233
      ],
      [
        "▁plaît",
        -9.648637340377746
      ],
      [
        "▁Kaasamaas",
        -9.6486382587441
      ],
      [
        "▁saŋx",
        -9.648638624959148
      ],
      [
        "▁batã",
        -9.64865459195557
      ],
      [
        "▁adulte",
        -9.648660517312283
      ],
      [
        "▁bahut",
        -9.648677705049185
      ],
      [
        "▁kéwël",
        -9.64868833230988
      ],
      [
        "▁plats",
        -9.648743131998238
      ],
      [
        "▁caisse",
        -9.648749595773952
      ],
      [
        "▁taabal",
        -9.648791510983108
      ],
      [
        "▁paresseu",
        -9.64882290709411
      ],
      [
        "▁Laisse",
        -9.648829196866451
      ],
      [
        "èvre",
        -9.648847150351392
      ],
      [
        "▁jabar",
        -9.648851808436232
      ],
      [
        "▁somme",
        -9.648913443248986
      ],
      [
        "▁l'argent",
        -9.64897536331323
      ],
      [
        "▁l'herbe",
        -9.64898139279473
      ],
      [
        "▁ŋgoogu",
        -9.648992364984432
      ],
      [
        "▁Autre",
        -9.649007021157255
      ],
      [
        "▁dikkul",
        -9.649012546826157
      ],
      [
        "▁taille",
        -9.649128340763983
      ],
      [
        "▁gauche",
        -9.649181421623497
      ],
      [
        "▁l'argile",
        -9.64925864894434
      ],
      [
        "▁vérité",
        -9.64929575720016
      ],
      [
        "▁prop",
        -9.649399317286885
      ],
      [
        "▁couvert",
        -9.649645246290373
      ],
      [
        "▁anglais",
        -9.64971363131314
      ],
      [
        "▁yéeg",
        -9.6497601469324
      ],
      [
        "▁Peul",
        -9.649808231582362
      ],
      [
        "▁rose",
        -9.649894596935816
      ],
      [
        "▁n'import",
        -9.649911573583715
      ],
      [
        "▁grand",
        -9.649940269491916
      ],
      [
        "▁Pour",
        -9.650175436841586
      ],
      [
        "▁tegal",
        -9.65025216359129
      ],
      [
        "leur",
        -9.650999644638349
      ],
      [
        "▁jox",
        -9.651006244510308
      ],
      [
        "▁général",
        -9.65106064591194
      ],
      [
        "▁enfant-là",
        -9.65106347420667
      ],
      [
        "▁wert",
        -9.65109212291404
      ],
      [
        "-je",
        -9.651118225151471
      ],
      [
        "▁vertes",
        -9.651122308070851
      ],
      [
        "▁long",
        -9.651609351070249
      ],
      [
        "▁bonul",
        -9.651693470500414
      ],
      [
        "▁faut",
        -9.652214198373766
      ],
      [
        "▁crain",
        -9.652294498733367
      ],
      [
        "▁wone",
        -9.65277833701251
      ],
      [
        "▁genre",
        -9.652993817488145
      ],
      [
        "▁ceux-ci",
        -9.653156632875556
      ],
      [
        "▁indi",
        -9.653434952038412
      ],
      [
        "hacun",
        -9.653689480097936
      ],
      [
        "awbe",
        -9.653866633265306
      ],
      [
        "▁gudd",
        -9.653994376012484
      ],
      [
        "▁clé",
        -9.654390600087014
      ],
      [
        "▁wóo",
        -9.654492817244126
      ],
      [
        "▁conce",
        -9.654674686988065
      ],
      [
        "▁sopp",
        -9.655901315951331
      ],
      [
        "▁beg",
        -9.655975771805135
      ],
      [
        "▁suuk",
        -9.656031994900571
      ],
      [
        "▁terre",
        -9.656348320981222
      ],
      [
        "▁Deg",
        -9.657429220594203
      ],
      [
        "▁trou",
        -9.657532792416905
      ],
      [
        "▁prend",
        -9.657806540551775
      ],
      [
        "▁yëf",
        -9.658254528066761
      ],
      [
        "▁soow",
        -9.658565982173497
      ],
      [
        "añ",
        -9.65885410272743
      ],
      [
        "▁mét",
        -9.659000979618401
      ],
      [
        "▁wetam",
        -9.660074061035823
      ],
      [
        "▁tentes",
        -9.66012574998112
      ],
      [
        "▁Abal",
        -9.660518919535743
      ],
      [
        "▁dessus",
        -9.662229569320223
      ],
      [
        "▁voya",
        -9.662910805839804
      ],
      [
        "▁Wall",
        -9.662938359268429
      ],
      [
        "rage",
        -9.663216906198345
      ],
      [
        "ôt",
        -9.663458824604763
      ],
      [
        "▁danga",
        -9.663620704942593
      ],
      [
        "▁homme-ci",
        -9.664436312762717
      ],
      [
        "uille",
        -9.664752317582245
      ],
      [
        "▁jar",
        -9.66598238013263
      ],
      [
        "▁cuisiner",
        -9.668395595658955
      ],
      [
        "Après",
        -9.669115967545913
      ],
      [
        "▁marcher",
        -9.669136704911454
      ],
      [
        "veille",
        -9.67057056074777
      ],
      [
        "arloo",
        -9.6717732494056
      ],
      [
        "▁fenêtres",
        -9.672756081914237
      ],
      [
        "▁objets",
        -9.67310859418141
      ],
      [
        "qu'un",
        -9.673291632643133
      ],
      [
        "▁d'il",
        -9.673702241185337
      ],
      [
        "ëcc",
        -9.674406757767596
      ],
      [
        "▁marché",
        -9.67447818952817
      ],
      [
        "▁tiroirs",
        -9.674617030082665
      ],
      [
        "▁san",
        -9.674806181845987
      ],
      [
        "▁yaru",
        -9.675667979835548
      ],
      [
        "▁Gisu",
        -9.67757157439039
      ],
      [
        "ah",
        -9.678101265669534
      ],
      [
        "▁juste",
        -9.678761206355249
      ],
      [
        "▁Kook",
        -9.67916901382994
      ],
      [
        "▁sukk",
        -9.681314030967714
      ],
      [
        "▁ñj",
        -9.682787280717355
      ],
      [
        "▁wala",
        -9.683669814242833
      ],
      [
        "laire",
        -9.683984628542245
      ],
      [
        "▁daawul",
        -9.685019746828534
      ],
      [
        "▁woowa",
        -9.686124982984891
      ],
      [
        "-de",
        -9.686623528410362
      ],
      [
        "yi",
        -9.687396977498498
      ],
      [
        "▁Lui",
        -9.687536544477648
      ],
      [
        "▁Aie",
        -9.688690927456788
      ],
      [
        "▁woowu",
        -9.689020194701355
      ],
      [
        "âl",
        -9.690244347186772
      ],
      [
        "ersonne",
        -9.691885010974797
      ],
      [
        "▁vert",
        -9.693120938838911
      ],
      [
        "▁Kan",
        -9.693207872467996
      ],
      [
        "exi",
        -9.6940020092249
      ],
      [
        "rain",
        -9.694349798105701
      ],
      [
        "pace",
        -9.694513527082028
      ],
      [
        "▁l'o",
        -9.694514521180523
      ],
      [
        "▁buu",
        -9.694701054730666
      ],
      [
        "▁partai",
        -9.69547694845825
      ],
      [
        "▁vou",
        -9.69574348542754
      ],
      [
        "lé",
        -9.69784299761891
      ],
      [
        "▁buur",
        -9.698187383515485
      ],
      [
        "tient",
        -9.703242967757937
      ],
      [
        "▁confie",
        -9.703776938791721
      ],
      [
        "▁xeet",
        -9.70485083406442
      ],
      [
        "▁sim",
        -9.70531407947735
      ],
      [
        "ff",
        -9.706068800177963
      ],
      [
        "▁peinte",
        -9.708614949228167
      ],
      [
        "▁Ŋgo",
        -9.708801638252343
      ],
      [
        "▁passer",
        -9.710896066087761
      ],
      [
        "oow",
        -9.711177076804498
      ],
      [
        "omprends",
        -9.71140654492068
      ],
      [
        "lig",
        -9.711487230608883
      ],
      [
        "▁oreiller",
        -9.711564244552271
      ],
      [
        "▁gà",
        -9.713537448469236
      ],
      [
        "▁bout",
        -9.714127698383082
      ],
      [
        "bek",
        -9.71420116915709
      ],
      [
        "▁be",
        -9.719329900553017
      ],
      [
        "▁yooya",
        -9.71999002047535
      ],
      [
        "▁jus",
        -9.724257014240564
      ],
      [
        "▁forme",
        -9.72586819810776
      ],
      [
        "▁dina",
        -9.726516390153943
      ],
      [
        "▁cuisines",
        -9.726916395082235
      ],
      [
        "▁Seeti",
        -9.730369318932802
      ],
      [
        "▁mé",
        -9.730634141549652
      ],
      [
        "énorme",
        -9.731064736565541
      ],
      [
        "▁parler",
        -9.731157615997878
      ],
      [
        "roo",
        -9.73359940059558
      ],
      [
        "▁Bay",
        -9.734647845621648
      ],
      [
        "ñii",
        -9.736060513421428
      ],
      [
        "▁Waxul",
        -9.737293434791587
      ],
      [
        "modes",
        -9.739291324456017
      ],
      [
        "▁fermée",
        -9.740242391475125
      ],
      [
        "use",
        -9.742470536225936
      ],
      [
        "▁n'aur",
        -9.742536517820255
      ],
      [
        "▁Dégg",
        -9.743672148588331
      ],
      [
        "▁nëw",
        -9.745993165409677
      ],
      [
        "heureu",
        -9.74681213367167
      ],
      [
        "tant",
        -9.746921552331983
      ],
      [
        "▁jour",
        -9.749620704444611
      ],
      [
        "▁Jée",
        -9.751223984647275
      ],
      [
        "▁désire",
        -9.752313451882992
      ],
      [
        "▁utilise",
        -9.752579052802648
      ],
      [
        "ejje",
        -9.75316151720786
      ],
      [
        "arab",
        -9.753436257449225
      ],
      [
        "à-",
        -9.753487096977635
      ],
      [
        "▁h",
        -9.755809708784463
      ],
      [
        "▁nur",
        -9.758435597731106
      ],
      [
        "hez",
        -9.75846726240231
      ],
      [
        "ète",
        -9.758552967623553
      ],
      [
        "'aumône",
        -9.759114302398205
      ],
      [
        "▁siy",
        -9.75956825083445
      ],
      [
        "▁Nee",
        -9.760047740444275
      ],
      [
        "▁allez",
        -9.762915739960865
      ],
      [
        "▁sant",
        -9.764025526879236
      ],
      [
        "▁gra",
        -9.764205438570407
      ],
      [
        "pe",
        -9.765455003014923
      ],
      [
        "tour",
        -9.766433156105496
      ],
      [
        "▁cont",
        -9.766961626437167
      ],
      [
        "▁noirs",
        -9.76881930879385
      ],
      [
        "ré",
        -9.769381981924619
      ],
      [
        "▁xa",
        -9.770265538836755
      ],
      [
        "▁ja",
        -9.772633787381134
      ],
      [
        "▁pos",
        -9.773541978066648
      ],
      [
        "é.",
        -9.781279870673044
      ],
      [
        "▁trai",
        -9.787352059552296
      ],
      [
        "neen",
        -9.78829259711903
      ],
      [
        "▁Sor",
        -9.788294327937052
      ],
      [
        "▁do",
        -9.789532268497313
      ],
      [
        "▁fee",
        -9.789667991016087
      ],
      [
        "▁ex",
        -9.793280267816442
      ],
      [
        "▁sout",
        -9.793310770957975
      ],
      [
        "able",
        -9.795355882697658
      ],
      [
        "war",
        -9.796018037599676
      ],
      [
        "uis",
        -9.797006088149118
      ],
      [
        "dar",
        -9.797545964487949
      ],
      [
        "aix",
        -9.799873462424042
      ],
      [
        "▁booba",
        -9.802225876925204
      ],
      [
        "▁Yen",
        -9.802481696890663
      ],
      [
        "▁Celui",
        -9.80473145888494
      ],
      [
        "us",
        -9.80596547091013
      ],
      [
        "gul",
        -9.808899120524115
      ],
      [
        "▁gui",
        -9.811115817447936
      ],
      [
        "fu",
        -9.815994185744815
      ],
      [
        "▁joue",
        -9.816213515365245
      ],
      [
        "▁claire",
        -9.81813145039202
      ],
      [
        "▁jolies",
        -9.826344143434449
      ],
      [
        "ga",
        -9.827990292189073
      ],
      [
        "eut",
        -9.831226819208938
      ],
      [
        "ages",
        -9.832779962347864
      ],
      [
        "aisir",
        -9.83385605613576
      ],
      [
        "ji",
        -9.837827826879002
      ],
      [
        "▁mont",
        -9.837884299896723
      ],
      [
        "ions",
        -9.838578487568535
      ],
      [
        "▁roi",
        -9.8401426840717
      ],
      [
        "irai",
        -9.844730411135817
      ],
      [
        "▁Defa",
        -9.847224462029523
      ],
      [
        "▁mang",
        -9.849126626168687
      ],
      [
        "▁tel",
        -9.850051671547838
      ],
      [
        "ign",
        -9.858005416633826
      ],
      [
        "lui",
        -9.86101395922895
      ],
      [
        "app",
        -9.864671043251258
      ],
      [
        "moon",
        -9.866631530016898
      ],
      [
        "S",
        -9.867859943541765
      ],
      [
        "ooñii",
        -9.867940345298855
      ],
      [
        "yee",
        -9.8692493548142
      ],
      [
        "▁yaat",
        -9.871205597378122
      ],
      [
        "▁prie",
        -9.873282414837224
      ],
      [
        "eurs",
        -9.873483846692029
      ],
      [
        "▁rentre",
        -9.874986925098689
      ],
      [
        "▁tient",
        -9.875842677790265
      ],
      [
        "▁Def",
        -9.878995140581331
      ],
      [
        "laa",
        -9.87934153631883
      ],
      [
        "mid",
        -9.879541857689034
      ],
      [
        "▁m'as",
        -9.88363195076548
      ],
      [
        "éew",
        -9.885807452204197
      ],
      [
        "wuñu",
        -9.886017394522522
      ],
      [
        "'av",
        -9.891226260050319
      ],
      [
        "▁ndo",
        -9.893786483464144
      ],
      [
        "▁bokku",
        -9.897551977266946
      ],
      [
        "avait",
        -9.900666259410487
      ],
      [
        "du",
        -9.903220581695367
      ],
      [
        "act",
        -9.909668986547365
      ],
      [
        "aat",
        -9.912283831979945
      ],
      [
        "La",
        -9.91243063373441
      ],
      [
        "▁xamul",
        -9.912507040829121
      ],
      [
        "illes",
        -9.912652142803498
      ],
      [
        "▁ti",
        -9.914678433654753
      ],
      [
        "jour",
        -9.914800902429988
      ],
      [
        "ddi",
        -9.917191970464643
      ],
      [
        "ais-t",
        -9.918489047470363
      ],
      [
        "eguñu",
        -9.920321964586392
      ],
      [
        "argile",
        -9.922814528321293
      ],
      [
        "igne",
        -9.924009973766694
      ],
      [
        "café",
        -9.927553171056092
      ],
      [
        "▁ŋg",
        -9.927678980404975
      ],
      [
        "ku",
        -9.93270149039026
      ],
      [
        "weer",
        -9.932727762814084
      ],
      [
        "uff",
        -9.935494099864597
      ],
      [
        "alal",
        -9.935598877794439
      ],
      [
        "O",
        -9.935625744194022
      ],
      [
        "entre",
        -9.937770202407801
      ],
      [
        "tal",
        -9.938920550770444
      ],
      [
        "ng",
        -9.939225680417511
      ],
      [
        "▁Be",
        -9.94053463442322
      ],
      [
        "▁s'ag",
        -9.940805069989803
      ],
      [
        "at",
        -9.941381933802607
      ],
      [
        "▁Nag",
        -9.943169248837183
      ],
      [
        "law",
        -9.944511178040102
      ],
      [
        "oog",
        -9.947014460628015
      ],
      [
        "vient",
        -9.948179192663913
      ],
      [
        "▁Aa",
        -9.950306398746257
      ],
      [
        "▁posée",
        -9.950680146134982
      ],
      [
        "▁Gi",
        -9.95313200054192
      ],
      [
        "▁Liggéey",
        -9.954609907088544
      ],
      [
        "dd",
        -9.955676032276639
      ],
      [
        "▁aille",
        -9.957544354510217
      ],
      [
        "là",
        -9.961519913167649
      ],
      [
        "▁Celui-",
        -9.963911091875268
      ],
      [
        "▁parla",
        -9.971457696054923
      ],
      [
        "▁pré",
        -9.973391178639748
      ],
      [
        "▁r",
        -9.974911310182321
      ],
      [
        "fois",
        -9.974944421891095
      ],
      [
        "dem",
        -9.975002086794024
      ],
      [
        "dre",
        -9.975432206623351
      ],
      [
        "ful",
        -9.977111952629869
      ],
      [
        "ule",
        -9.97884068230764
      ],
      [
        "eau",
        -9.982698023114025
      ],
      [
        "onne",
        -9.9852002399627
      ],
      [
        "apprécie",
        -9.988117715406485
      ],
      [
        "aar",
        -9.99382531917635
      ],
      [
        "▁kook",
        -9.996438745310268
      ],
      [
        "▁nà",
        -9.999573313816905
      ],
      [
        "gguma",
        -10.000761040193442
      ],
      [
        "▁jee",
        -10.002281276796767
      ],
      [
        "▁bay",
        -10.004157107464694
      ],
      [
        "ange",
        -10.005231938220785
      ],
      [
        "ch",
        -10.008316100548457
      ],
      [
        "▁reconn",
        -10.00911301027765
      ],
      [
        "ffi",
        -10.013655362246471
      ],
      [
        "â",
        -10.014554798688632
      ],
      [
        "orts",
        -10.016182935051898
      ],
      [
        "ari",
        -10.018123627447029
      ],
      [
        "▁too",
        -10.01904041719058
      ],
      [
        "▁fon",
        -10.019671305671839
      ],
      [
        "▁bul",
        -10.019748031548492
      ],
      [
        "▁Xa",
        -10.021520618270626
      ],
      [
        "▁dam",
        -10.023166699405104
      ],
      [
        "kku",
        -10.023754276731717
      ],
      [
        "uy",
        -10.03655352444221
      ],
      [
        "abal",
        -10.03774369388298
      ],
      [
        "ro",
        -10.038994426955064
      ],
      [
        "ba",
        -10.039308166886185
      ],
      [
        "▁trav",
        -10.039375138332936
      ],
      [
        "▁étalé",
        -10.042698003750136
      ],
      [
        "ho",
        -10.043377866770479
      ],
      [
        "▁ans",
        -10.04422569570393
      ],
      [
        "▁ŋgoo",
        -10.04546752188269
      ],
      [
        "▁dey",
        -10.049021873148554
      ],
      [
        "xana",
        -10.049147025560625
      ],
      [
        "des",
        -10.05117226377862
      ],
      [
        "▁peint",
        -10.057885099048885
      ],
      [
        "▁cherch",
        -10.05889879807622
      ],
      [
        "aleekum",
        -10.060465111587991
      ],
      [
        "aaka",
        -10.066533145622953
      ],
      [
        "e-le",
        -10.068524358015328
      ],
      [
        "▁confi",
        -10.070539848852293
      ],
      [
        "▁lait",
        -10.073943134308646
      ],
      [
        "▁puis",
        -10.084755198417703
      ],
      [
        "▁Ko",
        -10.08977230403633
      ],
      [
        "uur",
        -10.09108242940064
      ],
      [
        "▁ha",
        -10.094289487367007
      ],
      [
        "ttends",
        -10.095140682911527
      ],
      [
        "▁Att",
        -10.09892749109967
      ],
      [
        "jje",
        -10.099030952583798
      ],
      [
        "▁gejj",
        -10.101396836971997
      ],
      [
        "ts.",
        -10.102588241932088
      ],
      [
        "▁cuisin",
        -10.108706499647594
      ],
      [
        "▁objet",
        -10.109828486768865
      ],
      [
        "▁tiroir",
        -10.110429962418099
      ],
      [
        "▁fenêtre",
        -10.110698333811758
      ],
      [
        "▁n'ir",
        -10.110967601834712
      ],
      [
        "ha",
        -10.111216870169562
      ],
      [
        "'appelle",
        -10.117115585212398
      ],
      [
        "mar",
        -10.117394954215284
      ],
      [
        "▁viendr",
        -10.118054682222374
      ],
      [
        "ure",
        -10.118542129945842
      ],
      [
        "ges",
        -10.119169166695903
      ],
      [
        "▁gaynd",
        -10.119464742599684
      ],
      [
        "▁No",
        -10.12030893497902
      ],
      [
        "▁Foof",
        -10.120534487282558
      ],
      [
        "▁bavard",
        -10.124789071395194
      ],
      [
        "▁mur",
        -10.125778663649383
      ],
      [
        "▁t'e",
        -10.127000162556648
      ],
      [
        "▁t'app",
        -10.127984276525527
      ],
      [
        "tion",
        -10.129622451253388
      ],
      [
        "▁recon",
        -10.130787754576719
      ],
      [
        "▁parent",
        -10.131250775830972
      ],
      [
        "▁mort",
        -10.132910749901134
      ],
      [
        "▁gë",
        -10.134119713701297
      ],
      [
        "▁vill",
        -10.134722724831544
      ],
      [
        "▁nopp",
        -10.135171808655592
      ],
      [
        "▁tée",
        -10.135827601043937
      ],
      [
        "▁foof",
        -10.135992659819733
      ],
      [
        "▁yit",
        -10.137936910043676
      ],
      [
        "▁oreille",
        -10.138357455688148
      ],
      [
        "ccepte",
        -10.142188137030207
      ],
      [
        "cheur",
        -10.144152603700789
      ],
      [
        "▁génér",
        -10.144638409167971
      ],
      [
        "▁jaŋ",
        -10.145034710330142
      ],
      [
        "ête",
        -10.145199485019612
      ],
      [
        "à-bas",
        -10.147796666331034
      ],
      [
        "▁jëfandik",
        -10.147866397065284
      ],
      [
        "▁degg",
        -10.14819848810868
      ],
      [
        "▁marché.",
        -10.148328453397669
      ],
      [
        "mbres",
        -10.148591771102454
      ],
      [
        "▁d'habit",
        -10.148596409045224
      ],
      [
        "É",
        -10.148610489326643
      ],
      [
        "▁migrateurs",
        -10.148610489336923
      ],
      [
        ")",
        -10.1486104893666
      ],
      [
        "(",
        -10.1486104893666
      ],
      [
        "▁Niominka.",
        -10.148610489370537
      ],
      [
        "▁confortable",
        -10.148610489410869
      ],
      [
        "▁marõ",
        -10.148610489620772
      ],
      [
        "▁impoli",
        -10.14861049198688
      ],
      [
        "▁récipient",
        -10.148610495579407
      ],
      [
        "▁Senegaal",
        -10.148610499479243
      ],
      [
        "▁archite",
        -10.148610500623432
      ],
      [
        "▁accroch",
        -10.148610506265001
      ],
      [
        "▁tambour",
        -10.148610510028892
      ],
      [
        "▁canapé",
        -10.148610517551942
      ],
      [
        "▁maasàllaa",
        -10.148610559561206
      ],
      [
        "▁berceau",
        -10.148610577273994
      ],
      [
        "▁Sénégal",
        -10.148610624395612
      ],
      [
        "▁frigo",
        -10.14861066202174
      ],
      [
        "▁chaîne",
        -10.14861073866006
      ],
      [
        "▁attaché",
        -10.148610983460282
      ],
      [
        "▁mboq",
        -10.14861127994184
      ],
      [
        "politesse",
        -10.14861131816222
      ],
      [
        "▁totalité",
        -10.148611729501114
      ],
      [
        "▁lumineuse",
        -10.148611774550007
      ],
      [
        "▁achète",
        -10.148611780108425
      ],
      [
        "▁rassembl",
        -10.148612301158686
      ],
      [
        "áa",
        -10.148612301469685
      ],
      [
        "congelé",
        -10.148612580094612
      ],
      [
        "▁beerso",
        -10.14861296220656
      ],
      [
        "▁Dites-l",
        -10.148614577940668
      ],
      [
        "▁yalwaan",
        -10.148615019736953
      ],
      [
        "▁prépare",
        -10.14861521199522
      ],
      [
        "▁nouvel",
        -10.148615896894887
      ],
      [
        "▁magasin",
        -10.148616166020204
      ],
      [
        "▁tëdd",
        -10.148616250013564
      ],
      [
        "'ouvre",
        -10.14861990640015
      ],
      [
        "▁statut",
        -10.148621458930435
      ],
      [
        "▁rëdd",
        -10.148621689569035
      ],
      [
        "▁\"jaune\"",
        -10.148622570491098
      ],
      [
        "▁besoin",
        -10.148626067389015
      ],
      [
        "▁assailli",
        -10.148626230477744
      ],
      [
        "▁marron",
        -10.148627995770044
      ],
      [
        "▁meuble",
        -10.148628652826314
      ],
      [
        "▁trop",
        -10.148629726825927
      ],
      [
        "▁pied",
        -10.148631305011998
      ],
      [
        "▁l'allume",
        -10.148633312404678
      ],
      [
        "▁moontin",
        -10.14863411782511
      ],
      [
        "▁Taxawa",
        -10.148639134202709
      ],
      [
        "▁renversé",
        -10.148666334437817
      ],
      [
        "▁bouge",
        -10.14867153059978
      ],
      [
        "▁nàññ",
        -10.148671940129386
      ],
      [
        "▁L'endroit",
        -10.14868325249114
      ],
      [
        "àngaan",
        -10.148688147141495
      ],
      [
        "▁constitué",
        -10.148692110626396
      ],
      [
        "àccee",
        -10.148695615662376
      ],
      [
        "▁ndugge",
        -10.148698016207362
      ],
      [
        "▁n'habite",
        -10.148698564757588
      ],
      [
        "aalekum",
        -10.14870033388225
      ],
      [
        "▁âgé",
        -10.148711030171096
      ],
      [
        "▁xelli",
        -10.148711124599345
      ],
      [
        "▁descendra",
        -10.148717889483692
      ],
      [
        "▁répét",
        -10.148727285229777
      ],
      [
        "▁gosse",
        -10.148730881411549
      ],
      [
        "▁yàqu",
        -10.14873323807586
      ],
      [
        "▁couvr",
        -10.14873444898424
      ],
      [
        "▁palaat",
        -10.148757755204894
      ],
      [
        "▁Français",
        -10.14879954764529
      ],
      [
        "▁x",
        -10.148824252514455
      ],
      [
        "▁salut",
        -10.148830585154764
      ],
      [
        "▁aajo",
        -10.148832815219704
      ],
      [
        "▁inter",
        -10.14884370687608
      ],
      [
        "▁fanane",
        -10.14885726262164
      ],
      [
        "▁propos",
        -10.148859395416054
      ],
      [
        "▁chauff",
        -10.148869777373873
      ],
      [
        "▁présen",
        -10.148878592220854
      ],
      [
        "▁plante",
        -10.148881829798906
      ],
      [
        "âche",
        -10.148912629713593
      ],
      [
        "▁njiit",
        -10.148917454902538
      ],
      [
        "▁ancien",
        -10.148967765069846
      ],
      [
        "▁jumaa",
        -10.148976773220095
      ],
      [
        "▁xamantane",
        -10.149002879193693
      ],
      [
        "▁faneetar",
        -10.149023648329376
      ],
      [
        "▁poli",
        -10.149031139874864
      ],
      [
        "▁Musta",
        -10.14906555070483
      ],
      [
        "pérer",
        -10.1491439207987
      ],
      [
        "▁Lebou",
        -10.149196466933992
      ],
      [
        "aune\"",
        -10.149201659987636
      ],
      [
        "▁ubbi",
        -10.149204737891267
      ],
      [
        "▁ginnaawam",
        -10.149288819930593
      ],
      [
        "▁Dellu",
        -10.149289967997506
      ],
      [
        "cture",
        -10.149291982535376
      ],
      [
        "▁fanaan",
        -10.149381826050845
      ],
      [
        "▁yeggee",
        -10.149421638557302
      ],
      [
        "▁vous-même",
        -10.14950475423451
      ],
      [
        "▁cohabitent",
        -10.14955822315491
      ],
      [
        "▁j'apprécie",
        -10.149593323543753
      ],
      [
        "▁moi-même",
        -10.149640463748563
      ],
      [
        "▁bënn",
        -10.149714879437319
      ],
      [
        "▁moyen",
        -10.149739509242067
      ],
      [
        "▁toi-même",
        -10.149760018685537
      ],
      [
        "▁tàngal",
        -10.14988606684623
      ],
      [
        "▁droit",
        -10.150003728142568
      ],
      [
        "▁tissé",
        -10.150043827847863
      ],
      [
        "iroir",
        -10.150061888582945
      ],
      [
        "▁élevage",
        -10.150075512652455
      ],
      [
        "▁L'autre",
        -10.150109133217601
      ],
      [
        "assiette",
        -10.150152022848594
      ],
      [
        "▁echelle",
        -10.150152165057078
      ],
      [
        "ablement",
        -10.150212690676423
      ],
      [
        "▁Chacun",
        -10.15026469749754
      ],
      [
        "▁raison",
        -10.150277122736526
      ],
      [
        "époque",
        -10.150382420095408
      ],
      [
        "▁Dugg",
        -10.150592556817184
      ],
      [
        "▁karo",
        -10.15059954828177
      ],
      [
        "▁carre",
        -10.150679708798869
      ],
      [
        "▁waawaaw",
        -10.150686193869156
      ],
      [
        "▁Wutël",
        -10.150724728356153
      ],
      [
        "▁monter",
        -10.150985315723313
      ],
      [
        "▁tayel",
        -10.151041784636304
      ],
      [
        "▁Arr",
        -10.151078157353796
      ],
      [
        "soup",
        -10.151271451098422
      ],
      [
        "▁Bira",
        -10.151362952687709
      ],
      [
        "▁t'aurai",
        -10.151561489421798
      ],
      [
        "▁manger",
        -10.151573945183856
      ],
      [
        "▁jouent",
        -10.151575226925289
      ],
      [
        "▁kulëer",
        -10.151595419177168
      ],
      [
        "aucun",
        -10.152076245261927
      ],
      [
        "▁janool",
        -10.152202067828929
      ],
      [
        "assoupi",
        -10.152288633308597
      ],
      [
        "▁entouré",
        -10.152523283109105
      ],
      [
        "▁mucc",
        -10.15262668765363
      ],
      [
        "▁serré",
        -10.152719674745667
      ],
      [
        "gico",
        -10.152740666016266
      ],
      [
        "▁coup",
        -10.15294169814003
      ],
      [
        "▁dawul",
        -10.153140327226906
      ],
      [
        "▁gone",
        -10.153434726616796
      ],
      [
        "▁googu",
        -10.15369051505619
      ],
      [
        "▁yeg",
        -10.153701880150264
      ],
      [
        "mnas",
        -10.15375138696509
      ],
      [
        "habitent",
        -10.153826436211128
      ],
      [
        "ngalu",
        -10.15386346443165
      ],
      [
        "outer",
        -10.153967081502753
      ],
      [
        "angasin",
        -10.154005288776943
      ],
      [
        "▁ardo",
        -10.154006792980045
      ],
      [
        "▁fatt",
        -10.154185971975888
      ],
      [
        "▁wenn",
        -10.154388137490015
      ],
      [
        "ifique",
        -10.15446194107053
      ],
      [
        "ayim",
        -10.155059592052481
      ],
      [
        "▁jàll",
        -10.155230428724328
      ],
      [
        "▁par-là",
        -10.155369562099285
      ],
      [
        "trouvé",
        -10.1555603096148
      ],
      [
        "▁l'appelle",
        -10.155808125082688
      ],
      [
        "▁àndal",
        -10.155901594214473
      ],
      [
        "▁n'allai",
        -10.15592493195782
      ],
      [
        "▁coule",
        -10.155966786954044
      ],
      [
        "aintenant",
        -10.156117583032918
      ],
      [
        "▁moroom",
        -10.15674073302362
      ],
      [
        "▁dajal",
        -10.156967113415027
      ],
      [
        "▁dents",
        -10.15714045822545
      ],
      [
        "allum",
        -10.157376511972586
      ],
      [
        "▁Kaay",
        -10.157389963833934
      ],
      [
        "▁tàkk",
        -10.157460763846403
      ],
      [
        "▁travaillait",
        -10.157941543730491
      ],
      [
        "▁bëtt",
        -10.158025183645721
      ],
      [
        "▁d'eux",
        -10.1580501422019
      ],
      [
        "▁baŋ",
        -10.158100306615056
      ],
      [
        "▁sës",
        -10.158635695152432
      ],
      [
        "joor",
        -10.159109241064543
      ],
      [
        "▁connaisse",
        -10.159129368026944
      ],
      [
        "posés",
        -10.161364987918702
      ],
      [
        "▁voyage",
        -10.16145467148377
      ],
      [
        "▁doomam",
        -10.162323155788565
      ],
      [
        "▁exc",
        -10.162553786302261
      ],
      [
        "uru",
        -10.162569053650076
      ],
      [
        "gël",
        -10.163018872434641
      ],
      [
        "▁voulez",
        -10.163529395149398
      ],
      [
        "xam",
        -10.163784095103033
      ],
      [
        "ëk",
        -10.164143323578994
      ],
      [
        "ace",
        -10.164934644747598
      ],
      [
        "▁ñor",
        -10.165228083917954
      ],
      [
        "▁rafetul",
        -10.165244869469058
      ],
      [
        "▁lieux",
        -10.165585791135301
      ],
      [
        "▁woowe",
        -10.165635069424248
      ],
      [
        "kkan",
        -10.165846481348373
      ],
      [
        "▁jusqu'ici",
        -10.168394353895811
      ],
      [
        "ñca",
        -10.169090309064213
      ],
      [
        "▁Ño",
        -10.169299513621324
      ],
      [
        "▁doyu",
        -10.169375046526866
      ],
      [
        "▁Ah",
        -10.169705193667467
      ],
      [
        "ëlé",
        -10.169929817455264
      ],
      [
        "▁Jë",
        -10.170527285988106
      ],
      [
        "sard",
        -10.170720333811197
      ],
      [
        "▁Léeg",
        -10.171085566678258
      ],
      [
        "▁laiss",
        -10.171214664152409
      ],
      [
        "àmm",
        -10.171335511976071
      ],
      [
        "▁bëggé",
        -10.171620653904228
      ],
      [
        "▁sox",
        -10.171787571025508
      ],
      [
        "▁d'elle",
        -10.17217662300228
      ],
      [
        "▁voies",
        -10.172509655885
      ],
      [
        "▁remplie",
        -10.17267203554267
      ],
      [
        "lusi",
        -10.172701258327155
      ],
      [
        "nég",
        -10.172810524192375
      ],
      [
        "▁bavarda",
        -10.172997049351954
      ],
      [
        "▁content",
        -10.17304238632061
      ],
      [
        "▁Daawul",
        -10.173111711141031
      ],
      [
        "▁bëggu",
        -10.173570738774865
      ],
      [
        "▁fë",
        -10.17369359310026
      ],
      [
        "▁taba",
        -10.174384389627381
      ],
      [
        "ère.",
        -10.175828757259753
      ],
      [
        "▁voulai",
        -10.177788582588656
      ],
      [
        "▁feeñ",
        -10.178145357307274
      ],
      [
        "▁fen",
        -10.178246818152203
      ],
      [
        "rdo",
        -10.178763480875258
      ],
      [
        "▁rentrer",
        -10.18042796304085
      ],
      [
        "▁ter",
        -10.18054127268327
      ],
      [
        "▁Ab",
        -10.180580154684788
      ],
      [
        "▁Yooyu",
        -10.181144152876106
      ],
      [
        "▁gaal",
        -10.181204029261167
      ],
      [
        "nent",
        -10.18144483429959
      ],
      [
        "bul",
        -10.18158553404097
      ],
      [
        "corde",
        -10.181807495896244
      ],
      [
        "▁Ex",
        -10.181949571789298
      ],
      [
        "▁vertu",
        -10.18227579519326
      ],
      [
        "▁entrer",
        -10.183564442459108
      ],
      [
        "▁xaritam",
        -10.184731348866835
      ],
      [
        "▁ben",
        -10.184947427101621
      ],
      [
        "C'est",
        -10.185010668502738
      ],
      [
        "ññ",
        -10.187658128424067
      ],
      [
        "▁conna",
        -10.188055241021834
      ],
      [
        "'entend",
        -10.188358945271332
      ],
      [
        "▁all",
        -10.188797891901515
      ],
      [
        "▁élev",
        -10.19230482908819
      ],
      [
        "▁pr",
        -10.192859473143665
      ],
      [
        "▁fini",
        -10.193015694379502
      ],
      [
        "ëlë",
        -10.193685938880002
      ],
      [
        "▁déc",
        -10.194628392907873
      ],
      [
        "góor",
        -10.1967005555318
      ],
      [
        "quelles",
        -10.196951584848991
      ],
      [
        "ain",
        -10.199548574519337
      ],
      [
        "ourri",
        -10.199763149639
      ],
      [
        "▁kote",
        -10.199852928163683
      ],
      [
        "▁lionne",
        -10.201204868202456
      ],
      [
        "ërëm",
        -10.201708568059928
      ],
      [
        "edress",
        -10.202183742894617
      ],
      [
        "▁morts",
        -10.202573117382503
      ],
      [
        "gaam",
        -10.203308297689112
      ],
      [
        "▁Ñen",
        -10.203762131557866
      ],
      [
        "▁Celle",
        -10.204236592465469
      ],
      [
        "▁saura",
        -10.204703728343366
      ],
      [
        "▁monta",
        -10.205125835807316
      ],
      [
        "▁per",
        -10.205319743605674
      ],
      [
        "ière.",
        -10.205340578638559
      ],
      [
        "après-",
        -10.206369269972285
      ],
      [
        "▁fût",
        -10.206706553319398
      ],
      [
        "▁étage",
        -10.207494326281648
      ],
      [
        "▁jale",
        -10.209657839248482
      ],
      [
        "nd",
        -10.209746826952474
      ],
      [
        "▁Jamm",
        -10.210559839068415
      ],
      [
        "axkoon",
        -10.210739199928174
      ],
      [
        "▁ens",
        -10.211756835078328
      ],
      [
        "séd",
        -10.212189287891627
      ],
      [
        "waaw",
        -10.212548703751896
      ],
      [
        "emal",
        -10.214492421052087
      ],
      [
        "uloo",
        -10.214512267707605
      ],
      [
        "aî",
        -10.214956561042577
      ],
      [
        "▁sta",
        -10.215315750721892
      ],
      [
        "▁échelle",
        -10.216701541960898
      ],
      [
        "▁lumi",
        -10.21722486149774
      ],
      [
        "okk",
        -10.218504402898954
      ],
      [
        "gis",
        -10.219062515603735
      ],
      [
        "▁attrape",
        -10.220099002488075
      ],
      [
        "alante",
        -10.22138667325752
      ],
      [
        "▁bleus",
        -10.222725166308457
      ],
      [
        "▁wut",
        -10.223860595965188
      ],
      [
        "anaa",
        -10.224877778853497
      ],
      [
        "bb",
        -10.227470328191401
      ],
      [
        "▁baga",
        -10.227864574685155
      ],
      [
        "▁Sen",
        -10.228087512974204
      ],
      [
        "▁travaill",
        -10.228961953189208
      ],
      [
        "puisé",
        -10.22899512517658
      ],
      [
        "▁Don",
        -10.22948308174336
      ],
      [
        "▁waxtu",
        -10.22950211697688
      ],
      [
        "autre",
        -10.230045466125318
      ],
      [
        "dans",
        -10.231380872332473
      ],
      [
        "jóo",
        -10.232452640710548
      ],
      [
        "▁salaam",
        -10.232851824028835
      ],
      [
        "óol",
        -10.233307340490857
      ],
      [
        "cée",
        -10.235162805730841
      ],
      [
        "▁nanu",
        -10.235980879836834
      ],
      [
        "▁Wooy",
        -10.236043252028335
      ],
      [
        "pose",
        -10.237639870357055
      ],
      [
        "▁melo",
        -10.239108369294401
      ],
      [
        "▁Mel",
        -10.23916614081054
      ],
      [
        "▁Nde",
        -10.239443713692145
      ],
      [
        "endu",
        -10.240237403847795
      ],
      [
        "▁léeg",
        -10.241794786410571
      ],
      [
        "mps",
        -10.246534406789047
      ],
      [
        "▁travaille",
        -10.248879908807936
      ],
      [
        "▁l'éc",
        -10.250138970197627
      ],
      [
        "iennent",
        -10.250804916547807
      ],
      [
        "ta",
        -10.252816497876806
      ],
      [
        "▁der",
        -10.252816912153401
      ],
      [
        "▁Wau",
        -10.254450308272563
      ],
      [
        "▁Leur",
        -10.254681668354124
      ],
      [
        "▁Non",
        -10.25516068851656
      ],
      [
        "▁nan",
        -10.256418702623426
      ],
      [
        "achi",
        -10.256595917886628
      ],
      [
        "lóo",
        -10.259507989065495
      ],
      [
        "▁seule",
        -10.260201113998306
      ],
      [
        "▁Peut-",
        -10.261276102536865
      ],
      [
        "▁duu",
        -10.262344129180935
      ],
      [
        "▁lev",
        -10.262420745988132
      ],
      [
        "▁ri",
        -10.262605353064897
      ],
      [
        "▁réc",
        -10.263813712285648
      ],
      [
        "dir",
        -10.266908561779065
      ],
      [
        "deau",
        -10.266930578557087
      ],
      [
        "'étudiant",
        -10.267192729487391
      ],
      [
        "▁étalée",
        -10.267359965521985
      ],
      [
        "ërëb",
        -10.268601255803857
      ],
      [
        "▁faç",
        -10.268980954052616
      ],
      [
        "▁trouver",
        -10.268984219359375
      ],
      [
        "▁jur",
        -10.269657656986121
      ],
      [
        "pas",
        -10.274203705242032
      ],
      [
        "lors",
        -10.27457592187022
      ],
      [
        "s-",
        -10.27515295512556
      ],
      [
        "▁Salaa",
        -10.277662049368033
      ],
      [
        "oudre",
        -10.280471850641982
      ],
      [
        "boo",
        -10.282486965859913
      ],
      [
        "▁donn",
        -10.283021868389453
      ],
      [
        "-nd",
        -10.285890480716322
      ],
      [
        "yit",
        -10.28692647054737
      ],
      [
        "▁daawu",
        -10.289336918575325
      ],
      [
        "▁née",
        -10.290822131040871
      ],
      [
        "▁Mets",
        -10.291142338103217
      ],
      [
        "▁jamb",
        -10.292833950696043
      ],
      [
        "ort",
        -10.294314102528794
      ],
      [
        "▁H",
        -10.295861542535352
      ],
      [
        "▁Set",
        -10.296438655680202
      ],
      [
        "▁après-",
        -10.299186068264067
      ],
      [
        "aa",
        -10.299661174848474
      ],
      [
        "▁xal",
        -10.302941365177112
      ],
      [
        "▁ño",
        -10.308011542692297
      ],
      [
        "ante",
        -10.309030145359827
      ],
      [
        "▁ciment",
        -10.30953314171537
      ],
      [
        "gu",
        -10.309829418735703
      ],
      [
        "off",
        -10.311777409327025
      ],
      [
        "▁lekku",
        -10.3132095180469
      ],
      [
        "biir",
        -10.315329212220682
      ],
      [
        "▁Amin",
        -10.31675419684487
      ],
      [
        "enez",
        -10.317616924031402
      ],
      [
        "ste",
        -10.319153589133613
      ],
      [
        "toi",
        -10.319741070102
      ],
      [
        "che",
        -10.320307316158257
      ],
      [
        "▁pot",
        -10.320512497558106
      ],
      [
        "▁sor",
        -10.32193869146507
      ],
      [
        "▁yaay",
        -10.32223739687241
      ],
      [
        "cult",
        -10.325830261121414
      ],
      [
        "▁jours",
        -10.33350843515467
      ],
      [
        "homme",
        -10.333661732939268
      ],
      [
        "ati",
        -10.333749693883526
      ],
      [
        "C",
        -10.333912377252839
      ],
      [
        "▁mar",
        -10.334757706265611
      ],
      [
        "ière",
        -10.339960313298437
      ],
      [
        "-même",
        -10.345363762975225
      ],
      [
        "egg",
        -10.349870689737234
      ],
      [
        "esquel",
        -10.351115310964339
      ],
      [
        "joo",
        -10.351582551355726
      ],
      [
        "re.",
        -10.352475285816855
      ],
      [
        "abax",
        -10.35289268941246
      ],
      [
        "▁reveni",
        -10.353479294207146
      ],
      [
        "waa",
        -10.353760614249838
      ],
      [
        "▁meneen",
        -10.35516281736775
      ],
      [
        "▁deme",
        -10.356984715883131
      ],
      [
        "lëer",
        -10.35936498311952
      ],
      [
        "▁rapp",
        -10.362821339909944
      ],
      [
        "allu",
        -10.363762278992635
      ],
      [
        "▁écla",
        -10.365374202089251
      ],
      [
        "axtaan",
        -10.367924507296376
      ],
      [
        "oivent",
        -10.3700028075625
      ],
      [
        "▁petits",
        -10.371140845002557
      ],
      [
        "▁rag",
        -10.372298817210071
      ],
      [
        "eux-ci",
        -10.372947180317112
      ],
      [
        "▁nj",
        -10.373097994533678
      ],
      [
        "onvers",
        -10.375293341671064
      ],
      [
        "▁s'assi",
        -10.375586718584634
      ],
      [
        "▁Baa",
        -10.37669690301153
      ],
      [
        "▁Ñung",
        -10.377206739208596
      ],
      [
        "dina",
        -10.377513281173135
      ],
      [
        "▁l'as",
        -10.38314907216746
      ],
      [
        "▁Daa",
        -10.384191002981774
      ],
      [
        "▁habit",
        -10.386306011638117
      ],
      [
        "nnée",
        -10.387154328870713
      ],
      [
        "ŋk",
        -10.388627934684452
      ],
      [
        "'euss",
        -10.389255181807993
      ],
      [
        "meur",
        -10.390721582122511
      ],
      [
        "▁voie",
        -10.390952146945736
      ],
      [
        "étend",
        -10.391723428811503
      ],
      [
        "'arbre",
        -10.393423290415132
      ],
      [
        "mal",
        -10.395516482954466
      ],
      [
        "bal",
        -10.39569165181287
      ],
      [
        "▁Xarit",
        -10.397116630289212
      ],
      [
        "▁war",
        -10.40002256446125
      ],
      [
        "cien",
        -10.400428659618713
      ],
      [
        "bine",
        -10.403491121569415
      ],
      [
        "kke",
        -10.404094292454264
      ],
      [
        "▁tubaa",
        -10.406742425881038
      ],
      [
        "▁We",
        -10.408716239500718
      ],
      [
        "min",
        -10.409555975028788
      ],
      [
        "▁ë",
        -10.41014033460712
      ],
      [
        "nde",
        -10.412102732504788
      ],
      [
        "waan",
        -10.413730744592453
      ],
      [
        "res",
        -10.414595136575503
      ],
      [
        "▁tir",
        -10.41481305359954
      ],
      [
        "iron",
        -10.41600943046604
      ],
      [
        "orsqu",
        -10.416016572086717
      ],
      [
        "he",
        -10.41607179961313
      ],
      [
        "▁layu",
        -10.417598357813196
      ],
      [
        "ttais",
        -10.418826395970218
      ],
      [
        "nee",
        -10.420491382718197
      ],
      [
        "ros",
        -10.422454261254037
      ],
      [
        "▁ro",
        -10.423343637823061
      ],
      [
        "▁lee",
        -10.425132602211582
      ],
      [
        "▁sortie",
        -10.4299956479163
      ],
      [
        "qu'il",
        -10.432627562431383
      ],
      [
        "▁sub",
        -10.433263687304496
      ],
      [
        "la.",
        -10.436442569358059
      ],
      [
        "▁cat",
        -10.437032340255726
      ],
      [
        "li",
        -10.437091000830094
      ],
      [
        "▁tey",
        -10.439290559171994
      ],
      [
        "da",
        -10.443243022855862
      ],
      [
        "cours",
        -10.44447384156916
      ],
      [
        "aboo",
        -10.444711411824898
      ],
      [
        "▁tire",
        -10.45155533873115
      ],
      [
        "agg",
        -10.452673183538172
      ],
      [
        "▁conçues",
        -10.459355441560342
      ],
      [
        "▁wal",
        -10.464891420646902
      ],
      [
        "▁vent",
        -10.46636815584922
      ],
      [
        "▁To",
        -10.467224509313487
      ],
      [
        "agnes",
        -10.47117700994754
      ],
      [
        "bale",
        -10.471670041996918
      ],
      [
        "uits",
        -10.472021947522387
      ],
      [
        "ur.",
        -10.473591388999695
      ],
      [
        "▁arriv",
        -10.477878274626585
      ],
      [
        "▁Wan",
        -10.478276058270923
      ],
      [
        "▁filles",
        -10.478670524604155
      ],
      [
        "ol",
        -10.484641444065197
      ],
      [
        "ndal",
        -10.48643782138148
      ],
      [
        "▁saw",
        -10.49354994198253
      ],
      [
        "omu",
        -10.494694659833067
      ],
      [
        "gé",
        -10.497518560889157
      ],
      [
        "um",
        -10.497794471015597
      ],
      [
        "nor",
        -10.501373285801504
      ],
      [
        "▁serv",
        -10.501985873500754
      ],
      [
        "▁lë",
        -10.505873161232433
      ],
      [
        "lle",
        -10.506506482983225
      ],
      [
        "waal",
        -10.508306086546838
      ],
      [
        "elui-ci",
        -10.50960791115116
      ],
      [
        "▁Leb",
        -10.510098041764397
      ],
      [
        "▁sembl",
        -10.513089341794943
      ],
      [
        "▁Bëggu",
        -10.518489195355865
      ],
      [
        "▁joo",
        -10.523315294476848
      ],
      [
        "▁juu",
        -10.52749616025612
      ],
      [
        "id",
        -10.5309826751821
      ],
      [
        "▁voi",
        -10.532700011125527
      ],
      [
        "▁jà",
        -10.533111136236855
      ],
      [
        "ekk",
        -10.535061718770184
      ],
      [
        "▁rentr",
        -10.535356994718503
      ],
      [
        "uñ",
        -10.537162049236596
      ],
      [
        "orte",
        -10.538143772683682
      ],
      [
        "▁tawa",
        -10.538457959502491
      ],
      [
        "▁goog",
        -10.539562185360918
      ],
      [
        "▁Saa",
        -10.54100159586509
      ],
      [
        "▁Ou",
        -10.549319525430153
      ],
      [
        "nag",
        -10.549712981676397
      ],
      [
        "▁Re",
        -10.556741100637765
      ],
      [
        "▁d'o",
        -10.556988042308554
      ],
      [
        "▁wo",
        -10.558705140084845
      ],
      [
        "ici.",
        -10.560341133779993
      ],
      [
        "seen",
        -10.561571119572609
      ],
      [
        "'il",
        -10.562713387132549
      ],
      [
        "ver",
        -10.564311392852176
      ],
      [
        "ouche",
        -10.569005069861062
      ],
      [
        "evant",
        -10.57065608359181
      ],
      [
        "▁poissons",
        -10.574376365640305
      ],
      [
        "▁pl",
        -10.57458950104975
      ],
      [
        "veux",
        -10.577409261581803
      ],
      [
        "▁Xan",
        -10.578648534982886
      ],
      [
        "allon",
        -10.579827574908057
      ],
      [
        "pir",
        -10.585364405593987
      ],
      [
        "'aurai",
        -10.59431419701626
      ],
      [
        "ggoo",
        -10.594990774029304
      ],
      [
        "▁chan",
        -10.60404563077982
      ],
      [
        "éra",
        -10.609029945479222
      ],
      [
        "▁nale",
        -10.610463811662285
      ],
      [
        "our",
        -10.610771310947392
      ],
      [
        "▁ñee",
        -10.61144683150615
      ],
      [
        "int",
        -10.61478123463682
      ],
      [
        "eel",
        -10.61494086812084
      ],
      [
        "▁jeu",
        -10.62147411225913
      ],
      [
        "nez",
        -10.62392777029778
      ],
      [
        "▁ch",
        -10.627535745094239
      ],
      [
        "ub",
        -10.630774834843528
      ],
      [
        "'agit",
        -10.633569366677023
      ],
      [
        "ande",
        -10.636515585007414
      ],
      [
        "abar",
        -10.637375448629339
      ],
      [
        "ndio",
        -10.639029910491802
      ],
      [
        "▁naata",
        -10.639972815959522
      ],
      [
        "▁Ang",
        -10.642350562838658
      ],
      [
        "▁po",
        -10.64354611511679
      ],
      [
        "▁cin",
        -10.65107135545304
      ],
      [
        "▁Té",
        -10.653742822105231
      ],
      [
        "ngel",
        -10.655131681437096
      ],
      [
        "▁Ha",
        -10.65618918289658
      ],
      [
        "emp",
        -10.657053426997987
      ],
      [
        "ŋgoo",
        -10.657365257564624
      ],
      [
        "▁s'ass",
        -10.657883624553243
      ],
      [
        "iy",
        -10.658799696891386
      ],
      [
        "▁Fe",
        -10.661440732955663
      ],
      [
        "▁comm",
        -10.662935828743247
      ],
      [
        "ité",
        -10.664286022865975
      ],
      [
        "habite",
        -10.668441348411422
      ],
      [
        "at.",
        -10.66895481699212
      ],
      [
        "llu",
        -10.671945375320522
      ],
      [
        "▁arrive",
        -10.672669916536226
      ],
      [
        "▁j'e",
        -10.672849782070816
      ],
      [
        "▁mise",
        -10.676258570778955
      ],
      [
        "woo",
        -10.677432107825439
      ],
      [
        "▁seeta",
        -10.677831654941176
      ],
      [
        "irent",
        -10.67838855956359
      ],
      [
        "▁sé",
        -10.679720123275837
      ],
      [
        "oir",
        -10.680478976853001
      ],
      [
        "Il",
        -10.681575524856028
      ],
      [
        "▁Pl",
        -10.681657139076465
      ],
      [
        "ets-t",
        -10.68206451540059
      ],
      [
        "▁desquel",
        -10.684921873475155
      ],
      [
        "aan",
        -10.685832459374435
      ],
      [
        "▁far",
        -10.691191886156682
      ],
      [
        "eil",
        -10.69121945388466
      ],
      [
        "▁ndi",
        -10.692150506044804
      ],
      [
        "ition",
        -10.692867182388651
      ],
      [
        "▁dencu",
        -10.700930795267288
      ],
      [
        "▁waxa",
        -10.70225967885399
      ],
      [
        "▁taa",
        -10.703494165828417
      ],
      [
        "cri",
        -10.707068623401826
      ],
      [
        "▁jou",
        -10.709967783171098
      ],
      [
        "u-",
        -10.71177214746427
      ],
      [
        "▁bas",
        -10.715121595347954
      ],
      [
        "▁cara",
        -10.71696849383277
      ],
      [
        "wax",
        -10.723177399989208
      ],
      [
        "ide",
        -10.726718368808868
      ],
      [
        "▁ñuu",
        -10.727124940125716
      ],
      [
        "▁ge",
        -10.728471806446924
      ],
      [
        "▁ña",
        -10.72870493305427
      ],
      [
        "laay",
        -10.729145672224861
      ],
      [
        "▁tub",
        -10.73034525853037
      ],
      [
        "ooy",
        -10.7305584950802
      ],
      [
        "▁Mas",
        -10.732239805558955
      ],
      [
        "aux",
        -10.732865731843425
      ],
      [
        "À",
        -10.733154928379737
      ],
      [
        "bba",
        -10.735151781376155
      ],
      [
        "▁yen",
        -10.746765956145808
      ],
      [
        "avant",
        -10.747936863138651
      ],
      [
        "▁paye",
        -10.74861814068527
      ],
      [
        "aaroo",
        -10.75178774695891
      ],
      [
        "yul",
        -10.757366508948632
      ],
      [
        "intérieur",
        -10.757394063900566
      ],
      [
        "argent",
        -10.760773830198177
      ],
      [
        "née",
        -10.764746518777486
      ],
      [
        "poisson",
        -10.766839690766052
      ],
      [
        "▁lalu",
        -10.772813736510155
      ],
      [
        "▁waxe",
        -10.774374515491907
      ],
      [
        "aumône",
        -10.780941770959013
      ],
      [
        "daje",
        -10.782658811794684
      ],
      [
        "éegu",
        -10.783488985396353
      ],
      [
        "ru",
        -10.784401064886126
      ],
      [
        "ñuul",
        -10.784654645582075
      ],
      [
        "ffr",
        -10.785570396462932
      ],
      [
        "▁gr",
        -10.78874724444712
      ],
      [
        "▁voici.",
        -10.788753568602013
      ],
      [
        "lait",
        -10.791532026638876
      ],
      [
        "▁cour",
        -10.796194669536783
      ],
      [
        "▁utilis",
        -10.799325820644283
      ],
      [
        "▁désir",
        -10.799979066962365
      ],
      [
        "auf",
        -10.800196515275577
      ],
      [
        "▁port",
        -10.800990862964015
      ],
      [
        "▁boob",
        -10.8047822017595
      ],
      [
        "erai",
        -10.80841782353492
      ],
      [
        "▁reven",
        -10.818602639175134
      ],
      [
        "acc",
        -10.82018482245098
      ],
      [
        "▁ndà",
        -10.821604709579683
      ],
      [
        "rob",
        -10.82193480018876
      ],
      [
        "alla",
        -10.830810574086971
      ],
      [
        "▁fermé",
        -10.833140487526489
      ],
      [
        "kar",
        -10.834191107134696
      ],
      [
        "I",
        -10.834303354761722
      ],
      [
        "ve",
        -10.836117538115332
      ],
      [
        "ñoo",
        -10.837340431944908
      ],
      [
        "aujourd'hui",
        -10.838964548769173
      ],
      [
        "dénk",
        -10.840098207675053
      ],
      [
        "ibbisi",
        -10.840982911909013
      ],
      [
        "▁cu",
        -10.846554904573269
      ],
      [
        "uw",
        -10.85751795096036
      ],
      [
        "▁Bule",
        -10.858109994213091
      ],
      [
        "▁énorm",
        -10.859812912639782
      ],
      [
        "viendra",
        -10.866776015629126
      ],
      [
        "uuti",
        -10.873602244229769
      ],
      [
        "▁seri",
        -10.874151442078718
      ],
      [
        "▁Bë",
        -10.87435707008688
      ],
      [
        "table",
        -10.875736874471706
      ],
      [
        "'appelles",
        -10.876230072684189
      ],
      [
        "▁dég",
        -10.880509879915378
      ],
      [
        "ami",
        -10.886040723965369
      ],
      [
        "▁montr",
        -10.886627750447236
      ],
      [
        "añu",
        -10.887489205504124
      ],
      [
        "dit",
        -10.887975551437425
      ],
      [
        "▁souhait",
        -10.889659061825446
      ],
      [
        "▁fro",
        -10.891153150323454
      ],
      [
        "sël",
        -10.891963883498649
      ],
      [
        "gui",
        -10.892391014530018
      ],
      [
        "étudiant",
        -10.89547785924951
      ],
      [
        "▁faa",
        -10.897043822711797
      ],
      [
        "bëggée",
        -10.8977865543193
      ],
      [
        "nn",
        -10.901782804871152
      ],
      [
        "▁pren",
        -10.903456848560246
      ],
      [
        "vu",
        -10.909069563475368
      ],
      [
        "dessin",
        -10.909184649322855
      ],
      [
        "▁Gej",
        -10.910020534955384
      ],
      [
        "naaw",
        -10.911534207775338
      ],
      [
        "gale",
        -10.911667545203187
      ],
      [
        "trent",
        -10.915693061538594
      ],
      [
        "▁refus",
        -10.919123182119607
      ],
      [
        "▁form",
        -10.919610790480846
      ],
      [
        "▁demand",
        -10.920532643171047
      ],
      [
        "demain",
        -10.921162584233235
      ],
      [
        "eû",
        -10.922234945045487
      ],
      [
        "iè",
        -10.92295478591134
      ],
      [
        "▁daaw",
        -10.92353627799167
      ],
      [
        "écrit",
        -10.924639243885078
      ],
      [
        "▁auto",
        -10.930542932298017
      ],
      [
        "çon",
        -10.932156214437594
      ],
      [
        "vin",
        -10.933196671696042
      ],
      [
        "▁naat",
        -10.934231300553432
      ],
      [
        "▁dan",
        -10.935328967071056
      ],
      [
        "plais",
        -10.937596538959479
      ],
      [
        "▁Voi",
        -10.938350917015555
      ],
      [
        "ana",
        -10.940120631297374
      ],
      [
        "oreiller",
        -10.941566554195795
      ],
      [
        "▁Es",
        -10.94532817922714
      ],
      [
        "jàpp",
        -10.946801841833667
      ],
      [
        "vert",
        -10.948201067594288
      ],
      [
        "été",
        -10.949620146938084
      ],
      [
        "ble",
        -10.95148964711644
      ],
      [
        "côté",
        -10.954419764818418
      ],
      [
        "sur",
        -10.956097737436645
      ],
      [
        "▁ra",
        -10.956668216829488
      ],
      [
        "▁taal",
        -10.95777958813631
      ],
      [
        "eut-être",
        -10.9616995701691
      ],
      [
        "▁mb",
        -10.966355975257303
      ],
      [
        "▁bër",
        -10.969541971570521
      ],
      [
        "tali",
        -10.97181338189205
      ],
      [
        "chaise",
        -10.97961725867336
      ],
      [
        "▁sera",
        -10.97974975047004
      ],
      [
        "jur",
        -10.981694306391175
      ],
      [
        "▁entr",
        -10.984063013768601
      ],
      [
        "sent",
        -10.984349363109331
      ],
      [
        "sort",
        -10.993494883159693
      ],
      [
        "▁yër",
        -10.995425099075923
      ],
      [
        "échelle",
        -10.996188497652232
      ],
      [
        "tière",
        -11.000326074523661
      ],
      [
        "affaire",
        -11.000518275014704
      ],
      [
        "alaam",
        -11.002718536647873
      ],
      [
        "jul",
        -11.003778531418895
      ],
      [
        "salaam",
        -11.011275646789441
      ],
      [
        "aal",
        -11.01354074578178
      ],
      [
        "jours",
        -11.01453267533368
      ],
      [
        "▁Ré",
        -11.01643935576989
      ],
      [
        "bond",
        -11.016650969370302
      ],
      [
        "ennent",
        -11.016930338479103
      ],
      [
        "étage",
        -11.017453825276213
      ],
      [
        "arrive",
        -11.01913878964742
      ],
      [
        "▁fû",
        -11.020164138041132
      ],
      [
        "▁choses.",
        -11.020629543697755
      ],
      [
        "xal",
        -11.022484061521892
      ],
      [
        "ooñ",
        -11.023588072910211
      ],
      [
        "ogul",
        -11.02408440114671
      ],
      [
        "attrape",
        -11.028708924045933
      ],
      [
        "e-t-il",
        -11.03197109793506
      ],
      [
        "andi",
        -11.033554785615822
      ],
      [
        "accompagne",
        -11.0392801849638
      ],
      [
        "▁Gisul",
        -11.041959145521789
      ],
      [
        "sembl",
        -11.04316202586563
      ],
      [
        "ëy",
        -11.043316573568825
      ],
      [
        "ans",
        -11.0439337437404
      ],
      [
        "ô",
        -11.043951780945134
      ],
      [
        "rais",
        -11.044813150232905
      ],
      [
        "lam",
        -11.047156340663953
      ],
      [
        "▁pan",
        -11.049947368927093
      ],
      [
        "bout",
        -11.050324589896263
      ],
      [
        "pax",
        -11.051110366529947
      ],
      [
        "rëm",
        -11.053686881573585
      ],
      [
        "tué",
        -11.055369204722627
      ],
      [
        "ar.",
        -11.055791893293552
      ],
      [
        "far",
        -11.058022231029037
      ],
      [
        "aire",
        -11.06060774959066
      ],
      [
        "▁Ñé",
        -11.0626091719561
      ],
      [
        "E",
        -11.072419588449689
      ],
      [
        "rte",
        -11.076754168418876
      ],
      [
        "ju",
        -11.077026278254769
      ],
      [
        "▁personn",
        -11.083457715580192
      ],
      [
        "▁Daawu",
        -11.08903022053041
      ],
      [
        "▁rempli",
        -11.08953517151842
      ],
      [
        "sang",
        -11.090690542572599
      ],
      [
        "▁Degg",
        -11.091027130984212
      ],
      [
        "ille-",
        -11.093701116208232
      ],
      [
        "▁jó",
        -11.094456617999011
      ],
      [
        "levé",
        -11.097178365528906
      ],
      [
        "tend",
        -11.103020674796914
      ],
      [
        "▁ten",
        -11.104271267279849
      ],
      [
        "▁attrap",
        -11.10579296548882
      ],
      [
        "▁Ag",
        -11.105795896323777
      ],
      [
        "▁i",
        -11.107164959829348
      ],
      [
        "ày",
        -11.107675203983254
      ],
      [
        "L'homme",
        -11.110624380105174
      ],
      [
        "▁Pr",
        -11.112247123874539
      ],
      [
        "urs",
        -11.112759085884544
      ],
      [
        "▁appar",
        -11.113023459115887
      ],
      [
        "posé",
        -11.113064579742758
      ],
      [
        "▁s'app",
        -11.11491542411543
      ],
      [
        "▁Peut",
        -11.116022828146566
      ],
      [
        "▁envoyé",
        -11.117708840528278
      ],
      [
        "oyager",
        -11.118661104191528
      ],
      [
        "em",
        -11.119264935152021
      ],
      [
        "érig",
        -11.12085703520304
      ],
      [
        "..",
        -11.120931791376393
      ],
      [
        "Gis",
        -11.122474147049507
      ],
      [
        "▁xë",
        -11.122503712548443
      ],
      [
        "marché",
        -11.122686644350628
      ],
      [
        "▁tr",
        -11.122834752369869
      ],
      [
        "dic",
        -11.123088483227928
      ],
      [
        "▁mat",
        -11.124740947263136
      ],
      [
        "▁kaasam",
        -11.125098685208306
      ],
      [
        "▁Yée",
        -11.127820022712765
      ],
      [
        "ard",
        -11.13019133431412
      ],
      [
        "▁naqa",
        -11.135507322240063
      ],
      [
        "▁croi",
        -11.135912102201646
      ],
      [
        "▁yó",
        -11.135982932528947
      ],
      [
        "▁l'am",
        -11.1377140088292
      ],
      [
        "▁tente",
        -11.139231917535845
      ],
      [
        "▁yaak",
        -11.141359461735178
      ],
      [
        "▁ho",
        -11.142411499860268
      ],
      [
        "nte",
        -11.142708896854408
      ],
      [
        "perç",
        -11.14302580275885
      ],
      [
        "'import",
        -11.143741941931488
      ],
      [
        "▁disc",
        -11.144284788707234
      ],
      [
        "chelle",
        -11.144320009435159
      ],
      [
        "▁entour",
        -11.14502649318829
      ],
      [
        "▁épo",
        -11.145519972071178
      ],
      [
        "▁vérit",
        -11.145782078405409
      ],
      [
        "▁cohabite",
        -11.147070794619813
      ],
      [
        "▁ŋgee",
        -11.147094318131119
      ],
      [
        "eaucoup",
        -11.147241006801567
      ],
      [
        "▁étudi",
        -11.147474499716061
      ],
      [
        "usqu'ici",
        -11.147678412023945
      ],
      [
        "neetar",
        -11.14779987615753
      ],
      [
        "ãŋ",
        -11.147961933403433
      ],
      [
        "rançais",
        -11.14812898370962
      ],
      [
        "▁au-dess",
        -11.148230998072178
      ],
      [
        "▁mê",
        -11.148332703614411
      ],
      [
        "irgo",
        -11.14840598205085
      ],
      [
        "stitué",
        -11.148430856942449
      ],
      [
        "▁kéw",
        -11.148441216984343
      ],
      [
        "olof",
        -11.148609243149751
      ],
      [
        "]",
        -11.148610489366598
      ],
      [
        "[",
        -11.148610489366598
      ],
      [
        "í",
        -11.148610489366598
      ],
      [
        "ï",
        -11.148610489366598
      ],
      [
        "ń",
        -11.148610489366598
      ],
      [
        "Ë",
        -11.148610489366598
      ],
      [
        "▁thé",
        -11.148640168319123
      ],
      [
        "▁constru",
        -11.148733149672903
      ],
      [
        "àngal",
        -11.149266411081786
      ],
      [
        "impl",
        -11.149996754814847
      ],
      [
        "ercle",
        -11.1502854884472
      ],
      [
        "tëli",
        -11.150616906054577
      ],
      [
        "▁descend",
        -11.151040794703004
      ],
      [
        "ajal",
        -11.151248256980379
      ],
      [
        "▁revien",
        -11.152279567812961
      ],
      [
        "uche.",
        -11.152849796107335
      ],
      [
        "alité",
        -11.153437619363178
      ],
      [
        "illir",
        -11.153871475069732
      ],
      [
        "▁Musa",
        -11.154076201140992
      ],
      [
        "▁coute",
        -11.15470615017628
      ],
      [
        "ouvert",
        -11.154935022278782
      ],
      [
        "quées",
        -11.155564545736697
      ],
      [
        "vid",
        -11.155825430124679
      ],
      [
        "googee",
        -11.156094876996718
      ],
      [
        "ller",
        -11.157142869527679
      ],
      [
        "t-c",
        -11.157748209780346
      ],
      [
        "▁tiss",
        -11.157869609511607
      ],
      [
        "vec",
        -11.158425132873049
      ],
      [
        "diku",
        -11.158931258116667
      ],
      [
        "▁Pou",
        -11.159118484614774
      ],
      [
        "▁l'h",
        -11.161178443657313
      ],
      [
        "géey",
        -11.161751088841498
      ],
      [
        "veil",
        -11.162976413718383
      ],
      [
        "tive",
        -11.163448171691476
      ],
      [
        "itude",
        -11.163601085139199
      ],
      [
        "▁bã",
        -11.163965180078772
      ],
      [
        "bë",
        -11.163985483705526
      ],
      [
        "▁yegg",
        -11.164042222685563
      ],
      [
        "▁util",
        -11.165475274445877
      ],
      [
        "▁së",
        -11.165662951184478
      ],
      [
        "pier",
        -11.166279030316986
      ],
      [
        "saŋ",
        -11.167590029004945
      ],
      [
        "▁n'av",
        -11.168653346410405
      ],
      [
        "▁Tug",
        -11.169283228060324
      ],
      [
        "ëggu",
        -11.17152119292505
      ],
      [
        "lè",
        -11.173039375950982
      ],
      [
        "▁env",
        -11.173426531640592
      ],
      [
        "lool",
        -11.173469403977663
      ],
      [
        "tbal",
        -11.175388161498619
      ],
      [
        "venue",
        -11.175884215679291
      ],
      [
        "bind",
        -11.17645688523687
      ],
      [
        "ànj",
        -11.17704779864694
      ],
      [
        "eeku",
        -11.177294427539646
      ],
      [
        "▁ginnaaw",
        -11.177331612638614
      ],
      [
        "▁fanee",
        -11.177468406248511
      ],
      [
        "ut",
        -11.179807829025501
      ],
      [
        "▁dikk",
        -11.18006133257067
      ],
      [
        "▁just",
        -11.182457328739158
      ],
      [
        "oto",
        -11.182891802823436
      ],
      [
        "lave",
        -11.183039730921994
      ],
      [
        "ow",
        -11.184685677547012
      ],
      [
        "gii",
        -11.186246126896808
      ],
      [
        "▁Se",
        -11.187425518671422
      ],
      [
        "appé",
        -11.187954770713482
      ],
      [
        "▁laq",
        -11.188065953828886
      ],
      [
        "nglais",
        -11.188214257035256
      ],
      [
        "▁Sig",
        -11.188584597540743
      ],
      [
        "▁Né",
        -11.18889844056843
      ],
      [
        "Ma",
        -11.189999862091401
      ],
      [
        "ci.",
        -11.190866858621272
      ],
      [
        "entré",
        -11.192238167764462
      ],
      [
        "▁dellu",
        -11.192291419732278
      ],
      [
        "mmo",
        -11.195918960826768
      ],
      [
        "▁éc",
        -11.197037609587912
      ],
      [
        "nc",
        -11.197580791676348
      ],
      [
        "cu",
        -11.197615513366284
      ],
      [
        "ôn",
        -11.197629453664087
      ],
      [
        "▁jàmma",
        -11.198751094194968
      ],
      [
        "import",
        -11.198798956617022
      ],
      [
        "n.",
        -11.199973255015312
      ],
      [
        "yam",
        -11.203016195946315
      ],
      [
        "▁Pe",
        -11.203306065369564
      ],
      [
        "▁revi",
        -11.204144742204901
      ],
      [
        "▁descen",
        -11.205892812531626
      ],
      [
        "âg",
        -11.20653994751513
      ],
      [
        "▁wer",
        -11.206891476750691
      ],
      [
        "àgg",
        -11.206942125517877
      ],
      [
        "▁dell",
        -11.207769620405669
      ],
      [
        "▁reg",
        -11.212725004385906
      ],
      [
        "▁jëf",
        -11.213010333910043
      ],
      [
        "voy",
        -11.213362597595818
      ],
      [
        "aasamaas",
        -11.213618720574784
      ],
      [
        "▁go",
        -11.215507486119947
      ],
      [
        "ous-même",
        -11.215556121918665
      ],
      [
        "▁serr",
        -11.21932835933246
      ],
      [
        "▁main",
        -11.22035006019172
      ],
      [
        "▁J'a",
        -11.22056433966813
      ],
      [
        "ivres",
        -11.222389322260447
      ],
      [
        "▁éga",
        -11.222656626916068
      ],
      [
        "▁xel",
        -11.223384877957262
      ],
      [
        "▁aim",
        -11.224514433548219
      ],
      [
        "aakaar",
        -11.227783112038669
      ],
      [
        "art",
        -11.22974556390026
      ],
      [
        "éri",
        -11.231186999650056
      ],
      [
        "▁\"j",
        -11.231220316337156
      ],
      [
        "▁travaillai",
        -11.233530779555771
      ],
      [
        "dée",
        -11.235154141181166
      ],
      [
        "cot",
        -11.236030171187897
      ],
      [
        "anse",
        -11.238073425178783
      ],
      [
        "s-ci",
        -11.239391251047383
      ],
      [
        "ew",
        -11.24086452880079
      ],
      [
        "▁tek",
        -11.241567691820816
      ],
      [
        "▁ver",
        -11.241938116233456
      ],
      [
        "wuñ",
        -11.242772740044924
      ],
      [
        "▁Atte",
        -11.243105867795629
      ],
      [
        "amp",
        -11.24645827223249
      ],
      [
        "L",
        -11.246536527430829
      ],
      [
        "▁s'asso",
        -11.246619779817292
      ],
      [
        "nversé",
        -11.248736519779264
      ],
      [
        "ipi",
        -11.251634199449853
      ],
      [
        "▁fais",
        -11.251743813951194
      ],
      [
        "aari",
        -11.252200401298692
      ],
      [
        "tudi",
        -11.255308485569735
      ],
      [
        "con",
        -11.255853035598209
      ],
      [
        "▁mets",
        -11.256481257117864
      ],
      [
        "roit",
        -11.257082758857772
      ],
      [
        "oogu",
        -11.261047969397348
      ],
      [
        "▁bah",
        -11.264508403360875
      ],
      [
        "drai",
        -11.266787266688665
      ],
      [
        "▁bët",
        -11.267333406275974
      ],
      [
        "▁d'ar",
        -11.271847643711453
      ],
      [
        "▁rid",
        -11.273773981272326
      ],
      [
        "ger",
        -11.276380934857361
      ],
      [
        "ables",
        -11.281126892838007
      ],
      [
        "▁rë",
        -11.282455712269433
      ],
      [
        "ément",
        -11.284097803027219
      ],
      [
        "garde",
        -11.288891888452266
      ],
      [
        "▁Gan",
        -11.289619545221132
      ],
      [
        "nge",
        -11.289797040371262
      ],
      [
        "nal",
        -11.290228785897835
      ],
      [
        "ompa",
        -11.29043961373945
      ],
      [
        "▁Ga",
        -11.290624471065353
      ],
      [
        "kum",
        -11.292125063534126
      ],
      [
        "rru",
        -11.295144378959748
      ],
      [
        "âc",
        -11.295586794057717
      ],
      [
        "asam",
        -11.296739920026898
      ],
      [
        "mon",
        -11.297772017942771
      ],
      [
        "▁lama",
        -11.303250476223557
      ],
      [
        "pè",
        -11.303307553914415
      ],
      [
        "▁après",
        -11.303326318332566
      ],
      [
        "▁ét",
        -11.305246677298186
      ],
      [
        "oŋ",
        -11.30706330589132
      ],
      [
        "egguma",
        -11.307096979770142
      ],
      [
        "▁janoo",
        -11.307154554720674
      ],
      [
        "ërë",
        -11.310174679603628
      ],
      [
        "▁const",
        -11.31178883997352
      ],
      [
        "alé",
        -11.3132870892451
      ],
      [
        "▁Ju",
        -11.315374016788795
      ],
      [
        "▁pe",
        -11.316492548601865
      ],
      [
        "rom",
        -11.31772691549949
      ],
      [
        "▁Sal",
        -11.318925954984067
      ],
      [
        "▁eu",
        -11.322520118350566
      ],
      [
        "▁ame",
        -11.325205309352352
      ],
      [
        "ciment",
        -11.329323029112984
      ],
      [
        "róo",
        -11.332889742087541
      ],
      [
        "ata",
        -11.333886462628826
      ],
      [
        "ook",
        -11.338582294900931
      ],
      [
        "uk",
        -11.339953771448506
      ],
      [
        "a.",
        -11.340030191628482
      ],
      [
        "▁Tan",
        -11.341333414138647
      ],
      [
        "▁Wut",
        -11.344224864562033
      ],
      [
        "he.",
        -11.345510710325781
      ],
      [
        "▁kat",
        -11.345769020880542
      ],
      [
        "lage",
        -11.346902464802946
      ],
      [
        "ouver",
        -11.347700923925563
      ],
      [
        "gay",
        -11.35075330084684
      ],
      [
        "aaj",
        -11.353207083621951
      ],
      [
        "omp",
        -11.355520292872017
      ],
      [
        "'ici",
        -11.358734019125302
      ],
      [
        "▁Àn",
        -11.360420768856393
      ],
      [
        "▁Ja",
        -11.362679535780948
      ],
      [
        "▁see",
        -11.363722332116662
      ],
      [
        "ontent",
        -11.366138712747594
      ],
      [
        "doo",
        -11.3685598954943
      ],
      [
        "ence",
        -11.36993744123071
      ],
      [
        "ogu",
        -11.374121187618309
      ],
      [
        "▁vie",
        -11.374801812137004
      ],
      [
        "▁Sér",
        -11.380364246355928
      ],
      [
        "▁pouv",
        -11.380552377371783
      ],
      [
        "antan",
        -11.380881379910061
      ],
      [
        "jj",
        -11.38313237642277
      ],
      [
        "alli",
        -11.3840854438485
      ],
      [
        "▁ins",
        -11.385490359051094
      ],
      [
        "don",
        -11.391271473726666
      ],
      [
        "appelle",
        -11.392904292603824
      ],
      [
        "▁Sé",
        -11.393550085724653
      ],
      [
        "gg",
        -11.393875853752158
      ],
      [
        "▁kà",
        -11.394500643000779
      ],
      [
        "ends-",
        -11.394655425053806
      ],
      [
        "aare",
        -11.396213007255422
      ],
      [
        "x-",
        -11.397923772169207
      ],
      [
        "spér",
        -11.398161248346147
      ],
      [
        "▁të",
        -11.401145037582602
      ],
      [
        "ffe",
        -11.403829225309796
      ],
      [
        "ept",
        -11.405633745443296
      ],
      [
        "ture",
        -11.408433753559938
      ],
      [
        "▁Mà",
        -11.410696102127298
      ],
      [
        "aaleekum",
        -11.41152594088425
      ],
      [
        "laam",
        -11.411864078331629
      ],
      [
        "loo",
        -11.413117898602456
      ],
      [
        "mine",
        -11.416508778520264
      ],
      [
        "éeru",
        -11.419052574052909
      ],
      [
        "men",
        -11.419303574092215
      ],
      [
        "qué",
        -11.419441960640762
      ],
      [
        "rère",
        -11.425810960226759
      ],
      [
        "▁l'ar",
        -11.427396190440305
      ],
      [
        "itu",
        -11.427699378761279
      ],
      [
        "sont",
        -11.428717000488103
      ],
      [
        "ëgg",
        -11.429527261318489
      ],
      [
        "tés",
        -11.433658023840614
      ],
      [
        "uiss",
        -11.43455268632604
      ],
      [
        "▁disp",
        -11.436057987604025
      ],
      [
        "ang",
        -11.437053711106799
      ],
      [
        "enu",
        -11.440702435514828
      ],
      [
        "esca",
        -11.441173146448499
      ],
      [
        "në",
        -11.442236876155095
      ],
      [
        "▁ava",
        -11.44675187432652
      ],
      [
        "énk",
        -11.44845389987403
      ],
      [
        "lum",
        -11.45203539805477
      ],
      [
        "▁d'an",
        -11.452249873184519
      ],
      [
        "ayer",
        -11.456816126962654
      ],
      [
        "jet",
        -11.457463276827063
      ],
      [
        "essi",
        -11.46211009467203
      ],
      [
        "▁wà",
        -11.463044063580213
      ],
      [
        "▁I",
        -11.466582278170204
      ],
      [
        "▁Gé",
        -11.471708986450928
      ],
      [
        "guma",
        -11.474031103649143
      ],
      [
        "t-ce",
        -11.475069036117448
      ],
      [
        "▁ense",
        -11.475896243979939
      ],
      [
        "▁bule",
        -11.479465400040189
      ],
      [
        "▁gana",
        -11.483973394400131
      ],
      [
        "▁Gu",
        -11.487982045091236
      ],
      [
        "sin",
        -11.492067866844707
      ],
      [
        "▁nap",
        -11.495773386984267
      ],
      [
        "ailli",
        -11.498068994932298
      ],
      [
        "Tu",
        -11.501386014660824
      ],
      [
        "aurai",
        -11.502525812412244
      ],
      [
        "Je",
        -11.503239617671596
      ],
      [
        "èt",
        -11.50325470988669
      ],
      [
        "▁moy",
        -11.504069085659133
      ],
      [
        "diqu",
        -11.514176256857066
      ],
      [
        "▁Ñi",
        -11.528467107135258
      ],
      [
        "▁wé",
        -11.5299885160521
      ],
      [
        "verse",
        -11.530253716381925
      ],
      [
        "▁ŋgii.",
        -11.53047016622749
      ],
      [
        "▁Ñun",
        -11.531318675984167
      ],
      [
        "▁noon",
        -11.533493173580958
      ],
      [
        "lement",
        -11.534219384977758
      ],
      [
        "osit",
        -11.536866628455382
      ],
      [
        "oy",
        -11.541758822307768
      ],
      [
        "eint",
        -11.552196850704057
      ],
      [
        "J'ai",
        -11.55429298365394
      ],
      [
        "▁yeneen.",
        -11.557090173915624
      ],
      [
        "gir",
        -11.558155001480795
      ],
      [
        "▁ob",
        -11.558716426385457
      ],
      [
        "▁wana",
        -11.558827083132462
      ],
      [
        "mant",
        -11.561645781413866
      ],
      [
        "▁envo",
        -11.56363148927372
      ],
      [
        "l'homme",
        -11.565055853037226
      ],
      [
        "be",
        -11.565468032045693
      ],
      [
        "▁yab",
        -11.568992215041362
      ],
      [
        "▁atte",
        -11.57078809484765
      ],
      [
        "ense",
        -11.571138745692343
      ],
      [
        "ekku",
        -11.579421005317009
      ],
      [
        "ures",
        -11.581975991141999
      ],
      [
        "ole",
        -11.587972237504662
      ],
      [
        "rai",
        -11.58872289454737
      ],
      [
        "▁jë",
        -11.594741714778866
      ],
      [
        "baa",
        -11.597727625487899
      ],
      [
        "guñ",
        -11.597738589363255
      ],
      [
        "achet",
        -11.600259842465006
      ],
      [
        "aaw",
        -11.604059506291986
      ],
      [
        "'aime",
        -11.60526285056391
      ],
      [
        "àlla",
        -11.606841375559105
      ],
      [
        "ns",
        -11.607282985146528
      ],
      [
        "▁pre",
        -11.608722103244611
      ],
      [
        "urent",
        -11.610245161762505
      ],
      [
        "omm",
        -11.612940962998616
      ],
      [
        "▁Nan",
        -11.616384586509888
      ],
      [
        "gue",
        -11.618876470776256
      ],
      [
        "anqu",
        -11.619110526333507
      ],
      [
        "▁beu",
        -11.626226112564774
      ],
      [
        "▁l'e",
        -11.629060750419374
      ],
      [
        "▁Mus",
        -11.636735576983563
      ],
      [
        "oppi",
        -11.641025115338516
      ],
      [
        "▁noo",
        -11.641094018117537
      ],
      [
        "se-",
        -11.6423619194235
      ],
      [
        "aañ",
        -11.650463927251959
      ],
      [
        "▁accompagne",
        -11.6508679300044
      ],
      [
        "rou",
        -11.651294391474625
      ],
      [
        "lée",
        -11.658020343194828
      ],
      [
        "ppartien",
        -11.66220189256626
      ],
      [
        "rme",
        -11.666153359667547
      ],
      [
        "▁saa",
        -11.668649942080304
      ],
      [
        "elles-",
        -11.674681746336741
      ],
      [
        "gnes",
        -11.68932661142604
      ],
      [
        "oc",
        -11.690705294539413
      ],
      [
        "ppu",
        -11.696373809103417
      ],
      [
        "'apprécie",
        -11.703444383878802
      ],
      [
        "op",
        -11.704592052731488
      ],
      [
        "lante",
        -11.708028636796186
      ],
      [
        "parti",
        -11.709370676572922
      ],
      [
        "aamu",
        -11.710513474907989
      ],
      [
        "ivent",
        -11.716718276906793
      ],
      [
        "arit",
        -11.726477906785673
      ],
      [
        "▁né",
        -11.731709589091952
      ],
      [
        "▁Ji",
        -11.732647978537665
      ],
      [
        "▁xo",
        -11.735015643734997
      ],
      [
        "'argent",
        -11.741910628817582
      ],
      [
        "'intérieur",
        -11.74644725456116
      ],
      [
        "▁gé",
        -11.74881543140248
      ],
      [
        "auc",
        -11.749017116815269
      ],
      [
        "ànk",
        -11.757562091651252
      ],
      [
        "maan",
        -11.759933038843325
      ],
      [
        "▁wë",
        -11.760502836651277
      ],
      [
        "▁dir",
        -11.76141872784381
      ],
      [
        "ines",
        -11.764338814122823
      ],
      [
        "iture",
        -11.769179036879724
      ],
      [
        "▁bara",
        -11.775534588026265
      ],
      [
        "uwu",
        -11.79413150969001
      ],
      [
        "eu",
        -11.815060378892927
      ],
      [
        "photo",
        -11.815697659053573
      ],
      [
        "mple",
        -11.81864436607892
      ],
      [
        "▁end",
        -11.822711382123696
      ],
      [
        "innaaw",
        -11.825152409948686
      ],
      [
        "kka",
        -11.82938124920458
      ],
      [
        "serve",
        -11.835568272273875
      ],
      [
        "▁mbi",
        -11.835651597842233
      ],
      [
        "tab",
        -11.841827893249015
      ],
      [
        "▁Ke",
        -11.844786748000493
      ],
      [
        "wu",
        -11.845353743581544
      ],
      [
        "yé",
        -11.850276975074188
      ],
      [
        "▁s'a",
        -11.850689852457096
      ],
      [
        "▁vien",
        -11.854795242866984
      ],
      [
        "agit",
        -11.86221042265894
      ],
      [
        "kaa",
        -11.86325423237246
      ],
      [
        "amin",
        -11.867097717534222
      ],
      [
        "▁Wi",
        -11.875505603029046
      ],
      [
        "ëlu",
        -11.876480947653059
      ],
      [
        "▁compo",
        -11.879212137923602
      ],
      [
        "même",
        -11.889204559250556
      ],
      [
        "sse",
        -11.891313606477071
      ],
      [
        "rie",
        -11.891574374904188
      ],
      [
        "▁sont-",
        -11.895605624448848
      ],
      [
        "▁ber",
        -11.896480807176495
      ],
      [
        "eul",
        -11.90251211545989
      ],
      [
        "teur",
        -11.909703109626006
      ],
      [
        "les-",
        -11.927986431715691
      ],
      [
        "oi-même",
        -11.942879337129511
      ],
      [
        "kon",
        -11.947071839660309
      ],
      [
        "▁Wo",
        -11.951847747053305
      ],
      [
        "olul",
        -11.956155167197952
      ],
      [
        "▁baa",
        -11.95648988979995
      ],
      [
        "ndi",
        -11.956772461600554
      ],
      [
        "▁qu'i",
        -11.961444467171209
      ],
      [
        "appe",
        -11.964566393749934
      ],
      [
        "uleen",
        -11.973821408479965
      ],
      [
        "▁sou",
        -11.977541400106793
      ],
      [
        "▁muu",
        -11.980712285132665
      ],
      [
        "ux-ci",
        -11.984084434058454
      ],
      [
        "yóo",
        -11.984473090949987
      ],
      [
        "va",
        -11.986390329426332
      ],
      [
        "▁jul",
        -11.991599328810262
      ],
      [
        "rée",
        -11.993446570149978
      ],
      [
        "fie",
        -11.994076572918926
      ],
      [
        "ubé",
        -12.003065953955506
      ],
      [
        "▁taar",
        -12.007680123717087
      ],
      [
        "▁yo",
        -12.007697621979672
      ],
      [
        "és",
        -12.023184803727624
      ],
      [
        "bar",
        -12.030757864728363
      ],
      [
        "lo",
        -12.035945056106396
      ],
      [
        "lli",
        -12.058296283134231
      ],
      [
        "ayma",
        -12.058307925912969
      ],
      [
        "yent",
        -12.065283477572846
      ],
      [
        "erais",
        -12.068764344169189
      ],
      [
        "uisi",
        -12.073889146840507
      ],
      [
        "'argile",
        -12.078051959905032
      ],
      [
        "man",
        -12.085486730434011
      ],
      [
        "rente",
        -12.08898991962753
      ],
      [
        "c'est",
        -12.10044186556198
      ],
      [
        "goo",
        -12.125229608190674
      ],
      [
        "▁ŋgoog",
        -12.144616219918866
      ],
      [
        "uit",
        -12.14572634747356
      ],
      [
        "▁aff",
        -12.145860325198491
      ],
      [
        "ér",
        -12.146185937353863
      ],
      [
        "éen",
        -12.153197056311829
      ],
      [
        "bii",
        -12.153998931384244
      ],
      [
        "ilis",
        -12.15892209147728
      ],
      [
        "▁ad",
        -12.159522586003847
      ],
      [
        "sa",
        -12.169848878700236
      ],
      [
        "avec",
        -12.186911552641114
      ],
      [
        "sant",
        -12.195166715136951
      ],
      [
        "▁Ec",
        -12.204149522348708
      ],
      [
        "cer",
        -12.206596668412296
      ],
      [
        "paci",
        -12.206603440451898
      ],
      [
        "i-même",
        -12.222564517380581
      ],
      [
        "▁cher",
        -12.253142766278236
      ],
      [
        "elqu'un",
        -12.26597082245861
      ],
      [
        "os",
        -12.269188504704521
      ],
      [
        "dal",
        -12.277062010723819
      ],
      [
        "▁mil",
        -12.284355930970026
      ],
      [
        "▁dig",
        -12.288264345411974
      ],
      [
        "tions",
        -12.293582703308523
      ],
      [
        "uus",
        -12.306729066497315
      ],
      [
        "nqu",
        -12.325348129767708
      ],
      [
        "▁val",
        -12.328013541277658
      ],
      [
        "M",
        -12.330840952478649
      ],
      [
        "Nit",
        -12.331747373814707
      ],
      [
        "elles",
        -12.339097190874673
      ],
      [
        "▁As",
        -12.343683181761982
      ],
      [
        "aît",
        -12.354979448966926
      ],
      [
        "oit",
        -12.355471758328187
      ],
      [
        "▁chai",
        -12.367083577538487
      ],
      [
        "▁rem",
        -12.371882264400691
      ],
      [
        "uka",
        -12.375134734639909
      ],
      [
        "▁mani",
        -12.394326678490584
      ],
      [
        "venu",
        -12.400164755734643
      ],
      [
        "▁Dema",
        -12.404171812841135
      ],
      [
        "per",
        -12.406637053391503
      ],
      [
        "ss",
        -12.409808445883536
      ],
      [
        "▁dà",
        -12.43061042395377
      ],
      [
        "itam",
        -12.436929806377174
      ],
      [
        "▁Dee",
        -12.448623977889966
      ],
      [
        "▁che",
        -12.458382777424092
      ],
      [
        "lui-ci",
        -12.460429378837976
      ],
      [
        "bien",
        -12.462006955112754
      ],
      [
        "ffer",
        -12.464158581701504
      ],
      [
        "daw",
        -12.479465542791324
      ],
      [
        "nekk",
        -12.481869219837622
      ],
      [
        "▁lam",
        -12.512288212628432
      ],
      [
        "▁cad",
        -12.514170386222546
      ],
      [
        "amul",
        -12.521618845697416
      ],
      [
        "▁tus",
        -12.529642519104453
      ],
      [
        "î",
        -12.530890894194298
      ],
      [
        "V",
        -12.530990894194298
      ],
      [
        "ç",
        -12.531090894194298
      ],
      [
        "Ñ",
        -12.531190894194298
      ],
      [
        "á",
        -12.531290894194298
      ],
      [
        "Ŋ",
        -12.531390894194297
      ],
      [
        "õ",
        -12.531490894194297
      ],
      [
        "P",
        -12.531590894194299
      ],
      [
        "U",
        -12.531690894194298
      ],
      [
        "ê",
        -12.531790894194298
      ],
      [
        "D",
        -12.531890894194298
      ],
      [
        "B",
        -12.531990894194298
      ],
      [
        "K",
        -12.532090894194297
      ],
      [
        "X",
        -12.532190894194297
      ],
      [
        "N",
        -12.532290894194297
      ],
      [
        "Q",
        -12.532390894194299
      ],
      [
        "R",
        -12.532490894194298
      ],
      [
        "T",
        -12.532590894194298
      ],
      [
        "ó",
        -12.532690894194298
      ],
      [
        "Y",
        -12.532790894194298
      ],
      [
        "su",
        -12.532871429170463
      ],
      [
        "H",
        -12.532890894194297
      ],
      [
        "'",
        -12.532990894194297
      ],
      [
        ">",
        -12.533090894194297
      ],
      [
        "<",
        -12.533190894194298
      ],
      [
        "W",
        -12.533290894194298
      ],
      [
        "û",
        -12.533390894194298
      ],
      [
        "F",
        -12.533490894194298
      ],
      [
        "oui",
        -12.533490894194298
      ]
    ]
  }
}