<pad>	0
</s>	0
<unk>	0
<s>	0
.	-2.75132
,	-3.41152
'	-3.53118
▁la	-4.16599
s	-4.19064
▁de	-4.29516
e	-4.45871
-	-4.5558
▁	-4.63166
y	-4.63207
▁!	-4.65635
▁a	-4.78903
▁l	-4.88242
▁le	-4.89879
▁ci	-4.93203
▁ko	-4.98991
▁un	-5.02776
est	-5.04267
▁?	-5.06809
▁à	-5.12194
▁bi	-5.17397
▁ne	-5.18158
▁Il	-5.18429
▁pas	-5.19288
u	-5.27933
a	-5.29042
▁est	-5.30233
▁les	-5.31161
▁que	-5.33354
▁ma	-5.34871
i	-5.35031
▁C	-5.40595
▁na	-5.42025
▁qui	-5.43567
▁du	-5.44259
▁d	-5.44456
▁des	-5.51885
al	-5.53758
▁mu	-5.54308
▁qu	-5.60016
▁ba	-5.60516
▁n	-5.63196
▁tu	-5.69723
▁yi	-5.70444
▁et	-5.70962
r	-5.74512
▁en	-5.76395
▁il	-5.76804
▁nga	-5.84896
il	-5.88584
t	-5.88737
▁s	-5.90727
▁te	-5.9134
▁c	-5.93018
▁pour	-5.93219
▁gi	-5.93807
▁di	-5.95119
▁sa	-5.97595
▁dafa	-5.97743
▁ngi	-5.98715
▁dans	-5.9961
▁bu	-6.01159
▁Je	-6.01207
▁se	-6.06938
▁ak	-6.0727
▁je	-6.12171
é	-6.12236
▁ñu	-6.19334
ai	-6.19406
▁ni	-6.20575
▁ce	-6.20763
n	-6.20942
▁Le	-6.21292
▁Dafa	-6.26665
▁au	-6.27998
▁lui	-6.31327
▁ca	-6.32826
▁am	-6.33151
▁dem	-6.34431
▁y	-6.35333
▁mi	-6.40004
▁t	-6.40049
▁J	-6.42135
▁naa	-6.42962
er	-6.45603
am	-6.47993
;	-6.48219
▁sur	-6.48891
▁yu	-6.48931
le	-6.5001
▁ay	-6.51501
▁sont	-6.54235
▁L	-6.54259
d	-6.55931
en	-6.56022
▁Tu	-6.56336
▁La	-6.56811
l	-6.57551
▁lu	-6.58272
▁sama	-6.58342
▁j	-6.60209
▁par	-6.60983
▁avec	-6.62802
▁m	-6.62914
on	-6.63524
▁fait	-6.63532
tu	-6.67098
▁plus	-6.70741
▁fa	-6.71442
▁wax	-6.75342
es	-6.76122
▁doon	-6.76651
une	-6.76691
un	-6.77184
▁me	-6.7938
▁si	-6.80509
▁moo	-6.81509
▁son	-6.82931
▁seen	-6.8294
▁Sa	-6.85368
▁on	-6.86242
▁li	-6.86457
▁woon	-6.87029
▁Les	-6.89165
▁nous	-6.9224
▁Omar	-6.92291
▁def	-6.9342
▁laa	-6.95123
ee	-6.95847
ette	-6.96711
▁ji	-6.98169
▁leen	-6.99345
▁rekk	-7.00316
ent	-7.0042
▁ku	-7.00484
ul	-7.00641
▁Mu	-7.01553
▁A	-7.02562
▁Bu	-7.03241
▁wi	-7.03324
ant	-7.0335
▁mon	-7.03415
▁:	-7.03742
▁as	-7.06363
▁daan	-7.06592
nt	-7.07154
▁xam	-7.07156
oon	-7.09282
▁Si	-7.09513
▁tout	-7.09964
it	-7.1079
▁fi	-7.11122
ñ	-7.12036
▁O	-7.13311
ait	-7.14405
▁nekk	-7.15506
as	-7.15554
▁Ku	-7.20001
te	-7.20162
▁gis	-7.20313
oo	-7.20828
ce	-7.21826
homme	-7.25052
re	-7.25284
▁may	-7.25946
▁Dama	-7.26179
▁Ce	-7.27666
▁Am	-7.27961
là	-7.2805
▁nag	-7.2819
▁où	-7.28469
ment	-7.28939
g	-7.29749
▁leur	-7.2976
▁moom	-7.30227
▁va	-7.30824
▁S	-7.31617
▁Ci	-7.31625
▁nit	-7.31746
▁ju	-7.32758
b	-7.32862
▁vu	-7.33036
à	-7.33446
▁Lu	-7.34032
▁Ne	-7.34772
▁enfants	-7.35051
and	-7.35069
▁comme	-7.35222
▁toi	-7.35248
▁gu	-7.36034
▁ya	-7.36251
▁Un	-7.3652
▁dit	-7.37379
▁D	-7.37501
▁ndax	-7.37761
ont	-7.38039
eau	-7.38495
▁faire	-7.39053
▁su	-7.40617
▁ton	-7.40881
x	-7.41114
▁nañu	-7.41698
▁ga	-7.41976
▁Quan	-7.42501
▁kenn	-7.42794
▁benn	-7.42841
▁Qu	-7.43711
▁N	-7.44285
k	-7.4449
▁kër	-7.44861
▁bii	-7.46725
▁sax	-7.47116
▁nu	-7.47492
▁Dem	-7.48318
▁ta	-7.492
▁père	-7.49686
▁mel	-7.49968
▁Sama	-7.50953
▁avait	-7.51099
▁mais	-7.51129
▁Ba	-7.51558
▁i	-7.51612
▁vous	-7.52541
▁dina	-7.52906
▁Su	-7.53442
▁maison	-7.53718
▁été	-7.53819
▁dañu	-7.55195
▁lañu	-7.56238
▁bien	-7.5676
moi	-7.57047
▁waay	-7.57116
▁biir	-7.57638
▁Yàlla	-7.5767
▁là	-7.58439
lu	-7.58959
▁tax	-7.5937
▁lay	-7.59629
▁moi	-7.60884
▁Góor	-7.61149
▁ici	-7.61455
▁ñaar	-7.61806
▁jusqu	-7.627
▁ŋga	-7.6274
▁dara	-7.62799
▁homme	-7.62822
▁xale	-7.63032
▁ab	-7.63128
▁f	-7.63165
▁san	-7.6355
ma	-7.63825
▁mën	-7.64148
▁suis	-7.64344
elle	-7.64899
▁dëkk	-7.64905
▁bare	-7.64947
m	-7.65496
▁Baay	-7.65948
▁cela	-7.66007
▁celui	-7.66038
▁chose	-7.66069
▁même	-7.66282
▁deux	-7.66969
▁fu	-7.67285
▁Nous	-7.67576
▁peut	-7.67734
uma	-7.68183
aient	-7.6819
▁p	-7.68823
▁Dieu	-7.69203
▁ñi	-7.70708
«	-7.70896
um	-7.71028
▁ça	-7.72621
▁elle	-7.74051
▁yépp	-7.74466
▁dal	-7.74484
▁pays	-7.74484
▁bëgg	-7.74605
▁être	-7.75222
▁P	-7.75297
▁aux	-7.7532
▁était	-7.75556
▁Ma	-7.75708
▁gën	-7.75806
▁yaa	-7.76041
▁man	-7.76455
▁fais	-7.76522
tre	-7.76876
▁Elle	-7.77988
▁baax	-7.78118
▁ou	-7.78281
était	-7.78731
▁enfant	-7.79016
▁autre	-7.79119
▁Soo	-7.7996
▁»	-7.8079
▁góor	-7.81893
▁grand	-7.82161
▁xar	-7.82509
▁Dañu	-7.83692
▁yoon	-7.84149
▁boo	-7.84505
▁porte	-7.8463
ci	-7.85121
▁parti	-7.86166
▁Maa	-7.86373
o	-7.87083
is	-7.87115
▁cet	-7.87334
di	-7.87423
▁bon	-7.87853
ur	-7.8809
▁teg	-7.89412
▁Afrig	-7.89461
▁tous	-7.89656
▁personne	-7.90256
▁Ni	-7.91067
▁Gis	-7.91128
▁wu	-7.91547
▁ñëw	-7.91725
▁mère	-7.92091
▁naan	-7.92172
▁Qui	-7.92433
▁beaucoup	-7.93857
▁veux	-7.93882
▁suuf	-7.93982
▁g	-7.94289
w	-7.95128
▁mag	-7.95191
in	-7.96017
▁encore	-7.96027
▁Li	-7.96224
enn	-7.96356
f	-7.96813
hui	-7.96884
▁réew	-7.97924
▁Danga	-7.98255
▁rien	-7.98263
▁photo	-7.98972
j	-7.99065
▁G	-7.99517
▁sol	-7.9958
ujour	-7.99871
▁es	-7.99943
▁r	-8.00375
▁parle	-8.00699
▁B	-8.00727
▁koo	-8.01672
▁peu	-8.02233
▁mes	-8.02528
▁maa	-8.02629
▁À	-8.02843
▁monde	-8.02907
▁Celui	-8.02922
▁amul	-8.03182
▁tey	-8.03685
▁doom	-8.04144
lui	-8.04571
▁lool	-8.04988
▁jigéen	-8.05244
▁nataal	-8.05268
▁Va	-8.05473
avoir	-8.05752
▁fekk	-8.06008
▁garab	-8.06568
aan	-8.06573
et	-8.06891
eux	-8.06912
▁quelque	-8.07347
▁gens	-8.0767
▁rafet	-8.07671
▁terre	-8.07768
▁Ñu	-8.07904
▁Xale	-8.07983
ra	-8.08399
▁Bul	-8.08462
▁k	-8.08602
▁M	-8.09785
▁–	-8.10168
▁Ndax	-8.10216
ons	-8.10878
at	-8.11675
▁dé	-8.11886
eneen	-8.12326
ions	-8.12463
▁yàgg	-8.1249
▁aussi	-8.12788
▁ag	-8.12882
▁avant	-8.12896
▁Du	-8.13182
▁doi	-8.13609
▁Moo	-8.13769
▁it	-8.13826
▁jour	-8.14085
ée	-8.14141
▁b	-8.14551
▁danga	-8.15368
▁jaay	-8.15506
▁ces	-8.16122
ils	-8.16596
c	-8.16893
▁lañuy	-8.17132
▁néeg	-8.17535
▁Te	-8.17992
▁temps	-8.18248
▁Mon	-8.18264
▁voir	-8.18446
▁ceux	-8.18554
ation	-8.18714
▁sous	-8.18857
an	-8.19135
▁De	-8.19252
▁sais	-8.19398
▁ki	-8.20032
▁ai	-8.20098
▁T	-8.204
▁cause	-8.20565
▁Ça	-8.20844
ŋ	-8.21068
▁re	-8.21314
kat	-8.21373
▁Sur	-8.21555
▁petit	-8.23138
▁lekk	-8.23286
me	-8.23369
▁cheval	-8.23752
▁léegi	-8.23858
▁jaar	-8.23948
▁Wax	-8.24058
▁Ton	-8.24281
▁dont	-8.24853
▁K	-8.25016
és	-8.25103
▁ñoo	-8.25206
▁bëgga	-8.25728
ux	-8.25902
▁sera	-8.26442
▁veut	-8.26694
▁walla	-8.26736
▁eu	-8.26857
▁ngeen	-8.27008
▁fas	-8.27252
▁liggéey	-8.27894
▁ànd	-8.29019
▁ja	-8.29122
▁toog	-8.29124
▁loxo	-8.29603
▁En	-8.29668
▁Nataal	-8.29675
▁riz	-8.29692
▁faut	-8.29695
▁dama	-8.29733
▁sunu	-8.29786
▁nii	-8.29871
▁vie	-8.30013
tte	-8.30061
▁neex	-8.30354
▁Yaa	-8.30518
▁lii	-8.30951
▁pris	-8.31306
▁femme	-8.31376
▁yaay	-8.31377
▁gëna	-8.32053
ir	-8.32557
▁ainsi	-8.32819
▁ndox	-8.32822
▁dëgg	-8.32886
▁tuuti	-8.32923
▁F	-8.32924
▁fois	-8.3314
▁waa	-8.33468
autre	-8.33473
▁Boo	-8.33605
▁loolu	-8.33683
▁mouton	-8.34552
enfant	-8.34913
▁mbaa	-8.35011
▁ka	-8.35017
la	-8.35725
▁vois	-8.36018
▁boobu	-8.36087
▁Pour	-8.36092
leen	-8.36098
rès	-8.36115
▁donné	-8.36122
être	-8.36232
▁bokk	-8.36264
▁Tout	-8.36363
▁quelqu	-8.36472
▁entre	-8.36507
▁Que	-8.38379
▁Xam	-8.38597
▁x	-8.39154
▁Est	-8.39407
▁contre	-8.3943
▁tête	-8.39434
▁ndaw	-8.39435
▁xel	-8.3952
▁seet	-8.39693
▁wara	-8.3991
ante	-8.4003
quo	-8.4008
▁lépp	-8.40089
▁dis	-8.40399
▁vo	-8.40734
▁demee	-8.40821
▁génn	-8.41711
▁dox	-8.41847
▁gii	-8.42095
▁wër	-8.42306
uñu	-8.42364
▁xarit	-8.42743
▁gone	-8.42815
▁trop	-8.4282
▁mieux	-8.43071
▁war	-8.43102
▁Y	-8.44035
eurs	-8.44286
ar	-8.44545
▁voiture	-8.44753
▁part	-8.44756
▁Ab	-8.44884
cc	-8.44944
▁jénd	-8.45168
ez	-8.45442
épp	-8.45443
▁bala	-8.46234
▁longtemps	-8.46392
▁ñépp	-8.46392
▁weex	-8.4643
▁jox	-8.46432
▁bois	-8.46506
▁mal	-8.46578
▁yaram	-8.46635
▁donne	-8.46976
▁Dina	-8.47602
ub	-8.47734
▁Lii	-8.47791
aay	-8.48077
que	-8.48619
eek	-8.49036
bas	-8.49161
wul	-8.49165
avais	-8.49313
se	-8.49867
▁xaalis	-8.4988
▁ñów	-8.49957
▁yooyu	-8.50083
▁yow	-8.50084
▁marché	-8.50112
▁topp	-8.50119
▁Loolu	-8.50124
▁Jox	-8.50148
▁jàpp	-8.50253
▁Ñ	-8.50301
▁tudd	-8.50311
▁dégg	-8.50584
▁coup	-8.50864
▁champ	-8.51114
▁partir	-8.51239
loo	-8.51637
oit	-8.51792
▁dee	-8.52962
▁Def	-8.53476
tal	-8.53555
▁parce	-8.53808
▁maintenant	-8.53926
▁ŋgi	-8.5393
▁jamais	-8.53931
uloo	-8.53947
▁ceeb	-8.53974
▁bonne	-8.53984
▁dugg	-8.53986
▁mil	-8.54
▁Mais	-8.54065
▁Cet	-8.54119
ement	-8.5412
▁Fais	-8.5415
▁yee	-8.54261
▁toute	-8.54317
▁soit	-8.54356
▁at	-8.54414
▁fii	-8.5451
▁après	-8.54583
▁daw	-8.5508
▁Bi	-8.55665
▁W	-8.55723
ku	-8.56035
▁bee	-8.56574
puis	-8.56785
ay	-8.5747
▁Ay	-8.57789
óor	-8.57829
▁soo	-8.57879
intérieur	-8.57926
▁trois	-8.57952
▁réer	-8.58004
▁Seen	-8.58079
▁peux	-8.58117
▁passé	-8.58257
si	-8.58562
▁say	-8.59269
aat	-8.59428
▁no	-8.59615
▁gaa	-8.59769
▁mis	-8.59996
ais	-8.60473
▁Na	-8.60529
ug	-8.60896
▁Ta	-8.60949
q	-8.61047
▁fan	-8.61224
▁baa	-8.61282
▁Loo	-8.61447
▁X	-8.61499
na	-8.61526
▁jot	-8.61547
▁partie	-8.62043
▁bàyyi	-8.62093
▁Waaye	-8.62102
▁bés	-8.62152
om	-8.62405
▁venu	-8.62565
▁aller	-8.6263
▁bopp	-8.62961
▁faj	-8.63169
aire	-8.63185
▁arrivé	-8.63568
aar	-8.64488
▁tànk	-8.65642
▁Xar	-8.65714
▁fin	-8.66344
▁seul	-8.66448
▁Vous	-8.66454
de	-8.66455
▁Cela	-8.66553
▁doole	-8.66595
▁Attends	-8.66607
▁guerre	-8.66746
▁Dans	-8.66866
▁saa	-8.6692
age	-8.67008
▁car	-8.67073
▁Xaar	-8.67107
▁ñuul	-8.6749
▁bañ	-8.67587
mettre	-8.67732
▁àll	-8.67889
▁allé	-8.6811
argent	-8.69831
▁w	-8.7027
té	-8.70427
▁ami	-8.70812
▁vers	-8.70836
ù	-8.70944
▁ëpp	-8.70945
▁Et	-8.70986
▁soleil	-8.70993
▁moment	-8.71009
▁tamit	-8.71022
▁àddina	-8.7103
▁ñoom	-8.71139
▁devant	-8.71243
ukaay	-8.71283
▁milieu	-8.71583
avons	-8.71879
aka	-8.72026
▁vas	-8.72175
▁étai	-8.72507
▁point	-8.72599
ri	-8.72894
▁moutons	-8.73111
▁Di	-8.73295
▁jours	-8.73599
▁Man	-8.73631
▁pa	-8.73689
▁dikk	-8.73993
▁lait	-8.74013
▁non	-8.74163
▁village	-8.74243
ati	-8.74822
ale	-8.7515
▁choses	-8.75231
us	-8.75571
▁Waa	-8.75651
▁loin	-8.75749
▁doŋŋ	-8.75758
▁Donne	-8.75769
▁chambre	-8.75818
▁acheté	-8.75823
▁Fii	-8.75936
▁kow	-8.76055
▁maam	-8.76091
▁kanam	-8.76103
▁roi	-8.76128
▁trou	-8.76238
▁takk	-8.76293
▁arbres	-8.76362
▁vent	-8.76611
oi	-8.76679
▁Tey	-8.77492
li	-8.78373
▁dire	-8.78494
▁doo	-8.78509
noppi	-8.79633
▁ña	-8.79989
ñu	-8.80062
▁(	-8.80748
▁Cherche	-8.80748
▁Ogosaa	-8.80748
▁couscous	-8.80748
▁voilà	-8.80749
▁Mets	-8.80756
▁pagne	-8.80757
ro	-8.80901
▁laaj	-8.8112
▁weer	-8.81132
▁passe	-8.81151
▁yeux	-8.81274
▁dóor	-8.81332
▁R	-8.81504
▁sorte	-8.8151
ne	-8.81581
▁mets	-8.8159
▁vient	-8.81622
▁sou	-8.81961
▁noppi	-8.82152
▁jóge	-8.82353
▁Da	-8.82565
▁femmes	-8.83176
je	-8.83345
▁mort	-8.83377
▁Nang	-8.83776
▁bay	-8.83831
▁jeex	-8.84081
eel	-8.84643
Afrique	-8.84853
vous	-8.84909
▁bout	-8.85007
ru	-8.85224
▁somme	-8.85229
▁far	-8.85239
el	-8.85447
▁Mi	-8.85489
ta	-8.85526
▁vend	-8.8557
▁main	-8.85719
▁mbir	-8.85873
▁grande	-8.85942
▁côté	-8.86011
▁premier	-8.86011
▁woto	-8.86013
▁Gone	-8.86014
▁xonq	-8.86015
▁mer	-8.86098
▁dame	-8.86131
▁matin	-8.86136
▁Astu	-8.86147
ans	-8.86193
▁wa	-8.86285
▁gee	-8.8637
▁bë	-8.86371
▁mëna	-8.86477
▁taxaw	-8.86487
▁sac	-8.86567
▁fees	-8.86632
ka	-8.87427
▁case	-8.87739
dd	-8.88101
pp	-8.88363
▁nos	-8.88401
▁taal	-8.88421
▁mat	-8.88427
ion	-8.8843
▁ñ	-8.88778
▁ciy	-8.88803
▁jëm	-8.89248
▁reste	-8.89596
ti	-8.89865
▁Ken	-8.90068
▁indi	-8.90253
▁chien	-8.90261
im	-8.90266
▁Quel	-8.90314
▁aw	-8.90572
air	-8.90684
ak	-8.90746
▁puis	-8.90942
▁travail	-8.90942
▁Mën	-8.91011
▁jàng	-8.91083
▁togg	-8.91127
mba	-8.91189
añ	-8.91269
▁arrive	-8.91311
▁autres	-8.91364
▁xaj	-8.91392
▁jël	-8.91557
▁corps	-8.91567
▁famille	-8.91568
▁blanc	-8.91571
▁force	-8.91603
▁ŋgeen	-8.91606
▁couleur	-8.91607
▁Prends	-8.9164
▁beau	-8.91642
▁prendre	-8.91645
▁waaw	-8.91645
▁assis	-8.91664
▁Kooku	-8.91684
▁manger	-8.91745
▁metti	-8.91823
▁rab	-8.91844
▁verre	-8.91851
▁xaar	-8.9209
▁Xa	-8.92228
▁gaaw	-8.9226
▁Seet	-8.92384
▁bari	-8.9244
▁dos	-8.92725
▁yóbbu	-8.92735
aw	-8.92764
pendant	-8.92901
▁doy	-8.92989
▁Wut	-8.93256
▁ban	-8.9326
▁mains	-8.93387
eur	-8.93466
ax	-8.93478
▁fo	-8.93488
tax	-8.93538
quel	-8.93565
▁lit	-8.93718
les	-8.93751
▁in	-8.93812
kk	-8.94056
▁yoo	-8.94178
ras	-8.94292
▁mb	-8.94294
▁eux	-8.94393
ël	-8.94413
▁tas	-8.94675
àkk	-8.94997
▁dund	-8.95132
▁As	-8.95404
▁Des	-8.95478
▁pied	-8.95966
▁jél	-8.9615
arbre	-8.96283
même	-8.96361
▁gudd	-8.96399
▁lan	-8.96654
▁jii	-8.96835
▁ñàkk	-8.9689
▁bët	-8.97246
ées	-8.97396
▁Tou	-8.97445
▁façon	-8.97449
▁raison	-8.97449
▁semble	-8.9745
▁yëg	-8.975
▁Waaw	-8.97501
h	-8.97616
▁Astou	-8.9776
▁yiy	-8.98092
▁daal	-8.98113
▁woo	-8.98284
▁bunt	-8.98667
▁peur	-8.98693
▁doomu	-8.98763
▁wet	-8.98791
▁solo	-8.99446
▁pu	-8.99497
ici	-9.00331
toi	-9.00399
naa	-9.0083
▁xare	-9.01042
▁fini	-9.01329
ure	-9.01622
▁Fa	-9.01992
▁route	-9.02063
▁aura	-9.02076
▁poisson	-9.02191
ata	-9.02226
tôt	-9.02367
▁cour	-9.02446
léeg	-9.02588
or	-9.02726
elles	-9.02744
père	-9.02986
▁gor	-9.03027
▁tool	-9.03167
▁mii	-9.03196
▁wolof	-9.03202
z	-9.03396
▁ñax	-9.03639
▁première	-9.03699
▁debout	-9.03699
▁viande	-9.03703
▁jamono	-9.03721
▁ville	-9.03734
▁visage	-9.03745
▁dellu	-9.03764
▁beneen	-9.03785
▁Tugal	-9.03799
▁toj	-9.0384
▁Ndox	-9.03845
▁Moom	-9.03846
▁séen	-9.03856
▁jooy	-9.03907
▁peau	-9.03951
▁noonu	-9.04059
▁Son	-9.04076
▁nuit	-9.04154
ng	-9.04327
▁Ca	-9.04342
▁mot	-9.0437
▁Fu	-9.04389
mi	-9.04405
ode	-9.04508
▁mujje	-9.04569
▁doute	-9.04579
▁lañ	-9.04622
ité	-9.04749
▁xol	-9.04878
▁so	-9.05005
▁pieds	-9.05305
▁ra	-9.05941
mb	-9.0603
▁ans	-9.0613
▁baay	-9.06197
nu	-9.06213
▁prend	-9.0624
autres	-9.06555
▁Ka	-9.06612
▁bal	-9.06645
▁Commen	-9.06711
▁H	-9.06845
▁gaal	-9.06853
▁petits	-9.07041
▁War	-9.07043
▁voyage	-9.07129
▁nom	-9.07135
ès	-9.07158
▁place	-9.07311
▁daanu	-9.07436
▁viendra	-9.07524
▁fut	-9.0759
▁Ak	-9.07666
avait	-9.08558
▁crois	-9.08792
▁corde	-9.08812
▁belle	-9.08833
▁haut	-9.09306
p	-9.09348
rait	-9.09352
▁Comme	-9.09501
)	-9.10078
▁cuisine	-9.10189
▁aperçu	-9.10366
▁alors	-9.10366
▁travers	-9.10366
▁fàtte	-9.10367
▁puits	-9.10367
▁couteau	-9.10367
▁train	-9.10377
▁mariage	-9.1038
▁dëgër	-9.10383
▁longue	-9.10386
▁chez	-9.10415
▁seulement	-9.10443
▁sucre	-9.10461
▁Léegi	-9.10483
▁ňu	-9.1054
▁boppam	-9.10617
▁ñetti	-9.1064
▁nangu	-9.10677
oŋ	-9.10717
▁vais	-9.10731
ière	-9.10984
▁naaj	-9.11145
au	-9.11164
▁entendu	-9.11178
▁kooku	-9.11399
tion	-9.1142
▁wàn	-9.11436
▁waral	-9.11466
▁dex	-9.11636
▁nee	-9.1165
▁daa	-9.11792
▁poule	-9.11987
▁parler	-9.1216
tt	-9.12397
wu	-9.12455
▁porter	-9.12521
▁fer	-9.12605
mère	-9.12705
ction	-9.12763
▁Dis	-9.12807
▁Fas	-9.12809
haque	-9.13149
▁donner	-9.13694
▁gàtt	-9.13758
vaient	-9.13792
lo	-9.14408
▁taw	-9.14552
quelle	-9.14963
▁Au	-9.15509
▁Se	-9.15917
▁plu	-9.16055
▁Gor	-9.1634
▁année	-9.16372
aime	-9.16511
nga	-9.16581
oor	-9.1682
▁tàng	-9.16861
▁bind	-9.17263
▁Kër	-9.17498
▁gaynde	-9.17509
▁début	-9.17509
habitude	-9.17509
▁laver	-9.17512
▁Garab	-9.17517
▁question	-9.17521
▁paaka	-9.17534
▁soient	-9.17541
▁tollu	-9.17561
▁cinq	-9.17607
▁kaw	-9.17613
▁dagg	-9.17614
▁lion	-9.17618
▁lieu	-9.17624
▁suba	-9.17636
▁baat	-9.17678
▁marse	-9.17694
▁wér	-9.17699
▁mënul	-9.17742
▁Jél	-9.17753
▁Nd	-9.17853
▁Chaque	-9.17956
▁itam	-9.17998
▁buntu	-9.18149
▁Yé	-9.18384
▁trouve	-9.18407
▁sortir	-9.18503
▁font	-9.1854
▁kan	-9.18573
▁buur	-9.18587
▁diis	-9.18751
▁fort	-9.18753
▁demoon	-9.18965
▁Ñaar	-9.1899
▁amoon	-9.18997
ète	-9.1903
▁ressemble	-9.19106
▁Ceux	-9.19122
▁quelle	-9.19169
▁propos	-9.19195
▁yii	-9.19329
▁prépare	-9.19375
▁kes	-9.19446
arrête	-9.20267
▁nañ	-9.20381
▁...	-9.20419
▁co	-9.20567
▁Dëkk	-9.20626
▁V	-9.20919
af	-9.20986
appelle	-9.21207
ine	-9.2135
ook	-9.21507
ter	-9.21854
▁deme	-9.21937
▁wii	-9.22108
ëf	-9.22298
herbe	-9.22356
▁biti	-9.22483
▁tombé	-9.22815
voir	-9.23097
sse	-9.23179
▁wut	-9.23285
▁rouge	-9.23563
iez	-9.23836
▁per	-9.23838
▁vaut	-9.24017
▁droit	-9.24064
lé	-9.24285
▁compte	-9.24841
▁jeune	-9.2518
▁Jigéen	-9.25201
▁Kamerun	-9.25201
▁Maintenant	-9.25201
▁tàmbalee	-9.25201
▁Alors	-9.25201
▁chemise	-9.25201
▁cheveux	-9.25208
▁xanaa	-9.2521
▁mauvais	-9.25218
▁màgget	-9.25218
▁ginnaaw	-9.25255
▁chef	-9.25258
▁yónn	-9.25264
▁bépp	-9.2528
▁trouvé	-9.25312
▁yég	-9.25316
▁seetlu	-9.25324
▁dugub	-9.25328
▁vieille	-9.25342
▁jëkk	-9.25353
▁wéy	-9.25353
▁pain	-9.25386
▁devenu	-9.25417
▁voit	-9.25418
▁épouse	-9.25427
▁dents	-9.25459
ge	-9.25492
▁tard	-9.25504
▁Voi	-9.25517
▁Ceci	-9.25517
▁tomber	-9.25634
▁endroit	-9.25748
▁woy	-9.25773
ni	-9.25833
▁soir	-9.25907
ère	-9.25912
▁xaw	-9.25947
▁lakk	-9.25983
▁mar	-9.2599
ewul	-9.26042
▁réy	-9.26118
▁parte	-9.26237
▁alal	-9.26363
▁buum	-9.26412
int	-9.26612
cle	-9.26629
▁yar	-9.27138
▁miir	-9.27247
▁kay	-9.27795
▁rag	-9.28064
▁toit	-9.28284
▁bees	-9.2829
em	-9.28427
aas	-9.28486
àpp	-9.28589
▁lanu	-9.28596
vient	-9.28686
▁dàll	-9.28841
▁connais	-9.28993
▁jékk	-9.29098
▁lal	-9.29323
▁May	-9.29756
▁mari	-9.30213
▁Fi	-9.30233
▁Sé	-9.30269
▁posé	-9.30303
▁Saa	-9.30366
▁we	-9.30438
▁plein	-9.30484
▁ras	-9.30487
▁jiit	-9.30552
▁noir	-9.3104
▁saf	-9.3155
autour	-9.31704
rent	-9.31752
bu	-9.31779
▁blanche	-9.3194
▁pluie	-9.32026
▁fille	-9.32194
dessus	-9.32367
âge	-9.32381
▁ex	-9.32436
▁demande	-9.32638
eer	-9.32735
▁fey	-9.3281
▁ñaa	-9.32997
▁col	-9.33212
▁jabar	-9.33356
▁jén	-9.33371
▁mois	-9.33389
▁day	-9.33473
▁Tubaab	-9.33534
▁difficile	-9.33534
▁égaré	-9.33534
▁paix	-9.33535
▁fecc	-9.33536
▁feuilles	-9.3354
▁Borom	-9.33542
▁borom	-9.33542
▁Dakar	-9.33543
▁xalaat	-9.3355
▁ganaar	-9.33551
▁yaakaar	-9.33555
▁vraiment	-9.33566
▁simplement	-9.33568
▁picc	-9.33568
▁jéem	-9.33572
▁jooju	-9.33586
▁agsi	-9.33631
▁ngelaw	-9.33714
▁vienne	-9.33714
▁yem	-9.33734
▁relations	-9.33735
▁fond	-9.33735
raada	-9.3374
▁Oui	-9.33813
▁vont	-9.33817
▁fruits	-9.33866
▁ñaan	-9.33931
▁sable	-9.33973
▁Ogoja	-9.33987
▁Buur	-9.34026
▁séy	-9.3404
▁sér	-9.34069
▁fourmis	-9.3413
▁balle	-9.34155
▁yeneen	-9.34172
entré	-9.34597
▁wone	-9.34608
étais	-9.34703
▁ŋ	-9.34726
▁yére	-9.34744
▁murs	-9.34745
▁léeg	-9.34753
▁habits	-9.34876
ju	-9.35113
use	-9.35238
▁doomi	-9.35333
▁feu	-9.3536
▁way	-9.35368
een	-9.35448
▁duñu	-9.35502
▁pan	-9.3596
▁quel	-9.36226
▁Ben	-9.36339
▁génne	-9.3641
irai	-9.36481
ou	-9.36605
▁rey	-9.36733
▁pré	-9.36743
▁rend	-9.36897
▁demul	-9.37084
▁amis	-9.37426
▁ét	-9.37462
bord	-9.37995
lever	-9.38245
jj	-9.38483
▁marche	-9.38699
ll	-9.38786
ň	-9.39416
▁celle	-9.39505
▁dellusi	-9.39766
▁jur	-9.39803
▁table	-9.39884
▁personnes	-9.39945
▁po	-9.40178
▁moomu	-9.4025
▁Amul	-9.40343
▁Par	-9.40641
▁con	-9.40758
gne	-9.40874
amaan	-9.40875
▁tour	-9.40906
▁ru	-9.40948
gi	-9.41027
▁retour	-9.41028
▁singe	-9.41156
▁médecin	-9.41212
midi	-9.41402
viens	-9.4147
▁long	-9.41534
▁waaj	-9.41628
▁nopp	-9.41644
▁aay	-9.41705
aller	-9.41848
beek	-9.41882
▁hommes	-9.42099
▁xamul	-9.42283
▁marcher	-9.4235
iers	-9.42391
▁Vo	-9.42483
▁Mecque	-9.42625
▁Ndakaaru	-9.42625
▁boubou	-9.42625
▁offert	-9.42625
▁appris	-9.42625
▁pantalon	-9.42625
▁morceau	-9.42627
▁gannaaw	-9.42627
ssez	-9.42631
▁théière	-9.42632
▁serpent	-9.42638
▁Ici	-9.42647
▁langue	-9.42657
▁waxtaan	-9.4266
▁Cameroun	-9.42668
▁sens	-9.42683
▁raxas	-9.42697
▁mangé	-9.42703
▁Dégg	-9.42705
▁pouvait	-9.42718
▁seetaan	-9.42735
▁dinañu	-9.42742
▁biens	-9.42746
▁gan	-9.42756
▁bouche	-9.42837
koon	-9.42918
▁jambes	-9.42988
▁sedd	-9.42997
▁vite	-9.43063
▁baaxul	-9.43093
▁bëggoon	-9.43095
▁Ana	-9.43345
▁comment	-9.43356
▁ren	-9.43399
▁defar	-9.43427
▁déj	-9.43437
▁For	-9.43448
▁yenn	-9.43469
▁aurait	-9.4352
▁sew	-9.43522
▁loo	-9.43655
▁tontu	-9.43778
▁près	-9.43841
▁âge	-9.43965
▁chat	-9.441
▁habit	-9.44141
▁saison	-9.44155
▁jar	-9.44276
▁bëtt	-9.44317
▁bant	-9.44375
▁passer	-9.44515
▁waxtu	-9.4463
▁Afrique	-9.44697
▁cere	-9.44749
▁kowe	-9.44855
▁ñaaw	-9.45138
▁ñaw	-9.45341
ts	-9.45497
▁ub	-9.45589
▁villages	-9.45628
▁natte	-9.46663
▁pi	-9.46848
óo	-9.46874
▁to	-9.47369
ande	-9.48103
▁dañ	-9.48166
▁fasse	-9.48231
▁Leur	-9.48243
▁defal	-9.48274
ique	-9.48348
▁xool	-9.4856
▁Pi	-9.48699
aayu	-9.48815
mu	-9.49556
▁laisse	-9.49764
près	-9.50103
▁partis	-9.50184
alal	-9.503
ox	-9.5041
▁garde	-9.50976
vez	-9.51226
âne	-9.51247
añoo	-9.51327
Omar	-9.51525
fu	-9.51568
▁ré	-9.51681
▁da	-9.51745
▁met	-9.51757
▁aucun	-9.51761
▁vache	-9.51966
▁Bë	-9.51996
▁tere	-9.52015
▁saak	-9.52176
rie	-9.5226
▁dég	-9.52282
▁commence	-9.52301
▁compl	-9.52579
ersonne	-9.526
hôpital	-9.52625
▁Moytul	-9.52625
▁Wànte	-9.52625
▁chaleur	-9.52625
▁forêt	-9.52625
▁région	-9.52625
▁Jésus	-9.52625
▁dernier	-9.52625
▁brousse	-9.52625
▁violence	-9.52626
▁voix	-9.52626
▁apporté	-9.52626
▁Yéesu	-9.52626
▁chaud	-9.52627
▁peine	-9.52629
▁foofu	-9.5263
▁souvenir	-9.52636
▁Passe	-9.52637
▁ceinture	-9.52641
▁charge	-9.52646
▁tabax	-9.52649
▁passage	-9.52653
▁taabal	-9.52654
▁fàttaliku	-9.52654
▁soxla	-9.52661
▁nombreux	-9.52663
adi	-9.52689
▁Ñoom	-9.52691
▁lourd	-9.52703
▁telle	-9.52714
▁laisser	-9.52744
▁màtt	-9.52751
▁sànni	-9.52752
▁xóot	-9.52756
▁tàmm	-9.52768
▁Bés	-9.5277
▁googu	-9.52806
▁atten	-9.52812
▁demain	-9.5283
▁màggat	-9.5287
▁tooy	-9.52871
▁tàkk	-9.5294
▁tëb	-9.52956
▁Indi	-9.52967
▁daanaka	-9.52991
▁chercher	-9.53051
▁dinga	-9.53095
▁Fan	-9.53121
▁bëggee	-9.5335
▁affaires	-9.53512
▁cherche	-9.53708
ier	-9.53712
▁yaatu	-9.53769
▁xob	-9.53877
aux	-9.53884
▁këram	-9.53906
▁jaan	-9.53929
▁entré	-9.53981
▁yàpp	-9.54037
▁ment	-9.54037
▁cuir	-9.54048
▁ro	-9.54145
aale	-9.54532
▁bar	-9.54662
▁nak	-9.54676
▁années	-9.54815
▁sor	-9.54877
ot	-9.54878
▁Ñoo	-9.55148
bal	-9.55174
▁gun	-9.55239
v	-9.5531
▁argent	-9.55362
▁Lekk	-9.55398
▁seule	-9.55515
▁amee	-9.55654
▁leneen	-9.55884
▁Nda	-9.55885
▁dirige	-9.55929
▁avais	-9.56032
ule	-9.56073
▁dàq	-9.56403
▁venus	-9.56414
▁tag	-9.56417
ëkk	-9.57236
mp	-9.57481
▁présent	-9.57616
▁Bëgg	-9.57684
aate	-9.57699
lent	-9.57913
▁regard	-9.58041
gal	-9.58208
gaa	-9.58314
uur	-9.58558
▁bul	-9.58567
▁Re	-9.58745
▁port	-9.5907
ànd	-9.59086
▁Ña	-9.59183
▁montre	-9.59212
entre	-9.59297
eef	-9.59343
ch	-9.59462
aŋ	-9.5989
ëpp	-9.60011
▁fekke	-9.60045
oir	-9.60152
▁guy	-9.60227
àcc	-9.60256
unu	-9.6051
▁chant	-9.60573
▁fera	-9.60961
qu	-9.60978
▁nuy	-9.61037
▁mange	-9.61252
▁sang	-9.61298
▁Com	-9.61465
▁coeur	-9.61858
▁médicament	-9.62018
▁frère	-9.62018
▁froid	-9.62325
esprit	-9.62336
û	-9.62394
▁So	-9.62466
école	-9.62532
oiseau	-9.62605
▁pri	-9.62796
abord	-9.6286
▁yax	-9.62884
▁tam	-9.63052
▁faa	-9.63093
▁tekk	-9.6311
fin	-9.63221
jur	-9.63222
waan	-9.63565
▁xëcc	-9.63603
▁gros	-9.63636
▁êt	-9.63658
▁jaam	-9.63722
▁juste	-9.63732
▁Moussa	-9.63736
▁Yow	-9.63736
▁enceinte	-9.63736
▁marmite	-9.63736
▁mosquée	-9.63736
▁tranquille	-9.63736
▁élevé	-9.63736
▁meilleur	-9.63736
▁préfère	-9.63737
ième	-9.63737
▁toujours	-9.63737
▁baobab	-9.63738
▁commerce	-9.63739
▁parlait	-9.63739
▁accroché	-9.6374
▁simis	-9.6374
▁tefes	-9.6374
▁visite	-9.63741
▁mburu	-9.63742
▁calme	-9.63742
▁varan	-9.63742
▁kilifa	-9.63743
▁màngo	-9.63745
▁diggante	-9.63752
▁wóor	-9.63755
▁Fomp	-9.63759
▁Bansoo	-9.63773
▁crain	-9.63783
▁resté	-9.63788
▁Bàyyil	-9.63788
▁prière	-9.63789
▁battre	-9.63795
▁be	-9.63798
▁nelaw	-9.6381
▁calebasse	-9.63813
▁njariñ	-9.63813
▁ngoon	-9.63834
▁soow	-9.63848
▁linge	-9.6385
èrent	-9.63871
▁Jénd	-9.63892
▁entier	-9.63908
▁bol	-9.63911
▁feeñ	-9.63914
▁bou	-9.6392
▁Màkka	-9.63931
▁Sunu	-9.63932
▁weñ	-9.63937
▁ëtt	-9.63946
▁jafe	-9.63958
▁woowu	-9.63977
▁Xaj	-9.63994
▁lorsqu	-9.64
▁chaussures	-9.64012
▁sàmm	-9.64013
▁agsee	-9.64013
▁tukki	-9.64034
▁chasse	-9.64067
woon	-9.64084
▁feebar	-9.64086
ard	-9.64116
▁diggu	-9.64116
▁ron	-9.64132
▁Kii	-9.64193
▁Woto	-9.64199
▁mépp	-9.64203
▁njaay	-9.64217
ois	-9.64244
▁bras	-9.64282
▁faisait	-9.64285
▁sàkk	-9.64347
▁queue	-9.64366
issant	-9.64405
▁moy	-9.64446
▁rendu	-9.64483
▁arbre	-9.64554
▁oreilles	-9.64564
▁nj	-9.64567
▁v	-9.64597
▁instant	-9.64636
▁gars	-9.64646
▁guddi	-9.64727
▁Ñi	-9.64746
▁Mbaa	-9.64777
▁muus	-9.64793
▁regarde	-9.64818
▁yàq	-9.64853
▁poussé	-9.64872
be	-9.64906
▁deret	-9.65109
der	-9.65161
▁viens	-9.65205
▁dessus	-9.65361
▁Wa	-9.65375
▁vaches	-9.65451
▁Kan	-9.65486
wuma	-9.65596
▁kii	-9.65832
▁pluies	-9.65834
ë	-9.65895
▁mbal	-9.65916
▁nez	-9.66086
▁neen	-9.66098
▁defee	-9.6629
ses	-9.66491
▁coupé	-9.66541
▁poissons	-9.66577
ler	-9.66582
saŋ	-9.66612
▁fil	-9.66652
▁ber	-9.67177
ndi	-9.6719
▁Teg	-9.67207
▁dëkki	-9.67368
▁couper	-9.6756
▁Ra	-9.67816
▁taxa	-9.67828
nne	-9.67857
▁taat	-9.67864
ellement	-9.68133
oivent	-9.6843
▁Nu	-9.68441
▁té	-9.68586
▁do	-9.68774
▁Ng	-9.68818
ëq	-9.68899
▁dëkke	-9.69214
▁jub	-9.69221
▁gëm	-9.69233
ille	-9.69465
▁».	-9.69655
▁ciment	-9.6968
▁fit	-9.69946
▁Quelle	-9.69956
▁for	-9.69957
ol	-9.69968
▁daj	-9.70106
▁mba	-9.70354
▁rempli	-9.70667
ngeen	-9.70695
▁dés	-9.70772
▁teen	-9.70772
▁xeet	-9.70783
▁arrêt	-9.71481
able	-9.71572
▁sonn	-9.71766
nge	-9.71793
▁jóg	-9.72194
lax	-9.72357
sa	-9.72391
▁é	-9.72524
eg	-9.72631
▁boot	-9.72638
àll	-9.72695
▁Là	-9.72815
maa	-9.73056
▁cassé	-9.73163
ek	-9.73198
▁portes	-9.73266
lle	-9.73271
▁finir	-9.73315
woo	-9.73823
ins	-9.73882
▁daje	-9.74037
▁ha	-9.74078
▁ng	-9.74325
▁naat	-9.74367
▁Ki	-9.74486
▁besoin	-9.74518
▁dromadaire	-9.74518
ji	-9.74527
▁Ri	-9.74663
▁bâton	-9.74668
▁fee	-9.74686
▁vivre	-9.74704
▁large	-9.74756
▁nun	-9.74922
▁pënd	-9.74984
▁nde	-9.75047
né	-9.7525
où	-9.75252
onne	-9.75413
▁gaawa	-9.75437
àmm	-9.7555
ottali	-9.75575
ations	-9.75661
avez	-9.75746
vent	-9.75816
après	-9.75819
▁dog	-9.75876
▁rue	-9.76032
▁jëkkër	-9.76055
▁maternel	-9.76055
gu	-9.76089
▁Banso	-9.76195
▁propre	-9.76236
▁Apporte	-9.76236
▁Senegaal	-9.76236
▁africain	-9.76236
▁nouveau	-9.76236
▁caillé	-9.76237
▁dunyaa	-9.76237
▁nourriture	-9.76237
▁Arrête	-9.76238
▁chevaux	-9.76239
▁këll	-9.76239
▁ndab	-9.7624
▁Réew	-9.76242
▁baaraam	-9.76242
▁Viens	-9.76245
▁fàww	-9.76247
▁Waxtaan	-9.76247
▁jëkka	-9.76247
▁Ganaar	-9.76248
▁mbubb	-9.76253
▁sarax	-9.76254
▁sauce	-9.76254
oeil	-9.76258
▁Jaam	-9.76261
▁moins	-9.7627
▁coté	-9.7627
▁Musaa	-9.76271
exiler	-9.76271
▁weesoo	-9.76273
▁boire	-9.76276
▁paille	-9.76279
▁Alma	-9.76293
▁tëgg	-9.76298
▁suukar	-9.763
antu	-9.763
▁Yaw	-9.76301
▁nettali	-9.76304
▁déglu	-9.76305
▁plaît	-9.76324
▁animaux	-9.76325
▁damm	-9.76342
▁golo	-9.76343
urno	-9.76352
▁travailler	-9.76377
▁kilo	-9.7638
▁Puisse	-9.76381
▁kepp	-9.76389
▁bekk	-9.76419
▁Noonu	-9.7642
▁plaine	-9.76428
▁tolloo	-9.76434
▁époque	-9.76475
▁malade	-9.76499
▁feneen	-9.76514
▁derrière	-9.76526
▁tàpp	-9.76527
▁ñor	-9.76528
▁pax	-9.7654
▁heures	-9.76541
▁No	-9.76575
▁sëq	-9.76578
A	-9.76622
▁donc	-9.76633
▁battu	-9.76645
▁Danu	-9.7665
▁bris	-9.76667
▁juróomi	-9.76668
▁souris	-9.76796
▁Aw	-9.76801
▁devait	-9.76817
▁acheter	-9.76824
▁Walla	-9.76825
▁yëngu	-9.76828
▁raw	-9.76835
nqaas	-9.76933
▁wàll	-9.76941
▁tubaab	-9.76946
▁bëggul	-9.7695
▁jeté	-9.77063
ba	-9.77163
▁xew	-9.7717
ànja	-9.77265
▁petite	-9.77282
▁xàmmee	-9.7729
▁nekkoon	-9.77433
été	-9.77497
▁sabar	-9.77717
▁ñam	-9.77746
▁raay	-9.7783
▁nanu	-9.77846
▁fourn	-9.7785
▁avion	-9.77897
góor	-9.77939
▁coupe	-9.781
▁nul	-9.78147
tam	-9.78439
àq	-9.78465
▁avez	-9.78587
▁gisee	-9.78681
▁mur	-9.78882
▁wutal	-9.7889
▁niroo	-9.78911
▁nja	-9.79005
▁garder	-9.7902
▁Woo	-9.7904
▁cent	-9.7905
▁bett	-9.791
▁fleur	-9.79134
▁mbaar	-9.79204
igne	-9.79228
tiir	-9.79794
gue	-9.79841
▁oui	-9.79858
▁ëmb	-9.7998
▁door	-9.80086
▁bo	-9.80122
ëb	-9.80171
▁certaine	-9.80308
▁tel	-9.80347
che	-9.80359
▁mee	-9.8038
▁go	-9.80689
ttes	-9.80758
erai	-9.81358
tiens	-9.81453
▁rappel	-9.81524
dent	-9.81543
jal	-9.81601
our	-9.81611
▁jeu	-9.81777
▁Cere	-9.81836
ga	-9.82025
amour	-9.822
óon	-9.82281
oire	-9.82574
▁doxan	-9.82661
mm	-9.8287
nd	-9.8299
▁saay	-9.83001
▁mas	-9.83012
▁xa	-9.83076
▁wan	-9.83088
▁nd	-9.83159
▁gas	-9.83241
▁dur	-9.8332
omp	-9.83383
▁xe	-9.83624
▁tab	-9.83726
laa	-9.83776
▁yéeg	-9.84012
aide	-9.84206
▁mou	-9.84375
▁hu	-9.8457
vé	-9.84774
▁teew	-9.84977
▁Doo	-9.84984
▁fukk	-9.85021
▁ser	-9.85085
▁sell	-9.8525
▁sab	-9.85374
bien	-9.85553
atul	-9.85555
venir	-9.8567
▁Laisse	-9.8578
▁sant	-9.85859
▁tëdd	-9.86157
▁teer	-9.86356
ants	-9.8649
▁partira	-9.86539
iku	-9.86544
▁vol	-9.86551
▁tar	-9.86974
▁ferai	-9.87086
▁aime	-9.87094
bo	-9.87265
▁grands	-9.87306
gar	-9.87657
▁tay	-9.8804
▁habite	-9.88338
ienne	-9.88368
▁yeew	-9.88403
▁couche	-9.88422
▁dana	-9.8858
▁chemin	-9.88624
▁jën	-9.88701
▁fou	-9.88759
▁waxe	-9.88785
▁classe	-9.88808
tenir	-9.88868
▁garçon	-9.88926
▁doigt	-9.88927
Europe	-9.89017
vec	-9.8906
▁jolie	-9.89062
▁franc	-9.89096
▁fóot	-9.89115
▁ràbb	-9.89122
▁taq	-9.89149
▁plat	-9.89232
ends	-9.8924
instant	-9.89359
▁nàmp	-9.89386
kër	-9.89412
▁won	-9.89556
gré	-9.89573
▁dig	-9.89657
ali	-9.89875
ire	-9.8993
▁Topp	-9.89932
▁yor	-9.89938
▁xeex	-9.89965
▁juróom	-9.90034
▁set	-9.90039
▁nëbb	-9.90095
▁tombe	-9.90167
▁cou	-9.90189
da	-9.90295
▁palanteer	-9.90323
▁cours	-9.90329
prit	-9.90373
▁Puis	-9.90374
▁projet	-9.90385
▁rapide	-9.90446
ów	-9.90451
àddaay	-9.905
▁thé	-9.90512
Ouest	-9.90522
▁Niseryaa	-9.90522
▁compris	-9.90522
▁contient	-9.90522
▁cérémonie	-9.90522
▁ensemble	-9.90522
▁fête	-9.90522
▁soudain	-9.90522
▁yëkkati	-9.90522
▁Êt	-9.90522
▁commencé	-9.90522
▁tamarin	-9.90522
▁làrme	-9.90523
▁bouillie	-9.90523
▁construction	-9.90523
▁lumière	-9.90523
▁Pourtant	-9.90523
saalum	-9.90523
▁nouvelle	-9.90523
▁côte	-9.90524
▁vérité	-9.90524
aadama	-9.90524
▁juddoo	-9.90525
▁rythm	-9.90525
▁piège	-9.90525
▁tissu	-9.90525
▁Palais	-9.90526
▁dënn	-9.90528
▁proche	-9.90528
▁Sénégal	-9.90528
▁màndi	-9.9053
▁gazelle	-9.90534
▁journée	-9.90536
▁douceur	-9.90538
▁jégg	-9.90542
▁mellentaan	-9.90545
▁dénk	-9.90551
▁gerte	-9.90556
▁féete	-9.90556
▁ubbi	-9.9056
▁riir	-9.90561
▁saabu	-9.90564
▁naqadi	-9.90565
▁étions	-9.90571
▁meew	-9.90575
▁tàbb	-9.90576
▁denc	-9.90583
▁préparé	-9.90589
▁farine	-9.9059
▁lëndëm	-9.90593
▁circoncis	-9.90608
▁foyer	-9.90619
▁ekool	-9.90621
▁griot	-9.90623
▁différent	-9.90624
▁xorom	-9.90625
aventure	-9.90629
▁doktoor	-9.90631
▁réunion	-9.90637
▁continu	-9.90648
ression	-9.9065
▁fesses	-9.90657
▁ndànk	-9.90671
▁néew	-9.90677
▁viennent	-9.90687
▁rëbb	-9.90703
▁mettra	-9.90737
▁courant	-9.90746
▁Njaay	-9.9075
▁méchant	-9.90754
▁bëñ	-9.90758
▁fépp	-9.90759
cation	-9.90767
▁téye	-9.90776
▁veu	-9.90778
▁xal	-9.90779
▁yéene	-9.90795
▁danu	-9.90809
▁kàddu	-9.90811
▁soxna	-9.90817
▁weesu	-9.90819
▁panier	-9.90826
▁daaneel	-9.90836
▁tangor	-9.90881
po	-9.90887
▁xéy	-9.90898
▁idée	-9.90901
▁waroon	-9.90908
▁sàcc	-9.90955
▁arachides	-9.90983
▁Toi	-9.90984
▁Plu	-9.91
▁tali	-9.91003
▁mbaam	-9.91009
▁pleurer	-9.9101
▁vi	-9.91029
▁song	-9.91041
▁foule	-9.91065
▁allait	-9.91097
▁wor	-9.91122
▁autrement	-9.91124
▁Mag	-9.91168
▁Dé	-9.91238
▁ňaar	-9.91241
▁dirait	-9.91251
▁elles	-9.91298
ouille	-9.91342
▁montagnes	-9.91381
▁tàngal	-9.91386
mment	-9.91433
▁dër	-9.91434
do	-9.91444
▁prêt	-9.91449
▁xotti	-9.91461
▁envoyée	-9.91506
▁Naan	-9.91514
▁gént	-9.91544
▁meloon	-9.91547
ie	-9.91561
▁doomam	-9.91579
▁repas	-9.91579
liers	-9.91628
ables	-9.91671
▁front	-9.91817
▁venir	-9.91827
▁roy	-9.91915
▁pro	-9.91937
▁ndey	-9.91949
ût	-9.91959
yeek	-9.92002
▁jog	-9.92004
▁voudrai	-9.92014
▁nooy	-9.92029
▁Doom	-9.921
▁kon	-9.92102
▁pile	-9.92158
▁rus	-9.92199
▁jan	-9.92247
▁taxul	-9.92271
endant	-9.92278
▁verse	-9.92335
▁tekki	-9.92444
▁couvre	-9.92517
▁teel	-9.92545
tul	-9.92566
▁demander	-9.92607
ca	-9.92656
▁jeux	-9.92731
▁coy	-9.92745
nce	-9.9275
▁Bala	-9.92793
aatu	-9.9282
▁fils	-9.92828
▁làmb	-9.92834
▁gaañ	-9.92889
ën	-9.92909
▁wute	-9.93098
▁naaw	-9.93191
▁ballon	-9.93355
▁filles	-9.93373
▁appelle	-9.93431
▁jéle	-9.93511
▁sort	-9.93585
▁lim	-9.93645
▁tire	-9.93663
▁soog	-9.93867
nière	-9.93976
▁dix	-9.94024
▁diw	-9.94051
eelu	-9.94222
▁warul	-9.94413
aaxaan	-9.94478
▁arrivée	-9.94651
anq	-9.9472
▁taax	-9.9473
▁gënal	-9.9496
▁désert	-9.94977
agir	-9.94979
▁dalal	-9.94986
iné	-9.95161
▁seau	-9.95304
man	-9.9535
▁kook	-9.95364
▁tombée	-9.95467
eigne	-9.95497
agul	-9.9551
éri	-9.95727
kar	-9.95982
enti	-9.96205
indil	-9.96275
▁defe	-9.96325
waa	-9.967
gg	-9.96764
▁noon	-9.9677
▁rat	-9.9682
▁champs	-9.96892
ag	-9.96993
▁ñe	-9.97013
▁frapp	-9.97244
gé	-9.97413
▁four	-9.97425
▁imp	-9.9745
rde	-9.97566
▁léeb	-9.97901
▁pouss	-9.97915
▁montr	-9.97924
▁batt	-9.97984
ŋŋ	-9.98104
daw	-9.98156
▁puisse	-9.98181
▁wuy	-9.98205
ara	-9.98378
▁Baat	-9.9856
▁jeunes	-9.98688
▁Ou	-9.98787
ñoo	-9.98952
écart	-9.99066
óom	-9.99219
rons	-9.99229
ve	-9.99299
▁abal	-9.99332
▁bërë	-9.99699
ërëm	-9.9977
xeer	-9.99962
▁court	-10.0018
▁fàttali	-10.0033
eŋ	-10.0045
▁mo	-10.0088
uf	-10.0088
bedd	-10.0093
ami	-10.01
▁grill	-10.0115
▁sore	-10.0142
too	-10.0156
béer	-10.016
mat	-10.0175
▁liggéeye	-10.0176
▁parles	-10.0179
▁donn	-10.0269
gelaw	-10.0276
ade	-10.0296
▁jou	-10.0303
▁cultiv	-10.0323
éeri	-10.0342
▁baxa	-10.0353
▁manque	-10.0366
▁mbe	-10.0375
▁dootu	-10.0383
▁wàcc	-10.0386
▁jal	-10.0431
▁Nga	-10.046
▁pourra	-10.049
if	-10.0518
▁condition	-10.0529
▁couché	-10.0529
isse	-10.0542
llons	-10.0543
▁fleuve	-10.0547
▁brave	-10.0547
ble	-10.0551
▁branche	-10.0555
heure	-10.057
appar	-10.0587
▁prochain	-10.0591
aal	-10.0592
▁envoyé	-10.0604
part	-10.0607
endroit	-10.0609
arrive	-10.0623
okk	-10.0629
nekk	-10.063
waat	-10.0644
▁affaire	-10.0645
▁reç	-10.0664
àtt	-10.0667
hacun	-10.0669
▁noo	-10.0676
▁masu	-10.0678
▁I	-10.0685
▁gise	-10.0687
▁Es	-10.0692
ême	-10.07
▁organis	-10.0702
▁répond	-10.071
▁simple	-10.0712
▁jam	-10.0714
eaucoup	-10.0715
▁fen	-10.0716
▁Pou	-10.0717
Louis	-10.0719
alcool	-10.0719
▁Móris	-10.0719
▁chauff	-10.0719
▁chocolat	-10.0719
▁cœur	-10.0719
▁perroquet	-10.0719
▁possible	-10.0719
▁sukkuraat	-10.0719
strict	-10.0719
▁beurre	-10.0719
▁bouteille	-10.0719
▁surtout	-10.0719
▁tronc	-10.0719
▁pensé	-10.0719
▁sóob	-10.0719
▁terrain	-10.0719
▁Appelle	-10.0719
▁Coran	-10.0719
▁mbind	-10.0719
▁savon	-10.0719
▁maladie	-10.0719
▁Ainsi	-10.0719
▁cosaan	-10.0719
▁crâne	-10.0719
▁confiance	-10.0719
▁moroom	-10.0719
▁diiwaan	-10.0719
▁noix	-10.0719
▁toppatoo	-10.0719
▁grains	-10.0719
▁dessous	-10.0719
▁bracelet	-10.0719
▁chute	-10.0719
▁Àngalteer	-10.0719
▁Yóbbu	-10.0719
▁trahi	-10.0719
▁nangoo	-10.0719
▁poudre	-10.0719
▁pañe	-10.0719
▁dernière	-10.0719
▁demandé	-10.0719
▁Tabax	-10.072
▁sës	-10.072
▁creux	-10.072
▁Ramasse	-10.072
rgo	-10.072
▁ferme	-10.072
▁poussière	-10.0721
▁plage	-10.0721
▁revienne	-10.0721
▁Tëgg	-10.0721
▁jariñ	-10.0721
▁jaŋg	-10.0722
▁pense	-10.0722
▁Guy	-10.0723
▁ndigg	-10.0723
▁Gën	-10.0723
▁Booba	-10.0723
▁dénd	-10.0724
▁récit	-10.0724
▁wadd	-10.0724
▁libre	-10.0725
▁xayma	-10.0726
▁Xel	-10.0726
▁dajale	-10.0727
▁poste	-10.0727
▁soldaar	-10.0728
▁kawar	-10.0728
▁prix	-10.0729
▁jumaa	-10.073
▁colère	-10.073
▁tient	-10.073
▁Jàppal	-10.073
▁retraite	-10.0731
▁yegg	-10.0731
▁nombre	-10.0732
▁prenne	-10.0732
▁Moi	-10.0732
▁Jàng	-10.0734
▁mesure	-10.0735
▁Rax	-10.0735
▁toilettes	-10.0735
▁yokk	-10.0736
▁Xaw	-10.0737
▁wex	-10.0738
▁xur	-10.0741
▁boutique	-10.0746
▁sauf	-10.0746
▁booba	-10.0747
▁retrouver	-10.0747
▁laax	-10.0748
▁yenu	-10.0749
▁laajte	-10.075
▁sanc	-10.0751
▁cacher	-10.0753
▁réuni	-10.0753
▁goût	-10.076
▁Kaay	-10.0761
▁tache	-10.0761
▁yeb	-10.0763
▁yëf	-10.0764
▁laissé	-10.0766
▁serais	-10.0766
▁voulu	-10.0767
▁santé	-10.077
▁tresses	-10.0771
accord	-10.0771
▁taille	-10.0773
▁géej	-10.0774
▁neexul	-10.0774
▁dar	-10.0775
▁lutte	-10.0778
▁maye	-10.0779
▁Yeen	-10.078
issent	-10.0781
▁sowu	-10.0784
▁dehors	-10.0788
▁attends	-10.0788
▁xiir	-10.0791
▁pierres	-10.0791
▁fatt	-10.0793
▁teey	-10.0794
▁jàmm	-10.0794
▁juum	-10.0797
▁Jaay	-10.0801
▁daaw	-10.0801
▁Moont	-10.0804
▁janoo	-10.0806
▁xelam	-10.0808
▁soup	-10.0812
▁Tool	-10.0813
▁dugal	-10.0814
▁Kon	-10.0815
▁bëre	-10.0817
▁nemm	-10.0818
▁ti	-10.0819
▁foo	-10.082
▁préparer	-10.0824
▁Nj	-10.0824
▁Màng	-10.0824
▁ndaa	-10.0832
▁Mb	-10.0841
▁jàkka	-10.0846
nj	-10.085
▁touche	-10.0855
ex	-10.0857
▁mësu	-10.0864
▁ressen	-10.087
du	-10.087
▁kaas	-10.088
▁yomb	-10.0888
▁Naar	-10.0889
▁déf	-10.0889
celle	-10.0899
▁exc	-10.0906
▁école	-10.0909
▁ngaa	-10.091
▁or	-10.092
▁takku	-10.0923
▁wat	-10.0931
▁bâtons	-10.0936
▁sago	-10.0937
qi	-10.0938
▁Bunt	-10.0943
gël	-10.095
▁Non	-10.0955
gis	-10.0959
herbes	-10.0961
▁Mes	-10.0967
ron	-10.097
▁tiit	-10.0982
▁Yu	-10.0993
▁Ndar	-10.1001
serait	-10.1009
▁jënd	-10.1015
▁miin	-10.1017
ét	-10.104
▁tuur	-10.1043
ouvrir	-10.1053
óox	-10.1054
▁xas	-10.107
▁rem	-10.107
▁ciel	-10.1073
▁Foo	-10.1074
▁njël	-10.1075
▁dunde	-10.1081
▁tirer	-10.1083
▁suiv	-10.1093
ko	-10.1094
▁taa	-10.1099
▁garabi	-10.1101
▁jekk	-10.1107
▁mbaal	-10.1115
▁cordes	-10.1143
▁emp	-10.1148
▁bor	-10.1152
▁prends	-10.1156
▁rajo	-10.1161
yaa	-10.1165
▁muur	-10.1166
▁pos	-10.1178
▁Al	-10.1182
▁Mari	-10.1193
▁wala	-10.1195
▁fiir	-10.1218
▁Mar	-10.1224
▁sii	-10.1231
▁të	-10.1236
▁cré	-10.1241
fal	-10.1246
aaya	-10.1265
▁Defe	-10.1268
geen	-10.1271
▁jàppe	-10.1287
▁bas	-10.1291
▁partage	-10.1294
▁tii	-10.1296
déem	-10.1297
▁pourrai	-10.13
ral	-10.1303
êtres	-10.1312
▁jénde	-10.1324
▁dayo	-10.1326
▁pratique	-10.1336
rer	-10.1339
▁Jam	-10.1365
tron	-10.1384
▁lenn	-10.139
anaam	-10.1394
ég	-10.1399
▁xee	-10.1413
▁jëmm	-10.142
taay	-10.1423
▁rester	-10.1429
▁Mbi	-10.1432
▁digg	-10.1449
▁xat	-10.145
▁cons	-10.1472
▁tóo	-10.1472
▁xoole	-10.1479
▁Vi	-10.1505
▁voul	-10.1506
▁cim	-10.1507
▁Pa	-10.152
▁fara	-10.1523
eeku	-10.1527
▁cru	-10.154
▁max	-10.1551
saay	-10.1556
aut	-10.1563
▁ke	-10.1578
▁Bii	-10.1598
▁aff	-10.1619
▁sin	-10.1621
▁sorti	-10.1645
▁envi	-10.1661
tin	-10.1688
▁sé	-10.1697
goo	-10.1705
▁booy	-10.1729
▁plant	-10.1754
▁tàll	-10.1757
iens	-10.1761
▁sel	-10.1762
▁ven	-10.1771
ssent	-10.1786
▁cat	-10.181
▁av	-10.183
▁venue	-10.1833
kom	-10.1843
▁vrai	-10.1847
tum	-10.1883
▁baag	-10.1884
▁petites	-10.1891
▁jàngal	-10.1895
▁waxal	-10.1896
aaj	-10.1954
mbi	-10.1985
▁bool	-10.202
▁Baax	-10.2029
▁photos	-10.2034
▁njëkk	-10.2043
gul	-10.2064
▁vendu	-10.2076
ah	-10.2077
courage	-10.2082
leel	-10.2085
▁waru	-10.2112
uñ	-10.2113
uuj	-10.2117
▁jë	-10.212
pe	-10.212
▁Gan	-10.2144
▁wee	-10.2146
▁rapport	-10.2158
▁nar	-10.2174
▁leer	-10.2186
▁soppi	-10.2193
▁Ñaa	-10.2202
▁pén	-10.2241
▁gar	-10.2257
▁xii	-10.2263
▁Bar	-10.2276
▁em	-10.2283
écu	-10.2298
▁kar	-10.2309
▁reconnais	-10.2349
ëg	-10.2357
▁cor	-10.2382
▁xaa	-10.2382
▁Daaw	-10.2393
▁Wu	-10.2417
▁fl	-10.2425
▁maître	-10.2468
▁resta	-10.2475
▁Daan	-10.2477
▁saw	-10.2485
jaan	-10.2495
▁jote	-10.25
laient	-10.2511
▁wàcce	-10.2525
▁quartier	-10.2529
▁miroir	-10.253
ooy	-10.2533
▁fusil	-10.2535
▁tra	-10.2536
lève	-10.2541
▁tambour	-10.2547
sais	-10.2552
▁adulte	-10.2559
▁brûl	-10.2562
▁mangue	-10.2563
eras	-10.2565
pt	-10.2566
óol	-10.257
bët	-10.2571
honneur	-10.2571
armée	-10.2571
▁fourmi	-10.2573
▁perdu	-10.2575
attend	-10.2577
act	-10.2581
utant	-10.2585
▁bleu	-10.2599
▁fri	-10.26
rête	-10.26
tubaab	-10.2602
▁pres	-10.2602
▁Dan	-10.2604
Ogoja	-10.2605
Astou	-10.2606
année	-10.2606
kanam	-10.2607
▁oreille	-10.2608
eñ	-10.2609
àŋŋ	-10.2615
▁màgg	-10.262
zon	-10.2624
▁fla	-10.2626
réew	-10.2629
▁Dañ	-10.2638
iver	-10.2641
▁entra	-10.2642
▁reçu	-10.2645
▁temp	-10.2648
▁Me	-10.265
aurais	-10.2654
▁mette	-10.2658
▁vue	-10.2661
▁Sopp	-10.2662
▁Bamenda	-10.2663
▁forme	-10.2665
▁natt	-10.2666
aurait	-10.2669
▁ñett	-10.2674
▁jëf	-10.2697
▁connaît	-10.2697
▁morom	-10.27
con	-10.2704
▁souffle	-10.2705
▁aj	-10.2708
▁règle	-10.271
▁suffi	-10.2711
▁wàññi	-10.2717
ioc	-10.2719
▁arriva	-10.2719
▁géléem	-10.2719
insectes	-10.2719
”	-10.2719
▁Mellentaan	-10.2719
▁Màgg	-10.2719
▁Regarde	-10.2719
▁bavard	-10.2719
▁choisi	-10.2719
▁grâce	-10.2719
▁marigot	-10.2719
▁mensonge	-10.2719
▁musulman	-10.2719
▁profit	-10.2719
▁propriétaire	-10.2719
▁proximité	-10.2719
▁ramadan	-10.2719
▁wëndéelu	-10.2719
▁Ëllëg	-10.2719
▁Óbudu	-10.2719
▁Achète	-10.2719
▁bébé	-10.2719
▁disparu	-10.2719
▁radio	-10.2719
▁recherche	-10.2719
▁reconnu	-10.2719
▁rônier	-10.2719
taawun	-10.2719
▁contact	-10.2719
▁dispute	-10.2719
▁remarqu	-10.2719
▁attaché	-10.2719
▁Nigeria	-10.2719
▁pèlerin	-10.2719
▁Tànn	-10.2719
▁canari	-10.2719
▁Coupe	-10.2719
▁bougie	-10.2719
▁penku	-10.2719
▁tâche	-10.2719
▁naqar	-10.2719
▁peuple	-10.2719
▁atteint	-10.2719
▁enlevé	-10.2719
▁protège	-10.2719
extrême	-10.2719
▁drap	-10.2719
▁enfance	-10.2719
▁puissance	-10.2719
▁sûr	-10.2719
▁failli	-10.2719
▁subë	-10.2719
▁veille	-10.2719
âme	-10.2719
▁boroom	-10.2719
▁découvert	-10.2719
▁vaisselle	-10.2719
▁fetal	-10.2719
▁askan	-10.2719
▁yuuxu	-10.2719
▁lessive	-10.272
▁porc	-10.272
▁bënn	-10.272
▁Nettoie	-10.272
▁France	-10.272
▁vécu	-10.272
▁Demain	-10.272
▁compagnie	-10.272
▁campement	-10.272
▁Homme	-10.272
▁peinture	-10.272
▁tilim	-10.272
▁généreux	-10.2721
▁partout	-10.2721
▁sème	-10.2721
▁mbóot	-10.2721
▁solitude	-10.2721
▁palaat	-10.2721
▁rivière	-10.2721
▁perch	-10.2721
▁papier	-10.2721
▁chapeau	-10.2721
▁recouvr	-10.2721
egem	-10.2721
nk	-10.2721
▁Ceeb	-10.2721
▁banaana	-10.2722
▁Enlève	-10.2722
▁clair	-10.2722
▁boeuf	-10.2722
▁bén	-10.2722
▁gauche	-10.2722
▁Àngal	-10.2723
▁manguier	-10.2723
▁connu	-10.2723
▁mouillé	-10.2723
▁départ	-10.2723
▁pexe	-10.2723
▁Pose	-10.2723
▁Allez	-10.2724
▁Xoolal	-10.2724
âtre	-10.2724
▁dong	-10.2725
▁rakk	-10.2725
▁bomb	-10.2725
▁ndënd	-10.2725
hyène	-10.2725
▁capable	-10.2725
▁romb	-10.2725
▁combi	-10.2726
▁Ñàkk	-10.2727
▁wéet	-10.2727
▁jardin	-10.2727
▁cordon	-10.2728
▁défait	-10.2728
▁myst	-10.2728
▁meňň	-10.2729
▁noces	-10.2729
▁wacc	-10.2729
▁simoŋ	-10.2729
▁plaint	-10.273
▁Looloo	-10.2731
▁démb	-10.2731
▁Suba	-10.2731
▁prête	-10.2731
▁Yaram	-10.2731
▁yéex	-10.2732
▁naroon	-10.2733
éeréer	-10.2733
▁naissance	-10.2734
▁nijaay	-10.2734
▁couvert	-10.2734
▁cuit	-10.2734
▁gémmiñ	-10.2734
▁butéel	-10.2735
▁construi	-10.2735
▁nommé	-10.2735
▁Julli	-10.2736
▁sëgg	-10.2737
▁soxor	-10.2737
▁quitté	-10.2737
▁tiré	-10.2738
▁péché	-10.2738
▁gendarmes	-10.2739
▁connaître	-10.274
▁fanaan	-10.2743
▁bouché	-10.2743
▁déeg	-10.2744
asseoir	-10.2746
▁amené	-10.2746
▁lewet	-10.2747
▁vendre	-10.2749
▁amatul	-10.2749
▁pêche	-10.2749
▁jàll	-10.275
▁bukki	-10.275
▁mës	-10.2753
▁voie	-10.2757
▁reew	-10.2758
▁rentré	-10.2759
▁parlé	-10.276
▁interdit	-10.2761
▁lutter	-10.2761
▁cër	-10.2761
▁loxoom	-10.2761
▁dikkul	-10.2763
▁làmp	-10.2764
▁ventre	-10.2764
▁demkoon	-10.2764
▁dof	-10.2766
▁daawul	-10.2767
▁gisaat	-10.2767
▁coucher	-10.2769
▁saxaar	-10.277
▁suux	-10.277
▁Niis	-10.2771
▁sèche	-10.2771
▁dindi	-10.2772
▁rek	-10.2773
▁scorpions	-10.2773
▁esclaves	-10.2773
▁jouer	-10.2775
▁entend	-10.2775
▁Bamendaa	-10.2775
▁vaste	-10.2776
▁cornes	-10.2776
▁esp	-10.2776
▁xolam	-10.2776
▁baayam	-10.2777
▁plaie	-10.2777
▁péri	-10.2777
▁mariée	-10.2779
▁monter	-10.2783
▁sëkk	-10.2784
occi	-10.2785
▁ñeme	-10.2785
▁grosse	-10.2786
▁puiser	-10.279
▁différence	-10.2792
▁jege	-10.2795
▁joor	-10.2796
▁fenn	-10.2799
▁manch	-10.2799
▁mode	-10.2802
▁signe	-10.2802
▁Bien	-10.2808
▁moyens	-10.2809
▁pipe	-10.2813
ndale	-10.2814
▁seng	-10.2814
▁cli	-10.2816
▁làmmiñ	-10.2816
▁Ñii	-10.2817
▁foi	-10.2818
▁tegoon	-10.2818
▁ñan	-10.282
▁yàqu	-10.2822
▁parents	-10.2823
▁chantant	-10.2825
▁tàngaay	-10.2826
▁emport	-10.2828
▁xuus	-10.2829
▁rive	-10.2832
▁mënuma	-10.2835
effe	-10.2837
▁Sors	-10.2838
umes	-10.284
ste	-10.2841
auté	-10.2843
▁jag	-10.2845
▁cartes	-10.2845
▁portent	-10.2847
▁soigner	-10.2849
▁accompagne	-10.285
▁taxoon	-10.2853
▁lève	-10.2855
▁gëdd	-10.2855
▁soi	-10.2861
▁yaw	-10.2868
▁aurais	-10.2874
kki	-10.2878
▁adultes	-10.2881
▁mbuus	-10.2888
▁dekkal	-10.2888
huile	-10.2889
ém	-10.289
▁mukk	-10.2891
▁toogu	-10.2891
utilité	-10.2895
▁image	-10.2901
▁litre	-10.2901
▁lonk	-10.2903
▁jotee	-10.2903
▁prêter	-10.2905
▁cure	-10.2908
▁see	-10.2922
àlli	-10.2925
▁maisons	-10.2935
▁fuir	-10.2938
▁Law	-10.2938
▁jambaa	-10.2942
▁Pe	-10.2946
▁oiseau	-10.2947
▁entrer	-10.2951
▁doigts	-10.2953
▁garçons	-10.2953
▁lëf	-10.2955
▁Taal	-10.2957
▁monte	-10.2958
▁Doon	-10.296
bi	-10.2961
▁Sud	-10.2972
llement	-10.2973
▁aucune	-10.2973
▁To	-10.2974
▁Tan	-10.2974
▁mënee	-10.2977
▁geen	-10.2977
▁yékk	-10.2979
▁Yal	-10.2988
▁herbes	-10.2991
▁caillou	-10.3
▁Yàgg	-10.3002
▁porté	-10.3006
▁sud	-10.3011
entend	-10.3013
▁wow	-10.3018
ner	-10.3036
▁joue	-10.304
▁macc	-10.3042
ères	-10.3051
▁yat	-10.3071
▁tante	-10.3072
▁représente	-10.3078
▁mala	-10.3083
uuf	-10.3086
▁viendrai	-10.3088
▁conten	-10.3091
▁noire	-10.3097
▁rends	-10.3099
▁vis	-10.3106
▁savoir	-10.311
cé	-10.311
▁seetu	-10.3111
▁rage	-10.3123
▁blanches	-10.3137
illes	-10.3143
dolli	-10.3154
ki	-10.3164
▁enseigne	-10.3169
▁nguur	-10.3186
▁néegu	-10.319
ières	-10.3193
▁att	-10.3198
ret	-10.3207
▁situ	-10.3208
of	-10.3223
▁trouver	-10.3229
▁jant	-10.3252
kkal	-10.3255
▁cassée	-10.3267
tique	-10.3268
ngu	-10.3281
pa	-10.3297
▁Yen	-10.3298
▁dàqe	-10.3307
▁Tay	-10.3321
os	-10.3326
▁protect	-10.3329
ordre	-10.3334
exe	-10.334
▁rein	-10.335
omb	-10.3359
▁chiens	-10.336
▁fale	-10.3361
lais	-10.3365
▁dootul	-10.3379
nesi	-10.3382
▁Nan	-10.3385
▁venai	-10.3387
▁làq	-10.3392
ira	-10.3416
▁Peu	-10.3417
▁sib	-10.3421
ition	-10.343
▁cu	-10.343
▁tomba	-10.3433
ëriñ	-10.3441
▁Ngo	-10.3442
ole	-10.3442
dit	-10.3449
waay	-10.3458
▁Yaay	-10.3519
ène	-10.3522
▁mûri	-10.3526
àng	-10.3529
▁serv	-10.3531
oom	-10.3532
▁pleine	-10.3541
poser	-10.3552
▁Éta	-10.3561
▁patte	-10.3571
▁kur	-10.3591
▁ir	-10.3603
▁Dio	-10.365
▁dë	-10.3657
antal	-10.3682
▁all	-10.3684
▁Liggéey	-10.3685
▁kà	-10.3695
▁xet	-10.3712
ing	-10.3767
▁ngee	-10.3787
▁alla	-10.3789
▁waar	-10.3793
▁xo	-10.3805
▁Të	-10.3805
déwén	-10.382
▁fourr	-10.3827
ombre	-10.3829
▁Xol	-10.3829
▁bos	-10.3846
hi	-10.3848
▁dure	-10.3861
ection	-10.3865
▁ñooñ	-10.3866
fay	-10.3881
▁Bët	-10.3899
ab	-10.3911
leurs	-10.3919
ukki	-10.392
rse	-10.3939
▁lax	-10.3945
▁pars	-10.3949
▁chang	-10.3958
▁conc	-10.398
▁tap	-10.3982
▁dab	-10.3998
alee	-10.4001
▁march	-10.4041
étal	-10.4043
▁annonce	-10.4048
ànk	-10.4064
▁sopp	-10.4081
▁plante	-10.4087
▁pose	-10.4102
▁sépar	-10.4117
ettre	-10.4122
▁ati	-10.4129
▁anglais	-10.4139
ack	-10.4161
wo	-10.4173
alement	-10.4182
▁prise	-10.4201
ët	-10.4227
▁Ro	-10.4275
▁tué	-10.4292
va	-10.4297
vant	-10.43
▁Mënul	-10.4307
▁sale	-10.4326
ense	-10.4333
▁lor	-10.4349
asu	-10.436
▁jóo	-10.436
ente	-10.4378
imp	-10.4383
lan	-10.4388
ulli	-10.4394
▁patt	-10.4403
oter	-10.4404
▁yit	-10.441
▁donnera	-10.4423
▁ñal	-10.4428
▁ira	-10.4462
ëddu	-10.4466
▁ware	-10.4479
▁van	-10.4489
per	-10.4491
▁Ter	-10.45
▁qua	-10.4519
asi	-10.4524
▁accept	-10.4526
yez	-10.4546
oublie	-10.4552
▁aar	-10.4564
aali	-10.4582
▁boppu	-10.4582
kof	-10.4585
éet	-10.4612
kaay	-10.4624
▁Sox	-10.4639
▁pet	-10.4665
▁boole	-10.4677
▁nañoo	-10.4686
▁déc	-10.4708
éen	-10.4716
tier	-10.4724
op	-10.4741
▁dëbb	-10.4754
▁ri	-10.4765
ssons	-10.4788
ënd	-10.4806
▁yóbb	-10.4823
ront	-10.4824
uti	-10.4824
mar	-10.4843
▁rev	-10.4844
uwaay	-10.4845
▁jekku	-10.4875
abal	-10.4876
▁char	-10.4881
▁wuu	-10.4901
▁pay	-10.4908
to	-10.4912
▁soigne	-10.4916
ane	-10.4958
▁conte	-10.4965
▁conf	-10.497
▁jotu	-10.4975
rendre	-10.4982
▁safaan	-10.4985
arc	-10.499
cher	-10.4994
▁guerr	-10.5028
aññ	-10.5028
▁pirogue	-10.503
▁secret	-10.503
▁chèvre	-10.5047
▁talisman	-10.5047
▁tomate	-10.5047
▁fenêtre	-10.5052
ekk	-10.5054
▁fatigué	-10.5055
▁comprend	-10.5058
▁pren	-10.5058
▁parole	-10.5066
autorité	-10.5072
▁tama	-10.5073
▁montagne	-10.5085
individu	-10.5087
▁mêmes	-10.5089
oeuf	-10.509
▁gà	-10.5091
▁Ch	-10.5095
affaire	-10.51
gisu	-10.5101
▁pip	-10.5104
F	-10.5106
▁Takk	-10.5107
kati	-10.5107
acheter	-10.5108
jékk	-10.5108
yaram	-10.511
hier	-10.5113
▁fé	-10.5114
▁can	-10.5116
imer	-10.512
▁carte	-10.512
▁gë	-10.5127
achètera	-10.5128
▁Jé	-10.5129
▁mise	-10.5131
▁At	-10.5133
umeur	-10.5137
▁Cha	-10.5138
oûte	-10.5139
▁vin	-10.514
▁jàkk	-10.5141
▁mënu	-10.5142
mal	-10.5145
are	-10.5146
▁tàgg	-10.5147
xel	-10.5148
dëkk	-10.515
ucun	-10.5152
▁confi	-10.5159
▁kàdd	-10.517
▁Ren	-10.5174
aille	-10.5176
▁Léeg	-10.5182
imagine	-10.5182
▁paie	-10.5183
▁woow	-10.5185
toŋ	-10.519
▁Gaa	-10.5197
▁pouvai	-10.5197
llax	-10.5198
▁retard	-10.5198
▁allumé	-10.5199
égét	-10.5201
ňň	-10.5209
éloigne	-10.521
▁facile	-10.521
ateur	-10.5212
▁troupeau	-10.5212
tiennent	-10.5215
àññ	-10.5216
▁pardon	-10.5218
benn	-10.5219
▁commémor	-10.5219
▁ressort	-10.5219
2	-10.5219
egenaay	-10.5219
indépendance	-10.5219
toria	-10.5219
ëllëg	-10.5219
▁Déedéet	-10.5219
▁Eux	-10.5219
▁Georgetown	-10.5219
▁Guwiyaan	-10.5219
▁Modou	-10.5219
▁Monsieur	-10.5219
▁Southampton	-10.5219
▁bonheur	-10.5219
▁britannique	-10.5219
▁bànneex	-10.5219
▁bûcheron	-10.5219
▁conversation	-10.5219
▁coïncid	-10.5219
▁cravache	-10.5219
▁càmmoñ	-10.5219
▁déchiré	-10.5219
▁dëggëntaan	-10.5219
▁envahi	-10.5219
▁gouvernement	-10.5219
▁guró	-10.5219
▁liberté	-10.5219
▁mébét	-10.5219
▁mélang	-10.5219
▁ndanka	-10.5219
▁nostalgie	-10.5219
▁palissade	-10.5219
▁piquant	-10.5219
▁pièce	-10.5219
▁refroidi	-10.5219
▁respire	-10.5219
▁ràkkaaju	-10.5219
▁trempé	-10.5219
▁tàmbali	-10.5219
▁tôle	-10.5219
▁véhicule	-10.5219
▁époux	-10.5219
▁Altine	-10.5219
▁Choisis	-10.5219
▁Maurice	-10.5219
▁démarche	-10.5219
▁mêle	-10.5219
▁traîne	-10.5219
▁xamantane	-10.5219
amertume	-10.5219
argile	-10.5219
humanité	-10.5219
▁Laobe	-10.5219
▁Louga	-10.5219
▁chanson	-10.5219
▁gàddu	-10.5219
▁piqué	-10.5219
▁surveillan	-10.5219
▁daŋar	-10.5219
▁ndaje	-10.5219
▁grenier	-10.5219
▁marqué	-10.5219
▁mourir	-10.5219
▁ŋeeñ	-10.5219
▁kéemaane	-10.5219
▁bàmmeel	-10.5219
▁ngooñ	-10.5219
▁abattu	-10.5219
▁moitié	-10.5219
keddoo	-10.5219
▁Macron	-10.5219
▁ramass	-10.5219
▁mémoire	-10.5219
▁asséché	-10.5219
▁gëléem	-10.5219
▁lislaam	-10.5219
▁charbon	-10.5219
▁jeûne	-10.5219
▁ŋgoon	-10.5219
▁tàyyi	-10.5219
▁vêtu	-10.5219
▁Fecc	-10.5219
▁yalwaan	-10.5219
▁semaine	-10.5219
▁tubéy	-10.5219
▁jàngoro	-10.5219
▁oublié	-10.5219
▁parcour	-10.5219
▁réception	-10.5219
▁jamano	-10.5219
▁coono	-10.5219
▁provoqu	-10.5219
▁foofa	-10.5219
▁Juróom	-10.5219
▁Guyane	-10.5219
▁comporte	-10.5219
▁crédit	-10.5219
▁tooñ	-10.5219
▁dimmali	-10.5219
▁plaisanterie	-10.5219
▁Parfois	-10.522
▁faudra	-10.522
▁Africains	-10.522
▁Prophète	-10.522
▁malheur	-10.522
▁richesse	-10.522
▁trente	-10.522
▁pauvre	-10.522
▁également	-10.522
▁genoux	-10.522
▁tubay	-10.522
▁fiiriir	-10.522
▁njàng	-10.522
▁sotti	-10.522
▁grossesse	-10.522
amitié	-10.522
▁fourch	-10.522
▁wodd	-10.522
▁simila	-10.522
▁Ubbi	-10.5221
▁cousu	-10.5221
▁feyyu	-10.5221
▁Géj	-10.5221
▁dessiné	-10.5221
▁anc	-10.5221
▁déjeuner	-10.5221
▁caractère	-10.5221
▁jaaxle	-10.5221
▁changement	-10.5221
▁delsi	-10.5221
▁keroog	-10.5221
▁werante	-10.5221
▁bateau	-10.5222
▁paternelle	-10.5222
▁tenait	-10.5222
▁distance	-10.5222
▁supporter	-10.5222
▁accus	-10.5222
▁circoncision	-10.5222
▁mbokk	-10.5222
▁Suukar	-10.5222
obé	-10.5222
▁Dagg	-10.5222
▁rompre	-10.5223
▁Tànk	-10.5223
▁xocc	-10.5223
▁précédé	-10.5223
▁sentiment	-10.5223
▁gosse	-10.5223
▁réparti	-10.5223
ňax	-10.5224
▁étages	-10.5224
▁Ñooñu	-10.5224
▁contraire	-10.5224
abandon	-10.5224
▁sunguf	-10.5224
▁sondeel	-10.5224
▁croire	-10.5224
▁blesser	-10.5224
▁delloo	-10.5224
▁Wàcc	-10.5224
▁joie	-10.5225
▁surpris	-10.5225
▁mbër	-10.5225
▁sàngara	-10.5225
egg	-10.5225
▁servir	-10.5225
▁Dëgg	-10.5225
▁Sérère	-10.5225
▁naître	-10.5225
ddanti	-10.5226
▁daqaar	-10.5227
▁ñeex	-10.5227
▁Jabar	-10.5227
▁tissé	-10.5227
▁couture	-10.5228
▁réduit	-10.5228
▁xef	-10.5228
aube	-10.5228
▁Mës	-10.5228
▁jullee	-10.5228
▁fitna	-10.5228
▁causerie	-10.5228
▁Foofa	-10.5229
▁nanguwul	-10.5229
▁salaire	-10.5229
▁bów	-10.5229
▁Weer	-10.5229
▁beauté	-10.523
▁appelé	-10.523
▁croc	-10.5231
bill	-10.5231
▁doux	-10.5231
▁ponkal	-10.5231
▁xeeñ	-10.5232
▁voient	-10.5232
▁soirée	-10.5232
▁rapidement	-10.5233
▁Dinañu	-10.5234
▁semer	-10.5234
▁existe	-10.5234
▁fuuf	-10.5234
▁jomm	-10.5235
gumbe	-10.5235
▁mbaxana	-10.5236
▁Sàll	-10.5236
▁blo	-10.5236
▁téj	-10.5237
▁cache	-10.5238
▁silence	-10.5238
▁Dox	-10.5239
▁Luga	-10.5239
▁humaine	-10.5239
▁dëkkandoo	-10.5239
▁Obudu	-10.5239
▁semblable	-10.5239
▁caché	-10.524
▁chéri	-10.524
ignée	-10.524
▁Ibo	-10.524
▁respect	-10.524
▁soci	-10.524
▁kóllëre	-10.524
▁séq	-10.524
▁exemple	-10.5241
▁fumée	-10.5241
▁njàpp	-10.5241
▁forge	-10.5243
▁dort	-10.5243
▁café	-10.5243
▁téeméer	-10.5244
cax	-10.5244
▁rencontrer	-10.5244
▁Mbaam	-10.5244
▁conduis	-10.5245
▁traces	-10.5245
▁meubles	-10.5245
▁braises	-10.5245
▁quitter	-10.5247
▁tank	-10.5249
▁Kaw	-10.5249
▁clin	-10.525
▁vit	-10.5252
▁Foofu	-10.5253
▁Laaj	-10.5253
texte	-10.5253
▁noble	-10.5253
▁pegg	-10.5254
▁gumba	-10.5254
▁alk	-10.5254
▁sueur	-10.5255
dimmal	-10.5255
▁lampe	-10.5255
yàlla	-10.5256
ñeen	-10.5256
ctuellement	-10.5256
▁naaxi	-10.5256
▁Sàkk	-10.5257
▁xib	-10.5258
▁Toog	-10.5258
▁ňuul	-10.5259
▁avance	-10.526
▁frappé	-10.5262
▁nuage	-10.5262
▁Taw	-10.5262
▁Noona	-10.5262
▁coutu	-10.5264
▁jaaro	-10.5264
intention	-10.5265
▁projeté	-10.5265
▁canne	-10.5266
▁Mënuma	-10.5266
▁utilise	-10.5267
dar	-10.5267
▁vét	-10.5268
▁foin	-10.5268
▁létt	-10.5268
▁ŋgoogu	-10.5269
ailleurs	-10.5271
▁kukk	-10.5271
▁bassine	-10.5272
▁honnête	-10.5274
dire	-10.5274
offr	-10.5275
▁màggal	-10.5275
▁fâché	-10.5275
▁bëggée	-10.5277
▁sagar	-10.5277
▁étranger	-10.5278
dépend	-10.5278
▁soof	-10.5278
▁inter	-10.5278
delà	-10.5281
▁sentier	-10.5282
▁état	-10.5283
mbax	-10.5283
▁Bal	-10.5284
▁touffe	-10.5285
▁Verse	-10.5285
▁apprend	-10.5286
▁xaritoo	-10.5288
▁Ñaan	-10.529
▁fibres	-10.5291
▁pinces	-10.5291
▁vieillards	-10.5291
▁nourriss	-10.5291
▁sert	-10.5293
▁dàtt	-10.5297
▁bakkan	-10.5298
▁échapp	-10.5299
▁Chacun	-10.5299
▁xosi	-10.53
▁paan	-10.53
▁njar	-10.53
▁wetam	-10.53
▁mbooloo	-10.5304
évent	-10.5304
▁ñaxtu	-10.5305
▁rentrer	-10.5306
▁commencer	-10.5307
▁duggee	-10.5307
▁kaa	-10.5307
▁rire	-10.5308
▁enfin	-10.5308
▁tuuru	-10.5309
▁aumône	-10.5309
▁hôte	-10.5309
▁habituelle	-10.5313
▁kañ	-10.5316
▁Won	-10.5317
jàmbaar	-10.5317
▁kafe	-10.5321
▁féex	-10.5321
▁destinat	-10.5322
▁reer	-10.5326
éré	-10.5327
▁suite	-10.5327
▁pressé	-10.5331
▁Nice	-10.5333
▁sauvages	-10.5338
▁vagues	-10.5338
).	-10.5338
▁Seul	-10.5339
▁peer	-10.5341
har	-10.5341
▁oeuf	-10.5346
▁Yoon	-10.5347
euses	-10.5354
achèterai	-10.5355
▁dirai	-10.5359
▁jeeg	-10.5359
▁feeñu	-10.536
▁xaritam	-10.536
▁vide	-10.5361
▁masuma	-10.5362
▁créé	-10.5362
▁nécessit	-10.5364
▁Jambaa	-10.5368
▁dikkee	-10.5372
▁rikk	-10.5373
▁nawet	-10.5373
▁Noo	-10.5376
▁bleue	-10.5377
▁yab	-10.5379
▁liggéeyam	-10.5381
▁fatigués	-10.5385
▁brûler	-10.5386
▁sommeil	-10.5387
▁comprends	-10.539
jaar	-10.5391
▁gàttal	-10.5392
▁Yar	-10.5397
▁Woy	-10.5397
orange	-10.5399
▁Xé	-10.54
▁pont	-10.5401
▁tenu	-10.5401
▁ndà	-10.5402
▁suur	-10.541
▁Teen	-10.541
ieux	-10.5411
▁njoo	-10.5416
ulée	-10.5419
ënk	-10.5421
▁souci	-10.5423
▁Ñun	-10.5424
▁os	-10.5425
▁press	-10.5427
gée	-10.5429
▁mangues	-10.5433
▁wuti	-10.5435
▁iras	-10.5441
▁cultiver	-10.545
iisu	-10.5452
▁yore	-10.5455
▁puj	-10.5455
▁jaune	-10.5455
▁wer	-10.5466
omm	-10.5467
▁taxawal	-10.5467
▁cadeau	-10.547
▁toolu	-10.5473
ive	-10.5473
gorge	-10.5478
▁branches	-10.5481
taal	-10.5486
▁tiis	-10.5487
▁sec	-10.549
▁ñee	-10.549
▁wees	-10.5495
out	-10.5497
àbbe	-10.5502
▁préserve	-10.5506
▁bey	-10.5511
▁six	-10.5512
▁noor	-10.5519
cu	-10.5525
weer	-10.5528
▁herbe	-10.5529
▁Fat	-10.554
gub	-10.5543
▁rees	-10.5545
▁metit	-10.5547
éwël	-10.5568
vêtement	-10.5571
▁provi	-10.5572
▁sois	-10.5575
▁diir	-10.5576
▁vivres	-10.5577
ards	-10.558
lli	-10.5586
og	-10.559
aanaka	-10.5595
fique	-10.5603
àjj	-10.5605
▁fui	-10.5607
tom	-10.5607
▁sauve	-10.5613
▁lang	-10.5614
▁vé	-10.5616
mbal	-10.562
▁toogal	-10.5623
óoli	-10.5623
▁Kil	-10.5624
andiku	-10.5627
ément	-10.5629
▁Bo	-10.5632
art	-10.5637
▁Xee	-10.5637
alante	-10.5639
▁liggéeyu	-10.5641
▁cultive	-10.5645
tourné	-10.5649
▁Sor	-10.5655
▁lance	-10.5659
▁Nag	-10.566
▁haute	-10.5668
faire	-10.5672
▁neneen	-10.5675
▁laisses	-10.5687
▁rapporte	-10.5693
▁Gore	-10.5698
ppu	-10.5704
▁tër	-10.5708
▁tours	-10.5721
tance	-10.5725
▁épi	-10.5731
▁verte	-10.5736
▁tir	-10.5763
▁Gal	-10.5779
▁nan	-10.5782
▁collect	-10.5793
aati	-10.5795
▁bëy	-10.5795
▁noirs	-10.5797
▁crise	-10.5802
angu	-10.5811
lée	-10.5811
▁rouges	-10.5823
▁sent	-10.5828
▁xame	-10.5828
▁souhaite	-10.5832
▁éclat	-10.584
▁Faat	-10.5854
▁manifeste	-10.5857
adresse	-10.5859
sion	-10.5877
quelles	-10.5886
▁caf	-10.5889
▁Pari	-10.5892
▁suma	-10.5908
▁midi	-10.5911
▁yeewe	-10.5931
▁àtte	-10.594
ance	-10.5944
▁jee	-10.597
▁routes	-10.5972
épi	-10.5977
▁int	-10.5991
ban	-10.6006
▁wàccee	-10.6036
por	-10.6049
jour	-10.6063
aaxi	-10.6063
▁course	-10.6073
▁Xare	-10.6078
▁accepte	-10.6092
ho	-10.6097
▁daane	-10.6114
▁tan	-10.6131
▁bel	-10.6137
▁mor	-10.6148
▁jaas	-10.6151
▁Ag	-10.6154
▁gale	-10.6161
▁duré	-10.6168
andaar	-10.6182
abaar	-10.6183
jag	-10.6186
▁br	-10.6194
▁kas	-10.62
rendra	-10.6212
ck	-10.6214
onk	-10.6235
▁cham	-10.6241
▁mbo	-10.6241
▁sos	-10.6248
▁cuu	-10.6272
▁Too	-10.629
▁cha	-10.6291
▁cap	-10.6299
iiw	-10.6302
icc	-10.6305
ñaa	-10.6306
▁allés	-10.631
▁Bon	-10.6316
▁jo	-10.6341
▁retourne	-10.6353
exerce	-10.6366
▁trava	-10.6371
eaux	-10.6371
▁regarder	-10.638
▁taar	-10.6381
bre	-10.639
▁biiru	-10.6392
co	-10.6394
▁goo	-10.6414
ires	-10.6415
esse	-10.6422
atee	-10.6434
▁ňa	-10.6435
anu	-10.6452
▁sépare	-10.6462
xaar	-10.6473
▁dëppoo	-10.6479
▁saaw	-10.648
eral	-10.6489
▁mille	-10.65
▁Dara	-10.6508
▁posée	-10.6512
▁lekke	-10.6554
rection	-10.6557
mé	-10.6557
tti	-10.6574
portant	-10.6581
▁boue	-10.6586
tière	-10.6589
▁voitures	-10.659
▁ňe	-10.6598
firi	-10.66
▁profond	-10.6611
ace	-10.6629
wal	-10.6633
▁liy	-10.6633
etti	-10.6637
tente	-10.6643
ell	-10.6649
▁parties	-10.6656
andoo	-10.666
ulwoon	-10.6672
▁réserve	-10.6683
▁jàngale	-10.6697
▁attache	-10.6697
▁gore	-10.6717
▁xuu	-10.6736
▁Car	-10.6738
▁frappe	-10.6744
ana	-10.6756
▁réserv	-10.6814
éwén	-10.6821
▁voulai	-10.6835
ñse	-10.6838
▁dépe	-10.684
atuma	-10.6862
▁pr	-10.6866
▁ree	-10.6893
▁Bare	-10.6904
uyaab	-10.6912
▁priv	-10.6922
▁ch	-10.6936
▁lég	-10.6942
mo	-10.6943
▁Sax	-10.6944
ign	-10.6945
▁laxas	-10.6947
▁form	-10.6953
▁mbu	-10.696
▁pala	-10.6965
rak	-10.6971
▁Sar	-10.6983
llet	-10.7001
àttaay	-10.7018
épic	-10.7038
▁refus	-10.7046
▁Wo	-10.7086
▁présente	-10.7089
tement	-10.7096
▁kat	-10.7102
▁sangl	-10.7115
▁Warul	-10.7129
ston	-10.7138
dé	-10.7142
bb	-10.7155
saa	-10.7164
▁kë	-10.7172
▁fon	-10.7175
▁yëng	-10.718
iques	-10.718
▁dëpp	-10.7184
sag	-10.7187
▁taamu	-10.7212
àllu	-10.7215
wee	-10.7223
taan	-10.7226
vait	-10.7252
▁mûr	-10.7255
kku	-10.7257
ades	-10.7262
▁Ru	-10.7264
aura	-10.7294
aleek	-10.7303
▁Jo	-10.7305
▁sag	-10.7307
▁dàqu	-10.7314
▁Fab	-10.7322
aine	-10.7335
ibles	-10.7342
aise	-10.7358
ental	-10.7361
▁mortel	-10.7362
▁dajee	-10.7366
tendu	-10.737
oof	-10.7375
th	-10.7377
égo	-10.7378
▁Baxa	-10.7381
lotte	-10.7392
fe	-10.7401
koom	-10.7413
▁certain	-10.7433
aane	-10.7435
▁Tel	-10.7446
▁ngon	-10.7449
lions	-10.7467
▁në	-10.7469
kin	-10.748
onner	-10.7484
érie	-10.7488
ano	-10.7498
▁peto	-10.7503
▁meññ	-10.7512
étail	-10.7521
ric	-10.753
isser	-10.7552
▁taxu	-10.7571
oindre	-10.7573
isons	-10.7595
▁poulet	-10.7596
éere	-10.7597
àngale	-10.7601
▁mord	-10.7614
▁Suy	-10.7629
exal	-10.7644
▁puiss	-10.765
usée	-10.7651
▁descend	-10.7672
akkal	-10.7685
▁gr	-10.7692
pus	-10.7697
▁sàq	-10.7707
▁fée	-10.7708
mage	-10.7716
▁Fil	-10.7729
ram	-10.7729
position	-10.7738
▁Mbe	-10.7739
ànq	-10.7739
▁révolte	-10.7745
▁wóolu	-10.7773
▁né	-10.778
ccax	-10.7793
éef	-10.7795
▁Pin	-10.7803
kaar	-10.7805
▁lam	-10.7821
▁Gée	-10.7825
éex	-10.7834
▁Bay	-10.7851
▁Bool	-10.7868
▁Té	-10.7898
▁wë	-10.7901
lbé	-10.7924
arr	-10.7937
axal	-10.795
àdd	-10.796
accepte	-10.7979
eket	-10.7979
chant	-10.8004
▁ñibbi	-10.8005
▁më	-10.8028
laata	-10.8031
▁ouvert	-10.8039
▁cousin	-10.8041
lë	-10.8043
isé	-10.8054
▁bru	-10.8054
▁ñag	-10.8055
▁ë	-10.8069
ets	-10.807
ât	-10.8088
rag	-10.8093
▁casser	-10.81
▁sauv	-10.8108
aires	-10.8114
▁ouvri	-10.8117
▁yaru	-10.8118
rat	-10.8122
iir	-10.8134
ndeer	-10.8137
lier	-10.814
▁pend	-10.8144
▁sukk	-10.8153
▁juge	-10.8161
koo	-10.8169
▁Koo	-10.817
▁waxin	-10.817
▁law	-10.8174
▁plai	-10.8176
▁yen	-10.818
▁plan	-10.8181
▁h	-10.8184
vons	-10.8196
▁ind	-10.8211
tures	-10.8223
▁mujj	-10.8231
▁pleure	-10.8245
▁disp	-10.8247
▁Ar	-10.8263
▁ndo	-10.8264
appel	-10.8269
▁coton	-10.8274
▁jat	-10.8276
uris	-10.8285
maak	-10.8286
semé	-10.829
habit	-10.8295
▁présen	-10.8305
▁Ko	-10.8312
off	-10.8317
▁wal	-10.8333
▁dress	-10.8343
alité	-10.8347
achète	-10.836
ewaan	-10.8361
▁domaine	-10.8364
▁policier	-10.8364
▁utile	-10.8364
▁vert	-10.837
édu	-10.8372
▁lèvre	-10.8381
▁futt	-10.8381
▁assiette	-10.8381
arachide	-10.8382
dànk	-10.8388
▁sauvage	-10.8391
oreille	-10.8391
▁pierre	-10.8396
▁julli	-10.8397
▁rattax	-10.8399
annonce	-10.8399
occupe	-10.8399
▁fruit	-10.8403
▁yër	-10.8404
▁Attend	-10.8406
▁palme	-10.8407
interprète	-10.8407
occasion	-10.8407
▁filet	-10.8407
▁étrang	-10.8407
▁armé	-10.8409
▁passera	-10.841
rouler	-10.8414
écouter	-10.8416
▁vague	-10.8416
rément	-10.8416
interroge	-10.8418
▁arraché	-10.842
iste	-10.8421
jambe	-10.8422
▁joli	-10.8423
aumône	-10.8427
hôte	-10.8427
uses	-10.8431
féex	-10.8432
▁Ndey	-10.8432
yëngu	-10.8436
donc	-10.8437
feebar	-10.8438
vienne	-10.8438
▁terr	-10.8438
géej	-10.8439
làmmiñ	-10.8442
agit	-10.8443
▁Mii	-10.8443
jàmm	-10.8445
S	-10.8445
▁moyen	-10.8449
hors	-10.8451
enlève	-10.8452
▁cin	-10.8452
asal	-10.8454
ŋga	-10.8457
biir	-10.8459
▁tó	-10.846
fois	-10.8462
ébr	-10.8469
nous	-10.847
ciel	-10.8472
▁fâch	-10.8474
▁kaf	-10.8485
▁nirool	-10.849
▁chev	-10.849
utilis	-10.8492
▁sébb	-10.8493
allait	-10.8498
éteint	-10.8506
avantage	-10.8509
olli	-10.8515
ool	-10.8515
▁clé	-10.8516
▁rencontre	-10.8517
▁rëb	-10.852
baat	-10.8525
emblant	-10.8529
▁bày	-10.853
uscule	-10.853
▁El	-10.8531
▁épuis	-10.8533
▁dîn	-10.8533
avant	-10.8533
▁repos	-10.8533
▁fow	-10.8534
▁essay	-10.8534
▁termit	-10.8534
▁jambe	-10.8536
▁mouch	-10.8539
▁termin	-10.8539
ession	-10.8542
éché	-10.8545
▁religi	-10.8546
amono	-10.8546
▁Babungo	-10.8547
gonflé	-10.8548
▁compagn	-10.855
▁plaisante	-10.8551
ançai	-10.8551
0	-10.8552
entraîn	-10.8552
ège	-10.8552
▁constip	-10.8552
▁Ñëw	-10.8552
Angleterre	-10.8552
estomac	-10.8552
expérience	-10.8552
extérieur	-10.8552
iffés	-10.8552
mêlé	-10.8552
nstituer	-10.8552
urgence	-10.8552
▁Ayijoo	-10.8552
▁Casamance	-10.8552
▁Emmène	-10.8552
▁Frãs	-10.8552
▁Génnéel	-10.8552
▁Khadi	-10.8552
▁Office	-10.8552
▁Soudain	-10.8552
▁aperçoi	-10.8552
▁assassin	-10.8552
▁bagages	-10.8552
▁baptême	-10.8552
▁brebis	-10.8552
▁brusquement	-10.8552
▁chapelet	-10.8552
▁chauve	-10.8552
▁chaîne	-10.8552
▁coiffe	-10.8552
▁comestible	-10.8552
▁couvercle	-10.8552
▁crème	-10.8552
▁culture	-10.8552
▁dankalikoo	-10.8552
▁difficulté	-10.8552
▁dimanche	-10.8552
▁domicile	-10.8552
▁dysenterie	-10.8552
▁désespér	-10.8552
▁efficace	-10.8552
▁extraordinaire	-10.8552
▁flétri	-10.8552
▁immeuble	-10.8552
▁kilifteef	-10.8552
▁kàllaama	-10.8552
▁leçon	-10.8552
▁lijaasa	-10.8552
▁liquide	-10.8552
▁luxuriante	-10.8552
▁nguuka	-10.8552
▁officer	-10.8552
▁officiel	-10.8552
▁officier	-10.8552
▁paludisme	-10.8552
▁perçoi	-10.8552
▁poitrine	-10.8552
▁probable	-10.8552
▁publique	-10.8552
▁remercie	-10.8552
▁réconcili	-10.8552
▁réponse	-10.8552
▁secoué	-10.8552
▁secrète	-10.8552
▁subitement	-10.8552
▁superpos	-10.8552
▁technique	-10.8552
▁tradition	-10.8552
▁trône	-10.8552
▁tànn	-10.8552
▁xëm	-10.8552
▁xëyee	-10.8552
▁épaules	-10.8552
▁étudie	-10.8552
▁ófise	-10.8552
arrêta	-10.8552
▁Essuie	-10.8552
▁Jëkkër	-10.8552
▁Tartar	-10.8552
▁Us	-10.8552
▁adapt	-10.8552
▁applique	-10.8552
▁gên	-10.8552
▁méprise	-10.8552
▁résolu	-10.8552
ospital	-10.8552
▁Chuku	-10.8552
▁campagne	-10.8552
▁foulard	-10.8552
▁gësëm	-10.8552
▁islamique	-10.8552
▁maturité	-10.8552
▁mâle	-10.8552
▁secours	-10.8552
▁touché	-10.8552
apprête	-10.8552
entourent	-10.8552
économi	-10.8552
▁Birayim	-10.8552
▁Deŋk	-10.8552
▁alentour	-10.8552
▁entouré	-10.8552
▁fluide	-10.8552
▁méfi	-10.8552
▁pouvoir	-10.8552
▁égaux	-10.8552
séquence	-10.8552
▁calcul	-10.8552
▁circul	-10.8552
▁entièrement	-10.8552
▁griff	-10.8552
▁obs	-10.8552
▁vingt	-10.8552
aîtrise	-10.8552
▁ablutions	-10.8552
▁déedéet	-10.8552
▁fagot	-10.8552
▁transperc	-10.8552
▁trompe	-10.8552
▁témoin	-10.8552
obul	-10.8552
▁commun	-10.8552
▁lottal	-10.8552
▁ŋacc	-10.8552
▁gâteau	-10.8552
▁niébé	-10.8552
▁poches	-10.8552
éteindre	-10.8552
▁Sàmba	-10.8552
▁véritable	-10.8552
▁récipient	-10.8552
▁Yemal	-10.8552
▁njàmbal	-10.8552
▁plong	-10.8552
▁Fàttewu	-10.8552
▁parfum	-10.8552
▁vaurien	-10.8552
▁blessure	-10.8552
▁résist	-10.8552
héberg	-10.8552
▁menace	-10.8552
▁soldat	-10.8552
▁moustique	-10.8552
▁Attache	-10.8552
▁fabriqu	-10.8552
▁fureur	-10.8552
▁samedi	-10.8552
▁variole	-10.8552
▁bouger	-10.8552
▁genre	-10.8552
▁quantité	-10.8552
▁Polisoŋ	-10.8552
▁goutte	-10.8552
▁prospère	-10.8552
▁diff	-10.8552
▁découvre	-10.8552
▁xumbal	-10.8552
▁junniy	-10.8553
▁sàmba	-10.8553
▁ayubes	-10.8553
▁constat	-10.8553
▁fulaar	-10.8553
▁heurt	-10.8553
▁réccu	-10.8553
▁Dellu	-10.8553
▁fuddën	-10.8553
▁kàmpa	-10.8553
▁service	-10.8553
▁fulla	-10.8553
▁yilif	-10.8553
▁enroulé	-10.8553
▁gedd	-10.8553
▁bref	-10.8553
▁fàn	-10.8553
▁ràññee	-10.8553
▁graisse	-10.8553
▁féewal	-10.8553
▁guitar	-10.8553
▁Plie	-10.8553
▁Yawut	-10.8553
▁njiit	-10.8553
▁coincé	-10.8553
▁famine	-10.8553
▁wurus	-10.8553
▁rejoindr	-10.8553
turne	-10.8553
▁bélier	-10.8553
▁conserv	-10.8553
▁oublier	-10.8553
islam	-10.8553
▁ngoog	-10.8553
▁caabi	-10.8553
▁volets	-10.8553
▁paradis	-10.8553
▁aliment	-10.8553
▁béjjén	-10.8553
▁turban	-10.8553
▁Simis	-10.8553
▁réservoir	-10.8553
▁nammeel	-10.8553
▁docteur	-10.8553
▁mbëtt	-10.8553
icule	-10.8553
▁serré	-10.8553
▁ressentir	-10.8553
▁ennemis	-10.8553
▁histoires	-10.8553
▁dóomu	-10.8553
▁Saalum	-10.8553
▁compos	-10.8553
▁machin	-10.8553
▁douce	-10.8553
▁waxambaane	-10.8554
▁Yëng	-10.8554
▁cotis	-10.8554
llemand	-10.8554
▁paquet	-10.8554
▁écriture	-10.8554
▁woyof	-10.8554
▁mbartal	-10.8554
▁njég	-10.8554
emmène	-10.8554
▁nuuru	-10.8554
gànnaar	-10.8554
▁mbindeef	-10.8554
▁Seytaane	-10.8554
▁lugat	-10.8554
▁percé	-10.8554
▁dàgg	-10.8554
▁dëll	-10.8554
▁ongle	-10.8554
apparaissent	-10.8554
▁glac	-10.8554
▁terme	-10.8554
▁bàkkaar	-10.8554
▁kalaate	-10.8554
▁jonn	-10.8554
▁kéwél	-10.8554
itude	-10.8554
▁Alxuraan	-10.8555
▁dagan	-10.8555
▁accé	-10.8555
▁wasin	-10.8555
▁yett	-10.8555
▁bagaas	-10.8555
▁fronce	-10.8555
▁écrivent	-10.8555
▁vêtements	-10.8555
▁médicale	-10.8555
▁traite	-10.8555
▁solide	-10.8555
▁sooke	-10.8555
▁tabac	-10.8555
▁insou	-10.8555
onore	-10.8555
▁clou	-10.8555
▁gifle	-10.8555
▁Kepp	-10.8555
▁pareils	-10.8555
▁poing	-10.8555
▁colonne	-10.8555
▁habitants	-10.8555
▁janeer	-10.8556
▁pension	-10.8556
▁résonn	-10.8556
wlin	-10.8556
▁gerbe	-10.8556
▁pardonne	-10.8556
▁jumtukaay	-10.8556
▁faît	-10.8556
▁joxoñ	-10.8556
▁valet	-10.8556
▁këtt	-10.8556
▁jàppandal	-10.8556
▁bonbon	-10.8556
▁yoxoom	-10.8556
▁rëcc	-10.8556
▁connaissais	-10.8556
▁pourtant	-10.8556
▁haie	-10.8556
▁téter	-10.8556
▁promen	-10.8556
▁détermination	-10.8557
▁Fekk	-10.8557
▁détr	-10.8557
▁voleur	-10.8557
▁Port	-10.8557
▁gétt	-10.8557
aiguille	-10.8557
▁karaw	-10.8557
▁collé	-10.8557
▁souvent	-10.8557
▁Coow	-10.8558
▁deewee	-10.8558
éléphant	-10.8558
▁henné	-10.8558
▁renversé	-10.8558
poussiér	-10.8558
▁inquiet	-10.8558
compt	-10.8558
▁Nord	-10.8558
▁réveillé	-10.8558
▁soufflé	-10.8558
agace	-10.8558
▁travailleurs	-10.8558
▁suuxat	-10.8558
▁forox	-10.8559
écroul	-10.8559
▁gàjj	-10.8559
▁lentement	-10.8559
▁pilon	-10.8559
▁Mësuma	-10.856
▁bâtiment	-10.856
▁religieuse	-10.856
▁mëdd	-10.856
▁vivaient	-10.856
▁jëw	-10.856
▁xàll	-10.856
▁récolter	-10.856
▁piti	-10.856
▁rawante	-10.856
▁soosu	-10.8561
▁chair	-10.8561
▁ruuj	-10.8561
rvu	-10.8561
▁conjo	-10.8561
Meew	-10.8561
▁sabab	-10.8561
cture	-10.8561
▁ndeysaan	-10.8562
▁Bokk	-10.8562
▁ngénte	-10.8562
▁message	-10.8562
▁rang	-10.8562
▁jinax	-10.8562
▁Dencal	-10.8562
▁sorewul	-10.8562
▁perles	-10.8562
▁vautour	-10.8562
gganti	-10.8562
▁doq	-10.8563
▁troupeaux	-10.8563
eroog	-10.8563
▁mulet	-10.8563
▁Ijama	-10.8563
▁désir	-10.8564
▁palaas	-10.8564
▁douleur	-10.8564
▁appeler	-10.8564
▁jaxasoo	-10.8564
▁bóom	-10.8564
tan	-10.8564
▁yemale	-10.8564
kiis	-10.8564
efface	-10.8564
▁tàccu	-10.8564
▁légère	-10.8565
▁yàkkamti	-10.8565
▁salon	-10.8565
▁dékk	-10.8565
▁reyante	-10.8565
▁oiseaux	-10.8565
▁ruux	-10.8565
▁Mbur	-10.8565
▁anneau	-10.8565
▁firiku	-10.8565
▁poux	-10.8565
ngom	-10.8566
▁raide	-10.8566
▁chaise	-10.8566
▁Satan	-10.8566
▁paresseu	-10.8566
duis	-10.8567
▁kaaŋ	-10.8567
▁Fey	-10.8567
uezz	-10.8567
▁Dinga	-10.8568
▁fuite	-10.8568
▁ruus	-10.8568
▁complet	-10.8568
▁déborda	-10.8568
▁rugi	-10.8569
▁ngunu	-10.8569
▁gardé	-10.8569
▁geree	-10.8569
▁wékk	-10.8569
▁Garde	-10.8569
▁Mësul	-10.8569
▁xaax	-10.8569
▁taaxum	-10.857
▁placé	-10.857
▁jàdd	-10.857
▁creusé	-10.857
▁termites	-10.857
▁pommes	-10.857
▁carax	-10.857
ëŋŋ	-10.8571
▁aboie	-10.8571
▁Làmb	-10.8571
▁jublu	-10.8571
▁clairière	-10.8571
▁doj	-10.8571
▁dîner	-10.8571
▁essayer	-10.8571
▁aada	-10.8571
▁répondre	-10.8572
▁lièvre	-10.8572
▁larmes	-10.8572
▁loup	-10.8574
▁yànj	-10.8574
▁suivant	-10.8574
rool	-10.8575
ardin	-10.8575
▁revoir	-10.8575
▁transporté	-10.8575
▁suivent	-10.8576
▁Dàll	-10.8576
▁trembl	-10.8576
kh	-10.8576
fër	-10.8577
anges	-10.8578
▁Mor	-10.8578
▁reposer	-10.8578
▁Lundi	-10.8578
ndaŋ	-10.8578
▁tafu	-10.8578
▁saaga	-10.8578
▁poison	-10.8578
▁refuser	-10.8579
▁raglu	-10.858
▁gunge	-10.858
▁nombreuse	-10.858
▁daara	-10.858
▁móol	-10.8581
▁Yor	-10.8581
▁refusé	-10.8581
▁Gaynde	-10.8581
▁divine	-10.8581
▁rajaxe	-10.8581
▁tort	-10.8581
xaa	-10.8581
▁peint	-10.8581
▁xóll	-10.8581
▁science	-10.8581
▁ndigal	-10.8582
▁gànnaay	-10.8582
▁hé	-10.8582
▁intime	-10.8582
▁yoll	-10.8582
▁njort	-10.8582
▁ngóor	-10.8582
▁jaambaar	-10.8582
▁rayon	-10.8583
▁trouée	-10.8583
▁jàppale	-10.8583
▁dépass	-10.8583
▁brûle	-10.8584
▁inci	-10.8585
▁ramp	-10.8585
▁défens	-10.8585
▁labat	-10.8585
▁devin	-10.8585
▁Sànd	-10.8587
▁Tugël	-10.8588
▁coudre	-10.8588
▁apparu	-10.8588
▁pàkk	-10.8589
▁jàppante	-10.8589
▁éraflé	-10.8589
isol	-10.8589
▁ayib	-10.8589
▁puur	-10.859
▁courba	-10.859
▁sikki	-10.859
▁épar	-10.859
▁cercl	-10.859
▁kalaas	-10.859
▁raŋ	-10.859
▁postu	-10.859
écorc	-10.859
▁pistes	-10.8591
▁lointains	-10.8591
▁sœurs	-10.8591
▁ustensiles	-10.8591
▁ër	-10.8591
rop	-10.8591
▁perdue	-10.8591
▁humains	-10.8591
▁animal	-10.8592
▁cuisses	-10.8592
▁courtis	-10.8592
▁porteurs	-10.8592
assure	-10.8592
▁colle	-10.8592
▁guéris	-10.8592
▁Maure	-10.8592
▁Xadi	-10.8593
▁sànneek	-10.8594
▁emploi	-10.8594
▁dattes	-10.8594
▁marque	-10.8596
raffin	-10.8596
atteindr	-10.8597
▁ñaq	-10.8597
▁jàq	-10.8597
▁partons	-10.8597
▁soxal	-10.8598
▁sox	-10.86
▁bande	-10.86
▁ňi	-10.8601
teem	-10.8601
▁Doole	-10.8601
▁Xii	-10.8602
▁waxaale	-10.8602
▁tóox	-10.8603
▁rax	-10.8603
imaginer	-10.8603
▁déteint	-10.8604
▁perce	-10.8604
▁In	-10.8604
▁isolé	-10.8605
jàmbat	-10.8605
▁furi	-10.8605
▁noppee	-10.8605
▁céet	-10.8605
arachides	-10.8606
▁remb	-10.8606
▁maternelle	-10.8606
▁jëkkëram	-10.8606
dex	-10.8606
▁portale	-10.8607
▁terminé	-10.8607
▁glan	-10.8608
▁voyageur	-10.8608
▁ndam	-10.8609
▁déba	-10.8609
▁Céy	-10.861
▁sëll	-10.861
▁soufflet	-10.861
àggul	-10.861
▁Sall	-10.8611
▁beaux	-10.8611
▁kekk	-10.8611
rico	-10.8612
awtan	-10.8613
▁voler	-10.8614
▁yemb	-10.8614
▁xañ	-10.8615
▁livre	-10.8615
▁dékku	-10.8616
▁Suku	-10.8618
▁ganale	-10.8619
▁tasse	-10.8619
▁cof	-10.8619
▁Nopp	-10.862
▁graines	-10.862
ŋgoo	-10.8621
lentaan	-10.8621
edaay	-10.8621
▁prétend	-10.8622
▁fine	-10.8623
▁camp	-10.8624
▁nóox	-10.8624
▁bàjj	-10.8624
▁sem	-10.8625
▁caaxaan	-10.8625
▁joow	-10.8626
▁yéeme	-10.863
▁toucher	-10.863
▁tawee	-10.863
▁écrit	-10.863
▁fum	-10.8631
▁manie	-10.8632
uléet	-10.8632
▁enclos	-10.8632
▁mètres	-10.8632
allure	-10.8633
ànj	-10.8633
ombit	-10.8634
▁Acacia	-10.8635
▁tàggu	-10.8635
▁retir	-10.8636
▁guddee	-10.8636
▁àttan	-10.8636
▁causé	-10.8638
▁colin	-10.8639
Ab	-10.8639
▁attendre	-10.8641
▁xiif	-10.8642
rig	-10.8644
ect	-10.8644
▁tentes	-10.8645
▁sàng	-10.8645
▁jagal	-10.8645
▁Wée	-10.8645
▁étrange	-10.8646
▁dëj	-10.8647
▁travaille	-10.8647
ssait	-10.8647
ïs	-10.8647
▁ancien	-10.8647
▁sipp	-10.8648
▁tëx	-10.8648
eetar	-10.8649
aŋx	-10.865
dunq	-10.8652
▁maaj	-10.8653
amène	-10.8653
▁veau	-10.8654
▁takkee	-10.8654
▁plumes	-10.8657
▁bancs	-10.8657
▁objets	-10.8658
▁samp	-10.8658
▁galan	-10.8659
▁feyul	-10.8659
▁ngóora	-10.866
bine	-10.866
▁pique	-10.866
éew	-10.8661
▁voisins	-10.8666
▁segg	-10.8667
▁yo	-10.8669
isme	-10.8671
jot	-10.8672
▁suffisante	-10.8673
▁jéll	-10.8675
▁sourd	-10.8675
▁xuur	-10.8676
▁grise	-10.8676
▁pomm	-10.8676
arñi	-10.8677
▁cher	-10.8677
▁dépouille	-10.8678
rage	-10.8678
▁nappe	-10.8679
▁pël	-10.8679
axa	-10.8681
àttu	-10.8683
▁Kooy	-10.8683
gaana	-10.8683
▁demandai	-10.8684
▁musal	-10.8684
▁ñówee	-10.8686
▁mbiram	-10.8686
▁achète	-10.8686
▁bokkul	-10.8689
ňu	-10.869
▁dijj	-10.869
▁noc	-10.8692
ddeeku	-10.8693
▁botte	-10.8693
▁he	-10.8696
▁jooja	-10.8698
▁neuf	-10.8701
quin	-10.8701
▁luisant	-10.8701
▁kowam	-10.8702
eesu	-10.8702
▁yëre	-10.8703
▁nëbbu	-10.8705
▁Ho	-10.8706
▁kees	-10.8707
▁rouler	-10.8709
cier	-10.8711
▁tru	-10.8712
▁rêves	-10.8716
▁tànkam	-10.8716
bé	-10.8719
▁sebe	-10.8725
▁amène	-10.8726
▁assiettes	-10.8726
▁lèvres	-10.8726
▁résu	-10.8728
▁xun	-10.8728
▁habiter	-10.8728
▁tëj	-10.8732
ose	-10.8732
▁yàggul	-10.8733
▁compter	-10.8735
▁Sol	-10.8735
élé	-10.8736
▁Takkal	-10.8737
▁individu	-10.8738
▁hier	-10.8739
▁niru	-10.8742
▁offr	-10.8744
▁reere	-10.8744
raax	-10.8745
▁Tuub	-10.8746
▁maak	-10.8747
▁xët	-10.8747
▁jébbal	-10.8748
▁enlève	-10.8755
▁entretien	-10.8755
▁mett	-10.8756
deux	-10.8757
▁serre	-10.8758
▁Ngoy	-10.876
▁wure	-10.8761
tés	-10.8762
urément	-10.8765
▁yoot	-10.8769
▁ho	-10.8774
▁Fer	-10.8775
▁cuisiner	-10.8776
uste	-10.8776
roupe	-10.8779
▁baaxoon	-10.878
▁mariera	-10.8781
far	-10.8785
▁Pey	-10.8787
▁écha	-10.8789
▁xàmb	-10.8789
▁waaja	-10.8789
▁cesse	-10.879
▁kaar	-10.8793
épin	-10.8794
naire	-10.8794
▁chèvres	-10.8796
▁talismans	-10.8796
▁tomates	-10.8796
▁paroles	-10.8796
▁Avan	-10.8797
▁fenêtres	-10.8797
▁mettee	-10.8799
▁jax	-10.8799
▁defaru	-10.8799
▁biig	-10.88
▁contes	-10.8802
▁bâti	-10.8802
▁ňoo	-10.8802
▁levé	-10.8802
▁frappes	-10.8803
▁koko	-10.8804
ussi	-10.8811
▁napp	-10.8812
▁fasam	-10.8814
▁càkk	-10.8814
▁Diw	-10.8816
metti	-10.8821
àjjaatle	-10.8825
▁Kàddu	-10.8828
numér	-10.8831
▁prochaine	-10.8836
laam	-10.8843
▁bague	-10.8844
▁unique	-10.8845
llant	-10.8847
ances	-10.8849
ppati	-10.8853
▁Noon	-10.8855
▁congé	-10.8861
aigreur	-10.8864
▁tambours	-10.8866
car	-10.8866
▁ger	-10.8868
▁suce	-10.8869
▁bindu	-10.8873
▁toggal	-10.8874
▁jullit	-10.8875
▁joge	-10.8881
▁fermée	-10.8881
▁magam	-10.8888
▁dogal	-10.889
mbànd	-10.889
tim	-10.8893
▁joues	-10.8897
▁yeel	-10.8897
▁Yoo	-10.8902
émiss	-10.8904
▁Afrigam	-10.8906
iijaan	-10.891
▁rong	-10.8913
▁chât	-10.8921
uji	-10.8925
aanke	-10.8925
▁jib	-10.8927
▁cade	-10.8929
▁Ya	-10.893
agaie	-10.8935
ngal	-10.8936
▁braves	-10.8937
▁fleuves	-10.8937
▁courte	-10.8938
▁pënde	-10.8941
▁jiitu	-10.8942
▁délicieu	-10.8946
▁jëli	-10.8949
▁daanoo	-10.8951
▁sortie	-10.8952
lef	-10.8956
▁chante	-10.8958
▁Jur	-10.8959
▁Xaal	-10.8964
▁sommet	-10.8969
ecevoir	-10.8969
▁caŋ	-10.897
▁safar	-10.8975
▁mbay	-10.8979
▁frotter	-10.8981
jekk	-10.8982
nage	-10.8982
▁réewu	-10.8985
▁pourrais	-10.8985
▁dalle	-10.8987
▁xamoon	-10.8989
rabes	-10.899
▁Parle	-10.8992
ouche	-10.8993
▁lieux	-10.8993
▁sog	-10.8993
▁ana	-10.8995
▁ado	-10.9
▁fume	-10.9003
▁classes	-10.9008
rite	-10.9013
▁devenir	-10.902
▁demuma	-10.9024
énué	-10.9028
▁yaaf	-10.903
àqal	-10.9033
▁zé	-10.9037
▁rid	-10.9037
▁rendi	-10.9038
▁volé	-10.9043
ord	-10.9045
▁sentir	-10.9049
julli	-10.9052
▁Bant	-10.906
▁tuub	-10.9065
▁Paak	-10.9068
▁causer	-10.9077
▁Nun	-10.9077
▁besoins	-10.908
▁dromadaires	-10.908
▁mënuloo	-10.9085
▁cousine	-10.9093
▁ouverte	-10.9094
▁attend	-10.9096
▁mousse	-10.9111
antee	-10.9115
rais	-10.9117
▁gent	-10.9125
▁Kor	-10.9126
▁nues	-10.9126
▁paas	-10.9127
▁cla	-10.9128
▁hâte	-10.9133
béré	-10.9135
▁mos	-10.9138
▁guide	-10.915
▁taaw	-10.9151
▁médicaments	-10.9152
▁frères	-10.9152
▁xaaj	-10.9152
▁lanière	-10.9153
▁baree	-10.9154
▁rues	-10.9158
▁Joo	-10.9159
▁gal	-10.9162
▁réc	-10.9163
noo	-10.9167
▁face	-10.9177
accepter	-10.9181
▁fent	-10.9185
▁yiw	-10.9189
lami	-10.9191
eetul	-10.9194
▁ñibbis	-10.9197
▁wëri	-10.9202
▁ram	-10.9205
mpa	-10.9206
▁droite	-10.9208
▁wonn	-10.9208
àbba	-10.9212
éj	-10.9224
▁àndal	-10.9224
▁màbb	-10.9227
▁ping	-10.9227
▁parent	-10.9231
▁ŋar	-10.9232
▁usé	-10.9248
▁xollit	-10.9249
ëñ	-10.9251
▁trouvera	-10.9254
▁siit	-10.926
▁quitte	-10.927
▁Der	-10.9277
▁nob	-10.9283
oxor	-10.9292
▁donnerai	-10.9292
▁devoir	-10.9305
llez	-10.9308
▁singes	-10.9309
▁Han	-10.9313
▁Yi	-10.9315
▁bra	-10.9317
▁lawoon	-10.933
▁wéeru	-10.9344
▁Ban	-10.9347
▁servai	-10.9364
▁sex	-10.9366
▁bain	-10.9369
ooñii	-10.9374
ëgg	-10.9376
uwuñu	-10.9382
▁një	-10.9388
ékk	-10.9394
▁ñii	-10.9405
▁Yan	-10.9407
taient	-10.9409
hez	-10.9417
oum	-10.9418
▁ndée	-10.9419
▁âne	-10.943
▁Xamul	-10.9431
wuñu	-10.9446
▁tôt	-10.9457
▁malle	-10.9473
▁dëdd	-10.9481
xippi	-10.9487
▁sages	-10.9488
infiltre	-10.9499
▁tant	-10.9508
▁sàll	-10.9518
▁descendra	-10.9518
ques	-10.952
▁dikke	-10.952
fël	-10.952
▁attrape	-10.953
▁Wë	-10.9535
▁extrai	-10.9548
lanc	-10.9551
▁garabu	-10.9555
iana	-10.9557
imiter	-10.9564
▁sukkandi	-10.9564
▁inf	-10.9565
▁viendras	-10.961
▁poules	-10.9611
▁belles	-10.9627
▁croisé	-10.9641
aider	-10.9642
éper	-10.9643
okki	-10.9657
▁Jii	-10.9674
domodaa	-10.9683
▁minis	-10.9688
Bri	-10.9695
no	-10.9699
▁épin	-10.9701
▁Yàllaa	-10.9718
▁pla	-10.9725
▁allée	-10.9732
▁xé	-10.9734
▁croi	-10.9738
euse	-10.9746
▁content	-10.9747
▁tri	-10.9758
▁rêve	-10.9759
▁file	-10.9759
ccal	-10.9761
▁gra	-10.9765
mee	-10.9775
seront	-10.9779
▁tëdde	-10.9782
bóoy	-10.9786
▁pon	-10.9802
▁origin	-10.9808
étt	-10.9818
duit	-10.9825
▁Fo	-10.9827
▁soppul	-10.9833
▁Gisu	-10.9836
▁bax	-10.9844
▁Maang	-10.9849
anti	-10.9855
ice	-10.9887
▁sooy	-10.9893
fa	-10.9901
ï	-10.9914
▁partirai	-10.992
▁risque	-10.9934
ieuse	-10.9944
uche	-10.9945
▁wo	-10.9965
▁éclair	-10.9975
▁ño	-10.9983
▁répar	-11.0002
▁tourne	-11.0004
▁nus	-11.0009
▁accouché	-11.0015
sin	-11.0022
▁Bir	-11.0024
▁grillé	-11.0025
▁Rà	-11.0025
arrache	-11.0043
▁quelles	-11.0045
▁points	-11.0062
ëti	-11.0064
pacc	-11.008
▁trouv	-11.0089
▁monté	-11.0103
▁Mang	-11.0105
▁danger	-11.012
lal	-11.0122
▁Ras	-11.0123
inam	-11.0124
▁Fee	-11.0132
pieux	-11.0143
war	-11.0146
▁Certain	-11.0158
tis	-11.016
▁gras	-11.0173
▁bot	-11.0176
▁mang	-11.021
àmb	-11.0213
anam	-11.0214
▁caa	-11.0223
▁tableau	-11.0233
▁arrivés	-11.0234
▁boob	-11.0235
olo	-11.0241
jom	-11.0243
ekte	-11.0248
▁tig	-11.0257
▁Ngela	-11.0258
▁jaawa	-11.0268
échange	-11.0277
▁Pat	-11.03
ëcc	-11.0328
ddi	-11.0338
àppto	-11.0338
▁biiri	-11.0342
saire	-11.0343
▁màng	-11.0348
▁ver	-11.0349
▁terewu	-11.0354
yaan	-11.0365
▁Mënu	-11.037
▁demb	-11.0396
installe	-11.0397
yeux	-11.0423
▁occup	-11.048
▁chi	-11.05
ndal	-11.0502
échapp	-11.0506
cès	-11.0509
ulettes	-11.0512
▁Gàn	-11.0527
▁muñ	-11.0545
▁bàn	-11.0551
▁déco	-11.0558
Ar	-11.0565
▁gëmm	-11.0565
ctivit	-11.0575
ndoor	-11.0598
àngoo	-11.0599
▁crache	-11.0603
aana	-11.0607
▁gagn	-11.0627
rée	-11.063
doŋ	-11.0632
fukk	-11.0635
▁cherch	-11.0638
▁décor	-11.0638
▁gom	-11.064
éger	-11.066
▁engag	-11.0666
▁pl	-11.0668
oyé	-11.0674
précie	-11.068
igno	-11.0707
rve	-11.0782
oyer	-11.0798
▁Ngóo	-11.0807
▁Mba	-11.0814
▁boolee	-11.082
▁Bëggum	-11.0845
▁xàn	-11.0847
▁nekku	-11.0894
▁crach	-11.0898
▁tol	-11.0905
▁connaiss	-11.0909
▁Gen	-11.091
▁tund	-11.0922
attacher	-11.0928
ggi	-11.0934
ëj	-11.0939
▁demi	-11.0942
▁reveni	-11.0944
▁profonde	-11.0956
outre	-11.0961
▁lëng	-11.0983
▁Tam	-11.0991
dés	-11.0995
baŋ	-11.1008
about	-11.102
endue	-11.1022
▁senti	-11.1026
▁Lan	-11.1032
yaasa	-11.1034
▁Pu	-11.1048
▁jaa	-11.1052
▁poussi	-11.106
▁tée	-11.1061
éel	-11.1091
▁ň	-11.1096
ollu	-11.1124
ndul	-11.114
raw	-11.1143
▁vive	-11.1144
vie	-11.1145
ous	-11.1156
▁pur	-11.1165
▁rocci	-11.1165
raam	-11.1224
▁placer	-11.1224
▁bitik	-11.1232
▁cri	-11.1244
▁agit	-11.1254
mboo	-11.1257
▁préven	-11.1257
▁faf	-11.1261
▁sara	-11.1291
aboot	-11.1303
▁jigu	-11.1321
▁tàggat	-11.1343
▁Certaine	-11.1375
rist	-11.1379
▁meen	-11.1383
▁voyo	-11.1402
État	-11.1432
oyal	-11.1436
▁tuut	-11.1445
▁sub	-11.1463
▁jàppandi	-11.148
▁ve	-11.1487
tiques	-11.1488
▁figu	-11.1492
naan	-11.1494
▁viv	-11.1503
▁tomb	-11.1555
▁croya	-11.1559
taas	-11.1563
▁maanaa	-11.158
▁gàn	-11.1597
▁rêv	-11.1622
quet	-11.1668
ctif	-11.1675
rine	-11.1689
▁tira	-11.1697
▁jaal	-11.1701
déet	-11.1709
▁Nja	-11.1717
▁prépar	-11.1722
sité	-11.1723
ruption	-11.1727
▁saisi	-11.1736
▁détour	-11.1738
▁taba	-11.1757
▁kooka	-11.1766
▁dirig	-11.1776
▁partag	-11.1797
▁Bum	-11.1801
aaram	-11.1801
▁digaale	-11.1822
jali	-11.1854
▁déserte	-11.1869
rique	-11.1894
ango	-11.1895
onné	-11.1915
envo	-11.1923
▁minist	-11.1933
àjji	-11.1942
▁allume	-11.1982
éra	-11.1999
▁active	-11.2048
igote	-11.2063
ivre	-11.208
▁prot	-11.2084
▁dép	-11.2097
▁Kar	-11.2141
▁Po	-11.2168
▁indee	-11.2183
▁fett	-11.2227
biru	-11.223
▁poul	-11.2267
ón	-11.2277
lóor	-11.228
gui	-11.2293
▁eff	-11.2296
▁nguuru	-11.2307
▁décl	-11.2313
qal	-11.2321
tige	-11.233
▁affront	-11.2338
bbe	-11.2365
▁xolu	-11.2368
▁wé	-11.2373
▁enseign	-11.2385
▁goro	-11.2387
posé	-11.2397
uyé	-11.2403
▁goog	-11.2411
kun	-11.2416
tiku	-11.2416
xaw	-11.2424
▁porterai	-11.2438
aud	-11.2469
▁pe	-11.2512
ierge	-11.253
▁sam	-11.2543
baar	-11.2548
▁devr	-11.2557
occ	-11.2574
boo	-11.2577
▁rac	-11.2582
è	-11.2582
▁takkoo	-11.2597
▁sente	-11.2612
ort	-11.2619
▁Muu	-11.2623
▁cris	-11.2634
▁plac	-11.265
▁creus	-11.2672
ootul	-11.2673
▁apporte	-11.2676
▁Nen	-11.269
veloppe	-11.2699
▁étalé	-11.271
▁français	-11.271
tache	-11.271
vit	-11.2719
ooj	-11.2719
▁permet	-11.2726
kkat	-11.2738
gorn	-11.2743
faites	-11.2744
traire	-11.2747
joŋ	-11.2772
àmp	-11.2785
▁seel	-11.2789
qat	-11.279
outer	-11.2794
▁Saw	-11.2812
ésign	-11.2812
elaw	-11.2812
▁wote	-11.2814
▁àgg	-11.2825
▁xon	-11.2867
opin	-11.2875
▁Léeb	-11.2877
nnee	-11.2882
▁délic	-11.2894
essaie	-11.2898
pè	-11.2905
ggu	-11.291
baru	-11.2917
▁bokku	-11.2924
▁Naa	-11.2928
gation	-11.2949
titi	-11.295
▁pét	-11.2952
bbi	-11.2952
dieux	-11.2956
ërëb	-11.2968
kaa	-11.2972
éeg	-11.2975
▁Waxu	-11.2975
▁frotte	-11.3002
▁yomba	-11.3017
pasar	-11.303
▁Yó	-11.3031
▁ndiir	-11.3037
▁fermé	-11.3041
uus	-11.3042
vel	-11.3045
▁lent	-11.306
àmbi	-11.3067
▁xàmm	-11.3069
llaay	-11.3086
▁gourd	-11.3089
cro	-11.3091
aatle	-11.3091
▁ngor	-11.3093
site	-11.3095
waak	-11.3108
orté	-11.3113
oowuñu	-11.3113
▁tresse	-11.312
uire	-11.3124
▁xàjj	-11.3128
▁gén	-11.3131
▁mbool	-11.3147
bir	-11.3151
issement	-11.3152
▁rassemble	-11.3158
▁maigr	-11.3171
▁tepp	-11.3175
▁dëkkoo	-11.3178
ottu	-11.3178
▁Lo	-11.3184
ranger	-11.3197
ëtu	-11.3198
nsis	-11.3198
rge	-11.3202
▁conçu	-11.3207
jum	-11.3209
▁accompagn	-11.3213
▁grou	-11.3219
isible	-11.3227
▁nécess	-11.3231
àttan	-11.3232
▁Sine	-11.3255
▁nature	-11.3259
▁reli	-11.3259
oupée	-11.3268
qua	-11.3277
▁poli	-11.3285
ancre	-11.3286
ôt	-11.33
nkal	-11.3307
▁Pri	-11.3325
▁parc	-11.3336
ador	-11.3337
èche	-11.3338
neux	-11.3338
▁gard	-11.334
▁yemu	-11.3341
▁Confi	-11.3348
▁baar	-11.3351
gasin	-11.3351
vise	-11.3356
jou	-11.3359
▁président	-11.3366
▁gombo	-11.3366
▁connaissance	-11.3367
abituellement	-11.3367
▁retourn	-11.337
▁banane	-11.337
▁cuisin	-11.3387
▁vieillard	-11.3391
▁pince	-11.3394
▁ken	-11.3395
▁esclave	-11.3395
droit	-11.3395
▁Natt	-11.3396
▁réunis	-11.3401
▁racont	-11.3403
▁chaussure	-11.3404
▁relation	-11.3404
angle	-11.3406
▁scorpion	-11.3409
Européens	-11.3409
aveugle	-11.3409
empêche	-11.341
inspir	-11.341
objet	-11.3413
▁gliss	-11.3413
▁gratuit	-11.3414
rôl	-11.3415
▁corne	-11.3417
ccor	-11.3419
▁colonial	-11.3421
lieu	-11.3423
enclos	-11.3423
mètres	-11.3423
Acacia	-11.3423
tëx	-11.3423
ilité	-11.3425
▁laissa	-11.3426
honnête	-11.3426
▁banc	-11.3427
venu	-11.3427
pël	-11.3427
sang	-11.3428
xosi	-11.3429
▁contr	-11.343
bakkan	-11.343
jaune	-11.3431
▁plume	-11.3432
▁tango	-11.3433
coupe	-11.3433
cër	-11.3434
▁bassin	-11.3435
▁sànn	-11.3437
époque	-11.3437
souris	-11.3438
jafe	-11.3438
▁achet	-11.3439
demain	-11.3439
xew	-11.3439
pris	-11.3441
wér	-11.3443
C	-11.3444
▁eusse	-11.3444
état	-11.3444
▁têt	-11.3445
amar	-11.3446
ndey	-11.3447
njaay	-11.3447
écrit	-11.3449
épouse	-11.345
queue	-11.345
àmmiñ	-11.3451
attendre	-11.3452
jiin	-11.3452
hut	-11.3452
avane	-11.3453
▁retrouv	-11.3453
hum	-11.3454
femme	-11.3455
▁yéem	-11.3455
nglais	-11.3456
▁vieill	-11.3457
▁émi	-11.3458
▁nourris	-11.3458
kow	-11.3458
interdit	-11.3459
ñetti	-11.3461
engage	-11.3461
▁souri	-11.3462
▁fibre	-11.3462
arracher	-11.3466
dugg	-11.3466
La	-11.3468
dëgg	-11.3472
▁voisin	-11.3474
oreiller	-11.3474
ancien	-11.3477
suite	-11.348
▁motte	-11.3485
ssures	-11.3489
ambar	-11.349
opp	-11.349
▁soin	-11.349
intéress	-11.3492
aurai	-11.3492
Ind	-11.3492
érité	-11.3494
▁conv	-11.3495
ëbb	-11.3496
ddina	-11.3496
iminue	-11.3497
gàkk	-11.3497
▁pé	-11.3498
efare	-11.3499
pule	-11.35
▁survi	-11.3501
abar	-11.3501
aissé	-11.3503
uvre	-11.3504
▁contin	-11.3504
▁tày	-11.3504
▁aide	-11.3505
▁conçue	-11.3506
oktoor	-11.3506
réy	-11.3509
▁aveugle	-11.3509
▁Nguu	-11.3511
▁scru	-11.3512
kkan	-11.3512
▁yéen	-11.3515
▁sali	-11.3516
▁Dog	-11.3516
dég	-11.3517
▁sànk	-11.3518
▁Kowe	-11.3518
frais	-11.3518
tuuti	-11.3518
ification	-11.3519
▁objet	-11.3521
▁roule	-11.3522
ultiver	-11.3523
abond	-11.3527
xamen	-11.3528
▁Bouc	-11.3528
oldaar	-11.3529
ppal	-11.353
▁trouvai	-11.3531
bó	-11.3533
ipite	-11.3534
▁foye	-11.3535
▁trans	-11.3535
mise	-11.3536
ffri	-11.3536
àggan	-11.3536
amaat	-11.3538
▁chauss	-11.3539
▁pom	-11.3539
óllëre	-11.3539
èle	-11.3539
baxana	-11.3539
▁cuis	-11.3539
▁ndën	-11.354
apport	-11.354
▁dépou	-11.3542
▁Camero	-11.3543
▁njaboot	-11.3544
▁inqui	-11.3544
▁taill	-11.3546
▁sër	-11.3547
approche	-11.3548
aadoolo	-11.3548
▁Ub	-11.3548
mmes	-11.3549
issons	-11.3549
embarras	-11.3549
▁européen	-11.355
▁rap	-11.355
çant	-11.355
axambaane	-11.355
pho	-11.355
histoire	-11.355
Africain	-11.355
dox	-11.3551
▁chap	-11.3551
▁rétribu	-11.3551
▁ñép	-11.3551
endorm	-11.3551
koto	-11.3551
ception	-11.3552
kooy	-11.3552
ouï	-11.3552
ctuel	-11.3552
8	-11.3552
▁19	-11.3552
▁196	-11.3552
mporte	-11.3552
strum	-11.3552
▁archite	-11.3552
▁impoli	-11.3552
▁Kamakusa	-11.3552
▁Kipli	-11.3552
▁Malheur	-11.3552
▁Memfo	-11.3552
▁antilope	-11.3552
▁facilite	-11.3552
▁fréquenta	-11.3552
▁incantat	-11.3552
▁kókkal	-11.3552
▁oblig	-11.3552
▁Éc	-11.3552
▁Éloigne	-11.3552
▁éliminer	-11.3552
▁évide	-11.3552
Israël	-11.3552
affût	-11.3552
akaliki	-11.3552
albumine	-11.3552
appuyer	-11.3552
autorisation	-11.3552
cohérent	-11.3552
effondr	-11.3552
enterrement	-11.3552
indefondi	-11.3552
influence	-11.3552
inkilibaa	-11.3552
mobilis	-11.3552
observe	-11.3552
occiput	-11.3552
oesophage	-11.3552
ophage	-11.3552
rologique	-11.3552
tekkaaral	-11.3552
ubérante	-11.3552
ègre	-11.3552
ébénier	-11.3552
épluchures	-11.3552
érñéññ	-11.3552
étudiant	-11.3552
étudier	-11.3552
▁1914	-11.3552
▁1948	-11.3552
▁Ahidjo	-11.3552
▁Attrape	-11.3552
▁BBC	-11.3552
▁Bayruut	-11.3552
▁Bretagne	-11.3552
▁Bërëtaañ	-11.3552
▁Dispañseer	-11.3552
▁Eend	-11.3552
▁Emi	-11.3552
▁Faranse	-11.3552
▁Harcourt	-11.3552
▁Israyel	-11.3552
▁Jikko	-11.3552
▁Kaburi	-11.3552
▁Kikuyu	-11.3552
▁Petroleum	-11.3552
▁Pullóox	-11.3552
▁Remets	-11.3552
▁Surveille	-11.3552
▁Tokyo	-11.3552
▁Um	-11.3552
▁Wiktoryaa	-11.3552
▁Wolof	-11.3552
▁Yàkkamtiwuñu	-11.3552
▁anecdote	-11.3552
▁appartient	-11.3552
▁armeel	-11.3552
▁armool	-11.3552
▁assommé	-11.3552
▁attribu	-11.3552
▁auparavant	-11.3552
▁benkeñenke	-11.3552
▁blessé	-11.3552
▁bluffe	-11.3552
▁calleuses	-11.3552
▁callweer	-11.3552
▁cancrelats	-11.3552
▁certitude	-11.3552
▁chenilles	-11.3552
▁chiffon	-11.3552
▁cicatrice	-11.3552
▁circoncire	-11.3552
▁clôture	-11.3552
▁coiffure	-11.3552
▁commandement	-11.3552
▁compétition	-11.3552
▁considère	-11.3552
▁considérable	-11.3552
▁converti	-11.3552
▁correct	-11.3552
▁cravate	-11.3552
▁cuillère	-11.3552
▁célèbre	-11.3552
▁dilapid	-11.3552
▁diplôme	-11.3552
▁discrète	-11.3552
▁dispañseer	-11.3552
▁djinn	-11.3552
▁douloureu	-11.3552
▁débarrasser	-11.3552
▁désenfl	-11.3552
▁effronté	-11.3552
▁emprunte	-11.3552
▁encadr	-11.3552
▁encerclé	-11.3552
▁engendre	-11.3552
▁enrhumé	-11.3552
▁entorse	-11.3552
▁excessif	-11.3552
▁excessive	-11.3552
▁favoris	-11.3552
▁fidélité	-11.3552
▁funérailles	-11.3552
▁ginnax	-11.3552
▁gouttière	-11.3552
▁gémir	-11.3552
▁hamacs	-11.3552
▁handicapé	-11.3552
▁harceler	-11.3552
▁hériss	-11.3552
▁incapable	-11.3552
▁incessant	-11.3552
▁indolore	-11.3552
▁insignifiante	-11.3552
▁intelligent	-11.3552
▁jachère	-11.3552
▁jànkoonte	-11.3552
▁kópp	-11.3552
▁latkoloñ	-11.3552
▁margouillats	-11.3552
▁mbiib	-11.3552
▁migrateurs	-11.3552
▁moustiquaire	-11.3552
▁màndarga	-11.3552
▁naaféq	-11.3552
▁ndagaan	-11.3552
▁ndeyjoor	-11.3552
▁njériñ	-11.3552
▁néglige	-11.3552
▁obèse	-11.3552
▁occultes	-11.3552
▁oleifera	-11.3552
▁ordinaire	-11.3552
▁parabole	-11.3552
▁patates	-11.3552
▁pharmacie	-11.3552
▁physique	-11.3552
▁pidgin	-11.3552
▁polémiqu	-11.3552
▁postérieur	-11.3552
▁prolonge	-11.3552
▁prothèse	-11.3552
▁public	-11.3552
▁punaises	-11.3552
▁pótit	-11.3552
▁raccourci	-11.3552
▁reconnaît	-11.3552
▁redorer	-11.3552
▁resplendis	-11.3552
▁ressources	-11.3552
▁ressuscité	-11.3552
▁réaliser	-11.3552
▁régurgit	-11.3552
▁rósi	-11.3552
▁saccadé	-11.3552
▁sifflet	-11.3552
▁signifi	-11.3552
▁siècle	-11.3552
▁sorcellerie	-11.3552
▁sourcils	-11.3552
▁spermatozoïdes	-11.3552
▁spirituel	-11.3552
▁sportive	-11.3552
▁stature	-11.3552
▁suscité	-11.3552
▁syphilis	-11.3552
▁toucouleur	-11.3552
▁tropicale	-11.3552
▁trésor	-11.3552
▁vermoulu	-11.3552
▁viendront	-11.3552
▁waŋŋeetu	-11.3552
▁wolandoo	-11.3552
▁yaradal	-11.3552
▁zizanie	-11.3552
▁Àbbaa	-11.3552
▁Àdduna	-11.3552
▁écrira	-11.3552
▁élections	-11.3552
▁électrique	-11.3552
▁élégant	-11.3552
▁établi	-11.3552
▁évacu	-11.3552
▁ñànjaxeer	-11.3552
effaçait	-11.3552
otolith	-11.3552
▁Partout	-11.3552
▁Saawusamton	-11.3552
▁choc	-11.3552
▁combinaison	-11.3552
▁cordonnier	-11.3552
▁discussion	-11.3552
▁disparaît	-11.3552
▁embouteil	-11.3552
▁fatigue	-11.3552
▁folklor	-11.3552
▁geño	-11.3552
▁légende	-11.3552
▁léthargi	-11.3552
▁menuisier	-11.3552
▁mâch	-11.3552
▁panaris	-11.3552
▁papaye	-11.3552
▁pentuur	-11.3552
▁pessimis	-11.3552
▁possession	-11.3552
▁princip	-11.3552
▁quotidienne	-11.3552
▁réchauffe	-11.3552
▁scandale	-11.3552
▁semblait	-11.3552
▁succès	-11.3552
▁trombe	-11.3552
▁égratign	-11.3552
existence	-11.3552
uumandaat	-11.3552
▁Japon	-11.3552
▁bouff	-11.3552
▁coussin	-11.3552
▁dénicher	-11.3552
▁entoure	-11.3552
▁importance	-11.3552
▁interverti	-11.3552
▁njiitlaay	-11.3552
▁pénétra	-11.3552
▁raciale	-11.3552
▁totaux	-11.3552
▁tremblote	-11.3552
▁wommat	-11.3552
▁yendoo	-11.3552
▁àjjana	-11.3552
acharn	-11.3552
sàllaa	-11.3552
▁Vitex	-11.3552
▁cloche	-11.3552
▁gaanuwaay	-11.3552
▁gâch	-11.3552
▁seconde	-11.3552
▁ténia	-11.3552
▁golf	-11.3552
▁serrure	-11.3552
astèque	-11.3552
bëccëg	-11.3552
encens	-11.3552
ingénieu	-11.3552
▁Bernadet	-11.3552
▁Exc	-11.3552
▁Féetale	-11.3552
▁Lagos	-11.3552
▁Lorsqu	-11.3552
▁Palestin	-11.3552
▁Remue	-11.3552
▁attiser	-11.3552
▁fécond	-11.3552
▁galeries	-11.3552
▁latérite	-11.3552
▁orgueil	-11.3552
▁rhume	-11.3552
▁ëlëk	-11.3552
étincelle	-11.3552
▁hasard	-11.3552
▁monnaie	-11.3552
instrument	-11.3552
équilibr	-11.3552
▁Abdou	-11.3552
▁barigo	-11.3552
▁cimetière	-11.3552
▁député	-11.3552
▁jonkon	-11.3552
▁kilomet	-11.3552
▁mendiant	-11.3552
▁métall	-11.3552
▁procur	-11.3552
▁savate	-11.3552
congelé	-11.3552
▁dispositions	-11.3552
▁Récite	-11.3552
▁noyyi	-11.3552
▁picore	-11.3552
▁porche	-11.3552
▁transmet	-11.3552
armoire	-11.3552
dëngaañ	-11.3552
étourdi	-11.3552
▁Bakalu	-11.3552
▁berger	-11.3552
▁cendre	-11.3552
▁hernie	-11.3552
▁jumeet	-11.3552
▁mérite	-11.3552
▁perdre	-11.3552
▁écrase	-11.3552
▁Ngalla	-11.3552
▁pijin	-11.3552
oignon	-11.3552
▁Yokkal	-11.3552
▁hanche	-11.3552
▁lëkkale	-11.3552
▁tendre	-11.3552
associ	-11.3552
▁teerusi	-11.3552
▁1900	-11.3552
▁1968	-11.3552
▁Aïe	-11.3552
▁Tàmbal	-11.3552
▁colonis	-11.3552
▁glorifi	-11.3552
▁refl	-11.3552
aakiri	-11.3552
émeut	-11.3552
▁Cross	-11.3552
▁arrivaient	-11.3552
▁taksi	-11.3552
adver	-11.3552
▁concubin	-11.3552
▁patient	-11.3552
▁secoue	-11.3552
▁tournant	-11.3552
▁énonc	-11.3552
aplati	-11.3552
▁Saupoudre	-11.3552
▁dévers	-11.3552
▁transhu	-11.3552
mburam	-11.3552
▁boulevers	-11.3552
▁pétrol	-11.3552
▁yëngatu	-11.3552
damawa	-11.3552
▁kàttanam	-11.3552
▁ŋiis	-11.3552
angulaire	-11.3552
oxoj	-11.3552
▁ennuyé	-11.3552
▁problème	-11.3552
▁embau	-11.3552
▁froiss	-11.3552
00	-11.3552
escalad	-11.3552
étouff	-11.3552
▁cuisson	-11.3552
▁daxin	-11.3552
▁engraisse	-11.3552
▁wànnent	-11.3552
▁xultu	-11.3552
nouvel	-11.3552
▁Mawdo	-11.3552
▁brèche	-11.3552
▁vertige	-11.3552
▁descente	-11.3552
▁défunt	-11.3552
nokkos	-11.3553
▁trottoir	-11.3553
achev	-11.3553
▁bataille	-11.3553
▁vénér	-11.3553
piri	-11.3553
▁Cayor	-11.3553
▁Njiit	-11.3553
▁faucher	-11.3553
▁liaison	-11.3553
▁tunnel	-11.3553
landaise	-11.3553
▁Ekool	-11.3553
▁Finissez	-11.3553
▁gàllaaj	-11.3553
▁sévère	-11.3553
▁toxoñu	-11.3553
▁Delloo	-11.3553
▁virgule	-11.3553
aoussas	-11.3553
▁condoléances	-11.3553
▁oto	-11.3553
▁étendues	-11.3553
▁débrouill	-11.3553
▁honte	-11.3553
▁lagaj	-11.3553
▁visiteurs	-11.3553
infirmière	-11.3553
▁mungaas	-11.3553
letmaa	-11.3553
▁particulière	-11.3553
▁recul	-11.3553
▁Gerte	-11.3553
▁flèche	-11.3553
▁honore	-11.3553
▁parfait	-11.3553
▁entraîné	-11.3553
madou	-11.3553
▁Kaamil	-11.3553
▁constitution	-11.3553
▁pénible	-11.3553
▁vallée	-11.3553
▁fegu	-11.3553
▁étroite	-11.3553
artifi	-11.3553
▁consomme	-11.3553
obscurité	-11.3553
▁bourgeo	-11.3553
▁indiqué	-11.3553
▁barke	-11.3553
▁jaambur	-11.3553
▁oh	-11.3553
▁rattraper	-11.3553
ëmës	-11.3553
▁injurié	-11.3553
▁kerce	-11.3553
▁tiède	-11.3553
▁cuvette	-11.3553
▁immensité	-11.3553
▁titub	-11.3553
cajou	-11.3553
▁débarqu	-11.3553
▁baptis	-11.3553
▁disperser	-11.3553
▁relative	-11.3553
impolitesse	-11.3553
▁affamé	-11.3553
▁kuddu	-11.3553
▁châtré	-11.3553
▁écoulé	-11.3553
▁Chérie	-11.3553
▁Diggante	-11.3553
▁type	-11.3553
cycl	-11.3553
▁uppukaay	-11.3553
▁enver	-11.3553
▁humide	-11.3553
▁Gesam	-11.3553
▁maudit	-11.3553
ettaaw	-11.3553
▁Tabaski	-11.3553
▁familiari	-11.3553
▁échou	-11.3553
ëndënd	-11.3553
▁Lëkkaay	-11.3553
flexi	-11.3553
▁wëttéen	-11.3553
▁yelleef	-11.3553
▁élancé	-11.3553
arrose	-11.3553
▁irritable	-11.3553
▁dégager	-11.3553
▁puso	-11.3553
aisselle	-11.3553
▁rëgë	-11.3553
▁explos	-11.3553
▁Jóob	-11.3553
▁Alfa	-11.3553
▁endormi	-11.3553
opér	-11.3553
mond	-11.3553
▁séddale	-11.3553
▁guerrières	-11.3553
▁diigal	-11.3553
▁jégeñante	-11.3553
wiis	-11.3553
▁jàmbure	-11.3553
bawo	-11.3553
▁pneu	-11.3553
▁Judd	-11.3553
▁collines	-11.3553
▁soulag	-11.3553
▁yàkki	-11.3553
▁disparaissait	-11.3553
▁profess	-11.3553
▁pêcheurs	-11.3553
édiction	-11.3553
▁bouillir	-11.3554
▁Tubay	-11.3554
▁dormir	-11.3554
▁reprend	-11.3554
▁galop	-11.3554
▁Wér	-11.3554
▁baraque	-11.3554
▁yendu	-11.3554
essence	-11.3554
▁rétribution	-11.3554
▁Teraanga	-11.3554
▁selew	-11.3554
emballe	-11.3554
▁défrich	-11.3554
▁installé	-11.3554
▁distingu	-11.3554
▁navire	-11.3554
▁waaso	-11.3554
▁Bawop	-11.3554
▁réussi	-11.3554
▁initié	-11.3554
illait	-11.3554
▁friture	-11.3554
▁bërki	-11.3554
▁tibb	-11.3554
▁inouï	-11.3554
eetuñu	-11.3554
▁courut	-11.3554
▁Ogil	-11.3554
▁pairs	-11.3554
▁rencontré	-11.3554
▁inconnu	-11.3554
▁morsure	-11.3554
▁abreuv	-11.3554
▁grue	-11.3554
▁soppeeku	-11.3554
entrelac	-11.3554
▁ŋàdd	-11.3554
▁ñambaan	-11.3554
▁njoowaan	-11.3554
▁répudi	-11.3554
hame	-11.3554
▁Pikin	-11.3554
▁fexeel	-11.3554
▁lançant	-11.3554
▁Born	-11.3554
▁choir	-11.3554
▁collier	-11.3554
agonie	-11.3554
àndarma	-11.3554
▁cadre	-11.3554
▁Tàppa	-11.3554
▁funèbre	-11.3554
▁épais	-11.3554
▁veine	-11.3554
▁plaisir	-11.3554
ommier	-11.3554
▁captur	-11.3554
adouci	-11.3555
ède	-11.3555
▁plateaux	-11.3555
▁toxal	-11.3555
▁reegal	-11.3555
jaatige	-11.3555
▁magnifi	-11.3555
ajuste	-11.3555
eeñeer	-11.3555
orient	-11.3555
stice	-11.3555
▁lumineu	-11.3555
▁européenne	-11.3555
image	-11.3555
▁Mbemb	-11.3555
ernob	-11.3555
ennemi	-11.3555
▁proue	-11.3555
ojox	-11.3555
▁montar	-11.3555
▁généralement	-11.3555
▁coco	-11.3555
éteigne	-11.3555
▁ardent	-11.3555
▁sablonneux	-11.3555
▁malhonnête	-11.3555
▁allusi	-11.3555
▁noué	-11.3555
oobar	-11.3555
écurie	-11.3555
▁neige	-11.3555
▁vélo	-11.3555
▁sottee	-11.3555
▁làquji	-11.3555
▁rëdd	-11.3555
lines	-11.3555
▁intégralement	-11.3555
▁aloom	-11.3555
▁salué	-11.3555
▁cohabite	-11.3555
▁déchire	-11.3555
▁incon	-11.3555
▁nawle	-11.3556
▁borgne	-11.3556
ppuie	-11.3556
▁sédenta	-11.3556
hell	-11.3556
épète	-11.3556
▁gàmmu	-11.3556
plication	-11.3556
▁pepp	-11.3556
▁noyyee	-11.3556
iquaient	-11.3556
ëkkoo	-11.3556
▁dégagé	-11.3556
▁ruade	-11.3556
▁vibre	-11.3556
▁duggsee	-11.3556
▁fidèle	-11.3556
▁dimaas	-11.3556
▁pelouse	-11.3556
▁comprim	-11.3556
▁dëddale	-11.3556
▁poignée	-11.3556
▁fourbe	-11.3556
▁Angal	-11.3556
entonn	-11.3556
▁Xalam	-11.3556
▁séchée	-11.3556
▁baadoolo	-11.3557
▁ministar	-11.3557
nterromp	-11.3557
▁nonchalant	-11.3557
▁découpe	-11.3557
▁Ràññ	-11.3557
▁rejette	-11.3557
énerv	-11.3557
▁firndeel	-11.3557
▁rapproch	-11.3557
▁grève	-11.3557
oppaliku	-11.3557
▁rajoute	-11.3557
▁jaww	-11.3557
▁jokkoo	-11.3557
▁jéllale	-11.3557
▁mboq	-11.3557
▁ngàll	-11.3557
▁viole	-11.3557
▁précis	-11.3557
▁dank	-11.3557
▁Massa	-11.3557
▁pëdd	-11.3557
▁ruiné	-11.3557
raiment	-11.3558
▁courtois	-11.3558
▁germe	-11.3558
▁terrasse	-11.3558
▁superf	-11.3558
▁disposé	-11.3558
▁téene	-11.3558
▁marchandise	-11.3558
ullee	-11.3558
▁Ragal	-11.3558
▁cherchée	-11.3558
▁Mesure	-11.3558
▁excise	-11.3558
▁complot	-11.3558
▁ñàng	-11.3558
▁Fatim	-11.3558
▁maasaloo	-11.3558
albati	-11.3559
▁égal	-11.3559
embrass	-11.3559
iyeer	-11.3559
▁voyant	-11.3559
▁Bateri	-11.3559
▁Geenu	-11.3559
▁dégonflé	-11.3559
▁casque	-11.3559
▁bàjjan	-11.3559
▁Lièvre	-11.3559
▁destiné	-11.3559
▁bandit	-11.3559
écré	-11.3559
▁recommence	-11.3559
▁darajaam	-11.3559
île	-11.3559
▁àgge	-11.3559
▁surface	-11.3559
▁mbów	-11.356
▁bouclier	-11.356
hili	-11.356
▁wàññiku	-11.356
▁conseil	-11.356
▁repen	-11.356
▁Musta	-11.356
▁conjugal	-11.356
▁Kenya	-11.356
▁ëw	-11.356
▁détest	-11.356
▁raf	-11.356
▁tunique	-11.356
▁Ngonka	-11.356
▁cachette	-11.356
▁tidiane	-11.356
▁ganej	-11.356
▁Bawob	-11.356
▁Babungoo	-11.356
▁trempe	-11.356
▁tiitaange	-11.3561
▁daagu	-11.3561
▁décid	-11.3561
phi	-11.3561
▁soppikoo	-11.3561
▁satisfai	-11.3561
▁défais	-11.3561
assey	-11.3561
▁rect	-11.3561
▁yéreem	-11.3561
▁xoox	-11.3561
▁kéwël	-11.3561
▁Sotti	-11.3561
▁voulez	-11.3561
▁brac	-11.3561
▁Damm	-11.3561
▁cubb	-11.3561
ap	-11.3561
▁ruine	-11.3562
▁distin	-11.3562
▁John	-11.3562
▁Dàmp	-11.3562
▁fameuse	-11.3562
usqu	-11.3562
▁Jaxaa	-11.3562
▁tayel	-11.3562
▁Ital	-11.3562
▁fëgg	-11.3562
jayaŋ	-11.3562
▁xadd	-11.3562
▁police	-11.3562
▁taureau	-11.3562
beem	-11.3563
▁manqué	-11.3563
roces	-11.3563
▁délaissé	-11.3563
atteler	-11.3563
▁Néeg	-11.3563
houette	-11.3563
jugub	-11.3563
▁welo	-11.3563
▁vieillesse	-11.3563
▁péex	-11.3563
▁accompagnait	-11.3563
▁croix	-11.3563
▁Dég	-11.3563
▁xërëm	-11.3563
▁tërali	-11.3563
▁cessé	-11.3563
▁combl	-11.3563
▁travaillait	-11.3564
qalikoo	-11.3564
▁immé	-11.3564
▁reviendra	-11.3564
▁sevr	-11.3564
appât	-11.3564
aajo	-11.3564
▁rodd	-11.3564
oppite	-11.3564
▁chaussette	-11.3564
aboli	-11.3564
▁jaxas	-11.3565
▁xëb	-11.3565
▁aimé	-11.3565
▁coggal	-11.3565
▁écoute	-11.3565
▁xutt	-11.3565
▁Wàll	-11.3565
jàmpe	-11.3565
▁Abdu	-11.3565
llou	-11.3565
raange	-11.3565
▁rév	-11.3565
fétiche	-11.3565
▁Mbëgg	-11.3566
▁Jaaykat	-11.3566
▁torche	-11.3566
▁marchand	-11.3566
ôtre	-11.3566
▁suspend	-11.3566
▁màkkaan	-11.3566
slaay	-11.3566
▁travaillé	-11.3566
hyg	-11.3566
▁njub	-11.3567
▁roussir	-11.3567
▁sindax	-11.3567
▁jombu	-11.3567
▁remonter	-11.3567
▁complic	-11.3567
▁mbej	-11.3567
▁gàngune	-11.3567
▁vendredi	-11.3567
▁natale	-11.3568
▁gëstu	-11.3568
▁combatt	-11.3568
▁Boro	-11.3568
▁fexe	-11.3568
chés	-11.3568
▁gallax	-11.3568
▁grimp	-11.3568
▁kaala	-11.3568
▁nëx	-11.3568
orité	-11.3568
▁venin	-11.3568
plié	-11.3568
▁xëpp	-11.3568
aaral	-11.3568
accompagner	-11.3569
illage	-11.3569
gàcce	-11.3569
pto	-11.3569
▁jàkkaar	-11.3569
▁retiens	-11.3569
▁chasserait	-11.357
▁brill	-11.357
▁descendre	-11.357
▁abrit	-11.357
▁misaal	-11.357
▁connaissent	-11.357
▁Bawo	-11.357
▁Këriñ	-11.3571
▁rawale	-11.3571
ànjaŋ	-11.3571
▁gërëm	-11.3571
▁aboient	-11.3571
vancé	-11.3571
▁rituel	-11.3571
ijji	-11.3571
▁maabo	-11.3571
urgie	-11.3571
▁Tàmm	-11.3571
▁Wutël	-11.3571
▁tournée	-11.3571
▁soif	-11.3571
▁général	-11.3571
▁transform	-11.3572
ourte	-11.3572
▁njabootam	-11.3572
▁kàttanu	-11.3572
accrocher	-11.3572
récipi	-11.3572
uuraay	-11.3572
▁absent	-11.3572
éloignement	-11.3572
▁facilement	-11.3572
àww	-11.3572
▁lutteur	-11.3572
▁rouille	-11.3573
▁Mbañ	-11.3573
▁puurit	-11.3573
idée	-11.3573
éwél	-11.3573
▁miirloo	-11.3573
▁sawaru	-11.3573
exist	-11.3574
▁àddu	-11.3574
▁bàq	-11.3574
moder	-11.3574
▁tàndarma	-11.3574
▁Yëf	-11.3575
▁collection	-11.3575
▁gaja	-11.3575
▁Mànd	-11.3575
▁romp	-11.3576
▁Filee	-11.3576
xumb	-11.3576
▁corrompu	-11.3576
▁Njoya	-11.3576
▁foli	-11.3576
▁ganesee	-11.3576
▁jaab	-11.3577
▁guérira	-11.3577
▁Gàcc	-11.3577
empris	-11.3577
▁gerc	-11.3577
tériel	-11.3577
intéresser	-11.3577
andise	-11.3577
▁Socc	-11.3577
kaw	-11.3578
▁règlement	-11.3578
fice	-11.3578
▁irrit	-11.3578
▁enferm	-11.3578
▁vif	-11.3579
▁pàq	-11.3579
▁fût	-11.3579
▁Déj	-11.3579
▁ngëm	-11.3579
plomb	-11.3579
▁crép	-11.358
▁dundaat	-11.358
▁plaid	-11.358
rifiai	-11.358
rngalu	-11.358
initi	-11.358
apparence	-11.358
ndol	-11.358
▁meetar	-11.3581
▁promis	-11.3581
pëti	-11.3581
▁origines	-11.3581
▁jouis	-11.3581
▁rendons	-11.3581
▁fóon	-11.3582
▁jebbi	-11.3582
impossib	-11.3582
▁tàggoo	-11.3583
▁allumette	-11.3583
▁brûlait	-11.3583
auvais	-11.3583
▁njaw	-11.3583
▁gilet	-11.3583
▁mettiwul	-11.3583
▁fermement	-11.3584
▁nugg	-11.3584
▁rach	-11.3584
▁luxe	-11.3585
aaleekum	-11.3585
▁colons	-11.3585
▁sakkan	-11.3585
▁Dinanu	-11.3585
▁poils	-11.3586
▁fàll	-11.3586
▁tiitar	-11.3586
▁foog	-11.3587
engl	-11.3587
▁Kowet	-11.3587
▁chevron	-11.3587
▁wef	-11.3587
vette	-11.3588
▁reelu	-11.3588
▁Jéeg	-11.3588
analete	-11.3588
intéressant	-11.3588
▁réparer	-11.3588
▁sokolaa	-11.3588
▁client	-11.3588
▁dooleem	-11.3588
▁entrait	-11.3588
▁lâcher	-11.3589
▁loppitaan	-11.3589
▁courir	-11.3589
▁Tàngaay	-11.3589
écope	-11.3589
ndax	-11.3589
▁jàppukaay	-11.3589
mero	-11.3589
identifi	-11.3589
▁médi	-11.359
goy	-11.359
inax	-11.359
▁commenceras	-11.359
▁asperg	-11.359
▁kidd	-11.3591
▁jalou	-11.3591
▁yombul	-11.3591
hée	-11.3591
▁naxant	-11.3592
▁bàyyee	-11.3592
▁enfil	-11.3593
▁scrut	-11.3593
▁choqu	-11.3593
▁Nég	-11.3594
▁troupe	-11.3594
▁coin	-11.3594
▁participerai	-11.3594
▁Degg	-11.3594
eegul	-11.3595
▁Léb	-11.3595
▁proprement	-11.3595
▁souillé	-11.3595
yugur	-11.3595
créti	-11.3595
▁contrai	-11.3595
▁njëmbët	-11.3596
▁élu	-11.3596
▁ñawlu	-11.3596
▁vivant	-11.3596
▁tombait	-11.3596
▁reco	-11.3597
▁Monro	-11.3597
▁cogn	-11.3597
▁yéwén	-11.3597
▁yeww	-11.3597
▁allumées	-11.3597
▁àntu	-11.3598
iakha	-11.3598
émie	-11.3599
▁épuisé	-11.3599
fort	-11.3599
▁Nguur	-11.3599
▁soj	-11.36
▁kuuy	-11.36
aveur	-11.36
▁Tëra	-11.36
▁consent	-11.36
▁retarder	-11.36
▁Gaw	-11.36
▁médic	-11.3601
▁làmboo	-11.3601
▁Bàkk	-11.3601
▁justement	-11.3601
▁tamis	-11.3601
▁Durba	-11.3601
▁coute	-11.3601
▁leerul	-11.3601
▁loxoo	-11.3601
uukar	-11.3601
▁àndandoo	-11.3601
▁Bois	-11.3602
ëtër	-11.3602
▁Faj	-11.3602
▁meeb	-11.3602
▁appel	-11.3602
▁matinée	-11.3602
▁Demkoon	-11.3602
▁Demande	-11.3603
▁Gumbe	-11.3603
▁tappale	-11.3603
▁riche	-11.3603
▁miséricorde	-11.3604
▁moderne	-11.3604
▁équatoriale	-11.3604
▁Poor	-11.3604
▁concerne	-11.3604
▁craquelée	-11.3604
▁égard	-11.3604
▁Yee	-11.3605
▁Dogal	-11.3605
léem	-11.3605
▁éduque	-11.3605
▁incendie	-11.3605
▁ordures	-11.3605
▁études	-11.3605
▁bourbouille	-11.3605
▁enthousias	-11.3605
▁écrire	-11.3605
▁élevage	-11.3605
▁gérer	-11.3605
▁agrandi	-11.3605
▁kersa	-11.3605
àppati	-11.3605
aloore	-11.3605
▁abeilles	-11.3605
▁appartement	-11.3605
▁poose	-11.3605
▁vainc	-11.3606
▁ndombo	-11.3606
▁ŋàbb	-11.3606
▁devrait	-11.3606
▁conduit	-11.3606
▁embarrassant	-11.3607
▁bouillant	-11.3607
▁bride	-11.3607
▁talent	-11.3607
▁avaler	-11.3607
albin	-11.3607
imique	-11.3608
▁mbott	-11.3608
▁diminue	-11.3608
▁solitaire	-11.3608
iitar	-11.3609
▁gentil	-11.3609
▁photographié	-11.3609
aiguise	-11.3609
▁gajj	-11.3609
▁bouscul	-11.3609
▁sutura	-11.3609
orts	-11.3609
▁Tënk	-11.361
▁preuve	-11.361
▁xoroo	-11.361
ourne	-11.361
▁plaintes	-11.361
▁foto	-11.361
▁moromam	-11.361
▁réveille	-11.3611
▁Lëg	-11.3611
▁berce	-11.3611
axum	-11.3612
▁yàmb	-11.3612
▁dédd	-11.3612
▁ànduñu	-11.3612
▁entretiennent	-11.3612
▁banque	-11.3612
▁wokk	-11.3612
▁sàppi	-11.3613
▁raconter	-11.3613
▁waŋ	-11.3613
rnées	-11.3613
quinz	-11.3613
▁wóorul	-11.3614
ëlëm	-11.3615
▁querelle	-11.3615
▁Yeb	-11.3615
▁baraa	-11.3615
▁crap	-11.3615
rngël	-11.3616
▁Juuf	-11.3616
pplaudiss	-11.3616
glis	-11.3617
▁sëppu	-11.3617
▁échappé	-11.3617
▁fudd	-11.3617
sèche	-11.3617
▁urin	-11.3618
▁invent	-11.3618
▁gàddaay	-11.3618
▁chiqu	-11.3619
riale	-11.3619
▁hérit	-11.3621
▁pâtes	-11.3622
▁Juifs	-11.3622
▁ŋaam	-11.3622
respon	-11.3622
▁lunettes	-11.3622
▁militaires	-11.3623
▁guérie	-11.3623
▁gubal	-11.3623
▁Lave	-11.3623
▁mër	-11.3623
▁gaz	-11.3623
▁jubb	-11.3624
porté	-11.3624
▁waane	-11.3625
▁sisal	-11.3625
▁commis	-11.3625
▁Teggi	-11.3626
▁bijou	-11.3627
▁figure	-11.3627
▁teggin	-11.3628
gami	-11.3628
▁endurcis	-11.3629
▁sél	-11.3629
▁souche	-11.3629
▁xëccee	-11.3629
▁animé	-11.363
▁socc	-11.363
ivré	-11.363
▁jouent	-11.363
▁lugg	-11.363
▁jaarukaay	-11.363
binu	-11.3631
▁sonnee	-11.3631
▁gamb	-11.3631
▁mienne	-11.3632
▁Gar	-11.3633
toris	-11.3633
mance	-11.3634
▁Bëggul	-11.3635
▁payer	-11.3635
▁taaj	-11.3636
▁dalukaay	-11.3636
▁palanteeram	-11.3636
▁noonam	-11.3637
▁fowal	-11.3637
▁mouches	-11.3638
▁mince	-11.3638
▁yamb	-11.3638
▁caisse	-11.3639
ension	-11.3639
▁takkat	-11.3639
▁Fenn	-11.364
▁tële	-11.364
▁cambar	-11.364
quillage	-11.364
▁tukkee	-11.3641
irable	-11.3641
▁Séet	-11.3641
▁màngi	-11.3641
▁kee	-11.3642
▁maïs	-11.3644
▁accueilli	-11.3644
▁colo	-11.3644
plaçai	-11.3645
▁yërëm	-11.3646
▁añe	-11.3646
▁yell	-11.3646
▁avantageu	-11.3648
ailler	-11.3648
▁xalam	-11.365
▁sombre	-11.365
▁fumer	-11.3651
▁Jàpp	-11.3651
▁pol	-11.3651
▁jong	-11.3651
uddi	-11.3652
▁raconte	-11.3653
▁sébbi	-11.3653
▁délicieuse	-11.3654
▁organisé	-11.3654
▁kawas	-11.3656
▁màcc	-11.3656
ssés	-11.3656
▁nuru	-11.3656
lancent	-11.3657
faan	-11.3657
▁yemul	-11.3658
rène	-11.3659
▁Miin	-11.366
▁caravan	-11.3661
▁rew	-11.3661
▁Cependant	-11.3661
waar	-11.3661
waale	-11.3661
▁turam	-11.3662
▁futur	-11.3662
habite	-11.3662
kor	-11.3664
▁Gaaw	-11.3664
franchi	-11.3665
▁Lond	-11.3665
▁sart	-11.3665
adique	-11.3665
▁Mfo	-11.3666
▁Feg	-11.3667
ienvenue	-11.3667
▁yooya	-11.3668
pid	-11.3668
orox	-11.3669
cteur	-11.367
▁salaat	-11.367
ddaay	-11.3671
uróo	-11.3671
erñent	-11.3671
▁miel	-11.3671
▁appare	-11.3673
▁Kàn	-11.3674
▁saññ	-11.3674
▁Ah	-11.3676
▁Jëkk	-11.3676
▁jëfandik	-11.3676
▁divorcé	-11.3679
▁dëñ	-11.3679
▁venge	-11.3679
▁kel	-11.368
▁robe	-11.3681
poto	-11.3681
▁alxa	-11.3681
▁sandale	-11.3681
ëtt	-11.3682
▁jubale	-11.3683
rrière	-11.3684
▁melo	-11.3685
▁bugg	-11.3685
▁xarat	-11.3685
▁regardent	-11.3686
▁impé	-11.3688
▁yàcc	-11.369
▁sing	-11.3692
▁sànke	-11.3692
▁gratuite	-11.3693
mide	-11.3693
▁Jeex	-11.3693
▁gang	-11.3693
▁nuque	-11.3695
▁trib	-11.3696
▁inspir	-11.3697
▁empêche	-11.3697
accouchement	-11.37
▁coloniale	-11.37
▁glissant	-11.37
▁ropp	-11.3701
▁inj	-11.3701
▁jabaram	-11.3701
▁conven	-11.3703
▁paiera	-11.3703
àccaar	-11.3704
▁sensible	-11.3704
exil	-11.3705
▁noot	-11.3705
▁Soppi	-11.3705
▁sapo	-11.3705
▁càq	-11.3705
▁àggee	-11.3706
▁dàllam	-11.3707
▁nkom	-11.3707
orant	-11.3707
▁arracher	-11.3707
▁prendras	-11.3709
▁sëpp	-11.3709
óobal	-11.3709
▁noppale	-11.3709
▁prier	-11.3709
▁Saaf	-11.371
▁faim	-11.371
▁reb	-11.371
▁dégét	-11.3712
▁sàqam	-11.3712
veillée	-11.3713
▁sekki	-11.3713
▁inform	-11.3713
acco	-11.3714
ñàdd	-11.3714
▁abso	-11.3714
▁alalam	-11.3714
▁ndog	-11.3715
▁hach	-11.3717
lekk	-11.3718
▁sëb	-11.3719
habillé	-11.3719
immi	-11.3721
▁Tax	-11.3721
▁cajj	-11.3723
▁jiwu	-11.3724
avec	-11.3724
▁ivre	-11.3724
atum	-11.3725
▁magum	-11.3727
▁Laaf	-11.3727
bari	-11.3728
▁sage	-11.3729
tuaire	-11.3729
ouiller	-11.3729
okkale	-11.373
▁esprits	-11.3731
▁sunn	-11.3734
onaleel	-11.3734
▁Nattal	-11.3737
kàttan	-11.3738
kaani	-11.3738
▁waax	-11.3738
enega	-11.3738
▁mouv	-11.3739
▁aveugles	-11.3741
▁rentre	-11.3741
▁Diri	-11.3742
▁gombos	-11.3742
▁bananes	-11.3742
▁connaissances	-11.3743
étern	-11.3743
▁présidents	-11.3744
▁conçus	-11.3745
▁gaaf	-11.3745
ttit	-11.3746
▁sortent	-11.3747
▁jéndoon	-11.3748
▁ñoy	-11.3749
inga	-11.3751
▁soins	-11.3751
▁mottes	-11.3751
lion	-11.3751
▁càcc	-11.3751
▁coule	-11.3755
▁ext	-11.3755
▁noppal	-11.3756
▁regrett	-11.3756
▁étale	-11.3757
ocrit	-11.3757
▁réput	-11.3758
▁tress	-11.376
érable	-11.376
▁conçues	-11.3761
▁deuil	-11.3762
▁doxal	-11.3763
▁vari	-11.3763
ewwi	-11.3764
▁abondan	-11.3765
▁nattu	-11.3767
ssage	-11.3768
▁Xalaa	-11.3768
▁Européens	-11.3768
▁jëfin	-11.3768
▁partant	-11.3769
▁gro	-11.3771
▁Kaka	-11.3772
▁hy	-11.3773
▁louche	-11.3775
▁interrog	-11.3776
▁bëtam	-11.3777
▁neexoon	-11.378
▁menu	-11.3782
▁chasser	-11.3782
igle	-11.3783
▁yebu	-11.3785
illons	-11.3786
▁arrachée	-11.3787
▁Af	-11.3788
oignés	-11.3789
▁douille	-11.3791
cain	-11.3791
▁gratt	-11.3792
▁Nou	-11.3792
▁sàpp	-11.3793
▁bist	-11.3794
▁interprète	-11.3794
▁occasion	-11.3794
▁Ñee	-11.3794
▁Deg	-11.3796
▁confiden	-11.3796
▁cueilli	-11.3796
▁Sere	-11.3799
▁baigne	-11.3799
excité	-11.3803
▁pey	-11.3805
▁ëlbati	-11.3807
▁Joor	-11.381
tivement	-11.381
mbuuj	-11.3811
▁jarre	-11.3812
▁xeexi	-11.3813
▁namm	-11.3816
liser	-11.3816
▁rattaxal	-11.3819
▁yées	-11.382
▁mbar	-11.382
▁teral	-11.382
wees	-11.3821
▁occupé	-11.3823
kurti	-11.3825
▁oreiller	-11.3827
ssois	-11.3827
▁dag	-11.3829
gàmbi	-11.3829
▁Doomu	-11.383
feuille	-11.383
▁maamam	-11.3833
▁xent	-11.3833
▁écouter	-11.3835
▁xaju	-11.3835
jet	-11.3835
▁saute	-11.3838
▁faste	-11.384
nable	-11.384
▁décoré	-11.3841
▁fitt	-11.3843
éem	-11.3847
tbal	-11.3848
▁neexee	-11.3848
▁muusal	-11.3849
chée	-11.3849
lukaay	-11.385
trave	-11.385
▁soutien	-11.3852
▁filé	-11.3852
▁koste	-11.3862
iroo	-11.3866
▁kaaf	-11.3867
▁Suur	-11.3867
▁utiles	-11.3867
▁domaines	-11.3868
▁policiers	-11.3868
▁jà	-11.3868
▁naturelle	-11.3868
▁Colonie	-11.3869
▁clés	-11.387
▁Dunu	-11.387
▁pleures	-11.3871
▁filets	-11.3871
ccat	-11.3871
merveille	-11.3872
jam	-11.3872
ives	-11.3872
▁hum	-11.3873
▁palmes	-11.3874
▁baaxoo	-11.3874
▁bête	-11.3875
▁Bitik	-11.3876
▁goyave	-11.3877
▁partent	-11.3877
▁arête	-11.3878
▁Sér	-11.3879
▁laxal	-11.388
▁verts	-11.388
▁niroole	-11.388
resser	-11.3882
▁trouble	-11.3886
▁saint	-11.3887
▁prenant	-11.3888
gase	-11.389
wàŋŋ	-11.389
▁Jooy	-11.3892
ppatoo	-11.3893
▁autorité	-11.3894
▁Pont	-11.3895
wet	-11.3895
▁lors	-11.3896
fete	-11.3896
itanie	-11.3897
rève	-11.3898
óoni	-11.3898
▁masque	-11.3898
▁remise	-11.39
▁xaalisam	-11.39
▁relié	-11.3904
▁yàggee	-11.3904
▁Ngi	-11.3906
▁nive	-11.3906
atique	-11.3906
▁Wer	-11.3907
▁diine	-11.3908
▁soppe	-11.3909
▁amaa	-11.3909
▁sepp	-11.391
▁gisul	-11.3912
▁tanqa	-11.3912
▁polis	-11.3912
écédé	-11.3913
▁gàkk	-11.3913
▁Tapp	-11.3914
▁Dë	-11.3914
bin	-11.3918
rable	-11.3918
▁jaamu	-11.392
▁perdues	-11.3923
▁mors	-11.3924
▁exerc	-11.3926
xaan	-11.3926
▁fauc	-11.3928
▁yaak	-11.3928
▁barb	-11.3928
▁poiss	-11.393
▁valu	-11.3933
▁décol	-11.3935
▁nekkul	-11.3939
▁épis	-11.3939
rki	-11.3941
▁basi	-11.3941
attax	-11.3942
▁sori	-11.3942
▁Fum	-11.3942
▁sarc	-11.3943
àccu	-11.3943
▁Tontu	-11.3945
▁waajal	-11.3947
▁mbàjj	-11.3947
▁heure	-11.3949
ètre	-11.3952
élic	-11.3952
eusement	-11.3954
▁voulais	-11.3956
▁téeg	-11.3957
▁appar	-11.3958
▁pure	-11.3959
voie	-11.3963
▁frit	-11.3965
jaaj	-11.3967
▁feyu	-11.3968
tise	-11.397
▁Sang	-11.397
▁basse	-11.3971
▁reçue	-11.3973
▁chanc	-11.3976
▁Ré	-11.3978
▁rideau	-11.398
▁yaayam	-11.3982
▁ameel	-11.3986
errez	-11.3986
▁Ker	-11.399
fi	-11.3992
▁moll	-11.3993
aga	-11.3995
▁pirogues	-11.3995
▁secrets	-11.3995
▁honneur	-11.3996
▁xos	-11.3999
▁devra	-11.4009
▁woor	-11.4009
▁fanq	-11.4011
▁tëy	-11.4014
nalité	-11.4016
émboo	-11.4017
▁surux	-11.4017
▁lesquel	-11.402
▁suppo	-11.4024
▁Tire	-11.403
▁écu	-11.4034
rôle	-11.4037
▁cotonn	-11.4039
xam	-11.4039
▁défie	-11.4042
▁Kee	-11.4044
▁lunk	-11.4046
get	-11.4051
▁marchera	-11.4051
▁Xeet	-11.4062
▁wolofal	-11.4063
ñum	-11.4063
▁ndim	-11.4064
▁biiñ	-11.4067
▁battant	-11.4071
▁défil	-11.4073
▁opeereka	-11.4077
ngoro	-11.4078
ide	-11.4078
arci	-11.4084
▁har	-11.409
▁nàmpal	-11.4092
▁Rii	-11.4094
▁guddal	-11.4098
diiraan	-11.4099
▁Kook	-11.41
ouillé	-11.4103
▁wecc	-11.4104
▁rassembl	-11.4108
▁pili	-11.4109
▁suit	-11.4114
ogne	-11.4115
▁fouet	-11.4117
retam	-11.4117
▁mandi	-11.4124
▁toŋ	-11.4124
▁quartiers	-11.4125
▁miroirs	-11.4125
▁sinu	-11.4126
▁dispo	-11.4127
▁fusils	-11.4128
impos	-11.4128
▁lëpp	-11.4132
monte	-11.4133
iwul	-11.4137
▁réewam	-11.4143
▁luq	-11.4145
inemaa	-11.4146
▁gain	-11.415
▁Ax	-11.4164
▁fóote	-11.4166
urisé	-11.4169
▁ràbbe	-11.4178
▁plate	-11.4183
iront	-11.4185
auricien	-11.4186
▁fatal	-11.4186
inu	-11.4191
▁Fé	-11.4191
▁sóor	-11.4193
▁devrai	-11.4194
vée	-11.4198
▁amaat	-11.4199
▁koň	-11.4201
▁Tari	-11.4201
▁Europe	-11.421
▁Kuma	-11.4211
▁luci	-11.4216
▁mà	-11.4218
veau	-11.4222
spect	-11.4223
▁Sam	-11.4226
▁ñàkki	-11.4226
eneer	-11.4226
▁Wet	-11.4227
oreyante	-11.4233
▁laide	-11.4235
▁soqi	-11.4237
▁manoo	-11.4238
▁rapporter	-11.424
uw	-11.4243
▁Wooy	-11.4243
▁Mer	-11.4243
▁embr	-11.4245
▁armée	-11.4248
▁reti	-11.4255
▁conditions	-11.4257
▁gré	-11.4257
▁couchés	-11.4257
▁taqal	-11.4262
ëxée	-11.4263
▁esprit	-11.4263
illustra	-11.4264
assaillir	-11.4265
▁méngale	-11.4266
▁ëppal	-11.4269
▁essai	-11.427
▁remplie	-11.4281
▁Tuur	-11.4284
boŋ	-11.4285
attache	-11.4287
▁mayul	-11.4295
▁mudd	-11.4295
▁invit	-11.4296
imoŋ	-11.4298
▁arrivera	-11.4298
▁songe	-11.4299
ànni	-11.4301
▁doŋ	-11.4304
▁Wóo	-11.4306
▁prie	-11.4319
▁Lion	-11.4321
gourdes	-11.4321
gure	-11.4321
▁maîtres	-11.4327
▁cassera	-11.434
▁frai	-11.4347
▁dikkal	-11.4356
▁confin	-11.4357
▁chass	-11.4357
nni	-11.436
▁enf	-11.436
▁froide	-11.4363
▁lou	-11.4367
▁wétt	-11.4368
▁guyy	-11.4377
ppar	-11.4377
▁wotee	-11.4377
▁jiin	-11.4379
góo	-11.4383
▁baña	-11.4384
▁couches	-11.4389
▁chemins	-11.439
▁jànqu	-11.439
▁dawal	-11.439
▁portion	-11.4405
▁vanit	-11.4405
▁Way	-11.4409
ha	-11.4409
▁Ndi	-11.441
▁taali	-11.4412
maam	-11.4415
▁joo	-11.4419
stig	-11.4422
▁jolies	-11.4424
▁kaay	-11.4426
▁rond	-11.4429
▁Ñoor	-11.4435
▁gës	-11.4435
▁crott	-11.4437
tentation	-11.4442
pulsé	-11.4447
▁xay	-11.4449
▁permett	-11.4454
▁degg	-11.4456
jéeg	-11.446
▁cub	-11.4464
▁seek	-11.4468
▁keb	-11.4469
àppu	-11.4471
▁française	-11.4472
▁étalée	-11.4475
gëlé	-11.448
▁Banyo	-11.4481
envelopp	-11.4483
oirs	-11.4486
neau	-11.4489
▁dou	-11.449
▁atam	-11.4491
libéré	-11.4497
bon	-11.4498
▁boul	-11.4514
▁apporter	-11.4519
▁creuse	-11.4522
▁larges	-11.4524
gement	-11.4531
▁tànki	-11.4543
▁normale	-11.4548
▁che	-11.4549
▁brutale	-11.4549
▁Quelqu	-11.4552
▁consulte	-11.4559
▁danañ	-11.4562
▁médecine	-11.4565
▁jaaykat	-11.4567
▁longe	-11.4567
▁tuya	-11.4568
▁sati	-11.4579
▁ap	-11.458
▁Rou	-11.4585
root	-11.4592
aral	-11.4595
▁malé	-11.4618
cal	-11.4622
▁Dés	-11.4625
▁Daawu	-11.4626
▁guette	-11.463
▁salaam	-11.4633
caaf	-11.4656
▁gënn	-11.4657
lir	-11.4657
▁tis	-11.4664
▁sanq	-11.4664
iendras	-11.4673
▁doonoon	-11.4674
àngi	-11.4676
▁Ndaa	-11.4677
▁coupés	-11.4677
jëmbët	-11.468
lit	-11.4683
▁coeurs	-11.4692
▁chanter	-11.4694
fs	-11.4704
▁courb	-11.4705
▁reconnaiss	-11.4715
ccin	-11.472
▁dell	-11.4721
▁doxale	-11.4729
▁demeur	-11.4737
▁xiis	-11.4738
naires	-11.4744
▁lël	-11.4747
▁soeur	-11.4758
▁cimenté	-11.4758
▁jab	-11.4765
ëbbin	-11.4765
bor	-11.4778
▁ndek	-11.4785
▁laissera	-11.4799
▁wew	-11.4802
essine	-11.4808
iger	-11.4811
ouvre	-11.4816
ouchai	-11.4816
▁vil	-11.4843
▁dépl	-11.4845
▁rob	-11.485
▁Mbë	-11.4854
▁Lée	-11.4855
▁ëf	-11.4866
▁rusé	-11.4877
▁Ñent	-11.4898
▁gala	-11.4908
▁app	-11.4909
▁Pas	-11.4913
ggar	-11.492
akaar	-11.4935
ffronter	-11.494
▁habil	-11.4943
alade	-11.4944
▁Rid	-11.4953
▁coul	-11.4995
amuse	-11.4996
▁wóoluwu	-11.4998
ber	-11.5007
énoué	-11.5018
▁révolt	-11.5025
▁répliqua	-11.503
▁Mboot	-11.5035
▁Bàyy	-11.504
qui	-11.5044
sinu	-11.506
▁manquer	-11.5074
▁jara	-11.5077
bàjj	-11.5077
▁tente	-11.5078
yagar	-11.5083
▁melax	-11.5084
écante	-11.5095
▁xer	-11.5104
▁décla	-11.5104
▁péni	-11.5115
▁déd	-11.5125
▁nib	-11.5128
▁nëw	-11.5137
cola	-11.5138
boug	-11.514
▁dundal	-11.5143
àqum	-11.5174
kërëb	-11.5178
më	-11.5178
▁essu	-11.5202
galee	-11.5203
▁gàll	-11.5207
▁nara	-11.5211
isin	-11.5219
awale	-11.5221
▁giif	-11.5238
uub	-11.524
▁sibir	-11.5245
oubli	-11.525
▁boddi	-11.5253
▁Doy	-11.5255
▁dinde	-11.5262
ëng	-11.5274
zar	-11.5277
ouf	-11.5297
élague	-11.5306
▁feras	-11.5342
utour	-11.5368
allumer	-11.537
vo	-11.5372
▁pisse	-11.5379
tante	-11.5389
▁Pai	-11.5389
▁compare	-11.5391
uuti	-11.5392
▁auto	-11.5403
▁nation	-11.5422
▁déplace	-11.5422
▁examine	-11.5433
▁abord	-11.5447
ok	-11.5472
activer	-11.5495
lution	-11.5497
ayum	-11.5505
Agade	-11.5508
▁meññee	-11.5518
colis	-11.5518
jant	-11.5521
▁Njàng	-11.5531
ises	-11.5533
étonn	-11.5539
▁Ha	-11.5561
▁awu	-11.5561
▁dormai	-11.5584
▁effe	-11.5588
▁déta	-11.5602
éprouv	-11.5603
▁Co	-11.5625
àbb	-11.563
▁paye	-11.566
▁digaalee	-11.5677
▁Dikka	-11.5701
▁aille	-11.5718
▁ronge	-11.5719
▁Sonn	-11.5748
▁jàjj	-11.576
▁pointu	-11.5766
rruption	-11.5773
▁démen	-11.5808
▁soppik	-11.5819
▁njëkke	-11.5847
▁rempliss	-11.5879
▁remett	-11.5884
▁rouillé	-11.5894
ñoom	-11.5906
▁bes	-11.5935
▁Nge	-11.5939
pignon	-11.5957
perf	-11.5959
ctoire	-11.5977
▁voût	-11.5983
▁pë	-11.5987
agissa	-11.5988
▁provis	-11.5997
jjaa	-11.5998
àkka	-11.6001
▁Sal	-11.6022
▁jotagu	-11.6027
royant	-11.603
▁pleu	-11.6045
▁verr	-11.6049
same	-11.606
ordon	-11.6063
xlu	-11.6067
taab	-11.6071
mul	-11.6079
▁Wat	-11.6085
▁lakkal	-11.6094
gra	-11.6103
▁prendra	-11.6127
uppu	-11.6133
▁désa	-11.6135
▁able	-11.6145
àjjee	-11.6167
▁fam	-11.6167
▁coque	-11.6175
yri	-11.6177
▁yëngoo	-11.6189
▁lente	-11.6191
▁tuutee	-11.6191
▁dóo	-11.6197
poor	-11.62
▁yoor	-11.62
▁ndé	-11.6207
mée	-11.6216
bes	-11.6266
disciplin	-11.6267
aayoo	-11.6277
ourse	-11.6295
alo	-11.632
énergie	-11.6342
▁ava	-11.6353
▁mbell	-11.6362
▁tàggatoo	-11.6379
taud	-11.638
filtre	-11.6388
visible	-11.639
bër	-11.6401
éche	-11.6405
▁bóo	-11.6427
énorme	-11.6435
énj	-11.6441
▁Ndok	-11.6463
buk	-11.6477
▁refusai	-11.6497
▁vendue	-11.6508
▁gàng	-11.6543
▁accou	-11.6578
▁cherchai	-11.6578
▁taamuwu	-11.6589
▁Jén	-11.6597
▁vraie	-11.6604
mené	-11.6618
anglaise	-11.6671
lancé	-11.6676
▁rocc	-11.6717
omu	-11.6724
agante	-11.6735
▁Per	-11.6835
likoo	-11.6865
▁mente	-11.6869
luent	-11.6881
▁yéege	-11.6883
▁Ñaw	-11.6911
aaba	-11.6921
▁xoo	-11.6926
rions	-11.6982
oirie	-11.6992
axasoo	-11.7015
rcis	-11.7058
▁supp	-11.7088
▁Séer	-11.7093
▁écar	-11.711
▁affect	-11.7112
▁wata	-11.7159
baan	-11.7162
▁soulev	-11.717
enflures	-11.7173
▁dakk	-11.7183
annoncer	-11.7199
issez	-11.7201
▁Aime	-11.7204
outir	-11.7215
▁njuu	-11.723
étage	-11.7235
▁voyager	-11.7244
laañaan	-11.7263
ause	-11.7284
urux	-11.7333
▁Dém	-11.7347
▁éch	-11.7355
ncombre	-11.7405
écourage	-11.7407
dresse	-11.7418
guloo	-11.7418
eeru	-11.7424
▁indien	-11.7426
▁Yeg	-11.7431
iform	-11.7463
▁See	-11.7464
▁sala	-11.7502
gaañ	-11.7509
échappe	-11.7532
abri	-11.7575
àkkaan	-11.7601
▁enflure	-11.7663
irer	-11.7707
▁gagne	-11.7746
tolé	-11.7749
▁ret	-11.777
éebam	-11.7771
▁gran	-11.7789
▁décore	-11.779
gagé	-11.7799
ëlë	-11.785
▁créati	-11.7881
▁sàngu	-11.7882
▁Ruu	-11.79
forme	-11.7909
▁occupe	-11.7985
añaan	-11.8003
exerc	-11.8008
ékkee	-11.8119
install	-11.8124
mball	-11.8132
accoud	-11.814
pha	-11.8169
▁ňaa	-11.8214
ailes	-11.8221
ëkkandoo	-11.8273
▁étag	-11.8298
iner	-11.8299
▁juun	-11.8356
odd	-11.8372
▁Póo	-11.8383
ongés	-11.8391
▁prive	-11.8413
aari	-11.8451
▁trav	-11.8493
▁énorm	-11.8496
▁ressemblai	-11.8526
▁maraa	-11.8564
▁énergi	-11.861
▁cruel	-11.8613
ancé	-11.8624
▁tëw	-11.8625
▁Xo	-11.8658
▁discipl	-11.8703
▁dangereu	-11.8729
▁pleuv	-11.8753
aï	-11.8802
▁jér	-11.8857
raale	-11.887
▁defare	-11.8885
reuse	-11.8905
▁wóo	-11.8906
répare	-11.8927
accouchée	-11.898
tem	-11.9018
éclaire	-11.907
préci	-11.908
▁vict	-11.9098
gati	-11.9115
rotte	-11.9119
expl	-11.9134
▁pratiqu	-11.9136
montée	-11.9147
▁taas	-11.9156
▁risqu	-11.917
rier	-11.9171
naaw	-11.9188
voûté	-11.9331
attent	-11.9386
ndaar	-11.9399
ifs	-11.943
origine	-11.9433
▁Prend	-11.946
oxaan	-11.9465
prouve	-11.9606
▁mënun	-11.9672
étend	-11.9757
▁gata	-11.98
▁domoda	-11.9807
wel	-11.9816
gadee	-11.9818
siti	-11.9825
▁examin	-11.986
atoire	-11.9863
▁déplac	-11.9875
▁Kaa	-11.9888
▁compar	-11.9923
▁njà	-11.9928
▁xata	-11.9938
élagu	-12.0053
gori	-12.006
donnent	-12.0082
▁promet	-12.0168
rén	-12.0186
▁rajoo	-12.0202
éeru	-12.0262
▁pieu	-12.0318
▁xipp	-12.0345
produi	-12.036
▁infiltr	-12.0382
nti	-12.042
▁manifest	-12.0449
▁répliqu	-12.0501
arade	-12.0504
naissent	-12.0517
éclate	-12.0518
▁dénou	-12.0525
àyyee	-12.0538
farlu	-12.0544
▁souhait	-12.055
▁arrach	-12.0597
ciné	-12.0721
aawu	-12.0733
▁avi	-12.0736
▁salue	-12.0741
ñeek	-12.0785
oddik	-12.0825
ëmbal	-12.0829
▁Mboo	-12.0832
▁wéer	-12.0833
▁siboo	-12.0848
▁couvr	-12.0863
▁Couv	-12.0947
futé	-12.1002
burg	-12.1008
ssie	-12.101
pët	-12.1062
▁dorm	-12.1085
rasse	-12.1114
▁xolli	-12.1116
▁Lë	-12.1132
▁représent	-12.1199
ingre	-12.1216
rrache	-12.1222
habitation	-12.1244
inféri	-12.1259
oqar	-12.1314
▁Loxo	-12.1326
tiendra	-12.1334
▁Sëri	-12.1339
èt	-12.1342
▁Njo	-12.1348
▁bér	-12.1361
▁normal	-12.1361
eff	-12.1384
▁consult	-12.1386
habille	-12.1387
▁brutal	-12.1391
▁imite	-12.141
▁hât	-12.142
▁guid	-12.1434
▁Bam	-12.1442
▁Mange	-12.1446
▁ndó	-12.147
▁mouss	-12.1533
expuls	-12.1557
cheur	-12.1597
puissant	-12.1631
kolaa	-12.1634
vais	-12.1665
▁caillo	-12.1666
pousse	-12.167
▁géw	-12.1675
▁revêt	-12.1706
▁màn	-12.1722
ouch	-12.1736
▁jànq	-12.1744
ttali	-12.1779
obt	-12.1833
cille	-12.1861
▁yék	-12.1863
▁Pë	-12.1872
argal	-12.1885
▁dénu	-12.1912
▁arab	-12.1914
oroŋ	-12.1918
▁assailli	-12.192
▁méng	-12.1921
▁partena	-12.1929
nviter	-12.1931
cifi	-12.1981
pect	-12.1981
ganu	-12.201
▁préserv	-12.2022
▁limite	-12.2029
kaaf	-12.2047
▁soq	-12.2068
▁voudr	-12.2069
▁recev	-12.2078
ryaa	-12.2099
formé	-12.2101
bëgg	-12.2127
▁bri	-12.2127
▁habi	-12.2133
▁châ	-12.2138
osse	-12.214
commença	-12.216
touches	-12.2182
auric	-12.2185
▁déch	-12.2196
aamaal	-12.2204
▁karo	-12.224
passe	-12.2257
Chant	-12.2279
▁ân	-12.2295
▁opeere	-12.2318
ëmbët	-12.2339
▁fron	-12.2348
eyantee	-12.2353
▁reten	-12.2357
▁extra	-12.2364
▁detaa	-12.237
▁Gó	-12.237
ërëx	-12.2435
filé	-12.247
tendues	-12.2485
▁Kàdd	-12.2491
▁Serre	-12.2526
▁yér	-12.2536
▁adm	-12.2563
â	-12.2571
âtir	-12.259
▁imag	-12.2593
alaama	-12.2602
iscut	-12.2604
ève	-12.2612
lustra	-12.2619
qata	-12.2631
vilis	-12.2634
▁génér	-12.2671
verses	-12.2712
xuux	-12.2712
▁yóbba	-12.2712
allong	-12.272
ccroche	-12.2724
▁guett	-12.2753
▁souff	-12.2755
▁goyav	-12.2766
lieux	-12.2769
▁bêt	-12.2769
▁jébba	-12.2772
mbaar	-12.2775
erveille	-12.2778
▁troubl	-12.2779
▁Coloni	-12.2784
▁inv	-12.279
cédé	-12.2812
▁remis	-12.2833
accept	-12.2858
▁jàmb	-12.289
▁nawe	-12.2893
▁prév	-12.2896
indre	-12.2898
chouc	-12.2924
▁jooj	-12.2943
oration	-12.2948
lbatiku	-12.2949
▁cueill	-12.2953
▁moto	-12.296
ô	-12.2962
tooge	-12.2966
rches	-12.2981
ivement	-12.2985
▁só	-12.2988
rosse	-12.2991
ndóo	-12.3012
▁différenc	-12.3023
▁répu	-12.3039
anglo	-12.3041
rëm	-12.3042
▁regret	-12.3048
▁riv	-12.3049
▁netto	-12.3059
gourdi	-12.3072
▁suffisant	-12.3078
oro	-12.3085
llarñi	-12.3091
▁abonda	-12.3096
▁gris	-12.3107
dë	-12.3111
ambaaj	-12.3116
solée	-12.312
ssembler	-12.3139
éveill	-12.315
ww	-12.3169
roc	-12.317
adress	-12.3174
émmiñ	-12.3177
▁touff	-12.318
▁Vers	-12.3187
▁rô	-12.319
In	-12.3204
amulette	-12.3207
▁Xala	-12.3214
buusu	-12.3217
ndiku	-12.3222
▁Jëm	-12.3228
▁divorc	-12.3236
ivr	-12.3236
utons	-12.3243
▁buddee	-12.3254
▁voyag	-12.3255
▁frott	-12.3255
▁sow	-12.3267
▁jëfandiko	-12.327
▁acte	-12.327
▁aigre	-12.3271
▁ngë	-12.3272
▁expé	-12.3274
vir	-12.3276
▁mó	-12.3279
▁humain	-12.3279
entrai	-12.3292
▁dépouill	-12.3296
oup	-12.3297
▁guéri	-12.3298
▁rentr	-12.33
▁méchan	-12.3308
apote	-12.3313
assist	-12.3315
ibbisi	-12.3318
plaça	-12.3318
▁accueill	-12.3322
obtien	-12.3322
▁chambr	-12.3324
▁anim	-12.3327
ancent	-12.3329
▁maquill	-12.3334
▁nourri	-12.3334
▁actuelle	-12.3339
écor	-12.3343
▁pàp	-12.3352
faraa	-12.3353
écha	-12.3357
▁résiden	-12.3357
▁entrev	-12.3367
L	-12.3389
I	-12.3408
î	-12.3482
Ò	-12.3552
ò	-12.3552
+	-12.3552
7	-12.3552
°	-12.3552
í	-12.3552
̺	-12.3552
Z	-13.6246
6	-13.6247
4	-13.6248
“	-13.6249
ã	-13.625
Ó	-13.6251
Ê	-13.6252
Ë	-13.6253
œ	-13.6254
É	-13.6255
9	-13.6256
1	-13.6257
(	-13.6258
H	-13.6259
Ç	-13.626
–	-13.6261
À	-13.6262
»	-13.6263
U	-13.6264
R	-13.6265
:	-13.6266
V	-13.6267
Ñ	-13.6268
ç	-13.6269
E	-13.627
X	-13.6271
Y	-13.6272
Q	-13.6273
W	-13.6274
P	-13.6275
G	-13.6276
K	-13.6277
O	-13.6278
ê	-13.6279
ó	-13.628
T	-13.6281
N	-13.6282
B	-13.6283
J	-13.6284
M	-13.6285
?	-13.6286
D	-13.6287
!	-13.6288
