{
  "version": "1.0",
  "truncation": null,
  "padding": null,
  "added_tokens": [
    {
      "id": 0,
      "content": "<cls>",
      "single_word": false,
      "lstrip": false,
      "rstrip": false,
      "normalized": false,
      "special": true
    },
    {
      "id": 1,
      "content": "<sep>",
      "single_word": false,
      "lstrip": false,
      "rstrip": false,
      "normalized": false,
      "special": true
    },
    {
      "id": 2,
      "content": "<unk>",
      "single_word": false,
      "lstrip": false,
      "rstrip": false,
      "normalized": false,
      "special": true
    },
    {
      "id": 3,
      "content": "<pad>",
      "single_word": false,
      "lstrip": false,
      "rstrip": false,
      "normalized": false,
      "special": true
    },
    {
      "id": 4,
      "content": "<mask>",
      "single_word": false,
      "lstrip": false,
      "rstrip": false,
      "normalized": false,
      "special": true
    },
    {
      "id": 5,
      "content": "<s>",
      "single_word": false,
      "lstrip": false,
      "rstrip": false,
      "normalized": false,
      "special": true
    },
    {
      "id": 6,
      "content": "</s>",
      "single_word": false,
      "lstrip": false,
      "rstrip": false,
      "normalized": false,
      "special": true
    }
  ],
  "normalizer": {
    "type": "Replace",
    "pattern": {
      "String": " {2,}"
    },
    "content": " "
  },
  "pre_tokenizer": {
    "type": "Metaspace",
    "replacement": "▁",
    "add_prefix_space": true
  },
  "post_processor": null,
  "decoder": {
    "type": "Metaspace",
    "replacement": "▁",
    "add_prefix_space": true
  },
  "model": {
    "type": "Unigram",
    "unk_id": 2,
    "vocab": [
      [
        "<cls>",
        0.0
      ],
      [
        "<sep>",
        0.0
      ],
      [
        "<unk>",
        0.0
      ],
      [
        "<pad>",
        0.0
      ],
      [
        "<mask>",
        0.0
      ],
      [
        "<s>",
        0.0
      ],
      [
        "</s>",
        0.0
      ],
      [
        "▁",
        -2.585146782095279
      ],
      [
        ".",
        -3.1670681806149936
      ],
      [
        ",",
        -3.717007580494271
      ],
      [
        "?",
        -4.095564929823188
      ],
      [
        "!",
        -4.194066603449544
      ],
      [
        "s",
        -4.254938174317149
      ],
      [
        "▁la",
        -4.402444082165023
      ],
      [
        "▁de",
        -4.580230160675805
      ],
      [
        "e",
        -4.64277580083739
      ],
      [
        "a",
        -4.737990904215329
      ],
      [
        "u",
        -4.786372171170797
      ],
      [
        "▁ci",
        -4.795242308873278
      ],
      [
        "▁qui",
        -4.9405177447973
      ],
      [
        "y",
        -4.965816913657312
      ],
      [
        "▁na",
        -4.9914418377470895
      ],
      [
        "n",
        -5.019746178272115
      ],
      [
        "i",
        -5.024782922643016
      ],
      [
        "▁est",
        -5.104367612470892
      ],
      [
        "▁!",
        -5.138108202564619
      ],
      [
        "▁dem",
        -5.145622434728927
      ],
      [
        "▁que",
        -5.216228166338502
      ],
      [
        "▁ne",
        -5.247252580812155
      ],
      [
        "▁un",
        -5.254967787213944
      ],
      [
        "▁pas",
        -5.259235623786052
      ],
      [
        "▁C'est",
        -5.2725949474120215
      ],
      [
        "t",
        -5.274588670492666
      ],
      [
        "▁gi",
        -5.29171598471501
      ],
      [
        "▁Il",
        -5.311385862151313
      ],
      [
        "▁a",
        -5.321792759393142
      ],
      [
        "▁des",
        -5.35084642760094
      ],
      [
        "et",
        -5.385960940341547
      ],
      [
        "▁naa",
        -5.460144215039
      ],
      [
        "▁vu",
        -5.47779915434989
      ],
      [
        "▁bi",
        -5.525259433534877
      ],
      [
        "▁ŋga",
        -5.567255429917182
      ],
      [
        "▁ay",
        -5.596067977808611
      ],
      [
        "▁G",
        -5.6005934624690585
      ],
      [
        "une",
        -5.608446239021112
      ],
      [
        "óor",
        -5.662254462332709
      ],
      [
        "▁y",
        -5.723175063506432
      ],
      [
        "▁am",
        -5.728413518686302
      ],
      [
        "▁le",
        -5.767240360923958
      ],
      [
        "▁Gis",
        -5.786608742851023
      ],
      [
        "▁tu",
        -5.80965328033269
      ],
      [
        "▁ce",
        -5.818257886853204
      ],
      [
        "l",
        -5.828343810802925
      ],
      [
        "▁mu",
        -5.863877563944362
      ],
      [
        "▁à",
        -5.864744338510956
      ],
      [
        "r",
        -5.875972721277275
      ],
      [
        "▁gis",
        -5.881822438032427
      ],
      [
        "▁sont",
        -5.886916879709736
      ],
      [
        "▁Je",
        -5.888153735842302
      ],
      [
        "▁di",
        -5.895006442032056
      ],
      [
        "▁Tu",
        -5.90512644335718
      ],
      [
        "▁homme",
        -5.919387803227798
      ],
      [
        "▁nag",
        -5.93959148855902
      ],
      [
        "▁bu",
        -5.948565877957942
      ],
      [
        "▁été",
        -5.962033207501363
      ],
      [
        "on",
        -5.971721013189025
      ],
      [
        "▁les",
        -5.972116947183712
      ],
      [
        "▁L'homme",
        -5.990355090446076
      ],
      [
        "▁ñu",
        -5.991788989880706
      ],
      [
        "▁du",
        -6.02060512834056
      ],
      [
        "▁yu",
        -6.0338816312804635
      ],
      [
        "▁c",
        -6.051364848468027
      ],
      [
        "▁ni",
        -6.091603162175193
      ],
      [
        "▁photo",
        -6.094691660999397
      ],
      [
        "▁J'ai",
        -6.095236416405632
      ],
      [
        "▁ko",
        -6.103564121633933
      ],
      [
        "▁ak",
        -6.118957403207923
      ],
      [
        "▁xam",
        -6.123163347122731
      ],
      [
        "▁ngi",
        -6.1429568185731265
      ],
      [
        "▁nit",
        -6.164017012107199
      ],
      [
        "▁ba",
        -6.164285953336405
      ],
      [
        "▁ñëw",
        -6.166698673622107
      ],
      [
        "▁yi",
        -6.1814459049994
      ],
      [
        "▁wax",
        -6.18286438610882
      ],
      [
        "le",
        -6.202241534602612
      ],
      [
        "▁il",
        -6.206242214404469
      ],
      [
        "▁l'homme",
        -6.235087600087565
      ],
      [
        "▁n",
        -6.250805949320522
      ],
      [
        "▁en",
        -6.256832238515686
      ],
      [
        "à",
        -6.273104670728502
      ],
      [
        "▁bii",
        -6.277946998879877
      ],
      [
        "▁ma",
        -6.294738126697263
      ],
      [
        "▁qu'il",
        -6.31378603848092
      ],
      [
        "▁nekk",
        -6.324848981578338
      ],
      [
        "il",
        -6.342288615017777
      ],
      [
        "▁avec",
        -6.344086689829519
      ],
      [
        "▁góor",
        -6.355068398933994
      ],
      [
        "▁c'est",
        -6.359309417107548
      ],
      [
        "m",
        -6.360698814815188
      ],
      [
        "▁Nit",
        -6.3973709974652255
      ],
      [
        "▁parti",
        -6.39999356907772
      ],
      [
        "é",
        -6.4432058214948
      ],
      [
        "nt",
        -6.448264631773742
      ],
      [
        "▁pour",
        -6.467681310243885
      ],
      [
        "▁Sur",
        -6.471465536398725
      ],
      [
        "▁te",
        -6.47169442477587
      ],
      [
        "▁ab",
        -6.486475505719838
      ],
      [
        "▁lu",
        -6.494382872023883
      ],
      [
        "▁autre",
        -6.506764093697285
      ],
      [
        "▁dans",
        -6.507154458481119
      ],
      [
        "▁sur",
        -6.510726545548655
      ],
      [
        "▁benn",
        -6.513100218798598
      ],
      [
        "▁la.",
        -6.513547081890369
      ],
      [
        "▁biir",
        -6.525299972422858
      ],
      [
        "▁boo",
        -6.536959488608178
      ],
      [
        "▁mi",
        -6.544172841385531
      ],
      [
        "▁d",
        -6.569318877977251
      ],
      [
        "▁se",
        -6.589921366859587
      ],
      [
        "▁aussi",
        -6.591805791901705
      ],
      [
        "▁Nataal",
        -6.6090942367101135
      ],
      [
        "▁je",
        -6.616261808986068
      ],
      [
        "▁cet",
        -6.626827270372221
      ],
      [
        "▁ñi",
        -6.6710997016344376
      ],
      [
        "▁ŋgi",
        -6.672680387907021
      ],
      [
        "▁O",
        -6.6743010819814454
      ],
      [
        "▁bëgg",
        -6.674569780565356
      ],
      [
        "▁si",
        -6.683706256813422
      ],
      [
        "▁fi",
        -6.717911230181752
      ],
      [
        "▁ki",
        -6.7185662859381425
      ],
      [
        "▁moom",
        -6.720401257025134
      ],
      [
        "s-t",
        -6.720695789700304
      ],
      [
        "eneen",
        -6.721299280298831
      ],
      [
        "ette",
        -6.729139509567878
      ],
      [
        "▁mel",
        -6.731631473857094
      ],
      [
        "▁def",
        -6.7346242687475435
      ],
      [
        "▁ñoo",
        -6.737093624738872
      ],
      [
        "▁xale",
        -6.753821575770338
      ],
      [
        "▁là",
        -6.7572622199355115
      ],
      [
        "ay",
        -6.767230453245763
      ],
      [
        "▁Ce",
        -6.7698245698123625
      ],
      [
        "▁A",
        -6.7714978668858485
      ],
      [
        "▁l'intérieur",
        -6.773198936904855
      ],
      [
        "▁Le",
        -6.776247553282613
      ],
      [
        "▁vois",
        -6.781824125900924
      ],
      [
        "▁Am",
        -6.792016072487835
      ],
      [
        "al",
        -6.794990999556295
      ],
      [
        "▁nga",
        -6.808639339398889
      ],
      [
        "x",
        -6.82898082560118
      ],
      [
        "▁Ci",
        -6.829957953610095
      ],
      [
        "▁parle",
        -6.839117169073203
      ],
      [
        "oon",
        -6.851987969793325
      ],
      [
        "▁tout",
        -6.856705645755989
      ],
      [
        "o",
        -6.857603897344479
      ],
      [
        "▁La",
        -6.858263168537688
      ],
      [
        "▁as",
        -6.867046176593578
      ],
      [
        "▁woon",
        -6.868741675212191
      ],
      [
        "▁celui-là",
        -6.877133670695231
      ],
      [
        "es",
        -6.8792263459034135
      ],
      [
        "▁néeg",
        -6.879386835491174
      ],
      [
        "▁seen",
        -6.889315986047337
      ],
      [
        "▁moo",
        -6.8921243811071715
      ],
      [
        "am",
        -6.89258446072959
      ],
      [
        "s.",
        -6.892806547819729
      ],
      [
        "▁lui",
        -6.896267477721457
      ],
      [
        "▁qu'",
        -6.897522165777565
      ],
      [
        "woon",
        -6.915594250278905
      ],
      [
        "▁ka",
        -6.916959915332246
      ],
      [
        "▁weex",
        -6.920944627241129
      ],
      [
        "'",
        -6.9222087851663945
      ],
      [
        "▁E",
        -6.928000935945677
      ],
      [
        "▁chose",
        -6.9283901959231
      ],
      [
        "▁couleur",
        -6.940961300522715
      ],
      [
        "ne",
        -6.952491007961292
      ],
      [
        "▁Waaw",
        -6.952748606528063
      ],
      [
        "▁ji",
        -6.957738424053597
      ],
      [
        "▁Les",
        -6.985784880640235
      ],
      [
        "ataal",
        -6.989357608080121
      ],
      [
        "▁xar",
        -6.992234639561271
      ],
      [
        "▁voilà",
        -7.017706009515738
      ],
      [
        "▁mouton",
        -7.018215672144223
      ],
      [
        "'est",
        -7.027311764437398
      ],
      [
        "▁moi",
        -7.0284554517625475
      ],
      [
        "▁sa",
        -7.037478305346607
      ],
      [
        "▁enfants",
        -7.048863805495353
      ],
      [
        "▁vous",
        -7.052952268443114
      ],
      [
        "-",
        -7.05512920858127
      ],
      [
        "▁toi",
        -7.058331635216633
      ],
      [
        "▁ca",
        -7.063047953734818
      ],
      [
        "▁Dem",
        -7.063977233297096
      ],
      [
        "▁s",
        -7.072492531956927
      ],
      [
        "ment",
        -7.075957245737101
      ],
      [
        "▁laa",
        -7.0791818218715505
      ],
      [
        "▁demee",
        -7.081520611255229
      ],
      [
        "▁C",
        -7.08753539938348
      ],
      [
        "▁fa",
        -7.088109132555973
      ],
      [
        "▁Un",
        -7.099013814573675
      ],
      [
        "eux",
        -7.101025516913616
      ],
      [
        "▁venu",
        -7.104061954300367
      ],
      [
        "ñ",
        -7.104917800462468
      ],
      [
        "▁au",
        -7.105349700109063
      ],
      [
        "▁l",
        -7.1072921842379415
      ],
      [
        "...",
        -7.107722523675583
      ],
      [
        "▁kenn",
        -7.124671382280917
      ],
      [
        "▁partir",
        -7.129511413668092
      ],
      [
        "▁porte",
        -7.133939852114102
      ],
      [
        "▁dit",
        -7.139197184839023
      ],
      [
        "ci",
        -7.150896180483004
      ],
      [
        "▁Quel",
        -7.1514713469243105
      ],
      [
        "▁maison",
        -7.153804582577228
      ],
      [
        "▁ag",
        -7.15668559833648
      ],
      [
        "▁demul",
        -7.156690057352376
      ],
      [
        "▁part",
        -7.1614954303679035
      ],
      [
        "▁lool",
        -7.164554067906424
      ],
      [
        "▁Cet",
        -7.167306306660343
      ],
      [
        "▁où",
        -7.174406139214753
      ],
      [
        "▁jigéen",
        -7.183398563643245
      ],
      [
        "▁da",
        -7.183526256797553
      ],
      [
        "▁veux",
        -7.190650865955009
      ],
      [
        "▁bien",
        -7.192985249223195
      ],
      [
        "▁ŋgeen",
        -7.204030818658297
      ],
      [
        "▁j'",
        -7.205930040413149
      ],
      [
        "te",
        -7.210484567733806
      ],
      [
        "ù",
        -7.217726491726165
      ],
      [
        "▁ku",
        -7.218427711347072
      ],
      [
        "k",
        -7.224972561212448
      ],
      [
        "▁Maa",
        -7.227302560149821
      ],
      [
        "ez",
        -7.233315495025785
      ],
      [
        "▁De",
        -7.237124940405762
      ],
      [
        "▁rafet",
        -7.238987507570249
      ],
      [
        "▁n'es",
        -7.247249641869047
      ],
      [
        "▁plus",
        -7.256598722400077
      ],
      [
        "▁leen",
        -7.257799046782682
      ],
      [
        "▁m",
        -7.268618495612376
      ],
      [
        "▁très",
        -7.275391725522756
      ],
      [
        "▁garab",
        -7.275827324442866
      ],
      [
        "▁ou",
        -7.276667734314243
      ],
      [
        "en",
        -7.2831301135042
      ],
      [
        "ant",
        -7.28346097735708
      ],
      [
        "▁kaw",
        -7.309662387337333
      ],
      [
        "w",
        -7.314099253703253
      ],
      [
        "▁sol",
        -7.321935758491007
      ],
      [
        "ont",
        -7.326104216409518
      ],
      [
        "▁xarit",
        -7.341548549324337
      ],
      [
        "▁Lii",
        -7.350379131783162
      ],
      [
        "▁doon",
        -7.353365783930691
      ],
      [
        "▁lii",
        -7.35630547232836
      ],
      [
        "▁Xar",
        -7.366037351184991
      ],
      [
        "▁ñax",
        -7.378840831534136
      ],
      [
        "▁là-bas",
        -7.3794773933128015
      ],
      [
        "▁soo",
        -7.382563089412296
      ],
      [
        "g",
        -7.383492901761292
      ],
      [
        "▁gens",
        -7.385113625885109
      ],
      [
        "▁réer",
        -7.389126490078883
      ],
      [
        "▁J",
        -7.395885073617254
      ],
      [
        "▁femme",
        -7.397045115037653
      ],
      [
        "▁personne",
        -7.400006194267379
      ],
      [
        "d",
        -7.405383609496127
      ],
      [
        "▁n'a",
        -7.422947722377838
      ],
      [
        "▁À",
        -7.4253305755964725
      ],
      [
        "▁man",
        -7.426961764309938
      ],
      [
        "▁waaw",
        -7.435101836412656
      ],
      [
        "▁Su",
        -7.444557013372149
      ],
      [
        "▁veut",
        -7.45457324227916
      ],
      [
        "▁rekk",
        -7.454675674545943
      ],
      [
        "▁semble",
        -7.457703377684723
      ],
      [
        "▁teg",
        -7.458036198917221
      ],
      [
        "▁Qui",
        -7.459135347229423
      ],
      [
        "▁Comme",
        -7.460874468525001
      ],
      [
        "▁on",
        -7.462004401226444
      ],
      [
        "▁ñaar",
        -7.464328569675622
      ],
      [
        "▁dañ",
        -7.466671945591427
      ],
      [
        "er",
        -7.469122562691121
      ],
      [
        "▁ami",
        -7.470169023930929
      ],
      [
        "▁va",
        -7.471373008763319
      ],
      [
        "▁Si",
        -7.474825991385018
      ],
      [
        "▁lañu",
        -7.476124364617775
      ],
      [
        "oo",
        -7.478830607328355
      ],
      [
        "épp",
        -7.483227063885241
      ],
      [
        "▁b",
        -7.483305274588259
      ],
      [
        "▁gu",
        -7.491074568008569
      ],
      [
        "▁jusqu'",
        -7.4927139789993
      ],
      [
        "▁j'ai",
        -7.495363813328443
      ],
      [
        "▁Oui",
        -7.495588715141698
      ],
      [
        "▁moutons",
        -7.4962898791524895
      ],
      [
        "▁noppi",
        -7.496649463043257
      ],
      [
        "▁Ceci",
        -7.497635149461864
      ],
      [
        "▁yépp",
        -7.497986195960874
      ],
      [
        "▁kër",
        -7.4991172542549815
      ],
      [
        "▁Sée",
        -7.5062843606838285
      ],
      [
        "▁k",
        -7.507214700570702
      ],
      [
        "tu",
        -7.51012402341323
      ],
      [
        "▁l'a",
        -7.512300517188969
      ],
      [
        "▁waa",
        -7.513299801245504
      ],
      [
        "▁fu",
        -7.514262777205598
      ],
      [
        "la",
        -7.516021217819195
      ],
      [
        "ent",
        -7.520229251181174
      ],
      [
        "▁Mi",
        -7.521269810409255
      ],
      [
        "b",
        -7.5229923108824295
      ],
      [
        "▁yoo",
        -7.527365516997531
      ],
      [
        "▁Fa",
        -7.530355481679568
      ],
      [
        "▁So",
        -7.531806103882735
      ],
      [
        "it",
        -7.535110003920145
      ],
      [
        "▁Ba",
        -7.535608702110636
      ],
      [
        "▁l'autre",
        -7.536425213696921
      ],
      [
        "▁ceux-là",
        -7.536483190875554
      ],
      [
        "▁peut-être",
        -7.536681607622851
      ],
      [
        "leurs",
        -7.542280826283337
      ],
      [
        "▁Ma",
        -7.542721704171141
      ],
      [
        "▁d'autres",
        -7.544167092699237
      ],
      [
        "▁kooku",
        -7.549053323176437
      ],
      [
        "de",
        -7.551299426189108
      ],
      [
        "quelle",
        -7.559516033388693
      ],
      [
        "▁toog",
        -7.563772717472672
      ],
      [
        "▁L",
        -7.564801973444943
      ],
      [
        "▁D",
        -7.570499919832187
      ],
      [
        "▁nañu",
        -7.5781968533579995
      ],
      [
        "▁Vous",
        -7.579008512076278
      ],
      [
        "▁Mais",
        -7.580266153433076
      ],
      [
        "▁wet",
        -7.580420849366142
      ],
      [
        "▁Na",
        -7.584990066998882
      ],
      [
        "▁maa",
        -7.586785203508088
      ],
      [
        "▁mën",
        -7.593449006705157
      ],
      [
        "▁chambre",
        -7.601616451364075
      ],
      [
        "▁personnes",
        -7.602303052267306
      ],
      [
        "▁Du",
        -7.603278154261479
      ],
      [
        "▁ya",
        -7.605309909943832
      ],
      [
        "taal",
        -7.608801279599024
      ],
      [
        "▁ñuul",
        -7.610889566686106
      ],
      [
        "▁Que",
        -7.610918187646342
      ],
      [
        "is",
        -7.617035929651618
      ],
      [
        "▁baax",
        -7.618846542854883
      ],
      [
        "▁tamit",
        -7.6246330566639005
      ],
      [
        "▁quelqu'un",
        -7.62547770396673
      ],
      [
        "▁sax",
        -7.627504801540863
      ],
      [
        "un",
        -7.627987000367067
      ],
      [
        "est",
        -7.633912562666109
      ],
      [
        "re",
        -7.634004804478932
      ],
      [
        "▁daal",
        -7.634930381921765
      ],
      [
        "que",
        -7.645842481210887
      ],
      [
        "fa",
        -7.648074712525444
      ],
      [
        "▁s'",
        -7.653418719303456
      ],
      [
        "h",
        -7.655945388228115
      ],
      [
        "▁nii",
        -7.6617906078395865
      ],
      [
        "di",
        -7.669133263788833
      ],
      [
        "▁Moo",
        -7.671427567059979
      ],
      [
        "▁coté",
        -7.671817661807233
      ],
      [
        "▁qu",
        -7.672267910343102
      ],
      [
        "▁Xale",
        -7.672520344313131
      ],
      [
        "▁foofu",
        -7.674886824870237
      ],
      [
        "▁voit",
        -7.6765175302013
      ],
      [
        "▁Te",
        -7.676517628613725
      ],
      [
        "▁F",
        -7.679446954038691
      ],
      [
        "▁dana",
        -7.689812703599454
      ],
      [
        "ependant",
        -7.7010684204178315
      ],
      [
        "▁fait",
        -7.703994809798591
      ],
      [
        "▁d'",
        -7.707928138733136
      ],
      [
        "voir",
        -7.713123511464394
      ],
      [
        "▁dara",
        -7.720896572497439
      ],
      [
        "▁d'un",
        -7.723790181630745
      ],
      [
        "uñu",
        -7.739120279889806
      ],
      [
        "▁autres",
        -7.740647094200753
      ],
      [
        "▁dañu",
        -7.746940571171939
      ],
      [
        "▁daa",
        -7.747477853664039
      ],
      [
        "▁posé",
        -7.753483502484051
      ],
      [
        "▁passe",
        -7.75348891739085
      ],
      [
        "▁quelle",
        -7.754352077197874
      ],
      [
        "-là",
        -7.770293131057713
      ],
      [
        "▁Ndax",
        -7.774559243609833
      ],
      [
        "▁donné",
        -7.774603439275039
      ],
      [
        "▁crois",
        -7.775054742366892
      ],
      [
        "▁ñépp",
        -7.775083536910692
      ],
      [
        "▁celui",
        -7.775138498735761
      ],
      [
        "▁Keneen",
        -7.775607472823536
      ],
      [
        "▁taxaw",
        -7.77567021090506
      ],
      [
        "▁yooyu",
        -7.776030718848421
      ],
      [
        "▁verre",
        -7.780248836689974
      ],
      [
        "na",
        -7.782659734328442
      ],
      [
        "▁bari",
        -7.783185757208574
      ],
      [
        "▁fii",
        -7.785145613198074
      ],
      [
        "▁Yaa",
        -7.787667552470724
      ],
      [
        "▁ont",
        -7.796012367790778
      ],
      [
        "ul",
        -7.799009350283281
      ],
      [
        "▁même",
        -7.800515827353844
      ],
      [
        "▁femmes",
        -7.802639823912821
      ],
      [
        "c",
        -7.802675999637321
      ],
      [
        "▁Ñu",
        -7.803922011644833
      ],
      [
        "▁su",
        -7.804311538224496
      ],
      [
        "▁égaré",
        -7.812767749590774
      ],
      [
        "koon",
        -7.815044884230205
      ],
      [
        "▁peut",
        -7.8204350120360155
      ],
      [
        "ux",
        -7.825953806681557
      ],
      [
        "▁doŋŋ",
        -7.829553598039269
      ],
      [
        "▁quelqu",
        -7.829602996849793
      ],
      [
        "▁Samba",
        -7.829902585122451
      ],
      [
        "▁aperç",
        -7.830082426382245
      ],
      [
        "▁p",
        -7.830710051039904
      ],
      [
        "▁itam",
        -7.839646539197016
      ],
      [
        "▁Mu",
        -7.843611032344064
      ],
      [
        "▁blanc",
        -7.855125882130038
      ],
      [
        "▁son",
        -7.855997415001242
      ],
      [
        "▁rouge",
        -7.858375170785073
      ],
      [
        "tte",
        -7.860948536085278
      ],
      [
        "▁poisson",
        -7.863090542573177
      ],
      [
        "▁n'",
        -7.865157901585356
      ],
      [
        "▁Bëgg",
        -7.8667803942396075
      ],
      [
        "▁blanche",
        -7.870957461447957
      ],
      [
        "▁kan",
        -7.871139603472224
      ],
      [
        "▁lion",
        -7.87246574457015
      ],
      [
        "▁Waa",
        -7.874945742154232
      ],
      [
        "▁ban",
        -7.878510059646336
      ],
      [
        "▁bunt",
        -7.8819899494164005
      ],
      [
        ";",
        -7.88303930564181
      ],
      [
        "igéen",
        -7.883956101406923
      ],
      [
        "▁ai",
        -7.883982361991149
      ],
      [
        "▁jëm",
        -7.88832464149287
      ],
      [
        "▁beaucoup",
        -7.889184339729914
      ],
      [
        "▁ressemble",
        -7.889251006135645
      ],
      [
        "▁ndaw",
        -7.8936388697096325
      ],
      [
        "▁P",
        -7.895595153034532
      ],
      [
        "▁soit",
        -7.896928610079192
      ],
      [
        "▁Seet",
        -7.904850421292247
      ],
      [
        "▁arbres",
        -7.910052886890483
      ],
      [
        "ël",
        -7.921009256647176
      ],
      [
        "▁dëkk",
        -7.929575556674083
      ],
      [
        "oi",
        -7.93280569439978
      ],
      [
        "▁Va",
        -7.936011129868495
      ],
      [
        "▁dul",
        -7.937364118295845
      ],
      [
        "▁M",
        -7.937440483436912
      ],
      [
        "▁lañ",
        -7.943072204221629
      ],
      [
        "▁yeneen",
        -7.949136268151667
      ],
      [
        "▁suuf",
        -7.9506471239071415
      ],
      [
        "▁génn",
        -7.9508306204966726
      ],
      [
        "▁Naka",
        -7.950872371478008
      ],
      [
        "▁<mask>",
        -7.951121892191532
      ],
      [
        "▁lequel",
        -7.9520261724566295
      ],
      [
        "▁parte",
        -7.952131796092989
      ],
      [
        "▁Laobe",
        -7.952264551707626
      ],
      [
        "▁vache",
        -7.953012456906121
      ],
      [
        "▁gaynde",
        -7.954521700699815
      ],
      [
        "▁rien",
        -7.954859633704792
      ],
      [
        "▁Xam",
        -7.954907494471592
      ],
      [
        "▁sorte",
        -7.955276421514913
      ],
      [
        "▁demkoon",
        -7.955580579139619
      ],
      [
        "▁yor",
        -7.956689227018348
      ],
      [
        "▁v",
        -7.957782670214561
      ],
      [
        "▁t",
        -7.959237661151043
      ],
      [
        "▁dee",
        -7.961385900310436
      ],
      [
        "▁dénk",
        -7.96197556410751
      ],
      [
        "▁leur",
        -7.962500109791838
      ],
      [
        "▁j",
        -7.965900760750287
      ],
      [
        "▁pars",
        -7.971951968903277
      ],
      [
        "ale",
        -7.9731917397746415
      ],
      [
        "▁tou",
        -7.975706876808731
      ],
      [
        "▁li",
        -7.9845443720119835
      ],
      [
        "▁m'a",
        -7.9864210661901875
      ],
      [
        "▁noir",
        -7.995624608238838
      ],
      [
        "▁avait",
        -7.997944964069626
      ],
      [
        "ukaay",
        -7.9982124816572355
      ],
      [
        ":",
        -8.01220597230849
      ],
      [
        "e.",
        -8.013348123432788
      ],
      [
        "▁xonq",
        -8.017004830324089
      ],
      [
        "▁S'il",
        -8.017086909917683
      ],
      [
        "▁Aucun",
        -8.01736044722389
      ],
      [
        "▁Celui-là",
        -8.01799324643277
      ],
      [
        "▁au-dessus",
        -8.018019430451421
      ],
      [
        "▁Kooku",
        -8.018025292800637
      ],
      [
        "▁bois",
        -8.020129959182746
      ],
      [
        "▁Yaw",
        -8.020663281777134
      ],
      [
        "▁qu'elle",
        -8.020846406970271
      ],
      [
        "▁Ya",
        -8.020941912532521
      ],
      [
        "▁ñan",
        -8.021135738522597
      ],
      [
        "elle",
        -8.021499718823208
      ],
      [
        "▁doom",
        -8.024887300226572
      ],
      [
        "▁quel",
        -8.027018813428844
      ],
      [
        "▁Tout",
        -8.027775153457664
      ],
      [
        "▁lal",
        -8.02782950398615
      ],
      [
        "r.",
        -8.03182624999075
      ],
      [
        "▁koo",
        -8.032828029786508
      ],
      [
        "▁ëe",
        -8.035641924070957
      ],
      [
        "▁waay",
        -8.038785739398385
      ],
      [
        "▁Li",
        -8.039396940334903
      ],
      [
        "▁Daf",
        -8.040366298465813
      ],
      [
        "▁pa",
        -8.041489092381617
      ],
      [
        "▁parles",
        -8.042662256631061
      ],
      [
        "les",
        -8.043260742478083
      ],
      [
        "▁wall",
        -8.044604769852706
      ],
      [
        "naa",
        -8.045105850990987
      ],
      [
        "or",
        -8.047660747699005
      ],
      [
        "▁J'",
        -8.060906767152819
      ],
      [
        "▁B",
        -8.066699792214326
      ],
      [
        "ee",
        -8.067588072352091
      ],
      [
        "▁jolie",
        -8.072124314120426
      ],
      [
        "▁nee",
        -8.073111948843255
      ],
      [
        "▁ici",
        -8.079247609012649
      ],
      [
        "▁gii",
        -8.080143912585822
      ],
      [
        "aw",
        -8.080792410798711
      ],
      [
        "▁dugg",
        -8.083657012022197
      ],
      [
        "▁Bu",
        -8.084930830304025
      ],
      [
        "gi",
        -8.087702633347828
      ],
      [
        "▁matin",
        -8.088560728886149
      ],
      [
        "▁may",
        -8.0890692708055
      ],
      [
        "▁simplement",
        -8.089301746251959
      ],
      [
        "▁celui-ci",
        -8.089900650006145
      ],
      [
        "▁S",
        -8.090656978991293
      ],
      [
        "▁mépp",
        -8.091871997252149
      ],
      [
        "▁dame",
        -8.097970336719998
      ],
      [
        "▁mais",
        -8.099114869652542
      ],
      [
        "▁re",
        -8.100739694729445
      ],
      [
        "▁Bi",
        -8.101926409203777
      ],
      [
        "▁Ken",
        -8.111331108679561
      ],
      [
        "▁bon",
        -8.111493254571894
      ],
      [
        "▁peu",
        -8.117211348687054
      ],
      [
        "▁nda",
        -8.117399746419526
      ],
      [
        "▁t'a",
        -8.122547242659897
      ],
      [
        "▁comme",
        -8.122951848653315
      ],
      [
        "▁par",
        -8.126484790492748
      ],
      [
        "ñu",
        -8.145572351766281
      ],
      [
        "▁'",
        -8.146326207485389
      ],
      [
        "▁lay",
        -8.1466804332408
      ],
      [
        "ée",
        -8.149875217897153
      ],
      [
        "▁jeune",
        -8.150001913867916
      ],
      [
        "▁Y",
        -8.150416339437387
      ],
      [
        "-ci",
        -8.152640713988669
      ],
      [
        "dax",
        -8.153175404374156
      ],
      [
        "▁kii",
        -8.154498370905948
      ],
      [
        "▁wirgo",
        -8.165225425604
      ],
      [
        "▁seulement",
        -8.166052627849758
      ],
      [
        "▁Yéen",
        -8.166217718088955
      ],
      [
        "▁fas",
        -8.166575088359236
      ],
      [
        "▁habits",
        -8.167784867900892
      ],
      [
        "▁bëggul",
        -8.168704406675825
      ],
      [
        "ag",
        -8.176453365741828
      ],
      [
        "▁viendra",
        -8.179741482697077
      ],
      [
        "óon",
        -8.179771422664144
      ],
      [
        "▁gendarmes",
        -8.182643959427587
      ],
      [
        "▁fut",
        -8.1847932902069
      ],
      [
        "▁W",
        -8.185621096840903
      ],
      [
        "▁ça",
        -8.188783372830464
      ],
      [
        "▁xaw",
        -8.189628824687302
      ],
      [
        "▁café",
        -8.190564519281264
      ],
      [
        "▁vo",
        -8.19446486023838
      ],
      [
        "▁Mon",
        -8.195640865886904
      ],
      [
        "ri",
        -8.195940521662333
      ],
      [
        "yan",
        -8.199700350277894
      ],
      [
        "▁f",
        -8.20164214878647
      ],
      [
        "▁Ñoo",
        -8.215066026931314
      ],
      [
        "ma",
        -8.21614354064404
      ],
      [
        "▁liggéey",
        -8.217879331316023
      ],
      [
        "-t",
        -8.219634589810962
      ],
      [
        "▁ŋgii",
        -8.224494516691909
      ],
      [
        "▁Man",
        -8.224530197809331
      ],
      [
        "▁vienne",
        -8.230269726605421
      ],
      [
        "▁trouve",
        -8.235548791440653
      ],
      [
        "était",
        -8.236631012785752
      ],
      [
        "lu",
        -8.237178133858327
      ],
      [
        "faire",
        -8.245214561721516
      ],
      [
        "▁Jox",
        -8.24752508620931
      ],
      [
        "▁Ku",
        -8.247544984372622
      ],
      [
        "▁Jaam",
        -8.248452028620697
      ],
      [
        "▁Waaye",
        -8.24850839328458
      ],
      [
        "aada",
        -8.248657359581156
      ],
      [
        "▁Cherche",
        -8.248663218930732
      ],
      [
        "▁théière",
        -8.24866688195858
      ],
      [
        "▁question",
        -8.248823861731642
      ],
      [
        "▁Ceux-là",
        -8.248878003149914
      ],
      [
        "▁Quelle",
        -8.248941527111675
      ],
      [
        "▁debout",
        -8.249065795192521
      ],
      [
        "▁Saint-Louis",
        -8.249080602413672
      ],
      [
        "▁pays",
        -8.249651374096807
      ],
      [
        "▁yónnee",
        -8.250536761613713
      ],
      [
        "▁es",
        -8.250657711877658
      ],
      [
        "ul.",
        -8.25072297084795
      ],
      [
        "mi",
        -8.251375079219802
      ],
      [
        "▁Demal",
        -8.252145466887182
      ],
      [
        "▁Ndar",
        -8.252525950443994
      ],
      [
        "▁Defe",
        -8.252532967566724
      ],
      [
        "▁sui",
        -8.252690276954334
      ],
      [
        "▁yaw",
        -8.254180059967585
      ],
      [
        "▁bañ",
        -8.255312909972643
      ],
      [
        "▁beneen",
        -8.257359629864338
      ],
      [
        "▁envoyée",
        -8.260204056960992
      ],
      [
        "▁mon",
        -8.263551125579857
      ],
      [
        "▁jën",
        -8.26579704951922
      ],
      [
        "vais",
        -8.268275456737213
      ],
      [
        "▁mag",
        -8.269306218878983
      ],
      [
        "▁assis",
        -8.275090992593633
      ],
      [
        "▁Ben",
        -8.277416276077986
      ],
      [
        "▁dëkku",
        -8.277943531147542
      ],
      [
        "ou",
        -8.281500970104485
      ],
      [
        "▁ñuul.",
        -8.285207800420986
      ],
      [
        "ab",
        -8.289932757268447
      ],
      [
        "▁N",
        -8.290250312411516
      ],
      [
        "▁vas",
        -8.291486951035791
      ],
      [
        "p",
        -8.29253020268597
      ],
      [
        "▁voir",
        -8.298314298919028
      ],
      [
        "▁defe",
        -8.298715679799852
      ],
      [
        "▁T",
        -8.300469246640155
      ],
      [
        "▁fille",
        -8.300624667530974
      ],
      [
        "afa",
        -8.300913905645524
      ],
      [
        "▁entre",
        -8.302818227915395
      ],
      [
        "▁wi",
        -8.304829925388567
      ],
      [
        "nt.",
        -8.30692389320044
      ],
      [
        "▁conçue",
        -8.309447966804596
      ],
      [
        "▁réew",
        -8.314002971687357
      ],
      [
        "ak",
        -8.317019680027967
      ],
      [
        "▁Di",
        -8.317102242988474
      ],
      [
        "près",
        -8.317870150512302
      ],
      [
        "f",
        -8.32235089511558
      ],
      [
        "gee",
        -8.324832074836674
      ],
      [
        "tre",
        -8.324989773600041
      ],
      [
        "tes",
        -8.325560101705921
      ],
      [
        "▁nul",
        -8.327326913501718
      ],
      [
        "▁g",
        -8.328444060791831
      ],
      [
        "▁Wax",
        -8.328524798328107
      ],
      [
        "▁dal",
        -8.329195363917774
      ],
      [
        "▁paix",
        -8.33868800838112
      ],
      [
        "▁séché",
        -8.338821982325744
      ],
      [
        "▁Homme",
        -8.33885005191673
      ],
      [
        "▁cheval",
        -8.338949142019088
      ],
      [
        "▁tabax",
        -8.339050007121656
      ],
      [
        "▁encore",
        -8.33906694056518
      ],
      [
        "▁Xammee",
        -8.339083518459077
      ],
      [
        "▁manière",
        -8.339761823207782
      ],
      [
        "▁Qu'il",
        -8.339949588059694
      ],
      [
        "▁toogukaay",
        -8.34009665552128
      ],
      [
        "▁ñett",
        -8.342666309696103
      ],
      [
        "▁noonu",
        -8.342684401095052
      ],
      [
        "▁portent",
        -8.344631375974966
      ],
      [
        "▁kow",
        -8.345120422501655
      ],
      [
        "▁Moom",
        -8.345576816078726
      ],
      [
        "ces",
        -8.345596518509863
      ],
      [
        "être",
        -8.348567438327912
      ],
      [
        "▁bind",
        -8.35086056894179
      ],
      [
        "▁nañ",
        -8.352234800750422
      ],
      [
        "▁ñ",
        -8.352332940308056
      ],
      [
        "▁takk-der",
        -8.354622810226537
      ],
      [
        "▁Par",
        -8.354724333823091
      ],
      [
        "▁couleurs",
        -8.355992086003106
      ],
      [
        "ais",
        -8.356119780814243
      ],
      [
        "▁ré",
        -8.35868607702448
      ],
      [
        "▁Là",
        -8.359073643367113
      ],
      [
        "▁partira",
        -8.360639067521632
      ],
      [
        "▁xamant",
        -8.36362069604384
      ],
      [
        "▁égarée",
        -8.368171213803045
      ],
      [
        "▁tay",
        -8.372920745849962
      ],
      [
        "▁ga",
        -8.379327806895661
      ],
      [
        "▁aller",
        -8.380105207178378
      ],
      [
        "ir",
        -8.382843345448638
      ],
      [
        "▁ira",
        -8.3876505607202
      ],
      [
        "ses",
        -8.38855317681134
      ],
      [
        "réer",
        -8.390715833465606
      ],
      [
        "▁Me",
        -8.39183315590278
      ],
      [
        "▁An",
        -8.392619679067794
      ],
      [
        "▁partis",
        -8.393610339013852
      ],
      [
        "enn",
        -8.393816605154411
      ],
      [
        "▁parl",
        -8.395404282324142
      ],
      [
        "▁dox",
        -8.396134818021505
      ],
      [
        "▁Ca",
        -8.399656970106536
      ],
      [
        "▁R",
        -8.40345365711028
      ],
      [
        "baar",
        -8.404979353343212
      ],
      [
        "v",
        -8.409230229968566
      ],
      [
        "▁serai",
        -8.430020831138577
      ],
      [
        "geen",
        -8.430379490087628
      ],
      [
        "atim",
        -8.435487314779252
      ],
      [
        "ait",
        -8.436059075179806
      ],
      [
        "▁Koo",
        -8.437424266960983
      ],
      [
        "▁subë",
        -8.438250627101173
      ],
      [
        "▁vrai",
        -8.438277059555872
      ],
      [
        "▁trois",
        -8.438468982515909
      ],
      [
        "▁sucre",
        -8.438490616515294
      ],
      [
        "▁Alors",
        -8.438568484792606
      ],
      [
        "▁Lawbe",
        -8.43863034412535
      ],
      [
        "▁garçon",
        -8.438709117678108
      ],
      [
        "▁Moussa",
        -8.438712003039928
      ],
      [
        "▁palais",
        -8.438746047236318
      ],
      [
        "▁Fatim",
        -8.438914456967508
      ],
      [
        "▁milieu",
        -8.43896608674653
      ],
      [
        "▁d'Europe",
        -8.439001659933501
      ],
      [
        "▁allé",
        -8.43977991678182
      ],
      [
        "▁Ñii",
        -8.440562962733733
      ],
      [
        "▁gën",
        -8.441089038777836
      ],
      [
        "▁Boo",
        -8.441129087393655
      ],
      [
        "▁Bon",
        -8.44170141235679
      ],
      [
        "▁Sa",
        -8.4419751115608
      ],
      [
        "ngi",
        -8.44290705751008
      ],
      [
        "▁endroit",
        -8.443244133183708
      ],
      [
        "▁biti",
        -8.443812887968102
      ],
      [
        "'habitude",
        -8.447199092577337
      ],
      [
        "▁Cela",
        -8.450878627113774
      ],
      [
        "and",
        -8.45164762414942
      ],
      [
        "▁contre",
        -8.452453718875336
      ],
      [
        "een",
        -8.453393169706047
      ],
      [
        "▁Voil",
        -8.453992380112341
      ],
      [
        "▁port",
        -8.45519215473649
      ],
      [
        "▁aujourd'hui",
        -8.45698219717911
      ],
      [
        "▁mo",
        -8.457334055448054
      ],
      [
        "▁l'un",
        -8.457501707916984
      ],
      [
        "▁ànd",
        -8.458235267766723
      ],
      [
        "▁ceux",
        -8.459005839082725
      ],
      [
        "▁eux",
        -8.462762034801685
      ],
      [
        "▁buntu",
        -8.464775390950049
      ],
      [
        "ki",
        -8.464836595328928
      ],
      [
        "▁ta",
        -8.46534042020351
      ],
      [
        "pp",
        -8.466046654679056
      ],
      [
        "▁Doo",
        -8.467397341552797
      ],
      [
        "▁bare",
        -8.468916512065334
      ],
      [
        "▁partes",
        -8.470548735530928
      ],
      [
        "▁bar",
        -8.471946720780533
      ],
      [
        "▁weer",
        -8.4742998047284
      ],
      [
        "▁ñëwul",
        -8.476487449409898
      ],
      [
        "▁sama",
        -8.482912166953184
      ],
      [
        "▁Nou",
        -8.492134996111933
      ],
      [
        "▁blancs",
        -8.498966582498177
      ],
      [
        "▁lit",
        -8.504666621751456
      ],
      [
        "▁ju",
        -8.507200952027516
      ],
      [
        "▁K",
        -8.507438311773157
      ],
      [
        "àll",
        -8.515149639704653
      ],
      [
        "▁it",
        -8.517976045280015
      ],
      [
        "leen",
        -8.520356388382883
      ],
      [
        "ère",
        -8.525382616220961
      ],
      [
        "▁yaa",
        -8.526696034730735
      ],
      [
        "'était",
        -8.527426008923506
      ],
      [
        "▁appelle",
        -8.536269154489366
      ],
      [
        "▁w",
        -8.537472433072338
      ],
      [
        "▁mis",
        -8.538862293824726
      ],
      [
        "▁l'",
        -8.541792423741374
      ],
      [
        "▁rek",
        -8.54747604268351
      ],
      [
        "▁Mbaa",
        -8.548973082063334
      ],
      [
        "▁wër",
        -8.549034491990708
      ],
      [
        "▁Ne",
        -8.549209600573297
      ],
      [
        "▁acheté",
        -8.549409088712391
      ],
      [
        "▁Sérère",
        -8.549425307853735
      ],
      [
        "▁tudd",
        -8.549513191020985
      ],
      [
        "▁chevaux",
        -8.549562124307457
      ],
      [
        "▁morceau",
        -8.549590979189162
      ],
      [
        "▁reste",
        -8.549758642455615
      ],
      [
        "▁jaŋg",
        -8.549841082129761
      ],
      [
        "▁mère",
        -8.550076702832055
      ],
      [
        "▁fils",
        -8.550628437293057
      ],
      [
        "▁Loolu",
        -8.551865121156453
      ],
      [
        "st-ce",
        -8.553138154553164
      ],
      [
        "▁devant",
        -8.553374855919966
      ],
      [
        "▁bépp",
        -8.554161305235482
      ],
      [
        "ient",
        -8.55485244048673
      ],
      [
        "▁s'en",
        -8.555825096283352
      ],
      [
        "▁téer",
        -8.556318044909263
      ],
      [
        "▁ŋgoon",
        -8.557453147641933
      ],
      [
        "▁Tay",
        -8.557899245939897
      ],
      [
        "▁Loo",
        -8.558600808241415
      ],
      [
        "kat",
        -8.560643086776363
      ],
      [
        "est-ce",
        -8.565232564319984
      ],
      [
        "ement",
        -8.566317152502728
      ],
      [
        "▁ceci",
        -8.572991474082198
      ],
      [
        "▁viennes",
        -8.577666987757054
      ],
      [
        "▁lan",
        -8.578778396533819
      ],
      [
        "se",
        -8.580495822781703
      ],
      [
        "▁me",
        -8.582989249474467
      ],
      [
        "▁connais",
        -8.583545217299164
      ],
      [
        "▁lanu",
        -8.585213058869297
      ],
      [
        "in",
        -8.58783836375898
      ],
      [
        "▁V",
        -8.591576199408824
      ],
      [
        "▁jan",
        -8.592627222860113
      ],
      [
        "as",
        -8.594941600765258
      ],
      [
        "▁L'",
        -8.595350068074588
      ],
      [
        "▁bula",
        -8.597206423380896
      ],
      [
        "▁May",
        -8.59864124320218
      ],
      [
        "ils",
        -8.606394637968389
      ],
      [
        "ar",
        -8.606553043629042
      ],
      [
        "▁montre",
        -8.609488420959789
      ],
      [
        "iez",
        -8.611920503831085
      ],
      [
        "▁seet",
        -8.616679518966556
      ],
      [
        "fin",
        -8.617759904594601
      ],
      [
        "ées",
        -8.619644471288332
      ],
      [
        "▁no",
        -8.624173996695994
      ],
      [
        "▁dé",
        -8.626755621927614
      ],
      [
        "▁travail",
        -8.629003481362043
      ],
      [
        "▁portes",
        -8.63235578924169
      ],
      [
        "▁comp",
        -8.632440207915625
      ],
      [
        "ppelle",
        -8.633688365527147
      ],
      [
        "▁avais",
        -8.635966378774992
      ],
      [
        "j",
        -8.642272844759285
      ],
      [
        "▁eû",
        -8.643103575629947
      ],
      [
        "uma",
        -8.65387849100003
      ],
      [
        "▁defar",
        -8.655184437890737
      ],
      [
        "▁nu",
        -8.6557926288021
      ],
      [
        "▁arrivé",
        -8.659702846028019
      ],
      [
        "▁jii",
        -8.660543406789108
      ],
      [
        "▁woo",
        -8.666787523945759
      ],
      [
        "▁ràbb",
        -8.670914929611483
      ],
      [
        "▁route",
        -8.670934216190462
      ],
      [
        "▁ainsi",
        -8.670964186406756
      ],
      [
        "▁Laobé",
        -8.671555929101881
      ],
      [
        "▁wanag",
        -8.671903549796198
      ],
      [
        "óo",
        -8.672393087230613
      ],
      [
        "▁Sénégal",
        -8.672654589249078
      ],
      [
        "▁Musaa",
        -8.67302180983191
      ],
      [
        "▁entier",
        -8.674037633339218
      ],
      [
        "▁Senegaal",
        -8.674212766209788
      ],
      [
        "▁assurément",
        -8.674374406901213
      ],
      [
        "▁com",
        -8.674427779587173
      ],
      [
        "▁pourtant",
        -8.674719135729207
      ],
      [
        "▁jël",
        -8.675569326195998
      ],
      [
        "▁Elle",
        -8.675848310242532
      ],
      [
        "▁pierres",
        -8.676013913959363
      ],
      [
        "▁kanam",
        -8.676130219062308
      ],
      [
        "▁sortir",
        -8.677862205081006
      ],
      [
        "▁Kookule",
        -8.678345549122334
      ],
      [
        "▁lieu",
        -8.678470739336074
      ],
      [
        "▁Toi",
        -8.679472232895987
      ],
      [
        "▁pou",
        -8.680763963695998
      ],
      [
        "▁gejje",
        -8.681107639932515
      ],
      [
        "▁Woo",
        -8.683243441640151
      ],
      [
        "▁con",
        -8.683885137547687
      ],
      [
        "▁Noonu",
        -8.685531869282338
      ],
      [
        "▁Wu",
        -8.688183751837535
      ],
      [
        "▁boobu",
        -8.691944435497303
      ],
      [
        "▁s'agi",
        -8.694537127108127
      ],
      [
        "▁Tou",
        -8.694949033923882
      ],
      [
        "G",
        -8.69891893276789
      ],
      [
        "▁tali",
        -8.700879609969725
      ],
      [
        "▁bëggée",
        -8.704959421085315
      ],
      [
        "▁Jën",
        -8.707220570489483
      ],
      [
        "▁t'ai",
        -8.709805762401473
      ],
      [
        "ŋga",
        -8.711076041923977
      ],
      [
        "▁Ñ",
        -8.712127726849175
      ],
      [
        "▁sokolaa",
        -8.712978699591924
      ],
      [
        "▁Noon",
        -8.722539770025332
      ],
      [
        "▁vient",
        -8.725713678674365
      ],
      [
        "vous",
        -8.728680048231816
      ],
      [
        "▁cela",
        -8.728910554506939
      ],
      [
        "▁cherche",
        -8.731841964017908
      ],
      [
        "tient",
        -8.7326006348688
      ],
      [
        "▁wa",
        -8.734551313873657
      ],
      [
        "▁Lu",
        -8.738812802039925
      ],
      [
        "gal",
        -8.739444324819527
      ],
      [
        "▁nak",
        -8.745448306524864
      ],
      [
        "▁table",
        -8.7468462860391
      ],
      [
        "▁av",
        -8.74830742928737
      ],
      [
        "▁toute",
        -8.749001574898388
      ],
      [
        "▁yoon",
        -8.754251348999293
      ],
      [
        "es.",
        -8.756651293007257
      ],
      [
        "▁Ki",
        -8.75717347718702
      ],
      [
        "garde",
        -8.76155392725237
      ],
      [
        "quel",
        -8.761631382700735
      ],
      [
        "z",
        -8.761857267217408
      ],
      [
        "sieur",
        -8.763966152264139
      ],
      [
        "▁petit",
        -8.766410637839812
      ],
      [
        "ier",
        -8.76737388997242
      ],
      [
        "nga",
        -8.770383794627838
      ],
      [
        "▁sorti",
        -8.771435314071175
      ],
      [
        "▁loolu",
        -8.771530480552322
      ],
      [
        "▁l'ai",
        -8.77872672652855
      ],
      [
        "▁Ra",
        -8.77874980411939
      ],
      [
        "▁enfant",
        -8.780812032528008
      ],
      [
        "▁Fan",
        -8.78234356967269
      ],
      [
        "▁so",
        -8.78637164319415
      ],
      [
        "▁tax",
        -8.791518527385815
      ],
      [
        "waay",
        -8.794000676034033
      ],
      [
        "▁arbre",
        -8.79579029620204
      ],
      [
        "porte",
        -8.803874453063102
      ],
      [
        "▁më",
        -8.805105124835617
      ],
      [
        "▁drap",
        -8.80653556331231
      ],
      [
        "▁peut-",
        -8.807931266367998
      ],
      [
        "▁seul",
        -8.813263817657116
      ],
      [
        "▁case",
        -8.813456589100712
      ],
      [
        "▁bâtiment",
        -8.813768299047922
      ],
      [
        "▁Casamance",
        -8.81376830699531
      ],
      [
        "▁yeksi",
        -8.81376972372227
      ],
      [
        "▁Ainsi",
        -8.813770363917081
      ],
      [
        "▁boeuf",
        -8.813779237056815
      ],
      [
        "▁l'enfant",
        -8.813797038806367
      ],
      [
        "▁Deŋk",
        -8.81380924481008
      ],
      [
        "▁dellusi",
        -8.813851164993165
      ],
      [
        "▁Palais",
        -8.813854381162672
      ],
      [
        "▁togg",
        -8.813886761239578
      ],
      [
        "▁pañe",
        -8.813905440991746
      ],
      [
        "ñeen",
        -8.814081504737505
      ],
      [
        "▁yére",
        -8.814227851673266
      ],
      [
        "▁moto",
        -8.814393633641615
      ],
      [
        "▁xeer",
        -8.814654794006167
      ],
      [
        "▁êtes",
        -8.81472311750125
      ],
      [
        "▁salle",
        -8.814819810635127
      ],
      [
        "▁tày",
        -8.81484359418641
      ],
      [
        "▁dirait",
        -8.814965030646754
      ],
      [
        "▁Ici",
        -8.815519973744612
      ],
      [
        "spère",
        -8.81623617088046
      ],
      [
        "▁mains",
        -8.81627923712525
      ],
      [
        "moi",
        -8.816486420717276
      ],
      [
        "▁derrière",
        -8.81698305434188
      ],
      [
        "▁tàll",
        -8.817189210776009
      ],
      [
        "▁regardes",
        -8.817603122427114
      ],
      [
        "▁nous",
        -8.818198984928395
      ],
      [
        "▁Parle",
        -8.818280166329252
      ],
      [
        "kk",
        -8.81924121357285
      ],
      [
        "▁Foofu",
        -8.820721296161889
      ],
      [
        "▁bol",
        -8.823026075135699
      ],
      [
        "▁chez",
        -8.823548920954208
      ],
      [
        "an",
        -8.824103996723355
      ],
      [
        "▁neex",
        -8.824377338559582
      ],
      [
        "▁jaune",
        -8.827306397579296
      ],
      [
        "▁soir",
        -8.82782727754688
      ],
      [
        "ce",
        -8.830064126568779
      ],
      [
        "▁fleurs",
        -8.830636195281038
      ],
      [
        "▁dessus",
        -8.830807357314727
      ],
      [
        "▁arrivés",
        -8.831154954798823
      ],
      [
        "▁caus",
        -8.832251604448466
      ],
      [
        "▁père",
        -8.83321650192043
      ],
      [
        "▁t'en",
        -8.833451257665844
      ],
      [
        "▁dessin",
        -8.833812570822676
      ],
      [
        "▁L'un",
        -8.836063640939352
      ],
      [
        "▁allai",
        -8.839228064185267
      ],
      [
        "▁wane",
        -8.839267876537669
      ],
      [
        "▁chaise",
        -8.839608038007277
      ],
      [
        "▁n'ai",
        -8.84000690161801
      ],
      [
        "▁wan",
        -8.840094856524566
      ],
      [
        "▁ñooñu",
        -8.840099309385119
      ],
      [
        "vent",
        -8.841220469200332
      ],
      [
        "▁gan",
        -8.845890144500963
      ],
      [
        "▁demande",
        -8.848480732902262
      ],
      [
        "individu",
        -8.858349749069706
      ],
      [
        "▁jooju",
        -8.859194697126366
      ],
      [
        "▁daan",
        -8.859785770582368
      ],
      [
        "eer",
        -8.86626847296231
      ],
      [
        "▁fois",
        -8.866593574177578
      ],
      [
        "ra",
        -8.867893276154858
      ],
      [
        "▁haute",
        -8.868357219148052
      ],
      [
        "au",
        -8.870785177755403
      ],
      [
        "▁mii",
        -8.871069511083517
      ],
      [
        "▁leneen",
        -8.874124896864032
      ],
      [
        "▁juróom",
        -8.880772013270725
      ],
      [
        "ît",
        -8.888310535434448
      ],
      [
        "▁bool",
        -8.88908897859404
      ],
      [
        "▁co",
        -8.890986753077055
      ],
      [
        "▁noire.",
        -8.89177744126187
      ],
      [
        "▁beau",
        -8.895361042706554
      ],
      [
        "ax",
        -8.910364408913086
      ],
      [
        "▁na.",
        -8.911007436061375
      ],
      [
        "▁Daŋg",
        -8.911281227812191
      ],
      [
        "▁yee",
        -8.912750046761666
      ],
      [
        "ai",
        -8.912908884595446
      ],
      [
        "▁noirs",
        -8.915665242534072
      ],
      [
        "▁në",
        -8.918911915727403
      ],
      [
        "▁haut",
        -8.919669048665687
      ],
      [
        "ñii",
        -8.920401266274427
      ],
      [
        "▁ñooña",
        -8.924194523887996
      ],
      [
        "▁met",
        -8.932616765890225
      ],
      [
        "ation",
        -8.935172524859368
      ],
      [
        "▁Ñe",
        -8.93563515221039
      ],
      [
        "ë",
        -8.936778477116814
      ],
      [
        "▁Mang",
        -8.943491575081236
      ],
      [
        "▁X",
        -8.944131213984704
      ],
      [
        "▁Ceux",
        -8.945356886224985
      ],
      [
        "▁regard",
        -8.947943617554774
      ],
      [
        "▁Moi",
        -8.950992720304717
      ],
      [
        "▁alla",
        -8.955201079040162
      ],
      [
        "▁garde",
        -8.95563036674804
      ],
      [
        "▁J'e",
        -8.956760197769968
      ],
      [
        "▁to",
        -8.9581947065209
      ],
      [
        "éel",
        -8.958926076566396
      ],
      [
        "▁don",
        -8.95945897437179
      ],
      [
        "▁d'autre",
        -8.963968532541696
      ],
      [
        "ool",
        -8.969896172524013
      ],
      [
        "ëf",
        -8.972425637429218
      ],
      [
        "▁kaa",
        -8.974613834133692
      ],
      [
        "▁ginnaaw",
        -8.977053886138116
      ],
      [
        "▁bë",
        -8.97919192384999
      ],
      [
        "▁Aujourd'hui",
        -8.98043496559023
      ],
      [
        "▁d'esprit",
        -8.980434965782145
      ],
      [
        "▁calebasse",
        -8.98043496754201
      ],
      [
        "▁croyai",
        -8.980435529077115
      ],
      [
        "▁Waxtaan",
        -8.98043658749867
      ],
      [
        "▁tëdd",
        -8.980437344144594
      ],
      [
        "▁veulent",
        -8.980444644339837
      ],
      [
        "▁Wolof",
        -8.980459161611714
      ],
      [
        "▁suukër",
        -8.98046964189516
      ],
      [
        "▁peinture",
        -8.980504433851493
      ],
      [
        "▁Génn",
        -8.980562351853207
      ],
      [
        "▁chocolatée",
        -8.980696107864885
      ],
      [
        "▁tasse",
        -8.980727368064109
      ],
      [
        "▁takk",
        -8.980813188330968
      ],
      [
        "▁gris",
        -8.980830059434966
      ],
      [
        "▁fowu",
        -8.981040086359101
      ],
      [
        "▁couteau",
        -8.981046043319068
      ],
      [
        "▁ndox",
        -8.981133345246612
      ],
      [
        "▁Tugël",
        -8.981265094623499
      ],
      [
        "▁njiit",
        -8.981329205441279
      ],
      [
        "▁Jam",
        -8.981416697021016
      ],
      [
        "▁Donne",
        -8.981580680226863
      ],
      [
        "▁doonkoon",
        -8.981765222928031
      ],
      [
        "▁taaru",
        -8.98215520483284
      ],
      [
        "▁Dama",
        -8.98239147873813
      ],
      [
        "▁feeñ",
        -8.982423652330208
      ],
      [
        "▁bokk",
        -8.98291682795556
      ],
      [
        "▁fépp",
        -8.983518658629356
      ],
      [
        "▁lëf",
        -8.98362310042144
      ],
      [
        "▁jaar",
        -8.983873079230202
      ],
      [
        "▁autre-là",
        -8.98444779803338
      ],
      [
        "▁ville",
        -8.984742083066067
      ],
      [
        "▁Bunt",
        -8.984833748681437
      ],
      [
        "▁dàll",
        -8.9856278736344
      ],
      [
        "▁Më",
        -8.98648626114724
      ],
      [
        "ŋ",
        -8.98880025424321
      ],
      [
        "▁Men",
        -8.98923186505286
      ],
      [
        "▁digg",
        -8.990062116853188
      ],
      [
        "▁feneen",
        -8.991465383366874
      ],
      [
        "▁Nda",
        -8.991692782721815
      ],
      [
        "▁sain",
        -8.991933032784226
      ],
      [
        "▁baxa",
        -8.99269926452148
      ],
      [
        "▁Vas",
        -8.99389553316195
      ],
      [
        "▁enfant-",
        -8.994053063070137
      ],
      [
        "▁bekk",
        -8.994534994121256
      ],
      [
        "▁herbes",
        -8.994683848531785
      ],
      [
        "▁...",
        -8.994956680827398
      ],
      [
        "▁ñaan",
        -8.996120339232224
      ],
      [
        "▁kaas",
        -8.996208988344689
      ],
      [
        "▁pri",
        -8.996330852159915
      ],
      [
        "oroom",
        -8.997023751236176
      ],
      [
        "mu",
        -9.003822567910756
      ],
      [
        "▁refuse",
        -9.007554031788992
      ],
      [
        "▁veni",
        -9.007754859543832
      ],
      [
        "▁Dana",
        -9.010489173532836
      ],
      [
        "▁souhaite",
        -9.012038554942523
      ],
      [
        "▁Dan",
        -9.012348854888034
      ],
      [
        "-t-il",
        -9.012457990595145
      ],
      [
        "▁ñaxtu",
        -9.014727116607094
      ],
      [
        "▁marche",
        -9.017968276831432
      ],
      [
        "ance",
        -9.020019110168676
      ],
      [
        "uite",
        -9.021893762024238
      ],
      [
        "garder",
        -9.024597848451766
      ],
      [
        "▁elle",
        -9.025274623695276
      ],
      [
        "▁ñen",
        -9.02560504057696
      ],
      [
        "▁Bar",
        -9.026973602152356
      ],
      [
        "▁entra",
        -9.027823721494029
      ],
      [
        "▁Waxa",
        -9.03967047910068
      ],
      [
        "▁gen",
        -9.041184330263642
      ],
      [
        "▁cases",
        -9.041957499103235
      ],
      [
        "▁jam",
        -9.04385094663821
      ],
      [
        "connais",
        -9.044466280754309
      ],
      [
        "▁alal",
        -9.045117608440835
      ],
      [
        "▁bleu",
        -9.049944782066486
      ],
      [
        "▁amen",
        -9.052634476464048
      ],
      [
        "éer",
        -9.053978319391318
      ],
      [
        "bi",
        -9.060387354194189
      ],
      [
        "▁aurai",
        -9.061887863820036
      ],
      [
        "▁n'avai",
        -9.061934313608834
      ],
      [
        "▁gaa",
        -9.06197606113459
      ],
      [
        "ur",
        -9.064521744939624
      ],
      [
        "e,",
        -9.064754296500668
      ],
      [
        "▁Dis",
        -9.070665929943157
      ],
      [
        "▁Qu",
        -9.077810804633959
      ],
      [
        "▁ng",
        -9.078141944323125
      ],
      [
        "tour",
        -9.082179206845128
      ],
      [
        "▁Ta",
        -9.082819828629889
      ],
      [
        "▁Fi",
        -9.090274286074154
      ],
      [
        "ons",
        -9.091636475331574
      ],
      [
        "bër",
        -9.092072034752437
      ],
      [
        "▁bant",
        -9.092442546360306
      ],
      [
        "▁quelles",
        -9.09255937647599
      ],
      [
        "i.",
        -9.093769569167936
      ],
      [
        "où",
        -9.098984687957694
      ],
      [
        "▁viens",
        -9.103345377839739
      ],
      [
        "el",
        -9.104529960568755
      ],
      [
        "▁Re",
        -9.106316259061895
      ],
      [
        "lal",
        -9.108043154626618
      ],
      [
        "▁Yo",
        -9.111940573080592
      ],
      [
        "ton",
        -9.112696882443288
      ],
      [
        "▁sokolaa.",
        -9.11418671911653
      ],
      [
        "ien",
        -9.120193140810297
      ],
      [
        "▁war",
        -9.122401681892228
      ],
      [
        "▁jooj",
        -9.123480515580706
      ],
      [
        "▁individu",
        -9.124068428313162
      ],
      [
        "▁joli",
        -9.135343394646322
      ],
      [
        "ore",
        -9.137633220879998
      ],
      [
        "▁soi",
        -9.140073314962311
      ],
      [
        "▁cuisine",
        -9.140926155454475
      ],
      [
        "▁moomu",
        -9.144151875588857
      ],
      [
        "▁elles",
        -9.147431549467171
      ],
      [
        "ous",
        -9.148986975932546
      ],
      [
        "vait",
        -9.149659268359432
      ],
      [
        "q",
        -9.152945894377957
      ],
      [
        "ko",
        -9.15574026362055
      ],
      [
        "▁pro",
        -9.156639077930542
      ],
      [
        "rends",
        -9.157729785987922
      ],
      [
        "ge",
        -9.157743693921269
      ],
      [
        "▁defare",
        -9.159704376836082
      ],
      [
        "▁Ka",
        -9.16000315575777
      ],
      [
        "▁livre",
        -9.164960970148105
      ],
      [
        "▁bir",
        -9.166616647779005
      ],
      [
        "▁yi.",
        -9.168267493545724
      ],
      [
        "▁See",
        -9.169723269969216
      ],
      [
        "▁t'",
        -9.176609290807216
      ],
      [
        "▁wu",
        -9.178518705406649
      ],
      [
        "▁jo",
        -9.178952181794779
      ],
      [
        "▁vers",
        -9.17975396675754
      ],
      [
        "▁loxo",
        -9.180339785434079
      ],
      [
        "▁forêt",
        -9.180434965550276
      ],
      [
        "▁bûcheron",
        -9.18043496555798
      ],
      [
        "Ç",
        -9.18043496559023
      ],
      [
        "▁chaussures",
        -9.180434965753777
      ],
      [
        "▁ustensile",
        -9.180434966700982
      ],
      [
        "▁auparavant",
        -9.180434967475684
      ],
      [
        "▁mosquée",
        -9.18043500471207
      ],
      [
        "▁domaine",
        -9.180435035711858
      ],
      [
        "▁pantalon",
        -9.18043518867486
      ],
      [
        "▁dehors",
        -9.18043582587858
      ],
      [
        "▁fortune",
        -9.180436055363385
      ],
      [
        "▁construction",
        -9.180436155990677
      ],
      [
        "▁chapeau",
        -9.180436187457875
      ],
      [
        "▁maître",
        -9.180437023449501
      ],
      [
        "▁xaalis",
        -9.180438108293178
      ],
      [
        "▁Moontin",
        -9.180438390094016
      ],
      [
        "▁jàkka",
        -9.1804513024701
      ],
      [
        "▁gannaaw",
        -9.18045396769018
      ],
      [
        "▁L'enfant",
        -9.180458109587574
      ],
      [
        "▁travers",
        -9.180469444702911
      ],
      [
        "▁mbokk",
        -9.180471785665976
      ],
      [
        "▁palaat",
        -9.180485340176059
      ],
      [
        "▁Salut",
        -9.180497783377277
      ],
      [
        "▁gentil",
        -9.18050557975765
      ],
      [
        "▁këll",
        -9.180507813107273
      ],
      [
        "▁dirigeant",
        -9.180510338044469
      ],
      [
        "▁vieille",
        -9.180536778127951
      ],
      [
        "▁courage",
        -9.180553725237965
      ],
      [
        "▁xëcc",
        -9.180601555008643
      ],
      [
        "▁tànk",
        -9.180603077902209
      ],
      [
        "▁large",
        -9.180613840260333
      ],
      [
        "▁puj",
        -9.180698789924644
      ],
      [
        "▁parole",
        -9.180700217067887
      ],
      [
        "▁màgg",
        -9.180709599150328
      ],
      [
        "▁jàppukaay",
        -9.1807228721474
      ],
      [
        "▁tuuti",
        -9.1807860517582
      ],
      [
        "▁revienne",
        -9.180995823317721
      ],
      [
        "▁yéeg",
        -9.181015929732398
      ],
      [
        "▁bërëb",
        -9.181056354576627
      ],
      [
        "▁Dañu",
        -9.181233419583183
      ],
      [
        "▁travailleurs",
        -9.181325365416075
      ],
      [
        "▁dëgg",
        -9.181527851840615
      ],
      [
        "▁four",
        -9.18175338777306
      ],
      [
        "▁kookee",
        -9.181772654645684
      ],
      [
        "▁unique",
        -9.181831859693949
      ],
      [
        "aar",
        -9.18196081637846
      ],
      [
        "▁ŋgoogule",
        -9.182042502056216
      ],
      [
        "▁topp",
        -9.182244100535453
      ],
      [
        "▁accepte",
        -9.182548521119863
      ],
      [
        "▁plac",
        -9.182612520096765
      ],
      [
        "▁Néeg",
        -9.182926458181875
      ],
      [
        "▁surtout",
        -9.182971649390964
      ],
      [
        "▁Foo",
        -9.184051066498002
      ],
      [
        "▁nuit",
        -9.184490398718811
      ],
      [
        "▁bâtons",
        -9.18492286591361
      ],
      [
        "▁viennent",
        -9.185394188400748
      ],
      [
        "▁kafe",
        -9.185423459964547
      ],
      [
        "googule",
        -9.185446056336318
      ],
      [
        "▁xoolee",
        -9.18647005410456
      ],
      [
        "aay",
        -9.186745183788608
      ],
      [
        "▁reconnu",
        -9.187086905341154
      ],
      [
        "▁jaam",
        -9.187263029646546
      ],
      [
        "▁c'était",
        -9.187582111268613
      ],
      [
        "▁dessiné",
        -9.189033529030572
      ],
      [
        "▁l'entoure",
        -9.189722143262891
      ],
      [
        "▁ubbi",
        -9.191146886592419
      ],
      [
        "▁yé",
        -9.191329708960462
      ],
      [
        "▁fenn",
        -9.191697219328306
      ],
      [
        "▁d'il",
        -9.19176030770779
      ],
      [
        "▁jar",
        -9.194344843249908
      ],
      [
        "▁duñ",
        -9.196178787235576
      ],
      [
        "-il",
        -9.198073345811432
      ],
      [
        "▁eusse",
        -9.198824115841418
      ],
      [
        "▁Sama",
        -9.200517723783083
      ],
      [
        "▁naan",
        -9.203401220807939
      ],
      [
        "▁joge",
        -9.203550061226933
      ],
      [
        "▁D'",
        -9.20381128452665
      ],
      [
        "▁affaire",
        -9.205896191543138
      ],
      [
        "▁face",
        -9.206249200357941
      ],
      [
        "iens",
        -9.210957864780383
      ],
      [
        "▁jàpp",
        -9.211419077957911
      ],
      [
        "▁côté",
        -9.213496715811685
      ],
      [
        "▁kee",
        -9.21452734072422
      ],
      [
        "t.",
        -9.21575470006487
      ],
      [
        "▁panier",
        -9.216007632965763
      ],
      [
        "▁xo",
        -9.21627541052879
      ],
      [
        "kóon",
        -9.217195702068942
      ],
      [
        "▁vertes",
        -9.218294587647872
      ],
      [
        "nd",
        -9.220612864872862
      ],
      [
        "▁mes",
        -9.22196831396582
      ],
      [
        "▁deey",
        -9.222432432223366
      ],
      [
        "▁n'as",
        -9.228469392218331
      ],
      [
        "▁noire",
        -9.231175642053913
      ],
      [
        "'en",
        -9.231601938200999
      ],
      [
        "▁ven",
        -9.233508590688082
      ],
      [
        "▁ñibbi",
        -9.235113743218912
      ],
      [
        "▁bleus",
        -9.235864175469981
      ],
      [
        "wul",
        -9.23690843034586
      ],
      [
        "▁tub",
        -9.236928205322155
      ],
      [
        "▁fam",
        -9.239534605540573
      ],
      [
        "▁ser",
        -9.242423216617217
      ],
      [
        "▁defaree",
        -9.244426721219504
      ],
      [
        "▁kookuu",
        -9.247796738082604
      ],
      [
        "▁loo",
        -9.249254285997543
      ],
      [
        "▁jeunes",
        -9.251422445472919
      ],
      [
        "▁doi",
        -9.254711731660807
      ],
      [
        "ti",
        -9.263487265821485
      ],
      [
        "▁set",
        -9.267755856272531
      ],
      [
        "àkk",
        -9.268078117710466
      ],
      [
        "kaay",
        -9.268551395792052
      ],
      [
        "▁chocolat",
        -9.26933771008861
      ],
      [
        "ici",
        -9.27174881022357
      ],
      [
        "▁jox",
        -9.272770262503876
      ],
      [
        "ã",
        -9.272798012950195
      ],
      [
        "▁Bii",
        -9.273123278725269
      ],
      [
        "▁cas",
        -9.273193094806775
      ],
      [
        "▁ja",
        -9.273223981364845
      ],
      [
        "▁pu",
        -9.27894600032086
      ],
      [
        "tout",
        -9.280611484664133
      ],
      [
        "▁lesquel",
        -9.282593242744515
      ],
      [
        "ection",
        -9.283645463855404
      ],
      [
        "ût",
        -9.288408001472284
      ],
      [
        "▁bes",
        -9.288633801266739
      ],
      [
        "▁aux",
        -9.289335679763376
      ],
      [
        "aller",
        -9.294237837097702
      ],
      [
        "▁yar",
        -9.299763864778345
      ],
      [
        "▁chambres",
        -9.300511952813993
      ],
      [
        "appelles",
        -9.300777272769956
      ],
      [
        "▁e",
        -9.303131172191057
      ],
      [
        "ion",
        -9.310670039967171
      ],
      [
        "▁fan",
        -9.31872949588221
      ],
      [
        "mbaa",
        -9.31935804337973
      ],
      [
        "rait",
        -9.320727127157648
      ],
      [
        "ille",
        -9.32321639565918
      ],
      [
        "wal",
        -9.325962863552212
      ],
      [
        "▁Ch",
        -9.326643041583846
      ],
      [
        "▁xa",
        -9.32675774591976
      ],
      [
        "▁Com",
        -9.327635741808658
      ],
      [
        "▁plu",
        -9.32765762691475
      ],
      [
        "▁Xo",
        -9.329568304347285
      ],
      [
        "mar",
        -9.340797212597268
      ],
      [
        "▁étalé",
        -9.340890325411094
      ],
      [
        "vant",
        -9.341225472210423
      ],
      [
        "▁Cha",
        -9.349591427489917
      ],
      [
        "ral",
        -9.354933074797605
      ],
      [
        "▁Au",
        -9.357721987564808
      ],
      [
        "▁choses",
        -9.363194469006697
      ],
      [
        "▁gendarme",
        -9.371146516728132
      ],
      [
        "si",
        -9.371189431539168
      ],
      [
        "yu",
        -9.372794478377454
      ],
      [
        "▁bel",
        -9.375185780934162
      ],
      [
        "▁président",
        -9.378428819091177
      ],
      [
        "▁partie",
        -9.382556297687431
      ],
      [
        "▁marché",
        -9.382653702708621
      ],
      [
        "▁ans",
        -9.383312064225315
      ],
      [
        "▁conçu",
        -9.383771856209494
      ],
      [
        "▁car",
        -9.384139981179004
      ],
      [
        "▁Ñaa",
        -9.384824006411588
      ],
      [
        "▁Bul",
        -9.38892731284158
      ],
      [
        "▁ndugg",
        -9.389408833478232
      ],
      [
        "▁Ŋg",
        -9.393123323583541
      ],
      [
        "▁nd",
        -9.394271052137727
      ],
      [
        "▁jàmm",
        -9.397377541003094
      ],
      [
        "ku",
        -9.40041509996576
      ],
      [
        "▁do",
        -9.400937952314342
      ],
      [
        "▁nge",
        -9.401882143270395
      ],
      [
        "▁ñaa",
        -9.405475801139161
      ],
      [
        "ouche",
        -9.407279352162153
      ],
      [
        "▁jog",
        -9.409840721776527
      ],
      [
        "▁xool",
        -9.410736834668793
      ],
      [
        "▁étai",
        -9.411129977171903
      ],
      [
        "▁Ng",
        -9.416011812547303
      ],
      [
        "ni",
        -9.418396292342646
      ],
      [
        "▁fr",
        -9.420467774211438
      ],
      [
        "▁dóo",
        -9.42131783802559
      ],
      [
        "▁révolte",
        -9.42856203759959
      ],
      [
        "appartien",
        -9.429085269975033
      ],
      [
        "▁donne",
        -9.429879795133775
      ],
      [
        "qui",
        -9.43011413093927
      ],
      [
        "▁prêt",
        -9.430434965556985
      ],
      [
        "»",
        -9.43043496559023
      ],
      [
        "…",
        -9.43043496559023
      ],
      [
        "«",
        -9.43043496559023
      ],
      [
        "▁certainement",
        -9.430434968925848
      ],
      [
        "▁habituellement",
        -9.430434975805728
      ],
      [
        "▁Au-dessus",
        -9.430434984203387
      ],
      [
        "▁apparaissent",
        -9.430434985181485
      ],
      [
        "▁gëléem",
        -9.430435150310078
      ],
      [
        "▁baobab",
        -9.43043518853716
      ],
      [
        "▁gazelle",
        -9.430435229382852
      ],
      [
        "▁Ñëw",
        -9.430435692038948
      ],
      [
        "▁Louga",
        -9.430436012322806
      ],
      [
        "▁Birayim",
        -9.430436034737024
      ],
      [
        "▁sûr",
        -9.430436150302409
      ],
      [
        "▁brave",
        -9.430436651055569
      ],
      [
        "▁zinc",
        -9.430438447143509
      ],
      [
        "▁toilettes",
        -9.430438937798975
      ],
      [
        "▁njege",
        -9.430440892561997
      ],
      [
        "▁Macron",
        -9.430441263303793
      ],
      [
        "▁xayma",
        -9.430448072448534
      ],
      [
        "▁yànj",
        -9.430450811094115
      ],
      [
        "▁chameau",
        -9.43045642993891
      ],
      [
        "▁rideau",
        -9.430457966042482
      ],
      [
        "▁ndanka",
        -9.4304599752472
      ],
      [
        "▁Alfa",
        -9.430486018062593
      ],
      [
        "▁Agsil",
        -9.43050197061034
      ],
      [
        "▁Yaakaar",
        -9.430514915435314
      ],
      [
        "▁ëlëk",
        -9.430549053297003
      ],
      [
        "▁d'arbres",
        -9.430570591066873
      ],
      [
        "▁xamantane",
        -9.430584328413993
      ],
      [
        "▁champ",
        -9.43058622964586
      ],
      [
        "▁Qu'est-ce",
        -9.430617713298949
      ],
      [
        "▁d'entre",
        -9.430699386657226
      ],
      [
        "▁NGo",
        -9.430725106722852
      ],
      [
        "▁jëfandikoo",
        -9.430742418447982
      ],
      [
        "▁Luga",
        -9.430756832706095
      ],
      [
        "▁l'eau",
        -9.430758059357068
      ],
      [
        "▁làmp",
        -9.430776157665129
      ],
      [
        "▁outil",
        -9.430791468463909
      ],
      [
        "▁bãŋ",
        -9.430794870789194
      ],
      [
        "▁Demuloo",
        -9.430896650494466
      ],
      [
        "▁Gaynd",
        -9.43096353351402
      ],
      [
        "▁soirée",
        -9.431054011516975
      ],
      [
        "▁bras",
        -9.431169689272965
      ],
      [
        "▁weñ",
        -9.431275362959202
      ],
      [
        "▁fond",
        -9.431321866029336
      ],
      [
        "▁serais",
        -9.43133553754605
      ],
      [
        "▁tête",
        -9.431397097720883
      ],
      [
        "▁Pour",
        -9.4314971473672
      ],
      [
        "▁Demuma",
        -9.431563453569026
      ],
      [
        "▁ensemble",
        -9.431667319207815
      ],
      [
        "▁matinée",
        -9.431696690806836
      ],
      [
        "▁alors",
        -9.431734250571143
      ],
      [
        "▁rencontrer",
        -9.431762630716339
      ],
      [
        "▁bopp",
        -9.431930915516231
      ],
      [
        "▁long",
        -9.432012040140602
      ],
      [
        "▁wert",
        -9.432018094541384
      ],
      [
        "'av",
        -9.432053453198325
      ],
      [
        "▁douche",
        -9.432074850221055
      ],
      [
        "▁dagg",
        -9.43235402311625
      ],
      [
        "▁Qu'",
        -9.432397141234729
      ],
      [
        "▁voulu",
        -9.432515160821081
      ],
      [
        "▁wone",
        -9.432838892912871
      ],
      [
        "▁ñor",
        -9.432991937049037
      ],
      [
        "▁naqar",
        -9.433095919373205
      ],
      [
        "▁bày",
        -9.433101353459897
      ],
      [
        "▁Demkoon",
        -9.433474536155234
      ],
      [
        "▁gudd",
        -9.433724686931507
      ],
      [
        "▁wépp",
        -9.43372492240455
      ],
      [
        "▁Tann",
        -9.433753730199676
      ],
      [
        "▁kookale",
        -9.433808815876441
      ],
      [
        "▁Ñooñu",
        -9.433908747822986
      ],
      [
        "▁passé",
        -9.433930374174645
      ],
      [
        "▁Ver",
        -9.434166962794063
      ],
      [
        "▁donc",
        -9.43427818123119
      ],
      [
        "éy",
        -9.434538993808
      ],
      [
        "▁mbaxana",
        -9.434770841162193
      ],
      [
        "▁baŋ",
        -9.434940419693968
      ],
      [
        "hacun",
        -9.4349856305748
      ],
      [
        "▁nuru",
        -9.436639795155362
      ],
      [
        "▁Cependant",
        -9.436660439388763
      ],
      [
        "▁Ni",
        -9.436777304145206
      ],
      [
        "bu",
        -9.436791187338317
      ],
      [
        "▁marchent",
        -9.437018864985063
      ],
      [
        "▁d'habitude",
        -9.438011811075425
      ],
      [
        "▁per",
        -9.439968136742044
      ],
      [
        "▁darab",
        -9.440885879444826
      ],
      [
        "hoisi",
        -9.441313077040862
      ],
      [
        "▁suba",
        -9.442791278634518
      ],
      [
        "▁soldats",
        -9.443502556012259
      ],
      [
        "▁danga",
        -9.444763637332692
      ],
      [
        "▁parents",
        -9.445001324045192
      ],
      [
        "▁policiers",
        -9.445218877957306
      ],
      [
        "ois",
        -9.44547252375851
      ],
      [
        "rent",
        -9.446175643601045
      ],
      [
        "▁Yee",
        -9.446256619355674
      ],
      [
        "▁juste",
        -9.44734467068894
      ],
      [
        "▁wetam",
        -9.447992882836093
      ],
      [
        "▁nom",
        -9.44818189681487
      ],
      [
        "Après",
        -9.448378152281105
      ],
      [
        "▁sàndarm",
        -9.44892849860626
      ],
      [
        "euse",
        -9.450059950583363
      ],
      [
        "▁livres",
        -9.45100713891557
      ],
      [
        "▁dois",
        -9.452716936493864
      ],
      [
        "▁verra",
        -9.453549381943779
      ],
      [
        "▁d'herbes",
        -9.454591003563289
      ],
      [
        "lève",
        -9.454607746015295
      ],
      [
        "▁Ña",
        -9.454866930767006
      ],
      [
        "aka",
        -9.455045603186004
      ],
      [
        "ailleurs",
        -9.45633557201684
      ],
      [
        "▁foo",
        -9.456694488502018
      ],
      [
        "▁kooka",
        -9.456815214496787
      ],
      [
        "▁n'en",
        -9.458783251891496
      ],
      [
        "▁partent",
        -9.45939543591746
      ],
      [
        "▁n'ira",
        -9.460746833738993
      ],
      [
        "▁demuñu",
        -9.46160837597414
      ],
      [
        "▁ñe",
        -9.462125242309988
      ],
      [
        "▁confie",
        -9.46348980228932
      ],
      [
        "ète",
        -9.46505894033525
      ],
      [
        "abond",
        -9.465119120768337
      ],
      [
        "▁peinte",
        -9.465678374227481
      ],
      [
        "▁prot",
        -9.46587021887327
      ],
      [
        "▁Celui",
        -9.469109930730841
      ],
      [
        "▁aime",
        -9.469151001511872
      ],
      [
        "cc",
        -9.470503267577495
      ],
      [
        "ersonne",
        -9.470531097465548
      ],
      [
        "autrefois",
        -9.470808053260225
      ],
      [
        "▁fer",
        -9.471027196349153
      ],
      [
        "▁xew",
        -9.47150870494794
      ],
      [
        "▁bancs",
        -9.471648534988377
      ],
      [
        "▁gisu",
        -9.471922952775138
      ],
      [
        "faites",
        -9.473281613705472
      ],
      [
        "▁att",
        -9.475068957994573
      ],
      [
        "▁guy",
        -9.475302476500403
      ],
      [
        "▁cont",
        -9.475705262732
      ],
      [
        "▁Wa",
        -9.479487634115387
      ],
      [
        "des",
        -9.480333463358887
      ],
      [
        "▁demain",
        -9.481057668844246
      ],
      [
        "▁you",
        -9.481133180511454
      ],
      [
        "▁vi",
        -9.48188156736601
      ],
      [
        "▁Ho",
        -9.481922243471038
      ],
      [
        "▁Nil",
        -9.482450581220995
      ],
      [
        "▁allez",
        -9.483829731115652
      ],
      [
        "▁batt",
        -9.4873678797708
      ],
      [
        "▁conten",
        -9.48850527456927
      ],
      [
        "▁daw",
        -9.49015291609391
      ],
      [
        "omprends",
        -9.490450321868195
      ],
      [
        "▁daje",
        -9.49072323110256
      ],
      [
        "▁Combi",
        -9.491599880577514
      ],
      [
        "▁bo",
        -9.495433225636827
      ],
      [
        "▁yaay",
        -9.497810505711188
      ],
      [
        "tal",
        -9.502420510843338
      ],
      [
        "nañu",
        -9.50320387586299
      ],
      [
        "▁nag.",
        -9.504107752701948
      ],
      [
        "▁voici",
        -9.507238532197475
      ],
      [
        "▁été.",
        -9.510848413492702
      ],
      [
        "▁ens",
        -9.51382517364939
      ],
      [
        "▁san",
        -9.515310519489649
      ],
      [
        "▁faite",
        -9.518489096924828
      ],
      [
        "▁doo",
        -9.519214206383461
      ],
      [
        "▁liggéeye",
        -9.520731124243294
      ],
      [
        "▁fo",
        -9.520764074233714
      ],
      [
        "▁Nu",
        -9.524897827630518
      ],
      [
        "me",
        -9.527836757635628
      ],
      [
        "part",
        -9.528992676244995
      ],
      [
        "▁naŋg",
        -9.529234173051606
      ],
      [
        "ui",
        -9.53193421105254
      ],
      [
        "qu",
        -9.532213348759045
      ],
      [
        "▁cons",
        -9.533460976007017
      ],
      [
        "▁Go",
        -9.53392769985071
      ],
      [
        "▁toogu",
        -9.53443767365808
      ],
      [
        "as-",
        -9.539555570134935
      ],
      [
        "▁denc",
        -9.541393596440129
      ],
      [
        "▁demb",
        -9.542097144161147
      ],
      [
        "je",
        -9.546358313896262
      ],
      [
        "▁fro",
        -9.546496057352295
      ],
      [
        "▁bleue",
        -9.547609678135476
      ],
      [
        "t-il",
        -9.55238727200706
      ],
      [
        "aat",
        -9.552717957703683
      ],
      [
        "yee",
        -9.553977853609195
      ],
      [
        "▁Ngo",
        -9.562034135400543
      ],
      [
        "▁lawoon",
        -9.564869328804887
      ],
      [
        "▁trai",
        -9.56516764963273
      ],
      [
        "▁fui",
        -9.565618466599776
      ],
      [
        "▁n'étai",
        -9.570021196277741
      ],
      [
        "kub",
        -9.572648592751545
      ],
      [
        "▁s'i",
        -9.57475825903579
      ],
      [
        "▁Ceux-",
        -9.576674463222059
      ],
      [
        "▁tey",
        -9.578728198481656
      ],
      [
        "▁gà",
        -9.580683492794865
      ],
      [
        "La",
        -9.581116391620307
      ],
      [
        "ages",
        -9.58115771841189
      ],
      [
        "ssent",
        -9.58249246819018
      ],
      [
        "▁bee",
        -9.586382817259224
      ],
      [
        "errière",
        -9.589321961222458
      ],
      [
        "iggéeykat",
        -9.59571081330128
      ],
      [
        "▁maye",
        -9.595948863294423
      ],
      [
        "nit",
        -9.598084886339247
      ],
      [
        "ka",
        -9.60088412708815
      ],
      [
        "▁sée",
        -9.601159879283287
      ],
      [
        "▁point",
        -9.60517817557982
      ],
      [
        "▁Noo",
        -9.605606894127956
      ],
      [
        "ŋgeen",
        -9.608295683049153
      ],
      [
        "▁taxu",
        -9.61017827501677
      ],
      [
        "▁dis",
        -9.611653803632072
      ],
      [
        "J",
        -9.621769774633725
      ],
      [
        "▁chocolat.",
        -9.621825594812847
      ],
      [
        "daamar",
        -9.626876650563222
      ],
      [
        "▁clair",
        -9.627275342373668
      ],
      [
        "▁heure",
        -9.631411541625486
      ],
      [
        "us",
        -9.632903637261485
      ],
      [
        "leur",
        -9.63636046785239
      ],
      [
        "▁s'ag",
        -9.636446533809664
      ],
      [
        "ouille",
        -9.640172227282141
      ],
      [
        "mis",
        -9.64333383028887
      ],
      [
        "▁nëw",
        -9.645488128766404
      ],
      [
        "at",
        -9.645934040581794
      ],
      [
        "jà",
        -9.646217791422329
      ],
      [
        "▁d'a",
        -9.650278661721032
      ],
      [
        "du",
        -9.650474457325995
      ],
      [
        "▁men",
        -9.652913252382518
      ],
      [
        "ulëer",
        -9.653534326503415
      ],
      [
        "ó",
        -9.6557068895385
      ],
      [
        "ër",
        -9.66048715841637
      ],
      [
        "ange",
        -9.661287792410102
      ],
      [
        "mp",
        -9.661991157856185
      ],
      [
        "age",
        -9.664514356683702
      ],
      [
        "▁l'o",
        -9.6674683293474
      ],
      [
        "▁dire",
        -9.668316003458434
      ],
      [
        "▁Aa",
        -9.668727819538287
      ],
      [
        "ente",
        -9.67039021089528
      ],
      [
        "▁connaiss",
        -9.683240878811393
      ],
      [
        "▁mont",
        -9.683635405307061
      ],
      [
        "obul",
        -9.684242701537235
      ],
      [
        "ez-",
        -9.68793618852023
      ],
      [
        "▁Waxu",
        -9.689825164746185
      ],
      [
        "▁Die",
        -9.693769201961507
      ],
      [
        "▁sii",
        -9.694679309197834
      ],
      [
        "▁goo",
        -9.695255949991434
      ],
      [
        "met",
        -9.697179266147666
      ],
      [
        "fi",
        -9.697232309092119
      ],
      [
        "rëb",
        -9.699317207541544
      ],
      [
        "▁n'e",
        -9.699781229756272
      ],
      [
        "pose",
        -9.70004872199892
      ],
      [
        "ache",
        -9.705794929716415
      ],
      [
        "ici.",
        -9.71287243854402
      ],
      [
        "kki",
        -9.71660478973173
      ],
      [
        "▁banc",
        -9.719810768602532
      ],
      [
        "mes",
        -9.720103573349522
      ],
      [
        "▁taa",
        -9.721947439421646
      ],
      [
        "tant",
        -9.722394756690827
      ],
      [
        "ii",
        -9.724392673470476
      ],
      [
        "▁bay",
        -9.72596827534031
      ],
      [
        "uff",
        -9.727399300292326
      ],
      [
        "▁pren",
        -9.728769616322683
      ],
      [
        "▁mêmes",
        -9.729732642942606
      ],
      [
        "▁fleur",
        -9.730652218330754
      ],
      [
        "▁d'herbe",
        -9.73115671902467
      ],
      [
        "A",
        -9.731570875441244
      ],
      [
        "arab",
        -9.73170487344156
      ],
      [
        "▁tegal",
        -9.733432536596485
      ],
      [
        "mour",
        -9.736596302199903
      ],
      [
        "▁U",
        -9.736893708454048
      ],
      [
        "▁nopp",
        -9.743911342248412
      ],
      [
        "▁mbu",
        -9.74501382311697
      ],
      [
        "▁Dé",
        -9.746000267159664
      ],
      [
        "▁Yooy",
        -9.74725908826199
      ],
      [
        "ñëw",
        -9.75064297633811
      ],
      [
        "▁kë",
        -9.752630065758689
      ],
      [
        "'est-à-dire",
        -9.759410258224559
      ],
      [
        "▁lekk",
        -9.760347466713888
      ],
      [
        "llez",
        -9.762173462805357
      ],
      [
        "ëkku",
        -9.762776082288779
      ],
      [
        "onfie",
        -9.763348140460002
      ],
      [
        "▁ŋgoogu",
        -9.763447027069677
      ],
      [
        "▁l'extérieur",
        -9.76376829888361
      ],
      [
        "▁climatiseurs",
        -9.763768298883855
      ],
      [
        "▁véhicule",
        -9.763768298885426
      ],
      [
        "▁français",
        -9.763768299001812
      ],
      [
        "▁superposé",
        -9.763768300788302
      ],
      [
        "▁couvercle",
        -9.763768307552139
      ],
      [
        "▁écrivent",
        -9.763768311591138
      ],
      [
        "▁couscous",
        -9.763768361850119
      ],
      [
        "▁alkaati",
        -9.763768377227574
      ],
      [
        "féexal",
        -9.763768414899149
      ],
      [
        "▁rëdd",
        -9.76376843040423
      ],
      [
        "▁attaché",
        -9.763768455179209
      ],
      [
        "▁fâch",
        -9.763768490999789
      ],
      [
        "▁messager",
        -9.763768571675033
      ],
      [
        "▁Faranse",
        -9.763768651872779
      ],
      [
        "▁karaaf",
        -9.763768846357141
      ],
      [
        "▁mûr",
        -9.763768916107326
      ],
      [
        "▁cultive",
        -9.763769086937899
      ],
      [
        "▁mboq",
        -9.763769098091196
      ],
      [
        "▁siège",
        -9.763769716189897
      ],
      [
        "▁appelé",
        -9.763770069950013
      ],
      [
        "▁meilleur",
        -9.763771528941186
      ],
      [
        "▁trop",
        -9.763773256995897
      ],
      [
        "▁beurre",
        -9.763774033518173
      ],
      [
        "▁Certaine",
        -9.763777365238447
      ],
      [
        "▁instant",
        -9.763778030061367
      ],
      [
        "▁xadde",
        -9.76378084862672
      ],
      [
        "▁carafe",
        -9.76378179600721
      ],
      [
        "▁lutteur",
        -9.763783261453725
      ],
      [
        "▁waxtaan",
        -9.763793353427356
      ],
      [
        "▁colère",
        -9.76379653046115
      ],
      [
        "▁Kaasamaas",
        -9.763796726357919
      ],
      [
        "▁sotti",
        -9.763799263974507
      ],
      [
        "foncé",
        -9.763800655535064
      ],
      [
        "▁plaît",
        -9.763800922686652
      ],
      [
        "▁adulte",
        -9.763812385071201
      ],
      [
        "▁couvert",
        -9.763818334641458
      ],
      [
        "▁bahut",
        -9.763827310086372
      ],
      [
        "▁gros",
        -9.763830156956924
      ],
      [
        "▁Solda",
        -9.763830542312306
      ],
      [
        "▁kéwël",
        -9.763837444817012
      ],
      [
        "▁saŋx",
        -9.763844433011755
      ],
      [
        "▁batã",
        -9.763899148666722
      ],
      [
        "▁sànn",
        -9.76391673849676
      ],
      [
        "▁Sëri",
        -9.763923677701188
      ],
      [
        "èvre",
        -9.76392640822369
      ],
      [
        "ëcc",
        -9.76393116890842
      ],
      [
        "▁paresseu",
        -9.763969053779233
      ],
      [
        "▁taabal",
        -9.764005176791654
      ],
      [
        "▁sauce",
        -9.764015198652077
      ],
      [
        "▁jabar",
        -9.764016972984278
      ],
      [
        "▁feuilles",
        -9.764018189130624
      ],
      [
        "▁caisse",
        -9.764018409309637
      ],
      [
        "▁Laisse",
        -9.764079651552686
      ],
      [
        "▁l'herbe",
        -9.764087581892884
      ],
      [
        "▁bouge",
        -9.764111508582218
      ],
      [
        "▁l'argent",
        -9.764121511321099
      ],
      [
        "▁dikkul",
        -9.764128050309315
      ],
      [
        "▁riz",
        -9.764194296969187
      ],
      [
        "▁Peul",
        -9.764245811208053
      ],
      [
        "▁Autre",
        -9.76429560878097
      ],
      [
        "▁l'argile",
        -9.764307881763227
      ],
      [
        "▁L'autre",
        -9.764316240099024
      ],
      [
        "▁tàngal",
        -9.764354179899655
      ],
      [
        "▁vérité",
        -9.76441921779991
      ],
      [
        "▁gauche",
        -9.764468635235628
      ],
      [
        "▁masque",
        -9.76472823447983
      ],
      [
        "▁prop",
        -9.764770439109974
      ],
      [
        "▁anglais",
        -9.764797011175007
      ],
      [
        "▁rose",
        -9.764838479824391
      ],
      [
        "▁grand",
        -9.764974349425326
      ],
      [
        "arloo",
        -9.76514017077447
      ],
      [
        "▁manger",
        -9.76517967572089
      ],
      [
        "▁ñeex",
        -9.765263579046017
      ],
      [
        "▁taille",
        -9.765414930108898
      ],
      [
        "▁coup",
        -9.765517929039632
      ],
      [
        "▁wàll",
        -9.765790568859646
      ],
      [
        "▁fukk",
        -9.76587850930291
      ],
      [
        "▁enfant-là",
        -9.765929575068967
      ],
      [
        "▁général",
        -9.765997402188964
      ],
      [
        "-je",
        -9.766198566850228
      ],
      [
        "▁Sàll",
        -9.766283521563528
      ],
      [
        "▁yaram",
        -9.76661063923042
      ],
      [
        "▁bët",
        -9.76664719465882
      ],
      [
        "▁n'import",
        -9.767072957133118
      ],
      [
        "▁faut",
        -9.767128567602075
      ],
      [
        "▁monté",
        -9.767305443980113
      ],
      [
        "▁l'appelle",
        -9.767746598433835
      ],
      [
        "▁indi",
        -9.767866058997447
      ],
      [
        "▁sopp",
        -9.767931389191824
      ],
      [
        "▁crain",
        -9.76796802950469
      ],
      [
        "▁jouent",
        -9.768108455253047
      ],
      [
        "▁c'est-à-dire",
        -9.768145186963025
      ],
      [
        "▁wóo",
        -9.768582446847486
      ],
      [
        "▁Sall",
        -9.768813398213123
      ],
      [
        "▁ceux-ci",
        -9.769122160058847
      ],
      [
        "▁genre",
        -9.769264154181982
      ],
      [
        "onne",
        -9.769344816104834
      ],
      [
        "▁dents",
        -9.769359352996805
      ],
      [
        "awbe",
        -9.76957552184062
      ],
      [
        "▁suuk",
        -9.76972568425167
      ],
      [
        "▁d'eux",
        -9.769843325319275
      ],
      [
        "▁clé",
        -9.770170409966498
      ],
      [
        "▁commen",
        -9.770330797545087
      ],
      [
        "▁concert",
        -9.770354860628402
      ],
      [
        "roo",
        -9.77059214672032
      ],
      [
        "▁terre",
        -9.771642985780986
      ],
      [
        "▁woowe",
        -9.77236707157745
      ],
      [
        "▁soow",
        -9.77324183456258
      ],
      [
        "▁beg",
        -9.773637729807236
      ],
      [
        "▁cuit",
        -9.77373722803299
      ],
      [
        "▁d'ar",
        -9.77399286108631
      ],
      [
        "▁yëf",
        -9.774081811362676
      ],
      [
        "▁plats",
        -9.774120637452452
      ],
      [
        "rage",
        -9.774159673322485
      ],
      [
        "▁Ah",
        -9.774376578877657
      ],
      [
        "▁tentes",
        -9.77463782644513
      ],
      [
        "▁Abal",
        -9.774649766695443
      ],
      [
        "▁bonul",
        -9.775514882979884
      ],
      [
        "▁homme-ci",
        -9.776736560723272
      ],
      [
        "ôt",
        -9.777517416653264
      ],
      [
        "▁Deg",
        -9.777580801705145
      ],
      [
        "▁sais",
        -9.77776996125904
      ],
      [
        "▁Wall",
        -9.777992622614564
      ],
      [
        "▁voya",
        -9.780639461680158
      ],
      [
        "▁pré",
        -9.78069153595934
      ],
      [
        "▁ñooñ",
        -9.781021787077762
      ],
      [
        "▁sukk",
        -9.781158078241884
      ],
      [
        "▁Yooyu",
        -9.78157707009987
      ],
      [
        "▁trou",
        -9.781921433790128
      ],
      [
        "ga",
        -9.782181122700443
      ],
      [
        "▁drapeau",
        -9.782620578094637
      ],
      [
        "▁Mac",
        -9.78436885743842
      ],
      [
        "ches",
        -9.784519162997674
      ],
      [
        "▁cuisiner",
        -9.784555682535238
      ],
      [
        "▁ceeb",
        -9.78482398186318
      ],
      [
        "▁courses",
        -9.78484595017641
      ],
      [
        "▁mét",
        -9.784881092129153
      ],
      [
        "iff",
        -9.785504685427124
      ],
      [
        "▁Celle",
        -9.786331074994084
      ],
      [
        "▁xeet",
        -9.78688618030975
      ],
      [
        "uru",
        -9.786966629604676
      ],
      [
        "▁r",
        -9.787928274333002
      ],
      [
        "▁fenêtres",
        -9.788216552370207
      ],
      [
        "▁objets",
        -9.788580855227663
      ],
      [
        "▁tiroirs",
        -9.790133920744077
      ],
      [
        "qu'un",
        -9.790136312883549
      ],
      [
        "nu",
        -9.790346592939978
      ],
      [
        "ile",
        -9.790715328734795
      ],
      [
        "▁prend",
        -9.792577017787858
      ],
      [
        "▁yaru",
        -9.79409118464439
      ],
      [
        "▁Kook",
        -9.794923377407978
      ],
      [
        "▁ñj",
        -9.795449185822532
      ],
      [
        "▁jour",
        -9.795868597861327
      ],
      [
        "veille",
        -9.797390229692805
      ],
      [
        "▁woowu",
        -9.798058185936755
      ],
      [
        "▁assiette",
        -9.798937521949393
      ],
      [
        "▁daawul",
        -9.799229738826435
      ],
      [
        "▁wala",
        -9.799463045243028
      ],
      [
        "▁marcher",
        -9.800467129636509
      ],
      [
        "▁Gisu",
        -9.801132639912186
      ],
      [
        "ntière",
        -9.801485154421572
      ],
      [
        "ante",
        -9.802050533704467
      ],
      [
        "pace",
        -9.80227180921483
      ],
      [
        "▁Salaa",
        -9.803304222405504
      ],
      [
        "exi",
        -9.80350685964488
      ],
      [
        "▁woowa",
        -9.804275700869823
      ],
      [
        "▁Aie",
        -9.805445652982478
      ],
      [
        "▁vert",
        -9.806198391613316
      ],
      [
        "laire",
        -9.811533258879583
      ],
      [
        "ré",
        -9.8142355489231
      ],
      [
        "▁Lui",
        -9.815051820670105
      ],
      [
        "cher",
        -9.815594821796317
      ],
      [
        "ve",
        -9.815599658490653
      ],
      [
        "▁vou",
        -9.815664942386782
      ],
      [
        "▁Seeti",
        -9.815707745105962
      ],
      [
        "▁Ŋgo",
        -9.818092933842216
      ],
      [
        "▁buur",
        -9.819393578616506
      ],
      [
        "▁Kan",
        -9.82102751043721
      ],
      [
        "▁mé",
        -9.821664805139735
      ],
      [
        "▁sim",
        -9.821837943874664
      ],
      [
        "▁Leur",
        -9.823503644434572
      ],
      [
        "hez",
        -9.824769419918345
      ],
      [
        "▁oreiller",
        -9.825339825750032
      ],
      [
        "▁présent",
        -9.826482742325169
      ],
      [
        "▁partai",
        -9.829801953463075
      ],
      [
        "▁h",
        -9.83132376159796
      ],
      [
        "▁be",
        -9.832360212353077
      ],
      [
        "▁forme",
        -9.839654126459044
      ],
      [
        "pis",
        -9.841146018613827
      ],
      [
        "▁yeux",
        -9.84149627401214
      ],
      [
        "▁cuisines",
        -9.842376641501616
      ],
      [
        "▁fe",
        -9.848109979682103
      ],
      [
        "añse",
        -9.848427918565296
      ],
      [
        "▁Waxul",
        -9.84890431320982
      ],
      [
        "▁fermée",
        -9.849220268194372
      ],
      [
        "énorme",
        -9.849717450507885
      ],
      [
        "modes",
        -9.851922527608785
      ],
      [
        "ts.",
        -9.852738972099003
      ],
      [
        "neen",
        -9.852919333042323
      ],
      [
        "▁n'aur",
        -9.853891452146613
      ],
      [
        "▁yooya",
        -9.854632200383236
      ],
      [
        "oow",
        -9.854689945547442
      ],
      [
        "▁Ñen",
        -9.856377375024364
      ],
      [
        "O",
        -9.856425271542667
      ],
      [
        "▁bout",
        -9.858443688649041
      ],
      [
        "góor",
        -9.860261600139344
      ],
      [
        "dd",
        -9.860288722881315
      ],
      [
        "eur",
        -9.860995447508138
      ],
      [
        "é.",
        -9.861577271418861
      ],
      [
        "▁Dégg",
        -9.86278420649482
      ],
      [
        "▁désire",
        -9.862920501127828
      ],
      [
        "▁utilise",
        -9.863247723361352
      ],
      [
        "boo",
        -9.866211598142314
      ],
      [
        "▁ch",
        -9.866217634384359
      ],
      [
        "▁jus",
        -9.866617484361043
      ],
      [
        "▁Daa",
        -9.867030770011137
      ],
      [
        "▁Yen",
        -9.867872008823532
      ],
      [
        "'aumône",
        -9.869206094026573
      ],
      [
        "lé",
        -9.87164110412538
      ],
      [
        "▁ñee",
        -9.872006744110216
      ],
      [
        "moon",
        -9.873752507452927
      ],
      [
        "▁Jée",
        -9.875275073610602
      ],
      [
        "▁lions",
        -9.876488835753197
      ],
      [
        "use",
        -9.876690345769271
      ],
      [
        "ejje",
        -9.88004155082505
      ],
      [
        "▁s'écha",
        -9.88105560601963
      ],
      [
        "▁Nee",
        -9.88282085311952
      ],
      [
        "▁cor",
        -9.884059815979452
      ],
      [
        "▁tubaa",
        -9.884960729667991
      ],
      [
        "yi",
        -9.886082065570243
      ],
      [
        "▁paye",
        -9.886769815542483
      ],
      [
        "eurs",
        -9.886939858156955
      ],
      [
        "oivent",
        -9.88857589777413
      ],
      [
        "▁dina",
        -9.889823588050087
      ],
      [
        "▁buu",
        -9.890055421803492
      ],
      [
        "▁pr",
        -9.891264422975967
      ],
      [
        "ah",
        -9.89898537230674
      ],
      [
        "▁Sor",
        -9.902548029900387
      ],
      [
        "▁joue",
        -9.903587660532931
      ],
      [
        "▁aille",
        -9.907287199245788
      ],
      [
        "▁gra",
        -9.908322806761552
      ],
      [
        "▁ño",
        -9.911532926978794
      ],
      [
        "dre",
        -9.912374794195372
      ],
      [
        "▁booba",
        -9.915989330126683
      ],
      [
        "heureu",
        -9.916595019244161
      ],
      [
        "rain",
        -9.919833339528207
      ],
      [
        "war",
        -9.919988699112514
      ],
      [
        "ji",
        -9.920449857754297
      ],
      [
        "able",
        -9.925035792286083
      ],
      [
        "▁daamar",
        -9.926234752741507
      ],
      [
        "▁claire",
        -9.927222181814175
      ],
      [
        "▁mett",
        -9.927689445777022
      ],
      [
        "uis",
        -9.931340002542527
      ],
      [
        "▁joo",
        -9.932878469870854
      ],
      [
        "▁ex",
        -9.935373392946685
      ],
      [
        "eut",
        -9.941810979588833
      ],
      [
        "▁po",
        -9.945078007793878
      ],
      [
        "tion",
        -9.945318107065614
      ],
      [
        "ions",
        -9.947376641655373
      ],
      [
        "▁cee",
        -9.948469196788242
      ],
      [
        "▁jolies",
        -9.949227053485389
      ],
      [
        "â",
        -9.955370438995526
      ],
      [
        "▁Defa",
        -9.958821190796504
      ],
      [
        "ques",
        -9.9594627670238
      ],
      [
        "lui",
        -9.959796920655098
      ],
      [
        "fu",
        -9.961411807141229
      ],
      [
        "âl",
        -9.961463347946204
      ],
      [
        "wuñu",
        -9.964507041865811
      ],
      [
        "▁roi",
        -9.965823388085454
      ],
      [
        "▁ro",
        -9.96585636203856
      ],
      [
        "▁ndo",
        -9.96814048595467
      ],
      [
        "▁mar",
        -9.968602888268796
      ],
      [
        "▁tel",
        -9.971152522181715
      ],
      [
        "gul",
        -9.972871672961181
      ],
      [
        "▁mbe",
        -9.973182941198827
      ],
      [
        "aal",
        -9.975424577177511
      ],
      [
        "▁sant",
        -9.976124195602035
      ],
      [
        "oir",
        -9.981481581171279
      ],
      [
        "ign",
        -9.981611486943496
      ],
      [
        "▁rentre",
        -9.981767460958306
      ],
      [
        "▁prie",
        -9.981945673062937
      ],
      [
        "▁rouges",
        -9.986642899228492
      ],
      [
        "éew",
        -9.989714296974125
      ],
      [
        "▁mba",
        -9.992367600585796
      ],
      [
        "▁fee",
        -9.993219943840048
      ],
      [
        "▁connaisse",
        -9.999998468333438
      ],
      [
        "▁Def",
        -10.000421771839243
      ],
      [
        "irai",
        -10.000628247344757
      ],
      [
        "▁far",
        -10.003195136477721
      ],
      [
        "llu",
        -10.003331183361306
      ],
      [
        "aa",
        -10.003607388905039
      ],
      [
        "▁pos",
        -10.006658058460378
      ],
      [
        "law",
        -10.00893632461193
      ],
      [
        "▁Se",
        -10.01377748609513
      ],
      [
        "▁yaat",
        -10.015753602243686
      ],
      [
        "▁ra",
        -10.017972552449754
      ],
      [
        "orte",
        -10.018432821378639
      ],
      [
        "naay",
        -10.019668964665238
      ],
      [
        "té",
        -10.02019068176978
      ],
      [
        "avait",
        -10.020219147098878
      ],
      [
        "▁gui",
        -10.022726737904126
      ],
      [
        "▁bat",
        -10.023439475841545
      ],
      [
        "ort",
        -10.02458965635875
      ],
      [
        "S",
        -10.024723610143964
      ],
      [
        "▁bas",
        -10.024977400430618
      ],
      [
        "argile",
        -10.031095856893693
      ],
      [
        "igne",
        -10.032576143227374
      ],
      [
        "▁xamul",
        -10.034842153604934
      ],
      [
        "▁Sé",
        -10.03970286916821
      ],
      [
        "ver",
        -10.041825044162817
      ],
      [
        "▁montr",
        -10.043927486956829
      ],
      [
        "▁Qua",
        -10.044817212826395
      ],
      [
        "▁parla",
        -10.046083568175627
      ],
      [
        "▁m'as",
        -10.04777830065543
      ],
      [
        "café",
        -10.049421129501553
      ],
      [
        "▁mise",
        -10.051245190450294
      ],
      [
        "act",
        -10.05264681423296
      ],
      [
        "lo",
        -10.053937440835245
      ],
      [
        "weer",
        -10.054506252203817
      ],
      [
        "▁Nag",
        -10.0550928788954
      ],
      [
        "▁Liggéey",
        -10.055441971465854
      ],
      [
        "▁Be",
        -10.058021236219572
      ],
      [
        "▁Bay",
        -10.059523374968185
      ],
      [
        "▁parler",
        -10.061246253826933
      ],
      [
        "vient",
        -10.064475981679497
      ],
      [
        "ru",
        -10.064497877418717
      ],
      [
        "laa",
        -10.066162093634444
      ],
      [
        "ff",
        -10.069083519857056
      ],
      [
        "eguñu",
        -10.071740651853432
      ],
      [
        "▁lev",
        -10.074357064619864
      ],
      [
        "ba",
        -10.075215238665551
      ],
      [
        "entre",
        -10.07633144343047
      ],
      [
        "mid",
        -10.078172827209888
      ],
      [
        "▁No",
        -10.081434137962091
      ],
      [
        "am.",
        -10.082437322837471
      ],
      [
        "cherche",
        -10.08275727774232
      ],
      [
        "ais-t",
        -10.085179843326994
      ],
      [
        "▁tege",
        -10.08861412625229
      ],
      [
        "um",
        -10.092385990471215
      ],
      [
        "abal",
        -10.09496959220644
      ],
      [
        "▁ŋg",
        -10.09625208524002
      ],
      [
        "ful",
        -10.096298871219844
      ],
      [
        "là",
        -10.096346843893443
      ],
      [
        "agg",
        -10.098041219726554
      ],
      [
        "ain",
        -10.102228753278485
      ],
      [
        "alal",
        -10.102527669838306
      ],
      [
        "gguma",
        -10.10723442971157
      ],
      [
        "▁seenu",
        -10.10775533938527
      ],
      [
        "▁too",
        -10.11246521400953
      ],
      [
        "rais",
        -10.11545013131196
      ],
      [
        "apprécie",
        -10.118539034683414
      ],
      [
        "ddi",
        -10.11889565524602
      ],
      [
        "fois",
        -10.11965717566803
      ],
      [
        "ta",
        -10.12392652008334
      ],
      [
        "échapp",
        -10.125996957339316
      ],
      [
        "oog",
        -10.128100689515207
      ],
      [
        "▁sera",
        -10.128469636902171
      ],
      [
        "angé",
        -10.130175343019806
      ],
      [
        "▁t'app",
        -10.13100032102127
      ],
      [
        "gis",
        -10.136866530507737
      ],
      [
        "▁nà",
        -10.14062975816906
      ],
      [
        "▁deme",
        -10.14461527320907
      ],
      [
        "anaa",
        -10.146296985773311
      ],
      [
        "▁yab",
        -10.150932976404707
      ],
      [
        "l.",
        -10.153721347910063
      ],
      [
        "▁Da",
        -10.155962522044431
      ],
      [
        "aaka",
        -10.16075983977059
      ],
      [
        "aleekum",
        -10.161517262140563
      ],
      [
        "▁mb",
        -10.162441287872765
      ],
      [
        "▁kook",
        -10.163452325311967
      ],
      [
        "▁waxe",
        -10.164663962164466
      ],
      [
        "urs",
        -10.165059842933742
      ],
      [
        "▁ha",
        -10.166355845462295
      ],
      [
        "▁ŋgoo",
        -10.16747966710591
      ],
      [
        "ho",
        -10.16770643001552
      ],
      [
        "▁bavarda",
        -10.168367994682908
      ],
      [
        "pe",
        -10.171303454230666
      ],
      [
        "ule",
        -10.173780011379247
      ],
      [
        "▁Celui-",
        -10.174709391634757
      ],
      [
        "ng",
        -10.174851339306985
      ],
      [
        "re.",
        -10.176960412191614
      ],
      [
        "▁cherch",
        -10.180653233498195
      ],
      [
        "▁bul",
        -10.182334311364318
      ],
      [
        "▁lait",
        -10.185618760853487
      ],
      [
        "uy",
        -10.18719806775727
      ],
      [
        "▁peint",
        -10.187932005437426
      ],
      [
        "eil",
        -10.193329219191591
      ],
      [
        "▁puis",
        -10.195451624895885
      ],
      [
        "▁confi",
        -10.199033109404752
      ],
      [
        "▁Xa",
        -10.200911255366645
      ],
      [
        "▁ti",
        -10.203649824854764
      ],
      [
        "ttends",
        -10.205205542217854
      ],
      [
        "jje",
        -10.206715090039596
      ],
      [
        "andi",
        -10.208855226344262
      ],
      [
        "▁attrap",
        -10.212807124944206
      ],
      [
        "ère.",
        -10.214340263026
      ],
      [
        "▁gejj",
        -10.216704762479024
      ],
      [
        "▁Att",
        -10.21925439634362
      ],
      [
        "ière.",
        -10.221460884625493
      ],
      [
        "▁objet",
        -10.224503478380072
      ],
      [
        "▁tiroir",
        -10.224547508081162
      ],
      [
        "▁cuisin",
        -10.224846089923172
      ],
      [
        "▁fenêtre",
        -10.225378876118324
      ],
      [
        "▁teint",
        -10.226382455857145
      ],
      [
        "mal",
        -10.227313792451065
      ],
      [
        "▁dam",
        -10.227417317013312
      ],
      [
        "xam",
        -10.227954037578735
      ],
      [
        "dem",
        -10.228326552913703
      ],
      [
        "▁tient",
        -10.228901846983634
      ],
      [
        "▁xë",
        -10.22960649212915
      ],
      [
        "▁gaynd",
        -10.230484899100677
      ],
      [
        "▁policier",
        -10.231082635497387
      ],
      [
        "▁viendr",
        -10.233512933569402
      ],
      [
        "▁rapp",
        -10.234985387246716
      ],
      [
        "▁Foof",
        -10.23788391019077
      ],
      [
        "▁pierre",
        -10.239412945218767
      ],
      [
        "▁go",
        -10.242443729901227
      ],
      [
        "▁n'ir",
        -10.243699259349098
      ],
      [
        "ste",
        -10.244571136988355
      ],
      [
        "▁parent",
        -10.244891563295967
      ],
      [
        "▁yit",
        -10.24519493805615
      ],
      [
        "axkoon",
        -10.245625040786539
      ],
      [
        "ngoo",
        -10.24641434999474
      ],
      [
        "▁recon",
        -10.24718998993228
      ],
      [
        "▁soldat",
        -10.247546227126065
      ],
      [
        "ure",
        -10.248902628277435
      ],
      [
        "lors",
        -10.24951897698977
      ],
      [
        "▁gë",
        -10.250327449482661
      ],
      [
        "ati",
        -10.250985648751122
      ],
      [
        "evant",
        -10.251570963388142
      ],
      [
        "▁somme",
        -10.252453907160204
      ],
      [
        "▁oreille",
        -10.252875367076268
      ],
      [
        "▁mang",
        -10.252915820460712
      ],
      [
        "▁foof",
        -10.25325364441136
      ],
      [
        "range",
        -10.25368925211939
      ],
      [
        "ête",
        -10.25637865108431
      ],
      [
        "ccepte",
        -10.257634996385773
      ],
      [
        "▁jó",
        -10.258877066248944
      ],
      [
        "▁bokku",
        -10.258934107210857
      ],
      [
        "'import",
        -10.258952542778413
      ],
      [
        "▁t'e",
        -10.258966886697905
      ],
      [
        "▁génér",
        -10.260142243850655
      ],
      [
        "oxoom",
        -10.26076308257855
      ],
      [
        "▁jaŋ",
        -10.261024935960425
      ],
      [
        "▁ubb",
        -10.26115815430357
      ],
      [
        "▁tée",
        -10.262004418783448
      ],
      [
        "cheur",
        -10.262225082879752
      ],
      [
        "▁tissé",
        -10.262809197205362
      ],
      [
        "▁sou",
        -10.26282408534361
      ],
      [
        "▁jëfandik",
        -10.263074136908406
      ],
      [
        "▁d'habit",
        -10.263753839077491
      ],
      [
        "▁Africaine",
        -10.26376829888716
      ],
      [
        "▁Français",
        -10.26376829889122
      ],
      [
        "▁migrateurs",
        -10.26376829889292
      ],
      [
        "É",
        -10.263768298923559
      ],
      [
        "(",
        -10.263768298923562
      ],
      [
        ")",
        -10.263768298923562
      ],
      [
        "Ë",
        -10.263768298923562
      ],
      [
        "▁Niominka.",
        -10.26376829892598
      ],
      [
        "▁confortable",
        -10.263768298954954
      ],
      [
        "▁impoli",
        -10.263768301927099
      ],
      [
        "▁récipient",
        -10.263768304883902
      ],
      [
        "▁accroch",
        -10.263768313071363
      ],
      [
        "▁archite",
        -10.263768315005638
      ],
      [
        "▁boucliers",
        -10.263768320165113
      ],
      [
        "▁ngànnaay",
        -10.263768320569204
      ],
      [
        "▁canapé",
        -10.263768345985268
      ],
      [
        "▁tambour",
        -10.26376835338092
      ],
      [
        "▁maasàllaa",
        -10.263768364115323
      ],
      [
        "▁berceau",
        -10.263768377604299
      ],
      [
        "▁rapprochée",
        -10.263768380875549
      ],
      [
        "▁préparé",
        -10.263768497068584
      ],
      [
        "▁frigo",
        -10.263768498450455
      ],
      [
        "▁'jaune'",
        -10.263768505311736
      ],
      [
        "▁chaîne",
        -10.26376854227666
      ],
      [
        "▁automobile",
        -10.263768590491418
      ],
      [
        "▁tamarin",
        -10.263768804930711
      ],
      [
        "▁fabriqu",
        -10.26376885961993
      ],
      [
        "▁totalité",
        -10.263769473249342
      ],
      [
        "▁lumineuse",
        -10.263769551713372
      ],
      [
        "▁beerso",
        -10.263769619360598
      ],
      [
        "▁achète",
        -10.263769906230044
      ],
      [
        "áa",
        -10.263770059426193
      ],
      [
        "▁radier",
        -10.263770089840813
      ],
      [
        "congelé",
        -10.263770373137604
      ],
      [
        "▁ñambaan",
        -10.263770398666578
      ],
      [
        "▁nombre",
        -10.263770911359046
      ],
      [
        "▁lançant",
        -10.263771537518396
      ],
      [
        "▁Dites-l",
        -10.263772524333058
      ],
      [
        "▁yalwaan",
        -10.263772873430083
      ],
      [
        "▁nouvel",
        -10.263774221970866
      ],
      [
        "▁magasin",
        -10.263774846274819
      ],
      [
        "▁constituée",
        -10.263775647955356
      ],
      [
        "▁rassembl",
        -10.263776590421154
      ],
      [
        "▁statut",
        -10.263777760641378
      ],
      [
        "▁discut",
        -10.263778614588233
      ],
      [
        "▁S'agi",
        -10.263779802901537
      ],
      [
        "'ouvre",
        -10.263781902729713
      ],
      [
        "▁besoin",
        -10.263782265412912
      ],
      [
        "▁assailli",
        -10.263783539526333
      ],
      [
        "▁France",
        -10.263785540683218
      ],
      [
        "▁meuble",
        -10.263788078794223
      ],
      [
        "▁marron",
        -10.263789950840895
      ],
      [
        "▁l'allume",
        -10.263790126423073
      ],
      [
        "écédé",
        -10.263797085858936
      ],
      [
        "▁marõ",
        -10.263799428647653
      ],
      [
        "▁Taxawa",
        -10.263800640929507
      ],
      [
        "▁moontin",
        -10.26380200237065
      ],
      [
        "▁prépare",
        -10.263803194400563
      ],
      [
        "▁entouré",
        -10.263806640514472
      ],
      [
        "▁jàkkarloo",
        -10.263807197412326
      ],
      [
        "▁truc",
        -10.263807518849921
      ],
      [
        "▁souffr",
        -10.263815571641931
      ],
      [
        "▁nàññ",
        -10.263819789573386
      ],
      [
        "grillage",
        -10.263823284420061
      ],
      [
        "▁L'endroit",
        -10.263830550094312
      ],
      [
        "▁moket",
        -10.263835237151266
      ],
      [
        "▁renversé",
        -10.263837596690417
      ],
      [
        "àngaan",
        -10.263840194384539
      ],
      [
        "▁xelli",
        -10.263849305817104
      ],
      [
        "àccee",
        -10.26384937831659
      ],
      [
        "▁âgé",
        -10.263860190328309
      ],
      [
        "▁descendra",
        -10.26386865129921
      ],
      [
        "▁couvr",
        -10.26386963474609
      ],
      [
        "aalekum",
        -10.263871800322669
      ],
      [
        "à-bas",
        -10.263872928381858
      ],
      [
        "▁bassin",
        -10.26387585167118
      ],
      [
        "▁n'habite",
        -10.26388364603545
      ],
      [
        "▁répét",
        -10.263901328894375
      ],
      [
        "▁yàqu",
        -10.263916245253284
      ],
      [
        "▁aajo",
        -10.263941872911971
      ],
      [
        "▁plante",
        -10.263952171747105
      ],
      [
        "nde",
        -10.263962837071237
      ],
      [
        "▁gosse",
        -10.263975124637005
      ],
      [
        "▁salut",
        -10.263989268225032
      ],
      [
        "▁fanane",
        -10.26400689100243
      ],
      [
        "▁inter",
        -10.264011978839418
      ],
      [
        "▁propos",
        -10.264025308473247
      ],
      [
        "▁ancien",
        -10.264051528087794
      ],
      [
        "▁rëy",
        -10.264066024855957
      ],
      [
        "âche",
        -10.264127395311935
      ],
      [
        "▁l'imp",
        -10.264155196644504
      ],
      [
        "▁faneetar",
        -10.26415605917025
      ],
      [
        "▁écriture",
        -10.264156119673022
      ],
      [
        "▁Musta",
        -10.264257205996664
      ],
      [
        "pérer",
        -10.26429635378086
      ],
      [
        "▁jumaa",
        -10.264307371371155
      ],
      [
        "▁gardé",
        -10.264333029705673
      ],
      [
        "▁visite",
        -10.264353523443875
      ],
      [
        "cture",
        -10.264384905202707
      ],
      [
        "▁gàdd",
        -10.264448923691035
      ],
      [
        "▁yeggee",
        -10.26451807248504
      ],
      [
        "▁fanaan",
        -10.264588985513013
      ],
      [
        "▁chef",
        -10.26458928505843
      ],
      [
        "▁vous-même",
        -10.264631162891177
      ],
      [
        "▁cubb",
        -10.264675628129753
      ],
      [
        "▁toi-même",
        -10.264754942023345
      ],
      [
        "▁moi-même",
        -10.264772359691587
      ],
      [
        "▁ndigg",
        -10.26484160043716
      ],
      [
        "▁j'apprécie",
        -10.264912959875037
      ],
      [
        "▁Dellu",
        -10.264943807094893
      ],
      [
        "▁Lebou",
        -10.264962663282905
      ],
      [
        "vêt",
        -10.264991451829307
      ],
      [
        "▁moyen",
        -10.265048600107235
      ],
      [
        "▁bënn",
        -10.265116156860849
      ],
      [
        "▁droit",
        -10.265166612715314
      ],
      [
        "▁echelle",
        -10.265193759305824
      ],
      [
        "▁raison",
        -10.265343383724698
      ],
      [
        "ablement",
        -10.26536258319926
      ],
      [
        "▁élevage",
        -10.265457758771078
      ],
      [
        "▁karo",
        -10.265462463187722
      ],
      [
        "mbres",
        -10.265607308944709
      ],
      [
        "▁Wutël",
        -10.26563420872447
      ],
      [
        "▁mort",
        -10.265740277179836
      ],
      [
        "▁fekk",
        -10.265764278311584
      ],
      [
        "▁public",
        -10.265803906371353
      ],
      [
        "▁Chacun",
        -10.265835098001672
      ],
      [
        "▁Arr",
        -10.265836939235022
      ],
      [
        "▁doj",
        -10.265857905097922
      ],
      [
        "taine",
        -10.265878544351992
      ],
      [
        "aune'",
        -10.265916077508868
      ],
      [
        "▁Dugg",
        -10.26598594412677
      ],
      [
        "▁accompagné",
        -10.266037014426487
      ],
      [
        "assoupi",
        -10.266043907244944
      ],
      [
        "▁waawaaw",
        -10.266045065962413
      ],
      [
        "▁tissées",
        -10.266210900217974
      ],
      [
        "s-",
        -10.26622069757235
      ],
      [
        "▁t'aurai",
        -10.266324190596666
      ],
      [
        "▁tayel",
        -10.266411081223943
      ],
      [
        "▁Ko",
        -10.266444743362069
      ],
      [
        "▁Bira",
        -10.26665894560114
      ],
      [
        "époque",
        -10.26672974526216
      ],
      [
        "iroir",
        -10.266752511941727
      ],
      [
        "▁kulëer",
        -10.266912676071343
      ],
      [
        "▁kukk",
        -10.266952498943194
      ],
      [
        "▁gymnas",
        -10.267106303209205
      ],
      [
        "▁seef",
        -10.267111682710393
      ],
      [
        "▁loxoom",
        -10.267139103512
      ],
      [
        "▁cohabitent",
        -10.267375099370303
      ],
      [
        "▁dawul",
        -10.267517030289513
      ],
      [
        "▁différentes",
        -10.267648417932552
      ],
      [
        "▁suivent",
        -10.267912708050838
      ],
      [
        "▁révoltent",
        -10.268036993612034
      ],
      [
        "▁serré",
        -10.268174571468085
      ],
      [
        "▁googu",
        -10.26822615661657
      ],
      [
        "soup",
        -10.268384299279687
      ],
      [
        "aucun",
        -10.268418936316555
      ],
      [
        "▁wutal",
        -10.26875796291046
      ],
      [
        "▁fatt",
        -10.269088691347678
      ],
      [
        "▁janool",
        -10.269149298110436
      ],
      [
        "▁xeex",
        -10.269206218661441
      ],
      [
        "▁wenn",
        -10.269227175285911
      ],
      [
        "▁armes",
        -10.269513204984873
      ],
      [
        "▁par-là",
        -10.269573045834163
      ],
      [
        "▁D'autre",
        -10.269631311362016
      ],
      [
        "ngalu",
        -10.269679130474927
      ],
      [
        "▁gone",
        -10.269901615502876
      ],
      [
        "▁ardo",
        -10.270070816382626
      ],
      [
        "angasin",
        -10.270237068292158
      ],
      [
        "▁jàll",
        -10.270327655421724
      ],
      [
        "▁n'allai",
        -10.270542474498257
      ],
      [
        "▁coule",
        -10.270550222961395
      ],
      [
        "▁tàkk",
        -10.270712804435709
      ],
      [
        "▁Sénégal'",
        -10.27082783834551
      ],
      [
        "▁moroom",
        -10.271983301379603
      ],
      [
        "ayim",
        -10.272060346129079
      ],
      [
        "▁travaillait",
        -10.27220859580931
      ],
      [
        "▁dajal",
        -10.272215125289907
      ],
      [
        "allum",
        -10.27239807995785
      ],
      [
        "▁casque",
        -10.272690694774624
      ],
      [
        "joor",
        -10.272698281497256
      ],
      [
        "▁Ño",
        -10.272733471557368
      ],
      [
        "▁Eux",
        -10.272784816971752
      ],
      [
        "ëlë",
        -10.272839395873955
      ],
      [
        "▁degg",
        -10.273076690721771
      ],
      [
        "▁yeg",
        -10.273234253537366
      ],
      [
        "quelles",
        -10.27341387544334
      ],
      [
        "'entend",
        -10.273458556652685
      ],
      [
        "▁jamb",
        -10.273504019028286
      ],
      [
        "oto",
        -10.273621687100848
      ],
      [
        "▁publi",
        -10.273766751708266
      ],
      [
        "▁Kaay",
        -10.273817397223786
      ],
      [
        "▁sës",
        -10.274482932071741
      ],
      [
        "▁ñorul",
        -10.274541902793107
      ],
      [
        "ifique",
        -10.27484311620616
      ],
      [
        "▁mucc",
        -10.274885851151678
      ],
      [
        "outer",
        -10.275178618574728
      ],
      [
        "▁àndal",
        -10.275467229880977
      ],
      [
        "▁bëggé",
        -10.27548742400503
      ],
      [
        "▁sommet",
        -10.275706098372453
      ],
      [
        "▁s'asse",
        -10.275958603804337
      ],
      [
        "▁ginnaawam",
        -10.276059931427968
      ],
      [
        "ydina",
        -10.276281238914084
      ],
      [
        "▁voulez",
        -10.276755632939729
      ],
      [
        "▁reconn",
        -10.276825669262747
      ],
      [
        "▁police",
        -10.277180945109855
      ],
      [
        "nive",
        -10.277351392597181
      ],
      [
        "▁ë",
        -10.277411470262855
      ],
      [
        "ari",
        -10.277786943154727
      ],
      [
        "▁voyage",
        -10.27784268205356
      ],
      [
        "bul",
        -10.278039851883113
      ],
      [
        "gico",
        -10.27809962449158
      ],
      [
        "▁écla",
        -10.278127899348057
      ],
      [
        "habitent",
        -10.278449275446116
      ],
      [
        "▁exc",
        -10.2793629195479
      ],
      [
        "▁retrouv",
        -10.279767360347062
      ],
      [
        "gël",
        -10.27996781286497
      ],
      [
        "▁ñeent",
        -10.281003040682299
      ],
      [
        "lise",
        -10.282149073581015
      ],
      [
        "ëk",
        -10.282342848311702
      ],
      [
        "éra",
        -10.283126163733247
      ],
      [
        "▁séq",
        -10.283853744629281
      ],
      [
        "ëlé",
        -10.284268506844706
      ],
      [
        "tions",
        -10.284460084165786
      ],
      [
        "▁char",
        -10.285222556475862
      ],
      [
        "▁Léeg",
        -10.285766663443539
      ],
      [
        "ñca",
        -10.286368094357732
      ],
      [
        "▁lieux",
        -10.286413372688193
      ],
      [
        "▁fë",
        -10.287136613292265
      ],
      [
        "▁remplie",
        -10.287871553730911
      ],
      [
        "▁voies",
        -10.288069619371806
      ],
      [
        "▁pieds",
        -10.288104919944079
      ],
      [
        "▁content",
        -10.288699067753873
      ],
      [
        "▁Daawul",
        -10.28890020294726
      ],
      [
        "▁d'elle",
        -10.289144349672737
      ],
      [
        "▁doyu",
        -10.290640328540068
      ],
      [
        "supp",
        -10.290950240820523
      ],
      [
        "▁voulai",
        -10.291002445058917
      ],
      [
        "▁laiss",
        -10.292103805262428
      ],
      [
        "lusi",
        -10.292972284646147
      ],
      [
        "▁doomam",
        -10.29318130081819
      ],
      [
        "▁jusqu'ici",
        -10.294004555226016
      ],
      [
        "▁arriva",
        -10.294181963537154
      ],
      [
        "sard",
        -10.296226773869622
      ],
      [
        "▁fen",
        -10.29662776699433
      ],
      [
        "C'est",
        -10.296703126768508
      ],
      [
        "▁rentrer",
        -10.29713148387185
      ],
      [
        "▁sox",
        -10.297315370809004
      ],
      [
        "àgg",
        -10.298519983017922
      ],
      [
        "▁vertu",
        -10.299396401719655
      ],
      [
        "▁entrer",
        -10.29966047750522
      ],
      [
        "ëgg",
        -10.300510829260716
      ],
      [
        "nég",
        -10.300613372138544
      ],
      [
        "▁Ex",
        -10.301069788035042
      ],
      [
        "▁élev",
        -10.301137338038505
      ],
      [
        "aix",
        -10.30145932029328
      ],
      [
        "▁fais",
        -10.302156326003859
      ],
      [
        "▁Xay",
        -10.3025230187844
      ],
      [
        "▁Ab",
        -10.304311454301114
      ],
      [
        "'appelle",
        -10.304984503360094
      ],
      [
        "illage",
        -10.30557398256667
      ],
      [
        "▁fini",
        -10.305833141108206
      ],
      [
        "▁bëtt",
        -10.305847842763187
      ],
      [
        "ène",
        -10.305882198072798
      ],
      [
        "saŋ",
        -10.305886293005825
      ],
      [
        "che",
        -10.306099218639769
      ],
      [
        "rdo",
        -10.306139859736897
      ],
      [
        "▁ben",
        -10.306856443580124
      ],
      [
        "▁poli",
        -10.307554445000488
      ],
      [
        "▁conna",
        -10.30848413652897
      ],
      [
        "kkan",
        -10.309968916801296
      ],
      [
        "▁lionne",
        -10.310583501352493
      ],
      [
        "▁Jë",
        -10.3110063703354
      ],
      [
        "euilles",
        -10.31192817028763
      ],
      [
        "▁dedans",
        -10.312265492312992
      ],
      [
        "▁bëggu",
        -10.312277762733302
      ],
      [
        "ourri",
        -10.312624571166408
      ],
      [
        "ññ",
        -10.312697365530113
      ],
      [
        "mps",
        -10.312933571539881
      ],
      [
        "iennent",
        -10.314883631076667
      ],
      [
        "▁metti",
        -10.316321269504465
      ],
      [
        "▁fût",
        -10.316652218809311
      ],
      [
        "▁étage",
        -10.31668715305189
      ],
      [
        "▁gaal",
        -10.317956524194955
      ],
      [
        "▁morts",
        -10.318982685456863
      ],
      [
        "endant",
        -10.320215828274145
      ],
      [
        "après-",
        -10.321576640250951
      ],
      [
        "▁Jamm",
        -10.323332257069604
      ],
      [
        "sid",
        -10.324296508690779
      ],
      [
        "▁senn",
        -10.325677724782617
      ],
      [
        "▁xaritam",
        -10.327327719661303
      ],
      [
        "▁wut",
        -10.327837996670851
      ],
      [
        "▁saura",
        -10.328132146790661
      ],
      [
        "ooñii",
        -10.328249726925764
      ],
      [
        "▁ouverte",
        -10.328997209165513
      ],
      [
        "▁lumi",
        -10.330587215620758
      ],
      [
        "iy",
        -10.331333016254929
      ],
      [
        "▁marchan",
        -10.331651711964845
      ],
      [
        "▁sta",
        -10.331801204397063
      ],
      [
        "gaam",
        -10.332741181898339
      ],
      [
        "▁blanches.",
        -10.333918163011644
      ],
      [
        "ple",
        -10.33431538813254
      ],
      [
        "gu",
        -10.335839614683257
      ],
      [
        "▁taba",
        -10.336521252998134
      ],
      [
        "▁échelle",
        -10.336828034552969
      ],
      [
        "allong",
        -10.338344870819435
      ],
      [
        "▁kote",
        -10.338897024520264
      ],
      [
        "our",
        -10.339342662883116
      ],
      [
        "▁Nde",
        -10.340527051292556
      ],
      [
        "nent",
        -10.340877305178418
      ],
      [
        "▁chauff",
        -10.341994486266573
      ],
      [
        "óox",
        -10.34240506806412
      ],
      [
        "e-le",
        -10.343462737405448
      ],
      [
        "▁jale",
        -10.343523610695806
      ],
      [
        "▁waxtu",
        -10.343770304264194
      ],
      [
        "▁wuu",
        -10.344122850268636
      ],
      [
        "▁salaam",
        -10.346151020665651
      ],
      [
        "bb",
        -10.346257067135458
      ],
      [
        "ërëm",
        -10.347176896256117
      ],
      [
        "nee",
        -10.348023296987071
      ],
      [
        "emal",
        -10.348932049873154
      ],
      [
        "puisé",
        -10.349122648742124
      ],
      [
        "séd",
        -10.351068568716014
      ],
      [
        "▁nanu",
        -10.352004911641025
      ],
      [
        "▁daawu",
        -10.35262533638834
      ],
      [
        "▁Wooy",
        -10.353189202316017
      ],
      [
        "▁donner",
        -10.353544440338798
      ],
      [
        "▁travaille",
        -10.354199298543175
      ],
      [
        "▁travaill",
        -10.35698943418451
      ],
      [
        "▁léeg",
        -10.357168156160682
      ],
      [
        "▁Don",
        -10.357401419804798
      ],
      [
        "▁tenue",
        -10.358259842692966
      ],
      [
        "▁ét",
        -10.359533737946359
      ],
      [
        "deau",
        -10.360506467754366
      ],
      [
        "edress",
        -10.360562394950602
      ],
      [
        "aî",
        -10.360813817925493
      ],
      [
        "▁rafetul",
        -10.361064475282918
      ],
      [
        "lóo",
        -10.362321677940345
      ],
      [
        "▁s'assi",
        -10.364239205579397
      ],
      [
        "aisir",
        -10.36466556336487
      ],
      [
        "ures",
        -10.367019755503819
      ],
      [
        "▁ndugge",
        -10.367104465818429
      ],
      [
        "▁Wau",
        -10.368315612529857
      ],
      [
        "▁bavard",
        -10.368922121261763
      ],
      [
        "'étudiant",
        -10.369433021312712
      ],
      [
        "▁attrape",
        -10.36982368251105
      ],
      [
        "▁seule",
        -10.36982846259792
      ],
      [
        "dina",
        -10.370084375918918
      ],
      [
        "▁Non",
        -10.373106518181737
      ],
      [
        "▁melo",
        -10.373157813583616
      ],
      [
        "accompagne",
        -10.373967567137111
      ],
      [
        "kke",
        -10.374406448623507
      ],
      [
        "àmm",
        -10.374652804142464
      ],
      [
        "▁Ñi",
        -10.37546711710702
      ],
      [
        "ërëb",
        -10.377632394532117
      ],
      [
        "▁Peut-",
        -10.378144531989202
      ],
      [
        "▁jur",
        -10.3797807050443
      ],
      [
        "eek",
        -10.381205580603435
      ],
      [
        "▁Mel",
        -10.3813089364053
      ],
      [
        "uloo",
        -10.381920929076163
      ],
      [
        "C",
        -10.38286967570473
      ],
      [
        "kka",
        -10.383297820667504
      ],
      [
        "iyaar",
        -10.385628456492874
      ],
      [
        "seen",
        -10.385665835662735
      ],
      [
        "naaw",
        -10.385823804998656
      ],
      [
        "▁siy",
        -10.387559520641426
      ],
      [
        "▁saisi",
        -10.389066826805529
      ],
      [
        "▁jee",
        -10.389609657968924
      ],
      [
        "waaw",
        -10.389969847695117
      ],
      [
        "achi",
        -10.39121794868003
      ],
      [
        "▁Sen",
        -10.392343330125092
      ],
      [
        "▁présidents",
        -10.392793240443396
      ],
      [
        "okk",
        -10.393001193641222
      ],
      [
        "▁née",
        -10.393923633873854
      ],
      [
        "lle",
        -10.393971522616868
      ],
      [
        "da",
        -10.394992889234508
      ],
      [
        "▁lekku",
        -10.395773174490854
      ],
      [
        "▁natte",
        -10.39655432339755
      ],
      [
        "alante",
        -10.398209299141275
      ],
      [
        "▁baga",
        -10.398411861740538
      ],
      [
        "▁court",
        -10.39854330078574
      ],
      [
        "▁noo",
        -10.39859664759739
      ],
      [
        "▁blanches",
        -10.40061275192807
      ],
      [
        "añ",
        -10.401271123816993
      ],
      [
        "▁noon",
        -10.405489185207426
      ],
      [
        "uñ",
        -10.407747706887516
      ],
      [
        "caak",
        -10.411163065861086
      ],
      [
        "▁après-",
        -10.412620844690688
      ],
      [
        "oudre",
        -10.413474186558828
      ],
      [
        "ffi",
        -10.415546455034516
      ],
      [
        "▁carre",
        -10.418050327766764
      ],
      [
        "dé",
        -10.419569094799476
      ],
      [
        "▁baar",
        -10.42654775623156
      ],
      [
        "uur",
        -10.426760224649438
      ],
      [
        "biir",
        -10.427528836916514
      ],
      [
        "▁sar",
        -10.428175445787772
      ],
      [
        "▁faç",
        -10.428509608945134
      ],
      [
        "lè",
        -10.429787576982088
      ],
      [
        "ront",
        -10.430847780795308
      ],
      [
        "pas",
        -10.43088785504337
      ],
      [
        "▁gé",
        -10.432378278154774
      ],
      [
        "enez",
        -10.435712582304909
      ],
      [
        "mant",
        -10.435901256997738
      ],
      [
        "yit",
        -10.436135021017433
      ],
      [
        "▁Amin",
        -10.437136396793296
      ],
      [
        "▁tra",
        -10.437545032903602
      ],
      [
        "▁s'agiss",
        -10.43777597182506
      ],
      [
        "▁way",
        -10.438738712679747
      ],
      [
        "nag",
        -10.439457944007556
      ],
      [
        "-nd",
        -10.442315858025133
      ],
      [
        "▁jours",
        -10.444976137923467
      ],
      [
        "sant",
        -10.446365496677181
      ],
      [
        "ter",
        -10.447986763856083
      ],
      [
        "▁réewu",
        -10.448992780609764
      ],
      [
        "orts",
        -10.453230708289137
      ],
      [
        "▁bols",
        -10.454256535365037
      ],
      [
        "cult",
        -10.45571218473373
      ],
      [
        "pendant",
        -10.456385928260703
      ],
      [
        "esquel",
        -10.458572225090588
      ],
      [
        "off",
        -10.459474424022456
      ],
      [
        "▁sor",
        -10.46005679318328
      ],
      [
        "agnes",
        -10.462193534072028
      ],
      [
        "▁H",
        -10.463943530157122
      ],
      [
        "▁ter",
        -10.464003135288294
      ],
      [
        "▁reveni",
        -10.464133112314727
      ],
      [
        "▁Mets",
        -10.464646556087004
      ],
      [
        "aintenant",
        -10.46564872759443
      ],
      [
        "meur",
        -10.468594917017281
      ],
      [
        "óol",
        -10.470795130452876
      ],
      [
        "▁meneen",
        -10.471133509365396
      ],
      [
        "▁mur",
        -10.472653877002042
      ],
      [
        "▁ciment",
        -10.473020325382464
      ],
      [
        "cot",
        -10.473124509825576
      ],
      [
        "▁sembl",
        -10.474080935581625
      ],
      [
        "toi",
        -10.482382245481876
      ],
      [
        "eau",
        -10.487394962393902
      ],
      [
        "he",
        -10.487674616428555
      ],
      [
        "'euss",
        -10.48769620116204
      ],
      [
        "▁kà",
        -10.487867871750218
      ],
      [
        "lëer",
        -10.489487955170352
      ],
      [
        "▁sub",
        -10.490715011828359
      ],
      [
        "▁petits",
        -10.490734043422034
      ],
      [
        "waa",
        -10.491432656085749
      ],
      [
        "homme",
        -10.491599371241199
      ],
      [
        "▁marché.",
        -10.491641634166813
      ],
      [
        "rie",
        -10.495674641574926
      ],
      [
        "iques",
        -10.49778213824211
      ],
      [
        "naiss",
        -10.49789199771832
      ],
      [
        "▁étalée",
        -10.50226513954096
      ],
      [
        "▁sé",
        -10.507478064489762
      ],
      [
        "▁nan",
        -10.508943095829578
      ],
      [
        "min",
        -10.511259026580047
      ],
      [
        "bine",
        -10.51326290965156
      ],
      [
        "'arbre",
        -10.51585361431712
      ],
      [
        "▁Xarit",
        -10.51670023691598
      ],
      [
        "▁posée",
        -10.517713162834202
      ],
      [
        "eux-ci",
        -10.518607258255859
      ],
      [
        "▁l'as",
        -10.518703495577238
      ],
      [
        "▁cere",
        -10.519736927718366
      ],
      [
        "▁Baa",
        -10.522382304523338
      ],
      [
        "qu'il",
        -10.523289985137001
      ],
      [
        "la.",
        -10.525293011634046
      ],
      [
        "▁trouver",
        -10.525629324939345
      ],
      [
        "n.",
        -10.52610040719443
      ],
      [
        "▁cha",
        -10.527482994139572
      ],
      [
        "waan",
        -10.53086607627609
      ],
      [
        "▁all",
        -10.53111114543119
      ],
      [
        "endu",
        -10.533620520180948
      ],
      [
        "iron",
        -10.53795996488791
      ],
      [
        "▁lakk",
        -10.538564638191138
      ],
      [
        "-même",
        -10.53868405984816
      ],
      [
        "sage",
        -10.53881130750853
      ],
      [
        "▁Ñung",
        -10.540009574241758
      ],
      [
        "▁Bëggu",
        -10.540179271424527
      ],
      [
        "ŋk",
        -10.54220179242189
      ],
      [
        "▁sortie",
        -10.544547041489109
      ],
      [
        "▁voie",
        -10.546597917880808
      ],
      [
        "egg",
        -10.553459618202627
      ],
      [
        "sées",
        -10.553694005131092
      ],
      [
        "▁monta",
        -10.556816400122745
      ],
      [
        "è",
        -10.557724479402644
      ],
      [
        "▁wal",
        -10.559736160535092
      ],
      [
        "▁Ang",
        -10.559884626237885
      ],
      [
        "▁To",
        -10.56160514108335
      ],
      [
        "▁rag",
        -10.56170567262706
      ],
      [
        "▁cou",
        -10.567113206149125
      ],
      [
        "▁voi",
        -10.567368035231457
      ],
      [
        "▁nur",
        -10.56986085556096
      ],
      [
        "▁dey",
        -10.571199691684441
      ],
      [
        "onvers",
        -10.572450249817456
      ],
      [
        "▁nja",
        -10.57548985197752
      ],
      [
        "▁duu",
        -10.579581849807587
      ],
      [
        "nces",
        -10.5808247760715
      ],
      [
        "▁filles",
        -10.582695812857121
      ],
      [
        "▁habite",
        -10.583493055034824
      ],
      [
        "▁We",
        -10.58499965570686
      ],
      [
        "aam",
        -10.58702898478326
      ],
      [
        "▁goog",
        -10.587273713074765
      ],
      [
        "▁layu",
        -10.590703098026712
      ],
      [
        "▁pointe",
        -10.59100654615116
      ],
      [
        "amul",
        -10.591715206447002
      ],
      [
        "▁x",
        -10.592355178091344
      ],
      [
        "▁i",
        -10.592404767924155
      ],
      [
        "▁pot",
        -10.602092862331341
      ],
      [
        "▁manifeste",
        -10.602112891595892
      ],
      [
        "ace",
        -10.602260160228171
      ],
      [
        "..",
        -10.604739395546025
      ],
      [
        "▁juu",
        -10.606382261141915
      ],
      [
        "▁doxu",
        -10.609048001591997
      ],
      [
        "omu",
        -10.609898166328191
      ],
      [
        "din",
        -10.611303516019445
      ],
      [
        "u-",
        -10.61234205759278
      ],
      [
        "rrière",
        -10.614449382299933
      ],
      [
        "▁tire",
        -10.615641993191968
      ],
      [
        "▁lë",
        -10.615943912015595
      ],
      [
        "▁Wan",
        -10.616325258463888
      ],
      [
        "eg",
        -10.616854213569798
      ],
      [
        "▁saw",
        -10.621018483960864
      ],
      [
        "▁arrive",
        -10.62399502794697
      ],
      [
        "▁tii",
        -10.627131429059887
      ],
      [
        "li",
        -10.628221525996004
      ],
      [
        "▁conçues",
        -10.632412274718654
      ],
      [
        "▁donn",
        -10.63250166274244
      ],
      [
        "▁cat",
        -10.637712663521025
      ],
      [
        "bal",
        -10.638568850292954
      ],
      [
        "waal",
        -10.639017615061356
      ],
      [
        "▁tir",
        -10.639933177969072
      ],
      [
        "wu",
        -10.640534741993832
      ],
      [
        "▁defee",
        -10.641187420430068
      ],
      [
        "▁Ou",
        -10.642905184124228
      ],
      [
        "▁jà",
        -10.644419825735469
      ],
      [
        "▁réc",
        -10.64749692853326
      ],
      [
        "ol",
        -10.648404467910266
      ],
      [
        "▁serv",
        -10.651217697588606
      ],
      [
        "elui-ci",
        -10.654163720966585
      ],
      [
        "ha",
        -10.654896822141698
      ],
      [
        "maa",
        -10.655945152984081
      ],
      [
        "egarde",
        -10.659960171843045
      ],
      [
        "abax",
        -10.660869677049218
      ],
      [
        "Il",
        -10.66816694881864
      ],
      [
        "▁vent",
        -10.675846446327482
      ],
      [
        "▁rentr",
        -10.677189019366786
      ],
      [
        "bale",
        -10.678295974251409
      ],
      [
        "▁naaj",
        -10.680329594685997
      ],
      [
        "▁yonn",
        -10.681392643971941
      ],
      [
        "opp",
        -10.687248757483795
      ],
      [
        "▁Ha",
        -10.689101568074467
      ],
      [
        "▁d'o",
        -10.689479317858648
      ],
      [
        "▁tawa",
        -10.691863341247835
      ],
      [
        "sort",
        -10.69200461031761
      ],
      [
        "▁lee",
        -10.694727555021748
      ],
      [
        "om",
        -10.6988524045065
      ],
      [
        "▁manifest",
        -10.700297538072263
      ],
      [
        "▁accompagne",
        -10.701969694859011
      ],
      [
        "▁entr",
        -10.702345271844582
      ],
      [
        "▁ndi",
        -10.702834373862341
      ],
      [
        "▁wo",
        -10.702892163717653
      ],
      [
        "ans",
        -10.702947919043012
      ],
      [
        "app",
        -10.708325621653069
      ],
      [
        "lig",
        -10.709096326638766
      ],
      [
        "sur",
        -10.714239045527437
      ],
      [
        "ur.",
        -10.714657498914272
      ],
      [
        "veux",
        -10.71590136254102
      ],
      [
        "éri",
        -10.716231465129725
      ],
      [
        "▁Set",
        -10.720608620595177
      ],
      [
        "▁cu",
        -10.721218869129038
      ],
      [
        "uróom-ñ",
        -10.725512910429963
      ],
      [
        "nor",
        -10.726277792541481
      ],
      [
        "▁Leb",
        -10.726796401823517
      ],
      [
        "▁Saa",
        -10.72772442492338
      ],
      [
        "uits",
        -10.728385636326319
      ],
      [
        "▁dà",
        -10.728651851319627
      ],
      [
        "abar",
        -10.728677751702824
      ],
      [
        "ŋgoo",
        -10.729841768486338
      ],
      [
        "rom",
        -10.73312027872733
      ],
      [
        "rée",
        -10.73342151956589
      ],
      [
        "entourant",
        -10.73448108084917
      ],
      [
        "▁pl",
        -10.738313416022386
      ],
      [
        "▁jeu",
        -10.74115762080882
      ],
      [
        "orsqu",
        -10.744415360986519
      ],
      [
        "res",
        -10.747316831349373
      ],
      [
        "g.",
        -10.750556591471575
      ],
      [
        "ité",
        -10.751952482793024
      ],
      [
        "▁poissons",
        -10.756837994144682
      ],
      [
        "▁joxo",
        -10.7571953725735
      ],
      [
        "yul",
        -10.758851785673507
      ],
      [
        "ets-t",
        -10.760415433183072
      ],
      [
        "▁Xan",
        -10.76569891660328
      ],
      [
        "nez",
        -10.767165806969665
      ],
      [
        "▁Maan",
        -10.767782081542544
      ],
      [
        "eel",
        -10.770889533729045
      ],
      [
        "ttais",
        -10.773348894028818
      ],
      [
        "▁habit",
        -10.77381933655956
      ],
      [
        "ow",
        -10.777226792156263
      ],
      [
        "▁xal",
        -10.777422780445093
      ],
      [
        "ggoo",
        -10.778253261486837
      ],
      [
        "ire",
        -10.779175658176353
      ],
      [
        "ière",
        -10.783870771094145
      ],
      [
        "ñoo",
        -10.789757778326043
      ],
      [
        "▁Té",
        -10.79109562668809
      ],
      [
        "tenu",
        -10.791225696556385
      ],
      [
        "'il",
        -10.791744396034082
      ],
      [
        "▁l'on",
        -10.793273328045922
      ],
      [
        "ch",
        -10.793823559276676
      ],
      [
        "▁dencu",
        -10.798316843119478
      ],
      [
        "ande",
        -10.799804352657123
      ],
      [
        "ges",
        -10.802628013780563
      ],
      [
        "▁cara",
        -10.803023318755079
      ],
      [
        "at.",
        -10.808764384752312
      ],
      [
        "▁comm",
        -10.808902189486856
      ],
      [
        "woo",
        -10.81030393823723
      ],
      [
        "ndio",
        -10.811463683501348
      ],
      [
        "cri",
        -10.812570622034176
      ],
      [
        "ooy",
        -10.817957407279344
      ],
      [
        "▁naata",
        -10.822777680083943
      ],
      [
        "posés",
        -10.823981439699061
      ],
      [
        "atant",
        -10.824206903562242
      ],
      [
        "wax",
        -10.824413904218527
      ],
      [
        "À",
        -10.829002960888374
      ],
      [
        "▁Fe",
        -10.829520272232466
      ],
      [
        "dée",
        -10.837490361068879
      ],
      [
        "vers",
        -10.838389501777845
      ],
      [
        "gg",
        -10.841258005538458
      ],
      [
        "nce",
        -10.841279139025238
      ],
      [
        "▁Jusqu'",
        -10.842076974076152
      ],
      [
        "▁Pl",
        -10.844354665373272
      ],
      [
        "▁accompagn",
        -10.84492168188341
      ],
      [
        "kku",
        -10.845915324369441
      ],
      [
        "▁assise",
        -10.847225192255065
      ],
      [
        "pi",
        -10.850680057016078
      ],
      [
        "ide",
        -10.859499679895794
      ],
      [
        "sin",
        -10.862566461151644
      ],
      [
        "▁desquel",
        -10.864502754209628
      ],
      [
        "pir",
        -10.866881774342707
      ],
      [
        "'aurai",
        -10.867227519402665
      ],
      [
        "nn",
        -10.871007076916
      ],
      [
        "entré",
        -10.879235755631118
      ],
      [
        "poisson",
        -10.883219791047766
      ],
      [
        "intérieur",
        -10.887685469680886
      ],
      [
        "▁ge",
        -10.88862396420713
      ],
      [
        "que.",
        -10.893595759496987
      ],
      [
        "autre",
        -10.899336844150334
      ],
      [
        "ndal",
        -10.899439578973439
      ],
      [
        "▁jou",
        -10.903099922533185
      ],
      [
        "ngel",
        -10.903875100000967
      ],
      [
        "éegu",
        -10.904041013623642
      ],
      [
        "▁seeta",
        -10.906309307464188
      ],
      [
        "aumône",
        -10.909765162165295
      ],
      [
        "argent",
        -10.912992851248301
      ],
      [
        "▁Mas",
        -10.91340722839709
      ],
      [
        "▁cin",
        -10.913574489259581
      ],
      [
        "▁té",
        -10.916334979493937
      ],
      [
        "allu",
        -10.916485855380683
      ],
      [
        "▁waxa",
        -10.918900511699272
      ],
      [
        "alla",
        -10.922080098451337
      ],
      [
        "▁Fo",
        -10.924028498717359
      ],
      [
        "joo",
        -10.924138099885523
      ],
      [
        "aan",
        -10.924236347518763
      ],
      [
        "▁boob",
        -10.925034742189927
      ],
      [
        "dénk",
        -10.92595822191602
      ],
      [
        "ibbisi",
        -10.92595968007859
      ],
      [
        "▁utilis",
        -10.926864056712203
      ],
      [
        "▁voici.",
        -10.92687055781067
      ],
      [
        "▁désir",
        -10.927463773960516
      ],
      [
        "aaroo",
        -10.92869454799468
      ],
      [
        "aaya",
        -10.932116707456903
      ],
      [
        "▁batta",
        -10.932932850902972
      ],
      [
        "I",
        -10.934376288218479
      ],
      [
        "▁homm",
        -10.936719978778141
      ],
      [
        "▁yen",
        -10.939442592346019
      ],
      [
        "▁reven",
        -10.94682790024013
      ],
      [
        "▁auto",
        -10.951730873228254
      ],
      [
        "table",
        -10.951838756368655
      ],
      [
        "le.",
        -10.952222734226236
      ],
      [
        "vu",
        -10.9528369257768
      ],
      [
        "jour",
        -10.954683636114723
      ],
      [
        "én",
        -10.95740596775714
      ],
      [
        "m.",
        -10.958095612647533
      ],
      [
        "acc",
        -10.959603456261265
      ],
      [
        "ñuul.",
        -10.961010704960676
      ],
      [
        "▁énorm",
        -10.964702261945057
      ],
      [
        "aujourd'hui",
        -10.964741855183922
      ],
      [
        "▁fermé",
        -10.966164488719848
      ],
      [
        "takk-der",
        -10.967704790096107
      ],
      [
        "laay",
        -10.970141097662637
      ],
      [
        "▁dég",
        -10.973801867709232
      ],
      [
        "▁ri",
        -10.975853782370274
      ],
      [
        "kar",
        -10.978205045190556
      ],
      [
        "▁nj",
        -10.983724026120816
      ],
      [
        "▁Bule",
        -10.985043193694224
      ],
      [
        "ro",
        -10.988558300538042
      ],
      [
        "viendra",
        -10.989309143531596
      ],
      [
        "▁ndà",
        -10.993784573326348
      ],
      [
        "rob",
        -10.997538854859988
      ],
      [
        "ément",
        -10.997963646063734
      ],
      [
        "▁Bë",
        -11.001028124644481
      ],
      [
        "▁lalu",
        -11.003306840730795
      ],
      [
        "▁Gej",
        -11.004477263610884
      ],
      [
        "antee",
        -11.009246523343993
      ],
      [
        "'appelles",
        -11.009559799586278
      ],
      [
        "tali",
        -11.011832480157137
      ],
      [
        "▁souhait",
        -11.012225890377799
      ],
      [
        "ogul",
        -11.015324801177941
      ],
      [
        "e-t-il",
        -11.0158918636954
      ],
      [
        "▁sont-",
        -11.015926879039728
      ],
      [
        "▁j'e",
        -11.018086527243048
      ],
      [
        "ana",
        -11.01822121608959
      ],
      [
        "sël",
        -11.018397516328069
      ],
      [
        "rs",
        -11.01848530963133
      ],
      [
        "vertes",
        -11.019093844051392
      ],
      [
        "bëggée",
        -11.019126082052809
      ],
      [
        "▁cour",
        -11.02081123647483
      ],
      [
        "Mon",
        -11.02082541650692
      ],
      [
        "lait",
        -11.021213682317246
      ],
      [
        "chaise",
        -11.021856342192534
      ],
      [
        "'opp",
        -11.022951654303993
      ],
      [
        "▁pouv",
        -11.023491848455404
      ],
      [
        "çon",
        -11.02369359776872
      ],
      [
        "▁demand",
        -11.024336433154557
      ],
      [
        "dessin",
        -11.02758498533633
      ],
      [
        "▁ñuu",
        -11.028359448305634
      ],
      [
        "uit",
        -11.029489943773616
      ],
      [
        "panier",
        -11.030574181137098
      ],
      [
        "Par",
        -11.03102666995259
      ],
      [
        "étudiant",
        -11.035724940114262
      ],
      [
        "ñaxtu",
        -11.036084482362678
      ],
      [
        "nte",
        -11.037477812582734
      ],
      [
        "▁form",
        -11.037498150210197
      ],
      [
        "sent",
        -11.038113506205255
      ],
      [
        "ppe",
        -11.039812933973618
      ],
      [
        "eû",
        -11.041069338586631
      ],
      [
        "écrit",
        -11.0413355947377
      ],
      [
        "demain",
        -11.043398591691334
      ],
      [
        "▁refus",
        -11.044394289342277
      ],
      [
        "côté",
        -11.045096567205688
      ],
      [
        "eut-être",
        -11.046639588748015
      ],
      [
        "aang",
        -11.047718916692462
      ],
      [
        "gukaay",
        -11.048326593662962
      ],
      [
        "marché",
        -11.051198650610083
      ],
      [
        "▁envoyé",
        -11.051831043304293
      ],
      [
        "▁jaa",
        -11.054947413964499
      ],
      [
        "xew",
        -11.056176259864232
      ],
      [
        "uuti",
        -11.057326996288923
      ],
      [
        "dans",
        -11.060814490619133
      ],
      [
        "nge",
        -11.061075053403723
      ],
      [
        "oreiller",
        -11.062462221477544
      ],
      [
        "jàpp",
        -11.06266312753289
      ],
      [
        "api",
        -11.063649340064492
      ],
      [
        "vert",
        -11.06482921351634
      ],
      [
        "dit",
        -11.065209526325491
      ],
      [
        "oy",
        -11.065981974855132
      ],
      [
        "présent",
        -11.067303625531551
      ],
      [
        "bba",
        -11.06793973370612
      ],
      [
        "▁naat",
        -11.068927756591284
      ],
      [
        "▁faa",
        -11.070373109879242
      ],
      [
        "▁bër",
        -11.072187816564089
      ],
      [
        "irent",
        -11.074663267632609
      ],
      [
        "vin",
        -11.075483284383973
      ],
      [
        "salaam",
        -11.082545048691461
      ],
      [
        "jiit",
        -11.084760643626526
      ],
      [
        "▁Voi",
        -11.08552868402058
      ],
      [
        "ima",
        -11.088054552044984
      ],
      [
        "ju",
        -11.099164124849912
      ],
      [
        "échelle",
        -11.099805530645376
      ],
      [
        "habite",
        -11.09981882023652
      ],
      [
        "jours",
        -11.099900377861275
      ],
      [
        "jul",
        -11.105977345604934
      ],
      [
        "jur",
        -11.1066709879689
      ],
      [
        "affaire",
        -11.1088932555503
      ],
      [
        "▁dan",
        -11.111571581739627
      ],
      [
        "▁Àn",
        -11.115573406471373
      ],
      [
        "bout",
        -11.115781744765101
      ],
      [
        "▁Tug",
        -11.119143625557715
      ],
      [
        "arrive",
        -11.121595603604154
      ],
      [
        "plais",
        -11.123865361186798
      ],
      [
        "rëm",
        -11.124144243568162
      ],
      [
        "▁solu",
        -11.124301943589488
      ],
      [
        "aire",
        -11.12512715054048
      ],
      [
        "far",
        -11.126646478957847
      ],
      [
        "▁Es",
        -11.127214194274934
      ],
      [
        "née",
        -11.128146640423237
      ],
      [
        "▁fon",
        -11.12967382313734
      ],
      [
        "em",
        -11.130696540694139
      ],
      [
        "▁bara",
        -11.13148080207112
      ],
      [
        "ition",
        -11.135735673226087
      ],
      [
        "assiette",
        -11.136849157734071
      ],
      [
        "▁ouvert",
        -11.139750821088796
      ],
      [
        "▁yër",
        -11.140944012577183
      ],
      [
        "ami",
        -11.141491609795551
      ],
      [
        "étage",
        -11.142319577399697
      ],
      [
        "▁taal",
        -11.145288622906019
      ],
      [
        "▁fû",
        -11.145776780931033
      ],
      [
        "bond",
        -11.14629481481033
      ],
      [
        "attrape",
        -11.148071753520187
      ],
      [
        "▁emp",
        -11.148895273860454
      ],
      [
        "▁veu",
        -11.149722879447996
      ],
      [
        "été",
        -11.150816819664314
      ],
      [
        "▁allon",
        -11.153949245745387
      ],
      [
        "▁Ré",
        -11.154565597265107
      ],
      [
        "ger",
        -11.154833087229752
      ],
      [
        "ang",
        -11.156095595480702
      ],
      [
        "art",
        -11.158672219036395
      ],
      [
        "▁Gisul",
        -11.160145113856194
      ],
      [
        "ille-",
        -11.16026702087989
      ],
      [
        "E",
        -11.160799729125552
      ],
      [
        "sembl",
        -11.161517578764277
      ],
      [
        "àndarma",
        -11.162301914826216
      ],
      [
        "▁mó",
        -11.163534494055272
      ],
      [
        "▁choses.",
        -11.16511433103789
      ],
      [
        "ô",
        -11.166011509594002
      ],
      [
        "▁rencontr",
        -11.166783804475882
      ],
      [
        "▁hu",
        -11.16692795475385
      ],
      [
        "iki",
        -11.16876466426767
      ],
      [
        "▁appar",
        -11.169613382696742
      ],
      [
        "tué",
        -11.17230394976687
      ],
      [
        "▁personn",
        -11.176083875104414
      ],
      [
        "èt",
        -11.179005612038031
      ],
      [
        "pax",
        -11.180210613411724
      ],
      [
        "▁Ju",
        -11.18061347541277
      ],
      [
        "▁course",
        -11.185140795929481
      ],
      [
        "▁seri",
        -11.18737296888435
      ],
      [
        "▁nale",
        -11.190015390556225
      ],
      [
        "émo",
        -11.190193152502882
      ],
      [
        "ar.",
        -11.19148576175163
      ],
      [
        "▁Ñé",
        -11.191653350298857
      ],
      [
        "jóo",
        -11.193642623450602
      ],
      [
        "gay",
        -11.19566424951313
      ],
      [
        "ooñ",
        -11.200911585333326
      ],
      [
        "▁Daawu",
        -11.2029075875476
      ],
      [
        "▁pied",
        -11.204114275572149
      ],
      [
        "▁rempli",
        -11.204595276296375
      ],
      [
        "aux",
        -11.204941850417674
      ],
      [
        "ard",
        -11.207757748103178
      ],
      [
        "sang",
        -11.212731597616314
      ],
      [
        "posé",
        -11.212945927844926
      ],
      [
        "'agir",
        -11.217617057781164
      ],
      [
        "▁Degg",
        -11.217985305738994
      ],
      [
        "▁yónne",
        -11.221674853287103
      ],
      [
        "▁s'app",
        -11.22238505113596
      ],
      [
        "▁së",
        -11.225904462046852
      ],
      [
        "▁présen",
        -11.226565743304931
      ],
      [
        "▁kaasam",
        -11.226675071158118
      ],
      [
        "bë",
        -11.229198990750335
      ],
      [
        "▁plat",
        -11.230517468496457
      ],
      [
        "▁bâton",
        -11.230971768264745
      ],
      [
        "avant",
        -11.231177137829754
      ],
      [
        "oyager",
        -11.231846340868929
      ],
      [
        "bou",
        -11.232202419406132
      ],
      [
        "▁Peut",
        -11.233277038852064
      ],
      [
        "Gis",
        -11.234112252889426
      ],
      [
        "blig",
        -11.236376459834696
      ],
      [
        "maan",
        -11.237352150269015
      ],
      [
        "uuf",
        -11.23834414141905
      ],
      [
        "▁mbaxan",
        -11.239295949636931
      ],
      [
        "▁concer",
        -11.239694774832268
      ],
      [
        "auf",
        -11.241879339186907
      ],
      [
        "▁Yée",
        -11.242789174816336
      ],
      [
        "▁jigée",
        -11.243298066889253
      ],
      [
        "▁Ag",
        -11.245834650806154
      ],
      [
        "▁Pr",
        -11.246861590162057
      ],
      [
        "▁jigé",
        -11.24834044684226
      ],
      [
        "▁tente",
        -11.248786932893466
      ],
      [
        "▁naqa",
        -11.249997113339989
      ],
      [
        "elu",
        -11.250277357096564
      ],
      [
        "ciment",
        -11.25202353201904
      ],
      [
        "▁croi",
        -11.252403838862213
      ],
      [
        "▁différent",
        -11.253933621259161
      ],
      [
        "▁cohabite",
        -11.255788608951821
      ],
      [
        "mnasti",
        -11.256180327202765
      ],
      [
        "▁Pe",
        -11.25697984965716
      ],
      [
        "ble",
        -11.257160808563048
      ],
      [
        "▁yaak",
        -11.257581751980343
      ],
      [
        "▁épo",
        -11.258015529320488
      ],
      [
        "olitesse",
        -11.258294968065117
      ],
      [
        "perç",
        -11.258359292959897
      ],
      [
        "▁arme",
        -11.259083516840569
      ],
      [
        "aleeku",
        -11.259424058822036
      ],
      [
        "▁yó",
        -11.260314117288033
      ],
      [
        "▁'ve",
        -11.26043432646833
      ],
      [
        "chelle",
        -11.26075049980757
      ],
      [
        "échan",
        -11.260843954049719
      ],
      [
        "▁étudi",
        -11.261004736590664
      ],
      [
        "▁vérit",
        -11.26108435297304
      ],
      [
        "ommag",
        -11.261303492282726
      ],
      [
        "▁ŋgee",
        -11.26132177542305
      ],
      [
        "▁sout",
        -11.26154719954025
      ],
      [
        "cours",
        -11.26223508665713
      ],
      [
        "eaucoup",
        -11.262344009512672
      ],
      [
        "neetar",
        -11.26306225965904
      ],
      [
        "▁fleu",
        -11.263217931468045
      ],
      [
        "▁au-dess",
        -11.263328514067762
      ],
      [
        "▁l'éc",
        -11.263488469934574
      ],
      [
        "ãŋ",
        -11.263488483771416
      ],
      [
        "▁mê",
        -11.263500874685835
      ],
      [
        "▁dirige",
        -11.263568516279681
      ],
      [
        "irgo",
        -11.263619541267714
      ],
      [
        "çue",
        -11.263627752170551
      ],
      [
        "▁kéw",
        -11.263648117894563
      ],
      [
        "õ",
        -11.263688905026399
      ],
      [
        "ń",
        -11.263768298923557
      ],
      [
        "ï",
        -11.263768298923562
      ],
      [
        "ā",
        -11.263768298923562
      ],
      [
        "]",
        -11.263768298923562
      ],
      [
        "[",
        -11.263768298923562
      ],
      [
        "í",
        -11.263768298923562
      ],
      [
        "▁thé",
        -11.263769877239838
      ],
      [
        "approch",
        -11.263773424378261
      ],
      [
        "stitué",
        -11.263788017844286
      ],
      [
        "tuellement",
        -11.263812825586882
      ],
      [
        "▁s'acco",
        -11.26381539587051
      ],
      [
        "mobil",
        -11.263842978863705
      ],
      [
        "olof",
        -11.263851744161878
      ],
      [
        "▁constru",
        -11.263892466797508
      ],
      [
        "ercle",
        -11.26533164483484
      ],
      [
        "àngal",
        -11.265444685837723
      ],
      [
        "erai",
        -11.26575657736874
      ],
      [
        "ajal",
        -11.265983778945483
      ],
      [
        "▁descend",
        -11.266226648615671
      ],
      [
        "ecti",
        -11.266477614103735
      ],
      [
        "innaaw",
        -11.26666516253775
      ],
      [
        "▁tenu",
        -11.266778721693042
      ],
      [
        "▁coute",
        -11.266830970914834
      ],
      [
        "alité",
        -11.268173554780942
      ],
      [
        "impl",
        -11.268352690772883
      ],
      [
        "googee",
        -11.26864288812767
      ],
      [
        "ceaux",
        -11.268996813185165
      ],
      [
        "s-ci",
        -11.26914288649857
      ],
      [
        "politesse",
        -11.269272863544755
      ],
      [
        "▁Musa",
        -11.27028172510235
      ],
      [
        "t-c",
        -11.270604020110099
      ],
      [
        "vid",
        -11.270832397369775
      ],
      [
        "▁revien",
        -11.270850357664878
      ],
      [
        "illir",
        -11.271243837613575
      ],
      [
        "liers",
        -11.272272342973764
      ],
      [
        "▁tiss",
        -11.272815293418281
      ],
      [
        "tbal",
        -11.27397597819081
      ],
      [
        "▁l'h",
        -11.275436356986155
      ],
      [
        "géey",
        -11.275822264807212
      ],
      [
        "▁Pou",
        -11.276568590713644
      ],
      [
        "▁solda",
        -11.27717523768589
      ],
      [
        "tëli",
        -11.278069091616587
      ],
      [
        "▁wë",
        -11.278136887089284
      ],
      [
        "itude",
        -11.27836317505696
      ],
      [
        "▁yegg",
        -11.279879813434775
      ],
      [
        "▁conce",
        -11.279908853756433
      ],
      [
        "diku",
        -11.280519922967315
      ],
      [
        "trent",
        -11.280675660695026
      ],
      [
        "▁util",
        -11.28169337555162
      ],
      [
        "vec",
        -11.282606242985533
      ],
      [
        "épare",
        -11.283637054415685
      ],
      [
        "imnas",
        -11.2840680121435
      ],
      [
        "amaale",
        -11.284556852361677
      ],
      [
        "▁Pa",
        -11.284568819153261
      ],
      [
        "edd",
        -11.284638614846402
      ],
      [
        "▁bã",
        -11.285060171247276
      ],
      [
        "▁dét",
        -11.285628171605115
      ],
      [
        "▁ho",
        -11.292382805177096
      ],
      [
        "▁xel",
        -11.292505463002843
      ],
      [
        "▁fanee",
        -11.293007388161213
      ],
      [
        "venue",
        -11.293085974900691
      ],
      [
        "lam",
        -11.294260690496845
      ],
      [
        "étend",
        -11.29497487189323
      ],
      [
        "con",
        -11.29546884867656
      ],
      [
        "▁n'av",
        -11.296779439695662
      ],
      [
        "▁Sig",
        -11.297624201021446
      ],
      [
        "▁vena",
        -11.298241263023467
      ],
      [
        "▁revi",
        -11.29891913709249
      ],
      [
        "sont",
        -11.299960983528775
      ],
      [
        "uche.",
        -11.300212579497437
      ],
      [
        "appé",
        -11.30352620950274
      ],
      [
        "mmi",
        -11.303646376168473
      ],
      [
        "▁Pala",
        -11.304593376049949
      ],
      [
        "▁l'am",
        -11.306566435261669
      ],
      [
        "'or",
        -11.307513754036552
      ],
      [
        "▁s'asso",
        -11.30756258601243
      ],
      [
        "▁dikk",
        -11.308817770921657
      ],
      [
        "ôn",
        -11.309835449622959
      ],
      [
        "esca",
        -11.312249071214389
      ],
      [
        "▁just",
        -11.313695050140083
      ],
      [
        "L'homme",
        -11.315968030581498
      ],
      [
        "▁Né",
        -11.316468687117759
      ],
      [
        "▁wer",
        -11.317355851091717
      ],
      [
        "▁kaf",
        -11.318780479252498
      ],
      [
        "ous-même",
        -11.31966618713009
      ],
      [
        "ennent",
        -11.321651869275007
      ],
      [
        "ffr",
        -11.32182548842599
      ],
      [
        "▁env",
        -11.32187923819864
      ],
      [
        "▁Sal",
        -11.322499824761879
      ],
      [
        "isite",
        -11.32384562287786
      ],
      [
        "ssées",
        -11.323999549361943
      ],
      [
        "▁laq",
        -11.324812797974833
      ],
      [
        "ivres",
        -11.326506542438915
      ],
      [
        "▁jëf",
        -11.327508718742834
      ],
      [
        "verse",
        -11.328168273499143
      ],
      [
        "ëggu",
        -11.328795033836343
      ],
      [
        "▁dellu",
        -11.328923434694765
      ],
      [
        "lave",
        -11.329182969612797
      ],
      [
        "nglais",
        -11.33118255912936
      ],
      [
        "▁serr",
        -11.331252594695972
      ],
      [
        "bind",
        -11.332174001713687
      ],
      [
        "nversé",
        -11.332433831496244
      ],
      [
        "▁Lool",
        -11.332480370497242
      ],
      [
        "Ma",
        -11.333320629312661
      ],
      [
        "▁dell",
        -11.337972144174746
      ],
      [
        "▁daaw",
        -11.338252251314245
      ],
      [
        "aasamaas",
        -11.33930872300694
      ],
      [
        "àpp",
        -11.339407437191424
      ],
      [
        "▁xoole",
        -11.339807934560794
      ],
      [
        "▁mat",
        -11.340925880843757
      ],
      [
        "ssion",
        -11.34340841564309
      ],
      [
        "▁reg",
        -11.343970782245698
      ],
      [
        "▁descen",
        -11.347189013673827
      ],
      [
        "dal",
        -11.347196853904979
      ],
      [
        "▁vie",
        -11.348339876270636
      ],
      [
        "âc",
        -11.349719819084521
      ],
      [
        "▁janoo",
        -11.350110085053977
      ],
      [
        "roit",
        -11.352115822977963
      ],
      [
        "▁gara",
        -11.352745910477763
      ],
      [
        "âg",
        -11.352975549132784
      ],
      [
        "▁const",
        -11.356668035203542
      ],
      [
        "éeru",
        -11.357235228179041
      ],
      [
        "▁rencontre",
        -11.361502248716867
      ],
      [
        "▁travaillai",
        -11.362583194375837
      ],
      [
        "ci.",
        -11.362872065403101
      ],
      [
        "▁Atte",
        -11.363843537971755
      ],
      [
        "▁main",
        -11.364084346053883
      ],
      [
        "▁Ga",
        -11.36555937049884
      ],
      [
        "leel",
        -11.366328607950823
      ],
      [
        "eeku",
        -11.368072655866339
      ],
      [
        "einture",
        -11.36976870607959
      ],
      [
        "L",
        -11.371063055015101
      ],
      [
        "▁éga",
        -11.371659792811615
      ],
      [
        "levé",
        -11.37300963913813
      ],
      [
        "kaar",
        -11.374541215792183
      ],
      [
        "▁cho",
        -11.374814659834286
      ],
      [
        "ller",
        -11.375064131535474
      ],
      [
        "wuñ",
        -11.375698154873612
      ],
      [
        "-de",
        -11.376064599464378
      ],
      [
        "oogu",
        -11.377530394169115
      ],
      [
        "▁tek",
        -11.378744015186495
      ],
      [
        "ber",
        -11.382342757298545
      ],
      [
        "▁bah",
        -11.382970539186182
      ],
      [
        "▁suive",
        -11.383151205414748
      ],
      [
        "import",
        -11.384006569144965
      ],
      [
        "▁rid",
        -11.385881218521385
      ],
      [
        "rde",
        -11.387793826905323
      ],
      [
        "▁pose",
        -11.388820107030957
      ],
      [
        "▁éc",
        -11.389911585882988
      ],
      [
        "nal",
        -11.3900435034566
      ],
      [
        "▁pe",
        -11.390417347130903
      ],
      [
        "▁éle",
        -11.390424711182312
      ],
      [
        "ërë",
        -11.390729244284278
      ],
      [
        "▁monte",
        -11.394953126898324
      ],
      [
        "mon",
        -11.394990205328337
      ],
      [
        "▁ver",
        -11.396895805517994
      ],
      [
        "éen",
        -11.400738781571402
      ],
      [
        "gui",
        -11.406466894536155
      ],
      [
        "ze",
        -11.408449714441057
      ],
      [
        "egguma",
        -11.409912633876715
      ],
      [
        "tudi",
        -11.410487037480813
      ],
      [
        "és",
        -11.4105093958824
      ],
      [
        "appelle",
        -11.410853347041373
      ],
      [
        "▁jë",
        -11.410986799827569
      ],
      [
        "rte",
        -11.411883128204344
      ],
      [
        "jus",
        -11.415373581171522
      ],
      [
        "▁xee",
        -11.416191426509672
      ],
      [
        "pier",
        -11.41623650599985
      ],
      [
        "alé",
        -11.419061464079546
      ],
      [
        "rru",
        -11.419875363382241
      ],
      [
        "ables",
        -11.423692212082688
      ],
      [
        "xana",
        -11.425381368527892
      ],
      [
        "▁Gan",
        -11.425453457087395
      ],
      [
        "lage",
        -11.428204185865862
      ],
      [
        "▁gr",
        -11.429827344728038
      ],
      [
        "aaw",
        -11.43095185818745
      ],
      [
        "aañ",
        -11.431153458156116
      ],
      [
        "asam",
        -11.432939609909429
      ],
      [
        "▁see",
        -11.438627781873562
      ],
      [
        "▁aim",
        -11.441129940271448
      ],
      [
        "oŋ",
        -11.441752642485866
      ],
      [
        "▁Wut",
        -11.443137622003572
      ],
      [
        "ompa",
        -11.44482637406357
      ],
      [
        "▁të",
        -11.447910724776886
      ],
      [
        "▁rév",
        -11.449956945819038
      ],
      [
        "gale",
        -11.450127502364357
      ],
      [
        "ddu",
        -11.450347857986337
      ],
      [
        "▁mets",
        -11.452936131436562
      ],
      [
        "▁après",
        -11.453305030824936
      ],
      [
        "ëri",
        -11.453539925845199
      ],
      [
        "▁bou",
        -11.455016050975255
      ],
      [
        "ontent",
        -11.457048548976115
      ],
      [
        "kum",
        -11.45733072217348
      ],
      [
        "▁baa",
        -11.462155377681498
      ],
      [
        "cien",
        -11.465018133723914
      ],
      [
        "loo",
        -11.469239723339568
      ],
      [
        "ekku",
        -11.469882983976941
      ],
      [
        "doo",
        -11.473037135604365
      ],
      [
        "iers",
        -11.478877179730818
      ],
      [
        "etal",
        -11.478877865624256
      ],
      [
        "▁jàmma",
        -11.479723062194152
      ],
      [
        "auc",
        -11.481598789738172
      ],
      [
        "he.",
        -11.48262100010806
      ],
      [
        "▁wé",
        -11.485006840933433
      ],
      [
        "dic",
        -11.488260676585778
      ],
      [
        "aurai",
        -11.490657373322994
      ],
      [
        "▁Tan",
        -11.492487967086266
      ],
      [
        "a.",
        -11.49509805795799
      ],
      [
        "▁Ac",
        -11.501402130854471
      ],
      [
        "▁wà",
        -11.507699133829727
      ],
      [
        "pè",
        -11.508405299480698
      ],
      [
        "eff",
        -11.511054588554627
      ],
      [
        "ends-",
        -11.511553678257801
      ],
      [
        "▁Sér",
        -11.514962549436609
      ],
      [
        "x-",
        -11.51657701402845
      ],
      [
        "aakaar",
        -11.518094594592514
      ],
      [
        "jj",
        -11.518334738576872
      ],
      [
        "▁ins",
        -11.519004185142716
      ],
      [
        "cu",
        -11.520740127572177
      ],
      [
        "gii",
        -11.524352137257495
      ],
      [
        "amp",
        -11.526869365207988
      ],
      [
        "to",
        -11.528119668824447
      ],
      [
        "han",
        -11.530636103250272
      ],
      [
        "ñaar",
        -11.536104139842177
      ],
      [
        "spér",
        -11.537508900842212
      ],
      [
        "▁écrit",
        -11.539884976539698
      ],
      [
        "év",
        -11.54177862913347
      ],
      [
        "anse",
        -11.543135634326262
      ],
      [
        "ogu",
        -11.543158770688553
      ],
      [
        "▁d'an",
        -11.544458500988211
      ],
      [
        "▁eu",
        -11.544780615141493
      ],
      [
        "aska",
        -11.545633638321814
      ],
      [
        "▁Gu",
        -11.545676400632336
      ],
      [
        "▁Mà",
        -11.548456585307493
      ],
      [
        "ëy",
        -11.548468777684299
      ],
      [
        "ub",
        -11.5487719429392
      ],
      [
        "mine",
        -11.552319827036763
      ],
      [
        "▁Ja",
        -11.554377300598953
      ],
      [
        "▁sec",
        -11.55517500938783
      ],
      [
        "▁feu",
        -11.556672085355766
      ],
      [
        "▁ava",
        -11.562442108595807
      ],
      [
        "ayer",
        -11.562809081698706
      ],
      [
        "▁duggu",
        -11.563061125399871
      ],
      [
        "trouvé",
        -11.563084838148907
      ],
      [
        "'ici",
        -11.564880714866463
      ],
      [
        "▁l'ar",
        -11.565132264646396
      ],
      [
        "guma",
        -11.5677748182628
      ],
      [
        "▁tend",
        -11.568691656339539
      ],
      [
        "ég",
        -11.568854848087685
      ],
      [
        "mm",
        -11.56960434158198
      ],
      [
        "jet",
        -11.57112673484935
      ],
      [
        "▁kat",
        -11.575075362228917
      ],
      [
        "ipi",
        -11.577259663030636
      ],
      [
        "énk",
        -11.578293765469558
      ],
      [
        "▁fara",
        -11.579928776299463
      ],
      [
        "▁Gé",
        -11.5803701305883
      ],
      [
        "qué",
        -11.582038903806373
      ],
      [
        "ns",
        -11.582055864552935
      ],
      [
        "mple",
        -11.582590998392934
      ],
      [
        "▁xe",
        -11.58321550587695
      ],
      [
        "don",
        -11.58325165725612
      ],
      [
        "men",
        -11.58456662934513
      ],
      [
        "antan",
        -11.584651179840316
      ],
      [
        "omp",
        -11.585824403523308
      ],
      [
        "aaleekum",
        -11.58602834231421
      ],
      [
        "oc",
        -11.589472636773944
      ],
      [
        "në",
        -11.592211082932637
      ],
      [
        "▁l'e",
        -11.59588095610601
      ],
      [
        "photo",
        -11.600859564221931
      ],
      [
        "▁I",
        -11.602551094902031
      ],
      [
        "geant",
        -11.60366468328705
      ],
      [
        "▁ñuula",
        -11.606896175650427
      ],
      [
        "suiv",
        -11.607215159082623
      ],
      [
        "▁J'a",
        -11.610632638885678
      ],
      [
        "nnée",
        -11.611189640874493
      ],
      [
        "▁ame",
        -11.614236876605425
      ],
      [
        "drai",
        -11.61742534679899
      ],
      [
        "id",
        -11.624930599200363
      ],
      [
        "essi",
        -11.625518112355321
      ],
      [
        "▁rà",
        -11.634930954092711
      ],
      [
        "▁polici",
        -11.63596987146326
      ],
      [
        "▁ras",
        -11.646096187209812
      ],
      [
        "nc",
        -11.646854335400304
      ],
      [
        "ept",
        -11.64787177935016
      ],
      [
        "ouver",
        -11.64844773818611
      ],
      [
        "▁fil",
        -11.648965459397628
      ],
      [
        "▁Ji",
        -11.655421824837024
      ],
      [
        "▁ru",
        -11.656506882769126
      ],
      [
        "iss",
        -11.658131976162812
      ],
      [
        "rou",
        -11.660313384030866
      ],
      [
        "osit",
        -11.663011651021854
      ],
      [
        "▁lama",
        -11.663656721046232
      ],
      [
        "▁regarde",
        -11.66527079790849
      ],
      [
        "▁ŋgii.",
        -11.665290181985618
      ],
      [
        "oppi",
        -11.665628843457634
      ],
      [
        "laam",
        -11.666858596903054
      ],
      [
        "gent",
        -11.667138157844182
      ],
      [
        "▁cous",
        -11.67565597868817
      ],
      [
        "▁ense",
        -11.679432919820373
      ],
      [
        "achet",
        -11.680941485214976
      ],
      [
        "avais",
        -11.681897195832892
      ],
      [
        "Tu",
        -11.685860205317637
      ],
      [
        "ata",
        -11.686346159885877
      ],
      [
        "'aime",
        -11.68700203294196
      ],
      [
        "▁ña",
        -11.687337699632518
      ],
      [
        "Je",
        -11.689885116851324
      ],
      [
        "J'ai",
        -11.690014055582033
      ],
      [
        "ut",
        -11.692315104686816
      ],
      [
        "▁ree",
        -11.692845396216347
      ],
      [
        "urent",
        -11.693557595652102
      ],
      [
        "lum",
        -11.69368707225719
      ],
      [
        "▁envo",
        -11.694520404316586
      ],
      [
        "uiss",
        -11.698204837456027
      ],
      [
        "▁Nan",
        -11.69858442327185
      ],
      [
        "▁bule",
        -11.698681889494232
      ],
      [
        "▁nap",
        -11.700911869227111
      ],
      [
        "▁qua",
        -11.701038719735303
      ],
      [
        "elles-",
        -11.714657910248336
      ],
      [
        "▁vé",
        -11.717181211158398
      ],
      [
        "▁pre",
        -11.718611259299205
      ],
      [
        "be",
        -11.723207899381933
      ],
      [
        "uk",
        -11.725044807744286
      ],
      [
        "kan",
        -11.727488142119512
      ],
      [
        "se-",
        -11.730541852334818
      ],
      [
        "àlla",
        -11.737159213354442
      ],
      [
        "▁wana",
        -11.737831268749346
      ],
      [
        "▁ay,",
        -11.738796431005682
      ],
      [
        "tière",
        -11.738857147055977
      ],
      [
        "▁yeneen.",
        -11.739008506071606
      ],
      [
        "▁Ñun",
        -11.74162155658722
      ],
      [
        "▁moy",
        -11.742290853372385
      ],
      [
        "all",
        -11.743359282070543
      ],
      [
        "lée",
        -11.74349326440564
      ],
      [
        "'apprécie",
        -11.747532876502028
      ],
      [
        "ailli",
        -11.749015054742125
      ],
      [
        "t-ce",
        -11.75904053680746
      ],
      [
        "ikoo",
        -11.759567889158289
      ],
      [
        "ànk",
        -11.764368981909692
      ],
      [
        "bek",
        -11.769260159374966
      ],
      [
        "ppartien",
        -11.77151669301587
      ],
      [
        "▁disp",
        -11.773634079353869
      ],
      [
        "lement",
        -11.775380757988817
      ],
      [
        "▁Mus",
        -11.776269334812547
      ],
      [
        "▁compo",
        -11.778674312233505
      ],
      [
        "▁beu",
        -11.779299691896032
      ],
      [
        "vo",
        -11.78208055955642
      ],
      [
        "ense",
        -11.784172038629698
      ],
      [
        "l'homme",
        -11.78456524896421
      ],
      [
        "'on",
        -11.787977446345446
      ],
      [
        "róo",
[...]
