{
  "version": "1.0",
  "truncation": null,
  "padding": null,
  "added_tokens": [
    {
      "id": 0,
      "content": "<cls>",
      "single_word": false,
      "lstrip": false,
      "rstrip": false,
      "normalized": false,
      "special": true
    },
    {
      "id": 1,
      "content": "<sep>",
      "single_word": false,
      "lstrip": false,
      "rstrip": false,
      "normalized": false,
      "special": true
    },
    {
      "id": 2,
      "content": "<unk>",
      "single_word": false,
      "lstrip": false,
      "rstrip": false,
      "normalized": false,
      "special": true
    },
    {
      "id": 3,
      "content": "<pad>",
      "single_word": false,
      "lstrip": false,
      "rstrip": false,
      "normalized": false,
      "special": true
    },
    {
      "id": 4,
      "content": "<mask>",
      "single_word": false,
      "lstrip": false,
      "rstrip": false,
      "normalized": false,
      "special": true
    },
    {
      "id": 5,
      "content": "<s>",
      "single_word": false,
      "lstrip": false,
      "rstrip": false,
      "normalized": false,
      "special": true
    },
    {
      "id": 6,
      "content": "</s>",
      "single_word": false,
      "lstrip": false,
      "rstrip": false,
      "normalized": false,
      "special": true
    }
  ],
  "normalizer": {
    "type": "Replace",
    "pattern": {
      "String": " {2,}"
    },
    "content": " "
  },
  "pre_tokenizer": {
    "type": "Metaspace",
    "replacement": "▁",
    "add_prefix_space": true
  },
  "post_processor": null,
  "decoder": {
    "type": "Metaspace",
    "replacement": "▁",
    "add_prefix_space": true
  },
  "model": {
    "type": "Unigram",
    "unk_id": 2,
    "vocab": [
      [
        "<cls>",
        0.0
      ],
      [
        "<sep>",
        0.0
      ],
      [
        "<unk>",
        0.0
      ],
      [
        "<pad>",
        0.0
      ],
      [
        "<mask>",
        0.0
      ],
      [
        "<s>",
        0.0
      ],
      [
        "</s>",
        0.0
      ],
      [
        ",",
        -2.9896047116855886
      ],
      [
        ".",
        -3.2584251623321503
      ],
      [
        "s",
        -4.011801904599136
      ],
      [
        "▁de",
        -4.1024154533414485
      ],
      [
        "▁",
        -4.12473236799954
      ],
      [
        "▁la",
        -4.178626656970563
      ],
      [
        "▁ci",
        -4.543448367612992
      ],
      [
        "y",
        -4.611263769761832
      ],
      [
        "▁a",
        -4.699511645854187
      ],
      [
        "e",
        -4.723204958576263
      ],
      [
        "▁!",
        -4.760604680400037
      ],
      [
        "▁?",
        -4.871334347956914
      ],
      [
        "i",
        -4.9808805007843615
      ],
      [
        "▁et",
        -5.040806581323622
      ],
      [
        "▁à",
        -5.102108090419954
      ],
      [
        "▁les",
        -5.1236647199987395
      ],
      [
        "▁des",
        -5.15147767842627
      ],
      [
        "▁un",
        -5.204679446389829
      ],
      [
        "▁qui",
        -5.231461753227408
      ],
      [
        "u",
        -5.231605836265451
      ],
      [
        "▁le",
        -5.246184435981113
      ],
      [
        "▁mu",
        -5.301903073385973
      ],
      [
        "▁ni",
        -5.314321767735318
      ],
      [
        "▁na",
        -5.333836401511341
      ],
      [
        "r",
        -5.352220802478754
      ],
      [
        "▁ne",
        -5.38525338604548
      ],
      [
        "▁ma",
        -5.393013740642705
      ],
      [
        "▁que",
        -5.403542798130773
      ],
      [
        "▁bi",
        -5.445545097938466
      ],
      [
        "▁di",
        -5.457611258688086
      ],
      [
        "▁ko",
        -5.468849885710235
      ],
      [
        "▁du",
        -5.471257241896429
      ],
      [
        "▁ba",
        -5.478322663733627
      ],
      [
        "▁ak",
        -5.531105990861439
      ],
      [
        "▁pas",
        -5.638594468734339
      ],
      [
        "▁est",
        -5.654832716265605
      ],
      [
        "▁ñu",
        -5.676079239307033
      ],
      [
        "a",
        -5.693729299978629
      ],
      [
        "▁yu",
        -5.6956255745214
      ],
      [
        "▁gi",
        -5.703632914852049
      ],
      [
        "▁en",
        -5.719616478123515
      ],
      [
        "▁yi",
        -5.736844935813188
      ],
      [
        "▁bu",
        -5.745430293568574
      ],
      [
        "▁dem",
        -5.763364387490061
      ],
      [
        "▁il",
        -5.765073428584249
      ],
      [
        "t",
        -5.774471461301856
      ],
      [
        "▁dans",
        -5.785886536497811
      ],
      [
        "▁Il",
        -5.8054449907166665
      ],
      [
        "▁ay",
        -5.8142925433439805
      ],
      [
        "▁naa",
        -5.977382987743347
      ],
      [
        "▁ngi",
        -6.011348995271783
      ],
      [
        "▁ce",
        -6.039897142466558
      ],
      [
        "▁am",
        -6.06161038866139
      ],
      [
        "▁C'est",
        -6.071389038870475
      ],
      [
        "▁fa",
        -6.072746275028818
      ],
      [
        "▁seen",
        -6.084022701267004
      ],
      [
        "▁te",
        -6.091269239257734
      ],
      [
        "▁lu",
        -6.0989717451477246
      ],
      [
        "▁pour",
        -6.1033509410911435
      ],
      [
        "une",
        -6.128826492196442
      ],
      [
        "n",
        -6.134204854778197
      ],
      [
        "▁woon",
        -6.167998392658279
      ],
      [
        "oon",
        -6.238777081236654
      ],
      [
        "▁ca",
        -6.246237548215302
      ],
      [
        "▁sama",
        -6.246526773684045
      ],
      [
        "▁y",
        -6.248669228511162
      ],
      [
        "▁au",
        -6.261044077885644
      ],
      [
        "▁se",
        -6.261210971653953
      ],
      [
        "▁sur",
        -6.29696291221404
      ],
      [
        "▁vu",
        -6.305585102089066
      ],
      [
        "▁qu'il",
        -6.310418859573849
      ],
      [
        "▁je",
        -6.3235726846055025
      ],
      [
        "▁sont",
        -6.339040881416423
      ],
      [
        ":",
        -6.34113138298084
      ],
      [
        "▁sa",
        -6.351982370146237
      ],
      [
        "▁daan",
        -6.356462032071239
      ],
      [
        "▁avec",
        -6.378858092199975
      ],
      [
        "▁gis",
        -6.398142068502855
      ],
      [
        "▁Je",
        -6.3992662076197
      ],
      [
        "al",
        -6.406180065305739
      ],
      [
        "ent",
        -6.4089274173972095
      ],
      [
        "▁doon",
        -6.410442972487191
      ],
      [
        "▁nag",
        -6.434408208484523
      ],
      [
        "▁ŋga",
        -6.446701338140001
      ],
      [
        "▁xam",
        -6.451676877730404
      ],
      [
        "▁mi",
        -6.452199157132142
      ],
      [
        "▁leen",
        -6.4610683984580355
      ],
      [
        "▁par",
        -6.468031957438313
      ],
      [
        "▁mon",
        -6.524303572725722
      ],
      [
        "▁père",
        -6.531589307583011
      ],
      [
        "é",
        -6.5464611363694205
      ],
      [
        "▁l'",
        -6.564018831482621
      ],
      [
        "▁Góo",
        -6.574831920854985
      ],
      [
        "▁tu",
        -6.589176900364084
      ],
      [
        "▁wax",
        -6.596570644230629
      ],
      [
        "▁nit",
        -6.598314011361046
      ],
      [
        "▁nekk",
        -6.60257073027329
      ],
      [
        "nt",
        -6.609939615094527
      ],
      [
        "▁Baay",
        -6.617565556975231
      ],
      [
        "▁si",
        -6.6185784252749
      ],
      [
        "▁nga",
        -6.626451414306346
      ],
      [
        "▁mel",
        -6.6354781091459785
      ],
      [
        "ul",
        -6.636296520695462
      ],
      [
        "▁benn",
        -6.638639360090356
      ],
      [
        "l",
        -6.661852968129635
      ],
      [
        "▁Gis",
        -6.662607718792119
      ],
      [
        "am",
        -6.6632645248136635
      ],
      [
        "▁été",
        -6.667878546390632
      ],
      [
        "▁ya",
        -6.674053640873482
      ],
      [
        "er",
        -6.682642260775162
      ],
      [
        "▁sax",
        -6.696697604695738
      ],
      [
        "▁moom",
        -6.713910447307518
      ],
      [
        "▁où",
        -6.713926156447345
      ],
      [
        "▁Afrig",
        -6.715795292072642
      ],
      [
        "▁moo",
        -6.722157346116536
      ],
      [
        "le",
        -6.722537504949037
      ],
      [
        "▁c",
        -6.723902975478774
      ],
      [
        "▁homme",
        -6.732444962768265
      ],
      [
        "▁son",
        -6.743959040146027
      ],
      [
        "▁nu",
        -6.773838648566287
      ],
      [
        "ait",
        -6.775347827517453
      ],
      [
        "▁Tu",
        -6.7918554727047304
      ],
      [
        "k",
        -6.799602715013675
      ],
      [
        "▁lui",
        -6.80452448498526
      ],
      [
        "▁def",
        -6.817360531686425
      ],
      [
        "▁plus",
        -6.818405231820861
      ],
      [
        "▁li",
        -6.840906880623829
      ],
      [
        "▁biir",
        -6.846568966617536
      ],
      [
        "▁L'homme",
        -6.8502067245675935
      ],
      [
        "▁J'ai",
        -6.858988323841701
      ],
      [
        "te",
        -6.872351610534195
      ],
      [
        "ee",
        -6.874308797477696
      ],
      [
        "▁photo",
        -6.884516996754389
      ],
      [
        "▁ku",
        -6.8849772993272325
      ],
      [
        "▁su",
        -6.890270327229843
      ],
      [
        "«",
        -6.8948567014409665
      ],
      [
        "▁»",
        -6.89489713112493
      ],
      [
        "▁ñëw",
        -6.901692021305599
      ],
      [
        "▁La",
        -6.905364244511356
      ],
      [
        "▁c'est",
        -6.914043576811771
      ],
      [
        "▁tout",
        -6.93198144702922
      ],
      [
        "ant",
        -6.9436056967673006
      ],
      [
        "▁d'un",
        -6.952734019715214
      ],
      [
        "▁d'",
        -6.956429400588015
      ],
      [
        "▁avait",
        -6.963899453757273
      ],
      [
        "▁Le",
        -6.963985984126014
      ],
      [
        "-",
        -6.987775598975218
      ],
      [
        "▁ab",
        -6.98809619124485
      ],
      [
        "▁kenn",
        -6.990697990882663
      ],
      [
        "▁góor",
        -7.0007679843538515
      ],
      [
        "▁nous",
        -7.000885904901588
      ],
      [
        "▁cet",
        -7.001110168732209
      ],
      [
        "▁mën",
        -7.002117255911248
      ],
      [
        "▁Ci",
        -7.003328466871346
      ],
      [
        "▁gu",
        -7.004829930567772
      ],
      [
        "▁Les",
        -7.013289764296923
      ],
      [
        "▁ou",
        -7.022960130880941
      ],
      [
        "▁nataal",
        -7.042186096000241
      ],
      [
        "▁leur",
        -7.0607115450461455
      ],
      [
        "b",
        -7.067380121769167
      ],
      [
        "▁fi",
        -7.069510430301739
      ],
      [
        "▁bii",
        -7.0720826008100035
      ],
      [
        "oo",
        -7.073916256379286
      ],
      [
        "d",
        -7.078738168353822
      ],
      [
        "es",
        -7.085651047773856
      ],
      [
        "ñ",
        -7.085780189020379
      ],
      [
        "▁autre",
        -7.089036735790895
      ],
      [
        "▁enfants",
        -7.089153453855454
      ],
      [
        "▁l'homme",
        -7.09654089956691
      ],
      [
        "▁may",
        -7.0996688851000425
      ],
      [
        "ment",
        -7.1028134547271335
      ],
      [
        "▁ñi",
        -7.1250015465192345
      ],
      [
        "g",
        -7.128054836019919
      ],
      [
        "▁ces",
        -7.133603750896876
      ],
      [
        "▁dal",
        -7.137565711287683
      ],
      [
        "ette",
        -7.147760500181873
      ],
      [
        "▁aussi",
        -7.154058615253356
      ],
      [
        "m",
        -7.16020964922623
      ],
      [
        "▁on",
        -7.163892351812888
      ],
      [
        "▁bëgg",
        -7.16415701008395
      ],
      [
        "▁it",
        -7.170991136985174
      ],
      [
        "▁comme",
        -7.176917350750771
      ],
      [
        "▁rekk",
        -7.178168212804259
      ],
      [
        "▁s",
        -7.183952172343379
      ],
      [
        "▁san",
        -7.184196556131666
      ],
      [
        "▁ju",
        -7.206584353447872
      ],
      [
        "que",
        -7.211698081438606
      ],
      [
        "▁mère",
        -7.21568468949
      ],
      [
        "▁lool",
        -7.222425281303474
      ],
      [
        "▁me",
        -7.2283884485720025
      ],
      [
        "▁Nit",
        -7.228953327014884
      ],
      [
        "▁Sur",
        -7.231670071363372
      ],
      [
        "▁dëkk",
        -7.232384828349163
      ],
      [
        "▁ji",
        -7.24320440135311
      ],
      [
        "▁teg",
        -7.261132901708836
      ],
      [
        "▁fu",
        -7.262607363421425
      ],
      [
        "▁A",
        -7.2666208568369335
      ],
      [
        "▁là",
        -7.268193214605279
      ],
      [
        "▁ñaar",
        -7.268542749713447
      ],
      [
        "▁daf",
        -7.268983024694458
      ],
      [
        "▁parti",
        -7.274804966577157
      ],
      [
        "▁dara",
        -7.279073290816112
      ],
      [
        "▁moi",
        -7.293501395210505
      ],
      [
        "▁kër",
        -7.295813908037869
      ],
      [
        "▁laa",
        -7.3002476314674745
      ],
      [
        "x",
        -7.3051216912955494
      ],
      [
        "▁Am",
        -7.305195328185713
      ],
      [
        "▁maison",
        -7.3078976335489845
      ],
      [
        "à",
        -7.309514803513102
      ],
      [
        "▁même",
        -7.313880759380059
      ],
      [
        "▁boo",
        -7.327508252405996
      ],
      [
        "▁ki",
        -7.330034701706518
      ],
      [
        "▁gën",
        -7.338848306459035
      ],
      [
        "▁Ce",
        -7.343127897805454
      ],
      [
        "▁pays",
        -7.345719031307281
      ],
      [
        "▁xale",
        -7.349662126258482
      ],
      [
        "▁jigéen",
        -7.357897446081035
      ],
      [
        "di",
        -7.363248167635631
      ],
      [
        "▁–",
        -7.363942102924906
      ],
      [
        "▁Nataal",
        -7.363944679207658
      ],
      [
        "▁mbaa",
        -7.373283247697671
      ],
      [
        "▁ñoo",
        -7.376429848633508
      ],
      [
        "▁ndax",
        -7.380200474878276
      ],
      [
        "▁Su",
        -7.389098246399268
      ],
      [
        "▁était",
        -7.410168217031558
      ],
      [
        "▁n'es",
        -7.411549785289655
      ],
      [
        "▁À",
        -7.433048767756881
      ],
      [
        "▁war",
        -7.435293426291203
      ],
      [
        "▁chose",
        -7.469110228351855
      ],
      [
        "▁lépp",
        -7.472039890703783
      ],
      [
        "▁d",
        -7.476963230795366
      ],
      [
        "s-tu",
        -7.485299437451569
      ],
      [
        "▁walla",
        -7.488183216980245
      ],
      [
        "▁Un",
        -7.489013544129501
      ],
      [
        "▁Mu",
        -7.491158400732787
      ],
      [
        "▁vois",
        -7.491770061981829
      ],
      [
        "▁Ma",
        -7.501749513258098
      ],
      [
        "▁weex",
        -7.5047639774840516
      ],
      [
        "▁qu'on",
        -7.505446359990364
      ],
      [
        "eneen",
        -7.506051834534424
      ],
      [
        "▁D",
        -7.5108184613161955
      ],
      [
        "▁man",
        -7.514496656610597
      ],
      [
        "▁baax",
        -7.5212546028145475
      ],
      [
        "▁j'ai",
        -7.521787042400367
      ],
      [
        "▁De",
        -7.52649619562416
      ],
      [
        "▁n",
        -7.538315118185192
      ],
      [
        "▁Li",
        -7.538965190555773
      ],
      [
        "▁l'intérieur",
        -7.539012527264382
      ],
      [
        "▁loolu",
        -7.546909181296524
      ],
      [
        "ŋ",
        -7.555833357129791
      ],
      [
        "▁bien",
        -7.565994418532413
      ],
      [
        "▁ŋgi",
        -7.567058385552824
      ],
      [
        "▁xar",
        -7.573957747896493
      ],
      [
        "▁mag",
        -7.574003079836848
      ],
      [
        "▁Waaye",
        -7.574421608605008
      ],
      [
        "▁dañ",
        -7.574930258941182
      ],
      [
        "▁fait",
        -7.577520505030814
      ],
      [
        "▁parle",
        -7.585065660243647
      ],
      [
        "▁Te",
        -7.593109886469634
      ],
      [
        "▁yaay",
        -7.599199763088732
      ],
      [
        "re",
        -7.599419053607049
      ],
      [
        "▁En",
        -7.606220690023864
      ],
      [
        "▁aux",
        -7.6100191503636765
      ],
      [
        "▁très",
        -7.611092095494106
      ],
      [
        "▁réew",
        -7.612646367499822
      ],
      [
        "▁ñoom",
        -7.612700669716339
      ],
      [
        "▁garab",
        -7.614186781437495
      ],
      [
        "▁yoon",
        -7.615610123211839
      ],
      [
        "▁koo",
        -7.628886083268788
      ],
      [
        "▁yooyu",
        -7.6302687699027
      ],
      [
        "s.",
        -7.637538121451723
      ],
      [
        "ée",
        -7.640751793224124
      ],
      [
        ")",
        -7.641149962750381
      ],
      [
        "▁néeg",
        -7.642698209286155
      ],
      [
        "▁cela",
        -7.649796870491465
      ],
      [
        "leurs",
        -7.652873496837696
      ],
      [
        "▁deux",
        -7.656546257312509
      ],
      [
        "▁J",
        -7.664945452818896
      ],
      [
        "▁dul",
        -7.665550905755575
      ],
      [
        "▁couleur",
        -7.665824771777964
      ],
      [
        "▁monde",
        -7.669402316686368
      ],
      [
        "▁mais",
        -7.673315411759322
      ],
      [
        "▁ag",
        -7.677039126527082
      ],
      [
        "▁demee",
        -7.67865299681729
      ],
      [
        "'est",
        -7.6788461883295795
      ],
      [
        "▁vie",
        -7.685155220790018
      ],
      [
        "▁ont",
        -7.6874578012670645
      ],
      [
        "▁Waaw",
        -7.687513932893664
      ],
      [
        ";",
        -7.68879505226461
      ],
      [
        "▁vous",
        -7.68880927735939
      ],
      [
        "▁Mais",
        -7.689478304091569
      ],
      [
        "▁guerre",
        -7.68997744386944
      ],
      [
        "▁sunu",
        -7.69007006105663
      ],
      [
        "▁Maa",
        -7.693498964458361
      ],
      [
        "▁lañu",
        -7.698952528679617
      ],
      [
        "▁l",
        -7.699950110540918
      ],
      [
        "▁P",
        -7.703936135747108
      ],
      [
        "▁yépp",
        -7.7105490045433225
      ],
      [
        "it",
        -7.712994815764935
      ],
      [
        "▁yiy",
        -7.719232345017181
      ],
      [
        "▁bés",
        -7.722792648365169
      ],
      [
        "▁porte",
        -7.724300527152099
      ],
      [
        "▁ka",
        -7.726725751538356
      ],
      [
        "▁sol",
        -7.728852881947396
      ],
      [
        "▁temps",
        -7.7299826812816725
      ],
      [
        "▁suuf",
        -7.730114058829962
      ],
      [
        "▁yi.",
        -7.7324298321111495
      ],
      [
        "▁G",
        -7.735098393868539
      ],
      [
        "▁jusqu'",
        -7.737288768322397
      ],
      [
        "▁part",
        -7.7406588524833655
      ],
      [
        "▁maa",
        -7.741091044229652
      ],
      [
        "▁gone",
        -7.743758592337217
      ],
      [
        "aient",
        -7.750230806242808
      ],
      [
        "▁toog",
        -7.750630756959358
      ],
      [
        "▁Ogosaa",
        -7.75131314562215
      ],
      [
        "▁tamit",
        -7.751365676354656
      ],
      [
        "▁celui-là",
        -7.751428884365902
      ],
      [
        "▁tax",
        -7.767777595381213
      ],
      [
        "▁lii",
        -7.768402888689241
      ],
      [
        "▁dit",
        -7.768716481745717
      ],
      [
        "▁venu",
        -7.774541731877412
      ],
      [
        "▁femme",
        -7.777012085556494
      ],
      [
        "w",
        -7.7776935164292915
      ],
      [
        "▁va",
        -7.779882375143396
      ],
      [
        "▁at",
        -7.780461232222285
      ],
      [
        "▁Ñu",
        -7.789279626261246
      ],
      [
        "▁la.",
        -7.789717308218688
      ],
      [
        "▁xel",
        -7.7936934591075175
      ],
      [
        "▁fekk",
        -7.795275172311523
      ],
      [
        "▁ndaw",
        -7.795391751985348
      ],
      [
        "▁Du",
        -7.7973730055276995
      ],
      [
        "▁Cet",
        -7.797902121934916
      ],
      [
        "▁L",
        -7.802550734589701
      ],
      [
        "...",
        -7.80261408626352
      ],
      [
        "▁partir",
        -7.803226354337502
      ],
      [
        "▁bopp",
        -7.808582703095988
      ],
      [
        "▁n'a",
        -7.810822477913593
      ],
      [
        "▁soo",
        -7.8140434438400845
      ],
      [
        "▁k",
        -7.817110096839267
      ],
      [
        "▁quelque",
        -7.818325735901551
      ],
      [
        "▁yaram",
        -7.818715295130588
      ],
      [
        "▁noppi",
        -7.819226969575034
      ],
      [
        "▁tey",
        -7.827431117617874
      ],
      [
        "▁waay",
        -7.82769374111498
      ],
      [
        "▁ga",
        -7.828267135977655
      ],
      [
        "is",
        -7.83188594622273
      ],
      [
        "▁ànd",
        -7.837359766041724
      ],
      [
        "tte",
        -7.839518744042843
      ],
      [
        "▁Tugal",
        -7.841379255586938
      ],
      [
        "▁cha",
        -7.8432145421201644
      ],
      [
        "▁Dem",
        -7.847125955136326
      ],
      [
        "▁jëm",
        -7.852614276720785
      ],
      [
        "▁O",
        -7.852643940695748
      ],
      [
        "▁tou",
        -7.853359435305103
      ],
      [
        "e,",
        -7.8604861310225616
      ],
      [
        "▁as",
        -7.861062254947868
      ],
      [
        "▁doŋŋ",
        -7.865096636948514
      ],
      [
        "▁gens",
        -7.865608754645004
      ],
      [
        "▁mouton",
        -7.866579711588181
      ],
      [
        "o",
        -7.868485747785254
      ],
      [
        "▁j'",
        -7.87062641322288
      ],
      [
        "▁ñuul",
        -7.873302585721539
      ],
      [
        "▁àll",
        -7.87405706383534
      ],
      [
        "woon",
        -7.877799081866661
      ],
      [
        "▁naan",
        -7.887193681203244
      ],
      [
        "▁encore",
        -7.889481563386946
      ],
      [
        "▁doole",
        -7.889771150187296
      ],
      [
        "▁wër",
        -7.890749310514948
      ],
      [
        "▁être",
        -7.899351646847915
      ],
      [
        "eek",
        -7.903187883956615
      ],
      [
        "▁yëg",
        -7.9056910063003185
      ],
      [
        "▁toi",
        -7.911229361811622
      ],
      [
        "▁nañ",
        -7.913203489423474
      ],
      [
        "▁ñax",
        -7.914410913897582
      ],
      [
        "▁boobu",
        -7.914687536323381
      ],
      [
        "▁faire",
        -7.915096541006065
      ],
      [
        "▁wi",
        -7.916903813475304
      ],
      [
        "▁(",
        -7.918626115877358
      ],
      [
        "▁réer",
        -7.919657280151197
      ],
      [
        "▁amul",
        -7.9219737030218775
      ],
      [
        "▁saa",
        -7.92290493559568
      ],
      [
        "tu",
        -7.926883302154993
      ],
      [
        "▁n'",
        -7.927277754384719
      ],
      [
        "▁kow",
        -7.92849114378026
      ],
      [
        "▁peu",
        -7.929959097055942
      ],
      [
        "um",
        -7.931979385361034
      ],
      [
        "▁rafet",
        -7.936774673602153
      ],
      [
        "▁demul",
        -7.9373228130841404
      ],
      [
        "▁voilà",
        -7.940115009295866
      ],
      [
        "▁veux",
        -7.940528321949443
      ],
      [
        "▁m",
        -7.945512675576411
      ],
      [
        "yeek",
        -7.945869031196738
      ],
      [
        "▁Moo",
        -7.945905817461796
      ],
      [
        "▁Si",
        -7.94715152872442
      ],
      [
        "▁S",
        -7.954497021575823
      ],
      [
        "és",
        -7.9579359466567485
      ],
      [
        "▁jamono",
        -7.9664141900376375
      ],
      [
        "▁qu'elle",
        -7.966565929133122
      ],
      [
        "tre",
        -7.966765259014722
      ],
      [
        "▁dont",
        -7.967490661252823
      ],
      [
        "▁Nou",
        -7.96774523303994
      ],
      [
        "▁daal",
        -7.969008149078193
      ],
      [
        "▁nañu",
        -7.975132117982248
      ],
      [
        "▁t",
        -7.979916842362324
      ],
      [
        "▁Quel",
        -7.983839125030549
      ],
      [
        "▁liggéey",
        -7.988128938861817
      ],
      [
        "▁ñépp",
        -7.993606600642177
      ],
      [
        "▁p",
        -7.993714747671749
      ],
      [
        "▁Ndax",
        -7.993953557093133
      ],
      [
        "vait",
        -7.995351739776845
      ],
      [
        "▁semble",
        -8.00216968260492
      ],
      [
        "▁dañu",
        -8.003027242259222
      ],
      [
        "ù",
        -8.018898618784185
      ],
      [
        "▁xare",
        -8.020740151659385
      ],
      [
        "▁l'autre",
        -8.021232377093948
      ],
      [
        "▁Comme",
        -8.021712878750947
      ],
      [
        "▁Mon",
        -8.021883836605882
      ],
      [
        "kat",
        -8.024215353882141
      ],
      [
        "▁itam",
        -8.025724872995557
      ],
      [
        "▁l'a",
        -8.037749948408003
      ],
      [
        "▁ban",
        -8.041934610870744
      ],
      [
        "▁àddina",
        -8.044997283321923
      ],
      [
        "▁Ba",
        -8.045128844638468
      ],
      [
        "▁taxaw",
        -8.047155500291849
      ],
      [
        "▁bët",
        -8.049047929020386
      ],
      [
        "▁génn",
        -8.050080755211011
      ],
      [
        "▁lañ",
        -8.052795021096111
      ],
      [
        "▁rien",
        -8.053126762065496
      ],
      [
        "ions",
        -8.061500342466397
      ],
      [
        "▁loxo",
        -8.062683781945443
      ],
      [
        "▁m'a",
        -8.0637178580344
      ],
      [
        "▁dex",
        -8.069934201388772
      ],
      [
        "▁sui",
        -8.070154600148548
      ],
      [
        "ante",
        -8.074013693867212
      ],
      [
        "▁femmes",
        -8.074234922636197
      ],
      [
        "ses",
        -8.074945969989768
      ],
      [
        "▁xonq",
        -8.07920621717749
      ],
      [
        "▁corps",
        -8.079502310217704
      ],
      [
        "épp",
        -8.080674858667592
      ],
      [
        "eux",
        -8.080801675366613
      ],
      [
        "▁ŋgeen",
        -8.080900134939299
      ],
      [
        "▁Xam",
        -8.081086995866539
      ],
      [
        "ak",
        -8.081178508421667
      ],
      [
        "▁mes",
        -8.083656060363182
      ],
      [
        "▁peut",
        -8.08814712022954
      ],
      [
        "▁waa",
        -8.095570866562817
      ],
      [
        "▁jóge",
        -8.09898175649941
      ],
      [
        "▁jot",
        -8.099435830750377
      ],
      [
        "▁xarit",
        -8.10528785132587
      ],
      [
        "▁jamais",
        -8.10951805989803
      ],
      [
        "▁doute",
        -8.109616236310421
      ],
      [
        "quelle",
        -8.112715628551884
      ],
      [
        "▁sous",
        -8.11287269300389
      ],
      [
        "▁dégg",
        -8.113624674409838
      ],
      [
        "▁yaa",
        -8.116562234696772
      ],
      [
        "on",
        -8.116689198209126
      ],
      [
        "▁personne",
        -8.12208697795999
      ],
      [
        "▁elle",
        -8.122456713131873
      ],
      [
        "▁neex",
        -8.124061113406594
      ],
      [
        "▁dugg",
        -8.133329777945331
      ],
      [
        "'",
        -8.1377442378629
      ],
      [
        "▁ja",
        -8.141540756357097
      ],
      [
        "▁noonu",
        -8.142629090788066
      ],
      [
        "ation",
        -8.143259011322815
      ],
      [
        "▁jour",
        -8.147455179941586
      ],
      [
        "▁re",
        -8.159035142731538
      ],
      [
        "▁nii",
        -8.15941992013814
      ],
      [
        "▁mbir",
        -8.168543762047804
      ],
      [
        "▁sorte",
        -8.171575726016247
      ],
      [
        "▁kaw",
        -8.17181835546435
      ],
      [
        "▁léeg-léeg",
        -8.173013259676017
      ],
      [
        "▁Kamerun",
        -8.173013259892437
      ],
      [
        "▁là-bas",
        -8.17301326065182
      ],
      [
        "▁Tubaab",
        -8.174213553600216
      ],
      [
        "▁terre",
        -8.175149592078956
      ],
      [
        "▁bari",
        -8.175570949802355
      ],
      [
        "▁Lu",
        -8.181496124493334
      ],
      [
        "▁wu",
        -8.185893977202522
      ],
      [
        "▁B",
        -8.186917155472935
      ],
      [
        "▁N",
        -8.19537394721834
      ],
      [
        "▁jël",
        -8.197018142548332
      ],
      [
        "ma",
        -8.201885985468305
      ],
      [
        "▁ginnaaw",
        -8.202254643430361
      ],
      [
        "▁ai",
        -8.203425689064161
      ],
      [
        "uñu",
        -8.20360399110006
      ],
      [
        "▁loin",
        -8.206344853983838
      ],
      [
        "▁foofu",
        -8.206488317303332
      ],
      [
        "▁fois",
        -8.207362080297795
      ],
      [
        "▁d'autres",
        -8.210273339190465
      ],
      [
        "▁f",
        -8.211229802115854
      ],
      [
        "ale",
        -8.211312387731802
      ],
      [
        "▁Bu",
        -8.215403108181032
      ],
      [
        "▁Lii",
        -8.220277175542792
      ],
      [
        "▁bare",
        -8.220860966736339
      ],
      [
        "▁C",
        -8.222947546847053
      ],
      [
        "▁nee",
        -8.226293744170881
      ],
      [
        "▁quan",
        -8.230113290289957
      ],
      [
        "▁daa",
        -8.230664986704056
      ],
      [
        "▁Xar",
        -8.234692658342855
      ],
      [
        "▁fii",
        -8.237636465799726
      ],
      [
        "▁Fa",
        -8.237819693923703
      ],
      [
        "▁da",
        -8.238946383886324
      ],
      [
        "▁yeneen",
        -8.23954645033591
      ],
      [
        "▁bois",
        -8.24096708197756
      ],
      [
        "▁waaw",
        -8.242432267234514
      ],
      [
        "▁Et",
        -8.243437283238155
      ],
      [
        "▁jaar",
        -8.245640300132358
      ],
      [
        "▁Ku",
        -8.246258372723638
      ],
      [
        "▁étai",
        -8.261577577592488
      ],
      [
        "▁dox",
        -8.267465166981935
      ],
      [
        "▁'",
        -8.272279119655373
      ],
      [
        "▁peut-être",
        -8.277182152986034
      ],
      [
        "▁c'était",
        -8.277614157208506
      ],
      [
        "▁daw",
        -8.278889645372587
      ],
      [
        "▁Daf",
        -8.279149284397395
      ],
      [
        "▁boppam",
        -8.27940987343889
      ],
      [
        "▁crois",
        -8.279758413598461
      ],
      [
        "▁non",
        -8.280595295109531
      ],
      [
        "▁entre",
        -8.280625730366916
      ],
      [
        "▁arbres",
        -8.284354435319326
      ],
      [
        "f",
        -8.285819473118964
      ],
      [
        "en",
        -8.288738230910944
      ],
      [
        "▁voir",
        -8.288970183834776
      ],
      [
        "pendant",
        -8.295114878952086
      ],
      [
        "▁route",
        -8.295574598959899
      ],
      [
        "▁dee",
        -8.296725691660278
      ],
      [
        "▁l'Afrique",
        -8.31358067437919
      ],
      [
        "▁veut",
        -8.31360081669053
      ],
      [
        "▁Loolu",
        -8.313779394647671
      ],
      [
        "▁ňu",
        -8.31423425617016
      ],
      [
        "▁années",
        -8.315141422365322
      ],
      [
        "▁xaw",
        -8.316463356714916
      ],
      [
        "▁Sée",
        -8.317529573759973
      ],
      [
        "▁Tout",
        -8.319132709155046
      ],
      [
        "▁in",
        -8.320237402563052
      ],
      [
        "c",
        -8.32101064521192
      ],
      [
        "▁devant",
        -8.321033540308436
      ],
      [
        "e.",
        -8.325671312478898
      ],
      [
        "▁mer",
        -8.326067958502199
      ],
      [
        "▁chambre",
        -8.329957871975797
      ],
      [
        "▁dund",
        -8.332569260196319
      ],
      [
        "▁yoo",
        -8.337701876796828
      ],
      [
        "▁gii",
        -8.342739386078371
      ],
      [
        "▁Mi",
        -8.344673664017622
      ],
      [
        "▁travers",
        -8.345563582300034
      ],
      [
        "▁Qui",
        -8.35204221284074
      ],
      [
        "▁Ogoja",
        -8.35204221285874
      ],
      [
        "▁Afrique",
        -8.352042217198044
      ],
      [
        "▁forêt",
        -8.352043124501154
      ],
      [
        "▁dëgg",
        -8.35227124638603
      ],
      [
        "▁après",
        -8.352467348447174
      ],
      [
        "▁Oui",
        -8.354670341256982
      ],
      [
        "▁avant",
        -8.356265324964488
      ],
      [
        "▁Ni",
        -8.356891971355385
      ],
      [
        "▁bañ",
        -8.364425857042123
      ],
      [
        "▁ans",
        -8.364616239727834
      ],
      [
        "ce",
        -8.366980621269137
      ],
      [
        "▁rouge",
        -8.370458745844793
      ],
      [
        "▁wet",
        -8.375614488813065
      ],
      [
        "▁nuit",
        -8.376287779411346
      ],
      [
        "▁Bi",
        -8.377056592093169
      ],
      [
        "▁haut",
        -8.37899391162628
      ],
      [
        "▁lal",
        -8.384840305017423
      ],
      [
        "▁solo",
        -8.384875092413171
      ],
      [
        "▁moutons",
        -8.38948554727664
      ],
      [
        "▁kooku",
        -8.39118578988149
      ],
      [
        "▁Man",
        -8.391279125091348
      ],
      [
        "▁celui",
        -8.391699707300386
      ],
      [
        "▁topp",
        -8.392034442088942
      ],
      [
        "▁daanaka",
        -8.392327543967138
      ],
      [
        "▁contre",
        -8.392337330450038
      ],
      [
        "▁jooju",
        -8.392650900309938
      ],
      [
        "▁vers",
        -8.392698353568711
      ],
      [
        "▁Ceci",
        -8.392739210065098
      ],
      [
        "▁Ca",
        -8.395188092128034
      ],
      [
        "▁On",
        -8.396160385347237
      ],
      [
        "ont",
        -8.396837508903797
      ],
      [
        "▁bunt",
        -8.4032570712542
      ],
      [
        "ées",
        -8.404725798427226
      ],
      [
        "▁amis",
        -8.408150914605159
      ],
      [
        "▁mas",
        -8.408660774671723
      ],
      [
        "▁blanche",
        -8.41242688591642
      ],
      [
        "et",
        -8.412533220093868
      ],
      [
        "▁case",
        -8.41670242986742
      ],
      [
        "▁médecin",
        -8.42121921653251
      ],
      [
        "▁tànk",
        -8.421374474399896
      ],
      [
        "▁F",
        -8.422209155414961
      ],
      [
        "▁Soo",
        -8.423455846778332
      ],
      [
        "▁g",
        -8.42517428152102
      ],
      [
        "▁eux",
        -8.42792733159295
      ],
      [
        "-là",
        -8.429470158185302
      ],
      [
        "eurs",
        -8.43120620906513
      ],
      [
        "▁France",
        -8.433713592204024
      ],
      [
        "▁Vous",
        -8.43371397729663
      ],
      [
        "▁beaucoup",
        -8.433720801005213
      ],
      [
        "▁Cameroun",
        -8.43372101076026
      ],
      [
        "▁fàww",
        -8.433754719931267
      ],
      [
        "▁ceux-là",
        -8.43392120529063
      ],
      [
        "▁matin",
        -8.434166762147706
      ],
      [
        "▁voit",
        -8.434440354924416
      ],
      [
        "▁Sama",
        -8.434549259695181
      ],
      [
        "▁Y",
        -8.441401126928344
      ],
      [
        "▁Xale",
        -8.44182188769322
      ],
      [
        "▁pouvait",
        -8.442499145115645
      ],
      [
        "▁E",
        -8.445442787605733
      ],
      [
        "▁nuy",
        -8.445443230463129
      ],
      [
        "▁metti",
        -8.44675865425705
      ],
      [
        "▁day",
        -8.45050679549939
      ],
      [
        "▁vo",
        -8.455672150504101
      ],
      [
        "▁blanc",
        -8.456672342890656
      ],
      [
        "h",
        -8.457141645250797
      ],
      [
        "uma",
        -8.458289375859456
      ],
      [
        "▁lan",
        -8.463193559522372
      ],
      [
        "▁autres",
        -8.465182351814159
      ],
      [
        "▁Dan",
        -8.466503093255552
      ],
      [
        "quoi",
        -8.474617659536861
      ],
      [
        "▁fas",
        -8.475307392090855
      ],
      [
        "▁quelqu'un",
        -8.477222718568365
      ],
      [
        "▁kan",
        -8.479914222588897
      ],
      [
        "▁ceux",
        -8.480960257842066
      ],
      [
        "▁Na",
        -8.481632221260416
      ],
      [
        "▁wàn",
        -8.483051899521056
      ],
      [
        "▁M",
        -8.484573632849177
      ],
      [
        "▁noir",
        -8.486121837007731
      ],
      [
        "vaient",
        -8.487112762582502
      ],
      [
        "autour",
        -8.48905656359267
      ],
      [
        "▁jàpp",
        -8.490447463987627
      ],
      [
        "▁Sa",
        -8.493094456421753
      ],
      [
        "▁quelle",
        -8.496224447693644
      ],
      [
        "ook",
        -8.49895528234462
      ],
      [
        "enn",
        -8.503676483411931
      ],
      [
        "▁s'",
        -8.503896305549976
      ],
      [
        "▁personnes",
        -8.50427028798709
      ],
      [
        "▁fàttaliku",
        -8.50430933649689
      ],
      [
        "▁xol",
        -8.50446146854187
      ],
      [
        "kk",
        -8.506949891554605
      ],
      [
        "iers",
        -8.508910583131865
      ],
      [
        "ek",
        -8.509927043943211
      ],
      [
        "▁Ay",
        -8.512347870849997
      ],
      [
        "▁tudd",
        -8.51405657856424
      ],
      [
        "ug",
        -8.519715385276092
      ],
      [
        "▁Que",
        -8.520808639615943
      ],
      [
        "▁yaakaar",
        -8.522648545709115
      ],
      [
        "▁Naka",
        -8.522688033068018
      ],
      [
        "▁au-dessus",
        -8.522786074376306
      ],
      [
        "▁verre",
        -8.522813724990172
      ],
      [
        "▁Pour",
        -8.522964719237
      ],
      [
        "▁port",
        -8.52304786401942
      ],
      [
        "▁aucun",
        -8.523561833618675
      ],
      [
        "▁Elle",
        -8.523710682567389
      ],
      [
        "▁aujourd'hui",
        -8.52429957718752
      ],
      [
        "aat",
        -8.524718965092445
      ],
      [
        "▁lequel",
        -8.524719642162733
      ],
      [
        "▁donné",
        -8.524845701415153
      ],
      [
        "▁dóor",
        -8.525398805499673
      ],
      [
        "▁bout",
        -8.526599241719136
      ],
      [
        "▁gaal",
        -8.527422506489478
      ],
      [
        "▁es",
        -8.527872947204736
      ],
      [
        "▁qu'",
        -8.528579083535591
      ],
      [
        "▁ici",
        -8.528718585843427
      ],
      [
        "▁enfant",
        -8.532662336722833
      ],
      [
        "aan",
        -8.535937705735439
      ],
      [
        "▁xamul",
        -8.536090387077362
      ],
      [
        "▁dana",
        -8.54374954059026
      ],
      [
        "▁puis",
        -8.545466961281612
      ],
      [
        "▁So",
        -8.55474043784708
      ],
      [
        "ne",
        -8.555391205545627
      ],
      [
        "▁bokk",
        -8.555808558395139
      ],
      [
        "▁leer",
        -8.557505826754971
      ],
      [
        "▁posé",
        -8.560529957516573
      ],
      [
        "▁passé",
        -8.561686839147411
      ],
      [
        "▁say",
        -8.566478016198214
      ],
      [
        "▁Wànte",
        -8.570260783423626
      ],
      [
        "▁soleil",
        -8.570268436459063
      ],
      [
        "▁milieu",
        -8.570277015060897
      ],
      [
        "▁xalaat",
        -8.570342059529525
      ],
      [
        "▁tali",
        -8.570405024596123
      ],
      [
        "▁yàgg",
        -8.570894405831103
      ],
      [
        "▁coté",
        -8.570947088329373
      ],
      [
        "▁Ken",
        -8.57119241161347
      ],
      [
        "▁soit",
        -8.572070926325695
      ],
      [
        "▁C'étai",
        -8.572853291471246
      ],
      [
        "▁Waa",
        -8.574322614735703
      ],
      [
        "avoir",
        -8.574469824526094
      ],
      [
        "▁For",
        -8.575999140483228
      ],
      [
        "ata",
        -8.58191684600497
      ],
      [
        "té",
        -8.584358699921758
      ],
      [
        "▁hommes",
        -8.584776882522345
      ],
      [
        "▁Au",
        -8.587557109463532
      ],
      [
        "▁pu",
        -8.593996427219267
      ],
      [
        "-il",
        -8.594920411140988
      ],
      [
        "▁defar",
        -8.596531566943213
      ],
      [
        "-ci",
        -8.597896086735314
      ],
      [
        "▁village",
        -8.600338636906464
      ],
      [
        "▁seul",
        -8.605201336940354
      ],
      [
        "▁fan",
        -8.6054719202019
      ],
      [
        "koon",
        -8.606169787681651
      ],
      [
        "▁gaa",
        -8.607021874245948
      ],
      [
        "▁jox",
        -8.608319624231335
      ],
      [
        "▁ëpp",
        -8.611915216520268
      ],
      [
        "▁passe",
        -8.616478581125012
      ],
      [
        "▁Seet",
        -8.617251498423531
      ],
      [
        "▁fin",
        -8.617421495408413
      ],
      [
        "il",
        -8.618457118956758
      ],
      [
        "▁bind",
        -8.618626517278635
      ],
      [
        "igéen",
        -8.620132971018231
      ],
      [
        "▁Móris",
        -8.62026073416341
      ],
      [
        "▁Bëgg",
        -8.620381077338049
      ],
      [
        "▁seulement",
        -8.620824973242655
      ],
      [
        "▁Niseryaa",
        -8.620931322447316
      ],
      [
        "▁bord",
        -8.621410089258857
      ],
      [
        "▁weer",
        -8.621675191044021
      ],
      [
        "▁debout",
        -8.621681531684462
      ],
      [
        "▁Quan",
        -8.622462350091734
      ],
      [
        "▁J'",
        -8.623276567011704
      ],
      [
        "▁réy",
        -8.623627798200882
      ],
      [
        "▁jeex",
        -8.623668153994613
      ],
      [
        "▁jaay",
        -8.625541604669497
      ],
      [
        "▁murs",
        -8.62584010685731
      ],
      [
        "▁guddi",
        -8.626123155349967
      ],
      [
        "ez",
        -8.62981771970738
      ],
      [
        "ir",
        -8.638058013244057
      ],
      [
        "ine",
        -8.644670879946686
      ],
      [
        "▁vrai",
        -8.64985672503393
      ],
      [
        "▁n'étai",
        -8.649861910719013
      ],
      [
        "geen",
        -8.650070181935204
      ],
      [
        "▁ñàkk",
        -8.653922048924985
      ],
      [
        "▁seet",
        -8.658963550415255
      ],
      [
        "kki",
        -8.661974117105341
      ],
      [
        "in",
        -8.664066215251705
      ],
      [
        "▁regard",
        -8.664920189252157
      ],
      [
        "▁reste",
        -8.671090125314704
      ],
      [
        "▁souviens",
        -8.672892312549028
      ],
      [
        "▁grand-mère",
        -8.672892328063664
      ],
      [
        "▁doom-aadama",
        -8.672904623391613
      ],
      [
        "▁Nigeria",
        -8.672904966153803
      ],
      [
        "▁question",
        -8.67292330647323
      ],
      [
        "▁gàtt",
        -8.672932309273866
      ],
      [
        "▁dellu",
        -8.673159054236137
      ],
      [
        "▁wéy",
        -8.673230354996408
      ],
      [
        "▁Bansoo",
        -8.673279489845495
      ],
      [
        "▁Cela",
        -8.673385057933496
      ],
      [
        "▁Keneen",
        -8.673456362457385
      ],
      [
        "▁beneen",
        -8.673493615556831
      ],
      [
        "▁ressemble",
        -8.673633572716557
      ],
      [
        "▁Wax",
        -8.674065482331883
      ],
      [
        "▁manière",
        -8.674381812782359
      ],
      [
        "▁Yaa",
        -8.674719463913302
      ],
      [
        "▁côté",
        -8.674912019952675
      ],
      [
        "j",
        -8.675708438585614
      ],
      [
        "▁door",
        -8.67684895110608
      ],
      [
        "▁bon",
        -8.678225620637068
      ],
      [
        "▁eu",
        -8.683729313412421
      ],
      [
        "▁baay",
        -8.685494343481642
      ],
      [
        "▁yee",
        -8.686424769162748
      ],
      [
        "▁ndox",
        -8.688239971915351
      ],
      [
        "▁poisson",
        -8.691643011522869
      ],
      [
        "▁n'avai",
        -8.693771504819951
      ],
      [
        "▁fo",
        -8.694553624345286
      ],
      [
        "wul",
        -8.696064142433437
      ],
      [
        "loo",
        -8.697861527012751
      ],
      [
        "▁jiit",
        -8.700388587603292
      ],
      [
        "▁kii",
        -8.70102132438834
      ],
      [
        "▁Ben",
        -8.701374195529217
      ],
      [
        "▁maam",
        -8.702086087394177
      ],
      [
        "▁ville",
        -8.705616832569245
      ],
      [
        "▁bay",
        -8.707667071616193
      ],
      [
        "▁rivière",
        -8.709878419827092
      ],
      [
        "▁voyage",
        -8.713220943227787
      ],
      [
        "ux",
        -8.715122658295527
      ],
      [
        "▁faj",
        -8.717262022159515
      ],
      [
        "▁lay",
        -8.718168378743036
      ],
      [
        "▁aw",
        -8.722405619907104
      ],
      [
        "▁dina",
        -8.723340344387072
      ],
      [
        "▁dé",
        -8.72473945919522
      ],
      [
        "lu",
        -8.725078333659441
      ],
      [
        "▁faa",
        -8.72739905520701
      ],
      [
        "▁quel",
        -8.72745843008753
      ],
      [
        "▁bàyyi",
        -8.72805491873788
      ],
      [
        "▁Laobe",
        -8.728448139830402
      ],
      [
        "▁njëkk",
        -8.728448440257633
      ],
      [
        "▁S'il",
        -8.728450667604289
      ],
      [
        "▁séen",
        -8.72847529954258
      ],
      [
        "▁Samba",
        -8.728475477581219
      ],
      [
        "▁cheval",
        -8.72849926012615
      ],
      [
        "béré",
        -8.72854293170236
      ],
      [
        "▁l'eau",
        -8.728659127905662
      ],
      [
        "▁xeer",
        -8.72867006815953
      ],
      [
        "▁nettali",
        -8.728702045864727
      ],
      [
        "▁téere",
        -8.728918266557201
      ],
      [
        "▁dénk",
        -8.729212565278235
      ],
      [
        "▁gee",
        -8.729931099076719
      ],
      [
        "▁yor",
        -8.729995253635739
      ],
      [
        "▁fourmis",
        -8.730163557622163
      ],
      [
        "▁soir",
        -8.730490308680228
      ],
      [
        "▁mot",
        -8.730958891597675
      ],
      [
        "▁ubbi",
        -8.731783917148153
      ],
      [
        "▁vache",
        -8.732553143990668
      ],
      [
        "▁yeux",
        -8.735228325580408
      ],
      [
        "▁près",
        -8.736251855025095
      ],
      [
        "'exil",
        -8.738288007653097
      ],
      [
        "▁tudde",
        -8.739977007543887
      ],
      [
        "▁aller",
        -8.741671238205885
      ],
      [
        "▁n'ai",
        -8.746131897705894
      ],
      [
        "▁tel",
        -8.747215169358627
      ],
      [
        "ng",
        -8.749017935475685
      ],
      [
        "ukaay",
        -8.749505066405684
      ],
      [
        "▁égaré",
        -8.754828061720355
      ],
      [
        "▁ña",
        -8.756059170065893
      ],
      [
        "▁long",
        -8.758312811274418
      ],
      [
        "▁dëkki",
        -8.76038329812919
      ],
      [
        "▁moment",
        -8.766670445490305
      ],
      [
        "ci",
        -8.767890359629506
      ],
      [
        "▁montre",
        -8.769753441745205
      ],
      [
        "▁lion",
        -8.769892618902318
      ],
      [
        "▁lanu",
        -8.769901639977283
      ],
      [
        "▁no",
        -8.772336575017322
      ],
      [
        "▁toute",
        -8.773022013369465
      ],
      [
        "▁grande",
        -8.776678727366736
      ],
      [
        "▁mal",
        -8.778546045644172
      ],
      [
        "▁Di",
        -8.77903192682074
      ],
      [
        "nu",
        -8.77923271696647
      ],
      [
        "▁aperç",
        -8.781453944485744
      ],
      [
        "am.",
        -8.78293153303763
      ],
      [
        "▁Banso",
        -8.786837932836924
      ],
      [
        "▁Àngalteer",
        -8.787271397371349
      ],
      [
        "▁Alors",
        -8.787271518516132
      ],
      [
        "▁tàmbal",
        -8.787274122178356
      ],
      [
        "▁gunóor",
        -8.787293875345002
      ],
      [
        "▁peau",
        -8.787331172085013
      ],
      [
        "▁Àngale",
        -8.787364346253556
      ],
      [
        "▁dàll",
        -8.787441621421515
      ],
      [
        "▁seetlu",
        -8.78749294083362
      ],
      [
        "▁Ñoom",
        -8.787759001562197
      ],
      [
        "▁tuuti",
        -8.788029343729677
      ],
      [
        "▁so",
        -8.788143144978207
      ],
      [
        "▁mii",
        -8.788493111168416
      ],
      [
        "▁plaine",
        -8.788500136115458
      ],
      [
        "▁yaatu",
        -8.789266975240196
      ],
      [
        "▁doomu",
        -8.79099955426817
      ],
      [
        "▁kanam",
        -8.791359725058058
      ],
      [
        "▁dama",
        -8.793207548620071
      ],
      [
        "▁lit",
        -8.793530186699066
      ],
      [
        "▁toit",
        -8.795399307120153
      ],
      [
        "▁mujje",
        -8.79705254208867
      ],
      [
        "▁maanaa",
        -8.797675191848922
      ],
      [
        "▁miir",
        -8.798667680750611
      ],
      [
        "▁gaynde",
        -8.798707543859118
      ],
      [
        "▁Ra",
        -8.798828735706884
      ],
      [
        "▁assis",
        -8.80068700912063
      ],
      [
        "▁bant",
        -8.80184168022101
      ],
      [
        "▁W",
        -8.802086127684376
      ],
      [
        "▁mains",
        -8.802275170631592
      ],
      [
        "▁wut",
        -8.803627096997838
      ],
      [
        "▁ñ",
        -8.80740439257215
      ],
      [
        "▁nun",
        -8.813663447177554
      ],
      [
        "▁l'ai",
        -8.816911979924948
      ],
      [
        "tôt",
        -8.818197616666655
      ],
      [
        "▁amoon",
        -8.819125142297718
      ],
      [
        "-na",
        -8.820886786520637
      ],
      [
        "▁aurait",
        -8.822058594368363
      ],
      [
        "em",
        -8.824197648338856
      ],
      [
        "▁grand",
        -8.826185604343308
      ],
      [
        "▁plu",
        -8.829798038535007
      ],
      [
        "▁lorsqu",
        -8.83080178899322
      ],
      [
        "▁doom",
        -8.835020338474108
      ],
      [
        "▁waaj",
        -8.837266764688147
      ],
      [
        "ère",
        -8.838029290556078
      ],
      [
        "être",
        -8.83859639577951
      ],
      [
        "?",
        -8.840913797301019
      ],
      [
        "▁t'a",
        -8.842892837056711
      ],
      [
        "▁way-jur",
        -8.847067003244021
      ],
      [
        "faral",
        -8.848314243110822
      ],
      [
        "▁Kooku",
        -8.849369001745247
      ],
      [
        "àddaay",
        -8.849573761983585
      ],
      [
        "▁<mask>",
        -8.849771397365052
      ],
      [
        "▁jardin",
        -8.849772110466969
      ],
      [
        "▁l'Ouest",
        -8.849822453060476
      ],
      [
        "▁moroom",
        -8.849876406711545
      ],
      [
        "▁dunyaa",
        -8.84992302149067
      ],
      [
        "▁xeet",
        -8.850370175719245
      ],
      [
        "▁Kon",
        -8.850771562382588
      ],
      [
        "avons",
        -8.851394520794189
      ],
      [
        "▁takk",
        -8.85156590217828
      ],
      [
        "▁Moom",
        -8.852247531448924
      ],
      [
        "▁leneen",
        -8.85290159748357
      ],
      [
        "▁marche",
        -8.853446063889702
      ],
      [
        "▁demkoon",
        -8.853955253038194
      ],
      [
        "▁ko.",
        -8.854449733913423
      ],
      [
        "▁K",
        -8.85449844060328
      ],
      [
        "▁moomu",
        -8.855083756351327
      ],
      [
        "▁laaj",
        -8.857197164594552
      ],
      [
        "▁montagnes",
        -8.859525401516628
      ],
      [
        "▁fut",
        -8.8642096741291
      ],
      [
        "▁jeune",
        -8.865729851082698
      ],
      [
        "▁parler",
        -8.866747901055911
      ],
      [
        "▁nos",
        -8.870352126539325
      ],
      [
        "▁Bamenda",
        -8.872180544592283
      ],
      [
        "▁wone",
        -8.872440269969225
      ],
      [
        "maa",
        -8.873897611978977
      ],
      [
        "▁gudd",
        -8.878348171248057
      ],
      [
        "ub",
        -8.880713642205647
      ],
      [
        "▁marché",
        -8.88437672756342
      ],
      [
        "armée",
        -8.88660489005871
      ],
      [
        "▁Fu",
        -8.887977446480933
      ],
      [
        "▁jours",
        -8.889552170787663
      ],
      [
        "▁Boo",
        -8.89027249262468
      ],
      [
        "ur",
        -8.89144782621074
      ],
      [
        "▁ami",
        -8.891533338958538
      ],
      [
        "▁mat",
        -8.892190036673314
      ],
      [
        "▁L'",
        -8.892204841993328
      ],
      [
        "▁won",
        -8.89313929867345
      ],
      [
        "leen",
        -8.89390744825127
      ],
      [
        "voir",
        -8.895033499462329
      ],
      [
        "▁yére",
        -8.897435734880364
      ],
      [
        "age",
        -8.897523233055072
      ],
      [
        "▁Va",
        -8.898230098361505
      ],
      [
        "ngir",
        -8.903562812866696
      ],
      [
        "ra",
        -8.903588048055676
      ],
      [
        "▁parte",
        -8.903596985787564
      ],
      [
        "▁fond",
        -8.906876234423894
      ],
      [
        "▁defe",
        -8.907994421552917
      ],
      [
        "▁garde",
        -8.908551003300168
      ],
      [
        "▁partie",
        -8.911032102962148
      ],
      [
        "▁trouve",
        -8.915761193849985
      ],
      [
        "▁lieu",
        -8.915862067475834
      ],
      [
        "▁ta",
        -8.916391487879684
      ],
      [
        "▁tollu",
        -8.916438152126236
      ],
      [
        "▁violence",
        -8.916438834399564
      ],
      [
        "▁House",
        -8.916453065815016
      ],
      [
        "▁làrme",
        -8.916461552832057
      ],
      [
        "▁doktoor",
        -8.916463846895276
      ],
      [
        "▁Aucun",
        -8.916473443151617
      ],
      [
        "▁ëe",
        -8.916477423959458
      ],
      [
        "▁jéem",
        -8.916478870478041
      ],
      [
        "▁Celui-là",
        -8.916487578485675
      ],
      [
        "▁yónnee",
        -8.916808860032846
      ],
      [
        "▁simplement",
        -8.916816307073548
      ],
      [
        "▁Yaw",
        -8.916820826963113
      ],
      [
        "▁gént",
        -8.916904772431561
      ],
      [
        "▁trop",
        -8.917353721560943
      ],
      [
        "▁cause",
        -8.917434602782789
      ],
      [
        "▁salle",
        -8.917561391086801
      ],
      [
        "▁Ak",
        -8.918013072205936
      ],
      [
        "▁ňaar",
        -8.918268017617509
      ],
      [
        "▁deret",
        -8.918334616467735
      ],
      [
        "▁s'il",
        -8.919102247640255
      ],
      [
        "▁ñan",
        -8.919294065352116
      ],
      [
        "▁Noonu",
        -8.919749891712495
      ],
      [
        "▁dame",
        -8.919839437278046
      ],
      [
        "▁feebar",
        -8.920565970877075
      ],
      [
        "▁boog",
        -8.92105168741048
      ],
      [
        "▁Kan",
        -8.922174965385695
      ],
      [
        "▁romb",
        -8.922432915677701
      ],
      [
        "▁ciel",
        -8.922854677393508
      ],
      [
        "▁dire",
        -8.923077618095046
      ],
      [
        "▁portent",
        -8.923276440932618
      ],
      [
        "▁bëggul",
        -8.923372752644713
      ],
      [
        "▁doomi",
        -8.923771091991194
      ],
      [
        "▁allé",
        -8.924323161390813
      ],
      [
        "estr",
        -8.924929005171531
      ],
      [
        "▁buntu",
        -8.930603221698904
      ],
      [
        "▁neen",
        -8.938682169304023
      ],
      [
        "▁song",
        -8.939490132537731
      ],
      [
        "▁niroo",
        -8.942049499324192
      ],
      [
        "▁villages",
        -8.943870179871316
      ],
      [
        "▁jii",
        -8.944436373920523
      ],
      [
        "▁tur",
        -8.948790618232263
      ],
      [
        "▁blancs",
        -8.950036223321355
      ],
      [
        "eur",
        -8.951037319952501
      ],
      [
        "▁fàtte",
        -8.954091588065864
      ],
      [
        "▁baa",
        -8.958327161174026
      ],
      [
        "▁travail",
        -8.960975446266573
      ],
      [
        "▁jolie",
        -8.964293372835707
      ],
      [
        "ň",
        -8.965541994642805
      ],
      [
        "▁souvenir",
        -8.967484309245648
      ],
      [
        "▁Par",
        -8.97910940094494
      ],
      [
        "at",
        -8.979406230700182
      ],
      [
        "▁parles",
        -8.980049963444726
      ],
      [
        "▁néegu",
        -8.983938404829708
      ],
      [
        "óon",
        -8.984350263523254
      ],
      [
        "▁portes",
        -8.985459243966622
      ],
      [
        "▁Saint-Louis",
        -8.987866635663263
      ],
      [
        "▁endroit",
        -8.987866740507059
      ],
      [
        "▁Yàlla",
        -8.987867939314599
      ],
      [
        "▁famille",
        -8.987867999895677
      ],
      [
        "▁mémoire",
        -8.98786924474219
      ],
      [
        "▁togg",
        -8.987870670224575
      ],
      [
        "▁vécu",
        -8.98789090073386
      ],
      [
        "▁diiwaan",
        -8.987905850120907
      ],
      [
        "▁ngelaw",
        -8.987936654690575
      ],
      [
        "▁tangor",
        -8.988057138859524
      ],
      [
        "▁celui-ci",
        -8.988116210063177
      ],
      [
        "▁l'hôpital",
        -8.988270965589102
      ],
      [
        "▁Seen",
        -8.988293293865626
      ],
      [
        "▁Qu'il",
        -8.988339400854638
      ],
      [
        "▁heures",
        -8.988487076551635
      ],
      [
        "▁wóor",
        -8.988774500864142
      ],
      [
        "▁gaaw",
        -8.988790461131256
      ],
      [
        "▁trois",
        -8.988851248052486
      ],
      [
        "▁mépp",
        -8.988905823388734
      ],
      [
        "aire",
        -8.989313018336844
      ],
      [
        "▁Dama",
        -8.991142142996338
      ],
      [
        "▁tard",
        -8.9914453173262
      ],
      [
        "▁Ndar",
        -8.991661992859328
      ],
      [
        "▁bras",
        -8.991953266694255
      ],
      [
        "▁Wall",
        -8.992018132037824
      ],
      [
        "▁taxoon",
        -8.99427343273549
      ],
      [
        "▁gendarmes",
        -8.994870367077738
      ],
      [
        "▁Là",
        -8.99860404709089
      ],
      [
        "▁s'en",
        -9.000515386098904
      ],
      [
        "▁An",
        -9.001757306361837
      ],
      [
        "▁parlait",
        -9.002246044577335
      ],
      [
        "▁celle",
        -9.00233170274855
      ],
      [
        "▁vient",
        -9.00510095663214
      ],
      [
        "▁googu",
        -9.006785009730525
      ],
      [
        "▁Nga",
        -9.008945284303717
      ],
      [
        "ité",
        -9.011969682022158
      ],
      [
        "▁petit",
        -9.01254226012997
      ],
      [
        "les",
        -9.01259581329969
      ],
      [
        "ñu",
        -9.014886578033927
      ],
      [
        "▁masu",
        -9.0150923026066
      ],
      [
        "▁Mën",
        -9.015334688445263
      ],
      [
        "▁sore",
        -9.017229407326038
      ],
      [
        "▁mort",
        -9.017394308982354
      ],
      [
        "▁tabax",
        -9.01758292487955
      ],
      [
        "▁pres",
        -9.019127224357833
      ],
      [
        "▁j",
        -9.019567346233947
      ],
      [
        "▁toutes",
        -9.022436280128213
      ],
      [
        "▁appelle",
        -9.02484885278375
      ],
      [
        "▁noirs",
        -9.025765719710241
      ],
      [
        "ons",
        -9.0277413649729
      ],
      [
        "▁noo",
        -9.028047383169051
      ],
      [
        "▁connu",
        -9.028700903716858
      ],
      [
        "▁vieille",
        -9.028983289634638
      ],
      [
        "ance",
        -9.029668572537442
      ],
      [
        "▁dellusi",
        -9.030046604934826
      ],
      [
        "▁we",
        -9.031250177743766
      ],
      [
        "▁forme",
        -9.03767695150114
      ],
      [
        "▁Bamendaa",
        -9.038751273373006
      ],
      [
        "▁xool",
        -9.038814066345012
      ],
      [
        "▁àgg",
        -9.045398322005207
      ],
      [
        "▁dëkku",
        -9.047381053968548
      ],
      [
        "▁dëkke",
        -9.048092308944526
      ],
      [
        "où",
        -9.048921543090806
      ],
      [
        "q",
        -9.05381071986789
      ],
      [
        "ri",
        -9.054816987938455
      ],
      [
        "▁tàng",
        -9.061752095757235
      ],
      [
        "▁doi",
        -9.062648182875002
      ],
      [
        "▁britannique",
        -9.064789712384977
      ],
      [
        "▁liberté",
        -9.064789715327484
      ],
      [
        "▁palais",
        -9.064790400305942
      ],
      [
        "▁weesoo",
        -9.06479065759432
      ],
      [
        "▁sucre",
        -9.06479217457315
      ],
      [
        "▁soldaar",
        -9.064792275629548
      ],
      [
        "▁wirgo",
        -9.06479332264696
      ],
      [
        "▁Mbaa",
        -9.064794942108684
      ],
      [
        "▁théière",
        -9.064811170288717
      ],
      [
        "▁tëdd",
        -9.064813263781975
      ],
      [
        "▁gis-gis",
        -9.064866345678066
      ],
      [
        "▁jëkk",
        -9.065039748542553
      ],
      [
        "▁surtout",
        -9.065042101208691
      ],
      [
        "▁Yéen",
        -9.06511345916378
      ],
      [
        "▁sedd",
        -9.065190669061868
      ],
      [
        "▁asamaan",
        -9.065197701106268
      ],
      [
        "▁Maurice",
        -9.06549837188735
      ],
      [
        "▁Jox",
        -9.06557382203613
      ],
      [
        "▁Bés",
        -9.065701424606662
      ],
      [
        "▁Ibo",
        -9.065752676091398
      ],
      [
        "▁Frãs",
        -9.065862320776645
      ],
      [
        "▁ainsi",
        -9.065877787821083
      ],
      [
        "▁tëj",
        -9.066112707799872
      ],
      [
        "▁acheté",
        -9.066278901641368
      ],
      [
        "▁café",
        -9.067777624036038
      ],
      [
        "▁sàkk",
        -9.06822982964378
      ],
      [
        "▁ça",
        -9.068338647516224
      ],
      [
        "▁viendra",
        -9.06854192171994
      ],
      [
        "ël",
        -9.069710489576956
      ],
      [
        "▁d'herbes",
        -9.070603311961406
      ],
      [
        "▁xelam",
        -9.070868542898832
      ],
      [
        "st-ce",
        -9.07121334227196
      ],
      [
        "▁suba",
        -9.072301876627048
      ],
      [
        "▁habits",
        -9.07293740419355
      ],
      [
        "▁jënd",
        -9.075594984816416
      ],
      [
        "atum",
        -9.076358700768376
      ],
      [
        "▁jant",
        -9.076510132476198
      ],
      [
        "▁ñuul.",
        -9.076664782231667
      ],
      [
        "▁choses",
        -9.077806862390362
      ],
      [
        "atul",
        -9.079057578606081
      ],
      [
        "▁nanu",
        -9.079644733854698
      ],
      [
        "▁bee",
        -9.083071801831197
      ],
      [
        "▁pars",
        -9.083795589328634
      ],
      [
        "▁deme",
        -9.084759960525043
      ],
      [
        "▁Da",
        -9.087713654431177
      ],
      [
        "▁grands",
        -9.088845793659694
      ],
      [
        "▁yit",
        -9.091469896388066
      ],
      [
        "▁per",
        -9.092603875652651
      ],
      [
        "▁Quelle",
        -9.093956270352194
      ],
      [
        "▁biti",
        -9.093972042699686
      ],
      [
        "▁wetu",
        -9.098798899921173
      ],
      [
        "or",
        -9.099169051370168
      ],
      [
        "waat",
        -9.105683377163949
      ],
      [
        "fin",
        -9.106672290620379
      ],
      [
        "▁Me",
        -9.107600771609214
      ],
      [
        "▁l'un",
        -9.1082254031157
      ],
      [
        "me",
        -9.108704406284554
      ],
      [
        "▁qu'un",
        -9.111703317005729
      ],
      [
        "os",
        -9.111784716574364
      ],
      [
        "▁sori",
        -9.111904172666286
      ],
      [
        "▁lekk",
        -9.113456705387007
      ],
      [
        "▁baat",
        -9.11411443397955
      ],
      [
        "▁May",
        -9.1154295292658
      ],
      [
        "si",
        -9.116492751317885
      ],
      [
        "▁yem",
        -9.121978301073772
      ],
      [
        "▁ñii",
        -9.122565416269907
      ],
      [
        "▁carte",
        -9.124490065800291
      ],
      [
        "▁fille",
        -9.125101102334384
      ],
      [
        "▁vienne",
        -9.126583184200808
      ],
      [
        "ati",
        -9.126750745567165
      ],
      [
        "un",
        -9.126922901175107
      ],
      [
        "▁kaa",
        -9.128185029856432
      ],
      [
        "de",
        -9.129453671674515
      ],
      [
        "▁garçon",
        -9.130180903351146
      ],
      [
        "vant",
        -9.13083844981661
      ],
      [
        "▁b",
        -9.13107383978342
      ],
      [
        "na",
        -9.13240504462048
      ],
      [
        "ais",
        -9.133127100614653
      ],
      [
        "▁ŋgii",
        -9.13314924469462
      ],
      [
        "▁D'",
        -9.136074541723076
      ],
      [
        "▁main",
        -9.13749755395089
      ],
      [
        "▁fàttali",
        -9.138245476792576
      ],
      [
        "▁daj",
        -9.140829174098219
      ],
      [
        "▁coup",
        -9.142365586985632
      ],
      [
        "woo",
        -9.142566134671977
      ],
      [
        "▁Cherche",
        -9.148123052911867
      ],
      [
        "▁mellentaan",
        -9.148123056147401
      ],
      [
        "▁xar-kanam",
        -9.148123070013725
      ],
      [
        "▁Homme",
        -9.14812320994878
      ],
      [
        "▁géej",
        -9.148123333614251
      ],
      [
        "▁làmp",
        -9.14812349803375
      ],
      [
        "▁région",
        -9.148124601259083
      ],
      [
        "▁xanaa",
        -9.14815173945453
      ],
      [
        "▁kese",
        -9.148168983909283
      ],
      [
        "▁Kër",
        -9.148171799868544
      ],
      [
        "▁déglu",
        -9.148183696321315
      ],
      [
        "▁boroom",
        -9.148194250610244
      ],
      [
        "▁herbes",
        -9.148201617259941
      ],
      [
        "▁paix",
        -9.148203789353161
      ],
      [
        "▁Lawbe",
        -9.148218657870531
      ],
      [
        "▁manger",
        -9.148245421868221
      ],
      [
        "▁delloo",
        -9.148279382150973
      ],
      [
        "▁Ceux-là",
        -9.148280408122124
      ],
      [
        "▁passage",
        -9.148331176090831
      ],
      [
        "▁longue",
        -9.148353432676853
      ],
      [
        "▁yuuxu",
        -9.148388921028339
      ],
      [
        "▁derrière",
        -9.148444636199365
      ],
      [
        "'était",
        -9.148835903367443
      ],
      [
        "▁ngoon",
        -9.148895016198837
      ],
      [
        "▁appris",
        -9.14899986779786
      ],
      [
        "▁envoyée",
        -9.149055709423237
      ],
      [
        "▁takk-der",
        -9.149285349211885
      ],
      [
        "▁nangu",
        -9.149302709505431
      ],
      [
        "▁Jaam",
        -9.14979839698692
      ],
      [
        "▁kàddu",
        -9.150006861977744
      ],
      [
        "▁n'en",
        -9.150052678580863
      ],
      [
        "▁màgget",
        -9.150769226156324
      ],
      [
        "▁Defe",
        -9.151160895728307
      ],
      [
        "▁large",
        -9.151546237823878
      ],
      [
        "▁màggat",
        -9.152773928088745
      ],
      [
        "▁Demal",
        -9.154230310523307
      ],
      [
        "▁yaw",
        -9.154887294082434
      ],
      [
        "▁duñu",
        -9.15814690337409
      ],
      [
        "▁X",
        -9.159102432126195
      ],
      [
        "▁Ñ",
        -9.159518194405093
      ],
      [
        "est-ce",
        -9.161469585287245
      ],
      [
        "▁couleurs",
        -9.16177292326744
      ],
      [
        "▁pieds",
        -9.161826342861062
      ],
      [
        "beek",
        -9.163728913927477
      ],
      [
        "▁fees",
        -9.164333483511022
      ],
      [
        "▁jan",
        -9.165211594892792
      ],
      [
        "belle",
        -9.169022416992187
      ],
      [
        "▁fleuves",
        -9.170215704349218
      ],
      [
        "▁San",
        -9.175394606824302
      ],
      [
        "lli",
        -9.177199132267974
      ],
      [
        "▁jàng",
        -9.178754693635659
      ],
      [
        "▁sang",
        -9.182383580152171
      ],
      [
        "llait",
        -9.188706791153972
      ],
      [
        "eut-être",
        -9.188831907036677
      ],
      [
        "▁Moi",
        -9.191055123403086
      ],
      [
        "▁doxandéem",
        -9.19106726019534
      ],
      [
        "▁sais",
        -9.192863695695209
      ],
      [
        "▁Ña",
        -9.194901390999627
      ],
      [
        "▁mêmes",
        -9.195460410282836
      ],
      [
        "▁égarée",
        -9.196575877838029
      ],
      [
        "▁roi",
        -9.205178054892201
      ],
      [
        "▁conçue",
        -9.20532403929225
      ],
      [
        "vent",
        -9.20711091559403
      ],
      [
        "▁doy",
        -9.208378061116267
      ],
      [
        "aa",
        -9.210436589906614
      ],
      [
        "▁mis",
        -9.212891520775823
      ],
      [
        "ils",
        -9.213553356110083
      ],
      [
        "▁vent",
        -9.214261822782067
      ],
      [
        "▁fleuve",
        -9.215385166432563
      ],
      [
        "kër",
        -9.216446965724407
      ],
      [
        "▁séché",
        -9.21738953626057
      ],
      [
        "▁yab",
        -9.217979383913146
      ],
      [
        "▁première",
        -9.218136682261937
      ],
      [
        "uis",
        -9.222178991027649
      ],
      [
        "ement",
        -9.222247870006814
      ],
      [
        "ppelle",
        -9.228846992788494
      ],
      [
        "▁Koo",
        -9.230530174416188
      ],
      [
        "▁dayo",
        -9.235064271342127
      ],
      [
        "▁dagg",
        -9.235973279683275
      ],
      [
        "je",
        -9.23889763943767
      ],
      [
        "▁d'Ogoja",
        -9.239032136626644
      ],
      [
        "▁bëj-saalum",
        -9.239032136630943
      ],
      [
        "▁Guwiyaan",
        -9.23903214168669
      ],
      [
        "▁yëkkati",
        -9.239032215219357
      ],
      [
        "▁Guyane",
        -9.239033433913546
      ],
      [
        "▁lumière",
        -9.239033568106926
      ],
      [
        "zone",
        -9.23903540336867
      ],
      [
        "▁rawati",
        -9.239038852953158
      ],
      [
        "▁tiim",
        -9.239038853726663
      ],
      [
        "▁frère",
        -9.239050239247259
      ],
      [
        "▁Xammee",
        -9.239053991060326
      ],
      [
        "▁téye",
        -9.239060701524686
      ],
      [
        "▁d'Europe",
        -9.239068157810877
      ],
      [
        "▁force",
        -9.239079729066512
      ],
      [
        "▁chevaux",
        -9.23908098452311
      ],
      [
        "▁feuilles",
        -9.239087326539678
      ],
      [
        "▁yéeg",
        -9.239104632378874
      ],
      [
        "▁raison",
        -9.23917589734307
      ],
      [
        "▁jàll",
        -9.239226699086803
      ],
      [
        "▁Gone",
        -9.23930535798717
      ],
      [
        "▁Moonte",
        -9.239342720348844
      ],
      [
        "-tu",
        -9.2393874727181
      ],
      [
        "▁jéggi",
        -9.23948579844043
      ],
      [
        "▁poste",
        -9.239539431469783
      ],
      [
        "▁chez",
        -9.239609647683523
      ],
      [
        "▁bépp",
        -9.239669100327685
      ],
      [
        "▁tàll",
        -9.239742654832485
      ],
      [
        "▁silence",
        -9.239814900915487
      ],
      [
        "▁toogukaay",
        -9.239826178552965
      ],
      [
        "▁xéy",
        -9.23992524477601
      ],
      [
        "▁kilifa",
        -9.239940172039493
      ],
      [
        "▁fépp",
        -9.240037151513754
      ],
      [
        "▁faisait",
        -9.240137073107928
      ],
      [
        "▁bateau",
        -9.240151938858322
      ],
      [
        "▁toujours",
        -9.240309951964413
      ],
      [
        "▁xaar",
        -9.240383325247835
      ],
      [
        "▁fenn",
        -9.240422225499369
      ],
      [
        "▁rëdd",
        -9.240434157894127
      ],
      [
        "▁faut",
        -9.240547331017051
      ],
      [
        "▁yóbbu",
        -9.240799306417932
      ],
      [
        "▁feneen",
        -9.24082749818512
      ],
      [
        "kati",
        -9.2412489777023
      ],
      [
        "▁Ñii",
        -9.241473113166444
      ],
      [
        "▁teel",
        -9.241876857789686
      ],
      [
        "▁sortir",
        -9.242465267863366
      ],
      [
        "▁Loo",
        -9.242919887325055
      ],
      [
        "yan",
        -9.2438690203508
      ],
      [
        "▁ex",
        -9.24395362109823
      ],
      [
        "▁ñetti",
        -9.244260741193163
      ],
      [
        "▁Sud",
        -9.244571095875092
      ],
      [
        "▁avions",
        -9.245259575542509
      ],
      [
        "iez",
        -9.245683550022768
      ],
      [
        "▁woo",
        -9.246357769535104
      ],
      [
        "▁cuir",
        -9.246378078993162
      ],
      [
        "▁miin",
        -9.246836914797163
      ],
      [
        "▁pierres",
        -9.247505693805428
      ],
      [
        "naa",
        -9.247643654025358
      ],
      [
        "▁tund",
        -9.250465082985185
      ],
      [
        "▁tàkk",
        -9.251505887430074
      ],
      [
        "▁baxa",
        -9.253663554427487
      ],
      [
        "▁tay",
        -9.255482397705245
      ],
      [
        "▁seule",
        -9.255725445062598
      ],
      [
        "▁të",
        -9.25573981232819
      ],
      [
        "▁Xa",
        -9.257436562303148
      ],
      [
        "▁Ne",
        -9.25825900157485
      ],
      [
        "▁naaj",
        -9.266891068744332
      ],
      [
        "▁Bon",
        -9.268075293304872
      ],
      [
        "▁ira",
        -9.268356092938838
      ],
      [
        "▁vi",
        -9.273136285078444
      ],
      [
        "ul.",
        -9.277755314619695
      ],
      [
        "▁petite",
        -9.278379197685851
      ],
      [
        "▁ragal",
        -9.2791176581417
      ],
      [
        "▁arrivé",
        -9.279126467173285
      ],
      [
        "▁fais",
        -9.28210982953854
      ],
      [
        "▁sera",
        -9.286017345197273
      ],
      [
        "ique",
        -9.289704855032019
      ],
      [
        "▁partis",
        -9.293393338615912
      ],
      [
        "▁toogu",
        -9.295525683426831
      ],
      [
        "nga",
        -9.297883424770943
      ],
      [
        "▁dexu",
        -9.298251548358348
      ],
      [
        "▁po",
        -9.29915845848935
      ],
      [
        "▁...",
        -9.300167610867451
      ],
      [
        "naka",
        -9.30131723978159
      ],
      [
        "▁Go",
        -9.301589200325404
      ],
      [
        "tant",
        -9.30211469287736
      ],
      [
        "ture",
        -9.303358849706267
      ],
      [
        "▁cases",
        -9.303798953288826
      ],
      [
        "kkali",
        -9.303800120302876
      ],
      [
        "▁cuisine",
        -9.304877014428452
      ],
      [
        "▁réewu",
        -9.306466914586807
      ],
      [
        "rait",
        -9.30704738009429
      ],
      [
        "▁cons",
        -9.307842780289068
      ],
      [
        "▁point",
        -9.309479729096577
      ],
      [
        "▁tan",
        -9.313858422550007
      ],
      [
        "aller",
        -9.316309425915229
      ],
      [
        "▁arbre",
        -9.316825890957055
      ],
      [
        "▁Ceux",
        -9.317837124146186
      ],
      [
        "▁tere",
        -9.320153165358375
      ],
      [
        "▁livre",
        -9.320283320255452
      ],
      [
        "▁feu",
        -9.33235743945665
      ],
      [
        "▁Foo",
        -9.333331816176319
      ],
      [
        "▁Ta",
        -9.334558616264498
      ],
      [
        "▁Daan",
        -9.337235725271972
      ],
      [
        "▁compl",
        -9.338752279638005
      ],
      [
        "▁kook",
        -9.338790674239805
      ],
      [
        "▁Moussa",
        -9.339032140760807
      ],
      [
        "▁pirogue",
        -9.339032144069202
      ],
      [
        "▁nouveau",
        -9.339032301316816
      ],
      [
        "▁chaussures",
        -9.339033804509324
      ],
      [
        "▁samp",
        -9.339034843395376
      ],
      [
        "▁mbóot",
        -9.339059161501961
      ],
      [
        "▁Nord",
        -9.339079035021115
      ],
      [
        "▁Ñàkk",
        -9.339090424210568
      ],
      [
        "▁l'enfant",
        -9.339102337443878
      ],
      [
        "▁subë",
        -9.339106593104493
      ],
      [
        "▁sentiment",
        -9.33912045059028
      ],
      [
        "▁façon",
        -9.339175743689742
      ],
      [
        "▁train",
        -9.339176128059254
      ],
      [
        "▁tubaab",
        -9.339177852934661
      ],
      [
        "▁voix",
        -9.339181408351322
      ],
      [
        "▁diggante",
        -9.339199368907282
      ],
      [
        "▁jëfandikoo",
        -9.33925006079473
      ],
      [
        "▁Fatim",
        -9.339291440457693
      ],
      [
        "-fu",
        -9.339439284531075
      ],
      [
        "▁Voil",
        -9.339487655819905
      ],
      [
        "▁danga",
        -9.339516600573372
      ],
      [
        "▁metit",
        -9.339559362264271
      ],
      [
        "▁loxoom",
        -9.339596847888686
      ],
      [
        "oŋ",
        -9.33969797403507
      ],
      [
        "▁fanaan",
        -9.339709275131884
      ],
      [
        "▁gor",
        -9.339762271417763
      ],
      [
        "▁moins",
        -9.339940940877135
      ],
      [
        "▁bonne",
        -9.340030525909695
      ],
      [
        "▁morceau",
        -9.340119024418644
      ],
      [
        "atim",
        -9.340642953813658
      ],
      [
        "▁jege",
        -9.34074283046753
      ],
      [
        "▁xuus",
        -9.341249873154386
      ],
      [
        "▁njiit",
        -9.341364626168899
      ],
      [
        "▁Non",
        -9.342029111049508
      ],
      [
        "▁fer",
        -9.342194993085345
      ],
      [
        "▁nul",
        -9.34237343123688
      ],
      [
        "▁neneen",
        -9.344451695095614
      ],
      [
        "▁feeñ",
        -9.344893621866731
      ],
      [
        "▁buur",
        -9.3459829148272
      ],
      [
        "▁joor",
        -9.34692589374381
      ],
      [
        "▁noon",
        -9.347707805271757
      ],
      [
        "mettre",
        -9.347811332093961
      ],
      [
        "ral",
        -9.348853599446883
      ],
      [
        "▁fils",
        -9.349319189234006
      ],
      [
        "▁T",
        -9.349688134922154
      ],
      [
        "▁jeu",
        -9.351063563395854
      ],
      [
        "ewul",
        -9.35144921026371
      ],
      [
        "▁wuti",
        -9.351969546297507
      ],
      [
        "▁hautes",
        -9.352216014715815
      ],
      [
        "▁telle",
        -9.352314570557832
      ],
      [
        "▁men",
        -9.352906230543105
      ],
      [
        "▁partira",
        -9.354105915464451
      ],
      [
        "venir",
        -9.357470818804604
      ],
      [
        "▁connais",
        -9.357505321069656
      ],
      [
        "▁Fan",
        -9.360132890435287
      ],
      [
        "wu",
        -9.360315740704431
      ],
      [
        "▁garçons",
        -9.361185834477926
      ],
      [
        "▁kon",
        -9.361561920136632
      ],
      [
        "lle",
        -9.366295455640907
      ],
      [
        "▁eû",
        -9.366581361461666
      ],
      [
        "▁Ou",
        -9.366826220829353
      ],
      [
        "▁Fi",
        -9.368923106801876
      ],
      [
        "▁meloon",
        -9.36895694679369
      ],
      [
        "▁xëcc",
        -9.369698354413998
      ],
      [
        "▁s'agi",
        -9.369716808705387
      ],
      [
        "▁ñëwul",
        -9.369939376036239
      ],
      [
        "▁gan",
        -9.372349475787015
      ],
      [
        "euse",
        -9.37295911207003
      ],
      [
        "▁tefes",
        -9.37476348793001
      ],
      [
        "▁partes",
        -9.37533673033293
      ],
      [
        "aw",
        -9.379672865997627
      ],
      [
        "▁avais",
        -9.379848011388189
      ],
      [
        "▁do",
        -9.380877852376049
      ],
      [
        "▁garabi",
        -9.38123031292933
      ],
      [
        "eŋ",
        -9.38391386906175
      ],
      [
        "▁Saa",
        -9.392593329877016
      ],
      [
        "▁soi",
        -9.39266356908347
      ],
      [
        "▁doo",
        -9.393067646074135
      ],
      [
        "▁R",
        -9.39451004779226
      ],
      [
        "▁Ki",
        -9.395562826928076
      ],
      [
        "ès",
        -9.399146989303858
      ],
      [
        "▁cour",
        -9.402059192461316
      ],
      [
        "▁jusqu'au",
        -9.410218983878599
      ],
      [
        "▁table",
        -9.41042835049774
      ],
      [
        "▁kee",
        -9.410524440410054
      ],
      [
        "ète",
        -9.410792469350156
      ],
      [
        "▁froid",
        -9.41740522784692
      ],
      [
        "▁pris",
        -9.417411839748002
      ],
      [
        "éy",
        -9.41769437276813
      ],
      [
        "▁entrai",
        -9.424062230295279
      ],
      [
        "tes",
        -9.42788198730124
      ],
      [
        "▁bol",
        -9.428527139760845
      ],
      [
        "mbaar",
        -9.429585677794888
      ],
      [
        "▁nom",
        -9.430445908536878
      ],
      [
        "▁wan",
        -9.43049186064605
      ],
      [
        "réer",
        -9.430573698888209
      ],
      [
        "▁visage",
        -9.431557859459293
      ],
      [
        "▁waxtaan",
        -9.432327856239766
      ],
      [
        "!",
        -9.43351995900921
      ],
      [
        "'avez",
        -9.434161478498503
      ],
      [
        "▁bool",
        -9.434842720226257
      ],
      [
        "okk",
        -9.439555129669884
      ],
      [
        "quel",
        -9.441526024989402
      ],
      [
        "▁pou",
        -9.44413864457662
      ],
      [
        "▁ét",
        -9.445939673737296
      ],
      [
        "û",
        -9.446579034327208
      ],
      [
        "▁entier",
        -9.446698557204659
      ],
      [
        "▁dënn",
        -9.447054693883144
      ],
      [
        "▁foo",
        -9.447736279486284
      ],
      [
        "▁tekk",
        -9.447741446839101
      ],
      [
        "▁ton",
        -9.448219961370029
      ],
      [
        "▁palanteer",
        -9.448423390471495
      ],
      [
        "▁ciment",
        -9.448668196017191
      ],
      [
        "▁juste",
        -9.449528639747578
      ],
      [
        "▁yegg",
        -9.449661775084413
      ],
      [
        "▁Sénégal",
        -9.449717688586677
      ],
      [
        "▁drap",
        -9.44981311128289
      ],
      [
        "éjà",
        -9.449892360859996
      ],
      [
        "▁Aujourd'hui",
        -9.450143247740593
      ],
      [
        "▁Biyaafaraa",
        -9.450143247746126
      ],
      [
        "▁wëndéelu",
        -9.450143247753658
      ],
      [
        "▁médicaments",
        -9.450143247790997
      ],
      [
        "▁d'Afrique",
        -9.45014324798419
      ],
      [
        "▁bëj-gànnaar",
        -9.450143248070521
      ],
      [
        "▁yëngu",
        -9.450143248330079
      ],
      [
        "▁savane",
        -9.450143249462094
      ],
      [
        "▁lëndëm",
        -9.450143249997726
      ],
      [
        "▁Senegaal",
        -9.45014326011517
      ],
      [
        "▁sowu-jant",
        -9.45014326554159
      ],
      [
        "▁société",
        -9.450143274483448
      ],
      [
        "▁bànneex",
        -9.450143282136539
      ],
      [
        "▁Jamono",
        -9.450143345560676
      ],
      [
        "▁reconna",
        -9.450143384879404
      ],
      [
        "▁jàmm",
        -9.450143623372268
      ],
      [
        "▁Ainsi",
        -9.450146148956453
      ],
      [
        "▁paaka",
        -9.450147199404213
      ],
      [
        "▁yow",
        -9.450147791555677
      ],
      [
        "▁comport",
        -9.450149213868407
      ],
      [
        "▁lampe",
        -9.450152898631917
      ],
      [
        "▁insectes",
        -9.450153697179903
      ],
      [
        "▁cosaan",
        -9.450158248291496
      ],
      [
        "▁Sérère",
        -9.450160297790863
      ],
      [
        "▁Almaañ",
        -9.450168129141451
      ],
      [
        "▁Déedéet",
        -9.450182415891117
      ],
      [
        "▁l'âge",
        -9.4501827790371
      ],
      [
        "▁chaleur",
        -9.450190104446925
      ],
      [
        "▁naqar",
        -9.450192341756892
      ],
      [
        "▁baraada",
        -9.450225469674965
      ],
      [
        "-t-il",
        -9.45024789678886
      ],
      [
        "▁longtemps",
        -9.450248003435266
      ],
      [
        "▁parfois",
        -9.450261920948424
      ],
      [
        "▁wanag",
        -9.450272885647149
      ],
      [
        "▁Ici",
        -9.450282588289195
      ],
      [
        "▁wow",
        -9.450304850185535
      ],
      [
        "▁gémmiñ",
        -9.450432908057618
      ],
      [
        "▁woowe",
        -9.450442891208223
      ],
      [
        "▁ràbb",
        -9.450527398026692
      ],
      [
        "▁étions",
        -9.450583137888994
      ],
      [
        "▁Toi",
        -9.450643586099977
      ],
      [
        "▁Teewul",
        -9.450692760905131
      ],
      [
        "▁ŋgoon",
        -9.450724527607932
      ],
      [
        "▁jaŋg",
        -9.450952066322749
      ],
      [
        "▁weñ",
        -9.451355398725273
      ],
      [
        "▁mar",
        -9.451493192574535
      ],
      [
        "▁sànni",
        -9.45160767307269
      ],
      [
        "▁côte",
        -9.451618329771351
      ],
      [
        "▁alors",
        -9.451714140907999
      ],
      [
        "▁donc",
        -9.451749130835093
      ],
      [
        "▁yar",
        -9.451843510661826
      ],
      [
        "▁Niis",
        -9.451873016406648
      ],
      [
        "▁booba",
        -9.452769616560179
      ],
      [
        "▁nan",
        -9.452803759968415
      ],
      [
        "▁demande",
        -9.452923693717796
      ],
      [
        "ëgg",
        -9.452966045429156
      ],
      [
        "▁place",
        -9.453019991302751
      ],
      [
        "▁pourtant",
        -9.453073118901152
      ],
      [
        "▁tukki",
        -9.453089801389899
      ],
      [
        "▁parlé",
        -9.45316298971123
      ],
      [
        "▁Doo",
        -9.453280864920776
      ],
      [
        "▁meubles",
        -9.453621642408077
      ],
      [
        "▁rek",
        -9.453673464538253
      ],
      [
        "▁mucc",
        -9.453973878655146
      ],
      [
        "▁ñooñu",
        -9.454167054254967
      ],
      [
        "oom",
        -9.45442365109167
      ],
      [
        "▁lakk",
        -9.454562806436789
      ],
      [
        "▁gisaat",
        -9.454594152091076
      ],
      [
        "▁ñaan",
        -9.455084593737489
      ],
      [
        "▁objets",
        -9.455301116486119
      ],
      [
        "▁Alma",
        -9.455457122735337
      ],
      [
        "▁bula",
        -9.456645276279257
      ],
      [
        "▁lieux",
        -9.456670763404635
      ],
      [
        "▁enfance",
        -9.456929618615643
      ],
      [
        "▁ceci",
        -9.457501973619745
      ],
      [
        "ton",
        -9.4579037810824
      ],
      [
        "▁Fii",
        -9.458323218997204
      ],
      [
        "▁Noon",
        -9.458499423430444
      ],
      [
        "▁sew",
        -9.459529208710537
      ],
      [
        "▁fleurs",
        -9.45958707054557
      ],
      [
        "▁alal",
        -9.460491838812791
      ],
      [
        "▁donne",
        -9.46069426788939
      ],
      [
        "▁Tay",
        -9.461951516139388
      ],
      [
        "▁bâtons",
        -9.462008167135483
      ],
      [
        "▁m'en",
        -9.46277025140876
      ],
      [
        "▁fukk",
        -9.465270396377987
      ],
      [
        "▁këram",
        -9.470700433786654
      ],
      [
        "Après",
        -9.472146762945131
      ],
      [
        "▁ra",
        -9.474853898083143
      ],
      [
        "▁viennes",
        -9.479601709087703
      ],
      [
        "▁serai",
        -9.481186027478937
      ],
      [
        "▁bees",
        -9.482322180253082
      ],
      [
        "▁petits",
        -9.483473251084236
      ],
      [
        "▁Nda",
        -9.483801882178405
      ],
      [
        "▁jeunes",
        -9.487249073330446
      ],
      [
        "ter",
        -9.488111368655161
      ],
      [
        "▁waral",
        -9.488459569933312
      ],
      [
        "▁rey",
        -9.491418575767353
      ],
      [
        "el",
        -9.491720264375218
      ],
      [
        "▁vas",
        -9.497119101598631
      ],
      [
        "nde",
        -9.500933871546316
      ],
      [
        "es.",
        -9.5033163423018
      ],
      [
        "▁teew",
        -9.504974595690344
      ],
      [
        "▁yat",
        -9.506468556595406
      ],
      [
        "▁routes",
        -9.50840068750879
      ],
      [
        "aale",
        -9.509130230061395
      ],
      [
        "▁kay",
        -9.510841718816717
      ],
      [
        "een",
        -9.51304461627074
      ],
      [
        "part",
        -9.515162813668635
      ],
      [
        "ëf",
        -9.51677413601867
      ],
      [
        "tendre",
        -9.517550165571892
      ],
      [
        "ou",
        -9.51972009807307
      ],
      [
        "▁dakk",
        -9.520107174137861
      ],
      [
        "▁Ñoo",
        -9.52157877771443
      ],
      [
        "▁fee",
        -9.521587517568907
      ],
      [
        "▁Ya",
        -9.523032355169326
      ],
      [
        "▁sou",
        -9.523440899666973
      ],
      [
        "▁wute",
        -9.523555260717817
      ],
      [
        "▁Ri",
        -9.52361106016572
      ],
      [
        "▁gise",
        -9.523734397534634
      ],
      [
        "▁wa",
        -9.525304112355258
      ],
      [
        "pp",
        -9.526369830948921
      ],
      [
        "▁tas",
        -9.530949418167292
      ],
      [
        "▁bleu",
        -9.531544450493943
      ],
      [
        "aux",
        -9.533048478065993
      ],
      [
        "z",
        -9.537563586495384
      ],
      [
        "▁far",
        -9.538758832815063
      ],
      [
        "▁në",
        -9.539722720586163
      ],
      [
        "▁rêve",
        -9.541114986139
      ],
      [
        "▁set",
        -9.542023588978209
      ],
      [
        "▁nature",
        -9.543835177175618
      ],
      [
        "an",
        -9.544110706712976
      ],
      [
        "▁j'en",
        -9.546710374573433
      ],
      [
        "▁tool",
        -9.546894397730854
      ],
      [
        "▁janoo",
        -9.546960209285063
      ],
      [
        "▁elles",
        -9.548184583354091
      ],
      [
        "impression",
        -9.548780132023182
      ],
      [
        "dé",
        -9.55026336693605
      ],
      [
        "ngi",
        -9.55169561603113
      ],
      [
        "▁tête",
        -9.552402160182037
      ],
      [
        "▁africain",
        -9.553808995891888
      ],
      [
        "▁pied",
        -9.5563484056601
      ],
      [
        "▁montagne",
        -9.556447656150725
      ],
      [
        "▁gardé",
        -9.557196120928939
      ],
      [
        "▁Re",
        -9.558036237789828
      ],
      [
        "▁tóo",
        -9.563152086740915
      ],
      [
        "▁guy",
        -9.564838945250482
      ],
      [
        "▁nopp",
        -9.565364630829865
      ],
      [
        "maana",
        -9.565394438117345
      ],
      [
        "▁v",
        -9.565456669113289
      ],
      [
        "▁jën",
        -9.56669590073878
      ],
      [
        "▁not",
        -9.567191256479207
      ],
      [
        "mi",
        -9.569089128770093
      ],
      [
        "▁instant",
        -9.57145861726116
      ],
      [
        "gré",
        -9.572167950729485
      ],
      [
        "▁yilif",
        -9.572734200644351
      ],
      [
        "ax",
        -9.573687925889402
      ],
      [
        "▁Victoria",
        -9.575143247749699
      ],
      [
        "▁L'Afrique",
        -9.575143247749768
      ],
      [
        "▁Léeg-léeg",
        -9.575143247756724
      ],
      [
        "▁kéemaane",
        -9.575143247927778
      ],
      [
        "▁yëngal",
        -9.575143248100495
      ],
      [
        "▁mauvais",
        -9.575143248646988
      ],
      [
        "▁xàmmee",
        -9.5751432507675
      ],
      [
        "▁assurément",
        -9.575143255299821
      ],
      [
        "▁accroché",
        -9.575143260021504
      ],
      [
        "▁ensemble",
        -9.575143260838576
      ],
      [
        "▁pantalon",
        -9.575143399794618
      ],
      [
        "▁Monsieur",
        -9.575143411116258
      ],
      [
        "▁xaalis",
        -9.575143706099956
      ],
      [
        "▁Laobé",
        -9.575143803047663
      ],
      [
        "▁chaussettes",
        -9.575144972442065
      ],
      [
        "▁Legoos",
        -9.575150271226207
      ],
      [
        "▁présent",
        -9.575159442893014
      ],
      [
        "▁janeer",
        -9.575167354472342
      ],
      [
        "▁puissance",
        -9.575169147700722
      ],
      [
        "▁palaat",
        -9.575170523347296
      ],
      [
        "▁keroog",
        -9.575173847911277
      ],
      [
        "▁plein",
        -9.575178008290646
      ],
      [
        "▁Réew",
        -9.575179200453807
      ],
      [
        "▁dernier",
        -9.575183461577579
      ],
      [
        "▁l'amour",
        -9.575200771250081
      ],
      [
        "▁frontière",
        -9.57522524475712
      ],
      [
        "▁douceur",
        -9.575261441499956
      ],
      [
        "▁colère",
        -9.575300117556857
      ],
      [
        "▁départ",
        -9.575348080856052
      ],
      [
        "▁lonk",
        -9.575432177128038
      ],
      [
        "▁Musaa",
        -9.575485769017337
      ],
      [
        "▁proche",
        -9.575487003169446
      ],
      [
        "▁Officer",
        -9.575505921136635
      ],
      [
        "▁Dëkk",
        -9.575555683575882
      ],
      [
        "▁bouche",
        -9.57561910874858
      ],
      [
        "▁dénd",
        -9.57577787417104
      ],
      [
        "▁fajkat",
        -9.575952981646783
      ],
      [
        "▁Nice",
        -9.57611522879056
      ],
      [
        "▁genn",
        -9.576146790722799
      ],
      [
        "▁bekk",
        -9.57651478538225
      ],
      [
        "▁prend",
        -9.576580049287886
      ],
      [
        "▁goût",
        -9.576960994201851
      ],
      [
        "▁cœur",
        -9.576962278094364
      ],
      [
        "▁Buur",
        -9.577367506991362
      ],
      [
        "▁yëf",
        -9.577397424460408
      ],
      [
        "▁Dañ",
        -9.577469478503588
      ],
      [
        "▁riir",
        -9.577693685709548
      ],
      [
        "▁yenu",
        -9.577716579934
      ],
      [
        "▁gejje",
        -9.57774219233892
      ],
      [
        "▁l'entr",
        -9.577873417470864
      ],
      [
        "▁Kookule",
        -9.577907788687316
      ],
      [
        "▁Cha",
        -9.578261232648964
      ],
      [
        "▁vais",
        -9.578611573548786
      ],
      [
        "▁viennent",
        -9.579322347616769
      ],
      [
        "▁Sunu",
        -9.579509868651439
      ],
      [
        "▁compte",
        -9.579549490913879
      ],
      [
        "▁ndey",
        -9.579772505862373
      ],
      [
        "▁tar",
        -9.580352074564326
      ],
      [
        "▁sës",
        -9.580363249664208
      ],
      [
        "▁car",
        -9.581644205137396
      ],
      [
        "▁mill",
        -9.581886396216287
      ],
      [
        "▁unique",
        -9.581957585346869
      ],
      [
        "▁Wu",
        -9.582083661362486
      ],
      [
        "▁regarder",
        -9.582517630261652
      ],
      [
        "istrict",
        -9.58257090209341
      ],
      [
        "▁waxtu",
        -9.582856997108438
      ],
      [
        "▁raay",
        -9.58292368227508
      ],
      [
        "▁boy",
        -9.583760217635026
      ],
      [
        "umes",
        -9.584660936254249
      ],
      [
        "▁bëggée",
        -9.584780466287652
      ],
      [
        "▁parents",
        -9.585476360975417
      ],
      [
        "▁cherche",
        -9.587240672499071
      ],
      [
        "▁jaune",
        -9.587579384430587
      ],
      [
        "▁sauvages",
        -9.587611103872174
      ],
      [
        "▁six",
        -9.588611932603385
      ],
      [
        "▁t'ai",
        -9.590633068424122
      ],
      [
        "▁êtes",
        -9.591160026614725
      ],
      [
        "▁sant",
        -9.594981032014951
      ],
      [
        "▁noms",
        -9.596171718644776
      ],
      [
        "▁waar",
        -9.598311558219974
      ],
      [
        "du",
        -9.60035520416073
      ],
      [
        "ables",
        -9.603149496305562
      ],
      [
        "as",
        -9.60383100535056
      ],
      [
        "▁kaas",
        -9.607057227542175
      ],
      [
        "▁Nu",
        -9.607463484992465
      ],
      [
        "ez-vous",
        -9.60796623159819
      ],
      [
        "▁beau",
        -9.608638185331426
      ],
      [
        "▁Woo",
        -9.609048430068302
      ],
      [
        "▁diis",
        -9.610708573647747
      ],
      [
        "▁Vas",
        -9.614574310614296
      ],
      [
        "ti",
        -9.61897304173921
      ],
      [
        "▁inter",
        -9.61958278566393
      ],
      [
        "▁peur",
        -9.621787562748962
      ],
      [
        "▁max",
        -9.622741947535504
      ],
      [
        "▁sor",
        -9.623092940721442
      ],
      [
        "▁Jën",
        -9.628773961289085
      ],
      [
        "▁sokolaa",
        -9.63058875378232
      ],
      [
        "nce",
        -9.631417686069746
      ],
      [
        "▁dalal",
        -9.632039608941328
      ],
      [
        "▁conti",
        -9.632078624771413
      ],
      [
        "cc",
        -9.63210100545312
      ],
      [
        "use",
        -9.6324353622878
      ],
      [
        "▁t'en",
        -9.633291854663065
      ],
      [
        "▁raconte",
        -9.63480919832058
      ],
      [
        "▁sonal",
        -9.635434148209123
      ],
      [
        "▁daawu",
        -9.636586983188906
      ],
      [
        "tion",
        -9.637132869789166
      ],
      [
        "▁noire.",
        -9.637582037230105
      ],
      [
        "▁luy",
        -9.638738057052013
      ],
      [
        "ient",
        -9.640762963153875
      ],
      [
        "garde",
        -9.64183683063532
      ],
      [
        "▁loo",
        -9.645073078124549
      ],
      [
        "ble",
        -9.645221521069832
      ],
      [
        "r.",
        -9.646873771085902
      ],
      [
        "▁lesquel",
        -9.650859619782441
      ],
      [
        "▁Tey",
        -9.654655261151275
      ],
      [
        "▁tub",
        -9.658714715662777
      ],
      [
        "kaay",
        -9.662924458023744
      ],
      [
        "▁yii",
        -9.664793864621313
      ],
      [
        "▁tày",
        -9.66662526242599
      ],
      [
        "▁retour",
        -9.67083756126361
      ],
      [
        "kom",
        -9.671695227393933
      ],
      [
        "▁pro",
        -9.6739829533728
      ],
      [
        "▁hu",
        -9.675654057402204
      ],
      [
        "bée",
        -9.677871134633252
      ],
      [
        "p",
        -9.679426436528312
      ],
      [
        "▁cee",
        -9.681228624920815
      ],
      [
        "ke",
        -9.681517911698101
      ],
      [
        "ay",
        -9.683514778906392
      ],
      [
        "▁jur",
        -9.684706248707982
      ],
      [
        "nn",
        -9.684832482962555
      ],
      [
        "oivent",
        -9.685401577690467
      ],
      [
        "▁siy",
        -9.685620997874027
      ],
      [
        "▁ré",
        -9.689542726916688
      ],
      [
        "▁dessin",
        -9.689789681830774
      ],
      [
        "▁met",
        -9.690832694193935
      ],
      [
        "autorité",
        -9.691012533994485
      ],
      [
        "▁gris",
        -9.69508604246614
      ],
      [
        "ngui",
        -9.69539437618379
      ],
      [
        "▁scorpion",
        -9.695445291974174
      ],
      [
        "▁français",
        -9.696849394799127
      ],
      [
        "▁vivre",
        -9.6977774891731
      ],
      [
        "▁Tou",
        -9.698742209531162
      ],
      [
        "ngóor",
        -9.699114769809825
      ],
      [
        "la",
        -9.699256883491705
      ],
      [
        "▁nëbb",
        -9.699274867434434
      ],
      [
        "▁pënd",
        -9.700810320889158
      ],
      [
        "ji",
        -9.701839600131166
      ],
      [
        "▁H",
        -9.702807088288962
      ],
      [
        "▁ñett",
        -9.709728648496045
      ],
      [
        "▁jafe",
        -9.711131310590076
      ],
      [
        "▁muur",
        -9.711802117025094
      ],
      [
        "▁jàkk",
        -9.713447381613506
      ],
      [
        "▁askan",
        -9.714272754803993
      ],
      [
        "▁pom",
        -9.715855276168025
      ],
      [
        "▁simple",
        -9.717360347188446
      ],
      [
        "▁pouvai",
        -9.717618873993947
      ],
      [
        "▁gouvernement",
        -9.718000390612664
      ],
      [
        "▁calebasse",
        -9.718000391108939
      ],
      [
        "▁gàncax",
        -9.718000392271922
      ],
      [
        "▁màndarga",
        -9.718000392377746
      ],
      [
        "▁rëcc",
        -9.718000392980187
      ],
      [
        "▁Óbudu",
        -9.718000396158692
      ],
      [
        "▁solitude",
        -9.718000400769498
      ],
      [
        "▁màrse",
        -9.718000404685103
      ],
      [
        "▁difficile",
        -9.718000408085622
      ],
      [
        "▁Ó",
        -9.71800040812481
      ],
      [
        "▁immense",
        -9.718000410548195
      ],
      [
        "▁Casamance",
        -9.718000412211522
      ],
      [
        "▁âge",
        -9.718000431594406
      ],
      [
        "▁époque",
        -9.718000432781189
      ],
      [
        "▁tôle",
        -9.718000436402244
      ],
      [
        "▁loppitaan",
        -9.71800044061756
      ],
      [
        "▁Liggéey",
        -9.71800044695163
      ],
      [
        "▁reconnu",
        -9.71800045226814
      ],
      [
        "▁bonheur",
        -9.718000479819736
      ],
      [
        "▁premier",
        -9.718000484566488
      ],
      [
        "▁Ayijoo",
        -9.718000502641452
      ],
      [
        "▁boeuf",
        -9.718000530023827
      ],
      [
        "▁sukkuraat",
        -9.718000624177835
      ],
      [
        "▁Yaakaar",
        -9.718000754497204
      ],
      [
        "▁dehors",
        -9.718000986160659
      ],
      [
        "▁visite",
        -9.718004244847851
      ],
      [
        "▁assiette",
        -9.718004321245012
      ],
      [
        "▁yànj",
        -9.718005129742517
      ],
      [
        "▁wurus",
        -9.718005665120828
      ],
      [
        "▁Deŋk",
        -9.718007269827098
      ],
      [
        "▁suukër",
        -9.718010568412964
      ],
      [
        "▁pañe",
        -9.718011629309501
      ],
      [
        "▁bâtiment",
        -9.718017075785781
      ],
      [
        "▁simoŋ",
        -9.718031112981986
      ],
      [
        "▁réalité",
        -9.718033947251415
      ],
      [
        "▁bett",
        -9.718035705042324
      ],
      [
        "▁mourir",
        -9.71804319452897
      ],
      [
        "▁Palais",
        -9.718050076205378
      ],
      [
        "▁dëgër",
        -9.718060081095311
      ],
      [
        "▁woto",
        -9.718060689209992
      ],
      [
        "▁juddoo",
        -9.718068349508565
      ],
      [
        "▁servir",
        -9.718073036483949
      ],
      [
        "▁mbedd",
        -9.718074521475739
      ],
      [
        "▁nelaw",
        -9.718075697036712
      ],
      [
        "▁campement",
        -9.718102596918778
      ],
      [
        "▁d'abord",
        -9.718106008044348
      ],
      [
        "▁croyai",
        -9.7181110491515
      ],
      [
        "▁l'Angleterre",
        -9.718127053578822
      ],
      [
        "▁yeksi",
        -9.71816912397375
      ],
      [
        "▁Fekk",
        -9.718169334316343
      ],
      [
        "▁plateaux",
        -9.718173157564106
      ],
      [
        "▁màndi",
        -9.718185431467285
      ],
      [
        "▁dessus",
        -9.71819343641054
      ],
      [
        "▁xeex",
        -9.718194333686437
      ],
      [
        "▁droit",
        -9.71822986991993
      ],
      [
        "kàlla",
        -9.718313345719114
      ],
      [
        "▁sowu",
        -9.718385715125244
      ],
      [
        "uukar",
        -9.71841692000255
      ],
      [
        "▁wépp",
        -9.718417323985845
      ],
      [
        "▁dajale",
        -9.71850513747021
      ],
      [
        "▁reçu",
        -9.718505987445207
      ],
      [
        "▁raglu",
        -9.718506067248995
      ],
      [
        "-do",
        -9.71873748287645
      ],
      [
        "▁Ayaa",
        -9.718741531731709
      ],
      [
        "odeur",
        -9.71878150144151
      ],
      [
        "▁jeeg",
        -9.71879783684788
      ],
      [
        "▁images",
        -9.718842463431734
      ],
      [
        "▁lëf",
        -9.718886185404115
      ],
      [
        "▁Pël",
        -9.718920861297674
      ],
      [
        "thme",
        -9.718924220473905
      ],
      [
        "▁porteurs",
        -9.718941813519681
      ],
      [
        "▁më",
        -9.71896159323602
      ],
      [
        "▁jàppale",
        -9.719050966124364
      ],
      [
        "ñeen",
        -9.719125457743463
      ],
      [
        "▁moto",
        -9.719407227754889
      ],
      [
        "▁Plu",
        -9.71952403916805
      ],
      [
        "▁ensuite",
        -9.719570581003714
      ],
      [
        "▁couteau",
        -9.719686404123212
      ],
      [
        "▁courant",
        -9.71971853153493
      ],
      [
        "▁propre",
        -9.719722824464988
      ],
      [
        "▁ventre",
        -9.71994442039312
      ],
      [
        "▁woy",
        -9.719987173868963
      ],
      [
        "▁palmes",
        -9.720050367546307
      ],
      [
        "▁sens",
        -9.720066052117398
      ],
      [
        "▁vêtu",
        -9.72011906435656
      ],
      [
        "▁termites",
        -9.720283169724205
      ],
      [
        "▁wàll",
        -9.720319454377238
      ],
      [
        "▁nuages",
        -9.720478514512168
      ],
      [
        "▁denc",
        -9.720867621027116
      ],
      [
        "▁Fais",
        -9.72089264511253
      ],
      [
        "▁Parle",
        -9.720903632387776
      ],
      [
        "▁naqadi",
        -9.72091494460129
      ],
      [
        "▁tour",
        -9.721028768838114
      ],
      [
        "▁kukk",
        -9.7211046563192
      ],
      [
        "-je",
        -9.72120930023879
      ],
      [
        "▁depuis",
        -9.721255281986688
      ],
      [
        "▁laisser",
        -9.721870270651793
      ],
      [
        "▁vaste",
        -9.722144676047996
      ],
      [
        "▁district",
        -9.722173860826798
      ],
      [
        "▁Foofu",
        -9.722449228201612
      ],
      [
        "▁chaise",
        -9.722931394590201
      ],
      [
        "▁seng",
        -9.722982073755624
      ],
      [
        "▁sorti",
        -9.72298678526599
      ],
      [
        "▁d'eux",
        -9.723343122137484
      ],
      [
        "▁danu",
        -9.723508989297407
      ],
      [
        "▁dirait",
        -9.723667285290585
      ],
      [
        "▁xoolee",
        -9.724030852675101
      ],
      [
        "▁àngale",
        -9.724044009700412
      ],
      [
        "▁chasse",
        -9.724268953359926
      ],
      [
        "▁soppi",
        -9.724845641945922
      ],
      [
        "▁fuir",
        -9.725038902590729
      ],
      [
        "▁cours",
        -9.725281240557663
      ],
      [
        "▁jag",
        -9.726314316932086
      ],
      [
        "▁cru",
        -9.727988138253238
      ],
      [
        "▁ňuul",
        -9.728314711176948
      ],
      [
        "espère",
        -9.729124133841955
      ],
      [
        "exe",
        -9.730221887728021
      ],
      [
        "▁wane",
        -9.730732609883674
      ],
      [
        "▁provi",
        -9.73074328338997
      ],
      [
        "▁jàn",
        -9.731416652242377
      ],
      [
        "ande",
        -9.732459433027554
      ],
      [
        "▁anglaise",
        -9.73257927949118
      ],
      [
        "▁defare",
        -9.733051993809992
      ],
      [
        "▁mukk",
        -9.733284564099783
      ],
      [
        "▁yaak",
        -9.734458029560564
      ],
      [
        "▁kowam",
        -9.734502458582114
      ],
      [
        "▁chemins",
        -9.73598302834224
      ],
      [
        "lo",
        -9.736051818552422
      ],
      [
        "▁mbë",
        -9.736203381086735
      ],
      [
        "▁comment",
        -9.736385829778959
      ],
      [
        "-mo",
        -9.736738382109941
      ],
      [
        "▁regardes",
        -9.737088009082587
      ],
      [
        "▁coloniale",
        -9.737692880984483
      ],
      [
        "oir",
        -9.738619592338667
      ],
      [
        "▁photos",
        -9.739429494513715
      ],
      [
        "▁française",
        -9.739607557416162
      ],
      [
        "▁ñibbi",
        -9.741785385693337
      ],
      [
        "▁gros",
        -9.746234268317128
      ],
      [
        "▁doxe",
        -9.746479016271756
      ],
      [
        "▁crise",
        -9.747103687085632
      ],
      [
        "▁wutal",
        -9.747149746148825
      ],
      [
        "▁arrivés",
        -9.747246107770227
      ],
      [
        "▁tànki",
        -9.748613682009601
      ],
      [
        "▁Yan",
        -9.750130863431767
      ],
      [
        "▁premières",
        -9.752693031463462
      ],
      [
        "▁refuse",
        -9.752822132226983
      ],
      [
        "▁siiw",
        -9.760920154270574
      ],
      [
        "▁aar",
        -9.761122487699017
      ],
      [
        "▁ñen",
        -9.76133583732656
      ],
      [
        "▁waxoon",
        -9.764284402348014
      ],
      [
        "aay",
        -9.765016056476671
      ],
      [
        "▁all",
        -9.767207116533651
      ],
      [
        "▁bo",
        -9.76753542930853
      ],
      [
        "ns",
        -9.769236259702907
      ],
      [
        "▁lim",
        -9.770103010656939
      ],
      [
        "▁commence",
        -9.771058720990318
      ],
      [
        "▁mari",
        -9.772563177716954
      ],
      [
        "▁saba",
        -9.772838892431626
      ],
      [
        "▁jàngal",
        -9.773169283850471
      ],
      [
        "▁donn",
        -9.777323380582216
      ],
      [
        "sse",
        -9.77788270111993
      ],
      [
        "aanaka",
        -9.779097555144574
      ],
      [
        "rie",
        -9.780592907168835
      ],
      [
        "▁ñooña",
        -9.781589939481776
      ],
      [
        "▁ven",
        -9.7860526559003
      ],
      [
        "éeri",
        -9.787110517832208
      ],
      [
        "▁L'un",
        -9.787313256312412
      ],
      [
        "vient",
        -9.788570515517033
      ],
      [
        "▁Ji",
        -9.791492368174502
      ],
      [
        "▁parc",
        -9.792057659565101
      ],
      [
        "▁masuma",
        -9.793410242824903
      ],
      [
        "▁arrivée",
        -9.794107102497424
      ],
      [
        "ku",
        -9.796573616761483
      ],
      [
        "▁l'avai",
        -9.79799046568262
      ],
      [
        "óor",
        -9.799617502044649
      ],
      [
        "sait",
        -9.799777976662526
      ],
      [
        "▁jo",
        -9.799956168152791
      ],
      [
        "▁ndi",
        -9.801313350792082
      ],
      [
        "tends",
        -9.802207843979858
      ],
      [
        "▁taabal",
        -9.804361527378838
      ],
      [
        "▁jànq",
        -9.804546212339757
      ],
      [
        "ni",
        -9.80469480470658
      ],
      [
        "▁dàq",
        -9.805426848612463
      ],
      [
        "li",
        -9.806223596642687
      ],
      [
        "ches",
        -9.807507745451222
      ],
      [
        "▁kowe",
        -9.80832089112106
      ],
      [
        "▁boue",
        -9.808863938435644
      ],
      [
        "▁rue",
        -9.809845909722135
      ],
      [
        "▁fall",
        -9.809969605176528
      ],
      [
        "est",
        -9.81000533057867
      ],
      [
        "▁nak",
        -9.810401457474832
      ],
      [
        "▁No",
        -9.814255845264954
      ],
      [
        "mu",
        -9.816377339477814
      ],
      [
        "▁Jo",
        -9.817360742443642
      ],
      [
        "image",
        -9.81952326642045
      ],
      [
        "▁noire",
        -9.820549719205538
      ],
      [
        "▁nañoo",
        -9.821451691704691
      ],
      [
        "▁kàttan",
        -9.822386295309318
      ],
      [
        "ure",
        -9.822564494788393
      ],
      [
        "ññ",
        -9.822927744758053
      ],
      [
        "ool",
        -9.823451781264216
      ],
      [
        "▁ressenti",
        -9.823745944315691
      ],
      [
        "-elle",
        -9.8253400391905
      ],
      [
        "niki",
        -9.826681931749325
      ],
      [
        "près",
        -9.828243180282282
      ],
      [
        "sin",
        -9.828765756233551
      ],
      [
        "aas",
        -9.830124466221953
      ],
      [
        "eel",
        -9.83100746756065
      ],
      [
        "▁faite",
        -9.831837110971641
      ],
      [
        "▁taal",
        -9.834648766893782
      ],
      [
        "▁xamant",
        -9.838868349733076
      ],
      [
        "ène",
        -9.842706278553894
      ],
      [
        "andoo",
        -9.843972629398838
      ],
      [
        "▁Mas",
        -9.844398400888457
      ],
      [
        "▁nja",
        -9.844459881242907
      ],
      [
        "ici",
        -9.851369718655498
      ],
      [
        "endant",
        -9.85160231505622
      ],
      [
        "▁mb",
        -9.854318133405808
      ],
      [
        "▁tab",
        -9.855148216157906
      ],
      [
        "▁pa",
        -9.855720888717359
      ],
      [
        "celle",
        -9.857110547846771
      ],
      [
        "▁destin",
        -9.861345117830671
      ],
      [
        "▁Ka",
        -9.862699866959105
      ],
      [
        "▁fenêtre",
        -9.863130926962198
      ],
      [
        "▁d'autre",
        -9.863913237134739
      ],
      [
        "▁colonial",
        -9.864564906012284
      ],
      [
        "▁l'ét",
        -9.86457708372625
      ],
      [
        "▁coupé",
        -9.864703197733494
      ],
      [
        "▁chef",
        -9.864815826646753
      ],
      [
        "▁maladie",
        -9.86522128454824
      ],
      [
        "▁duma",
        -9.865610563028353
      ],
      [
        "▁chemin",
        -9.866317502353649
      ],
      [
        "ar",
        -9.86713361738941
      ],
      [
        "▁anglais",
        -9.867719403941935
      ],
      [
        "▁étranger",
        -9.868359480867563
      ],
      [
        "'individu",
        -9.869647003781052
      ],
      [
        "ŋŋ",
        -9.871494166233843
      ],
      [
        "▁regarde",
        -9.872107885469736
      ],
      [
        "▁juróom",
        -9.87501493253652
      ],
      [
        "▁bir",
        -9.87556190462149
      ],
      [
        "x-ci",
        -9.876095476254173
      ],
      [
        "▁xob",
        -9.876744281274837
      ],
      [
        "▁sago",
        -9.876988726132817
      ],
      [
        "▁sopp",
        -9.877105758409332
      ],
      [
        "▁suñ",
        -9.878654263815395
      ],
      [
        "▁V",
        -9.87923108684512
      ],
      [
        "▁habit",
        -9.879553998050012
      ],
      [
        "bu",
        -9.880166630802375
      ],
      [
        "▁frapp",
        -9.88288037545853
      ],
      [
        "▁aime",
        -9.883194522830024
      ],
      [
        "▁tiit",
        -9.883275498312395
      ],
      [
        "▁féex",
        -9.883456435703353
      ],
      [
        "añse",
        -9.88359002505323
      ],
      [
        "▁chapeau",
        -9.883926242989958
      ],
      [
        "errière",
        -9.884052572697062
      ],
      [
        "▁mbind",
        -9.88464156685275
      ],
      [
        "8",
        -9.884644298683327
      ],
      [
        "▁accompagné",
        -9.884667057273525
      ],
      [
        "▁Wiktoryaa",
        -9.884667057273536
      ],
      [
        "▁auparavant",
        -9.884667057278904
      ],
      [
        "▁dëggëntaan",
        -9.884667057303114
      ],
      [
        "▁petorool",
        -9.884667057309027
      ],
      [
        "▁Mellentaan",
        -9.884667057636268
      ],
      [
        "▁territoire",
        -9.884667059606084
      ],
      [
        "▁dóomu-taal",
        -9.884667062367035
      ],
      [
        "▁dëgg-dëgg",
        -9.884667064112561
      ],
      [
        "▁règle",
        -9.884667065549543
      ],
      [
        "▁officer",
        -9.884667067285891
      ],
      [
        "▁rideau",
        -9.884667071517473
      ],
      [
        "▁l'époque",
        -9.884667075724291
      ],
      [
        "▁ngëlén",
        -9.884667075902493
      ],
      [
        "▁ponkal",
        -9.884667086146209
      ],
      [
        "▁jaxasoo",
        -9.884667093295432
      ],
      [
        "▁chemise",
        -9.884667150388205
      ],
      [
        "▁coiff",
        -9.884667199228804
      ],
      [
        "▁veulent",
        -9.884667390119139
      ],
      [
        "▁tàmm",
        -9.884667421934598
      ],
      [
        "▁chacun",
        -9.884667470194872
      ],
      [
        "▁caaxaan",
        -9.884667599790335
      ],
      [
        "▁rêvé",
        -9.88466769000837
      ],
      [
        "▁désert",
        -9.884667728128798
      ],
      [
        "▁adulte",
        -9.884667922266377
      ],
      [
        "▁vingt",
        -9.884668195272218
      ],
      [
        "▁000",
        -9.88466829744288
      ],
      [
        "▁Waxtaan",
        -9.884669447967497
      ],
      [
        "▁ressens",
        -9.88467019254852
      ],
      [
        "▁féete",
        -9.884670805044765
      ],
      [
        "▁Africains",
        -9.884671561429561
      ],
      [
        "▁xibaar",
        -9.884672158464868
      ],
      [
        "▁Génn",
        -9.88467264125418
      ],
      [
        "▁Lagos",
        -9.88467310767351
      ],
      [
        "▁d'autrefois",
        -9.884673298735311
      ],
      [
        "▁contact",
        -9.884679468378444
      ],
      [
        "▁jékkee-j",
        -9.884682221494007
      ],
      [
        "▁njël",
        -9.884682726046048
      ],
      [
        "▁Wolof",
        -9.884682936997642
      ],
      [
        "▁lonet",
        -9.884683478144126
      ],
      [
        "▁construction",
        -9.884685149476708
      ],
      [
        "▁fetal",
        -9.884685839181731
      ],
      [
        "▁commun",
        -9.884687256227483
      ],
      [
        "▁vérité",
        -9.884687338870037
      ],
      [
        "▁égale",
        -9.88468884920673
      ],
      [
        "▁séq",
        -9.884690201810404
      ],
      [
        "▁domaine",
        -9.884701092630642
      ],
      [
        "▁cheveux",
        -9.884703919053898
      ],
      [
        "▁jumtukaay",
        -9.884708292117661
      ],
      [
        "▁peinture",
        -9.884716224991063
      ],
      [
        "▁werante",
        -9.884730781212436
      ],
      [
        "▁léeb",
        -9.884746174086782
      ],
      [
        "▁début",
        -9.884754540877175
      ],
      [
        "▁mbokk",
        -9.884770307998167
      ],
      [
        "▁sotti",
        -9.884778253914444
      ],
      [
        "▁j'imagine",
        -9.884789250223852
      ],
      [
        "▁Port",
        -9.884817103049865
      ],
      [
        "▁gox",
        -9.8848235460466
      ],
      [
        "▁cofeel",
        -9.884830881127613
      ],
      [
        "▁jabar",
        -9.884847988380447
      ],
      [
        "▁Donne",
        -9.884848825348326
      ],
      [
        "▁légère",
        -9.884853626721362
      ],
      [
        "▁d'esprit",
        -9.884861259708607
      ],
      [
        "▁wéet",
        -9.88489056362612
      ],
      [
        "existe",
        -9.884978607097654
      ],
      [
        "▁sëkk",
        -9.884983385500519
      ],
      [
        "▁courir",
        -9.885033364190907
      ],
      [
        "▁chocolatée",
        -9.885053083365875
      ],
      [
        "▁meňň",
        -9.885072495098715
      ],
      [
        "▁Tugël",
        -9.885183452689258
      ],
      [
        "▁partout",
        -9.885211992741041
      ],
      [
        "▁taamu",
        -9.885249189634877
      ],
      [
        "▁njabootam",
        -9.885278408781849
      ],
      [
        "▁seetaan",
        -9.885360369938763
      ],
      [
        "▁gunge",
        -9.885365465567519
      ],
      [
        "▁journée",
        -9.885471945676107
      ],
      [
        "▁malade",
        -9.885498633435038
      ],
      [
        "▁Aro",
        -9.885549902718669
      ],
      [
        "▁certainement",
        -9.88560301263856
      ],
      [
        "▁kawas",
        -9.8856197880021
      ],
      [
        "▁baaraam",
        -9.885651371022309
      ],
      [
        "▁revenir",
        -9.885749333877245
      ],
      [
        "▁connaissent",
        -9.885772990702815
      ],
      [
        "▁coucher",
        -9.885802820649461
      ],
      [
        "▁l'aventure",
        -9.885836608027383
      ],
      [
        "▁jouer",
        -9.885878234632665
      ],
      [
        "▁brousse",
        -9.885990788130243
      ],
      [
        "lon",
        -9.88601753866168
      ],
      [
        "▁tàngaay",
        -9.886026123685859
      ],
      [
        "▁mangé",
        -9.886027061646299
      ],
      [
        "▁tata",
        -9.886035186907987
      ],
      [
        "▁taaru",
        -9.88634646827541
      ],
      [
        "▁néew",
        -9.886483845281132
      ],
      [
        "▁taw",
        -9.886496962429229
      ],
      [
        "▁ñor",
        -9.886582308262662
      ],
      [
        "▁comprends",
        -9.886599229390347
      ],
      [
        "▁travailleurs",
        -9.886646465284134
      ],
      [
        "▁déet",
        -9.886719076207106
      ],
      [
        "▁écrit",
        -9.88679339604748
      ],
      [
        "▁habitants",
        -9.88689987578925
      ],
      [
        "▁tolloo",
        -9.887017739589888
      ],
      [
        "▁démb",
        -9.887160861491857
      ],
      [
        "▁Obudu",
        -9.8872024365997
      ],
      [
        "▁histoire",
        -9.887204592896335
      ],
      [
        "▁agsi",
        -9.887259557735408
      ],
      [
        "▁thé",
        -9.88729835586735
      ],
      [
        "▁soosu",
        -9.887309028265683
      ],
      [
        "▁ñaxtu",
        -9.887535442478722
      ],
      [
        "▁arrêté",
        -9.887826287097484
      ],
      [
        "▁fût",
        -9.887873436233539
      ],
      [
        "▁juum",
        -9.88814976346108
      ],
      [
        "▁yéene",
        -9.888186318590073
      ],
      [
        "▁tontu",
        -9.88819421036273
      ],
      [
        "▁tàngal",
        -9.888523120492199
      ],
      [
        "▁autre-là",
        -9.888544513761838
      ],
      [
        "▁yéemu",
        -9.888597213990458
      ],
      [
        "bi",
        -9.88869615520813
      ],
      [
        "▁sanc",
        -9.888929164768593
      ],
      [
        "▁kafe",
        -9.88974344155477
      ],
      [
        "▁Se",
        -9.889813052837505
      ],
      [
        "▁Quelque",
        -9.890509696687444
      ],
      [
        "▁At",
        -9.890548545993438
      ],
      [
        "▁Kor",
        -9.890785070970228
      ],
      [
        "▁doonkoon",
        -9.891172290114026
      ],
      [
        "▁wor",
        -9.891386375007562
      ],
      [
        "▁humaine",
        -9.892066486919294
      ],
      [
        "▁juróomi",
        -9.89234389180176
      ],
      [
        "ières",
        -9.892382877596237
      ],
      [
        "▁africaine",
        -9.892520907867361
      ],
      [
        "▁Bunt",
        -9.89256575927398
      ],
      [
        "▁certaine",
        -9.892993908953214
      ],
      [
        "▁jotee",
        -9.893771692916397
      ],
      [
        "▁Ver",
        -9.893816112152887
      ],
      [
        "▁Dañu",
        -9.894103695238146
      ],
      [
        "ll",
        -9.894440215202884
      ],
      [
        "▁policiers",
        -9.894728470139503
      ],
      [
        "▁masques",
        -9.894818232936911
      ],
      [
        "▁Mag",
        -9.894901656792797
      ],
      [
        "▁jambes",
        -9.89615785367599
      ],
      [
        "▁dawal",
        -9.89697112145717
      ],
      [
        "▁souffle",
        -9.897149084152936
      ],
      [
        "▁darab",
        -9.897902720363225
      ],
      [
        "▁rage",
        -9.898047019397604
      ],
      [
        "▁wetam",
        -9.898219479767427
      ],
      [
        "▁Nko",
        -9.899846306675528
      ],
      [
        "▁dikk",
        -9.900623830980205
      ],
      [
        "▁aurais",
        -9.901799138409018
      ],
      [
        "▁surga",
        -9.90182477655817
      ],
      [
        "éel",
        -9.901951172640109
      ],
      [
        "▁reer",
        -9.903383557493639
      ],
      [
        "▁serais",
        -9.903495721709902
      ],
      [
        "▁bes",
        -9.90367586175089
      ],
      [
        "▁àpp",
        -9.903783520359829
      ],
      [
        "▁tekki",
        -9.9040806717541
      ],
      [
        "▁jaam",
        -9.90452970995786
      ],
      [
        "▁naissance",
        -9.904690379074449
      ],
      [
        "▁Ñe",
        -9.905455428533724
      ],
      [
        "▁buum",
        -9.906213403246706
      ],
      [
        "▁xet",
        -9.906232896270103
      ],
      [
        "▁passer",
        -9.906408177043904
      ],
      [
        "▁Ja",
        -9.906624052706936
      ],
      [
        "▁fenêtres",
        -9.906786326172387
      ],
      [
        "▁charge",
        -9.906947232291156
      ],
      [
        "▁yax",
        -9.908323360026051
      ],
      [
        "▁viens",
        -9.908376994682861
      ],
      [
        "▁haute",
        -9.908839701305686
      ],
      [
        "▁amen",
        -9.909577219147526
      ],
      [
        "▁ouverte",
        -9.909776621140086
      ],
      [
        "▁tours",
        -9.910817434580682
      ],
      [
        "tions",
        -9.911211184415293
      ],
      [
        "▁Ngi",
        -9.912062169958267
      ],
      [
        "▁woowu",
        -9.913441551653712
      ],
      [
        "▁dois",
        -9.913650155681546
      ],
      [
        "▁souhaite",
        -9.913724382514506
      ],
      [
        "▁visages",
        -9.914044920359123
      ],
      [
        "▁yeew",
        -9.914305816312394
      ],
      [
        "▁soup",
        -9.914353325818633
      ],
      [
        "▁traverse",
        -9.915193465600689
      ],
      [
        "éri",
        -9.915624013572284
      ],
      [
        "▁taxu",
        -9.915996183695931
      ],
      [
        "ok",
        -9.916598397446919
      ],
      [
        "▁tableau",
        -9.916745592231905
      ],
      [
        "▁daanu",
        -9.91714957024383
      ],
      [
        "▁ser",
        -9.919193535074003
      ],
      [
        "▁coono",
        -9.919787448784627
      ],
      [
        "waan",
        -9.921067804896431
      ],
      [
        "▁nguur",
        -9.921130122912013
      ],
      [
        "▁pis",
        -9.922179696224745
      ],
      [
        "▁àtte",
        -9.92243183262376
      ],
      [
        "unu",
        -9.922450712528788
      ],
      [
        "▁pos",
        -9.923690636673012
      ],
      [
        "pe",
        -9.925442193986974
      ],
      [
        "▁ti",
        -9.927438325293775
      ],
      [
        "▁Dana",
        -9.927544141380933
      ],
      [
        "u-ñax",
        -9.928765147876875
      ],
      [
        "▁Mar",
        -9.930009685128349
      ],
      [
        "▁coups",
        -9.930671753511898
      ],
      [
        "▁Dis",
        -9.932482873341232
      ],
      [
        "▁Yara",
        -9.933154217165704
      ],
      [
        "eelu",
        -9.9341980651419
      ],
      [
        "▁melo",
        -9.934417798071205
      ],
      [
        "hoisi",
        -9.939280416067454
      ],
      [
        "aatu",
        -9.940860277874112
      ],
      [
        "▁wàcce",
        -9.942115742287662
      ],
      [
        "▁cherch",
        -9.944969228184757
      ],
      [
        "▁rivières",
        -9.946005357945264
      ],
      [
        "rends",
        -9.947746251297382
      ],
      [
        "entiers",
        -9.94878387109278
      ],
      [
        "▁Bii",
        -9.949026570772277
      ],
      [
        "▁dinaa",
        -9.951173957295817
      ],
      [
        "▁waxe",
        -9.951685650850221
      ],
      [
        "▁Leur",
        -9.957906758194325
      ],
      [
        "▁ha",
        -9.958509916074426
      ],
      [
        "▁jar",
        -9.959617724090698
      ],
      [
        "▁w",
        -9.960173970885544
      ],
      [
        "habitude",
        -9.961538881836315
      ],
      [
        "▁ressentir",
        -9.962014574323858
      ],
      [
        "▁Xe",
        -9.962689034041766
      ],
      [
        "▁sain",
        -9.964519061113617
      ],
      [
        "ire",
        -9.967192945465163
      ],
      [
        "▁soxna",
        -9.972914927116182
      ],
      [
        "▁Vie",
        -9.974618323186062
      ],
      [
        "▁Afrigam",
        -9.976889987057286
      ],
      [
        "ages",
        -9.976936785909366
      ],
      [
        "▁quelles",
        -9.978628511850188
      ],
      [
        "▁Gan",
        -9.979913694685967
      ],
      [
        "tal",
        -9.981214488191393
      ],
      [
        "▁donner",
        -9.982172286630611
      ],
      [
        "▁batt",
        -9.982208189072116
      ],
      [
        "ependant",
        -9.98426610603235
      ],
      [
        "ama",
        -9.985015954177292
      ],
      [
        "galu",
        -9.986073066478951
      ],
      [
        "▁rouges",
        -9.986628491078578
      ],
      [
        "▁anim",
        -9.98742437499354
      ],
      [
        "▁chang",
        -9.987785111852446
      ],
      [
        "jaa",
        -9.989273765702325
      ],
      [
        "ré",
        -9.994793237695943
      ],
      [
        "▁Ar",
        -9.99698386022111
      ],
      [
        "tt",
        -9.997302982174707
      ],
      [
        "our",
        -9.997445294488662
      ],
      [
        "▁cinq",
        -9.997768390225843
      ],
      [
        "▁sokolaa.",
        -9.998782380401353
      ],
      [
        "▁daje",
        -9.998846899281029
      ],
      [
        "eef",
        -10.00002790136186
      ],
      [
        "▁individu",
        -10.000206234361798
      ],
      [
        "'habitude",
        -10.001350551861314
      ],
      [
        "uni",
        -10.001986439412393
      ],
      [
        "nte",
        -10.00336074679308
      ],
      [
        "elle",
        -10.006860857777202
      ],
      [
        "▁kë",
        -10.007083717546193
      ],
      [
        "▁alla",
        -10.007487634812428
      ],
      [
        "ssent",
        -10.019175229088885
      ],
      [
        "▁dun",
        -10.019551900570521
      ],
      [
        "ard",
        -10.02013881831499
      ],
      [
        "▁qua",
        -10.020751341977956
      ],
      [
        "▁goog",
        -10.021630367190472
      ],
      [
        "▁clair",
        -10.02335023638371
      ],
      [
        "avais",
        -10.024297375268258
      ],
      [
        "▁devenu",
        -10.02530355239852
      ],
      [
        "▁suiv",
        -10.025505153935296
      ],
      [
        "▁nag.",
        -10.028102226289832
      ],
      [
        "▁prêt",
        -10.032905082856157
      ],
      [
        "wuñu",
        -10.033278905981458
      ],
      [
        "▁h",
        -10.033347201237357
      ],
      [
        "tation",
        -10.03335399622645
      ],
      [
        "▁utilise",
        -10.033684699417593
      ],
      [
        "▁Aw",
        -10.03687220788376
      ],
      [
        "instant",
        -10.037836861087769
      ],
      [
        "▁tee",
        -10.04030401419004
      ],
      [
        "▁Abo",
        -10.040849956767946
      ],
      [
        "▁maître",
        -10.0415269217688
      ],
      [
        "▁nguuru",
        -10.041892565039056
      ],
      [
        "▁jou",
        -10.042011874838105
      ],
      [
        "t-ce",
        -10.043367192380803
      ],
      [
        "▁d'or",
        -10.04468590197427
      ],
      [
        "gé",
        -10.046915431502619
      ],
      [
        "▁ressembl",
        -10.04781933051578
      ],
      [
        "qu'un",
        -10.047891796620117
      ],
      [
        "▁liggéeye",
        -10.048868801338886
      ],
      [
        "▁champ",
        -10.050101752873461
      ],
      [
        "▁neex.",
        -10.0502628765822
      ],
      [
        "▁couvert",
        -10.050481294807824
      ],
      [
        "▁bë",
        -10.05170262709187
      ],
      [
        "▁ñeme",
        -10.060654472534974
      ],
      [
        "▁sec",
        -10.06107000995384
      ],
      [
        "▁digg",
        -10.06109190564715
      ],
      [
        "ndax",
        -10.06204139301087
      ],
      [
        "▁sûr",
        -10.062124241016436
      ],
      [
        "ver",
        -10.062233212250847
      ],
      [
        "▁bâton",
        -10.062704123798346
      ],
      [
        "▁bou",
        -10.06304350439595
      ],
      [
        "cteur",
        -10.063570740548645
      ],
      [
        "▁affaire",
        -10.064148886555312
      ],
      [
        "▁sauvage",
        -10.064277811451696
      ],
      [
        "▁voiture",
        -10.064639546548042
      ],
      [
        "▁éclat",
        -10.064863027700785
      ],
      [
        "▁pierre",
        -10.065241411633064
      ],
      [
        "▁ñaa",
        -10.065746340454101
      ],
      [
        "▁fit",
        -10.06586754749304
      ],
      [
        "▁différent",
        -10.06664731191133
      ],
      [
        "▁chaud",
        -10.066997899290659
      ],
      [
        "▁mba",
        -10.068604057670024
      ],
      [
        "▁I",
        -10.068616454795512
      ],
      [
        "vec",
        -10.06971175274171
      ],
      [
        "▁Daŋg",
        -10.070167035769764
      ],
      [
        "▁joli",
        -10.070841553462282
      ],
      [
        "▁entendu",
        -10.071985943915209
      ],
      [
        "ch",
        -10.07226651541727
      ],
      [
        "waa",
        -10.072612474917161
      ],
      [
        "▁fort",
        -10.073823950909075
      ],
      [
        "ndait",
        -10.075475831261768
      ],
      [
        "▁Luga",
        -10.07647889958669
      ],
      [
        "mes",
        -10.0773422804237
      ],
      [
        "-y",
        -10.078107751225492
      ],
      [
        "▁taax",
        -10.07821857554627
      ],
      [
        "▁tir",
        -10.079124555642395
      ],
      [
        "lé",
        -10.079475704585215
      ],
      [
        "▁làq",
        -10.080261119468947
      ],
      [
        "▁im",
        -10.080461641379403
      ],
      [
        "roule",
        -10.080476030534879
      ],
      [
        "▁fey",
        -10.08055483106879
      ],
      [
        "▁Néeg",
        -10.081484614314482
      ],
      [
        "aayu",
        -10.081842282679421
      ],
      [
        "'imagine",
        -10.08266463261854
      ],
      [
        "veille",
        -10.082729143571592
      ],
      [
        "▁trente",
        -10.08330745570833
      ],
      [
        "ï",
        -10.084195233002324
      ],
      [
        "ersonne",
        -10.084323070193697
      ],
      [
        "0",
        -10.084571100034648
      ],
      [
        "▁douce",
        -10.084649481701794
      ],
      [
        "▁camerounais",
        -10.084667057273514
      ],
      [
        "▁ustensile",
        -10.084667057274526
      ],
      [
        "▁Adekunle",
        -10.084667057275563
      ],
      [
        "▁Georgetown",
        -10.084667057278072
      ],
      [
        "▁Sefiriis",
        -10.084667057279741
      ],
      [
        "▁bûcheron",
        -10.084667057284864
      ],
      [
        "▁njàqare",
        -10.084667057307563
      ],
      [
        "Ç",
        -10.084667057313467
      ],
      [
        "”",
        -10.084667057313467
      ],
      [
        "▁Southampton",
        -10.084667057313467
      ],
      [
        "▁retrouve",
        -10.084667057587781
      ],
      [
        "▁Biafra",
        -10.084667058216125
      ],
      [
        "▁biafrais",
        -10.084667058713544
      ],
      [
        "▁Abaakaliki",
        -10.084667060200008
      ],
      [
        "▁termitières",
        -10.084667061191837
      ],
      [
        "▁après-midi",
        -10.084667064813555
      ],
      [
        "▁alkaati",
        -10.08466706706004
      ],
      [
        "▁Yoruba",
        -10.08466707034644
      ],
      [
        "▁allemande",
        -10.08466707206261
      ],
      [
        "▁tronc",
        -10.084667085032343
      ],
      [
        "▁“",
        -10.084667091546171
      ],
      [
        "▁Anglais",
        -10.084667098125154
      ],
      [
        "▁grand-père",
        -10.084667103286694
      ],
      [
        "▁mosquée",
        -10.084667125856962
      ],
      [
        "▁photographi",
        -10.084667176292829
      ],
      [
        "▁alkol",
        -10.084667176518204
      ],
      [
        "▁Cross",
        -10.084667183009575
      ],
      [
        "'occupa",
        -10.084667223402917
      ],
      [
        "▁mélang",
        -10.08466733515919
      ],
      [
        "angoisse",
        -10.08466736414123
      ],
      [
        "▁besoin",
        -10.084667435283752
      ],
      [
        "▁kalaate",
        -10.084668181635273
      ],
      [
        "▁terrible",
        -10.084668232904477
      ],
      [
        "▁L'enfant",
        -10.084668420341737
      ],
      [
        "▁sàndarm",
        -10.08466845965035
      ],
      [
        "▁l'entoure",
        -10.08466866040298
      ],
      [
        "▁Sorstaawun",
        -10.084668981638076
      ],
      [
        "▁zinc",
        -10.084669225580313
      ],
      [
        "▁probable",
        -10.084670222169681
      ],
      [
        "▁Salut",
        -10.084670597492053
      ],
      [
        "▁Moontin",
        -10.084671086782109
      ],
      [
        "▁gentil",
        -10.084671097094482
      ],
      [
        "▁xaaju",
        -10.084672064388899
      ],
      [
        "▁métier",
        -10.084672770008035
      ],
      [
        "▁branche",
        -10.084673330343747
      ],
      [
        "▁collines",
        -10.084673637614904
      ],
      [
        "▁d'arbres",
        -10.08467385225326
      ],
      [
        "▁service",
        -10.0846747973542
      ],
      [
        "▁rejoindre",
        -10.084675591135873
      ],
      [
        "▁Aiya",
        -10.08467605431103
      ],
      [
        "▁compris",
        -10.084676796285116
      ],
      [
        "▁poussière",
        -10.08467688852669
      ],
      [
        "▁ndànk",
        -10.084677368333429
      ],
      [
        "▁ndóol",
        -10.084679954199125
      ],
      [
        "▁douche",
        -10.084680325516388
      ],
      [
        "▁fecc",
        -10.084684464071593
      ],
      [
        "▁brûlure",
        -10.0846845327506
      ],
      [
        "▁bërëb",
        -10.084693395263715
      ],
      [
        "▁nàññ",
        -10.084693536605293
      ],
      [
        "▁yàlla",
        -10.084694671699578
      ],
      [
        "▁fauve",
        -10.08469516904859
      ],
      [
        "▁Guddi",
        -10.084696901620406
      ],
      [
        "▁karaw",
        -10.08469717780327
      ],
      [
        "▁resté",
        -10.084698465765186
      ],
      [
        "▁gànnaay",
        -10.084698467711267
      ],
      [
        "▁retraite",
        -10.084700188212176
      ],
      [
        "▁ndigg",
        -10.084702413086728
      ],
      [
        "▁apporté",
        -10.084705464713853
      ],
      [
        "▁noyyi",
        -10.084706681291589
      ],
      [
        "▁rares",
        -10.084715388787677
      ],
      [
        "▁doxantu",
        -10.084717359056878
      ],
      [
        "▁gannaaw",
        -10.084717373881121
      ],
      [
        "▁j'étais",
        -10.084721396633476
      ],
      [
        "▁continent",
        -10.084722094172282
      ],
      [
        "▁ëmb",
        -10.084725273196238
      ],
      [
        "▁këll",
        -10.084725829169018
      ],
      [
        "▁ondul",
        -10.084737385199439
      ],
      [
        "▁connaissais",
        -10.084752635946051
      ],
      [
        "▁Qu'est-ce",
        -10.084758443796243
      ],
      [
        "▁way-",
        -10.084761133668984
      ],
      [
        "▁soppiku",
        -10.084796937357218
      ],
      [
        "science",
        -10.084803943172618
      ],
      [
        "▁fowukaay",
        -10.08481513252941
      ],
      [
        "▁taille",
        -10.084815550715357
      ],
      [
        "▁mbégte",
        -10.084818223217432
      ],
      [
        "nore",
        -10.084836050654111
      ],
      [
        "▁làquji",
        -10.084846155007403
      ],
      [
        "▁delsi",
        -10.084852573900733
      ],
      [
        "▁maintenant",
        -10.084865900869389
      ],
      [
        "▁avance",
        -10.084866072198121
      ],
      [
        "▁tap",
        -10.084868823891782
      ],
      [
        "▁ndab",
        -10.084927261274363
      ],
      [
        "▁xaj",
        -10.084933312996013
      ],
      [
        "▁l'argent",
        -10.084939577121007
      ],
      [
        "▁fitna",
        -10.084940307508294
      ],
      [
        "▁oncle",
        -10.084959828232225
      ],
      [
        "▁awsa",
        -10.084975812683842
      ],
      [
        "▁courage",
        -10.08501197761158
      ],
      [
        "▁dirigeant",
        -10.085016732571583
      ],
      [
        "-tiir",
        -10.08501692521018
      ],
      [
        "▁cercl",
        -10.085093579606292
      ],
      [
        "▁juddu",
        -10.085135538839033
      ],
      [
        "▁simis",
        -10.085154573747856
      ],
      [
        "▁Pourtant",
        -10.08518287521266
      ],
      [
        "▁raxas",
        -10.085196796371644
      ],
      [
        "▁d'eau",
        -10.085247506005734
      ],
      [
        "▁jaa",
        -10.08526099535132
      ],
      [
        "▁sàcc",
        -10.085317522651184
      ],
      [
        "▁dékku",
        -10.085368528780267
      ],
      [
        "▁tiis",
        -10.085393812221678
      ],
      [
        "▁hutte",
        -10.085430089199848
      ],
      [
        "▁ŋgoogule",
        -10.085454611651178
      ],
      [
        "▁lui-même",
        -10.085461483286648
      ],
      [
        "▁jàppukaay",
        -10.085519061682357
      ],
      [
        "▁puj",
        -10.085527862284298
      ],
      [
        "▁gàddaay",
        -10.08555545226874
      ],
      [
        "▁yàpp",
        -10.085769864461465
      ],
      [
        "▁rire",
        -10.085771668399115
      ],
      [
        "▁assez",
        -10.085898253785707
      ],
      [
        "tin",
        -10.08591969693276
      ],
      [
        "▁Ñooñu",
        -10.085944435785725
      ],
      [
        "▁brave",
        -10.086030871483342
      ],
      [
        "▁cacher",
        -10.086058024406963
      ],
      [
        "▁vivant",
        -10.086082956549216
      ],
      [
        "▁xur",
        -10.086153806286973
      ],
      [
        "▁mbaxana",
        -10.086244998256799
      ],
      [
        "▁wér",
        -10.086273133518802
      ],
      [
        "▁parole",
        -10.08627714610157
      ],
      [
        "▁sensation",
        -10.086352205542891
      ],
      [
        "▁J'en",
        -10.086537212143487
      ],
      [
        "▁voulu",
        -10.086845074911064
      ],
      [
        "▁volets",
        -10.087017455290967
      ],
      [
        "▁exemple",
        -10.08705720440718
      ],
      [
        "▁armes",
        -10.08711624639666
      ],
      [
        "▁melax",
        -10.087240319624794
      ],
      [
        "▁Ñaar",
        -10.087268855568519
      ],
      [
        "▁daawul",
        -10.087304201313536
      ],
      [
        "▁doomi-",
        -10.087631414200516
      ],
      [
        "▁vide",
        -10.087660048168036
      ],
      [
        "▁rappelle",
        -10.087779232067131
      ],
      [
        "▁fortune",
        -10.087791280703598
      ],
      [
        "▁njort",
        -10.08788098467722
      ],
      [
        "▁kookee",
        -10.087903709787533
      ],
      [
        "▁Garab",
        -10.08798934331231
      ],
      [
        "▁tawat",
        -10.088017708374684
      ],
      [
        "▁sommet",
        -10.088263883803064
      ],
      [
        "▁jaaxa",
        -10.088334471290619
      ],
      [
        "▁daaneel",
        -10.088383233339096
      ],
      [
        "▁bleue",
        -10.088522970061348
      ],
      [
        "▁casque",
        -10.088602132047448
      ],
      [
        "▁wóolu",
        -10.088683974330296
      ],
      [
        "waale",
        -10.088969303643008
      ],
      [
        "▁hamacs",
        -10.088984309626161
      ],
      [
        "▁vertes",
        -10.089001129175564
      ],
      [
        "▁rencontrer",
        -10.089058223504427
      ],
      [
        "▁monter",
        -10.08911020918919
      ],
      [
        "▁pince",
        -10.089352157328197
      ],
      [
        "▁rive",
        -10.089387295199481
      ],
      [
        "▁sombre",
        -10.089440524179183
      ],
      [
        "▁recherche",
        -10.089833269364103
      ],
      [
        "▁somme",
        -10.089885117934202
      ],
      [
        "▁panier",
        -10.089952624180114
      ],
      [
        "▁revienne",
        -10.090377125615236
      ],
      [
        "▁nijaay",
        -10.09039552779266
      ],
      [
        "obul",
        -10.09051105544507
      ],
      [
        "▁(ce",
        -10.090588090671337
      ],
      [
        "▁màgge",
        -10.090698870873432
      ],
      [
        "▁naaxi",
        -10.091090824673513
      ],
      [
        "▁jooy",
        -10.091104881311878
      ],
      [
        "▁làqu",
        -10.09124053066475
      ],
      [
        "▁ňi",
        -10.091355240489259
      ],
      [
        "▁marchent",
        -10.091359590283636
      ],
      [
        "▁pareil",
        -10.091456152666362
      ],
      [
        "▁dàtt",
        -10.091629865395513
      ],
      [
        "koo",
        -10.09198909460077
      ],
      [
        "ka",
        -10.092144091299776
      ],
      [
        "▁couch",
        -10.092277739423427
      ],
      [
        "aak",
        -10.092304466424848
      ],
      [
        "▁nouvelles",
        -10.092475789794456
      ],
      [
        "▁co",
        -10.092889784312925
      ],
      [
        "▁entré",
        -10.093004278901414
      ],
      [
        "▁doomam",
        -10.093082822427416
      ],
      [
        "abond",
        -10.093160688141543
      ],
      [
        "▁joge",
        -10.0934095553658
      ],
      [
        "▁mesure",
        -10.09373901707506
      ],
      [
        "▁pluie",
        -10.09408631591667
      ],
      [
        "▁lenn",
        -10.094600258255122
      ],
      [
        "▁yéeme",
        -10.095411153426777
      ],
      [
        "▁savoir",
        -10.096325033039705
      ],
      [
        "ati-",
        -10.096448711337267
      ],
      [
        "▁étage",
        -10.096619977978312
      ],
      [
        "▁forte",
        -10.097445835295717
      ],
      [
        "▁soldats",
        -10.097516201761437
      ],
      [
        "▁militaires",
        -10.09752099899552
      ],
      [
        "▁feeñu",
        -10.097693131184032
      ],
      [
        "▁mënut",
        -10.097874506355236
      ],
      [
        "▁julli",
        -10.097946970052245
      ],
      [
        "fippu",
        -10.098441400639327
      ],
      [
        "▁Men",
        -10.09884381097076
      ],
      [
        "ar.",
        -10.099163361840132
      ],
      [
        "▁bancs",
        -10.099679092552364
      ],
      [
        "kóon",
        -10.100009509095356
      ],
      [
        "▁Xare",
        -10.101793468638444
      ],
      [
        "▁nourri",
        -10.102481166772824
      ],
      [
        "▁yëgaat",
        -10.103070837935107
      ],
      [
        "▁troupeau",
        -10.10491848656475
      ],
      [
        "▁devenus",
        -10.105193590142445
      ],
      [
        "ñii",
        -10.10543630574216
      ],
      [
        "▁fermée",
        -10.105491108467497
      ],
      [
        "▁guyy",
        -10.106048086375958
      ],
      [
        "▁lire",
        -10.106106467878346
      ],
      [
        "▁croi",
        -10.107003750731579
      ],
      [
        "▁monté",
        -10.107116955010957
      ],
      [
        "▁marcher",
        -10.107348934966483
      ],
      [
        "▁retourne",
        -10.10812513321124
      ],
      [
        "▁pans",
        -10.108584659697556
      ],
      [
        "▁Bum",
        -10.109179250004663
      ],
      [
        "▁seetu",
        -10.110294469348943
      ],
      [
        "▁be",
        -10.110778831388398
      ],
      [
        "▁kam",
        -10.111243918021978
      ],
      [
        "▁dessiné",
        -10.111360768155969
      ],
      [
        "▁Fo",
        -10.113061467891944
      ],
      [
        "▁face",
        -10.11383339339336
      ],
      [
        "▁dur",
        -10.11456855100404
      ],
      [
        "avez",
        -10.115843954931428
      ],
      [
        "▁xaritam",
        -10.116353171698332
      ],
      [
        "▁mënee",
        -10.11662480619422
      ],
      [
        "▁saf",
        -10.116773756082788
      ],
      [
        "▁defaree",
        -10.117116909894403
      ],
      [
        "▁xew",
        -10.117454688636169
      ],
      [
        "rt",
        -10.117688534047424
      ],
      [
        "▁Car",
        -10.117902373315502
      ],
      [
        "▁kookuu",
        -10.118146098762498
      ],
      [
        "▁scorpions",
        -10.11824212925067
      ],
      [
        "ssant",
        -10.118317298153885
      ],
      [
        "▁dëkkoon",
        -10.12032561813972
      ],
      [
        "▁nus",
        -10.120899692097874
      ],
      [
        "▁këru",
        -10.123285230770536
      ],
      [
        "êtes",
        -10.12337535938547
      ],
      [
        "▁pré",
        -10.12344886597081
      ],
      [
        "isme",
        -10.124059864725027
      ],
      [
        "atoo",
        -10.12464666659399
      ],
      [
        "▁livres",
        -10.125919974761835
      ],
      [
        "▁amour",
        -10.126003944091552
      ],
      [
        "▁four",
        -10.12786556949457
      ],
      [
        "▁maîtres",
        -10.129747274443323
      ],
      [
        "▁impression",
        -10.130691943963312
      ],
      [
        "▁prise",
        -10.130914119082354
      ],
      [
        "▁bleus",
        -10.131648547356255
      ],
      [
        "▁yé",
        -10.133451415676586
      ],
      [
        "son",
        -10.133631515638667
      ],
      [
        "▁Ŋg",
        -10.135252496044263
      ],
      [
        "sement",
        -10.13536588536905
      ],
      [
        "▁désir",
        -10.135750930111469
      ],
      [
        "▁fil",
        -10.135898419475783
      ],
      [
        "▁sàn",
        -10.136124102208234
      ],
      [
        "▁séchée",
        -10.13746206444971
      ],
      [
        "▁ndo",
        -10.138886181178465
      ],
      [
        "▁grandi",
        -10.141358557365773
      ],
      [
        "ry",
        -10.14174437719482
      ],
      [
        "▁fur",
        -10.144310923108833
      ],
      [
        "▁laine",
        -10.145841286647347
      ],
      [
        "▁eusse",
        -10.147760247070854
      ],
      [
        "hier",
        -10.148186658563596
      ],
      [
        "▁mënuma",
        -10.149472641053329
      ],
      [
        "▁pointe",
        -10.14994703008637
      ],
      [
        "▁baŋ",
        -10.150404159224264
      ],
      [
        "▁ras",
        -10.150626742819181
      ],
      [
        "'appartien",
        -10.15221511755891
      ],
      [
        "asi",
        -10.153516695950698
      ],
      [
        "ion",
        -10.154018180953624
      ],
      [
        "hôpital",
        -10.15806215863334
      ],
      [
        "▁x",
        -10.158228934261528
      ],
      [
        "gal",
        -10.159147192615158
      ],
      [
        "mar",
        -10.159852988066575
      ],
      [
        "oindre",
        -10.15988732348968
      ],
      [
        "▁Aa",
        -10.163010957964957
      ],
      [
        "laam",
        -10.163144559209822
      ],
      [
        "▁niir",
        -10.164177093679896
      ],
      [
        "▁vari",
        -10.16555241841818
      ],
      [
        "ide",
        -10.168115022083613
      ],
      [
        "▁Mii",
        -10.169203500129548
      ],
      [
        "toon",
        -10.170147872838397
      ],
      [
        "▁lits",
        -10.170460422271598
      ],
      [
        "▁Gu",
        -10.171398784963824
      ],
      [
        "▁seuls",
        -10.171790432518524
      ],
      [
        "▁dos",
        -10.174125186189585
      ],
      [
        "▁néegi",
        -10.178559533886132
      ],
      [
        "▁jooja",
        -10.179682493742732
      ],
      [
        "nie",
        -10.182153814339355
      ],
      [
        "garder",
        -10.182319073130401
      ],
      [
        "▁deey",
        -10.18416845014093
      ],
      [
        "▁cou",
        -10.185214274650804
      ],
      [
        "▁l'é",
        -10.185791456438176
      ],
      [
        "▁wiy",
        -10.185942622741868
      ],
      [
        "▁ñee",
        -10.186950898983069
      ],
      [
        "gu",
        -10.187499106556624
      ],
      [
        "daa",
        -10.187890769288442
      ],
      [
        "▁Celui",
        -10.188498454532624
      ],
      [
        "rit",
        -10.191367646865638
      ],
      [
        "▁l'on",
        -10.19140853878246
      ],
      [
        "▁Sor",
        -10.19702293652426
      ],
      [
        "▁dugal",
        -10.198701741734803
      ],
      [
        "▁ri",
        -10.199155419434533
      ],
      [
        "t-il",
        -10.203833536611798
      ],
      [
        "▁plan",
        -10.206056814660554
      ],
      [
        "fu",
        -10.206988366550325
      ],
      [
        "▁yàq",
        -10.209558458377002
      ],
      [
        "▁Def",
        -10.21006475613104
      ],
      [
        "▁sañ",
        -10.210246336298589
      ],
      [
        "▁cas",
        -10.210441263021853
      ],
      [
        "▁suffi",
        -10.211022246906213
      ],
      [
        "▁chocolat",
        -10.21194531093651
      ],
      [
        "ace",
        -10.2123511201208
      ],
      [
        "uits",
        -10.215659302352746
      ],
      [
        "▁m'",
        -10.220474262947397
      ],
      [
        "u-",
        -10.220591110874475
      ],
      [
        "nent",
        -10.220621579855088
      ],
      [
        "iques",
        -10.222778719948554
      ],
      [
        "▁chambres",
        -10.223062242607778
      ],
      [
        "'orage",
        -10.225364701900835
      ],
      [
        "▁outil",
        -10.225615163705315
      ],
      [
        "▁dan",
        -10.22690125280008
      ],
      [
        "sant",
        -10.229128313212529
      ],
      [
        "▁pourra",
        -10.23018635229553
      ],
      [
        "▁jàppe",
        -10.230638261575992
      ],
      [
        "▁entend",
        -10.232584862885165
      ],
      [
        "ole",
        -10.236022648845783
      ],
      [
        "▁posée",
        -10.23808927241943
      ],
      [
        "bbe",
        -10.238525554787795
      ],
      [
        "▁con",
        -10.241838127400719
      ],
      [
        "tul",
        -10.243186451343371
      ],
      [
        "▁coupe",
        -10.244158758750306
      ],
      [
        "aires",
        -10.245149626802585
      ],
      [
        "▁trou",
        -10.247797038340643
      ],
      [
        "▁rend",
        -10.250706370697264
      ],
      [
        "▁wàcc",
        -10.250942688397885
      ],
      [
        "commencer",
        -10.251329424153111
      ],
      [
        "vions",
        -10.251383382501935
      ],
      [
        "▁armé",
        -10.25385185180738
      ],
      [
        "ã",
        -10.260065924529426
      ],
      [
        "▁jé",
        -10.260332201499727
      ],
      [
        "▁ndugg",
        -10.26150590250029
      ],
      [
        "▁ño",
        -10.262086431861984
      ],
      [
        "▁armée",
        -10.262547037269716
      ],
      [
        "▁tam",
        -10.265678420858192
      ],
      [
        "▁n'as",
        -10.266166030247366
      ],
      [
        "▁pouss",
        -10.266317502587992
      ],
      [
        "goom",
        -10.266396375475429
      ],
      [
        "ëm",
        -10.266587275545644
      ],
      [
        "tam",
        -10.267249596032867
      ],
      [
        "▁mise",
        -10.268696986242245
      ],
      [
        "ailles",
        -10.2690310306127
      ],
      [
        "ût",
        -10.270261768808599
      ],
      [
        "nge",
        -10.270953190574282
      ],
      [
        "naissance",
        -10.271260205401315
      ],
      [
        "▁cont",
        -10.272037291431035
      ],
      [
        "▁rajo",
        -10.272648715983543
      ],
      [
        "googule",
        -10.273514558896661
      ],
      [
        "▁dure",
        -10.275979330877114
      ],
      [
        "óo",
        -10.276595094540832
      ],
      [
        "uwaay",
        -10.277138700360572
      ],
      [
        "▁ñaw",
        -10.277307447693286
      ],
      [
        "▁tra",
        -10.278339923458159
      ],
      [
        "dar",
        -10.280163574495061
      ],
      [
        "▁quitte",
        -10.280725636472347
      ],
      [
        "▁pensé",
        -10.281906741716693
      ],
      [
        "▁entouré",
        -10.282275531789645
      ],
      [
        "▁étalé",
        -10.282389488511598
      ],
      [
        "ër",
        -10.284055920765951
      ],
      [
        "▁tegu",
        -10.284172666136532
      ],
      [
        "▁mêl",
        -10.28433439241799
      ],
      [
        "ru",
        -10.284564054768392
      ],
      [
        "allaient",
        -10.286485217453452
      ],
      [
        "▁conten",
        -10.286535386394013
      ],
      [
        "▁Leer",
        -10.286770253729395
      ],
      [
        "▁ñe",
        -10.290815162038369
      ],
      [
        "▁sub",
        -10.29186273629205
      ],
      [
        "ŋga",
        -10.292211629005436
      ],
      [
        "leel",
        -10.292627750169911
      ],
      [
        "▁décor",
        -10.293718496552351
      ],
      [
        "aurais",
        -10.294060663540984
      ],
      [
        "to",
        -10.295098050897158
      ],
      [
        "▁Daawu",
        -10.295857389433575
      ],
      [
        "ombre",
        -10.296481896669263
      ],
      [
        "▁fui",
        -10.2965469021883
      ],
      [
        "▁kà",
        -10.297555366698843
      ],
      [
        "ins",
        -10.297846663757946
      ],
      [
        "lal",
        -10.29933580962829
      ],
      [
        "▁natt",
        -10.299547822131323
      ],
      [
        "▁ouvert",
        -10.300089255901343
      ],
      [
        "▁président",
        -10.300375714971077
      ],
      [
        "▁miroir",
        -10.300509697961697
      ],
      [
        "▁jam",
        -10.301593076873681
      ],
      [
        "▁teewu",
        -10.30259527958238
      ],
      [
        "▁toj",
        -10.305920961208177
      ],
      [
        "auté",
        -10.306241135034902
      ],
      [
        "▁laissé",
        -10.306417962755667
      ],
      [
        "▁sépar",
        -10.306942466096396
      ],
      [
        "▁nju",
        -10.307963319767996
      ],
      [
        "▁gendarme",
        -10.308262454405144
      ],
      [
        "▁découvert",
        -10.308441994491517
      ],
      [
        "war",
        -10.310276398079978
      ],
      [
        "▁Bul",
        -10.311683074136901
      ],
      [
        "▁Wa",
        -10.311801405857866
      ],
      [
        "ëpp",
        -10.311837339854895
      ],
      [
        "▁ancien",
        -10.313280345236233
      ],
      [
        "con",
        -10.314229607133143
      ],
      [
        "▁d'herbe",
        -10.314298074257788
      ],
      [
        "jafe",
        -10.314367104375957
      ],
      [
        "▁tasse",
        -10.314903547616135
      ],
      [
        "▁méng",
        -10.315114485653707
      ],
      [
        "sion",
        -10.316388541244477
      ],
      [
        "▁yéem",
        -10.316771752920808
      ],
      [
        "▁précédé",
        -10.316778891716876
      ],
      [
        "àngi",
        -10.316862045276785
      ],
      [
        "▁général",
        -10.317447198365796
      ],
      [
        "▁guerr",
        -10.319013163047064
      ],
      [
        "ille",
        -10.31932725338972
      ],
      [
        "▁U",
        -10.319614614783772
      ],
      [
        "▁cent",
        -10.31981023952471
      ],
      [
        "innaaw",
        -10.320547452592253
      ],
      [
        "▁cré",
        -10.322739221677235
      ],
      [
        "▁rëbb",
        -10.32440768679538
      ],
      [
        "▁Ko",
        -10.324451678230698
      ],
      [
        "ish",
        -10.324545592270086
      ],
      [
        "▁golf",
        -10.324944425295566
      ],
      [
        "▁xii",
        -10.326491299719024
      ],
      [
        "fal",
        -10.32658854140757
      ],
      [
        "han",
        -10.326651241644981
      ],
      [
        "kke",
        -10.326812382427354
      ],
      [
        "hez",
        -10.328011424784584
      ],
      [
        "ddina",
        -10.328771414233344
      ],
      [
        "▁rencontre",
        -10.329063781748369
      ],
      [
        "▁kàdd",
        -10.329097071767299
      ],
      [
        "orts",
        -10.329252339372404
      ],
      [
        "▁qu",
        -10.329678342855905
      ],
      [
        "▁Moka",
        -10.329899267691841
      ],
      [
        "▁gëm",
        -10.330104694263685
      ],
      [
        "ko",
        -10.330205598659136
      ],
      [
        "▁indi",
        -10.330609575344434
      ],
      [
        "mbres",
        -10.33094192936133
      ],
      [
        "able",
        -10.331009783624511
      ],
      [
        "▁c'étai",
        -10.33140825809289
      ],
      [
        "▁Doom",
        -10.331423469271733
      ],
      [
        "▁faf",
        -10.331561269628002
      ],
      [
        "▁Foof",
        -10.331626663748274
      ],
      [
        "▁Ch",
        -10.331887853898994
      ],
      [
        "▁naň",
        -10.33229506943959
      ],
      [
        "ément",
        -10.332695789542317
      ],
      [
        "▁Qu'",
        -10.332739864059107
      ],
      [
        "▁révolte",
        -10.332959126079086
      ],
      [
        "cture",
        -10.333615845251652
      ],
      [
        "▁accepte",
        -10.333817325696273
      ],
      [
        "▁xërëm",
        -10.334282064639135
      ],
      [
        "àww",
        -10.334365906286056
      ],
      [
        "araada",
        -10.334550346568312
      ],
      [
        "3",
        -10.334643080282564
      ],
      [
        "2",
        -10.33466030288001
      ],
      [
        "▁trapèze",
        -10.33466705727351
      ],
      [
        "▁BBC",
        -10.334667057273514
      ],
      [
        "▁l'après-midi",
        -10.334667057273537
      ],
      [
        "▁véhicule",
        -10.334667057274492
      ],
      [
        "▁discipline",
        -10.334667057274501
      ],
      [
        "▁junniy-junni",
        -10.334667057274896
      ],
      [
        "▁Harcourt",
        -10.334667057275027
      ],
      [
        "▁caravane",
        -10.334667057276372
      ],
      [
        "▁NGo",
        -10.334667057287254
      ],
      [
        "▁Ahidjo",
        -10.334667057298983
      ],
      [
        "▁béjjén",
        -10.334667057300384
      ],
      [
        "…",
        -10.334667057313467
      ],
      [
        "▁tés-tés",
        -10.334667057314627
      ],
      [
        "▁accepté",
        -10.334667057317036
      ],
      [
        "D.O.",
        -10.334667057332059
      ],
      [
        "▁yëngatu",
        -10.334667057341118
      ],
      [
        "▁lorgnons",
        -10.334667057421559
      ],
      [
        "▁ndànk-ndànk",
        -10.334667057528325
      ],
      [
        "▁rajaxe",
        -10.334667057600209
      ],
      [
        "▁éprouv",
        -10.334667057611806
      ],
      [
        "▁1948",
        -10.334667057830744
      ],
      [
        "▁1928",
        -10.334667058051197
      ],
      [
        "▁grâce",
        -10.334667058517198
      ],
      [
        "▁l'extérieur",
        -10.334667059027417
      ],
      [
        "▁Bërëtaañ",
        -10.334667059227286
      ],
      [
        "'arachide",
        -10.334667061139081
      ],
      [
        "▁trésor",
        -10.334667061326794
      ],
      [
        "▁Bretagne",
        -10.334667062532603
      ],
      [
        "▁sèche",
        -10.334667064471324
      ],
      [
        "▁excessive",
        -10.334667064655285
      ],
      [
        "▁Europe",
        -10.334667064688142
      ],
      [
        "▁proximité",
        -10.334667064772836
      ],
      [
        "▁Kalabaar",
        -10.334667065297522
      ],
      [
        "llemands",
        -10.334667066673143
      ],
      [
        "▁ràññe",
        -10.334667067629963
      ],
      [
        "▁saxaaru-géej",
        -10.334667070119675
      ],
      [
        "▁Jeffries",
        -10.334667070328322
      ],
      [
        "▁tekk-tekkaaral",
        -10.334667070405274
      ],
      [
        "▁Voyage",
        -10.334667073539675
      ],
      [
        "▁ruisseau",
        -10.33466707816995
      ],
      [
        "▁Calabar",
        -10.334667087593857
      ],
      [
        "▁officier",
        -10.334667091484318
      ],
      [
        "▁Ñëw",
        -10.33466709477279
      ],
      [
        "▁sibbiru",
        -10.334667120512105
      ],
      [
        "▁cliché",
        -10.334667176587296
      ],
      [
        "▁obsession",
        -10.334667186571629
      ],
      [
        "▁alentour",
        -10.33466720541983
      ],
      [
        "▁ndanka",
        -10.33466724078871
      ],
      [
        "▁Louga",
        -10.334667258092155
      ],
      [
        "▁juróom-ň",
        -10.334667264243894
      ],
      [
        "▁njege",
        -10.334667279594422
      ],
      [
        "▁possible",
        -10.33466728844677
      ],
      [
        "▁disparu",
        -10.334667323730228
      ],
      [
        "▁bavarda",
        -10.33466736082096
      ],
      [
        "▁tropicale",
        -10.334667415188182
      ],
      [
        "▁soixante",
        -10.334667479571745
      ],
      [
        "▁présence",
        -10.334667496262114
      ],
      [
        "▁L'autre",
        -10.334667503637329
      ],
      [
        "▁Chuku",
        -10.334667556996873
      ],
      [
        "▁légende",
        -10.334667590648301
      ],
      [
        "▁radio",
        -10.334667705173329
      ],
      [
        "▁extraordinaire",
        -10.334667929584121
      ],
      [
        "▁kilomet",
        -10.334668160549066
      ],
      [
        "▁vieillard",
        -10.334668160728274
      ],
      [
        "▁pénétr",
        -10.334668220613356
      ],
      [
        "▁l'abri",
        -10.33466883410774
      ],
      [
        "▁Birayim",
        -10.334669411132582
      ],
      [
        "▁fauteuil",
        -10.334669439560312
      ],
      [
        "▁bakkan",
        -10.334669446518715
      ],
      [
        "▁accroche",
        -10.334669485737905
      ],
      [
        "▁njariñ",
        -10.334669721328384
      ],
      [
        "▁l'hum",
        -10.33467014347251
      ],
      [
        "▁répond",
        -10.334670873145635
      ],
      [
        "arrière",
        -10.334671235039645
      ],
      [
        "▁guyaab",
        -10.334671539370353
      ],
      [
        "▁xamantane",
        -10.334672151693049
      ],
      [
        "▁magasin",
        -10.3346727790525
      ],
      [
        "▁Alfa",
        -10.334673088811494
      ],
      [
        "▁ëlëk",
        -10.334673229138394
      ],
      [
        "▁terrain",
        -10.334673726923802
      ],
      [
        "▁mbemb",
        -10.33467436431368
      ],
      [
        "▁Macron",
        -10.334679554683795
      ],
      [
        "▁toilettes",
        -10.334679559892681
      ],
      [
        "▁sept",
        -10.33468121835797
      ],
      [
        "▁gazelle",
        -10.334681914608407
      ],
      [
        "▁coow",
        -10.334684828831854
      ],
      [
        "▁règne",
        -10.334684954739949
      ],
      [
        "▁l'aube",
        -10.334687812617211
      ],
      [
        "▁interdit",
        -10.334688293685769
      ],
      [
        "▁dëll",
        -10.334689037157482
      ],
      [
        "▁imagin",
        -10.334689791848582
      ],
      [
        "▁jërr",
        -10.334690417908122
      ],
      [
        "▁1968",
        -10.334692088488575
      ],
      [
        "▁Kipli",
        -10.334692207658362
      ],
      [
        "▁weesu",
        -10.334692596539385
      ],
      [
        "▁Demuloo",
        -10.334692683279883
      ],
      [
        "▁fanweer",
        -10.334699418815958
      ],
      [
        "▁Gaynd",
        -10.33470128147144
      ],
      [
        "▁fonction",
        -10.334702579340258
      ],
      [
        "▁poitrine",
        -10.334704354788187
      ],
      [
        "▁moyen",
        -10.334704739569103
      ],
      [
        "▁Confi",
        -10.334707118016617
      ],
      [
        "▁firndeel",
        -10.334707343585153
      ],
      [
        "▁xayma",
        -10.334707402115617
      ],
      [
        "00",
        -10.334708038861274
      ],
      [
        "▁Agsil",
        -10.334718040878098
      ],
      [
        "▁effect",
        -10.33471825498867
      ],
      [
        "▁conduis",
        -10.33472145988345
      ],
      [
        "▁caract",
        -10.33472502484781
      ],
      [
        "▁soxal",
        -10.334729305667887
      ],
      [
        "▁riz",
        -10.33473414647159
      ],
      [
        "▁ràpp",
        -10.334734670463106
      ],
      [
        "▁ňàkk",
        -10.334736562010686
      ],
      [
        "▁meetar",
        -10.33473843959201
      ],
      [
        "▁revenu",
        -10.334740085169383
      ],
      [
        "▁bënn",
        -10.334741648570153
      ],
      [
        "▁móobal",
        -10.334744997286307
      ],
      [
        "▁mbindeef",
        -10.334750012587216
      ],
      [
        "▁baobab",
        -10.33475574577778
      ],
      [
        "▁heureux",
        -10.334755930334135
      ],
      [
        "▁maasaloo",
        -10.334756120417765
      ],
      [
        "▁Au-dessus",
        -10.334760707015443
      ],
      [
        "▁dëppoo",
        -10.334767068975633
      ],
      [
        "▁décrit",
        -10.334791166503758
      ],
      [
        "▁bãŋ",
        -10.334795280034292
      ],
      [
        "▁lentement",
        -10.334796806364485
      ],
      [
        "▁peine",
        -10.334799498822584
      ],
      [
        "▁habituellement",
        -10.334801815453607
      ],
      [
        "▁naître",
        -10.334804169289356
      ],
      [
        "▁électrique",
        -10.334808183332186
      ],
      [
        "▁daŋar",
        -10.334809135240697
      ],
      [
        "▁flamme",
        -10.334814561721467
      ],
      [
        "▁foudre",
        -10.334815786485517
      ],
      [
        "▁comprendre",
        -10.334826661904186
      ],
      [
        "▁lëmm",
        -10.334828678940177
      ],
      [
        "▁verra",
        -10.334833663774756
      ],
      [
        "▁fureur",
        -10.334849863722605
      ],
      [
        "▁s'installe",
        -10.334857253083014
      ],
      [
        "▁tàggat",
        -10.334895838127629
      ],
      [
        "▁Dieu",
        -10.33490278149272
      ],
      [
        "▁capable",
        -10.334911664850306
      ],
      [
        "▁Mbam",
        -10.334916504017064
      ],
      [
        "rai",
        -10.334931222554639
      ],
      [
        "▁pension",
        -10.334949510203447
      ],
      [
        "▁perdre",
        -10.334951610548814
      ],
      [
        "▁tente",
        -10.334987821133078
      ],
      [
        "▁Combi",
        -10.33498994325035
      ],
      [
        "▁gosse",
        -10.33499345934267
      ],
      [
        "▁sauce",
        -10.335012703662626
      ],
      [
        "▁simila",
        -10.335030031539981
      ],
      [
        "▁commencé",
        -10.335036732134514
      ],
      [
        "▁màtt",
        -10.335050843990476
      ],
      [
        "▁genre",
        -10.33505645511314
      ],
      [
        "▁pegg",
        -10.335077616467878
      ],
      [
        "▁bruit",
        -10.335081979737799
      ],
      [
        "▁fièvre",
        -10.335092201187516
      ],
      [
        "▁install",
        -10.335108046470845
      ],
      [
        "▁contraire",
        -10.33512431422634
      ],
      [
        "▁prière",
        -10.335130779541098
      ],
      [
        "▁serré",
        -10.335160038507683
      ],
      [
        "▁gëléem",
        -10.335171201477298
      ],
      [
        "▁tubay",
        -10.335172638784984
      ],
      [
        "▁soxor",
        -10.335184406085792
      ],
      [
        "▁taq",
        -10.335216352481439
      ],
      [
        "▁Banyo",
        -10.3352183457691
      ],
      [
        "▁frappions",
        -10.33522533785847
      ],
      [
        "▁voudrait",
        -10.335251111720224
      ],
      [
        "▁woowa",
        -10.335278192897018
      ],
      [
        "▁wert",
        -10.335332378670572
      ],
      [
        "▁l'indépendance",
        -10.335340505512203
      ],
      [
        "▁Bateri",
        -10.335392821692896
      ],
      [
        "▁Ho",
        -10.335399743557723
      ],
      [
        "▁Joor",
        -10.335417148426727
      ],
      [
        "▁caisse",
        -10.335431258593406
      ],
      [
        "▁Dégg",
        -10.335434178056518
      ],
      [
        "▁drapeau",
        -10.335466337569995
      ],
      [
        "▁Looloo",
        -10.335503054853358
      ],
      [
        "▁absent",
        -10.335533957883701
      ],
      [
        "▁miirloo",
        -10.335568983194744
      ],
      [
        "▁semble-t-il",
        -10.335579253307257
      ],
      [
        "itié",
        -10.335601949537704
      ],
      [
        "▁sooke",
        -10.335635831128474
      ],
      [
        "-lu",
        -10.335733598803616
      ],
      [
        "▁yemale",
        -10.335737743385039
      ],
      [
        "▁Bamako",
        -10.33578043041521
      ],
      [
        "▁causé",
        -10.335783632741204
      ],
      [
        "▁échappé",
        -10.335787608885207
      ],
      [
        "▁meññ",
        -10.335809413972024
      ],
      [
        "-réew",
        -10.335818081850078
      ],
      [
        "▁chapeaux",
        -10.335839598550269
      ],
      [
        "▁oublier",
        -10.335863109999963
      ],
      [
        "▁c'est-à-dire",
        -10.335870121689611
      ],
      [
        "▁tuuru",
        -10.335875750497964
      ],
      [
        "▁ràkkaaju",
        -10.33591149025725
      ],
      [
        "▁marqué",
        -10.335914646063262
      ],
      [
        "erig",
        -10.33593831303398
      ],
      [
        "saŋ",
        -10.33595655763947
      ],
      [
        "▁raconté",
        -10.336034676994851
      ],
      [
        "▁nangoo",
        -10.336121471142757
      ],
      [
        "▁bég",
        -10.33613145007502
      ],
      [
        "▁fen",
        -10.336152943103851
      ],
      [
        "▁déci",
        -10.336192215585163
      ],
      [
        "▁rose",
        -10.336245488267041
      ],
      [
        "▁tëgg",
        -10.33628707816163
      ],
      [
        "▁prendre",
        -10.336287855782087
      ],
      [
        "▁élevé",
        -10.33630864595244
      ],
      [
        "▁d'entre",
        -10.33635549946997
      ],
      [
        "▁Xaw",
        -10.336379512050463
      ],
      [
        "▁poudre",
        -10.336431604108498
      ],
      [
        "▁aigu",
        -10.336454733340794
      ],
      [
        "▁dég",
        -10.336472983057309
      ],
      [
        "▁charme",
        -10.336525119679873
      ],
      [
        "▁portale",
        -10.336639114113932
      ],
      [
        "▁muraille",
        -10.336659132343428
      ],
      [
        "▁remis",
        -10.336685430473942
      ],
      [
        "▁l'in",
        -10.336712962833612
      ],
      [
        "▁Tann",
        -10.336725607190708
      ],
      [
        "▁penku",
        -10.336782014879082
      ],
      [
        "at.",
        -10.336862536898185
      ],
      [
        "▁brûlant",
        -10.336884290168063
      ],
      [
        "▁n'importe",
        -10.336913512534801
      ],
      [
        "▁kookale",
        -10.33695252316162
      ],
      [
        "roya",
        -10.336956949875777
      ],
      [
        "▁d'habitude",
        -10.336960108800506
      ],
      [
        "▁nuru",
        -10.336977984095377
      ],
      [
        "▁Mbir",
        -10.33699368869511
      ],
      [
        "▁qu'en",
        -10.33701173202185
      ],
      [
        "▁càkk",
        -10.33702493932748
      ],
      [
        "▁surveill",
        -10.337084341406056
      ],
      [
        "▁dijj",
        -10.337084911794191
      ],
      [
        "▁móol",
        -10.337104808722355
      ],
      [
        "tiens",
        -10.337173003189093
      ],
      [
        "▁Demkoon",
        -10.337197318077004
      ],
      [
        "▁léeg",
        -10.337267993875725
      ],
      [
        "▁neuf",
        -10.3372783397115
      ],
      [
        "▁Demuma",
        -10.337343057041359
      ],
      [
        "▁soirée",
        -10.337413847655023
      ],
      [
        "▁pétrole",
        -10.337455468188377
      ],
      [
        "àkk",
        -10.33762403556902
      ],
      [
        "▁sœurs",
        -10.337803142993433
      ],
      [
        "▁juges",
        -10.337811345467848
      ],
      [
        "ulëer",
        -10.33785174461175
      ],
      [
        "▁weg",
        -10.337927413258857
      ],
      [
        "▁cultive",
        -10.33793267059206
      ],
      [
        "▁dikkul",
        -10.337977178071656
      ],
      [
        "▁yeggee",
        -10.337987021110099
      ],
      [
        "empire",
        -10.338048395213992
      ],
      [
        "▁matinée",
        -10.338331353492098
      ],
      [
        "▁kayit",
        -10.33854407782271
      ],
      [
        "▁oreilles",
        -10.338613338672083
      ],
      [
        "▁apparaissent",
        -10.33882208760875
      ],
      [
        "▁sàmm",
        -10.33884568007787
      ],
      [
        "▁exerc",
        -10.338875481769561
      ],
      [
        "▁plats",
        -10.339023409772004
      ],
      [
        "▁fowu",
        -10.33922978908286
      ],
      [
        "rass",
        -10.33939948154039
      ],
      [
        "▁corde",
        -10.339446664751472
      ],
      [
        "▁Mokaa",
        -10.339459326346066
      ],
      [
        "▁sell",
        -10.339716158511559
      ],
      [
        "▁Mac",
        -10.339908829497151
      ],
      [
        "▁accepter",
        -10.339917222037204
      ],
      [
        "▁kaki",
        -10.340012738886006
      ],
      [
        "-tuut",
        -10.340017214627714
      ],
      [
        "▁Cependant",
        -10.340063625646518
      ],
      [
        "▁tëwa",
        -10.34011532557473
      ],
      [
        "▁d'Ar",
        -10.340485034194906
      ],
      [
        "▁puur",
        -10.340670911750381
      ],
      [
        "▁Yen",
        -10.340695733682525
      ],
      [
        "▁rendu",
        -10.340831135210223
      ],
      [
        "▁dress",
        -10.341217505651636
      ],
      [
        "▁you",
        -10.341265802505983
      ],
      [
        "▁ñaaw",
        -10.341479433933358
      ],
      [
        "óoy",
        -10.341488583537934
      ],
      [
        "▁d'art",
        -10.341695320847132
      ],
      [
        "▁libre",
        -10.34174019413798
      ],
      [
        "▁battant",
        -10.342001857126856
      ],
      [
        "▁étrange",
        -10.342130182248418
      ],
      [
        "▁jog",
        -10.342219628461262
      ],
      [
        "▁waaxu",
        -10.342335343968745
      ],
      [
        "▁Nun",
        -10.342346880001305
      ],
      [
        "▁marque",
        -10.342359086987495
      ],
      [
        "▁ñeent",
        -10.3430367168479
      ],
      [
        "entre",
        -10.343258258482326
      ],
      [
        "gul",
        -10.34326541079929
      ],
      [
        "ňu",
        -10.34339203388777
      ],
      [
        "▁battu",
        -10.343411644849688
      ],
      [
        "▁jàkka",
        -10.343425842604312
      ],
      [
        "▁gës",
        -10.343842811143222
      ],
      [
        "▁xamu",
        -10.34402352702131
      ],
      [
        "▁patte",
        -10.344330061424872
      ],
      [
        "▁joow",
        -10.34478566907389
      ],
      [
        "▁mbooloo",
        -10.345125480053465
      ],
      [
        "▁kilomètres",
        -10.345366655025922
      ],
      [
        "▁faax",
        -10.34537230543724
      ],
      [
        "▁fruits",
        -10.345373800366225
      ],
      [
        "▁rëbbi",
        -10.345465187516643
      ],
      [
        "▁Yo",
        -10.345520877534286
      ],
      [
        "▁d'il",
        -10.346143153417042
      ],
      [
        "▁confie",
        -10.346296445213607
      ],
      [
        "▁ger",
        -10.346334774145163
      ],
      [
        "▁demain",
        -10.346396522405302
      ],
      [
        "▁way-juram",
        -10.346655949664116
      ],
      [
        "kkati",
        -10.346712442442282
      ],
      [
        "▁Amin",
        -10.346722244886774
      ],
      [
        "▁kooka",
        -10.347027555264672
      ],
      [
        "▁éta",
        -10.347045662313672
      ],
      [
        "▁xer",
        -10.347336149894705
      ],
      [
        "▁xobi",
        -10.347370521126999
      ],
      [
        "mmeel",
        -10.347393172274387
      ],
      [
        "▁d'enfants",
        -10.347568200907448
      ],
      [
        "▁xóot",
        -10.347731095575568
      ],
      [
        "▁pain",
        -10.347851974942621
      ],
      [
        "▁ver",
        -10.348166952736822
      ],
      [
        "▁jeux",
        -10.348289031488232
      ],
      [
        "▁jàppoon",
        -10.348523816944887
      ],
      [
        "▁pax",
        -10.348529218987139
      ],
      [
        "▁secondes",
        -10.348808277147427
      ],
      [
        "emelle",
        -10.348832359936448
      ],
      [
        "▁vagues",
        -10.349009968075999
      ],
      [
        "▁Éta",
        -10.349676289813672
      ],
      [
        "▁manque",
        -10.34973520739678
      ],
      [
        "▁idée",
        -10.349899954541762
      ],
      [
        "▁arrive",
        -10.349981086866947
      ],
      [
        "egg",
        -10.35029231109914
      ],
      [
        "▁l'est",
        -10.350354753192507
      ],
      [
        "▁dootu",
        -10.35041616152829
      ],
      [
        "▁tenue",
        -10.35052415473225
      ],
      [
        "▁créé",
        -10.351471916315178
      ],
      [
        "▁roo",
        -10.351480776380706
      ],
      [
        "▁cri",
        -10.351522430289661
      ],
      [
        "gante",
        -10.351581337530835
      ],
      [
        "▁guis",
        -10.352076961825672
      ],
      [
        "▁prenant",
        -10.352359201347095
      ],
      [
        "▁fameuse",
        -10.352470823924973
      ],
      [
        "▁fum",
        -10.352581310127093
      ],
      [
        "bët",
        -10.352847920559363
      ],
      [
        "▁ceeb",
        -10.352987270969258
      ],
      [
        "wi",
        -10.353070296181198
      ],
      [
        "▁courses",
        -10.353099685038348
      ],
      [
        "▁baň",
        -10.35318518564412
      ],
      [
        "▁sipp",
        -10.353246504969174
      ],
      [
        "▁pé",
        -10.35331259520441
      ],
      [
        "▁peinte",
        -10.353834654514655
      ],
      [
        "▁Ñi",
        -10.353849339026457
      ],
      [
        "▁construi",
        -10.354028578634678
      ],
      [
        "▁méngale",
        -10.354641866481192
      ],
      [
        "cousu",
        -10.354664600186112
      ],
      [
        "▁Aka",
        -10.354861713851893
      ],
      [
        "▁muus",
        -10.355758870610034
      ],
      [
        "andis",
        -10.35613654041585
      ],
      [
        "oroom",
        -10.356548620912985
      ],
      [
        "▁diine",
        -10.36092079298469
      ],
      [
        "▁découverte",
        -10.36161106827723
      ],
      [
        "▁yóbb",
        -10.362885231250395
      ],
      [
        "▁demuñu",
        -10.362982801872045
      ],
      [
        "▁toogoon",
        -10.363071539143675
      ],
      [
        "alement",
        -10.363120536670419
      ],
      [
        "àll",
        -10.363218976753013
      ],
      [
        "▁n'ira",
        -10.363402381716133
      ],
      [
        "▁anciens",
        -10.363701170189898
      ],
      [
        "'exerce",
        -10.364466217417146
      ],
      [
        "▁Xo",
        -10.36469967949204
      ],
      [
        "ier",
        -10.365071132983807
      ],
      [
        "▁att",
        -10.365373276593298
      ],
      [
        "▁bàn",
        -10.365590214627844
      ],
      [
        "▁manifest",
        -10.365674867252892
      ],
      [
        "▁Nag",
        -10.365703312604131
      ],
      [
        "▁maladies",
        -10.36588567919561
      ],
      [
        "▁cat",
        -10.365996420969312
      ],
      [
        "▁diir",
        -10.366349043853436
      ],
      [
        "▁partent",
        -10.366423740250012
      ],
      [
        "▁gale",
        -10.366432687711463
      ],
      [
        "▁naŋg",
        -10.366830842207872
      ],
      [
        "▁l'inst",
        -10.367163784081981
      ],
      [
        "g.",
        -10.37084474490764
      ],
      [
        "▁Nee",
        -10.371575632795093
      ],
      [
        "▁diggu",
        -10.371689589431845
      ],
      [
        "▁sii",
        -10.372270160661913
      ],
      [
        "▁jafee",
        -10.372940665305785
      ],
      [
        "▁char",
        -10.373696020477306
      ],
      [
        "▁dundam",
        -10.373800042556386
      ],
      [
        "▁mbal",
        -10.374931879716463
      ],
      [
        "▁répu",
        -10.376318977953565
      ],
      [
        "▁instants",
        -10.376564692366275
      ],
      [
        "▁sib",
        -10.378237665379785
      ],
      [
        "▁sonn",
        -10.378422763882304
      ],
      [
        "▁Doon",
        -10.378873033848976
      ],
      [
        "▁Dina",
        -10.379285517282945
      ],
      [
        "▁dig",
        -10.379528986405429
      ],
      [
        "▁ňa",
        -10.38044786174478
      ],
      [
        "elu",
        -10.380729353667721
      ],
      [
        "▁rob",
        -10.381621668674399
      ],
      [
        "▁Kakaa",
        -10.382835129033838
      ],
      [
        "ju",
        -10.38524966902073
      ],
      [
        "▁connaiss",
        -10.385412670887101
      ],
      [
        "▁voyai",
        -10.385811790955493
      ],
      [
        "indre",
        -10.386896456544598
      ],
      [
        "▁chameau",
        -10.387820085180135
      ],
      [
        "▁jë",
        -10.389012918079487
      ],
      [
        "▁arriv",
        -10.38918586357335
      ],
      [
        "ddi",
        -10.389336710842578
      ],
      [
        "▁waxi",
        -10.390675297602609
      ],
      [
        "▁ker",
        -10.390737913967344
      ],
      [
        "▁grise",
        -10.394532145616065
      ],
      [
        "embou",
        -10.39581923182781
      ],
      [
        "ston",
        -10.399173729559678
      ],
      [
        "▁devenue",
        -10.399706581326079
      ],
      [
        "▁yare",
        -10.399881489407019
      ],
      [
        "▁new",
        -10.400504811831198
      ],
      [
        "ards",
        -10.402233611360007
      ],
      [
        "▁Lui",
        -10.405861022700048
      ],
      [
        "▁accompagne",
        -10.406266038896861
      ],
      [
        "prè",
        -10.406325539746513
      ],
      [
        "▁nd",
        -10.406881838815918
      ],
      [
        "laay",
        -10.411628216068403
      ],
      [
        "▁court",
        -10.411949846431916
      ],
      [
        "▁auto",
        -10.412441987513592
      ],
      [
        "▁Mak",
        -10.413361694580926
      ],
      [
        "ien",
        -10.413637943553562
      ],
      [
        "▁Mari",
[...]
