{
  "version": "1.0",
  "truncation": null,
  "padding": null,
  "added_tokens": [
    {
      "id": 0,
      "content": "<cls>",
      "single_word": false,
      "lstrip": false,
      "rstrip": false,
      "normalized": false,
      "special": true
    },
    {
      "id": 1,
      "content": "<sep>",
      "single_word": false,
      "lstrip": false,
      "rstrip": false,
      "normalized": false,
      "special": true
    },
    {
      "id": 2,
      "content": "<unk>",
      "single_word": false,
      "lstrip": false,
      "rstrip": false,
      "normalized": false,
      "special": true
    },
    {
      "id": 3,
      "content": "<pad>",
      "single_word": false,
      "lstrip": false,
      "rstrip": false,
      "normalized": false,
      "special": true
    },
    {
      "id": 4,
      "content": "<mask>",
      "single_word": false,
      "lstrip": false,
      "rstrip": false,
      "normalized": false,
      "special": true
    },
    {
      "id": 5,
      "content": "<s>",
      "single_word": false,
      "lstrip": false,
      "rstrip": false,
      "normalized": false,
      "special": true
    },
    {
      "id": 6,
      "content": "</s>",
      "single_word": false,
      "lstrip": false,
      "rstrip": false,
      "normalized": false,
      "special": true
    }
  ],
  "normalizer": {
    "type": "Replace",
    "pattern": {
      "String": " {2,}"
    },
    "content": " "
  },
  "pre_tokenizer": {
    "type": "Metaspace",
    "replacement": "▁",
    "add_prefix_space": true
  },
  "post_processor": null,
  "decoder": {
    "type": "Metaspace",
    "replacement": "▁",
    "add_prefix_space": true
  },
  "model": {
    "type": "Unigram",
    "unk_id": 2,
    "vocab": [
      [
        "<cls>",
        0.0
      ],
      [
        "<sep>",
        0.0
      ],
      [
        "<unk>",
        0.0
      ],
      [
        "<pad>",
        0.0
      ],
      [
        "<mask>",
        0.0
      ],
      [
        "<s>",
        0.0
      ],
      [
        "</s>",
        0.0
      ],
      [
        "▁",
        -2.5691199769191355
      ],
      [
        ".",
        -3.5219717703962106
      ],
      [
        "?",
        -3.913198546423417
      ],
      [
        "!",
        -3.9799214941179635
      ],
      [
        "s",
        -4.0612250097396885
      ],
      [
        ",",
        -4.217728100980106
      ],
      [
        "i",
        -4.587099878132523
      ],
      [
        "▁de",
        -4.612687877402026
      ],
      [
        "u",
        -4.6401958898935165
      ],
      [
        "▁!",
        -4.686422394710033
      ],
      [
        "e",
        -4.691781668647696
      ],
      [
        "▁la",
        -4.740352911539906
      ],
      [
        "'est",
        -4.7532711632402584
      ],
      [
        "▁dem",
        -4.809138430689112
      ],
      [
        "r",
        -4.828979873250634
      ],
      [
        "t",
        -4.908871375181876
      ],
      [
        "a",
        -4.942306360987223
      ],
      [
        "▁pas",
        -4.9713190016489195
      ],
      [
        "n",
        -5.01342296722256
      ],
      [
        "▁qui",
        -5.0313471463813615
      ],
      [
        "▁C",
        -5.039425571166442
      ],
      [
        "▁que",
        -5.0603080162783
      ],
      [
        "▁gi",
        -5.136818984768385
      ],
      [
        "▁na",
        -5.212416939636644
      ],
      [
        "▁õga",
        -5.23499454920609
      ],
      [
        "▁est",
        -5.291230599641738
      ],
      [
        "▁G",
        -5.31841727793658
      ],
      [
        "óor",
        -5.341472800627708
      ],
      [
        "▁un",
        -5.415716519305331
      ],
      [
        "▁vu",
        -5.428389917469078
      ],
      [
        "▁naa",
        -5.45232411795859
      ],
      [
        "▁ne",
        -5.454837181793283
      ],
      [
        "▁homme",
        -5.501575575746071
      ],
      [
        "▁Il",
        -5.538017157236127
      ],
      [
        "▁ce",
        -5.549268138417565
      ],
      [
        "▁Gis",
        -5.564861325806279
      ],
      [
        "le",
        -5.594726356455265
      ],
      [
        "▁Tu",
        -5.626322464984595
      ],
      [
        "▁été",
        -5.6276392077288575
      ],
      [
        "er",
        -5.632047783237891
      ],
      [
        "l",
        -5.641155574124158
      ],
      [
        "▁L'homme",
        -5.658980150029672
      ],
      [
        "▁tu",
        -5.691122565360106
      ],
      [
        "▁à",
        -5.7034856292103315
      ],
      [
        "▁a",
        -5.753806966961471
      ],
      [
        "▁ci",
        -5.809403013331993
      ],
      [
        "▁wax",
        -5.812067467209118
      ],
      [
        "y",
        -5.823438628970752
      ],
      [
        "é",
        -5.842223238638001
      ],
      [
        "▁Je",
        -5.868630746429803
      ],
      [
        "▁J'a",
        -5.871697604299053
      ],
      [
        "▁le",
        -5.876026973446856
      ],
      [
        "et",
        -5.886767548519862
      ],
      [
        "▁ñëw",
        -5.89857820449359
      ],
      [
        "▁l'homme",
        -5.903779476730744
      ],
      [
        "▁nit",
        -5.91145548825982
      ],
      [
        "▁mu",
        -5.916405693739844
      ],
      [
        "▁te",
        -5.980609203920136
      ],
      [
        "▁góor",
        -5.990838583423803
      ],
      [
        "▁se",
        -6.005471668553455
      ],
      [
        "x",
        -6.020908034789983
      ],
      [
        "▁les",
        -6.040522406009129
      ],
      [
        "▁c",
        -6.042335332292443
      ],
      [
        "al",
        -6.042736279473631
      ],
      [
        "▁qu'il",
        -6.08493294637617
      ],
      [
        "▁Nit",
        -6.093973241583013
      ],
      [
        "▁di",
        -6.11193268767953
      ],
      [
        "à",
        -6.114216696323192
      ],
      [
        "▁cet",
        -6.130710191663187
      ],
      [
        "▁en",
        -6.13844609435637
      ],
      [
        "▁parti",
        -6.140986686401704
      ],
      [
        "▁ba",
        -6.192254343237639
      ],
      [
        "▁autre",
        -6.232800196072206
      ],
      [
        "▁tout",
        -6.250573160509171
      ],
      [
        "c",
        -6.259309530988675
      ],
      [
        "▁yi",
        -6.282268730338358
      ],
      [
        "▁õgi",
        -6.291783781179416
      ],
      [
        "eneen",
        -6.314457777056655
      ],
      [
        "▁ki",
        -6.332019776400189
      ],
      [
        "▁sont",
        -6.3366121653463825
      ],
      [
        "..",
        -6.362046596140605
      ],
      [
        "▁gis",
        -6.365784095128337
      ],
      [
        "▁bëgg",
        -6.366909500076124
      ],
      [
        "▁woon",
        -6.386274668436478
      ],
      [
        "▁as",
        -6.423312078462099
      ],
      [
        "▁xale",
        -6.448458606121539
      ],
      [
        "▁bi",
        -6.460553983509161
      ],
      [
        "▁xar",
        -6.464722739686142
      ],
      [
        "▁je",
        -6.495029973505831
      ],
      [
        "▁du",
        -6.496279522185375
      ],
      [
        "▁n",
        -6.510666975768257
      ],
      [
        "▁là",
        -6.527911610094528
      ],
      [
        "ci",
        -6.53405363321459
      ],
      [
        "▁ka",
        -6.536612080706706
      ],
      [
        "▁pour",
        -6.5371490386373745
      ],
      [
        "re",
        -6.544682115277271
      ],
      [
        "▁celui-là",
        -6.544891813960394
      ],
      [
        "▁A",
        -6.549586804295227
      ],
      [
        "▁parle",
        -6.558706081215389
      ],
      [
        "oon",
        -6.5606288763943255
      ],
      [
        "▁nag",
        -6.563443612421364
      ],
      [
        "▁Dem",
        -6.571299979626149
      ],
      [
        "▁il",
        -6.580169313561693
      ],
      [
        "▁mi",
        -6.605569227091447
      ],
      [
        "▁des",
        -6.606199728563132
      ],
      [
        "▁mouton",
        -6.613289292830196
      ],
      [
        "m",
        -6.61344949909679
      ],
      [
        "woon",
        -6.614728544140796
      ],
      [
        "▁d",
        -6.616989279284978
      ],
      [
        "▁lui",
        -6.625193222193908
      ],
      [
        "▁la.",
        -6.649036597036096
      ],
      [
        "▁toi",
        -6.65020342469679
      ],
      [
        "▁voilà",
        -6.661675941929419
      ],
      [
        "o",
        -6.66402190856623
      ],
      [
        "▁biir",
        -6.680209521487909
      ],
      [
        "▁l'intérieur",
        -6.6871188453869435
      ],
      [
        "▁ma",
        -6.700641056324352
      ],
      [
        "-",
        -6.701787225226651
      ],
      [
        "▁s",
        -6.713777198499649
      ],
      [
        "▁ji",
        -6.720973476318101
      ],
      [
        "▁partir",
        -6.724117960127156
      ],
      [
        "▁l",
        -6.72442483899514
      ],
      [
        "il",
        -6.7466565482266585
      ],
      [
        "que",
        -6.758032900262101
      ],
      [
        "▁ag",
        -6.760837529572645
      ],
      [
        "épp",
        -6.762279779254838
      ],
      [
        "▁quelqu'un",
        -6.765916654061655
      ],
      [
        "▁fi",
        -6.769603607758455
      ],
      [
        "▁venu",
        -6.770201386854566
      ],
      [
        "▁demee",
        -6.771454516323411
      ],
      [
        "▁kenn",
        -6.793806331269156
      ],
      [
        "▁demul",
        -6.794303591117503
      ],
      [
        "▁moi",
        -6.796973655250394
      ],
      [
        "▁sa",
        -6.805416838148298
      ],
      [
        "▁enfants",
        -6.827709993617317
      ],
      [
        "▁k",
        -6.834271339291947
      ],
      [
        "▁J",
        -6.85154001982788
      ],
      [
        "▁laa",
        -6.851596296901816
      ],
      [
        "tu",
        -6.863902647813637
      ],
      [
        "▁ami",
        -6.864848544168839
      ],
      [
        "▁moom",
        -6.867323756510006
      ],
      [
        "▁Quel",
        -6.870983971384275
      ],
      [
        "être",
        -6.87414297596982
      ],
      [
        "▁O",
        -6.878366697741637
      ],
      [
        "▁jigéen",
        -6.881823432878473
      ],
      [
        "▁Ci",
        -6.883052199977444
      ],
      [
        "▁dit",
        -6.88733540117625
      ],
      [
        "▁Cet",
        -6.890217684420767
      ],
      [
        "▁chose",
        -6.892323754217472
      ],
      [
        "▁fait",
        -6.892851067828963
      ],
      [
        "▁fa",
        -6.895603162428397
      ],
      [
        "▁waa",
        -6.901593703391121
      ],
      [
        "f",
        -6.921929802964682
      ],
      [
        "s-t",
        -6.922783774934803
      ],
      [
        "ak",
        -6.933314294338304
      ],
      [
        "▁vous",
        -6.934033242205913
      ],
      [
        "▁õgeen",
        -6.934246610894299
      ],
      [
        "une",
        -6.934526612888295
      ],
      [
        "te",
        -6.94142821741146
      ],
      [
        "▁aussi",
        -6.94451954398674
      ],
      [
        "▁n'a",
        -6.947962492213634
      ],
      [
        "ment",
        -6.949280359402026
      ],
      [
        "▁peut-",
        -6.949903411219754
      ],
      [
        "▁femme",
        -6.956803313177453
      ],
      [
        "▁dans",
        -6.961944891644718
      ],
      [
        "▁ñi",
        -6.964761669512973
      ],
      [
        "ù",
        -6.966884281061406
      ],
      [
        "-là",
        -6.96697427186629
      ],
      [
        "▁celui",
        -6.977323736639314
      ],
      [
        "▁foofu",
        -6.984102345060149
      ],
      [
        "▁ave",
        -7.000323247345584
      ],
      [
        "▁Le",
        -7.00618473504818
      ],
      [
        "▁si",
        -7.008015597205138
      ],
      [
        "▁ku",
        -7.008561793468132
      ],
      [
        "▁xarit",
        -7.01427177403301
      ],
      [
        "▁où",
        -7.018610386548633
      ],
      [
        "▁Xar",
        -7.020103749220715
      ],
      [
        "▁veux",
        -7.020998867645545
      ],
      [
        "▁Ce",
        -7.0387893755337085
      ],
      [
        "▁E",
        -7.039362653645217
      ],
      [
        "nt",
        -7.053759311091396
      ],
      [
        "▁réer",
        -7.055255127679724
      ],
      [
        "▁part",
        -7.0565881318153565
      ],
      [
        "▁nda",
        -7.06308991630575
      ],
      [
        "▁m",
        -7.072225346331777
      ],
      [
        "▁Fa",
        -7.078029671436397
      ],
      [
        "▁par",
        -7.078253627150676
      ],
      [
        "▁L",
        -7.083827637170268
      ],
      [
        "▁là-bas",
        -7.085204792684844
      ],
      [
        "d",
        -7.090147496087319
      ],
      [
        "▁Qui",
        -7.090580596283106
      ],
      [
        "on",
        -7.09282434391107
      ],
      [
        "w",
        -7.095718111124848
      ],
      [
        "▁Les",
        -7.096281659339483
      ],
      [
        "est",
        -7.103318512157687
      ],
      [
        "▁kooku",
        -7.107023636591666
      ],
      [
        "▁Sée",
        -7.1135888968055365
      ],
      [
        "ez",
        -7.1210800991712695
      ],
      [
        "ont",
        -7.124742600326098
      ],
      [
        "▁soo",
        -7.136759650125684
      ],
      [
        "ne",
        -7.145926770924543
      ],
      [
        "oo",
        -7.148858577575107
      ],
      [
        "-ci",
        -7.152242415690328
      ],
      [
        "▁b",
        -7.157827614254645
      ],
      [
        "▁moutons",
        -7.164541707784386
      ],
      [
        "voir",
        -7.165463478881984
      ],
      [
        "▁gens",
        -7.166483591445871
      ],
      [
        "▁ni",
        -7.1768998940625455
      ],
      [
        "ent",
        -7.1841129755729325
      ],
      [
        "▁veut",
        -7.185970111610116
      ],
      [
        "ay",
        -7.186755246195606
      ],
      [
        "ir",
        -7.189398531362724
      ],
      [
        "is",
        -7.193250839848562
      ],
      [
        "▁Su",
        -7.19382183795423
      ],
      [
        "it",
        -7.203677505820696
      ],
      [
        "▁maison",
        -7.20567583631852
      ],
      [
        "▁personne",
        -7.208355111037923
      ],
      [
        "▁Que",
        -7.2140957996531725
      ],
      [
        "▁manière",
        -7.220605752696983
      ],
      [
        "▁Na",
        -7.2229472680732165
      ],
      [
        "▁So",
        -7.223067696501898
      ],
      [
        "▁fu",
        -7.223086090166501
      ],
      [
        "▁ceux-là",
        -7.248532522468132
      ],
      [
        "▁alors",
        -7.2485448119062905
      ],
      [
        "▁D",
        -7.254346989067692
      ],
      [
        "▁ya",
        -7.255322061616485
      ],
      [
        "▁F",
        -7.258310052447152
      ],
      [
        "▁moo",
        -7.265984455366617
      ],
      [
        "▁ñu",
        -7.274628552087188
      ],
      [
        "▁j",
        -7.277165298302564
      ],
      [
        "g",
        -7.2817595515906595
      ],
      [
        "▁Maa",
        -7.289612416981294
      ],
      [
        "▁araf",
        -7.293169575509793
      ],
      [
        "▁Vous",
        -7.293289671472341
      ],
      [
        "▁man",
        -7.2953313665442945
      ],
      [
        "▁nak",
        -7.29712979222694
      ],
      [
        "▁itam",
        -7.301059582875972
      ],
      [
        "na",
        -7.309751501390572
      ],
      [
        "▁baax",
        -7.312049639922992
      ],
      [
        "quel",
        -7.337824709898821
      ],
      [
        "▁jusqu'",
        -7.339684199872588
      ],
      [
        "▁l'autre",
        -7.341590016035522
      ],
      [
        "faire",
        -7.341754287697061
      ],
      [
        "▁celui-ci",
        -7.342592527249765
      ],
      [
        "▁yépp",
        -7.342732587365646
      ],
      [
        "▁K",
        -7.343540150622282
      ],
      [
        "▁y",
        -7.348926007243316
      ],
      [
        "▁doon",
        -7.352258101090769
      ],
      [
        "ul",
        -7.3574116827742415
      ],
      [
        "▁aller",
        -7.360267170121247
      ],
      [
        "▁bon",
        -7.368546295845148
      ],
      [
        "▁dee",
        -7.37073934550516
      ],
      [
        "es",
        -7.371092774796935
      ],
      [
        "▁su",
        -7.372265976434984
      ],
      [
        "koon",
        -7.377469822447339
      ],
      [
        "en",
        -7.378081336055102
      ],
      [
        "▁Du",
        -7.382608278741419
      ],
      [
        "▁être",
        -7.387910610510478
      ],
      [
        "▁dana",
        -7.39861146651549
      ],
      [
        "▁S",
        -7.406449524116401
      ],
      [
        "ée",
        -7.409082526314637
      ],
      [
        "▁vois",
        -7.418224399632144
      ],
      [
        "▁quelle",
        -7.4252874215020785
      ],
      [
        "uñu",
        -7.429660717007891
      ],
      [
        "▁Va",
        -7.438886435953555
      ],
      [
        "▁doõõ",
        -7.4430877826287585
      ],
      [
        "▁donné",
        -7.443631708792546
      ],
      [
        "▁Keneen",
        -7.44534135540718
      ],
      [
        "▁lequel",
        -7.44564931914368
      ],
      [
        "▁Te",
        -7.445761938982791
      ],
      [
        "dre",
        -7.449166215667402
      ],
      [
        "▁t",
        -7.449654704872298
      ],
      [
        "▁son",
        -7.450662998473974
      ],
      [
        "▁Yaa",
        -7.453474286484923
      ],
      [
        "▁croi",
        -7.454079669633922
      ],
      [
        "▁tou",
        -7.470415649831276
      ],
      [
        "ç",
        -7.474539570117364
      ],
      [
        "▁ca",
        -7.481390353067044
      ],
      [
        "kat",
        -7.4827480128612915
      ],
      [
        "p",
        -7.485415547613886
      ],
      [
        "or",
        -7.495559671642585
      ],
      [
        "▁La",
        -7.495613734874171
      ],
      [
        "▁ñoo",
        -7.495804423671698
      ],
      [
        "▁soi",
        -7.496139026916842
      ],
      [
        "▁lion",
        -7.497178994075895
      ],
      [
        "▁rekk",
        -7.498788063925581
      ],
      [
        "▁Samba",
        -7.498788865699462
      ],
      [
        "▁cheval",
        -7.498966647591471
      ],
      [
        "▁Xale",
        -7.499135272070498
      ],
      [
        "▁égaré",
        -7.500238802324362
      ],
      [
        "▁Nda",
        -7.504738280611002
      ],
      [
        "▁mais",
        -7.505667752215707
      ],
      [
        "▁Laobe",
        -7.50744350482043
      ],
      [
        "▁es",
        -7.508690189799504
      ],
      [
        "un",
        -7.526881369960771
      ],
      [
        "▁leen",
        -7.528864314738213
      ],
      [
        "▁kan",
        -7.529906351854752
      ],
      [
        "▁seul",
        -7.5327842971687105
      ],
      [
        "▁ou",
        -7.534349764977724
      ],
      [
        "ël",
        -7.536270919427851
      ],
      [
        "▁t'a",
        -7.54146267020276
      ],
      [
        "s.",
        -7.541481747763994
      ],
      [
        "ce",
        -7.547046062542771
      ],
      [
        "près",
        -7.548356509687482
      ],
      [
        "▁comme",
        -7.554162906520903
      ],
      [
        "▁Moo",
        -7.555242636759641
      ],
      [
        "▁rien",
        -7.558202916666886
      ],
      [
        "▁ñépp",
        -7.558305016485281
      ],
      [
        "▁moment",
        -7.558389272703349
      ],
      [
        "▁Mais",
        -7.55884363541653
      ],
      [
        "▁mépp",
        -7.561045295292258
      ],
      [
        "▁yooyu",
        -7.5614434065643685
      ],
      [
        "▁f",
        -7.561518258209105
      ],
      [
        "▁gii",
        -7.561736167851055
      ],
      [
        "▁kër",
        -7.564785498608698
      ],
      [
        "▁ñan",
        -7.56738621655441
      ],
      [
        "▁Waa",
        -7.57008266763667
      ],
      [
        "▁autres",
        -7.572384614710021
      ],
      [
        "▁fut",
        -7.573005062851231
      ],
      [
        "▁bien",
        -7.580609081200519
      ],
      [
        "▁Mi",
        -7.581058005960854
      ],
      [
        "▁Bëgg",
        -7.584939895622491
      ],
      [
        "▁dul",
        -7.584978030818143
      ],
      [
        "▁Seet",
        -7.586660044506639
      ],
      [
        "▁Ma",
        -7.602511939823543
      ],
      [
        "▁d'",
        -7.602517477603679
      ],
      [
        "k",
        -7.610856537885866
      ],
      [
        "▁n'es",
        -7.61221634900221
      ],
      [
        "igéen",
        -7.618788289602364
      ],
      [
        "ale",
        -7.618959573688511
      ],
      [
        "▁Un",
        -7.619367812243896
      ],
      [
        "▁benn",
        -7.620713588991
      ],
      [
        "▁vache",
        -7.620901451427741
      ],
      [
        "▁sax",
        -7.621457084542104
      ],
      [
        "▁génn",
        -7.621946185695623
      ],
      [
        "▁dara",
        -7.622248750416486
      ],
      [
        "▁demkoon",
        -7.626932266617897
      ],
      [
        "yan",
        -7.628290869649579
      ],
      [
        "▁cha",
        -7.631116635273456
      ],
      [
        "▁Ndar",
        -7.632788754965418
      ],
      [
        "▁cela",
        -7.634339703061464
      ],
      [
        "▁lañu",
        -7.634932585145626
      ],
      [
        "▁quelque",
        -7.641613876462656
      ],
      [
        "▁parte",
        -7.643841835458389
      ],
      [
        "▁l'",
        -7.643854467345645
      ],
      [
        "ement",
        -7.645342085738004
      ],
      [
        "▁gan",
        -7.649474813241529
      ],
      [
        "ette",
        -7.654143658212334
      ],
      [
        "▁fii",
        -7.661071748753636
      ],
      [
        "mi",
        -7.663518920533657
      ],
      [
        "ante",
        -7.6659778547857425
      ],
      [
        "▁même",
        -7.666031801747414
      ],
      [
        "▁w",
        -7.666228224264415
      ],
      [
        "▁Si",
        -7.666844505597103
      ],
      [
        "▁Y",
        -7.67272691484734
      ],
      [
        "▁De",
        -7.673277955275192
      ],
      [
        "ation",
        -7.680375717233914
      ],
      [
        "▁Kooku",
        -7.686080022220528
      ],
      [
        "▁Ba",
        -7.6870205110159056
      ],
      [
        "▁Yaw",
        -7.691758704821001
      ],
      [
        "▁Ya",
        -7.701533794544435
      ],
      [
        "▁nee",
        -7.704563761321136
      ],
      [
        "▁Da",
        -7.705012237786519
      ],
      [
        "▁n'",
        -7.707085190025042
      ],
      [
        "aper",
        -7.707781377942137
      ],
      [
        "▁xam",
        -7.711135561731252
      ],
      [
        "b",
        -7.721758904240586
      ],
      [
        "té",
        -7.737750800611466
      ],
      [
        "▁da",
        -7.739584255196895
      ],
      [
        "▁fas",
        -7.751211990340179
      ],
      [
        "▁l'a",
        -7.755110520213034
      ],
      [
        "▁au",
        -7.756243773672778
      ],
      [
        "▁do",
        -7.756656532138052
      ],
      [
        "▁S'il",
        -7.757301628410801
      ],
      [
        "▁Aucun",
        -7.7575102988749265
      ],
      [
        "▁habitant",
        -7.757963437296992
      ],
      [
        "▁nul",
        -7.758107317044351
      ],
      [
        "▁Celui-là",
        -7.7581494724773155
      ],
      [
        "▁simplement",
        -7.758167095696694
      ],
      [
        "▁gaynde",
        -7.760696581282405
      ],
      [
        "▁liggéey",
        -7.7610472772102135
      ],
      [
        "▁bañ",
        -7.761497994011519
      ],
      [
        "▁pars",
        -7.762253936834584
      ],
      [
        "▁endroit",
        -7.763025013613632
      ],
      [
        "▁dame",
        -7.764906241116948
      ],
      [
        "an",
        -7.765783867737687
      ],
      [
        "▁Tout",
        -7.765839871219963
      ],
      [
        "▁voir",
        -7.767271085458914
      ],
      [
        "▁jeune",
        -7.772945219723921
      ],
      [
        "▁dé",
        -7.773460060956429
      ],
      [
        "elle",
        -7.77414489802802
      ],
      [
        "▁d'autres",
        -7.775939887813966
      ],
      [
        "ant",
        -7.787879026531743
      ],
      [
        "fin",
        -7.795462690562392
      ],
      [
        "▁Bi",
        -7.799415874774439
      ],
      [
        "in",
        -7.8001694193015325
      ],
      [
        "▁no",
        -7.806917207479251
      ],
      [
        "▁vas",
        -7.808303749477686
      ],
      [
        "di",
        -7.809864554975316
      ],
      [
        "▁avait",
        -7.8132038235252725
      ],
      [
        ":",
        -7.830539666626567
      ],
      [
        "▁jëm",
        -7.83317195612457
      ],
      [
        "ar",
        -7.833438427580355
      ],
      [
        "▁matin",
        -7.8342565771537345
      ],
      [
        "▁encore",
        -7.834391986095743
      ],
      [
        "▁Qu'il",
        -7.834639835649912
      ],
      [
        "▁Saint-Louis",
        -7.834646168653412
      ],
      [
        "▁Yéen",
        -7.835321460323305
      ],
      [
        "▁Mu",
        -7.83665836803784
      ],
      [
        "ul.",
        -7.8381149248585285
      ],
      [
        "▁bëggul",
        -7.838675943458643
      ],
      [
        "▁kii",
        -7.838836837181304
      ],
      [
        "▁nañu",
        -7.840069014483958
      ],
      [
        "▁def",
        -7.842155848447886
      ],
      [
        "▁viendra",
        -7.847439334746399
      ],
      [
        "▁À",
        -7.848667150896786
      ],
      [
        "▁wall",
        -7.860210335081836
      ],
      [
        "▁re",
        -7.861890039759915
      ],
      [
        "▁Di",
        -7.862146285394916
      ],
      [
        "▁Wax",
        -7.86566886977264
      ],
      [
        "▁ici",
        -7.866565907616511
      ],
      [
        "▁ban",
        -7.874997825725226
      ],
      [
        "▁bii",
        -7.875337136975871
      ],
      [
        "▁bu",
        -7.880126240219548
      ],
      [
        "▁li",
        -7.882411171771075
      ],
      [
        "▁femmes",
        -7.88566761186364
      ],
      [
        "waay",
        -7.886106872387387
      ],
      [
        "▁va",
        -7.886340381105568
      ],
      [
        "▁étai",
        -7.886350711853295
      ],
      [
        "▁qu'",
        -7.888748159921212
      ],
      [
        "▁plus",
        -7.892792815374047
      ],
      [
        "ser",
        -7.893963993729582
      ],
      [
        "▁dugg",
        -7.895556402194531
      ],
      [
        "▁aux",
        -7.895659888242468
      ],
      [
        "é.",
        -7.896116434094746
      ],
      [
        "ñ",
        -7.896949281262047
      ],
      [
        "▁vienne",
        -7.898460868052076
      ],
      [
        "ère",
        -7.898720365647369
      ],
      [
        "▁toog",
        -7.89934862377541
      ],
      [
        "▁Ken",
        -7.899816585535215
      ],
      [
        "▁Quelle",
        -7.901938668789562
      ],
      [
        "age",
        -7.902337691390704
      ],
      [
        "▁rafet",
        -7.9075263568917675
      ],
      [
        "▁am",
        -7.909456632833889
      ],
      [
        "▁Jox",
        -7.916773838628101
      ],
      [
        "▁Lawbe",
        -7.917361471307958
      ],
      [
        "▁Cherche",
        -7.917622332430168
      ],
      [
        "▁R",
        -7.917710980624378
      ],
      [
        "▁question",
        -7.917756938799043
      ],
      [
        "▁Defe",
        -7.917948130384536
      ],
      [
        "▁yaw",
        -7.919812158785437
      ],
      [
        "tre",
        -7.919827354720585
      ],
      [
        "aay",
        -7.919928494780617
      ],
      [
        "▁bépp",
        -7.9210485721925155
      ],
      [
        "▁Demal",
        -7.924814678456361
      ],
      [
        "▁noonu",
        -7.928027263345372
      ],
      [
        "▁gee",
        -7.930012473117377
      ],
      [
        "▁doom",
        -7.9301541868283305
      ],
      [
        "▁l'un",
        -7.93594976333519
      ],
      [
        "me",
        -7.936634671374589
      ],
      [
        "▁sur",
        -7.939203388872723
      ],
      [
        "▁leneen",
        -7.942473376266049
      ],
      [
        "ier",
        -7.945924395074436
      ],
      [
        "▁d'un",
        -7.9459703531386126
      ],
      [
        "enn",
        -7.946853226237705
      ],
      [
        "fois",
        -7.950365908537179
      ],
      [
        "ter",
        -7.9534960211107055
      ],
      [
        "and",
        -7.95578714569548
      ],
      [
        "▁parles",
        -7.956628549392276
      ],
      [
        "▁õgii",
        -7.962907465284493
      ],
      [
        "▁quel",
        -7.96600029596039
      ],
      [
        "óon",
        -7.966237089834038
      ],
      [
        "ais",
        -7.970033874523532
      ],
      [
        "▁na.",
        -7.970225374075178
      ],
      [
        "am",
        -7.9728480147023975
      ],
      [
        "ou",
        -7.976109716977297
      ],
      [
        "▁daõ",
        -7.979477550350892
      ],
      [
        "s-",
        -7.981750112949003
      ],
      [
        "les",
        -7.988206033997198
      ],
      [
        "▁j'a",
        -7.99190292938275
      ],
      [
        "eux",
        -7.992902718113157
      ],
      [
        "fa",
        -7.993829964130363
      ],
      [
        "▁P",
        -7.999235724925697
      ],
      [
        "▁p",
        -8.002593491410316
      ],
      [
        "▁qu",
        -8.004344832805092
      ],
      [
        "▁Sa",
        -8.0049909729086
      ],
      [
        "▁égarée",
        -8.005608535872957
      ],
      [
        "▁petit",
        -8.007920606040152
      ],
      [
        "▁ainsi",
        -8.007923080624927
      ],
      [
        "▁Homme",
        -8.007923780885198
      ],
      [
        "▁Moussa",
        -8.00810503302409
      ],
      [
        "▁Xammee",
        -8.008118932403129
      ],
      [
        "▁Alors",
        -8.008171803006418
      ],
      [
        "▁jaõg",
        -8.008548602869872
      ],
      [
        "▁daa",
        -8.009546108614717
      ],
      [
        "▁g",
        -8.009859873680593
      ],
      [
        "ee",
        -8.01084428443719
      ],
      [
        "▁dañu",
        -8.011705346314642
      ],
      [
        "naa",
        -8.013567354296391
      ],
      [
        "▁néeg",
        -8.014962428706559
      ],
      [
        "▁Nou",
        -8.015204779588299
      ],
      [
        "▁fille",
        -8.017219401274051
      ],
      [
        "▁Ra",
        -8.01734857521455
      ],
      [
        "▁ira",
        -8.024372662579506
      ],
      [
        "éew",
        -8.025098378094338
      ],
      [
        "▁partira",
        -8.030445344870575
      ],
      [
        "▁defe",
        -8.03216058162103
      ],
      [
        "▁toute",
        -8.034064460187146
      ],
      [
        "est-ce",
        -8.034246957264807
      ],
      [
        "▁ja",
        -8.038285414298953
      ],
      [
        "▁may",
        -8.0406613242764
      ],
      [
        "▁loolu",
        -8.045194291604286
      ],
      [
        "▁wa",
        -8.049844025310259
      ],
      [
        "▁Bu",
        -8.050140367867803
      ],
      [
        "▁cause",
        -8.054766015229857
      ],
      [
        "▁C'",
        -8.06216353355271
      ],
      [
        "▁Li",
        -8.06811232135205
      ],
      [
        "réer",
        -8.076270934233804
      ],
      [
        "▁M",
        -8.077337411246468
      ],
      [
        "vais",
        -8.08228519792654
      ],
      [
        "▁ta",
        -8.082901000128446
      ],
      [
        "oi",
        -8.08566909819778
      ],
      [
        "ax",
        -8.087020802337474
      ],
      [
        "▁v",
        -8.087642357602402
      ],
      [
        "▁celle",
        -8.095462816553546
      ],
      [
        "▁parl",
        -8.10314128983017
      ],
      [
        "esquel",
        -8.103361816050048
      ],
      [
        "atim",
        -8.104732256032218
      ],
      [
        "▁subë",
        -8.107406132224579
      ],
      [
        "▁lan",
        -8.107757100989607
      ],
      [
        "▁d'Europe",
        -8.108023447957567
      ],
      [
        "▁ñenn",
        -8.108023953639396
      ],
      [
        "▁ensemble",
        -8.108028850099712
      ],
      [
        "▁Fatim",
        -8.108223958734424
      ],
      [
        "▁pourtant",
        -8.108228456813464
      ],
      [
        "▁ndaw",
        -8.10973766143191
      ],
      [
        "▁Xam",
        -8.110048750898788
      ],
      [
        "▁serai",
        -8.112128933386265
      ],
      [
        "▁sortir",
        -8.113227547228693
      ],
      [
        "▁yeneen",
        -8.115486070310762
      ],
      [
        "▁biti",
        -8.121115423898491
      ],
      [
        "pp",
        -8.122753103950304
      ],
      [
        "▁aujourd'hui",
        -8.124288400215907
      ],
      [
        "▁Koo",
        -8.125950140110957
      ],
      [
        "▁sama",
        -8.126564345508516
      ],
      [
        "▁ñooñu",
        -8.128725897931018
      ],
      [
        "▁Man",
        -8.128968949613188
      ],
      [
        "▁Mon",
        -8.12919192760157
      ],
      [
        "▁xa",
        -8.134604326461279
      ],
      [
        "C",
        -8.136781438255277
      ],
      [
        "▁Voil",
        -8.138451781650662
      ],
      [
        "▁partes",
        -8.139186126203679
      ],
      [
        "as-",
        -8.141639744253837
      ],
      [
        "ii",
        -8.141834911615314
      ],
      [
        "▁so",
        -8.146369953662594
      ],
      [
        "▁fil",
        -8.148256366387425
      ],
      [
        "▁mbaa",
        -8.152437414031809
      ],
      [
        "▁V",
        -8.153050349049812
      ],
      [
        "de",
        -8.156813489490073
      ],
      [
        "▁pay",
        -8.173090292486226
      ],
      [
        "ñu",
        -8.180139622583019
      ],
      [
        "▁ñëwul",
        -8.180521135449137
      ],
      [
        "▁Ñ",
        -8.183939093775573
      ],
      [
        "q",
        -8.188088770047012
      ],
      [
        "uma",
        -8.19498051801096
      ],
      [
        "è",
        -8.195379127440852
      ],
      [
        "óo",
        -8.195967870879588
      ],
      [
        "tal",
        -8.20265514084462
      ],
      [
        "▁N",
        -8.204150637698495
      ],
      [
        "▁ñooña",
        -8.20797374982403
      ],
      [
        "▁prend",
        -8.216329799660105
      ],
      [
        "▁dëkk",
        -8.216674110807796
      ],
      [
        "▁jam",
        -8.21671660096457
      ],
      [
        "▁seet",
        -8.2173700161444
      ],
      [
        "▁Musaa",
        -8.21738253848726
      ],
      [
        "▁acheté",
        -8.218544533668624
      ],
      [
        "▁Sérère",
        -8.218581169025494
      ],
      [
        "▁Tay",
        -8.218637969764554
      ],
      [
        "▁jii",
        -8.219783603886981
      ],
      [
        "nd",
        -8.223844474444675
      ],
      [
        "▁s'en",
        -8.224078242278011
      ],
      [
        "▁Woo",
        -8.224409212023378
      ],
      [
        "▁õgoon",
        -8.224700039784096
      ],
      [
        "▁Noonu",
        -8.229164427837222
      ],
      [
        "▁tay",
        -8.230221583212781
      ],
      [
        "▁vient",
        -8.231221848221999
      ],
      [
        "▁enfant",
        -8.234590832207854
      ],
      [
        "▁Ne",
        -8.235087586441058
      ],
      [
        "▁gu",
        -8.237301502021088
      ],
      [
        "aan",
        -8.23742372377282
      ],
      [
        "'habitude",
        -8.238519225461316
      ],
      [
        "▁Là",
        -8.239073955360276
      ],
      [
        "▁W",
        -8.240381336348284
      ],
      [
        "▁seen",
        -8.241462803853947
      ],
      [
        "ka",
        -8.243187460816749
      ],
      [
        "▁téer",
        -8.244237728957645
      ],
      [
        "▁ch",
        -8.245363239876898
      ],
      [
        "eur",
        -8.246869738394725
      ],
      [
        "▁bokk",
        -8.246926540778512
      ],
      [
        "oom",
        -8.24694046917027
      ],
      [
        "'étai",
        -8.247448043492446
      ],
      [
        "▁viennes",
        -8.247811970470519
      ],
      [
        "ver",
        -8.249449435404303
      ],
      [
        "▁ñ",
        -8.250743511372944
      ],
      [
        "ma",
        -8.254067818613969
      ],
      [
        "ile",
        -8.261995642937636
      ],
      [
        "kk",
        -8.263262924002554
      ],
      [
        "▁d'a",
        -8.263324904603873
      ],
      [
        "▁daf",
        -8.2654034115344
      ],
      [
        "▁d'autre",
        -8.26806901438471
      ],
      [
        "▁ay",
        -8.274441536809501
      ],
      [
        "z",
        -8.28258570684483
      ],
      [
        "ait",
        -8.286522146168839
      ],
      [
        "▁demande",
        -8.28835637322857
      ],
      [
        "▁Comme",
        -8.289265797680251
      ],
      [
        "▁eû",
        -8.293820248149409
      ],
      [
        "ag",
        -8.29613423851406
      ],
      [
        "▁travail",
        -8.296628298970301
      ],
      [
        "mer",
        -8.297369849935563
      ],
      [
        "aaw",
        -8.297908426142701
      ],
      [
        "t-il",
        -8.298283454784858
      ],
      [
        "▁avais",
        -8.299911369060752
      ],
      [
        "▁parti.",
        -8.305222673066222
      ],
      [
        "▁Doo",
        -8.30980940060044
      ],
      [
        "▁sort",
        -8.321833667475637
      ],
      [
        "▁woo",
        -8.321932954619903
      ],
      [
        "▁av",
        -8.324473938659061
      ],
      [
        "▁arrivé",
        -8.326715981511715
      ],
      [
        "▁Noon",
        -8.329284379486033
      ],
      [
        "õga",
        -8.331119072999297
      ],
      [
        "▁mo",
        -8.337148202187976
      ],
      [
        "▁lieu",
        -8.33913252053669
      ],
      [
        "▁Par",
        -8.340877324868416
      ],
      [
        "▁boeuf",
        -8.340893873711124
      ],
      [
        "▁moontin",
        -8.340896881258109
      ],
      [
        "▁chevaux",
        -8.340903249224793
      ],
      [
        "▁entier",
        -8.341184048662855
      ],
      [
        "▁Loolu",
        -8.341277439045998
      ],
      [
        "▁Waaye",
        -8.341344135348907
      ],
      [
        "▁surtout",
        -8.341733120932021
      ],
      [
        "ces",
        -8.341918645208374
      ],
      [
        "▁allé",
        -8.342781837164335
      ],
      [
        "ance",
        -8.342930991695983
      ],
      [
        "▁Kookule",
        -8.34702709199899
      ],
      [
        "▁moomu",
        -8.347434939408913
      ],
      [
        "▁Toi",
        -8.349551513886528
      ],
      [
        "ire",
        -8.351571537993859
      ],
      [
        "▁Qu",
        -8.35298485999579
      ],
      [
        "able",
        -8.355767552539238
      ],
      [
        "▁May",
        -8.356114427701867
      ],
      [
        "▁ñaar",
        -8.356536173789125
      ],
      [
        "▁cas",
        -8.360357497278983
      ],
      [
        "▁celles-",
        -8.367921189757148
      ],
      [
        "st-ce",
        -8.37050113716219
      ],
      [
        "▁bëggée",
        -8.37130755785408
      ],
      [
        "leen",
        -8.372289855899169
      ],
      [
        "rir",
        -8.373373527759767
      ],
      [
        "at",
        -8.375706903346698
      ],
      [
        "tte",
        -8.377004841956026
      ],
      [
        "taan",
        -8.377635186375796
      ],
      [
        "▁cherche",
        -8.378864284167346
      ],
      [
        "▁lu",
        -8.378895032983324
      ],
      [
        "▁kookuu",
        -8.383466105609896
      ],
      [
        "sieur",
        -8.38812500771698
      ],
      [
        "▁soir",
        -8.38883440790147
      ],
      [
        "▁Loo",
        -8.39332103776877
      ],
      [
        "▁parler",
        -8.396946694872295
      ],
      [
        "▁connais",
        -8.399089634763028
      ],
      [
        "cher",
        -8.402561298146985
      ],
      [
        "h",
        -8.402741630769741
      ],
      [
        "con",
        -8.410360097713598
      ],
      [
        "▁bir",
        -8.412776952952681
      ],
      [
        "G",
        -8.413341112438479
      ],
      [
        "▁wu",
        -8.415452363481462
      ],
      [
        "ppelle",
        -8.416255122076858
      ],
      [
        "▁tes",
        -8.418849566086731
      ],
      [
        "ête",
        -8.424852549226722
      ],
      [
        "▁Ou",
        -8.425485922717385
      ],
      [
        "▁nañu.",
        -8.428799097154844
      ],
      [
        "▁choses",
        -8.429484379941272
      ],
      [
        "ndoo",
        -8.435126548631183
      ],
      [
        "▁don",
        -8.440173158985296
      ],
      [
        "lu",
        -8.4422968632702
      ],
      [
        "▁it",
        -8.444248852397559
      ],
      [
        "ku",
        -8.44551304267964
      ],
      [
        "▁be",
        -8.451518950838262
      ],
      [
        "▁Laob",
        -8.460463486787685
      ],
      [
        "▁s'",
        -8.466430802581495
      ],
      [
        "een",
        -8.46948252285835
      ],
      [
        "▁L'",
        -8.469657414364871
      ],
      [
        "ien",
        -8.471624228788265
      ],
      [
        "▁foofa",
        -8.472174048701834
      ],
      [
        "▁ànd",
        -8.473129966521906
      ],
      [
        "la",
        -8.476215484876983
      ],
      [
        "-t",
        -8.478373962817688
      ],
      [
        "▁n'ai",
        -8.479899534648256
      ],
      [
        "▁nous",
        -8.48109298612897
      ],
      [
        "▁allai",
        -8.483060844697793
      ],
      [
        "▁yeksi",
        -8.483750795785756
      ],
      [
        "▁Ainsi",
        -8.483757754052899
      ],
      [
        "▁Mbaa",
        -8.48379256441978
      ],
      [
        "ëf",
        -8.483820353247538
      ],
      [
        "▁Deõk",
        -8.483827278314426
      ],
      [
        "▁gentil",
        -8.483890422979236
      ],
      [
        "▁gémin",
        -8.483993635095171
      ],
      [
        "▁dellusi",
        -8.484384112546639
      ],
      [
        "▁l'enfant",
        -8.484667750387114
      ],
      [
        "▁tày",
        -8.485659460734539
      ],
      [
        "▁yenn",
        -8.486314440257438
      ],
      [
        "▁lëf",
        -8.486745632674847
      ],
      [
        "▁reste",
        -8.487531988731337
      ],
      [
        "▁mère",
        -8.48760204828728
      ],
      [
        "▁nd",
        -8.48773379054054
      ],
      [
        "▁wépp",
        -8.48809523776824
      ],
      [
        "▁êtes",
        -8.490600079052607
      ],
      [
        "▁Moom",
        -8.491279638139593
      ],
      [
        "▁Cela",
        -8.491489697706607
      ],
      [
        "▁celui-là.",
        -8.492297425187132
      ],
      [
        "mps",
        -8.492701328594967
      ],
      [
        "▁ville",
        -8.49284527427886
      ],
      [
        "▁dogal",
        -8.493521239888654
      ],
      [
        "▁Foofu",
        -8.49365545153907
      ],
      [
        "iez",
        -8.495755163255433
      ],
      [
        "çon",
        -8.499743309619452
      ],
      [
        "▁beau",
        -8.500379869337698
      ],
      [
        "aw",
        -8.500953030123219
      ],
      [
        "▁amen",
        -8.502047715819783
      ],
      [
        "▁cou",
        -8.50272992064884
      ],
      [
        "▁arrivés",
        -8.503552190738766
      ],
      [
        "▁co",
        -8.505043332397141
      ],
      [
        "▁entre",
        -8.515876480779283
      ],
      [
        "individu",
        -8.517517386066334
      ],
      [
        "▁bare",
        -8.518407609116863
      ],
      [
        "as",
        -8.518551591853834
      ],
      [
        "aale",
        -8.519119614521083
      ],
      [
        "▁yee",
        -8.523225878632877
      ],
      [
        "ule",
        -8.523836459060732
      ],
      [
        "▁B",
        -8.533420999375705
      ],
      [
        "gi",
        -8.534110213718204
      ],
      [
        "▁Ben",
        -8.536307234488389
      ],
      [
        "▁kuu",
        -8.546998450009113
      ],
      [
        "▁m'a",
        -8.549161204346703
      ],
      [
        "▁vers",
        -8.551616741227882
      ],
      [
        "ñee",
        -8.551669399688501
      ],
      [
        "ité",
        -8.552386754003102
      ],
      [
        "ënd",
        -8.552672702740281
      ],
      [
        "▁porte",
        -8.553350672191055
      ],
      [
        "là",
        -8.554593638747061
      ],
      [
        "▁san",
        -8.557600011102018
      ],
      [
        "▁jooju",
        -8.558245458068527
      ],
      [
        "éel",
        -8.559292361099352
      ],
      [
        "▁mour",
        -8.563021463069761
      ],
      [
        "ux",
        -8.565000036515858
      ],
      [
        "connais",
        -8.565224266096246
      ],
      [
        "▁ña",
        -8.565266116153827
      ],
      [
        "▁Ch",
        -8.565786499268752
      ],
      [
        "▁alli",
        -8.567720764529037
      ],
      [
        "▁homme.",
        -8.570575280056588
      ],
      [
        "▁loola",
        -8.571537564152614
      ],
      [
        "▁veni",
        -8.571628331567103
      ],
      [
        "▁X",
        -8.572720406707266
      ],
      [
        "▁tax",
        -8.577425360388117
      ],
      [
        "ë",
        -8.581029999112472
      ],
      [
        "ur",
        -8.582728196587032
      ],
      [
        "▁yu",
        -8.587203125787962
      ],
      [
        "▁wan",
        -8.591969373925473
      ],
      [
        "▁Moi",
        -8.592621109079916
      ],
      [
        "▁daw",
        -8.600343800752094
      ],
      [
        "▁far",
        -8.602869537347924
      ],
      [
        "▁individu",
        -8.6119529843779
      ],
      [
        "iller",
        -8.612989539525577
      ],
      [
        "▁partis",
        -8.618024278627903
      ],
      [
        "▁Men",
        -8.626787038766151
      ],
      [
        "▁livre",
        -8.631121743393642
      ],
      [
        "▁partie",
        -8.634444039871852
      ],
      [
        "▁fan",
        -8.636388120509613
      ],
      [
        "gal",
        -8.647985481300624
      ],
      [
        "ambaar",
        -8.650302790083332
      ],
      [
        "▁Aujourd'hui",
        -8.650417011556598
      ],
      [
        "▁goroõ",
        -8.650417505519691
      ],
      [
        "▁d'esprit",
        -8.650464120385122
      ],
      [
        "▁Génn",
        -8.6504711112943
      ],
      [
        "▁fortune",
        -8.650486005998147
      ],
      [
        "▁amour",
        -8.650670515157307
      ],
      [
        "▁Waxtaan",
        -8.650755207146231
      ],
      [
        "▁phon",
        -8.650778714860818
      ],
      [
        "▁suuf",
        -8.650878884693366
      ],
      [
        "▁Donne",
        -8.651163510077104
      ],
      [
        "▁ceux-ci",
        -8.651383455591013
      ],
      [
        "▁L'un",
        -8.651864456031213
      ],
      [
        "▁doonkoon",
        -8.651909751617637
      ],
      [
        "▁Tugël",
        -8.651959755842226
      ],
      [
        "▁dëgg",
        -8.652117646923603
      ],
      [
        "▁dagg",
        -8.653657890762737
      ],
      [
        "▁Waaw",
        -8.653748779229531
      ],
      [
        "▁n'étai",
        -8.655576522138745
      ],
      [
        "▁fépp",
        -8.658000816508826
      ],
      [
        "▁jou",
        -8.658461469763353
      ],
      [
        "ût",
        -8.661143197063394
      ],
      [
        "▁boo",
        -8.66174960946988
      ],
      [
        "▁fenn",
        -8.661924555874945
      ],
      [
        "▁më",
        -8.663176805188073
      ],
      [
        "▁sain",
        -8.66356189675661
      ],
      [
        "▁mag",
        -8.665555380338501
      ],
      [
        "se",
        -8.66567941007253
      ],
      [
        "là.",
        -8.66781081745893
      ],
      [
        "▁autre-là",
        -8.66787744449328
      ],
      [
        "▁deux",
        -8.671050285395058
      ],
      [
        "▁wet",
        -8.67207544045967
      ],
      [
        "▁croyai",
        -8.673104088622516
      ],
      [
        "▁jaambur",
        -8.676621060588548
      ],
      [
        "▁boobu",
        -8.677382571627549
      ],
      [
        "▁certaine",
        -8.678657759353065
      ],
      [
        "▁gor",
        -8.680540392287966
      ],
      [
        "▁ñaan",
        -8.683791553931409
      ],
      [
        "▁kook",
        -8.684456924924776
      ],
      [
        "▁Dana",
        -8.686379270748604
      ],
      [
        "▁wàn",
        -8.68712646014477
      ],
      [
        "ient",
        -8.688406950723618
      ],
      [
        "▁pu",
        -8.694825865024946
      ],
      [
        "▁kon",
        -8.69564987714799
      ],
      [
        "▁lekk",
        -8.697206610876627
      ],
      [
        "▁Ki",
        -8.70007049100717
      ],
      [
        "▁att",
        -8.700827899370223
      ],
      [
        "estime",
        -8.701302968178684
      ],
      [
        "▁Dan",
        -8.702926087148153
      ],
      [
        "▁aime",
        -8.703819326978826
      ],
      [
        "▁t'",
        -8.70383689770269
      ],
      [
        "▁pi",
        -8.706224919134627
      ],
      [
        "▁J'",
        -8.708682228379118
      ],
      [
        "▁partis.",
        -8.709358671334005
      ],
      [
        "moi",
        -8.709366891213875
      ],
      [
        "▁alal",
        -8.709488862836546
      ],
      [
        "▁aurai",
        -8.712280171914594
      ],
      [
        "ici",
        -8.720187283634814
      ],
      [
        "▁yaa",
        -8.72328302632946
      ],
      [
        "▁ko",
        -8.724491849167396
      ],
      [
        "▁leer",
        -8.727642719581802
      ],
      [
        "▁yooya",
        -8.72879124860366
      ],
      [
        "▁sopp",
        -8.729205327898557
      ],
      [
        "▁Daõg",
        -8.733290308498162
      ],
      [
        "▁Dis",
        -8.73536201075241
      ],
      [
        "ñaan",
        -8.738922645205733
      ],
      [
        "ide",
        -8.744653228799596
      ],
      [
        "wal",
        -8.74495605723077
      ],
      [
        "ner",
        -8.745420176432663
      ],
      [
        "góor",
        -8.745924658648768
      ],
      [
        "▁n'avai",
        -8.746604076435986
      ],
      [
        "ons",
        -8.747720045273153
      ],
      [
        "▁jooj",
        -8.753381701128294
      ],
      [
        "ré",
        -8.754991041463239
      ],
      [
        "acher",
        -8.75742573125367
      ],
      [
        "ion",
        -8.757628468388308
      ],
      [
        "eel",
        -8.759045942702253
      ],
      [
        "▁me",
        -8.760404857859013
      ],
      [
        "per",
        -8.762800987929419
      ],
      [
        "▁vo",
        -8.77022800217332
      ],
      [
        "▁joo",
        -8.770811221331702
      ],
      [
        "▁devan",
        -8.773254687886528
      ],
      [
        "mb",
        -8.777248132878157
      ],
      [
        "nce",
        -8.782198525950555
      ],
      [
        "▁r",
        -8.787513350063458
      ],
      [
        "ller",
        -8.789981981736318
      ],
      [
        "nde",
        -8.794883249028464
      ],
      [
        "sse",
        -8.79612269211633
      ],
      [
        "▁change",
        -8.797311567750434
      ],
      [
        "▁mën",
        -8.801517346676992
      ],
      [
        "▁dey",
        -8.801719513727695
      ],
      [
        "▁Ñe",
        -8.80290619730416
      ],
      [
        "▁Sur",
        -8.805199023226606
      ],
      [
        "▁pa",
        -8.813671234764051
      ],
      [
        "▁voici",
        -8.814365159455818
      ],
      [
        "▁mii",
        -8.814460427055026
      ],
      [
        "▁leur",
        -8.822165454460702
      ],
      [
        "▁con",
        -8.82458123313384
      ],
      [
        "▁lool",
        -8.831125923637202
      ],
      [
        "▁n'e",
        -8.840508105151276
      ],
      [
        "▁l'extérieur",
        -8.850417011516708
      ],
      [
        "«",
        -8.850417011556598
      ],
      [
        "»",
        -8.850417011556598
      ],
      [
        "▁auparavant",
        -8.850417011583252
      ],
      [
        "▁bûcheron",
        -8.850417011686424
      ],
      [
        "▁grâce",
        -8.850417032021891
      ],
      [
        "▁maître",
        -8.850417109376703
      ],
      [
        "▁baobab",
        -8.850417189340957
      ],
      [
        "▁morceau",
        -8.850417381744128
      ],
      [
        "▁accepte",
        -8.850418677576096
      ],
      [
        "▁raññe",
        -8.850419468845704
      ],
      [
        "▁Moontin",
        -8.850419892013027
      ],
      [
        "▁mâle",
        -8.850423300779514
      ],
      [
        "▁xaalis",
        -8.850455394968037
      ],
      [
        "pendan",
        -8.850536789203257
      ],
      [
        "▁prêt",
        -8.850546996571735
      ],
      [
        "▁concert",
        -8.850571146120926
      ],
      [
        "▁retourne",
        -8.850580767680139
      ],
      [
        "▁mesure",
        -8.850615533341129
      ],
      [
        "▁Ceux-là",
        -8.850647837413023
      ],
      [
        "▁parents",
        -8.850716684100457
      ],
      [
        "▁courage",
        -8.850741842106842
      ],
      [
        "▁jabar",
        -8.850772589491058
      ],
      [
        "▁taxaw",
        -8.850812760396131
      ],
      [
        "▁revienne",
        -8.851173870131896
      ],
      [
        "▁saõx",
        -8.851351930643439
      ],
      [
        "▁Ñii",
        -8.85146083060814
      ],
      [
        "▁õgoogule",
        -8.85230417364993
      ],
      [
        "▁côt",
        -8.852619018238247
      ],
      [
        "▁travailleurs",
        -8.85292761590491
      ],
      [
        "▁gën",
        -8.85293956776703
      ],
      [
        "▁wér",
        -8.853293828988605
      ],
      [
        "▁unique",
        -8.853622163736334
      ],
      [
        "▁Foo",
        -8.854225282351504
      ],
      [
        "▁pou",
        -8.855422826909926
      ],
      [
        "▁reconnu",
        -8.855608721840333
      ],
      [
        "▁ñuul",
        -8.855681162993948
      ],
      [
        "▁donc",
        -8.856116528564996
      ],
      [
        "▁nekk",
        -8.856951621382674
      ],
      [
        "je",
        -8.857126540197942
      ],
      [
        "varié",
        -8.859045443843245
      ],
      [
        "▁eusse",
        -8.860473472286586
      ],
      [
        "▁goree",
        -8.860973236876816
      ],
      [
        "▁refuser",
        -8.861082191955852
      ],
      [
        "raî",
        -8.862135919147246
      ],
      [
        "▁Dama",
        -8.863234044943834
      ],
      [
        "▁noppi",
        -8.864218654128905
      ],
      [
        "▁deey",
        -8.864982293758398
      ],
      [
        "googule",
        -8.865108631780668
      ],
      [
        "▁Am",
        -8.865268553534737
      ],
      [
        "▁buur",
        -8.867132641329802
      ],
      [
        "▁ñooñ",
        -8.869574460992693
      ],
      [
        "ri",
        -8.874192248032836
      ],
      [
        "▁paroles",
        -8.874524982955958
      ],
      [
        "▁kooka",
        -8.876866303421261
      ],
      [
        "▁wër",
        -8.880060981097506
      ],
      [
        "egarde",
        -8.883649743229169
      ],
      [
        "ruit",
        -8.884096305012433
      ],
      [
        "▁été.",
        -8.88539106553676
      ],
      [
        "vait",
        -8.887645783826061
      ],
      [
        "▁mbë",
        -8.889987754631031
      ],
      [
        "au",
        -8.891493347179438
      ],
      [
        "▁ga",
        -8.892527818885055
      ],
      [
        "v",
        -8.894182170752185
      ],
      [
        "▁ree",
        -8.895556794132272
      ],
      [
        "▁fo",
        -8.897187345425975
      ],
      [
        "▁souhaite",
        -8.899778822227884
      ],
      [
        "▁ñibbi",
        -8.900097771422306
      ],
      [
        "ai",
        -8.902253355807144
      ],
      [
        "▁roi",
        -8.905300959244332
      ],
      [
        "▁po",
        -8.910325957400516
      ],
      [
        "▁Tou",
        -8.911121222236455
      ],
      [
        "ji",
        -8.912099543353321
      ],
      [
        "teur",
        -8.91688340524339
      ],
      [
        "▁Ta",
        -8.92071766727212
      ],
      [
        "bi",
        -8.921245634245919
      ],
      [
        "lors",
        -8.921901550458534
      ],
      [
        "▁cu",
        -8.92249985608263
      ],
      [
        "▁n'as",
        -8.92372396589088
      ],
      [
        "▁mau",
        -8.927785856950326
      ],
      [
        "▁mon",
        -8.931294369218271
      ],
      [
        "▁plante",
        -8.933189717761255
      ],
      [
        "▁sou",
        -8.934845685110787
      ],
      [
        "rends",
        -8.939919865197545
      ],
      [
        "▁mou",
        -8.941496261817274
      ],
      [
        "ure",
        -8.942594694599425
      ],
      [
        "qui",
        -8.944262914758536
      ],
      [
        "kóon",
        -8.944809179226274
      ],
      [
        "oir",
        -8.944950845924845
      ],
      [
        "▁Waxa",
        -8.945213402867402
      ],
      [
        "▁bou",
        -8.946246251888475
      ],
      [
        "ssion",
        -8.948010595525483
      ],
      [
        "▁sorti",
        -8.948761214879994
      ],
      [
        "▁Com",
        -8.952229869983368
      ],
      [
        "▁Lu",
        -8.95374453935709
      ],
      [
        "▁T",
        -8.954510497380195
      ],
      [
        "▁fe",
        -8.957915891205609
      ],
      [
        "▁h",
        -8.961998352768171
      ],
      [
        "▁s'a",
        -8.962516546716145
      ],
      [
        "▁addu",
        -8.965569408423065
      ],
      [
        "▁puis",
        -8.971714749679101
      ],
      [
        "rait",
        -8.972088290849495
      ],
      [
        "▁alla",
        -8.972199889164497
      ],
      [
        "▁mes",
        -8.976187189066074
      ],
      [
        "cer",
        -8.978238122364818
      ],
      [
        "bët",
        -8.979442413849943
      ],
      [
        "▁Bul",
        -8.98346322982168
      ],
      [
        "▁to",
        -8.986458647944575
      ],
      [
        "õ",
        -8.98673325109765
      ],
      [
        "▁Wa",
        -8.986825812462946
      ],
      [
        "om",
        -8.991624354132895
      ],
      [
        "cas",
        -8.992800997273537
      ],
      [
        "▁kee",
        -8.994052699920005
      ],
      [
        "▁yar",
        -8.996382400385341
      ],
      [
        "rent",
        -8.998069260640532
      ],
      [
        "appartien",
        -9.00110332189584
      ],
      [
        "▁men",
        -9.0052778300486
      ],
      [
        "▁vi",
        -9.015313151119896
      ],
      [
        "▁Go",
        -9.025367911719213
      ],
      [
        "cc",
        -9.030964009620098
      ],
      [
        "ñu.",
        -9.03104821224494
      ],
      [
        "espè",
        -9.031749169105526
      ],
      [
        "of",
        -9.034785310652415
      ],
      [
        "▁fen",
        -9.04041207736776
      ],
      [
        "▁saf",
        -9.042517652131117
      ],
      [
        "obul",
        -9.042521825553944
      ],
      [
        "-il",
        -9.042965738366899
      ],
      [
        "quo",
        -9.044342330040427
      ],
      [
        "igne",
        -9.045796756089805
      ],
      [
        "nte",
        -9.047921026194896
      ],
      [
        "▁wà",
        -9.049822818575452
      ],
      [
        "▁enfant-",
        -9.052803971205936
      ],
      [
        "▁H",
        -9.053352672536016
      ],
      [
        "▁war",
        -9.060085828402643
      ],
      [
        "▁gisu",
        -9.06300034727076
      ],
      [
        "▁pla",
        -9.063120504001882
      ],
      [
        "▁Õg",
        -9.063611429836218
      ],
      [
        "nité",
        -9.064472488644874
      ],
      [
        "par",
        -9.06625096110275
      ],
      [
        "▁ju",
        -9.068517558794047
      ],
      [
        "▁regard",
        -9.070627263041995
      ],
      [
        "min",
        -9.072604867252256
      ],
      [
        "-sa",
        -9.073065557143952
      ],
      [
        "ër",
        -9.077989267051693
      ],
      [
        "▁ren",
        -9.083083767076824
      ],
      [
        "▁met",
        -9.09612955917598
      ],
      [
        "tive",
        -9.098167428710006
      ],
      [
        "▁wàl",
        -9.09831646797032
      ],
      [
        "▁pro",
        -9.0992250144449
      ],
      [
        ")",
        -9.100417011556598
      ],
      [
        "▁habituellement",
        -9.100417121573281
      ],
      [
        "▁entrefaites",
        -9.100417147344015
      ],
      [
        "▁totalité",
        -9.10041718245327
      ],
      [
        "▁meilleur",
        -9.100417238034007
      ],
      [
        "▁(",
        -9.100417285717267
      ],
      [
        "▁naqadi",
        -9.100417453076487
      ],
      [
        "▁Ñëw",
        -9.100417863515986
      ],
      [
        "▁dehors",
        -9.100417876584121
      ],
      [
        "▁Birayim",
        -9.10041853654006
      ],
      [
        "▁région",
        -9.100419687716368
      ],
      [
        "▁phonéti",
        -9.100421689501772
      ],
      [
        "▁trépi",
        -9.100433281129034
      ],
      [
        "▁science",
        -9.100438501589597
      ],
      [
        "▁ëlëk",
        -9.100440564021017
      ],
      [
        "▁veulent",
        -9.10044430627749
      ],
      [
        "▁chambre",
        -9.100462004257237
      ],
      [
        "▁montrer",
        -9.100466338894874
      ],
      [
        "▁Alfa",
        -9.100478123330532
      ],
      [
        "▁garçon",
        -9.100499114457453
      ],
      [
        "▁cadeau",
        -9.10050321453632
      ],
      [
        "▁donne",
        -9.100525753134715
      ],
      [
        "▁marchand",
        -9.100595372617331
      ],
      [
        "▁Gaynd",
        -9.100734052288061
      ],
      [
        "▁nourri",
        -9.100738973896771
      ],
      [
        "▁NGo",
        -9.100758499187211
      ],
      [
        "▁Tann",
        -9.100882276559766
      ],
      [
        "▁servi",
        -9.100895196490484
      ],
      [
        "▁vrai",
        -9.100965424366901
      ],
      [
        "▁grand",
        -9.101108626778474
      ],
      [
        "▁assis",
        -9.101139016134098
      ],
      [
        "▁Saint-Louisien",
        -9.101313893256334
      ],
      [
        "▁somme",
        -9.10137748351878
      ],
      [
        "▁Qu'",
        -9.101795900833618
      ],
      [
        "▁në",
        -9.101901253896012
      ],
      [
        "▁libre",
        -9.101948734332575
      ],
      [
        "▁noble",
        -9.102225573817146
      ],
      [
        "▁Ñooñu",
        -9.102262361910878
      ],
      [
        "▁rang",
        -9.102293217606412
      ],
      [
        "▁Demuma",
        -9.102332860026328
      ],
      [
        "▁séex",
        -9.102360265396559
      ],
      [
        "j",
        -9.102562063391412
      ],
      [
        "▁occ",
        -9.10259924813733
      ],
      [
        "▁wàññ",
        -9.102939915211262
      ],
      [
        "▁viennent",
        -9.104460838838081
      ],
      [
        "▁fra",
        -9.105147359195726
      ],
      [
        "ûr",
        -9.105480561192834
      ],
      [
        "▁champ",
        -9.10583951523081
      ],
      [
        "▁kookale",
        -9.106065199145942
      ],
      [
        "▁Demkoon",
        -9.106143323465819
      ],
      [
        "▁suba",
        -9.106266853262927
      ],
      [
        "▁cacher",
        -9.106330375513183
      ],
      [
        "▁voisin",
        -9.106381765455346
      ],
      [
        "▁wày",
        -9.10641022583479
      ],
      [
        "▁guy",
        -9.106890046463683
      ],
      [
        "▁jëf",
        -9.107103078489851
      ],
      [
        "▁serais",
        -9.107151875575822
      ],
      [
        "▁d'habitude",
        -9.107266566927143
      ],
      [
        "▁e",
        -9.107276669461477
      ],
      [
        "▁magg",
        -9.107811407803858
      ],
      [
        "▁jog",
        -9.10876908461104
      ],
      [
        "▁gaa",
        -9.109489596028638
      ],
      [
        "'agit",
        -9.11100548768847
      ],
      [
        "onde",
        -9.11114362799887
      ],
      [
        "▁terre",
        -9.111246714154143
      ],
      [
        "▁mor",
        -9.111340586471098
      ],
      [
        "▁manque",
        -9.111451396723071
      ],
      [
        "▁ñaaw",
        -9.112234953965153
      ],
      [
        "▁pris",
        -9.112354848257505
      ],
      [
        "▁add",
        -9.113147691378266
      ],
      [
        "▁trouver",
        -9.113247991360405
      ],
      [
        "▁j'",
        -9.113343201477493
      ],
      [
        "▁fon",
        -9.113441835246903
      ],
      [
        "▁partez",
        -9.114971298739405
      ],
      [
        "'ailleurs",
        -9.11510864999202
      ],
      [
        "▁t'en",
        -9.116624504528149
      ],
      [
        "▁rappel",
        -9.116839127298357
      ],
      [
        "▁Yee",
        -9.117243473020629
      ],
      [
        "▁Ni",
        -9.117794366103945
      ],
      [
        "▁naõg",
        -9.117990611327631
      ],
      [
        "▁Kan",
        -9.120133593015067
      ],
      [
        "▁Nil",
        -9.120350049620802
      ],
      [
        "▁après",
        -9.12411787761176
      ],
      [
        "▁jur",
        -9.125634540194174
      ],
      [
        "ral",
        -9.133604726483224
      ],
      [
        "▁dét",
        -9.13478830434158
      ],
      [
        "▁n'ira",
        -9.13969553121368
      ],
      [
        "▁demuñu",
        -9.143955425386185
      ],
      [
        "ous",
        -9.144648078328093
      ],
      [
        "▁bor",
        -9.14536241795609
      ],
      [
        "▁demain",
        -9.14584368250616
      ],
      [
        "▁daj",
        -9.146726994277198
      ],
      [
        "el",
        -9.147403573184828
      ],
      [
        "▁peu",
        -9.147808290943019
      ],
      [
        "▁four",
        -9.14844785510418
      ],
      [
        "▁kaw",
        -9.148541647222517
      ],
      [
        "▁bra",
        -9.148804285608293
      ],
      [
        "e.",
        -9.148833407368818
      ],
      [
        "ñi",
        -9.149438476873982
      ],
      [
        "biir",
        -9.149846139917955
      ],
      [
        "▁kile",
        -9.150253210046946
      ],
      [
        "▁désir",
        -9.155704906978906
      ],
      [
        "▁ñaa",
        -9.155989690856034
      ],
      [
        "aar",
        -9.156309735458223
      ],
      [
        "▁doi",
        -9.157315012425496
      ],
      [
        "▁maigre",
        -9.157763923669071
      ],
      [
        "▁goog",
        -9.159829017687953
      ],
      [
        "▁Sama",
        -9.162466566411215
      ],
      [
        "vous",
        -9.163020382885136
      ],
      [
        "▁demb",
        -9.168956200109134
      ],
      [
        "▁noona",
        -9.16936114573149
      ],
      [
        "tout",
        -9.170424685327095
      ],
      [
        "hoisi",
        -9.17093682079912
      ],
      [
        "▁ven",
        -9.171581392785951
      ],
      [
        "▁lanu",
        -9.173529096931489
      ],
      [
        "▁bout",
        -9.174089792835957
      ],
      [
        "▁connaiss",
        -9.174561386167037
      ],
      [
        "lé",
        -9.176666468281105
      ],
      [
        "▁comm",
        -9.17766103657771
      ],
      [
        "▁fer",
        -9.178458039992673
      ],
      [
        "▁appelle",
        -9.179642771705826
      ],
      [
        "▁s'es",
        -9.186309034199157
      ],
      [
        "afa",
        -9.187940832357414
      ],
      [
        "cle",
        -9.189123755475784
      ],
      [
        "▁piqu",
        -9.193119439391703
      ],
      [
        "▁tel",
        -9.194585016669288
      ],
      [
        "▁set",
        -9.19465183630447
      ],
      [
        "▁bavard",
        -9.196254732086079
      ],
      [
        "addu",
        -9.198127118496597
      ],
      [
        "baat",
        -9.199539534505721
      ],
      [
        "▁Ñu",
        -9.200048081509681
      ],
      [
        "vé",
        -9.20067405970733
      ],
      [
        "ence",
        -9.201876438088009
      ],
      [
        "õgeen",
        -9.201891767698736
      ],
      [
        "▁të",
        -9.205606271553421
      ],
      [
        "▁lawoon",
        -9.207664522279325
      ],
      [
        "▁mba",
        -9.20954226077842
      ],
      [
        "ber",
        -9.209568301045381
      ],
      [
        "ày",
        -9.209681755736286
      ],
      [
        "▁maye",
        -9.209922994022085
      ],
      [
        "▁heure",
        -9.213343500513972
      ],
      [
        "▁Me",
        -9.214270939185925
      ],
      [
        "▁maa",
        -9.215680868181147
      ],
      [
        "▁To",
        -9.215782338276345
      ],
      [
        "es.",
        -9.219301570397722
      ],
      [
        "sses",
        -9.219679530534574
      ],
      [
        "▁jar",
        -9.219990740224986
      ],
      [
        "▁ex",
        -9.220094895211199
      ],
      [
        "▁dog",
        -9.221765048103649
      ],
      [
        "▁confie",
        -9.224819804935215
      ],
      [
        "▁Kaj",
        -9.231357463702567
      ],
      [
        "▁pars.",
        -9.233279219091457
      ],
      [
        "▁haut",
        -9.233980340823551
      ],
      [
        "aux",
        -9.234319419844908
      ],
      [
        "▁mal",
        -9.234485544132227
      ],
      [
        "▁Lo",
        -9.236603311060906
      ],
      [
        "▁Ña",
        -9.236943050809055
      ],
      [
        "ez.",
        -9.24015327749122
      ],
      [
        "▁jë",
        -9.243065622272722
      ],
      [
        "sembl",
        -9.24364702023612
      ],
      [
        "▁plu",
        -9.243859719539941
      ],
      [
        "▁veu",
        -9.244416310758396
      ],
      [
        "ge",
        -9.248201462268126
      ],
      [
        "che",
        -9.252893698986004
      ],
      [
        "lles",
        -9.259500930925942
      ],
      [
        "ëcc",
        -9.260499713143046
      ],
      [
        "▁fui",
        -9.261391273394368
      ],
      [
        "wul",
        -9.265824495731387
      ],
      [
        "▁ñaana",
        -9.269545760730479
      ],
      [
        "nent",
        -9.269907038026794
      ],
      [
        "nt.",
        -9.270368339877784
      ],
      [
        "pay",
        -9.270630776295214
      ],
      [
        "▁foof",
        -9.272670554594157
      ],
      [
        "rie",
        -9.274341095574975
      ],
      [
        "gul",
        -9.2822278325199
      ],
      [
        "atu",
        -9.282867057064122
      ],
      [
        "▁confi",
        -9.286429042206153
      ],
      [
        "▁rem",
        -9.286525554936603
      ],
      [
        "uire",
        -9.286763106108623
      ],
      [
        "▁ré",
        -9.289991400426306
      ],
      [
        "tes",
        -9.291824625303093
      ],
      [
        "uloo",
        -9.292595928306808
      ],
      [
        "▁pai",
        -9.29559614083181
      ],
      [
        "ve",
        -9.297571997103978
      ],
      [
        "▁pie",
        -9.298493687994373
      ],
      [
        "▁Jë",
        -9.299276569036188
      ],
      [
        "▁naw",
        -9.300591959233016
      ],
      [
        "▁mêmes",
        -9.301524773083878
      ],
      [
        "▁nëw",
        -9.302249071355838
      ],
      [
        "▁gé",
        -9.306121445029468
      ],
      [
        "▁doo",
        -9.306624137414879
      ],
      [
        "nda",
        -9.307458390412624
      ],
      [
        "alheureusement",
        -9.307475061574932
      ],
      [
        "▁mange",
        -9.307615567453762
      ],
      [
        "▁mang",
        -9.3156243854341
      ],
      [
        "▁waxal",
        -9.316790501166038
      ],
      [
        "▁ñj",
        -9.318112531115451
      ],
      [
        "▁cour",
        -9.319520445835941
      ],
      [
        "▁trai",
        -9.320738654018276
      ],
      [
        "▁õga.",
        -9.320858733997545
      ],
      [
        "▁ser",
        -9.3229289823899
      ],
      [
        "abar",
        -9.326083954149093
      ],
      [
        "bou",
        -9.32714717516632
      ],
      [
        "donner",
        -9.329440007335638
      ],
      [
        "▁sui",
        -9.335043263825012
      ],
      [
        "▁daaw",
        -9.337146180414084
      ],
      [
        "▁sañ",
        -9.337272468546951
      ],
      [
        "▁õg",
        -9.339000040240704
      ],
      [
        "clair",
        -9.3406371496558
      ],
      [
        "▁voul",
        -9.349851420878098
      ],
      [
        "aller",
        -9.350651771925488
      ],
      [
        "mporte",
        -9.353823328714443
      ],
      [
        "▁batt",
        -9.355246162838583
      ],
      [
        "ler",
        -9.357475354853623
      ],
      [
        "uff",
        -9.359992455677794
      ],
      [
        "vent",
        -9.362536303384887
      ],
      [
        "▁désire",
        -9.362657018338085
      ],
      [
        "▁ton",
        -9.36371909822151
      ],
      [
        "▁arr",
        -9.363746440967137
      ],
      [
        "▁éle",
        -9.366403493044722
      ],
      [
        "ave",
        -9.367144054280514
      ],
      [
        "onore",
        -9.369616192067978
      ],
      [
        "use",
        -9.370379032714556
      ],
      [
        "▁part.",
        -9.37100268073304
      ],
      [
        "▁Liggéey",
        -9.378522833996033
      ],
      [
        "nn",
        -9.387045197877347
      ],
      [
        "▁gr",
        -9.389148697976438
      ],
      [
        "ouille",
        -9.389151647431074
      ],
      [
        "▁Seeti",
        -9.392273245409562
      ],
      [
        "oudre",
        -9.394332558205136
      ],
      [
        "▁raõ",
        -9.39688993117648
      ],
      [
        "▁kookee",
        -9.403145804535011
      ],
      [
        "ois",
        -9.404030335499257
      ],
      [
        "▁eux",
        -9.404303978547512
      ],
      [
        "ëgg",
        -9.404383001200618
      ],
      [
        "bouche",
        -9.40476876533445
      ],
      [
        "rëb",
        -9.405766885900933
      ],
      [
        "▁too",
        -9.406439797338965
      ],
      [
        "'enfant",
        -9.4069882725585
      ],
      [
        "▁che",
        -9.407173651199829
      ],
      [
        "ó",
        -9.40947908173653
      ],
      [
        "▁mb",
        -9.409978957751468
      ],
      [
        "õk",
        -9.410283689257115
      ],
      [
        "▁Yooy",
        -9.41290043638993
      ],
      [
        "▁nopp",
        -9.414438648204078
      ],
      [
        "bo",
        -9.414829372221321
      ],
      [
        "gne",
        -9.41517778908818
      ],
      [
        "▁we",
        -9.41637507733626
      ],
      [
        "▁déj",
        -9.417529150834087
      ],
      [
        "▁vill",
        -9.417963355555298
      ],
      [
        "▁nii",
        -9.424468187270143
      ],
      [
        "fi",
        -9.425695016917897
      ],
      [
        "▁feneen",
        -9.426669545772395
      ],
      [
        "onfie",
        -9.430504007368334
      ],
      [
        "chance",
        -9.431667722764802
      ],
      [
        "▁impoli",
        -9.433748058411819
      ],
      [
        "▁substitu",
        -9.43375037027871
      ],
      [
        "considér",
        -9.433750385602991
      ],
      [
        "▁fâch",
        -9.433750564208186
      ],
      [
        "▁gaddaay",
        -9.433750564927728
      ],
      [
        "▁Certaine",
        -9.433750615395894
      ],
      [
        "▁connaît",
        -9.43375067025163
      ],
      [
        "▁humain",
        -9.433750770026998
      ],
      [
        "▁quémande",
        -9.433750825338759
      ],
      [
        "▁appelé",
        -9.433751221452201
      ],
      [
        "▁humid",
        -9.433751413579756
      ],
      [
        "▁messager",
        -9.433751621301926
      ],
      [
        "▁gëléem",
        -9.433751826874149
      ],
      [
        "▁posséd",
        -9.433757252053416
      ],
      [
        "▁lutteur",
        -9.43375776499233
      ],
      [
        "échapp",
        -9.433760080202566
      ],
      [
        "▁oreille",
        -9.433761518158263
      ],
      [
        "▁instant",
        -9.433769750333601
      ],
      [
        "▁jóg",
        -9.433776317970977
      ],
      [
        "▁ressemble",
        -9.433788326690319
      ],
      [
        "▁cultive",
        -9.433792823580802
      ],
      [
        "▁trahi",
        -9.433795060994644
      ],
      [
        "▁xott",
        -9.433808832990463
      ],
      [
        "▁Yaakaar",
        -9.43382321740767
      ],
      [
        "▁chameau",
        -9.433834723334932
      ],
      [
        "▁défini",
        -9.433842886126271
      ],
      [
        "▁paresseu",
        -9.433844275734465
      ],
      [
        "▁poulet",
        -9.43385827868693
      ],
      [
        "▁Peul",
        -9.433859998041905
      ],
      [
        "▁honore",
        -9.433869903789772
      ],
      [
        "▁Peut-",
        -9.43390885539007
      ],
      [
        "▁Autre",
        -9.43393721764751
      ],
      [
        "▁initi",
        -9.433974361793615
      ],
      [
        "frayer",
        -9.434020722715125
      ],
      [
        "énégal",
        -9.434074300190723
      ],
      [
        "▁secour",
        -9.434152425686557
      ],
      [
        "▁Qu'est-ce",
        -9.43418668142197
      ],
      [
        "▁dikkul",
        -9.434228849538101
      ],
      [
        "▁jalou",
        -9.434256754672003
      ],
      [
        "▁interdi",
        -9.43436264566617
      ],
      [
        "▁Sëri",
        -9.43442332132576
      ],
      [
        "▁l'argent",
        -9.434432379878857
      ],
      [
        "▁carac",
        -9.434471832923279
      ],
      [
        "▁céex",
        -9.434477596478223
      ],
      [
        "▁tambour",
        -9.434551213860818
      ],
      [
        "▁ë",
        -9.43460583982477
      ],
      [
        "▁trou",
        -9.434709289081084
      ],
      [
        "▁pousse",
        -9.434709617715999
      ],
      [
        "▁googu",
        -9.43476697533735
      ],
      [
        "▁Abal",
        -9.434954772139168
      ],
      [
        "▁õgoogu",
        -9.435152868397337
      ],
      [
        "▁xéew",
        -9.43532752578375
      ],
      [
        "èvre",
        -9.435373150500817
      ],
      [
        "▁frapp",
        -9.435450124404813
      ],
      [
        "▁bopp",
        -9.435829210540442
      ],
      [
        "▁vérité",
        -9.43597335111821
      ],
      [
        "▁crain",
        -9.436122026705581
      ],
      [
        "▁jambaar",
        -9.436430565958846
      ],
      [
        "▁Pour",
        -9.43645202041457
      ],
      [
        "▁debout",
        -9.436526805173774
      ],
      [
        "▁yëf",
        -9.43706639393336
      ],
      [
        "▁jiital",
        -9.437183287675085
      ],
      [
        "▁Ici",
        -9.437380377410895
      ],
      [
        "▁jox",
        -9.438121906421431
      ],
      [
        "▁wex",
        -9.438237584579309
      ],
      [
        "▁form",
        -9.4384738966723
      ],
      [
        "llez",
        -9.439002556918895
      ],
      [
        "▁beg",
        -9.439500493862655
      ],
      [
        "▁juge",
        -9.43959873583008
      ],
      [
        "▁eff",
        -9.439917447731391
      ],
      [
        "▁waxaale",
        -9.439925182849967
      ],
      [
        "▁sëgg",
        -9.440178681238406
      ],
      [
        "▁contre",
        -9.440712882828885
      ],
      [
        "eku",
        -9.441596138485476
      ],
      [
        "▁d'entre",
        -9.441731613550806
      ],
      [
        "▁fem",
        -9.441848514383373
      ],
      [
        "▁salu",
        -9.44246513670263
      ],
      [
        "▁méchant",
        -9.442486073308856
      ],
      [
        "▁clé",
        -9.44255075846463
      ],
      [
        "▁Gisu",
        -9.442582490317353
      ],
      [
        "ique",
        -9.442604963897644
      ],
      [
        "▁refuse",
        -9.443335640546136
      ],
      [
        "kki",
        -9.443393406662656
      ],
      [
        "▁rentrer",
        -9.444143696379506
      ],
      [
        "▁wóo",
        -9.445586732468836
      ],
      [
        "ëkk",
        -9.446003755978467
      ],
      [
        "▁Ngo",
        -9.446703213961108
      ],
      [
        "▁dents",
        -9.44687533711017
      ],
      [
        "▁arrive",
        -9.447654653364957
      ],
      [
        "▁enfant-là",
        -9.44791108412973
      ],
      [
        "▁juut",
        -9.448869139296008
      ],
      [
        "▁amoon",
        -9.449672845481501
      ],
      [
        "éné",
        -9.44980510940589
      ],
      [
        "▁provi",
        -9.449824997664816
      ],
      [
        "▁naaru",
        -9.449848265670703
      ],
      [
        "▁passé",
        -9.449879200280643
      ],
      [
        "rach",
        -9.449911243567458
      ],
      [
        "▁laid",
        -9.450900349520253
      ],
      [
        "ôt",
        -9.458224820404377
      ],
      [
        "oow",
        -9.458237921472529
      ],
      [
        "▁bâti",
        -9.45955330801833
      ],
      [
        "▁gen",
        -9.459855301592555
      ],
      [
        "olal",
        -9.462178603317067
      ],
      [
        "▁yaru",
        -9.462430986292567
      ],
      [
        "▁Lui",
        -9.462978789170652
      ],
      [
        "▁gaaw",
        -9.46345034623459
      ],
      [
        "▁aji",
        -9.464898788428568
      ],
      [
        "▁Waxu",
        -9.4662169335607
      ],
      [
        "▁kookee.",
        -9.468209963894006
      ],
      [
        "▁feneen.",
        -9.469588085627374
      ],
      [
        "▁homme-ci",
        -9.469880684730947
      ],
      [
        "▁taf",
        -9.470031335726492
      ],
      [
        "▁général",
        -9.470712835686076
      ],
      [
        "ncer",
        -9.471165514914153
      ],
      [
        "lam",
        -9.471736749021217
      ],
      [
        "oupe",
        -9.471953785996966
      ],
      [
        "▁bonul",
        -9.474032978280581
      ],
      [
        "▁épo",
        -9.47496166898724
      ],
      [
        "tendu",
        -9.476124700403057
      ],
      [
        "▁booba",
        -9.476463904695384
      ],
      [
        "lo",
        -9.47848948247998
      ],
      [
        "▁regarde",
        -9.47878840658052
      ],
      [
        "join",
        -9.480440442137645
      ],
      [
        "neen",
        -9.482219469665672
      ],
      [
        "▁daal",
        -9.48335854429399
      ],
      [
        "▁ànda",
        -9.48366003424018
      ],
      [
        "▁law",
        -9.483706517608981
      ],
      [
        "▁daawul",
        -9.484352354730921
      ],
      [
        "ëri",
        -9.484847207067777
      ],
      [
        "mal",
        -9.485520263385565
      ],
      [
        "▁coule",
        -9.485886001700056
      ],
      [
        "▁defar",
        -9.487054274743354
      ],
      [
        "▁Õgo",
        -9.487304419963436
      ],
      [
        "▁déey",
        -9.487532555985876
      ],
      [
        "▁woowu",
        -9.488302538263923
      ],
      [
        "réci",
        -9.489088379519396
      ],
      [
        "▁noir",
        -9.489246538797309
      ],
      [
        "ñëw",
        -9.491080540707438
      ],
      [
        "▁woowa",
        -9.49269489137549
      ],
      [
        "▁buu",
        -9.492765002453325
      ],
      [
        "▁waxtu",
        -9.493045117286108
      ],
      [
        "▁attend",
        -9.49374088645439
      ],
      [
        "tan",
        -9.495412883224228
      ],
      [
        "▁faj",
        -9.496302013062328
      ],
      [
        "gël",
        -9.496850935003797
      ],
      [
        "▁boot",
        -9.497998704286996
      ],
      [
        "▁Kook",
        -9.504676473373994
      ],
      [
        "▁Celui",
        -9.506172508397395
      ],
      [
        "eegu",
        -9.506942445395971
      ],
      [
        "▁looli",
        -9.507003998250905
      ],
      [
        "▁taille",
        -9.508745086867656
      ],
      [
        "agoni",
        -9.510255669757798
      ],
      [
        "▁n'aur",
        -9.51052268962287
      ],
      [
        "▁xaj",
        -9.51181112020549
      ],
      [
        "lusi",
        -9.51447567913372
      ],
      [
        "mu",
        -9.514893528481911
      ],
      [
        "▁dois",
        -9.518710518883298
      ],
      [
        "▁jà",
        -9.51924977611096
      ],
      [
        "▁sol",
        -9.523950553272806
      ],
      [
        "▁amee",
        -9.524853937429903
      ],
      [
        "agg",
        -9.525257148981112
      ],
      [
        "▁bax",
        -9.52747048754466
      ],
      [
        "▁ubb",
        -9.534498885501291
      ],
      [
        "ain",
        -9.535736256837515
      ],
      [
        "▁Defa",
        -9.536148503303274
      ],
      [
        "▁wàñ",
        -9.539695034304222
      ],
      [
        "▁Mets",
        -9.539832280901527
      ],
      [
        "▁muu",
        -9.540264772005214
      ],
      [
        "▁ndem",
        -9.541091684006188
      ],
      [
        "us",
        -9.542641315475226
      ],
      [
        "cul",
        -9.542804838335844
      ],
      [
        "ëju",
        -9.54384178877441
      ],
      [
        "tonner",
        -9.544901922728398
      ],
      [
        "▁vou",
        -9.545001216448917
      ],
      [
        "▁nooni",
        -9.546967382557211
      ],
      [
        "tion",
        -9.547213389197944
      ],
      [
        "▁lekku",
        -9.549435849410422
      ],
      [
        "▁Waxul",
        -9.549951285519699
      ],
      [
        "▁gra",
        -9.551231068338797
      ],
      [
        "▁gri",
        -9.55164866789016
      ],
      [
        "▁reew",
        -9.552173850722331
      ],
      [
        "aamu",
        -9.553150190502388
      ],
      [
        "ais-t",
        -9.554988097652855
      ],
      [
        "▁xee",
        -9.555137809649038
      ],
      [
        "▁partai",
        -9.555779383512746
      ],
      [
        "▁tor",
        -9.556065573194383
      ],
      [
        "▁sau",
        -9.558954146305604
      ],
      [
        "lou",
        -9.559823325010917
      ],
      [
        "▁xer",
        -9.560174065910752
      ],
      [
        "tuel",
        -9.561099366317684
      ],
      [
        "▁verr",
        -9.56247698732635
      ],
      [
        "ton",
        -9.564001419290328
      ],
      [
        "▁éclat",
        -9.564130828891418
      ],
      [
        "eau",
        -9.569938791362496
      ],
      [
        "ulte",
        -9.571638946175934
      ],
      [
        "▁ver",
        -9.572057130305888
      ],
      [
        "elui-ci",
        -9.572786731401532
      ],
      [
        "▁ñar",
        -9.573505580697896
      ],
      [
        "▁Jée",
        -9.574642328971319
      ],
      [
        "▁bo",
        -9.574719998424037
      ],
      [
        "uufu",
        -9.57881986540612
      ],
      [
        "ord",
        -9.580197965890342
      ],
      [
        "▁xamul",
        -9.581516230237211
      ],
      [
        "'aumône",
        -9.583847217098734
      ],
      [
        "▁sii",
        -9.583878726961936
      ],
      [
        "eut",
        -9.584837094758957
      ],
      [
        "bëgg",
        -9.587826127311994
      ],
      [
        "▁x",
        -9.588969809613104
      ],
      [
        "▁Nee",
        -9.589217665995095
      ],
      [
        "ajoo",
        -9.589537881363295
      ],
      [
        "▁fad",
        -9.594596855539088
      ],
      [
        "ki",
        -9.595317851351513
      ],
      [
        "ef",
        -9.59642752058942
      ],
      [
        "▁bala",
        -9.597830475746951
      ],
      [
        "▁s'i",
        -9.600513364734034
      ],
      [
        "andi",
        -9.601925216220081
      ],
      [
        "ta",
        -9.603638636347815
      ],
      [
        "entre",
        -9.613670335352348
      ],
      [
        "avait",
        -9.615697866451578
      ],
      [
        "▁ñe",
        -9.61677866544959
      ],
      [
        "▁jo",
        -9.62054911459182
      ],
      [
        "olo",
        -9.620701141458934
      ],
      [
        "▁gisóo",
        -9.621840891744199
      ],
      [
        "off",
        -9.62260958935444
      ],
      [
        "aat",
        -9.626987133241956
      ],
      [
        "-lu",
        -9.627358941151973
      ],
      [
        "▁pl",
        -9.62816514580748
      ],
      [
        "nu",
        -9.633772228837557
      ],
      [
        "man",
        -9.634746796871513
      ],
      [
        "▁bant",
        -9.635626507656372
      ],
      [
        "▁fus",
        -9.636451613988479
      ],
      [
        "tën",
        -9.636685446154763
      ],
      [
        "couv",
        -9.63762463754274
      ],
      [
        "fic",
        -9.63899748903204
      ],
      [
        "son",
        -9.639710625801637
      ],
      [
        "alal",
        -9.640462845126534
      ],
      [
        "gam",
        -9.645064944001048
      ],
      [
        "nañu",
        -9.648926757045732
      ],
      [
        "dans",
        -9.651365709003471
      ],
      [
        "▁abs",
        -9.65220005069673
      ],
      [
        "▁mir",
        -9.652679833526825
      ],
      [
        "ange",
        -9.655119318532243
      ],
      [
        "▁and",
        -9.656456269315058
      ],
      [
        "▁mil",
        -9.656789852114398
      ],
      [
        "óom",
        -9.65684382239198
      ],
      [
        "▁nde",
        -9.65684539806478
      ],
      [
        "▁donner",
        -9.657455740867482
      ],
      [
        "dab",
        -9.659711036433036
      ],
      [
        "ooñii",
        -9.659871861101001
      ],
      [
        "▁Nag",
        -9.660600371478193
      ],
      [
        "oolal",
        -9.662044351398539
      ],
      [
        "õ-daõ",
        -9.664592431245953
      ],
      [
        "▁d'o",
        -9.665365530582141
      ],
      [
        "été",
        -9.666549016831317
      ],
      [
        "ooy",
        -9.667929423982656
      ],
      [
        "der",
        -9.670754352251237
      ],
      [
        "▁dend",
        -9.670775663057352
      ],
      [
        "▁ru",
        -9.671541433828251
      ],
      [
        "▁causer",
        -9.675366755889051
      ],
      [
        "▁sout",
        -9.675477713151825
      ],
      [
        "war",
        -9.679382562961262
      ],
      [
        "▁waaj",
        -9.680961989906741
      ],
      [
        "▁dag",
        -9.682090195406534
      ],
      [
        "▁sage",
        -9.682356915047674
      ],
      [
        "▁haute",
        -9.683054400280175
      ],
      [
        "ra",
        -9.68742434376154
      ],
      [
        "▁See",
        -9.688129793969953
      ],
      [
        "▁pré",
        -9.688963401286536
      ],
      [
        "autrefois",
        -9.690002187699356
      ],
      [
        "▁parla",
        -9.692519821984165
      ],
      [
        "propr",
        -9.693086029628393
      ],
      [
        "õx",
        -9.695664262284593
      ],
      [
        "ande",
        -9.70124433742513
      ],
      [
        "irai",
        -9.702141361575944
      ],
      [
        "ti",
        -9.703508345369615
      ],
      [
        "heur",
        -9.710212669851543
      ],
      [
        "apprécie",
        -9.712129811207014
      ],
      [
        "orte",
        -9.715402519163808
      ],
      [
        "▁wo",
        -9.716564718473293
      ],
      [
        "fu",
        -9.718476100448697
      ],
      [
        "plat",
        -9.72119879398582
      ],
      [
        "bien",
        -9.722200469575625
      ],
      [
        "rveille",
        -9.72313214254888
      ],
      [
        "homme",
        -9.72348674749889
      ],
      [
        "▁ceet",
        -9.728609201845655
      ],
      [
        "car",
        -9.731182963736382
      ],
      [
        "kër",
        -9.732869400304981
      ],
      [
        "aaye",
        -9.73392107564191
      ],
      [
        "▁entra",
        -9.734186543334447
      ],
      [
        "onte",
        -9.741152024419826
      ],
      [
        "mo",
        -9.741698948481448
      ],
      [
        "ba",
        -9.742171971757774
      ],
      [
        "ignore",
        -9.743694090130885
      ],
      [
        "▁waar",
        -9.744714926232726
      ],
      [
        "▁nu",
        -9.746957206793343
      ],
      [
        "ns",
        -9.751295222507176
      ],
      [
        "'en",
        -9.7525964971658
      ],
      [
        "étend",
        -9.757914628270095
      ],
      [
        "▁bouche",
        -9.764061289969536
      ],
      [
        "▁wàt",
        -9.76575048753931
      ],
      [
        "ñj",
        -9.76851028602561
      ],
      [
        "erre",
        -9.769876236453362
      ],
      [
        "long",
        -9.770321668486728
      ],
      [
        "▁cherch",
        -9.772005378675646
      ],
      [
        "añc",
        -9.77289947883752
      ],
      [
        "wuñu",
        -9.775650642645642
      ],
      [
        "▁retrou",
        -9.776020089753327
      ],
      [
        "▁vend",
        -9.778192181278857
      ],
      [
        "offe",
        -9.778451607732618
      ],
      [
        "▁seme",
        -9.778487245034068
      ],
      [
        "part",
        -9.779704056567192
      ],
      [
        "ntu",
        -9.780708951484632
      ],
      [
        "▁dam",
        -9.781821287069773
      ],
      [
        "▁fat",
        -9.784281750728466
      ],
      [
        "▁tiit",
        -9.786256553695132
      ],
      [
        "sonne",
        -9.786363370094316
      ],
      [
        "i.",
        -9.790578367523358
      ],
      [
        "▁pr",
        -9.79135689729325
      ],
      [
        "bal",
        -9.793631436363015
      ],
      [
        "▁fro",
        -9.796134015087226
      ],
      [
        "acc",
        -9.79627823694448
      ],
      [
        "▁dép",
        -9.800639046807575
      ],
      [
        "bokk",
        -9.801723999528651
      ],
      [
        "ubb",
        -9.802307806735755
      ],
      [
        "õg",
        -9.802353737645833
      ],
      [
        "▁bà",
        -9.803903805335212
      ],
      [
        "▁mos",
        -9.806813940244092
      ],
      [
        "▁aba",
        -9.812150718963002
      ],
      [
        "▁laõ",
        -9.812227074404072
      ],
      [
        "▁Nu",
        -9.812971409441133
      ],
      [
        "▁ratt",
        -9.81316950533526
      ],
      [
        "eux-ci",
        -9.814875810854128
      ],
      [
        "-to",
        -9.817943711272338
      ],
      [
        "▁Ñaa",
        -9.821414696953468
      ],
      [
        "▁all",
        -9.821946668086122
      ],
      [
        "illes",
        -9.823958980991216
      ],
      [
        "nit",
        -9.82718958078518
      ],
      [
        "-même",
        -9.83061982006244
      ],
      [
        "▁Ko",
        -9.830920795012574
      ],
      [
        "cun",
        -9.835543936882145
      ],
      [
        "opp",
        -9.836120143980953
      ],
      [
        "rain",
        -9.839917195787228
      ],
      [
        "nement",
        -9.840602495437466
      ],
      [
        "▁fee",
        -9.844464907253712
      ],
      [
        "ie",
        -9.845721338386163
      ],
      [
        "▁nan",
        -9.849199242343019
      ],
      [
        "▁xama",
        -9.852088746842082
      ],
      [
        "itu",
        -9.854277381504406
      ],
      [
        "▁õgeen.",
        -9.854312643974044
      ],
      [
        "ttache",
        -9.85553289890479
      ],
      [
        "▁danse",
        -9.855748189302892
      ],
      [
        "iè",
        -9.8557914215972
      ],
      [
        "▁cons",
        -9.85724659921301
      ],
      [
        "▁sais",
        -9.858733994300461
      ],
      [
        "eeku",
        -9.859113194946724
      ],
      [
        "ches",
        -9.860317845584262
      ],
      [
        "▁parole",
        -9.867502455716856
      ],
      [
        "hi",
        -9.8686315046338
      ],
      [
        "õ-raõ",
        -9.873486248680363
      ],
      [
        "▁saw",
        -9.874188099136017
      ],
      [
        "▁év",
        -9.875226253708183
      ],
      [
        "yaal",
        -9.879936890270248
      ],
      [
        "▁march",
        -9.885816120634384
      ],
      [
        "onvers",
        -9.886577045451046
      ],
      [
        "be",
        -9.887458097098287
      ],
      [
        "ê",
        -9.887751679570922
      ],
      [
        "▁wal",
        -9.89125577257175
      ],
      [
        "sax",
        -9.894969075694878
      ],
      [
        "wé",
        -9.895210400686707
      ],
      [
        "▁Foof",
        -9.898449449260143
      ],
      [
        "▁connaisse",
        -9.89963959783244
      ],
      [
        "nir",
        -9.901212499284515
      ],
      [
        "▁ob",
        -9.901507386369842
      ],
      [
        "inter",
        -9.901822606310999
      ],
      [
        "▁arriv",
        -9.902701454270108
      ],
      [
        "▁écla",
        -9.903003152487168
      ],
      [
        "▁n'ir",
        -9.903431853553766
      ],
      [
        "▁rép",
        -9.90580335801617
      ],
      [
        "▁gaynd",
        -9.906840848361268
      ],
      [
        "▁viendr",
        -9.907731891311926
      ],
      [
        "▁file",
        -9.908696490781765
      ],
      [
        "▁õgoo",
        -9.909098390209264
      ],
      [
        "▁trouve",
        -9.910355115325974
      ],
      [
        "arab",
        -9.911404750126986
      ],
      [
        "▁disp",
        -9.91165719424828
      ],
      [
        "▁voya",
        -9.911919018797676
      ],
      [
        "▁brave",
        -9.912775172988098
      ],
      [
        "▁pri",
        -9.91309962487792
      ],
      [
        "▁qu'e",
        -9.919182785650824
      ],
      [
        "▁go",
        -9.921288451872787
      ],
      [
        "▁bëggu",
        -9.92216332628956
      ],
      [
        "kkan",
        -9.922667630108744
      ],
      [
        "▁partent",
        -9.925056818399241
      ],
      [
        "vu",
        -9.925192361780873
      ],
      [
        "rappe",
        -9.925936232192239
      ],
      [
        "bre",
        -9.92618886037266
      ],
      [
        "▁dañ",
        -9.927010515255605
      ],
      [
        "▁génér",
        -9.92736608282979
      ],
      [
        "rica",
        -9.928646559445465
      ],
      [
        "wande",
        -9.932123889128453
      ],
      [
        "ivre",
        -9.933389833152837
      ],
      [
        "▁descend",
        -9.93341255533844
      ],
      [
        "É",
        -9.93375034488993
      ],
      [
        "▁Niominka.",
        -9.933750344929036
      ],
      [
        "▁apiko-",
        -9.933750346611282
      ],
      [
        "▁bëkknéeg",
        -9.933750406598753
      ],
      [
        "▁yalwaan",
        -9.933750624693984
      ],
      [
        "▁médian",
        -9.93375068972262
      ],
      [
        "▁respire",
        -9.933750800136673
      ],
      [
        "▁émigr",
        -9.933751673802188
      ],
      [
        "▁résidu",
        -9.933751717443544
      ],
      [
        "▁brûl",
        -9.933751750009966
      ],
      [
        "▁contact",
        -9.933752351467998
      ],
      [
        "▁gaññ",
        -9.933752624922219
      ],
      [
        "▁compagn",
        -9.93375266239807
      ],
      [
        "▁sablonneu",
        -9.933754424007432
      ],
      [
        "▁turbulen",
        -9.933755153205778
      ],
      [
        "▁apico",
        -9.933755327350685
      ],
      [
        "▁wërsëg",
        -9.93375603892968
      ],
      [
        "Mark",
        -9.933756640022962
      ],
      [
        "▁Dites-l",
        -9.933760049090031
      ],
      [
        "▁xarxarle",
        -9.933760549022344
      ],
      [
        "▁écorc",
        -9.933760798701835
      ],
      [
        "nnobli",
        -9.933762826691485
      ],
      [
        "▁jeûne",
        -9.93376375744768
      ],
      [
        "▁figure",
        -9.93376431280463
      ],
      [
        "▁fattalik",
        -9.933765870540853
      ],
      [
        "▁warugar",
        -9.933769621902309
      ],
      [
        "▁construct",
        -9.933776213268116
      ],
      [
        "impolitesse",
        -9.933778281638523
      ],
      [
        "▁limite",
        -9.933786358504959
      ],
      [
        "▁lâche",
        -9.933790334296962
      ],
      [
        "▁crisp",
        -9.93379343300737
      ],
      [
        "▁maccaat",
        -9.933805217377193
      ],
      [
        "▁propos",
        -9.933817338845646
      ],
      [
        "▁yeggee",
        -9.93383320970003
      ],
      [
        "▁déchi",
        -9.933850232030652
      ],
      [
        "▁portion",
        -9.933867480693475
      ],
      [
        "▁wecci",
        -9.933868154223354
      ],
      [
        "▁excessive",
        -9.93388372178585
      ],
      [
        "▁s'assi",
        -9.933883847624706
      ],
      [
        "▁soleil",
        -9.933899971175391
      ],
      [
        "▁pioche",
        -9.933903010456035
      ],
      [
        "▁L'endroit",
        -9.933911962390486
      ],
      [
        "▁droit",
        -9.933920273005647
      ],
      [
        "▁guéri",
        -9.933924224363086
      ],
      [
        "▁weddi",
        -9.933987578796387
      ],
      [
        "▁mutuelle",
        -9.934007105729139
      ],
      [
        "▁Dellu",
        -9.934036559927574
      ],
      [
        "▁redress",
        -9.934067365891973
      ],
      [
        "▁savant",
        -9.934067658730049
      ],
      [
        "▁Wutël",
        -9.934098912225533
      ],
      [
        "▁gabb",
        -9.934106923227246
      ],
      [
        "▁descendra",
        -9.93410769141036
      ],
      [
        "▁Ibra",
        -9.93418941738885
      ],
      [
        "▁bënn",
        -9.93422785002736
      ],
      [
        "▁j'apprécie",
        -9.934254517802128
      ],
      [
        "▁Musta",
        -9.934256737796666
      ],
      [
        "▁étudi",
        -9.934306666465883
      ],
      [
        "▁d'ét",
        -9.934333811231934
      ],
      [
        "à-bas",
        -9.934371960148493
      ],
      [
        "▁simule",
        -9.934454715628823
      ],
      [
        "▁désert",
        -9.934458284910342
      ],
      [
        "▁jéex",
        -9.93465588401904
      ],
      [
        "lle",
        -9.934675622166411
      ],
      [
        "▁vous-même",
        -9.934750545197888
      ],
      [
        "ovin",
        -9.934783565273438
      ],
      [
        "▁moi-même",
        -9.934805159585617
      ],
      [
        "▁xool",
        -9.934838196059433
      ],
      [
        "▁coppeeku",
        -9.934917204504327
      ],
      [
        "▁ganaar",
        -9.934924118703144
      ],
      [
        "▁soxor",
        -9.93498868586553
      ],
      [
        "▁toi-même",
        -9.934994322495124
      ],
      [
        "▁s'asse",
        -9.93510767100679
      ],
      [
        "▁ndogal",
        -9.935359647252104
      ],
      [
        "▁présen",
        -9.935374418555945
      ],
      [
        "▁L'autre",
        -9.935459933100706
      ],
      [
        "▁année",
        -9.93549860695397
      ],
      [
        "▁tayel",
        -9.935786641243629
      ],
      [
        "▁vien",
        -9.935811179662332
      ],
      [
        "▁raison",
        -9.935883399205736
      ],
      [
        "▁cohabitent",
        -9.936052958215617
      ],
      [
        "▁s'ex",
        -9.936136732621765
      ],
      [
        "▁Lebou",
        -9.936257337970638
      ],
      [
        "▁nëb",
        -9.936484164088146
      ],
      [
        "▁sëg",
        -9.936858473261877
      ],
      [
        "▁foofile",
        -9.936906950704506
      ],
      [
        "▁yeg",
        -9.937038943743586
      ],
      [
        "▁segg",
        -9.937065831258026
      ],
      [
        "▁certainement",
        -9.937159413445404
      ],
      [
        "▁doomam",
        -9.937183467658569
      ],
      [
        "▁concurrence",
        -9.937203800576327
      ],
      [
        "gëñ",
        -9.93722683994543
      ],
      [
        "▁gro",
        -9.93723058864971
      ],
      [
        "▁t'aurai",
        -9.937257557443925
      ],
      [
        "▁s'exil",
        -9.937289133579043
      ],
      [
        "▁renvers",
        -9.937471993733913
      ],
      [
        "▁affi",
        -9.937534514341412
      ],
      [
        "▁ardo",
        -9.937685984999828
      ],
      [
        "▁patien",
        -9.937702816358803
      ],
      [
        "▁dawul",
        -9.938189333096272
      ],
      [
        "▁raf",
        -9.93837223082912
      ],
      [
        "▁sortie",
        -9.938592184496498
      ],
      [
        "▁genre",
        -9.938764730318207
      ],
      [
        "cider",
        -9.938804545932815
      ],
      [
        "▁poli",
        -9.938993657403497
      ],
      [
        "rrière",
        -9.939189015358798
      ],
      [
        "▁bris",
        -9.93936665479053
      ],
      [
        "▁souffle",
        -9.939606774752162
      ],
      [
        "▁lib",
        -9.939662321894485
      ],
      [
        "▁gosse",
        -9.939701330662766
      ],
      [
        "▁travailler",
        -9.939816234956567
      ],
      [
        "▁tâche",
        -9.940425535965883
      ],
      [
        "▁s'épan",
        -9.940718074125833
      ],
      [
        "▁ricane",
        -9.94106288775776
      ],
      [
        "▁Kaay",
        -9.941196602351983
      ],
      [
        "▁méchan",
        -9.941310752044162
      ],
      [
        "▁yéen",
        -9.941342110298432
      ],
      [
        "▁bouger",
        -9.941586065448547
      ],
      [
        "▁s'enf",
        -9.941964826200959
      ],
      [
        "gor",
        -9.942155358930023
      ],
      [
        "▁dikk",
        -9.942467829233623
      ],
      [
        "▁travaillait",
        -9.942476228590861
      ],
      [
        "▁avare",
        -9.942506102459914
      ],
      [
        "▁n'allai",
        -9.942778959230466
      ],
      [
        "écéd",
        -9.94286128434735
      ],
      [
        "▁samp",
        -9.943017698037782
      ],
      [
        "▁liggéeykat",
        -9.943266282190281
      ],
      [
        "▁wenn",
        -9.943361864199975
      ],
      [
        "ëyn",
        -9.943370020827768
      ],
      [
        "▁avant",
        -9.943485303098104
      ],
      [
        "▁ouvr",
        -9.943817280481847
      ],
      [
        "▁noyy",
        -9.943838962270604
      ],
      [
        "ière-",
        -9.943942571386863
      ],
      [
        "▁partons",
        -9.944071652089006
      ],
      [
        "▁vertu",
        -9.944429470140603
      ],
      [
        "▁peut",
        -9.944790568306885
      ],
      [
        "paci",
        -9.944949641996644
      ],
      [
        "époque",
        -9.945392275391274
      ],
      [
        "▁xaritam",
        -9.945445529602663
      ],
      [
        "▁cemp",
        -9.945527488566919
      ],
      [
        "▁Amin",
        -9.946071997606095
      ],
      [
        "ooku",
        -9.946928523432568
      ],
      [
        "affaire",
        -9.947146028372675
      ],
      [
        "▁jëment",
        -9.947437181494294
      ],
      [
        "ersonne",
        -9.947562526686756
      ],
      [
        "▁sop",
        -9.947878332897472
      ],
      [
        "tifie",
        -9.948250547281289
      ],
      [
        "romp",
        -9.948358289449565
      ],
      [
        "▁ab",
        -9.948566557418976
      ],
      [
        "▁voulez",
        -9.948622500018644
      ],
      [
        "▁dindi",
        -9.948748905876936
      ],
      [
        "âg",
        -9.94897704646375
      ],
      [
        "mp",
        -9.948981256691829
      ],
      [
        "xaw",
        -9.949482096014794
      ],
      [
        "▁xajj",
        -9.94958414446867
      ],
      [
        "ogal",
        -9.950456239508043
      ],
      [
        "▁kanda",
        -9.950477562559982
      ],
      [
        "▁lieux",
        -9.950886834014888
      ],
      [
        "▁bëtt",
        -9.952783173895309
      ],
      [
        "pas",
        -9.953884584233453
      ],
      [
        "▁jusqu'ici",
        -9.95418586920836
      ],
      [
        "▁tra",
        -9.95525624923615
      ],
      [
        "▁série",
        -9.95529623577638
      ],
      [
        "▁élu",
        -9.955492982817491
      ],
      [
        "▁wol",
        -9.956337680855555
      ],
      [
        "▁arg",
        -9.957157918435973
      ],
      [
        "▁nuy",
        -9.957219678096825
      ],
      [
        "▁disc",
        -9.957443383074411
      ],
      [
        "dresse",
        -9.958386161197769
      ],
      [
        "ttends",
        -9.958389261593737
      ],
      [
        "▁vis",
        -9.958584763295136
      ],
      [
        "▁àndal",
        -9.958663928422482
      ],
      [
        "▁Daawul",
        -9.958787944454745
      ],
      [
        "▁envie",
        -9.958932808769276
      ],
      [
        "▁Leur",
        -9.959253878287775
      ],
      [
        "▁goo",
        -9.959872201217754
      ],
      [
        "▁yab",
        -9.959942346151434
      ],
      [
        "spér",
        -9.959966207463092
      ],
      [
        "▁jour",
        -9.960654189125721
      ],
      [
        "▁acid",
        -9.96289904492793
      ],
      [
        "▁fatta",
        -9.962942785258779
      ],
      [
        "▁tamm",
        -9.964123971334562
      ],
      [
        "▁mpa",
        -9.964759040664505
      ],
      [
        "otti",
        -9.964958288855675
      ],
      [
        "bu",
        -9.965498400524934
      ],
      [
        "▁allez",
        -9.966544744445669
      ],
      [
        "▁répét",
        -9.966863771954419
      ],
      [
        "▁aucun",
        -9.967046002782377
      ],
      [
        "▁seri",
        -9.969471521194043
      ],
      [
        "▁Yooyu",
        -9.9699896987556
      ],
      [
        "▁tuuru",
        -9.97036594093493
      ],
      [
        "jambe",
        -9.97137789593074
      ],
      [
        "▁braves",
        -9.971441629738086
      ],
      [
        "▁muñ",
        -9.971493468551385
      ],
      [
        "▁gaal",
        -9.971720499589427
      ],
      [
        "▁lionne",
        -9.97177630112978
      ],
      [
        "lott",
        -9.972338963771783
      ],
      [
        "▁jours",
        -9.974037740408505
      ],
      [
        "▁bande",
        -9.975050870683456
      ],
      [
        "▁koo",
        -9.975572749084863
      ],
      [
        "nstru",
        -9.976112809224777
      ],
      [
        "▁ado",
        -9.976506918402483
      ],
      [
        "▁pair",
        -9.976649265097505
      ],
      [
        "▁soppe",
        -9.976782570731588
      ],
      [
        "▁waru",
        -9.976850598377181
      ],
      [
        "▁doyu",
        -9.97763139195266
      ],
      [
        "▁partent.",
        -9.979361738047682
      ],
      [
        "ëlé",
        -9.980209014085833
      ],
      [
        "▁yaay",
        -9.980455505884969
      ],
      [
        "qu",
        -9.981134264817646
      ],
      [
        "▁morts",
        -9.981252933639006
      ],
      [
        "▁par-là",
        -9.981756707755482
      ],
      [
        "▁wàll",
        -9.982085723874714
      ],
      [
        "aa",
        -9.982469118570487
      ],
      [
        "▁tooy",
        -9.982694279104438
      ],
      [
        "dem",
        -9.983518783843504
      ],
      [
        "▁vieille",
        -9.983898946473824
      ],
      [
        "inq",
        -9.984080552723217
      ],
      [
        "▁l'ét",
        -9.984099630271736
      ],
      [
        "▁soppal",
        -9.984204546257137
      ],
      [
        "▁envo",
        -9.984220778418203
      ],
      [
        "▁ceux",
        -9.984723051327075
      ],
      [
        "▁Dent",
        -9.986137425080987
      ],
      [
        "▁fût",
        -9.986150548533924
      ],
      [
        "oyager",
        -9.986722896398218
      ],
      [
        "▁indig",
        -9.987403153017429
      ],
      [
        "pho",
        -9.98811740008149
      ],
      [
        "àll",
        -9.988185114472607
      ],
      [
        "▁pur",
        -9.988473002329531
      ],
      [
        "▁ma.",
        -9.989137983098626
      ],
      [
        "▁voit",
        -9.989649570743756
      ],
      [
        "▁bë",
        -9.991050526792357
      ],
      [
        "▁foo",
        -9.991119844133785
      ],
      [
        "▁Pr",
        -9.991547554979752
      ],
      [
        "ëbb",
        -9.992958731242272
      ],
      [
        "▁ailleurs",
        -9.993265651444206
      ],
      [
        "ec",
        -9.99399926106815
      ],
      [
        "▁mer",
        -9.996765189786966
      ],
      [
        "▁jale",
        -9.997510490630921
      ],
      [
        "▁gar",
        -9.998742043935446
      ],
      [
        "▁Bë",
        -10.001369332060772
      ],
      [
        "rage",
        -10.002241584047567
      ],
      [
        "▁bëggé",
        -10.002488577083389
      ],
      [
        "▁ëñ",
        -10.002561254404064
      ],
      [
        "▁Xa",
        -10.004775161812915
      ],
      [
        "▁xew",
        -10.004817541457415
      ],
      [
        "èv",
        -10.004956541951946
      ],
      [
        "▁Bon",
        -10.006655933472173
      ],
      [
        "awbe",
        -10.007693304621782
      ],
      [
        "▁livres",
        -10.007992240203748
      ],
      [
        "ni",
        -10.008733227778144
      ],
      [
        "cond",
        -10.010286895189344
      ],
      [
        "rdo",
        -10.010696648949958
      ],
      [
        "urus",
        -10.010890401157717
      ],
      [
        "▁rafetul",
        -10.010935753958375
      ],
      [
        "▁bër",
        -10.011292932916879
      ],
      [
        "▁yi.",
        -10.011520031709203
      ],
      [
        "dd",
        -10.011715996053372
      ],
      [
        "li",
        -10.013102105625265
      ],
      [
        "▁jambuur",
        -10.013424997825108
      ],
      [
        "▁waalo",
        -10.015589300660709
      ],
      [
        "ès",
        -10.016389136425383
      ],
      [
        "bóol",
        -10.016661899177853
      ],
      [
        "▁tam",
        -10.016913093644854
      ],
      [
        "▁ép",
        -10.017054954010803
      ],
      [
        "▁oos",
        -10.017954393612467
      ],
      [
        "▁mort",
        -10.020783074787534
      ],
      [
        "mar",
        -10.022769049232503
      ],
      [
        "▁wuut",
        -10.023412556092783
      ],
      [
        "trer",
        -10.023462998640575
      ],
      [
        "▁õgë",
        -10.0239978751705
      ],
      [
        "▁t'e",
        -10.024079860408284
      ],
      [
        "xam",
        -10.025682547920004
      ],
      [
        "iggéeykat",
        -10.026015576709494
      ],
      [
        "lóo",
        -10.031807303467312
      ],
      [
        "▁reeaa",
        -10.032815170485765
      ],
      [
        "▁Leb",
        -10.03369971458817
      ],
      [
        "▁desquel",
        -10.034200072162545
      ],
      [
        "▁Be",
        -10.035136032120619
      ],
      [
        "cien",
        -10.038012939887489
      ],
      [
        "odd",
        -10.038170337821578
      ],
      [
        "▁wut",
        -10.038605603038057
      ],
      [
        "ine",
        -10.040483210875305
      ],
      [
        "eex",
        -10.040853028842472
      ],
      [
        "▁Sen",
        -10.042111154852218
      ],
      [
        "▁colle",
        -10.042736704388554
      ],
      [
        "wu",
        -10.043628173689388
      ],
      [
        "▁Ñen",
        -10.044687875470299
      ],
      [
        "urre",
        -10.046270618177278
      ],
      [
        "▁éc",
        -10.048021264485902
      ],
      [
        "▁vil",
        -10.048544437967625
      ],
      [
        "ërëm",
        -10.049687866186636
      ],
      [
        "óox",
        -10.0524267186542
      ],
      [
        "▁xal",
        -10.052610565947406
      ],
      [
        "▁fal",
        -10.053800149078379
      ],
      [
        "▁voici.",
        -10.054786203452304
      ],
      [
        "▁donn",
        -10.055013614238032
      ],
      [
        "▁wi",
        -10.056077156958947
      ],
      [
        "hme",
        -10.056511457116112
      ],
      [
        "rme",
        -10.057737634150588
      ],
      [
        "▁nëbb",
        -10.059865116763584
      ],
      [
        "si",
        -10.06617455857078
      ],
      [
        "éer",
        -10.067694439375646
      ],
      [
        "tière",
        -10.07013283244033
      ],
      [
        "rç",
        -10.071182644878366
      ],
      [
        "▁fot",
        -10.074390920163825
      ],
      [
        "▁coy",
        -10.075631052509424
      ],
      [
        "ause",
        -10.078040138893776
      ],
      [
        "▁toogu",
        -10.080355795291766
      ],
      [
        "ers",
        -10.082748023605449
      ],
      [
        "▁dar",
        -10.084626740195962
      ],
      [
        "épuis",
        -10.08689380671106
      ],
      [
        "du",
        -10.087779924940147
      ],
      [
        "édu",
        -10.090396199110312
      ],
      [
        "▁l'as",
        -10.09292560532625
      ],
      [
        "af",
        -10.093437307201517
      ],
      [
        "▁xañ",
        -10.095024755354828
      ],
      [
        "'étudiant",
        -10.095482747769879
      ],
      [
        "▁Bule",
        -10.096635323410172
      ],
      [
        "if",
        -10.097605757487303
      ],
      [
        "▁seeta",
        -10.099569111879
      ],
      [
        "▁noo",
        -10.101661170225734
      ],
      [
        "▁bul",
        -10.101777294725602
      ],
      [
        "raayim",
        -10.103272810197954
      ],
      [
        "▁lé",
        -10.104209586293392
      ],
      [
        "▁née",
        -10.104598714983576
      ],
      [
        "ages",
        -10.10523582433479
      ],
      [
        "▁Té",
        -10.10540914925237
      ],
      [
        "iche",
        -10.105452221412556
      ],
      [
        "▁abal",
        -10.105702806762427
      ],
      [
        "mm",
        -10.10627329793586
      ],
      [
        "ëg",
        -10.107723105280558
      ],
      [
        "lui",
        -10.108696757453485
      ],
      [
        "▁duggo",
        -10.109387500002773
      ],
      [
        "gii",
        -10.110383096265402
      ],
      [
        "▁étend",
        -10.112670096684202
      ],
      [
        "▁travaill",
        -10.114301143161116
      ],
      [
        "▁chang",
        -10.11466968867067
      ],
      [
        "aisse",
        -10.115706746207135
      ],
      [
        "▁dée",
        -10.12198086651141
      ],
      [
        "uter",
        -10.124495160020407
      ],
      [
        "tant",
        -10.127106604497305
      ],
      [
        "▁ñuu",
        -10.131994721306217
      ],
      [
        "aison",
        -10.132373541353115
      ],
      [
        "▁dem-",
        -10.132675177481513
      ],
      [
        "▁él",
        -10.133732205246687
      ],
      [
        "trait",
        -10.134397108653696
      ],
      [
        "'impo",
        -10.13447979718745
      ],
      [
        "▁voie",
        -10.136153445002591
      ],
      [
        "▁voulai",
        -10.1362211457473
      ],
      [
        "▁reveni",
        -10.139596254270892
      ],
      [
        "▁meneen",
        -10.13963597689777
      ],
      [
        "efois",
        -10.140984783460201
      ],
      [
        "õõ",
        -10.141973461364541
      ],
      [
        "▁tere",
        -10.145787140320362
      ],
      [
        "longe",
        -10.145826457573001
      ],
      [
        "▁pui",
        -10.148980664253612
      ],
      [
        "cet",
        -10.149460257236877
      ],
      [
        "▁Set",
        -10.15163699747321
      ],
      [
        "▁ñooñe",
        -10.15231374043911
      ],
      [
        "▁jiit",
        -10.156934506533297
      ],
      [
        "int",
        -10.157986655732596
      ],
      [
        "▁Naa",
        -10.15820502801796
      ],
      [
        "▁feeñ",
        -10.158445761523026
      ],
      [
        "▁n'i",
        -10.162642353642962
      ],
      [
        "▁safa",
        -10.163988103847979
      ],
      [
        "ddu",
        -10.165257597179156
      ],
      [
        "ab",
        -10.166174327209562
      ],
      [
        "ati",
        -10.166487325229328
      ],
      [
        "▁Ceux-",
        -10.166732122078471
      ],
      [
        "▁reewa",
        -10.167113736484492
      ],
      [
        "▁tis",
        -10.167668692722918
      ],
      [
        "▁ignor",
        -10.168410195475316
      ],
      [
        "▁Yen",
        -10.16850464328633
      ],
      [
        "▁aille",
        -10.169919412994691
      ],
      [
        "▁ño",
        -10.17097765343227
      ],
      [
        "▁oblig",
        -10.173732950306988
      ],
      [
        "trouvé",
        -10.174117900074151
      ],
      [
        "cci",
        -10.176212969330386
      ],
      [
        "▁rentr",
        -10.177593770255513
      ],
      [
        "dence",
        -10.183539366092031
      ],
      [
        "abal",
        -10.18640217547821
      ],
      [
        "ent.",
        -10.187387915822011
      ],
      [
        "ool",
        -10.187671155968756
      ],
      [
        "'esp",
        -10.187832383459416
      ],
      [
        "ol",
        -10.189342032057278
      ],
      [
        "anche",
        -10.190935904384148
      ],
      [
        "▁gëmm",
        -10.191369042007292
      ],
      [
        "-le",
        -10.191576568129271
      ],
      [
        "axul",
        -10.194093774105381
      ],
      [
        "pt",
        -10.198314263537304
      ],
      [
        "veille",
        -10.199073088169055
      ],
      [
        "▁Ño",
        -10.199392575544065
      ],
      [
        "▁l'e",
        -10.199774540508377
      ],
      [
        "▁fou",
        -10.199934218848474
      ],
      [
        "ye",
        -10.200408786004871
      ],
      [
        "▁mu.",
        -10.201429896574634
      ],
      [
        "▁d'an",
        -10.201540981091657
      ],
      [
        "ppartien",
        -10.203381824748623
      ],
      [
        "lumine",
        -10.210421633332587
      ],
      [
        "qu'il",
        -10.212261324154321
      ],
      [
        "sul",
        -10.212795726904814
      ],
      [
        "onc",
        -10.21452139010702
      ],
      [
        "aññi",
        -10.21722640714656
      ],
      [
        "▁ri",
        -10.220411581209245
      ],
      [
        "▁rag",
        -10.223477553967609
      ],
      [
        "outer",
        -10.2255310777866
      ],
      [
        "▁ndo",
        -10.22572123337684
      ],
      [
        "▁pourri",
        -10.226155372953023
      ],
      [
        "presse",
        -10.23186071172443
      ],
      [
        "da",
        -10.232665563036967
      ],
      [
        "▁jiy",
        -10.233447999669265
      ],
      [
        "▁Ai",
        -10.242685263509468
      ],
      [
        "lan",
        -10.242689639055127
      ],
      [
        "▁ét",
        -10.251801957947798
      ],
      [
        "▁lal",
        -10.25250398071529
      ],
      [
        "▁õgii.",
        -10.25395377795697
      ],
      [
        "▁dent",
        -10.264521812378591
      ],
      [
        "tance",
        -10.26497846510082
      ],
      [
        "uy",
        -10.268213110939985
      ],
      [
        "▁Xan",
        -10.271071688782001
      ],
      [
        "étai",
        -10.274599346637983
      ],
      [
        "▁demi",
        -10.284442246012134
      ],
      [
        "tac",
        -10.291030449297585
      ],
      [
        "elqu'un",
        -10.295100598355404
      ],
      [
        "▁lama",
        -10.295721021771584
      ],
      [
        "▁sor",
        -10.297387392043799
      ],
      [
        "leurs",
        -10.301878763297317
      ],
      [
        "▁demand",
        -10.310369613517542
      ],
      [
        "ke",
        -10.311369413333827
      ],
      [
        "▁s'é",
        -10.311885002923537
      ],
      [
        "gir",
        -10.315187294850038
      ],
      [
        "J",
        -10.315339450410761
      ],
      [
        "ñoo",
        -10.315851933138408
      ],
      [
        "aye",
        -10.318547945850197
      ],
      [
        "sard",
        -10.319312415343854
      ],
      [
        "ttais",
        -10.320088456392766
      ],
      [
        "▁cl",
        -10.320718382951796
      ],
      [
        "▁tawa",
        -10.321525180076696
      ],
      [
        "▁Die",
        -10.3239799862639
      ],
      [
        "app",
        -10.325126665534825
      ],
      [
        "▁mar",
        -10.325382625862256
      ],
      [
        "t.",
        -10.326558670637212
      ],
      [
        "nee",
        -10.328032547147325
      ],
      [
        "▁off",
        -10.329734199437697
      ],
      [
        "ng",
        -10.33295421392368
      ],
      [
        "▁ava",
        -10.333060693403677
      ],
      [
        "▁é",
        -10.336001646168887
      ],
      [
        "ina",
        -10.336071261976656
      ],
      [
        "▁Mas",
        -10.336169425491589
      ],
      [
        "orsqu",
        -10.338388272327547
      ],
      [
        "ffi",
        -10.34017657951282
      ],
      [
        "▁tus",
        -10.34049537984114
      ],
      [
        "▁ñja",
        -10.343231275824834
      ],
      [
        "▁yooy",
        -10.344295507462514
      ],
      [
        "▁accompagn",
        -10.344322539765464
      ],
      [
        "▁len",
        -10.350089867396145
      ],
      [
        "▁jee",
        -10.351165811924567
      ],
      [
        "▁Laa",
        -10.352078840437956
      ],
      [
        "yi",
        -10.35272067754539
      ],
      [
        "bili",
        -10.35648192821262
      ],
      [
        "▁daawu",
        -10.357853812837204
      ],
      [
        "ard",
        -10.360171641530862
      ],
      [
        "gu",
        -10.36023410806219
      ],
      [
        "▁Bëggu",
        -10.362714776218064
      ],
      [
        "squel",
        -10.363470195398051
      ],
      [
        "▁Yo",
        -10.363869644041994
      ],
      [
        "▁Che",
        -10.363893043309119
      ],
      [
        "▁accompagne",
        -10.36613611633735
      ],
      [
        "ind",
        -10.367151088149829
      ],
      [
        "ekk",
        -10.367472489643436
      ],
      [
        "▁vent",
        -10.370546225343592
      ],
      [
        "attrape",
        -10.370604861877396
      ],
      [
        "▁jaa",
        -10.370974515905576
      ],
      [
        "ndal",
        -10.372305914909916
      ],
      [
        "▁évi",
        -10.376175163445367
      ],
      [
        "met",
        -10.377531858524769
      ],
      [
        "▁ins",
        -10.378169244064662
      ],
      [
        "nation",
        -10.37882991386896
      ],
      [
        "▁tak",
        -10.381285963146496
      ],
      [
        "▁Don",
        -10.381979128938898
      ],
      [
        "▁ha",
        -10.383473295895788
      ],
      [
        "▁couv",
        -10.384069319533872
      ],
      [
        "yul",
        -10.384430312331675
      ],
      [
        "▁vac",
        -10.38892690549782
      ],
      [
        "▁jeu",
        -10.392087027552282
      ],
      [
        "ch",
        -10.394374894410342
      ],
      [
        "nter",
        -10.398936858524813
      ],
      [
        "▁suc",
        -10.402779079885018
      ],
      [
        "▁lit",
        -10.40375271682759
      ],
      [
        "▁bel",
        -10.40518131456229
      ],
      [
        "▁sép",
        -10.406959706161347
      ],
      [
        "quelle",
        -10.410645261609174
      ],
      [
        "▁lekka",
        -10.410996350120154
      ],
      [
        "▁noon",
        -10.414273847021834
      ],
      [
        "bon",
        -10.41820981197447
      ],
      [
        "▁wé",
        -10.418656874537923
      ],
      [
        "iy",
        -10.421906090617922
      ],
      [
        "-j",
        -10.42278966165333
      ],
      [
        "'euss",
        -10.430654853353497
      ],
      [
        "▁suu",
        -10.430807389258353
      ],
      [
        "vers",
        -10.432323291614622
      ],
      [
        "tóo",
        -10.432353555783678
      ],
      [
        "▁char",
        -10.433095588019473
      ],
      [
        "▁ng",
        -10.434611366248896
      ],
      [
        "▁poi",
        -10.440961639424685
      ],
      [
        "▁pil",
        -10.442428154338533
      ],
      [
        "éeg",
        -10.445297351499333
      ],
      [
        "aõõ-",
        -10.445990969308312
      ],
      [
        "añ",
        -10.454345246091929
      ],
      [
        "▁Saa",
        -10.454931949921981
      ],
      [
        "▁vaca",
        -10.455904913216841
      ],
      [
        "▁lumi",
        -10.459269030807945
      ],
      [
        "▁Tug",
        -10.46442025023086
      ],
      [
        "▁jaõ",
        -10.466635803585973
      ],
      [
        "aumône",
        -10.466972329813839
      ],
      [
        "▁Gë",
        -10.468310476818491
      ],
      [
        "▁Celui-",
        -10.472609099679861
      ],
      [
        "dac",
        -10.472775087491131
      ],
      [
        "▁gëm",
        -10.473873067265988
      ],
      [
        "yóo",
        -10.474060973951714
      ],
      [
        "ari",
        -10.474298988987961
      ],
      [
        "nche",
        -10.475231111599495
      ],
      [
        "étour",
        -10.478001400072852
      ],
      [
        "tend",
        -10.480057569765947
      ],
      [
        "▁acc",
        -10.480846386973193
      ],
      [
        "▁plant",
        -10.480892885969944
      ],
      [
        "▁sawa",
        -10.484662020633474
      ],
      [
        "veux",
        -10.489083470770366
      ],
      [
        "ger",
        -10.489339850923807
      ],
      [
        "ins",
        -10.492284784294585
      ],
      [
        "▁or",
        -10.497840673674197
      ],
      [
        "▁rentre",
        -10.498684251905809
      ],
      [
        "▁bavarda",
        -10.50095479822045
      ],
      [
        "indé",
        -10.504073586661809
      ],
      [
        "▁jig",
        -10.510263043107905
      ],
      [
        "llum",
        -10.511441497700673
      ],
      [
        "ah",
        -10.512242222523215
      ],
      [
        "tt",
        -10.516826378686787
      ],
      [
        "▁ple",
        -10.522849545786595
      ],
      [
        "▁lo",
        -10.527933716608011
      ],
      [
        "▁nob",
        -10.531449340482794
      ],
      [
        "va",
        -10.538320824142955
      ],
      [
        "ima",
        -10.543155903441981
      ],
      [
        "▁passe",
        -10.54617786969652
      ],
      [
        "▁obligat",
        -10.551313070223802
      ],
      [
        "▁xaa",
        -10.55427047420243
      ],
      [
        "loo",
        -10.55945371937015
      ],
      [
        "muloo",
        -10.56213178574196
      ],
      [
        "ole",
        -10.564986680894531
      ],
      [
        "▁fab",
        -10.582015910486836
      ],
      [
        "▁ra",
        -10.583253613775758
      ],
      [
        "axkoon",
        -10.583907955137674
      ],
      [
        "▁õ",
        -10.586053171407944
      ],
      [
        "▁Ve",
        -10.587004434974144
      ],
      [
        "▁bouch",
        -10.59296457670273
      ],
      [
        "▁Voi",
        -10.595863075865756
      ],
      [
        "▁ni.",
        -10.597805662402742
      ],
      [
        "▁yoo",
        -10.597901524833118
      ],
      [
        "▁itt",
        -10.598313727646769
      ],
      [
        "▁Ñoo",
        -10.598444894897536
      ],
      [
        "luka",
        -10.598459607639992
      ],
      [
        "▁voi",
        -10.60007815717639
      ],
      [
        "éem",
        -10.602271569686803
      ],
      [
        "tient",
        -10.60239304988821
      ],
      [
        "▁l'ac",
        -10.605483513478767
      ],
      [
        "▁ter",
        -10.609358406736254
      ],
      [
        "▁sóo",
        -10.610217824278878
      ],
      [
        "étudiant",
        -10.610713829924991
      ],
      [
        "▁cult",
        -10.614598721538023
      ],
      [
        "▁Xarit",
        -10.617916322071313
      ],
      [
        "cous",
        -10.621238474953879
      ],
      [
        "ibbisi",
        -10.622115592659515
      ],
      [
        "woo",
        -10.622331737214884
      ],
      [
        "▁souhait",
        -10.623448942858133
      ],
      [
        "jal",
        -10.623985032128145
      ],
      [
        "▁ina",
        -10.626281636006336
      ],
      [
        "▁reven",
        -10.6331396137135
      ],
      [
        "mes",
        -10.636776230423058
      ],
      [
        "co",
        -10.63970598114631
      ],
      [
        "ayim",
        -10.640083409931663
      ],
      [
        "▁hon",
        -10.641485178640934
      ],
      [
        "daõ",
        -10.642416934884118
      ],
      [
        "▁m'as",
        -10.643492438168497
      ],
      [
        "ñca",
        -10.64476482721136
      ],
      [
        "▁taõ",
        -10.646009945136047
      ],
      [
        "▁act",
        -10.647161603354409
      ],
      [
        "▁sp",
        -10.647449286819008
      ],
      [
        "▁dég",
        -10.648819002779915
      ],
      [
        "argent",
        -10.648853801063034
      ],
      [
        "▁maigr",
        -10.650663045850333
      ],
      [
        "stin",
        -10.651321183925337
      ],
      [
        "wax",
        -10.652338334328832
      ],
      [
        "▁fà",
        -10.654861953111705
      ],
      [
        "▁lë",
        -10.659616809185646
      ],
      [
        "où",
        -10.66257740830904
      ],
      [
        "oy",
        -10.665019029170615
      ],
      [
        "▁woow",
        -10.665197382599858
      ],
      [
        "lop",
        -10.665373312820027
      ],
      [
        "aujourd'hui",
        -10.666451072961236
      ],
      [
        "▁brou",
        -10.666806979226829
      ],
      [
        "-r",
        -10.667517843153453
      ],
      [
        "▁Se",
        -10.66798358384313
      ],
      [
        "xal",
        -10.670270808264304
      ],
      [
        "daay",
        -10.670420112879942
      ],
      [
        "alé",
        -10.670910470712025
      ],
      [
        "iitël",
        -10.674693276611325
      ],
      [
        "onne",
        -10.675906915074641
      ],
      [
        "bbël",
        -10.678738584699353
      ],
      [
        "u.",
        -10.679853292187126
      ],
      [
        "ond",
        -10.681057403831849
      ],
      [
        "ëm",
        -10.682615499511183
      ],
      [
        "viendra",
        -10.687837087407168
      ],
      [
        "geen",
        -10.693305001520052
      ],
      [
        "enfant",
        -10.69389918752444
      ],
      [
        "▁sera",
        -10.69430243936693
      ],
      [
        "gis",
        -10.694664539798202
      ],
      [
        "mule",
        -10.698103002134806
      ],
      [
        "▁d'au",
        -10.698278002465214
      ],
      [
        "▁certain",
        -10.699016841876052
      ],
      [
        "'il",
        -10.699376109534654
      ],
      [
        "ñii",
        -10.699390033052254
      ],
      [
        "moon",
        -10.70076181832272
      ],
      [
        "yy",
        -10.703192517077305
      ],
      [
        "▁dig",
        -10.703871138284002
      ],
      [
        "▁reconn",
        -10.70443865839795
      ],
      [
        "aladie",
        -10.709976489147524
      ],
      [
        "gée",
        -10.713058822103097
      ],
      [
        "enie",
        -10.713581647573337
      ],
      [
        "eillir",
        -10.71457491620141
      ],
      [
        "inte",
        -10.716967791391765
      ],
      [
        "▁bule",
        -10.71708859490958
      ],
      [
        "bëggée",
        -10.717823381639096
      ],
      [
        "▁tag",
        -10.720190369227335
      ],
      [
        "▁laq",
        -10.720240668140578
      ],
      [
        "jaambur",
        -10.720805134800505
      ],
      [
        "ur.",
        -10.720915929247422
      ],
      [
        "▁yaak",
        -10.725939961224915
      ],
      [
        "▁aim",
        -10.72774211732557
      ],
      [
        "H",
        -10.731411428788485
      ],
      [
        "jeune",
        -10.73281348850846
      ],
      [
        "▁Est",
        -10.734060108706332
      ],
      [
        "um",
        -10.735993902283411
      ],
      [
        "a.",
        -10.737885370469119
      ],
      [
        "õgoo",
        -10.739141546743523
      ],
      [
        "uel",
        -10.74362808474611
      ],
      [
        "demain",
        -10.74383001954876
      ],
      [
        "att",
        -10.749632005406914
      ],
      [
        "▁Re",
        -10.750261115316576
      ],
      [
        "ccu",
        -10.75098175521616
      ],
      [
        "▁naa.",
        -10.752819573886327
      ],
      [
        "wër",
        -10.752822696876674
      ],
      [
        "waalo",
        -10.755040027037381
      ],
      [
        "▁croya",
        -10.755399161858062
      ],
      [
        "defar",
        -10.756432392570751
      ],
      [
        "▁baa",
        -10.757809418665783
      ],
      [
        "▁fac",
        -10.758777889957335
      ],
      [
        "naiss",
        -10.761062257181312
      ],
      [
        "jambuur",
        -10.761795752160838
      ],
      [
        "xe",
        -10.764737301995478
      ],
      [
        "▁Ag",
        -10.766398479022689
      ],
      [
        "pose",
        -10.772480962192981
      ],
      [
        "▁kat",
        -10.772518629527067
      ],
      [
        "â",
        -10.773625276364484
      ],
      [
        "marche",
        -10.774839100605352
      ],
      [
        "pter",
        -10.779914000584814
      ],
      [
        "xew",
        -10.782145800715835
      ],
      [
        "▁Ka",
        -10.782301130346937
      ],
      [
        "▁waxi",
        -10.783070683436495
      ],
      [
        "▁Xo",
        -10.78549428118923
      ],
      [
        "▁éta",
        -10.788477605982504
      ],
      [
        "më",
        -10.795487503715227
      ],
      [
        "contr",
        -10.79646219606242
      ],
      [
        "ape",
        -10.797559936319914
      ],
      [
        "cu",
        -10.799587520701053
      ],
      [
        "sage",
        -10.800225428050897
      ],
      [
        "▁wañ",
        -10.800892870790976
      ],
      [
        "rab",
        -10.801553247197297
      ],
      [
        "gg",
        -10.801772452973735
      ],
      [
        "ac",
        -10.804322433434285
      ],
      [
        "éralement",
        -10.806747287410674
      ],
      [
        "kaw",
        -10.80865486639607
      ],
      [
        "bul",
        -10.812027793949227
      ],
      [
        "rrache",
        -10.812391611478645
      ],
      [
        "indig",
        -10.81346673633374
      ],
      [
        "▁personn",
        -10.814496794645686
      ],
      [
        "▁kañ",
        -10.817778981651196
      ],
      [
        "accompagne",
        -10.81833034388008
      ],
      [
        "nañu.",
        -10.819796913125538
      ],
      [
        "▁refus",
        -10.82114036781465
      ],
      [
        "xor",
        -10.821390642765241
      ],
      [
        "vis",
        -10.821482466936612
      ],
      [
        "ô",
        -10.822409250318971
      ],
      [
        "▁lée",
        -10.82347331450849
      ],
      [
        "▁dis",
        -10.825974109443749
      ],
      [
        "▁ass",
        -10.829645211205662
      ],
      [
        "▁bât",
        -10.832585307284107
      ],
      [
        "▁fû",
        -10.833652429966346
      ],
      [
        "▁dés",
        -10.834749610946197
      ],
      [
        "jóo",
        -10.837462389846259
      ],
      [
        "illir",
        -10.839588204505013
      ],
      [
        "veni",
        -10.841384528678784
      ],
      [
        "ajj",
        -10.842113174052102
      ],
      [
        "quant",
        -10.842128933258028
      ],
      [
        "▁com",
        -10.843239949167979
      ],
      [
        "▁pardon",
        -10.84332776010053
      ],
      [
        "jud",
        -10.843671360181094
      ],
      [
        "obligat",
        -10.847870575437089
      ],
      [
        "▁s'im",
        -10.848125632865115
      ],
      [
        "ph",
        -10.848332557982038
      ],
      [
        "▁Fo",
        -10.8508637315569
      ],
      [
        "éen",
        -10.853480869760364
      ],
      [
        "kkat",
        -10.853674360022556
      ],
      [
        "auf",
        -10.85485165482653
      ],
      [
        "jiit",
        -10.85898876554179
      ],
      [
        "emuloo",
        -10.860064340926025
      ],
      [
        "boot",
        -10.860538059529453
      ],
      [
        "dé",
        -10.861801163429854
      ],
      [
        "épi",
        -10.861914686996663
      ],
      [
        "bë",
        -10.864278372417182
      ],
      [
        "▁Ñé",
        -10.868951733361989
      ],
      [
        "jar",
        -10.8708161015533
      ],
      [
        "▁dan",
        -10.871800357443773
      ],
      [
        "▁Daawu",
        -10.873336722141348
      ],
      [
        "▁br",
        -10.87547134830471
      ],
      [
        "▁uuf",
        -10.878979312415964
      ],
      [
        "ww",
        -10.879176144927914
      ],
      [
        "▁Gisul",
        -10.88063298497783
      ],
      [
        "▁Né",
        -10.882260395315818
      ],
      [
        "▁s'e",
        -10.886367570566083
      ],
      [
        "yee",
        -10.88901807372976
      ],
      [
        "nif",
        -10.893694632797017
      ],
      [
        "rais",
        -10.893722397160518
      ],
      [
        "ggi",
        -10.901475985212432
      ],
      [
        "aajo",
        -10.90211309963088
      ],
      [
        "▁brav",
        -10.902213569912563
      ],
      [
        "'aurai",
        -10.906282305380842
      ],
      [
        "▁Àn",
        -10.907452243180511
      ],
      [
        "▁U",
        -10.907980614607284
      ],
      [
        "▁deg",
        -10.911777733280852
      ],
      [
        "mbour",
        -10.91190293096457
      ],
      [
        "itam",
        -10.912027161512304
      ],
      [
        "iter",
        -10.91422376971524
      ],
      [
        "▁caus",
        -10.914383094398183
      ],
      [
        "▁piq",
        -10.916156610569887
      ],
      [
        "dam",
        -10.917329510849802
      ],
      [
        "▁travailleur",
        -10.917641043126599
      ],
      [
        "▁bouge",
        -10.917821003844747
      ],
      [
        "▁jé",
        -10.918127309916715
      ],
      [
        "▁Yée",
        -10.920696754713058
      ],
      [
        "kon",
        -10.920980676040287
      ],
      [
        "urtout",
        -10.9214975445526
      ],
      [
        "▁déte",
        -10.92223972230513
      ],
      [
        "stru",
        -10.922448925210126
      ],
      [
        "▁souff",
        -10.923094657031838
      ],
      [
        "▁s'épa",
        -10.924460097598265
      ],
      [
        "▁concurren",
        -10.924991569271869
      ],
      [
        "▁vie",
        -10.925092135341341
      ],
      [
        "óol",
        -10.925443621271755
      ],
      [
        "▁tâ",
        -10.925937057676652
      ],
      [
        "-jam",
        -10.926188805309218
      ],
      [
        "▁wuu",
        -10.926383326372541
      ],
      [
        "dul",
        -10.926735281880877
      ],
      [
        "▁tuur",
        -10.927489022457198
      ],
      [
        "▁vérit",
        -10.927847769612747
      ],
      [
        "arlat",
        -10.928210764520166
      ],
      [
        "'autre",
        -10.928252510376526
      ],
      [
        "▁cohabite",
        -10.92827841290382
      ],
      [
        "bax",
        -10.928692795436126
      ],
      [
        "'habi",
        -10.929307264201192
      ],
      [
        "▁tal",
        -10.930081976122054
      ],
      [
        "▁revien",
        -10.93128341315754
      ],
      [
        "▁seu",
        -10.931702678317176
      ],
      [
        "ctive",
        -10.931927487974288
      ],
      [
        "abille",
        -10.932397811994331
      ],
      [
        "usqu'ici",
        -10.932648791825896
      ],
      [
        "àññ",
        -10.933037435250363
      ],
      [
        "▁simple",
        -10.93312406803038
      ],
      [
        "▁revi",
        -10.933141641609188
      ],
      [
        "esprit",
        -10.933343299197277
      ],
      [
        "ême",
        -10.933433698036733
      ],
      [
        "▁excessi",
        -10.933482480115291
      ],
      [
        "politesse",
        -10.933702190168416
      ],
      [
        "▁accomp",
        -10.933736531192597
      ],
      [
        "[",
        -10.93375034488993
      ],
      [
        "ä",
        -10.93375034488993
      ],
      [
        "ï",
        -10.93375034488993
      ],
      [
        "]",
        -10.93375034488993
      ],
      [
        "▁habitue",
        -10.93375049932297
      ],
      [
        "déed",
        -10.933997303653227
      ],
      [
        "▁dind",
        -10.934816822245322
      ],
      [
        "véri",
        -10.936560757174547
      ],
      [
        "▁Musa",
        -10.937757717323946
      ],
      [
        "vid",
        -10.937970505571826
      ],
      [
        "'affai",
        -10.937990578425932
      ],
      [
        "▁Pou",
        -10.93835763137463
      ],
      [
        "▁chev",
        -10.938475238973814
      ],
      [
        "igno",
        -10.939589364712079
      ],
      [
        "tëli",
        -10.940024754878381
      ],
      [
        "abb",
        -10.940284851930466
      ],
      [
        "habite",
        -10.940445173558606
      ],
      [
        "oobu",
        -10.941276663661979
      ],
      [
        "▁n'av",
        -10.941540509994061
      ],
      [
        "ddoo",
        -10.943386371414968
      ],
      [
        "▁õgee",
        -10.943431425912298
      ],
      [
        "ouge",
        -10.943927187241245
      ],
      [
        "▁l'h",
        -10.944028831430739
      ],
      [
        "▁exce",
        -10.944441118045315
      ],
      [
        "▁coh",
        -10.944914058006386
      ],
      [
        "▁mê",
        -10.945627602122642
      ],
      [
        "▁kë",
        -10.946767053231767
      ],
      [
        "googee",
        -10.946919314142654
      ],
      [
        "▁fatt",
        -10.94749712837381
      ],
      [
        "▁dellu",
        -10.947854909740377
      ],
      [
        "▁Wut",
        -10.948725613067829
      ],
      [
        "▁Part",
        -10.949288828721068
      ],
      [
        "em-",
        -10.949953845307009
      ],
      [
        "étud",
        -10.950346501552419
      ],
      [
        "ace",
        -10.951388885918812
      ],
      [
        "▁coppe",
        -10.952220887639907
      ],
      [
        "ambour",
        -10.95323191819287
      ],
      [
        "glóo",
        -10.953942269155526
      ],
      [
        "nière",
        -10.954360864944663
      ],
      [
        "▁rap",
        -10.954390916066885
      ],
      [
        "▁l'ar",
        -10.955388123222892
      ],
      [
        "▁obs",
        -10.956029458494806
      ],
      [
        "▁jaam",
        -10.956822506552767
      ],
      [
        "latan",
        -10.957253731256404
      ],
      [
        "miné",
        -10.957625823726909
      ],
      [
        "▁macc",
        -10.958237340654
      ],
      [
        "▁d'h",
        -10.958428678719812
      ],
      [
        "▁conce",
        -10.959259482207303
      ],
      [
        "▁indi",
        -10.959608236013752
      ],
      [
        "rtis",
        -10.960846876087679
      ],
      [
        "ogu",
        -10.961284748426996
      ],
      [
        "ective",
        -10.961752897027726
      ],
      [
        "▁lem",
        -10.963292493880608
      ],
      [
        "laire",
        -10.963518134456885
      ],
      [
        "añu",
        -10.963992914714156
      ],
      [
        "cole",
        -10.965285815021
      ],
      [
        "arti",
        -10.9676957283089
      ],
      [
        "isine",
        -10.967710647715645
      ],
      [
        "omme",
        -10.969327545146395
      ],
      [
        "ents",
        -10.969413472418402
      ],
      [
        "▁Atte",
        -10.970484696891424
      ],
      [
        "▁Ca",
        -10.971236839340465
      ],
      [
        "divi",
        -10.971876754766026
      ],
      [
        "▁copp",
        -10.971918522666567
      ],
      [
        "ez-",
        -10.971954099093459
      ],
      [
        "impl",
        -10.972135894462316
      ],
      [
        "▁prol",
        -10.973117582055782
      ],
      [
        "oncer",
        -10.9737402279511
      ],
      [
        "ff",
        -10.975036416594419
      ],
      [
        "alla",
        -10.975106660241186
      ],
      [
        "▁fata",
        -10.97695811009825
      ],
      [
        "njam",
        -10.979048753995302
      ],
      [
        "llu",
        -10.979308074938022
      ],
      [
        "'ai",
        -10.981013650388535
      ],
      [
        "res",
        -10.981265132374123
      ],
      [
        "itude",
        -10.983137567517048
      ],
      [
        "eddi",
        -10.984429829562922
      ],
      [
        "▁déf",
        -10.985012111161563
      ],
      [
        "▁appr",
        -10.985675296271037
      ],
      [
        "nég",
        -10.986738370620275
      ],
      [
        "abi",
        -10.990234627099152
      ],
      [
        "up",
        -10.991835544762724
      ],
      [
        "rvit",
        -10.99210055710308
      ],
      [
        "érit",
        -10.992362341482805
      ],
      [
        "tif",
        -10.993153915580073
      ],
      [
        "oogu",
        -10.993378722679763
      ],
      [
        "dant",
        -10.993824300996353
      ],
      [
        "▁dev",
        -10.994472802423303
      ],
      [
        "▁l'é",
        -10.99561255401763
      ],
      [
        "isson",
        -10.995708547927773
      ],
      [
        "fka",
        -10.996265998938663
      ],
      [
        "rès",
        -10.998801111831284
      ],
      [
        "attali",
        -10.999248063422549
      ],
      [
        "enu",
        -11.000439383306833
      ],
      [
        "ogul",
        -11.000682025654548
      ],
      [
        "▁I",
        -11.00202643006627
      ],
      [
        "vo",
        -11.002183006328035
      ],
      [
        "▁pos",
        -11.00358433022955
      ],
      [
        "autre",
        -11.004411561447784
      ],
      [
        "ctif",
        -11.005626008205882
      ],
      [
        "▁cop",
        -11.005824511151241
      ],
      [
        "égal",
        -11.005863022321176
      ],
      [
        "rê",
        -11.00648509993459
      ],
      [
        "hé",
        -11.007684996885432
      ],
      [
        "noir",
        -11.008195033998312
      ],
      [
        "ours",
        -11.008829749154081
      ],
      [
        "ço",
        -11.009228678241929
      ],
      [
        "▁leq",
        -11.010261494059996
      ],
      [
        "▁Gan",
        -11.01042541181019
      ],
      [
        "bri",
        -11.0109427239025
      ],
      [
        "ewande",
        -11.01107956533498
      ],
      [
        "▁atte",
        -11.016416183477897
      ],
      [
        "awar",
        -11.017666283554231
      ],
      [
        "góon",
        -11.021768774498758
      ],
      [
        "▁xe",
        -11.024344649192255
      ],
      [
        "fal",
        -11.025212097744491
      ],
      [
        "raõõ",
        -11.027771011549195
      ],
      [
        "alo",
        -11.028061587576058
      ],
      [
        "alik",
        -11.03024572867643
      ],
      [
        "lait",
        -11.030400132931014
      ],
      [
        "assé",
        -11.032503228967206
      ],
      [
        "uleen",
        -11.0329151941861
      ],
      [
        "bli",
        -11.034245923290383
      ],
      [
        "née",
        -11.034511618688136
      ],
      [
        "▁travaillai",
        -11.034956806445589
      ],
      [
        "-xa",
        -11.037846215084155
      ],
      [
        "bout",
        -11.040629484899778
      ],
      [
        "▁gos",
        -11.043918230732473
      ],
      [
        "entré",
        -11.04664448608752
      ],
      [
        "exil",
        -11.04710816980037
      ],
      [
        "ect",
        -11.048054148149674
      ],
      [
        "▁ad",
        -11.050638363408645
      ],
      [
        "prié",
        -11.050681707340022
      ],
      [
        "'aime",
        -11.052367104117096
      ],
      [
        "▁ap",
        -11.052393236076131
      ],
      [
        "kku",
        -11.053801772599138
      ],
      [
        "gay",
        -11.05514531500388
      ],
      [
        "r.",
        -11.060382004865302
      ],
      [
        "ëggu",
        -11.060622211406004
      ],
      [
        "ous-même",
        -11.061407359081711
      ],
      [
        "▁rée",
        -11.062084803080213
      ],
      [
        "adi",
        -11.062597974860736
      ],
      [
        "âl",
        -11.065186645796453
      ],
      [
        "por",
        -11.067028247556788
      ],
      [
        "egg",
        -11.067242807672399
      ],
      [
        "▁gén",
        -11.07022833488718
      ],
      [
        "ér",
        -11.071056329397894
      ],
      [
        "▁ense",
        -11.078047305752058
      ],
      [
        "ici.",
        -11.083122051794192
      ],
      [
        "▁Sér",
        -11.08333467079741
      ],
      [
        "riv",
        -11.08422874571108
      ],
      [
        "jambaa",
        -11.085396731196958
      ],
      [
        "lum",
        -11.086296310100696
      ],
      [
        "euse",
        -11.088053008941886
      ],
      [
        "uite",
        -11.092998757610435
      ],
      [
        "nversé",
        -11.095953557352
      ],
      [
        "▁dim",
        -11.096507581217098
      ],
      [
        "▁choi",
        -11.096879741957952
      ],
      [
        "▁juu",
        -11.09857227263688
      ],
      [
        "erai",
        -11.10242915668147
      ],
      [
        "amant",
        -11.102783157669633
      ],
      [
        "ang",
        -11.104332414490905
      ],
      [
        "empi",
        -11.106489554725586
      ],
      [
        "aõk",
        -11.110970667250239
      ],
      [
        "▁kaa",
        -11.114025704151558
      ],
      [
        "▁reg",
        -11.114780073007712
      ],
      [
        "saw",
        -11.115170192077418
      ],
      [
        "▁contr",
        -11.115406819615579
      ],
      [
        "▁Ji",
        -11.119623801565602
      ],
      [
        "iden",
        -11.121896649607315
      ],
      [
        "ex",
        -11.131428567335117
      ],
      [
        "▁rë",
        -11.138454555434667
      ],
      [
        "uve",
        -11.140685971226272
      ],
      [
        "▁déc",
        -11.140768800763418
      ],
      [
        "ut",
        -11.143411278707571
      ],
      [
        "▁jus",
        -11.149906896746446
      ],
      [
        "émi",
        -11.15392362239926
      ],
      [
        "▁atti",
        -11.154958454236414
      ],
      [
        "sa",
        -11.155409138598133
      ],
      [
        "▁sér",
        -11.157234378661464
      ],
      [
        "▁comp",
        -11.1572667024526
      ],
      [
        "▁nj",
        -11.15794133025501
      ],
      [
        "yent",
        -11.15837324411112
      ],
      [
        "obal",
        -11.158786927225139
      ],
      [
        "aww",
        -11.162782522903363
      ],
      [
        "xar",
        -11.166113786691595
      ],
      [
        "mée",
        -11.166558037572633
      ],
      [
        "auc",
        -11.169986732907686
      ],
      [
        "uche",
        -11.175566190643071
      ],
      [
        "toi",
        -11.176077407959614
      ],
      [
        "▁rés",
        -11.179250793938055
      ],
      [
        "▁vieill",
        -11.181012000320305
      ],
      [
        "biti",
        -11.181332943005538
      ],
      [
        "nnée",
        -11.183374204622957
      ],
      [
        "▁õgoog",
        -11.184564871158138
      ],
      [
        "mos",
        -11.187534110992692
      ],
      [
        "▁poss",
        -11.188275403346532
      ],
      [
        "etourne",
        -11.19211751962634
      ],
      [
        "mbre",
        -11.19406720639376
      ],
      [
        "oint",
        -11.199193602495846
      ],
      [
        "hère",
        -11.201357154453248
      ],
      [
        "anaa",
        -11.203738254465703
      ],
      [
        "▁om",
        -11.207794947338526
      ],
      [
        "appelle",
        -11.216858325688086
      ],
      [
        "▁dém",
        -11.217993706099815
      ],
      [
        "▁fais",
        -11.222251503220996
      ],
      [
        "▁Av",
        -11.226205073428202
      ],
      [
        "oxor",
        -11.231763521187792
      ],
      [
        "▁terr",
        -11.236315691777783
      ],
      [
        "naissa",
        -11.242832872695253
      ],
      [
        "▁conn",
        -11.243367738543977
      ],
      [
        "▁lig",
        -11.244559854602134
      ],
      [
        "ndi",
        -11.246815449909636
      ],
      [
        "▁trav",
        -11.247571574802164
      ],
      [
        "▁atten",
        -11.248217413438347
      ],
      [
        "rère",
        -11.252463093779774
      ],
      [
        "uu",
        -11.263077057972353
      ],
      [
        "arée",
        -11.267764006453046
      ],
      [
        "▁ub",
        -11.272697423512811
      ],
      [
        "rte",
        -11.276553592280907
      ],
      [
        "L'homme",
        -11.279292414143663
      ],
      [
        "▁sé",
        -11.285553851733372
      ],
      [
        "mine",
        -11.293003196905042
      ],
      [
        "oppi",
        -11.297151185108742
      ],
      [
        "▁chau",
        -11.299658719066874
      ],
      [
        "sé",
        -11.302034288218023
      ],
      [
        "llusi",
        -11.303162691242665
      ],
      [
        "▁vert",
        -11.304168771905978
      ],
      [
        "nore",
        -11.305530329290425
      ],
      [
        "tudi",
        -11.311513005734064
      ],
      [
        "à-",
        -11.312629938451222
      ],
      [
        "ons.",
        -11.32984663073713
      ],
      [
        "▁jama",
        -11.334130988374858
      ],
      [
        "oppeeku",
        -11.334817447053995
      ],
      [
        "onnai",
        -11.335671747622373
      ],
      [
        "'argent",
        -11.337589113724015
      ],
      [
        "ifie",
        -11.338647001324706
      ],
      [
        "▁noy",
        -11.341503476574145
      ],
      [
        "▁xamu",
        -11.344835978562738
      ],
      [
        "pi",
        -11.349851170214029
      ],
      [
        "▁mooma",
        -11.353228951768823
      ],
      [
        "▁ai",
        -11.353586065324748
      ],
      [
        "sag",
        -11.359178690436037
      ],
      [
        "▁Mus",
        -11.363598354474673
      ],
      [
        "▁gent",
        -11.369330124438262
      ],
      [
        "rousse",
        -11.371816968341932
      ],
      [
        "▁yo",
        -11.37323191646892
      ],
      [
        "▁fort",
        -11.374316011256772
      ],
      [
        "▁inter",
        -11.376113838786255
      ],
      [
        "yil",
        -11.376982527615821
      ],
      [
        "▁marche",
        -11.377918784470406
      ],
      [
        "caa",
        -11.381041416561116
      ],
      [
        "goo",
        -11.384539488470237
      ],
      [
        "aõx",
        -11.38466524670292
      ],
      [
        "alli",
        -11.391392835806048
      ],
      [
        "ggoo",
        -11.39404863349344
      ],
      [
        "illi",
        -11.395333628849974
      ],
      [
        "▁enc",
        -11.398250613714028
      ],
      [
        "ata",
        -11.398515667623899
      ],
      [
        "eek",
        -11.398595933886384
      ],
      [
        "drai",
        -11.404165539933006
      ],
      [
        "Gis",
        -11.404657562184491
      ],
      [
        "▁mé",
        -11.405909112893971
      ],
      [
        "lqu'un",
        -11.408466782274045
      ],
      [
        "jug",
        -11.412334876910817
      ],
      [
        "lie",
        -11.41447646050185
      ],
      [
        "nko",
        -11.414679763154956
      ],
      [
        "▁fit",
        -11.419399728005065
      ],
      [
        "▁nou",
        -11.419492998562035
      ],
      [
        "quit",
        -11.422044850540528
      ],
      [
        "▁cont",
        -11.423077886482561
      ],
      [
        "oure",
        -11.425132265292616
      ],
      [
        "roir",
        -11.426602667763813
      ],
      [
        "des",
        -11.427540816102326
      ],
      [
        "bab",
        -11.431353831139429
      ],
      [
        "boi",
        -11.43345075727997
      ],
      [
        "coute",
        -11.436261726991264
      ],
      [
        "aakaar",
        -11.437607382929716
      ],
      [
        "▁seco",
        -11.441384660074336
      ],
      [
        "▁es-",
        -11.447251892846905
      ],
      [
        "▁Sé",
        -11.44988667111506
      ],
      [
        "▁tà",
        -11.454086221051165
      ],
      [
        "-là.",
        -11.456971423215155
      ],
      [
        "okka",
        -11.46148596734378
      ],
      [
        "aal",
        -11.46551750795841
      ],
      [
        "ses",
        -11.465777161058885
      ],
      [
        "▁env",
        -11.467873275518727
      ],
      [
        "olul",
        -11.471505385958434
      ],
      [
        "aucun",
        -11.474884617319585
      ],
      [
        "▁góo",
        -11.476957583304873
      ],
      [
        "▁yée",
        -11.480710369475464
      ],
      [
        "jeu",
        -11.481616298476487
      ],
      [
        "lig",
        -11.487216402238342
      ],
      [
        "yer",
        -11.487400146248477
      ],
      [
        "né",
        -11.489510035551994
      ],
      [
        "mee",
        -11.495171769479919
      ],
      [
        "▁ana",
        -11.499586310459552
      ],
      [
        "L",
        -11.504044776283077
      ],
      [
        "ein",
        -11.505313626540485
      ],
      [
        "▁soppa",
        -11.50746686978386
      ],
      [
        "uf",
        -11.512022828175798
      ],
      [
        "sent",
        -11.512596733679034
      ],
      [
        "▁sub",
        -11.515390904047997
      ],
      [
        "ndée",
        -11.516350404785706
      ],
      [
        "▁pres",
        -11.51829438419797
      ],
      [
        "ors",
        -11.521344471775178
      ],
      [
        "▁app",
        -11.527640577582028
      ],
      [
        "▁pre",
        -11.530040890622075
      ],
      [
        "tée",
        -11.530258762833252
      ],
      [
        "ot",
        -11.530776885678392
      ],
      [
        "l.",
        -11.534343569355922
      ],
      [
        "'ici",
        -11.545216169646144
      ],
      [
        "mande",
        -11.54759110213479
      ],
      [
        "qu'un",
        -11.547692245618736
      ],
      [
        "O",
        -11.547803767888944
      ],
      [
        "su",
        -11.552758041636547
      ],
      [
        "ëñ",
        -11.56080396077438
      ],
      [
        "es-",
        -11.562696118182405
      ],
      [
        "▁mënk",
        -11.565681656797159
      ],
      [
        "uis",
        -11.56970258794502
      ],
      [
        "ourri",
        -11.574368701258166
      ],
      [
        "aõ",
        -11.574824983428181
      ],
      [
        "lir",
        -11.581808254170902
      ],
      [
        "culte",
        -11.582124924338425
      ],
      [
        "▁lak",
        -11.585895869410027
      ],
      [
        "▁Ho",
        -11.589610898058034
      ],
      [
        "aka",
        -11.592617435283863
      ],
      [
        "Il",
        -11.599726855303002
      ],
      [
        "op",
        -11.609261690187488
      ],
      [
        "▁d'i",
        -11.611998468263426
      ],
      [
        "▁qu'est",
        -11.615636562674228
      ],
      [
        "▁jée",
        -11.61874337383849
      ],
      [
        "▁éte",
        -11.621596442621362
      ],
      [
        "▁ye",
        -11.623617560683586
      ],
      [
        "▁tii",
        -11.627609688592667
      ],
      [
        "-ce",
        -11.633816731301605
      ],
      [
        "▁on",
        -11.635332304734495
      ],
      [
        "aajoo",
        -11.639857740093195
      ],
      [
        "ga",
        -11.650798281601169
      ],
      [
        "▁Wu",
        -11.651469260325662
      ],
      [
        "user",
        -11.652586775616369
      ],
      [
        "ges",
        -11.657759214167843
      ],
      [
        "n.",
        -11.660220423834915
      ],
      [
        "▁foofi",
        -11.660670355412025
      ],
      [
        "tam",
        -11.661078534822222
      ],
      [
        "asse",
        -11.661207635631104
      ],
      [
        "lecti",
        -11.6683834526568
      ],
      [
        "mul",
        -11.670356404904311
      ],
      [
        "oit",
        -11.672907512958322
      ],
      [
        "ami",
        -11.679206067087362
      ],
      [
        "ager",
        -11.694887913164035
      ],
      [
        "lheureusement",
        -11.697105716027206
      ],
      [
        "dit",
        -11.702142660734237
      ],
      [
        "nez",
        -11.702566417078826
      ],
      [
        "▁reco",
        -11.709333516230776
      ],
      [
        "ten",
        -11.717840148659844
      ],
      [
        "oxoo",
        -11.7197030248591
      ],
      [
        "▁moomi",
        -11.723401006300737
      ],
      [
        "irent",
        -11.731632198114655
      ],
      [
        "▁fet",
        -11.737717455091133
      ],
      [
        "alis",
        -11.73987253182835
      ],
      [
        "ouver",
        -11.742328968602553
      ],
      [
        "ar.",
        -11.756474569804602
      ],
      [
        "oui",
        -11.759655383097643
      ],
      [
        "▁ten",
        -11.762053773385398
      ],
      [
        "▁quan",
        -11.766565901125812
      ],
      [
        "aurai",
        -11.778218013216632
      ],
      [
        "▁chan",
        -11.779389012822648
      ],
      [
        "aide",
        -11.78353386784479
      ],
      [
        "▁cla",
        -11.78880888612867
      ],
      [
        "tés",
        -11.794842718979318
      ],
      [
        "esse",
        -11.79572957487879
      ],
      [
        "l'homme",
        -11.79958504312541
      ],
      [
        "em",
        -11.800393114779332
      ],
      [
        "Tu",
        -11.80643207800698
      ],
      [
        "boo",
        -11.811462137621609
      ],
      [
        "▁ar",
        -11.814149060286326
      ],
      [
        "ive",
        -11.820011032985871
      ],
      [
        "gar",
        -11.827254575645398
      ],
      [
        "pl",
        -11.827964257405373
      ],
      [
        "▁fai",
        -11.828054878849276
      ],
      [
        "▁waxe",
        -11.833255731531713
      ],
      [
        "rête",
        -11.83330958696266
      ],
      [
        "▁voil",
        -11.83365407809658
      ],
      [
        "erie",
        -11.835736133917868
      ],
      [
        "'apprécie",
        -11.836070814521156
      ],
      [
        "lal",
        -11.842065816139664
      ],
      [
        "▁elle",
        -11.845464316746558
      ],
      [
        "okk",
        -11.846949540590705
      ],
      [
        "rge",
        -11.853300188733128
      ],
      [
        "fini",
        -11.861297273323087
      ],
      [
        "ets-t",
        -11.86201772968106
      ],
      [
        "ñc",
        -11.866243747758151
      ],
      [
        "róo",
        -11.868138351277773
      ],
      [
        "nar",
        -11.874833040267667
      ],
      [
        "▁lam",
        -11.876693210454874
      ],
      [
        "▁ment",
        -11.876883691116213
      ],
      [
        "erc",
        -11.879166552471037
      ],
      [
        "▁Bo",
        -11.88128581066342
      ],
      [
        "tourne",
        -11.887053552975871
      ],
      [
        "rer",
        -11.89699330986814
      ],
      [
        "st",
        -11.898921221704668
      ],
      [
        "t-ce",
        -11.902963355936503
      ],
      [
        "▁bar",
        -11.914563267054351
      ],
      [
        "tali",
        -11.915974580406237
      ],
      [
        "aaré",
        -11.916170379990636
      ],
      [
        "gee",
        -11.922824508114644
      ],
      [
        "▁tend",
        -11.923963945455581
      ],
      [
        "aill",
        -11.93993691261444
      ],
      [
        "uwu",
        -11.961190344490173
      ],
      [
        "ayer",
        -11.969714132046814
      ],
      [
        "▁né",
        -11.970813726480415
      ],
      [
        "▁qu'i",
        -11.979695105001502
      ],
      [
        "▁prop",
        -11.981664799634228
      ],
      [
        "mati",
        -11.987509034149284
      ],
      [
        "▁Ke",
        -11.99027764289869
      ],
      [
        "do",
        -11.998411098742842
      ],
      [
        "▁Dema",
        -12.001488629931481
      ],
      [
        "▁an",
        -12.003269984346582
      ],
      [
        "▁entr",
        -12.015250323188633
      ],
      [
        "qué",
        -12.026853810781166
      ],
      [
        "ûte",
        -12.03224632408995
      ],
      [
        "ya",
        -12.045590968054
      ],
      [
        "he",
        -12.046169365333384
      ],
      [
        "▁Wan",
        -12.058146609802142
      ],
      [
        "uvr",
        -12.058457042572613
      ],
      [
        "▁sat",
        -12.05929847143647
      ],
      [
        "ssent",
        -12.075839184592011
      ],
      [
        "ouve",
        -12.08812657496944
      ],
      [
        "▁bët",
        -12.097872518780655
      ],
      [
        "▁naar",
        -12.102136050358379
      ],
      [
        "tin",
        -12.109686421403119
      ],
      [
        "ental",
        -12.113466312677563
      ],
      [
        "▁bat",
        -12.129144991008863
      ],
      [
        "J'a",
        -12.134844300486519
      ],
      [
        "les-",
        -12.137202365764292
      ],
      [
        "kule",
        -12.139194807939862
      ],
      [
        "yé",
        -12.145687872853468
      ],
      [
        "akk",
        -12.15308747653254
      ],
      [
        "nag",
        -12.156086828876745
      ],
      [
        "daõõ",
        -12.167161631932968
      ],
      [
        "tala",
        -12.168156831735443
      ],
      [
        "aggi",
        -12.175767901125548
      ],
      [
        "awaay",
        -12.179390558406432
      ],
      [
        "entrer",
        -12.182166281074473
      ],
      [
        "amul",
        -12.183449722889646
      ],
      [
        "aõg",
        -12.18401587407424
      ],
      [
        "parti",
        -12.198956960918455
      ],
      [
        "▁in",
        -12.201670164236603
      ],
      [
        "▁d'es",
        -12.214081854370027
      ],
      [
        "may",
        -12.225075644316094
      ],
      [
        "oi-même",
        -12.225841091181747
      ],
      [
        "ll",
        -12.233291542298794
      ],
      [
        "rée",
        -12.241024057663937
      ],
      [
        "▁nie",
        -12.250677643570715
      ],
      [
        "essa",
        -12.27214620103081
      ],
      [
        "joo",
        -12.276646293628007
      ],
      [
        "ttu",
        -12.281080594108033
      ],
      [
        "▁Fat",
        -12.281309342645077
      ],
      [
        "hie",
        -12.296238830707832
      ],
      [
        "▁car",
        -12.309646506916339
      ],
      [
        "À",
        -12.312800439268537
      ],
      [
        "A",
        -12.312900439268537
      ],
      [
        "û",
        -12.313000439268537
      ],
      [
        "V",
        -12.313100439268537
      ],
      [
        "'",
        -12.313200439268536
      ],
      [
        "K",
        -12.313300439268538
      ],
      [
        "T",
        -12.313400439268538
      ],
      [
        "(",
        -12.313500439268537
      ],
      [
        "W",
        -12.313600439268537
      ],
      [
        "Ñ",
        -12.313700439268537
      ],
      [
        "E",
        -12.313723720518398
      ],
      [
        "Y",
        -12.313800439268537
      ],
      [
        "Õ",
        -12.313900439268537
      ],
      [
        "R",
        -12.314000439268536
      ],
      [
        "î",
        -12.314100439268538
      ],
      [
        "D",
        -12.314200439268538
      ],
      [
        "S",
        -12.314300439268537
      ],
      [
        "X",
        -12.314400439268537
      ],
      [
        "P",
        -12.314500439268537
      ],
      [
        "M",
        -12.314600439268537
      ],
      [
        "Q",
        -12.314700439268536
      ],
      [
        "U",
        -12.314800439268536
      ],
      [
        "N",
        -12.314900439268538
      ],
      [
        "F",
        -12.315000439268537
      ],
      [
        "I",
        -12.315100439268537
      ],
      [
        "B",
        -12.315200439268537
      ],
      [
        "▁sar",
        -12.315200439268537
      ]
    ]
  }
}