{
  "version": "1.0",
  "truncation": null,
  "padding": null,
  "added_tokens": [
    {
      "id": 0,
      "content": "<cls>",
      "single_word": false,
      "lstrip": false,
      "rstrip": false,
      "normalized": false,
      "special": true
    },
    {
      "id": 1,
      "content": "<sep>",
      "single_word": false,
      "lstrip": false,
      "rstrip": false,
      "normalized": false,
      "special": true
    },
    {
      "id": 2,
      "content": "<unk>",
      "single_word": false,
      "lstrip": false,
      "rstrip": false,
      "normalized": false,
      "special": true
    },
    {
      "id": 3,
      "content": "<pad>",
      "single_word": false,
      "lstrip": false,
      "rstrip": false,
      "normalized": false,
      "special": true
    },
    {
      "id": 4,
      "content": "<mask>",
      "single_word": false,
      "lstrip": false,
      "rstrip": false,
      "normalized": false,
      "special": true
    },
    {
      "id": 5,
      "content": "<s>",
      "single_word": false,
      "lstrip": false,
      "rstrip": false,
      "normalized": false,
      "special": true
    },
    {
      "id": 6,
      "content": "</s>",
      "single_word": false,
      "lstrip": false,
      "rstrip": false,
      "normalized": false,
      "special": true
    }
  ],
  "normalizer": {
    "type": "Replace",
    "pattern": {
      "String": " {2,}"
    },
    "content": " "
  },
  "pre_tokenizer": {
    "type": "Metaspace",
    "replacement": "▁",
    "add_prefix_space": true
  },
  "post_processor": null,
  "decoder": {
    "type": "Metaspace",
    "replacement": "▁",
    "add_prefix_space": true
  },
  "model": {
    "type": "Unigram",
    "unk_id": 2,
    "vocab": [
      [
        "<cls>",
        0.0
      ],
      [
        "<sep>",
        0.0
      ],
      [
        "<unk>",
        0.0
      ],
      [
        "<pad>",
        0.0
      ],
      [
        "<mask>",
        0.0
      ],
      [
        "<s>",
        0.0
      ],
      [
        "</s>",
        0.0
      ],
      [
        ",",
        -2.982672892069541
      ],
      [
        ".",
        -3.2722001407290673
      ],
      [
        "s",
        -3.9989418810652673
      ],
      [
        "▁de",
        -4.088211766451532
      ],
      [
        "▁",
        -4.131636014652885
      ],
      [
        "▁la",
        -4.172078835177006
      ],
      [
        "▁ci",
        -4.560958025592489
      ],
      [
        "y",
        -4.621557589420796
      ],
      [
        "e",
        -4.669847482585896
      ],
      [
        "▁a",
        -4.707428640709794
      ],
      [
        "▁!",
        -4.722835829742918
      ],
      [
        "▁?",
        -4.83261974432308
      ],
      [
        "i",
        -5.001248071452633
      ],
      [
        "▁et",
        -5.051057621288296
      ],
      [
        "▁à",
        -5.088830341383752
      ],
      [
        "▁les",
        -5.118260322679478
      ],
      [
        "u",
        -5.194355540996888
      ],
      [
        "▁des",
        -5.210406574419749
      ],
      [
        "▁un",
        -5.212844875034387
      ],
      [
        "▁le",
        -5.2662126137291905
      ],
      [
        "▁qui",
        -5.267660534044807
      ],
      [
        "▁mu",
        -5.291492053616025
      ],
      [
        "r",
        -5.292057263126768
      ],
      [
        "▁ni",
        -5.316010948063948
      ],
      [
        "▁na",
        -5.359997190864775
      ],
      [
        "▁ma",
        -5.361119282940954
      ],
      [
        "▁ne",
        -5.38110841204024
      ],
      [
        "▁que",
        -5.397955484707669
      ],
      [
        "▁bi",
        -5.469407200209348
      ],
      [
        "▁ba",
        -5.473961720807534
      ],
      [
        "▁di",
        -5.47633972405331
      ],
      [
        "▁du",
        -5.493927166666965
      ],
      [
        "▁ko",
        -5.512814389253575
      ],
      [
        "▁ak",
        -5.527739203340196
      ],
      [
        "t",
        -5.5488072155900205
      ],
      [
        "▁pas",
        -5.6101610893816884
      ],
      [
        "a",
        -5.678237923069471
      ],
      [
        "▁est",
        -5.687854795370434
      ],
      [
        "▁gi",
        -5.691318055880828
      ],
      [
        "▁yi",
        -5.713551122413725
      ],
      [
        "▁en",
        -5.723711786775082
      ],
      [
        "▁dem",
        -5.731593233467846
      ],
      [
        "▁ñu",
        -5.734262448413402
      ],
      [
        "▁yu",
        -5.737285862902744
      ],
      [
        "▁dans",
        -5.75385778149499
      ],
      [
        "▁il",
        -5.769679863105944
      ],
      [
        "▁bu",
        -5.7794936134356885
      ],
      [
        "▁Il",
        -5.854314794574488
      ],
      [
        "▁ay",
        -5.950560502792907
      ],
      [
        "▁naa",
        -5.996585973943553
      ],
      [
        "▁fa",
        -6.045829886116101
      ],
      [
        "▁te",
        -6.056552918746416
      ],
      [
        "▁C'est",
        -6.079578650263904
      ],
      [
        "▁pour",
        -6.1062161597935685
      ],
      [
        "▁ngi",
        -6.10975120838703
      ],
      [
        "▁seen",
        -6.110071205164238
      ],
      [
        "▁lu",
        -6.127263923600566
      ],
      [
        "▁ce",
        -6.130670508549842
      ],
      [
        "▁woon",
        -6.13132296972149
      ],
      [
        "n",
        -6.1352842448828175
      ],
      [
        "▁am",
        -6.135898432389017
      ],
      [
        "oon",
        -6.1829545299203295
      ],
      [
        "▁sama",
        -6.205507161626687
      ],
      [
        "une",
        -6.2300585133131605
      ],
      [
        "▁ca",
        -6.244715702698887
      ],
      [
        "▁au",
        -6.286275363762737
      ],
      [
        "▁je",
        -6.29341349717562
      ],
      [
        "▁qu'il",
        -6.2951440809453825
      ],
      [
        ":",
        -6.300049977129841
      ],
      [
        "▁daan",
        -6.3151660392707205
      ],
      [
        "▁sa",
        -6.317780327964494
      ],
      [
        "▁se",
        -6.34569592879236
      ],
      [
        "▁sur",
        -6.349616654807716
      ],
      [
        "▁vu",
        -6.354591080138123
      ],
      [
        "▁doon",
        -6.3603539988684945
      ],
      [
        "ent",
        -6.36169483433054
      ],
      [
        "▁y",
        -6.364020950182772
      ],
      [
        "▁avec",
        -6.371027983658737
      ],
      [
        "▁Je",
        -6.386478981551475
      ],
      [
        "▁ŋga",
        -6.405619429565088
      ],
      [
        "al",
        -6.406329584477142
      ],
      [
        "▁sont",
        -6.415040099192811
      ],
      [
        "▁par",
        -6.417240594773389
      ],
      [
        "▁mi",
        -6.448812332306987
      ],
      [
        "é",
        -6.451687531619236
      ],
      [
        "▁gis",
        -6.462675215508637
      ],
      [
        "▁mon",
        -6.467517419034337
      ],
      [
        "▁leen",
        -6.480949831823236
      ],
      [
        "▁père",
        -6.503322051082618
      ],
      [
        "ul",
        -6.52465901164038
      ],
      [
        "▁Góo",
        -6.53334766589507
      ],
      [
        "▁nag",
        -6.534204754475432
      ],
      [
        "▁xam",
        -6.535455806016341
      ],
      [
        "am",
        -6.555064124907559
      ],
      [
        "▁l'",
        -6.556356065319709
      ],
      [
        "▁wax",
        -6.568346410934851
      ],
      [
        "▁Baay",
        -6.576483759790586
      ],
      [
        "nt",
        -6.585565972571122
      ],
      [
        "▁tu",
        -6.5907537844252
      ],
      [
        "▁nit",
        -6.593073361165008
      ],
      [
        "l",
        -6.611580391561757
      ],
      [
        "▁si",
        -6.614397183701798
      ],
      [
        "▁été",
        -6.626781309006979
      ],
      [
        "er",
        -6.62717810423588
      ],
      [
        "▁ya",
        -6.640530037818643
      ],
      [
        "▁nga",
        -6.642700020751785
      ],
      [
        "▁nekk",
        -6.657008475082026
      ],
      [
        "▁mel",
        -6.6674812053401515
      ],
      [
        "▁Gis",
        -6.673865803620731
      ],
      [
        "▁Afrig",
        -6.676841993689839
      ],
      [
        "▁sax",
        -6.678375088423632
      ],
      [
        "▁où",
        -6.680518344761099
      ],
      [
        "▁benn",
        -6.693941792708337
      ],
      [
        "ait",
        -6.707172191009771
      ],
      [
        "▁moom",
        -6.712452879998069
      ],
      [
        "▁homme",
        -6.715097843087414
      ],
      [
        "le",
        -6.722326113097888
      ],
      [
        "▁son",
        -6.733311925260167
      ],
      [
        "▁nu",
        -6.745472400588166
      ],
      [
        "▁moo",
        -6.752564159965872
      ],
      [
        "te",
        -6.762624114356041
      ],
      [
        "▁Tu",
        -6.767328949378557
      ],
      [
        "▁lui",
        -6.80479030518775
      ],
      [
        "▁L'homme",
        -6.809125318716783
      ],
      [
        "k",
        -6.819837751951389
      ],
      [
        "▁plus",
        -6.820587457589825
      ],
      [
        "▁li",
        -6.840025847917052
      ],
      [
        "▁biir",
        -6.840116882115484
      ],
      [
        "▁def",
        -6.847229345609508
      ],
      [
        "«",
        -6.853775295589967
      ],
      [
        "▁J'ai",
        -6.853782188650757
      ],
      [
        "▁»",
        -6.853814439888026
      ],
      [
        "ee",
        -6.8583742919133845
      ],
      [
        "▁su",
        -6.860706883224621
      ],
      [
        "▁ñëw",
        -6.889939406686134
      ],
      [
        "▁La",
        -6.896557784958352
      ],
      [
        "▁cet",
        -6.896858579224383
      ],
      [
        "g",
        -6.903519129134666
      ],
      [
        "▁d'",
        -6.904234922293491
      ],
      [
        "▁c'est",
        -6.9107445759931565
      ],
      [
        "▁c",
        -6.915512758349059
      ],
      [
        "▁tout",
        -6.919817417167627
      ],
      [
        "-",
        -6.921123487199618
      ],
      [
        "▁avait",
        -6.932673637927975
      ],
      [
        "▁ku",
        -6.949020968710988
      ],
      [
        "▁kenn",
        -6.959716674775321
      ],
      [
        "▁nous",
        -6.959803561854228
      ],
      [
        "▁Ci",
        -6.9716051369693295
      ],
      [
        "▁t",
        -6.974445463588038
      ],
      [
        "▁d'un",
        -6.977812397487113
      ],
      [
        "▁mën",
        -6.980782655070594
      ],
      [
        "▁Ce",
        -6.997813169799267
      ],
      [
        "▁Les",
        -7.00155007847904
      ],
      [
        "▁gu",
        -7.0038230854010814
      ],
      [
        "es",
        -7.008444737169326
      ],
      [
        "▁góor",
        -7.011784645074414
      ],
      [
        "▁Le",
        -7.031833701358839
      ],
      [
        "▁photo",
        -7.0355816758613
      ],
      [
        "▁ou",
        -7.046375166640129
      ],
      [
        "▁autre",
        -7.047712451062218
      ],
      [
        "▁enfants",
        -7.047992382600693
      ],
      [
        "▁l'homme",
        -7.055459493704427
      ],
      [
        "oo",
        -7.060107636084777
      ],
      [
        "d",
        -7.070369981908412
      ],
      [
        "▁may",
        -7.079422791251966
      ],
      [
        "m",
        -7.0816262848748845
      ],
      [
        "▁ab",
        -7.086968565514741
      ],
      [
        "b",
        -7.087374826298303
      ],
      [
        "▁ces",
        -7.087820055153829
      ],
      [
        "▁fi",
        -7.099743675228488
      ],
      [
        "▁nataal",
        -7.101184638263958
      ],
      [
        "▁leur",
        -7.113975730110964
      ],
      [
        "ant",
        -7.123447770514903
      ],
      [
        "ñ",
        -7.128668674123857
      ],
      [
        "▁boo",
        -7.13454563607561
      ],
      [
        "ment",
        -7.136525374709028
      ],
      [
        "▁fu",
        -7.1382687220857255
      ],
      [
        "▁dal",
        -7.1439457971985085
      ],
      [
        "▁bëgg",
        -7.14682247446197
      ],
      [
        "▁san",
        -7.156976446298763
      ],
      [
        "▁comme",
        -7.159831678650436
      ],
      [
        "▁ju",
        -7.179341691566912
      ],
      [
        "▁it",
        -7.179380941934682
      ],
      [
        "que",
        -7.183798747008961
      ],
      [
        "▁me",
        -7.186464969236667
      ],
      [
        "▁rekk",
        -7.186781720011543
      ],
      [
        "▁mère",
        -7.2000984475460115
      ],
      [
        "▁Nit",
        -7.200968529251212
      ],
      [
        "▁bii",
        -7.220280358158704
      ],
      [
        "▁A",
        -7.221604457995848
      ],
      [
        "▁parti",
        -7.230612126233686
      ],
      [
        "▁dëkk",
        -7.233604347882119
      ],
      [
        "▁dara",
        -7.238004698856725
      ],
      [
        "▁daf",
        -7.240928977880608
      ],
      [
        "▁ji",
        -7.24479055775922
      ],
      [
        "▁s",
        -7.244841221968569
      ],
      [
        "▁on",
        -7.249271055517172
      ],
      [
        "▁moi",
        -7.252296249888539
      ],
      [
        "▁kër",
        -7.255857641562435
      ],
      [
        "▁aussi",
        -7.266139832777022
      ],
      [
        "▁maison",
        -7.266815392592782
      ],
      [
        "▁ñi",
        -7.274365574804029
      ],
      [
        "▁là",
        -7.285733499098554
      ],
      [
        "▁laa",
        -7.286349159539967
      ],
      [
        "▁même",
        -7.286837192083512
      ],
      [
        "▁gën",
        -7.297647975413858
      ],
      [
        "▁ki",
        -7.303476961663834
      ],
      [
        "▁n'es",
        -7.307007124128555
      ],
      [
        "▁xale",
        -7.308458737029827
      ],
      [
        "à",
        -7.310666468604238
      ],
      [
        "x",
        -7.317848117285722
      ],
      [
        "▁–",
        -7.322860697046745
      ],
      [
        "▁teg",
        -7.330615556927594
      ],
      [
        "▁lool",
        -7.332297914837817
      ],
      [
        "▁mbaa",
        -7.3335423277480905
      ],
      [
        "▁ndax",
        -7.339117761781266
      ],
      [
        "▁jigéen",
        -7.3479298801640685
      ],
      [
        "▁Su",
        -7.348160354522749
      ],
      [
        "▁pays",
        -7.3641755961731175
      ],
      [
        "▁était",
        -7.385949059933885
      ],
      [
        "▁Sur",
        -7.388254388699224
      ],
      [
        "▁ñaar",
        -7.401566909253595
      ],
      [
        "▁À",
        -7.407521001730649
      ],
      [
        "ette",
        -7.417317314103175
      ],
      [
        "▁Ma",
        -7.427072798125478
      ],
      [
        "di",
        -7.428112233254435
      ],
      [
        "▁Am",
        -7.4289968410102825
      ],
      [
        "▁lépp",
        -7.430947000448612
      ],
      [
        "▁war",
        -7.443240131113287
      ],
      [
        "s-tu",
        -7.443531924988771
      ],
      [
        "▁chose",
        -7.461390304421864
      ],
      [
        "▁walla",
        -7.463769289433184
      ],
      [
        "▁d",
        -7.464278798881208
      ],
      [
        "▁ñoo",
        -7.481090018521267
      ],
      [
        "eneen",
        -7.482127687633824
      ],
      [
        "▁Mu",
        -7.483955712980341
      ],
      [
        "▁man",
        -7.4908966692475385
      ],
      [
        "▁baax",
        -7.497379452503145
      ],
      [
        "▁Li",
        -7.49774049034457
      ],
      [
        "▁Nataal",
        -7.497906280443967
      ],
      [
        "ŋ",
        -7.512401192037061
      ],
      [
        "▁l'intérieur",
        -7.515475751569088
      ],
      [
        "▁Un",
        -7.516534620956025
      ],
      [
        "▁loolu",
        -7.522660035182705
      ],
      [
        "▁ŋgi",
        -7.526140971093636
      ],
      [
        "▁xar",
        -7.532136231685419
      ],
      [
        "▁Waaye",
        -7.533339910095965
      ],
      [
        "▁mag",
        -7.533905427110272
      ],
      [
        "▁parle",
        -7.545206386320257
      ],
      [
        "▁Te",
        -7.552211061969404
      ],
      [
        "▁De",
        -7.552541476738296
      ],
      [
        "▁aux",
        -7.568772780991745
      ],
      [
        "▁j'ai",
        -7.570040247067777
      ],
      [
        "▁fait",
        -7.572952700603723
      ],
      [
        "re",
        -7.574954352798683
      ],
      [
        "▁D",
        -7.57668473798779
      ],
      [
        "▁yoon",
        -7.5767078153506
      ],
      [
        "▁bien",
        -7.578155171993658
      ],
      [
        "▁garab",
        -7.5816664851067275
      ],
      [
        "▁yooyu",
        -7.589199933111651
      ],
      [
        "▁vois",
        -7.593450779500527
      ],
      [
        "▁yaay",
        -7.595310456243517
      ],
      [
        "▁toog",
        -7.5997090760723065
      ],
      [
        ")",
        -7.60032979605915
      ],
      [
        "▁cela",
        -7.608636350377671
      ],
      [
        "ée",
        -7.614143349004232
      ],
      [
        "▁dul",
        -7.624234778411556
      ],
      [
        "▁En",
        -7.6243807075756855
      ],
      [
        "rès",
        -7.628288216549219
      ],
      [
        "▁J",
        -7.628436788281773
      ],
      [
        "▁vie",
        -7.633813615851072
      ],
      [
        "s.",
        -7.635330739066785
      ],
      [
        "▁demee",
        -7.6372981963893904
      ],
      [
        "▁qu'on",
        -7.648514664095851
      ],
      [
        "▁dañ",
        -7.64867985085325
      ],
      [
        "▁guerre",
        -7.648744887471386
      ],
      [
        "▁sunu",
        -7.649057757125624
      ],
      [
        "▁mais",
        -7.652144747026298
      ],
      [
        "▁ka",
        -7.664608237589642
      ],
      [
        "▁koo",
        -7.666802966038105
      ],
      [
        "▁néeg",
        -7.668516667181415
      ],
      [
        "▁Mais",
        -7.668817447692881
      ],
      [
        "▁yépp",
        -7.669293715323736
      ],
      [
        "▁ñoom",
        -7.669795197560542
      ],
      [
        "▁réew",
        -7.674599118398286
      ],
      [
        "▁yiy",
        -7.675915702532337
      ],
      [
        "▁bés",
        -7.681311784538023
      ],
      [
        "▁temps",
        -7.688892590944754
      ],
      [
        "▁vous",
        -7.688970744649987
      ],
      [
        "▁monde",
        -7.68959457932487
      ],
      [
        "▁Maa",
        -7.693400789758581
      ],
      [
        "it",
        -7.6964282551771435
      ],
      [
        "ci",
        -7.700672544447778
      ],
      [
        "▁gone",
        -7.701294911250985
      ],
      [
        "▁ag",
        -7.701399015238827
      ],
      [
        "▁yi.",
        -7.703787676489543
      ],
      [
        "▁l",
        -7.706770455791496
      ],
      [
        "▁ont",
        -7.7091786798386615
      ],
      [
        "▁Ogosaa",
        -7.710231739569729
      ],
      [
        "▁celui-là",
        -7.7103474073436615
      ],
      [
        "tte",
        -7.714467922453325
      ],
      [
        "▁n",
        -7.715095081707736
      ],
      [
        "▁lañu",
        -7.720547108748981
      ],
      [
        "▁jusqu'",
        -7.72064185922755
      ],
      [
        "▁tax",
        -7.721315688918731
      ],
      [
        "▁Cet",
        -7.731048826853927
      ],
      [
        "▁weex",
        -7.731944364205956
      ],
      [
        "▁venu",
        -7.733342205211502
      ],
      [
        "'est",
        -7.735626674703962
      ],
      [
        "aient",
        -7.7385992728754225
      ],
      [
        "▁part",
        -7.749000767173739
      ],
      [
        "leurs",
        -7.74939189879851
      ],
      [
        "▁Du",
        -7.751005173816978
      ],
      [
        "▁at",
        -7.7527471621406265
      ],
      [
        "▁xel",
        -7.752757704331259
      ],
      [
        "▁couleur",
        -7.753688214350127
      ],
      [
        ";",
        -7.754193091413937
      ],
      [
        "▁G",
        -7.756191511284964
      ],
      [
        "▁femme",
        -7.75831251156658
      ],
      [
        "▁partir",
        -7.762990972907138
      ],
      [
        "▁fekk",
        -7.765702056084136
      ],
      [
        "▁soo",
        -7.772085922510659
      ],
      [
        "▁n'a",
        -7.776542633139178
      ],
      [
        "▁suuf",
        -7.776981070606353
      ],
      [
        "▁P",
        -7.778189322369085
      ],
      [
        "▁dit",
        -7.77832779697699
      ],
      [
        "▁L",
        -7.781883906900245
      ],
      [
        "▁va",
        -7.7852209240967785
      ],
      [
        "▁maa",
        -7.790986270044438
      ],
      [
        "▁ndaw",
        -7.800297737023021
      ],
      [
        "▁Tugal",
        -7.8002988533989805
      ],
      [
        "▁cha",
        -7.801321350421799
      ],
      [
        "▁k",
        -7.802491915079035
      ],
      [
        "▁as",
        -7.8044886204324655
      ],
      [
        "▁S",
        -7.807043588125543
      ],
      [
        "▁Dem",
        -7.807499302167651
      ],
      [
        "▁tou",
        -7.808014615008743
      ],
      [
        "▁doŋŋ",
        -7.824017083013636
      ],
      [
        "▁quelque",
        -7.824336066868287
      ],
      [
        "▁wër",
        -7.824417281339489
      ],
      [
        "▁yaram",
        -7.824652142441164
      ],
      [
        "▁mouton",
        -7.825015941669378
      ],
      [
        "o",
        -7.826029624252273
      ],
      [
        "▁àll",
        -7.8333690587972855
      ],
      [
        "▁ga",
        -7.83444137609745
      ],
      [
        "▁bopp",
        -7.839334764207206
      ],
      [
        "woon",
        -7.841139534502675
      ],
      [
        "▁Ñu",
        -7.844034922918018
      ],
      [
        "▁ànd",
        -7.844306201457041
      ],
      [
        "▁la.",
        -7.847477967560158
      ],
      [
        "▁tamit",
        -7.848439541350039
      ],
      [
        "▁doole",
        -7.848690182059521
      ],
      [
        "▁porte",
        -7.853579989108374
      ],
      [
        "▁tey",
        -7.857591139579723
      ],
      [
        "▁O",
        -7.85862524567721
      ],
      [
        "▁deux",
        -7.859497246739172
      ],
      [
        "w",
        -7.863780388435681
      ],
      [
        "▁yëg",
        -7.864055217498208
      ],
      [
        "▁toi",
        -7.86930333757398
      ],
      [
        "▁naan",
        -7.869953040882119
      ],
      [
        "▁gens",
        -7.873390369100334
      ],
      [
        "▁boobu",
        -7.8736687849193805
      ],
      [
        "▁noppi",
        -7.8747070730440125
      ],
      [
        "▁(",
        -7.8757077813455085
      ],
      [
        "▁réer",
        -7.878549062983175
      ],
      [
        "▁saa",
        -7.881556625019106
      ],
      [
        "▁être",
        -7.883634256672254
      ],
      [
        "is",
        -7.884905571586497
      ],
      [
        "▁n'",
        -7.885793943740962
      ],
      [
        "▁demul",
        -7.896937060455075
      ],
      [
        "▁Waaw",
        -7.897759352126574
      ],
      [
        "▁voilà",
        -7.899034464557851
      ],
      [
        "▁encore",
        -7.899042654061748
      ],
      [
        "▁veux",
        -7.8994494794976475
      ],
      [
        "▁amul",
        -7.906895506298646
      ],
      [
        "▁waay",
        -7.909352872206087
      ],
      [
        "▁jëm",
        -7.912840544762707
      ],
      [
        "eek",
        -7.914815993374299
      ],
      [
        "és",
        -7.918453727161051
      ],
      [
        "yeek",
        -7.918504598749843
      ],
      [
        "...",
        -7.924875915797472
      ],
      [
        "▁jamono",
        -7.925332784687489
      ],
      [
        "▁ñax",
        -7.928708951672545
      ],
      [
        "▁wi",
        -7.933283803440431
      ],
      [
        "▁Quel",
        -7.9425751379916525
      ],
      [
        "▁lii",
        -7.945681174315606
      ],
      [
        "▁nañ",
        -7.950380783161331
      ],
      [
        "▁rafet",
        -7.950642038132451
      ],
      [
        "▁qu'elle",
        -7.952538772756199
      ],
      [
        "▁dont",
        -7.953516568265552
      ],
      [
        "▁Nou",
        -7.953894280071518
      ],
      [
        "vait",
        -7.9582337049698015
      ],
      [
        "▁p",
        -7.958533761244819
      ],
      [
        "▁Moo",
        -7.959338042661349
      ],
      [
        "▁Si",
        -7.9605618461078596
      ],
      [
        "▁ñuul",
        -7.965034617733149
      ],
      [
        "▁kow",
        -7.973745759174606
      ],
      [
        "▁Comme",
        -7.977190924587639
      ],
      [
        "▁liggéey",
        -7.977486004775886
      ],
      [
        "um",
        -7.9775694204677965
      ],
      [
        "tre",
        -7.979695110568294
      ],
      [
        "ù",
        -7.9796980252189424
      ],
      [
        "▁xare",
        -7.98087516947781
      ],
      [
        "▁peu",
        -7.9821336055249565
      ],
      [
        "▁nañu",
        -7.988999649385633
      ],
      [
        "▁dañu",
        -7.989298516887183
      ],
      [
        "▁àddina",
        -8.003823917216748
      ],
      [
        "▁l'autre",
        -8.008746784125046
      ],
      [
        "▁génn",
        -8.008988588113462
      ],
      [
        "▁Mon",
        -8.009030711075622
      ],
      [
        "▁Ndax",
        -8.009252998161747
      ],
      [
        "▁faire",
        -8.009437186258829
      ],
      [
        "tu",
        -8.015327031043512
      ],
      [
        "ions",
        -8.016393666500232
      ],
      [
        "kat",
        -8.017687734371195
      ],
      [
        "▁ban",
        -8.017973859101556
      ],
      [
        "▁loxo",
        -8.021084350557594
      ],
      [
        "▁m'a",
        -8.02191189007328
      ],
      [
        "eux",
        -8.029035229483576
      ],
      [
        "▁m",
        -8.03098332227989
      ],
      [
        "▁ñépp",
        -8.03827377592006
      ],
      [
        "▁rien",
        -8.039622986462584
      ],
      [
        "▁ŋgeen",
        -8.039808613583109
      ],
      [
        "▁daal",
        -8.040825160579296
      ],
      [
        "▁sous",
        -8.040836605837688
      ],
      [
        "▁mes",
        -8.042154812841591
      ],
      [
        "▁sui",
        -8.044700251748427
      ],
      [
        "▁dex",
        -8.045883140582852
      ],
      [
        "ante",
        -8.047457291625562
      ],
      [
        "▁l'a",
        -8.055589489103411
      ],
      [
        "▁Ba",
        -8.055861001361984
      ],
      [
        "▁xarit",
        -8.066921105831714
      ],
      [
        "▁jamais",
        -8.068436496220748
      ],
      [
        "▁doute",
        -8.068527278713246
      ],
      [
        "▁Xam",
        -8.07063849174409
      ],
      [
        "épp",
        -8.071480206942152
      ],
      [
        "▁itam",
        -8.072509457224534
      ],
      [
        "▁bët",
        -8.07443660543649
      ],
      [
        "▁neex",
        -8.080835070300294
      ],
      [
        "▁elle",
        -8.081573625282267
      ],
      [
        "ses",
        -8.08767742706837
      ],
      [
        "▁jot",
        -8.088778107229238
      ],
      [
        "▁jóge",
        -8.091677982917759
      ],
      [
        "▁corps",
        -8.099931419398192
      ],
      [
        "quelle",
        -8.104184594817013
      ],
      [
        "▁dégg",
        -8.105038851117333
      ],
      [
        "▁j'",
        -8.10803371670613
      ],
      [
        "▁semble",
        -8.109306978072258
      ],
      [
        "▁jour",
        -8.109433193017768
      ],
      [
        "on",
        -8.116002421451896
      ],
      [
        "▁waa",
        -8.118687309822889
      ],
      [
        "▁femmes",
        -8.126375294378605
      ],
      [
        "▁mbir",
        -8.130109695255708
      ],
      [
        "▁ja",
        -8.130888936129498
      ],
      [
        "▁léeg-léeg",
        -8.131931853825836
      ],
      [
        "▁Kamerun",
        -8.131931854194304
      ],
      [
        "▁c'étai",
        -8.131932030355769
      ],
      [
        "▁Tubaab",
        -8.133117644074142
      ],
      [
        "▁terre",
        -8.135794975964199
      ],
      [
        "ak",
        -8.135912916564468
      ],
      [
        "ation",
        -8.138820498479943
      ],
      [
        "▁yaa",
        -8.139834414286172
      ],
      [
        "▁peut",
        -8.14273139440738
      ],
      [
        "ma",
        -8.148480350722446
      ],
      [
        "▁wu",
        -8.150679423109974
      ],
      [
        "▁B",
        -8.151855949223524
      ],
      [
        "▁dugg",
        -8.157332263760935
      ],
      [
        "ce",
        -8.165256717421139
      ],
      [
        "▁loin",
        -8.165262616511555
      ],
      [
        "▁foofu",
        -8.16541682115343
      ],
      [
        "▁fois",
        -8.166265413729601
      ],
      [
        "▁lañ",
        -8.166328258510081
      ],
      [
        "▁noonu",
        -8.167139726695778
      ],
      [
        "▁Lu",
        -8.172237755193164
      ],
      [
        "uñu",
        -8.176085934871907
      ],
      [
        "▁sol",
        -8.182476447865302
      ],
      [
        "▁f",
        -8.186061118424497
      ],
      [
        "▁Xar",
        -8.192395813944925
      ],
      [
        "▁Fa",
        -8.192407201801029
      ],
      [
        "▁sorte",
        -8.198936798047837
      ],
      [
        "▁étai",
        -8.201646711756972
      ],
      [
        "▁bari",
        -8.202174457448278
      ],
      [
        "▁Et",
        -8.203134565943232
      ],
      [
        "▁d'autres",
        -8.203888159846882
      ],
      [
        "▁Ku",
        -8.20592720282676
      ],
      [
        "▁jaar",
        -8.208016803094166
      ],
      [
        "▁bare",
        -8.21488458703296
      ],
      [
        "▁quan",
        -8.215275628244122
      ],
      [
        "▁daa",
        -8.226453395735444
      ],
      [
        "▁re",
        -8.231107852390682
      ],
      [
        "f",
        -8.232702379550764
      ],
      [
        "▁taxaw",
        -8.232807519135235
      ],
      [
        "▁dee",
        -8.233714427827604
      ],
      [
        "▁peut-être",
        -8.236103309631368
      ],
      [
        "▁yeneen",
        -8.236156131523677
      ],
      [
        "▁daw",
        -8.236379003522723
      ],
      [
        "▁boppam",
        -8.237656219099497
      ],
      [
        "▁Daf",
        -8.237840965407909
      ],
      [
        "▁crois",
        -8.238955077897128
      ],
      [
        "▁non",
        -8.23927807927349
      ],
      [
        "▁N",
        -8.242435149098052
      ],
      [
        "▁arbres",
        -8.242532699914253
      ],
      [
        "▁Bu",
        -8.24644047586728
      ],
      [
        "▁voir",
        -8.247088039241593
      ],
      [
        "en",
        -8.252718350605644
      ],
      [
        "▁jël",
        -8.26372291720775
      ],
      [
        "▁mer",
        -8.266834781769258
      ],
      [
        "▁l'Afrique",
        -8.272499268528144
      ],
      [
        "▁veut",
        -8.272519581592267
      ],
      [
        "▁Loolu",
        -8.2725796220263
      ],
      [
        "▁bois",
        -8.27264873722116
      ],
      [
        "▁Sée",
        -8.273577744913009
      ],
      [
        "▁années",
        -8.274073785254519
      ],
      [
        "▁ňu",
        -8.274227815754832
      ],
      [
        "▁entre",
        -8.276220860744434
      ],
      [
        "▁in",
        -8.285725975298213
      ],
      [
        "▁chambre",
        -8.288609506927731
      ],
      [
        "▁fii",
        -8.290262186053633
      ],
      [
        "▁personne",
        -8.292432482402308
      ],
      [
        "▁dund",
        -8.294205516276644
      ],
      [
        "▁nee",
        -8.295812004802128
      ],
      [
        "▁gii",
        -8.295904875381233
      ],
      [
        "kki",
        -8.301308099488985
      ],
      [
        "▁mas",
        -8.302279687749728
      ],
      [
        "e.",
        -8.306450714713634
      ],
      [
        "ukaay",
        -8.307776805444174
      ],
      [
        "c",
        -8.307850994999699
      ],
      [
        "▁après",
        -8.310913963870515
      ],
      [
        "▁Qui",
        -8.31096080698974
      ],
      [
        "▁Ogoja",
        -8.31096080701187
      ],
      [
        "▁là-bas",
        -8.31096080822431
      ],
      [
        "▁Afrique",
        -8.310960812265396
      ],
      [
        "▁forêt",
        -8.310961750407756
      ],
      [
        "▁xonq",
        -8.310967218535476
      ],
      [
        "▁dëgg",
        -8.311233446392473
      ],
      [
        "▁waaw",
        -8.312716690534065
      ],
      [
        "▁Ni",
        -8.313700482872125
      ],
      [
        "▁avant",
        -8.314837890727215
      ],
      [
        "et",
        -8.31547052777846
      ],
      [
        "▁Tout",
        -8.316344438847839
      ],
      [
        "▁bañ",
        -8.322080155994954
      ],
      [
        "iers",
        -8.325926641564699
      ],
      [
        "▁travers",
        -8.329555034976568
      ],
      [
        "▁route",
        -8.332715352942339
      ],
      [
        "▁nuit",
        -8.334941250297723
      ],
      [
        "▁solo",
        -8.339991997055337
      ],
      [
        "▁dox",
        -8.342270830583496
      ],
      [
        "▁moutons",
        -8.349218329017077
      ],
      [
        "▁ginnaaw",
        -8.349950763006161
      ],
      [
        "▁kooku",
        -8.350414426815023
      ],
      [
        "▁daanaka",
        -8.351257000754009
      ],
      [
        "▁jooju",
        -8.351587069632052
      ],
      [
        "▁Man",
        -8.35169399869443
      ],
      [
        "▁xaw",
        -8.355124250398186
      ],
      [
        "▁devant",
        -8.358497852012354
      ],
      [
        "▁bunt",
        -8.360914916639327
      ],
      [
        "▁E",
        -8.364264779013281
      ],
      [
        "▁da",
        -8.364922298132587
      ],
      [
        "▁amis",
        -8.366703447542381
      ],
      [
        "▁Lii",
        -8.367450380402627
      ],
      [
        "ez",
        -8.369793601375514
      ],
      [
        "▁case",
        -8.374524677306928
      ],
      [
        "▁haut",
        -8.378372223653612
      ],
      [
        "▁médecin",
        -8.379404766746571
      ],
      [
        "▁Soo",
        -8.382685256619398
      ],
      [
        "▁F",
        -8.384667156862053
      ],
      [
        "ont",
        -8.38800989105632
      ],
      [
        "-là",
        -8.388313461390732
      ],
      [
        "▁celui",
        -8.39228585738177
      ],
      [
        "▁Cameroun",
        -8.39263923055282
      ],
      [
        "▁fàww",
        -8.39267578727961
      ],
      [
        "▁ceux-là",
        -8.392809421463582
      ],
      [
        "▁matin",
        -8.39287652285197
      ],
      [
        "▁Sama",
        -8.39349676122861
      ],
      [
        "▁vers",
        -8.394052371023076
      ],
      [
        "▁Xale",
        -8.399232857927
      ],
      [
        "▁pouvait",
        -8.40131807207666
      ],
      [
        "▁nuy",
        -8.403074598144919
      ],
      [
        "▁lan",
        -8.40475551945079
      ],
      [
        "ées",
        -8.405742654644328
      ],
      [
        "▁ans",
        -8.405932536899039
      ],
      [
        "▁nii",
        -8.409975545221267
      ],
      [
        "▁Bi",
        -8.421791292088422
      ],
      [
        "ale",
        -8.422336339780808
      ],
      [
        "▁Dan",
        -8.42249047632706
      ],
      [
        "▁s'",
        -8.425191470483707
      ],
      [
        "▁tànk",
        -8.426674285091401
      ],
      [
        "▁M",
        -8.43252482962826
      ],
      [
        "quoi",
        -8.433526280472911
      ],
      [
        "eurs",
        -8.43422640870893
      ],
      [
        "▁Ca",
        -8.434910380639852
      ],
      [
        "▁kaw",
        -8.435606353051213
      ],
      [
        "ux",
        -8.435893901095804
      ],
      [
        "▁Vous",
        -8.436111924257716
      ],
      [
        "▁beaucoup",
        -8.436118268016726
      ],
      [
        "ook",
        -8.436550935393182
      ],
      [
        "▁qu'",
        -8.439660413735867
      ],
      [
        "▁kan",
        -8.439883677412617
      ],
      [
        "▁wàn",
        -8.440124397075675
      ],
      [
        "▁Na",
        -8.444599467115863
      ],
      [
        "vaient",
        -8.448149908387695
      ],
      [
        "▁metti",
        -8.449074747790025
      ],
      [
        "▁day",
        -8.451642024127072
      ],
      [
        "▁quelle",
        -8.453905267985103
      ],
      [
        "▁Y",
        -8.45942586312221
      ],
      [
        "▁vo",
        -8.461226666256085
      ],
      [
        "▁fàttaliku",
        -8.46130635380344
      ],
      [
        "ata",
        -8.464145595617426
      ],
      [
        "uma",
        -8.467887193161893
      ],
      [
        "▁Sa",
        -8.469727392465655
      ],
      [
        "▁autres",
        -8.470329308223462
      ],
      [
        "▁tudd",
        -8.472324790554987
      ],
      [
        "▁fas",
        -8.478975680271068
      ],
      [
        "▁Que",
        -8.479697596235114
      ],
      [
        "▁lal",
        -8.479893850547704
      ],
      [
        "▁g",
        -8.481444544032188
      ],
      [
        "▁topp",
        -8.481524180915137
      ],
      [
        "▁C'étai",
        -8.481560325037846
      ],
      [
        "▁France",
        -8.481565945253518
      ],
      [
        "▁yaakaar",
        -8.481567580958528
      ],
      [
        "▁blanche",
        -8.481599825792838
      ],
      [
        "▁Naka",
        -8.481601909495295
      ],
      [
        "▁aucun",
        -8.482426532112825
      ],
      [
        "▁aujourd'hui",
        -8.483217168166433
      ],
      [
        "▁bout",
        -8.48440933002422
      ],
      [
        "▁gaal",
        -8.486149600591466
      ],
      [
        "▁xamul",
        -8.493159318250616
      ],
      [
        "autour",
        -8.493969534833262
      ],
      [
        "▁es",
        -8.494741271436213
      ],
      [
        "▁jàpp",
        -8.496246753295077
      ],
      [
        "h",
        -8.498951575026709
      ],
      [
        "j",
        -8.50187711240292
      ],
      [
        "▁puis",
        -8.504174870158987
      ],
      [
        "enn",
        -8.509119524209911
      ],
      [
        "aan",
        -8.509563490243794
      ],
      [
        "▁xol",
        -8.510815933765972
      ],
      [
        "▁regard",
        -8.51479118052797
      ],
      [
        "▁wet",
        -8.515923442905542
      ],
      [
        "▁leer",
        -8.516219666233836
      ],
      [
        "▁passé",
        -8.522278190606777
      ],
      [
        "▁say",
        -8.523384787141136
      ],
      [
        "▁Mi",
        -8.524008458771286
      ],
      [
        "▁Wànte",
        -8.52917937714634
      ],
      [
        "▁soleil",
        -8.529184353379573
      ],
      [
        "▁xalaat",
        -8.529263256513108
      ],
      [
        "▁Pour",
        -8.529563603873807
      ],
      [
        "▁yàgg",
        -8.529812534388634
      ],
      [
        "▁soit",
        -8.531352837903757
      ],
      [
        "▁donné",
        -8.53157558916377
      ],
      [
        "▁dóor",
        -8.532266210506673
      ],
      [
        "▁Waa",
        -8.532612103117668
      ],
      [
        "ne",
        -8.533859106635102
      ],
      [
        "ek",
        -8.535955229433702
      ],
      [
        "▁For",
        -8.538848833489212
      ],
      [
        "aat",
        -8.539463820913046
      ],
      [
        "▁hommes",
        -8.54245233523664
      ],
      [
        "▁So",
        -8.54309809954209
      ],
      [
        "ug",
        -8.547616641141882
      ],
      [
        "-il",
        -8.549785396036981
      ],
      [
        "▁n'étai",
        -8.54989625156955
      ],
      [
        "▁dana",
        -8.552360322813445
      ],
      [
        "▁Au",
        -8.553555393850727
      ],
      [
        "▁pu",
        -8.554610472117025
      ],
      [
        "koon",
        -8.557237497781948
      ],
      [
        "▁village",
        -8.559012495367838
      ],
      [
        "▁blanc",
        -8.55990548779287
      ],
      [
        "▁seul",
        -8.560745598149971
      ],
      [
        "▁fan",
        -8.563388896412098
      ],
      [
        "▁yoo",
        -8.566833834888053
      ],
      [
        "▁Ay",
        -8.56744963398117
      ],
      [
        "avoir",
        -8.570757861204626
      ],
      [
        "▁ëpp",
        -8.571429858243594
      ],
      [
        "▁Ken",
        -8.576273764526762
      ],
      [
        "▁fin",
        -8.577435231855022
      ],
      [
        "kk",
        -8.578115242773638
      ],
      [
        "ir",
        -8.578146317474042
      ],
      [
        "igéen",
        -8.579024192946939
      ],
      [
        "▁Quan",
        -8.579179327601699
      ],
      [
        "▁Móris",
        -8.579179327777542
      ],
      [
        "▁contre",
        -8.579528191166785
      ],
      [
        "▁Niseryaa",
        -8.57983098831371
      ],
      [
        "▁voit",
        -8.58009160157222
      ],
      [
        "▁Elle",
        -8.580172394512655
      ],
      [
        "▁bord",
        -8.580330377337068
      ],
      [
        "▁weer",
        -8.580644522306052
      ],
      [
        "▁Seet",
        -8.581388116878497
      ],
      [
        "▁lequel",
        -8.581438532689713
      ],
      [
        "▁réy",
        -8.581915679931257
      ],
      [
        "▁jeex",
        -8.582429013365068
      ],
      [
        "▁Oui",
        -8.582550544246295
      ],
      [
        "▁jaay",
        -8.58386151662353
      ],
      [
        "▁guddi",
        -8.584552308121397
      ],
      [
        "▁murs",
        -8.585264960640117
      ],
      [
        "▁enfant",
        -8.586372668742381
      ],
      [
        "té",
        -8.593121829812494
      ],
      [
        "il",
        -8.601802450264923
      ],
      [
        "▁ñàkk",
        -8.608401064654625
      ],
      [
        "wul",
        -8.609194472857672
      ],
      [
        "▁seet",
        -8.61738227497021
      ],
      [
        "▁gaa",
        -8.619783929340402
      ],
      [
        "▁bokk",
        -8.624335357263618
      ],
      [
        "▁ai",
        -8.62743406075266
      ],
      [
        "▁Bëgg",
        -8.628588112575311
      ],
      [
        "▁passe",
        -8.629985882090642
      ],
      [
        "▁souviens",
        -8.631810906649058
      ],
      [
        "▁grand-mère",
        -8.631810924380428
      ],
      [
        "▁milieu",
        -8.631810942459643
      ],
      [
        "▁doom-aadama",
        -8.631822889746445
      ],
      [
        "▁Nigeria",
        -8.63182330481439
      ],
      [
        "▁question",
        -8.631845011253631
      ],
      [
        "▁gàtt",
        -8.63184786522
      ],
      [
        "▁quelqu'un",
        -8.631856248977062
      ],
      [
        "▁verre",
        -8.632004868550231
      ],
      [
        "▁tali",
        -8.632007640379625
      ],
      [
        "▁dellu",
        -8.632114967592752
      ],
      [
        "▁wéy",
        -8.632133980067508
      ],
      [
        "▁Bansoo",
        -8.632210858198608
      ],
      [
        "▁Keneen",
        -8.632342598296706
      ],
      [
        "▁seulement",
        -8.632398928653515
      ],
      [
        "▁beneen",
        -8.632406924788683
      ],
      [
        "▁Yaa",
        -8.63365416889235
      ],
      [
        "▁côté",
        -8.633830861372005
      ],
      [
        "▁door",
        -8.635813819701163
      ],
      [
        "▁ceux",
        -8.636382323753196
      ],
      [
        "▁On",
        -8.63706310865177
      ],
      [
        "▁yee",
        -8.637534190234351
      ],
      [
        "▁bon",
        -8.638100080617674
      ],
      [
        "▁n'avai",
        -8.638484621678813
      ],
      [
        "▁ici",
        -8.639424514231289
      ],
      [
        "▁W",
        -8.643576243713808
      ],
      [
        "▁lion",
        -8.64379963234709
      ],
      [
        "▁ndox",
        -8.647502912456915
      ],
      [
        "loo",
        -8.650196854910497
      ],
      [
        "▁Wax",
        -8.650502721032595
      ],
      [
        "▁maam",
        -8.66339993438225
      ],
      [
        "▁vrai",
        -8.66405220010027
      ],
      [
        "▁ville",
        -8.664130381009263
      ],
      [
        "▁dé",
        -8.668027849320186
      ],
      [
        "▁rivière",
        -8.668555589909456
      ],
      [
        "lu",
        -8.670443010682858
      ],
      [
        "▁voyage",
        -8.670634119499416
      ],
      [
        "▁jox",
        -8.67527263824328
      ],
      [
        "▁faj",
        -8.676137000937985
      ],
      [
        "▁eux",
        -8.681722816784063
      ],
      [
        "▁dina",
        -8.681893695834729
      ],
      [
        "▁faa",
        -8.683816046015142
      ],
      [
        "▁reste",
        -8.685834370662588
      ],
      [
        "▁quel",
        -8.686266351878476
      ],
      [
        "▁eu",
        -8.687337058854421
      ],
      [
        "▁S'il",
        -8.687366519419077
      ],
      [
        "▁Laobe",
        -8.687366588936584
      ],
      [
        "▁njëkk",
        -8.687366899376396
      ],
      [
        "▁Samba",
        -8.687397450890149
      ],
      [
        "▁cheval",
        -8.687417418671984
      ],
      [
        "béré",
        -8.687490328610219
      ],
      [
        "▁nettali",
        -8.687618376468427
      ],
      [
        "▁ña",
        -8.687658180321984
      ],
      [
        "▁l'eau",
        -8.687676907104166
      ],
      [
        "▁téere",
        -8.687838718938341
      ],
      [
        "▁fourmis",
        -8.689103791144099
      ],
      [
        "▁soir",
        -8.689398207514916
      ],
      [
        "▁bind",
        -8.690187895803541
      ],
      [
        "▁mot",
        -8.690322090470843
      ],
      [
        "▁vache",
        -8.691348879457035
      ],
      [
        "▁gee",
        -8.69248105742286
      ],
      [
        "'exil",
        -8.697017549323444
      ],
      [
        "▁baay",
        -8.700053055360389
      ],
      [
        "in",
        -8.700768963192308
      ],
      [
        "▁n'ai",
        -8.70465643853814
      ],
      [
        "▁tel",
        -8.707003127290378
      ],
      [
        "▁bay",
        -8.711098606352566
      ],
      [
        "▁égaré",
        -8.71202908991473
      ],
      [
        "▁jiit",
        -8.715681034865975
      ],
      [
        "▁kii",
        -8.71625087521696
      ],
      [
        "▁dëkki",
        -8.71727198274893
      ],
      [
        "▁Ben",
        -8.71873387565718
      ],
      [
        "\"",
        -8.722157459039398
      ],
      [
        "geen",
        -8.723736662721496
      ],
      [
        "▁moment",
        -8.725255160728967
      ],
      [
        "▁lanu",
        -8.730144918249003
      ],
      [
        "▁toute",
        -8.732997879590105
      ],
      [
        "▁mal",
        -8.734258582088318
      ],
      [
        "▁Di",
        -8.73643960180236
      ],
      [
        "nu",
        -8.737060434381094
      ],
      [
        "▁grande",
        -8.737130402356081
      ],
      [
        "▁aw",
        -8.739580550389846
      ],
      [
        "▁C",
        -8.741287280030834
      ],
      [
        "▁aperç",
        -8.741357467312572
      ],
      [
        "▁Banso",
        -8.745742224832135
      ],
      [
        "▁bàyyi",
        -8.745771228295146
      ],
      [
        "▁Àngalteer",
        -8.746189991520426
      ],
      [
        "▁Alors",
        -8.746190101742155
      ],
      [
        "▁tàmbal",
        -8.746192374495063
      ],
      [
        "▁gunóor",
        -8.746212019166515
      ],
      [
        "▁Àngale",
        -8.746245735193689
      ],
      [
        "▁peau",
        -8.746280583219342
      ],
      [
        "▁au-dessus",
        -8.746375039206882
      ],
      [
        "▁plaine",
        -8.747383853133648
      ],
      [
        "▁manière",
        -8.747724614888703
      ],
      [
        "▁yaatu",
        -8.748051166658808
      ],
      [
        "▁doomu",
        -8.749611693581352
      ],
      [
        "em",
        -8.74968592829089
      ],
      [
        "▁lay",
        -8.750144643191176
      ],
      [
        "▁dama",
        -8.75142759023614
      ],
      [
        "▁près",
        -8.754091874360487
      ],
      [
        "▁lit",
        -8.755032665404872
      ],
      [
        "▁mujje",
        -8.75574671583593
      ],
      [
        "▁toit",
        -8.756413054605941
      ],
      [
        "▁miir",
        -8.757068479852233
      ],
      [
        "▁aller",
        -8.76034417513499
      ],
      [
        "▁wut",
        -8.763750046729207
      ],
      [
        "▁nun",
        -8.772108874464116
      ],
      [
        "▁poisson",
        -8.77220734808592
      ],
      [
        "▁l'ai",
        -8.773498608853922
      ],
      [
        "▁aurait",
        -8.775443826433985
      ],
      [
        "▁personnes",
        -8.775974201862773
      ],
      [
        "-na",
        -8.776029067076509
      ],
      [
        "▁amoon",
        -8.77614117266839
      ],
      [
        "▁fo",
        -8.776880352227806
      ],
      [
        "tôt",
        -8.777602051416626
      ],
      [
        "▁long",
        -8.778065878471487
      ],
      [
        "▁so",
        -8.778839180814963
      ],
      [
        "ng",
        -8.78350777185731
      ],
      [
        "▁grand",
        -8.783514982801883
      ],
      [
        "être",
        -8.788383720477132
      ],
      [
        "▁plu",
        -8.788419882775761
      ],
      [
        "▁j",
        -8.7912103044433
      ],
      [
        "▁Ra",
        -8.79193054238145
      ],
      [
        "ub",
        -8.793472526671692
      ],
      [
        "▁dire",
        -8.793630293930715
      ],
      [
        "▁lorsqu",
        -8.796615185385473
      ],
      [
        "▁waaj",
        -8.798482732348742
      ],
      [
        "▁ressemble",
        -8.80598645689823
      ],
      [
        "▁mii",
        -8.806171262936601
      ],
      [
        "▁no",
        -8.80665671535997
      ],
      [
        "▁way-jur",
        -8.80703211625567
      ],
      [
        "▁Kooku",
        -8.808309562071422
      ],
      [
        "àddaay",
        -8.808497633949631
      ],
      [
        "▁séen",
        -8.808726936626702
      ],
      [
        "▁l'Ouest",
        -8.808741528164852
      ],
      [
        "▁assis",
        -8.808742950096038
      ],
      [
        "▁moroom",
        -8.808790301616824
      ],
      [
        "▁xeet",
        -8.808790861598492
      ],
      [
        "▁dunyaa",
        -8.80883993091227
      ],
      [
        "▁posé",
        -8.80889188975928
      ],
      [
        "▁seetlu",
        -8.808936838616486
      ],
      [
        "▁Cela",
        -8.80946849275224
      ],
      [
        "▁tuuti",
        -8.809478208512978
      ],
      [
        "▁Kon",
        -8.809658960427944
      ],
      [
        "▁leneen",
        -8.811741922794663
      ],
      [
        "▁demkoon",
        -8.813036158370359
      ],
      [
        "▁montre",
        -8.814013353945214
      ],
      [
        "▁moomu",
        -8.815820665619885
      ],
      [
        "▁yeux",
        -8.815993865999982
      ],
      [
        "▁laaj",
        -8.816139652968356
      ],
      [
        "▁montagnes",
        -8.818578901364287
      ],
      [
        "▁bant",
        -8.82238513226098
      ],
      [
        "▁tudde",
        -8.822656222243632
      ],
      [
        "▁\"",
        -8.822918171568242
      ],
      [
        "▁regarde",
        -8.82378970772932
      ],
      [
        "▁mains",
        -8.825035259192852
      ],
      [
        "▁noir",
        -8.826323876524269
      ],
      [
        "▁parler",
        -8.826890663413494
      ],
      [
        "▁nos",
        -8.828122509534474
      ],
      [
        "▁fut",
        -8.828932772049912
      ],
      [
        "ngir",
        -8.829495596357352
      ],
      [
        "▁Bamenda",
        -8.832258457728264
      ],
      [
        "▁ami",
        -8.833396560425644
      ],
      [
        "age",
        -8.838283541703227
      ],
      [
        "▁Fu",
        -8.841209346650896
      ],
      [
        "ra",
        -8.844656930695063
      ],
      [
        "armée",
        -8.845455240476282
      ],
      [
        "▁jours",
        -8.849198404541685
      ],
      [
        "-ci",
        -8.849203681601026
      ],
      [
        "▁won",
        -8.85161933181683
      ],
      [
        "▁defar",
        -8.8531291378705
      ],
      [
        "▁rouge",
        -8.855638378398716
      ],
      [
        "leen",
        -8.855971990706102
      ],
      [
        "▁Va",
        -8.856869351786386
      ],
      [
        "▁L'",
        -8.857497050853844
      ],
      [
        "▁ko.",
        -8.859800860500288
      ],
      [
        "▁port",
        -8.859999231524048
      ],
      [
        "ine",
        -8.860450114189387
      ],
      [
        "▁doom",
        -8.861454866906943
      ],
      [
        "▁fond",
        -8.865177965034167
      ],
      [
        "ur",
        -8.867248097692734
      ],
      [
        "ère",
        -8.868056385342028
      ],
      [
        "?",
        -8.868746598710285
      ],
      [
        "▁parte",
        -8.870341101776516
      ],
      [
        "faral",
        -8.872864027076194
      ],
      [
        "▁lieu",
        -8.874909716971192
      ],
      [
        "▁yónne",
        -8.875356659029588
      ],
      [
        "▁violence",
        -8.87535745514265
      ],
      [
        "▁House",
        -8.875374346443984
      ],
      [
        "▁ubbi",
        -8.87537895513347
      ],
      [
        "▁làrme",
        -8.875379756780683
      ],
      [
        "▁doktoor",
        -8.87538328679907
      ],
      [
        "▁Aucun",
        -8.875388159312504
      ],
      [
        "▁jéem",
        -8.875400676363904
      ],
      [
        "▁dàll",
        -8.875560239020365
      ],
      [
        "▁doi",
        -8.875639461509712
      ],
      [
        "▁Yaw",
        -8.875717936241909
      ],
      [
        "▁simplement",
        -8.87572223262247
      ],
      [
        "▁gént",
        -8.875845802518384
      ],
      [
        "▁dénk",
        -8.876282774524043
      ],
      [
        "▁coté",
        -8.876349369105428
      ],
      [
        "▁deret",
        -8.876477916496533
      ],
      [
        "▁cause",
        -8.876482401793899
      ],
      [
        "▁salle",
        -8.876576837286436
      ],
      [
        "▁Ak",
        -8.876787241686726
      ],
      [
        "▁takk",
        -8.87705373466924
      ],
      [
        "▁ňaar",
        -8.87715728540595
      ],
      [
        "avons",
        -8.877246881952786
      ],
      [
        "▁mat",
        -8.877681899654693
      ],
      [
        "▁Moom",
        -8.878030150653661
      ],
      [
        "▁ñan",
        -8.878317121680228
      ],
      [
        "▁s'il",
        -8.878379023303776
      ],
      [
        "▁kanam",
        -8.878643009517678
      ],
      [
        "▁Noonu",
        -8.878781786241621
      ],
      [
        "▁dame",
        -8.87904332066309
      ],
      [
        "▁feebar",
        -8.879480364998093
      ],
      [
        "▁Kan",
        -8.8804270749131
      ],
      [
        "▁ciel",
        -8.881589859206741
      ],
      [
        "▁bëggul",
        -8.883076984877226
      ],
      [
        "▁allé",
        -8.884040078167109
      ],
      [
        "estr",
        -8.88505839989037
      ],
      [
        "▁J'",
        -8.885980789184652
      ],
      [
        "▁maanaa",
        -8.886840932886779
      ],
      [
        "▁gaynde",
        -8.890045494220242
      ],
      [
        "▁neen",
        -8.896895120109221
      ],
      [
        "▁wone",
        -8.90008842054226
      ],
      [
        "▁jii",
        -8.900163617169081
      ],
      [
        "▁villages",
        -8.903133914467906
      ],
      [
        "▁niroo",
        -8.903155621121211
      ],
      [
        "▁gudd",
        -8.905469363476149
      ],
      [
        "eur",
        -8.906018080200354
      ],
      [
        "▁tur",
        -8.90705318629637
      ],
      [
        "▁K",
        -8.907140871431226
      ],
      [
        "▁fàtte",
        -8.911269704999196
      ],
      [
        "voir",
        -8.914597431516315
      ],
      [
        "▁t'a",
        -8.916555333503892
      ],
      [
        "▁R",
        -8.918750399683475
      ],
      [
        "▁Boo",
        -8.919210278794424
      ],
      [
        "▁souvenir",
        -8.926112114444672
      ],
      [
        "ance",
        -8.932867905536908
      ],
      [
        "les",
        -8.937673602688557
      ],
      [
        "▁defe",
        -8.938864147851003
      ],
      [
        "▁parles",
        -8.940005354582981
      ],
      [
        "maa",
        -8.940163023198872
      ],
      [
        "óon",
        -8.94315058996668
      ],
      [
        "ň",
        -8.94605572535135
      ],
      [
        "▁Saint-Louis",
        -8.946785229836507
      ],
      [
        "▁endroit",
        -8.94678533519638
      ],
      [
        "▁tollu",
        -8.94678534316699
      ],
      [
        "▁jardin",
        -8.94678604663433
      ],
      [
        "▁Yàlla",
        -8.946786279999792
      ],
      [
        "▁famille",
        -8.946786702760704
      ],
      [
        "▁togg",
        -8.946787633500692
      ],
      [
        "▁mémoire",
        -8.946787645101422
      ],
      [
        "▁vécu",
        -8.946809658870972
      ],
      [
        "▁Celui-là",
        -8.946817159321249
      ],
      [
        "▁diiwaan",
        -8.946825268066675
      ],
      [
        "▁ngelaw",
        -8.94684677780413
      ],
      [
        "▁xeer",
        -8.946961778506395
      ],
      [
        "▁tangor",
        -8.946987539203256
      ],
      [
        "▁celui-ci",
        -8.947005473430577
      ],
      [
        "▁dellusi",
        -8.94714460408885
      ],
      [
        "▁l'hôpital",
        -8.947262220984538
      ],
      [
        "▁Qu'il",
        -8.947277557730667
      ],
      [
        "▁heures",
        -8.947457868385253
      ],
      [
        "▁gaaw",
        -8.947633724033292
      ],
      [
        "▁wóor",
        -8.947759878985043
      ],
      [
        "▁trois",
        -8.947769963883479
      ],
      [
        "▁mépp",
        -8.947771274939232
      ],
      [
        "▁trop",
        -8.947814007010516
      ],
      [
        "▁partie",
        -8.947880225524816
      ],
      [
        "ati",
        -8.948905323473195
      ],
      [
        "▁debout",
        -8.948906993594555
      ],
      [
        "▁An",
        -8.948982675891548
      ],
      [
        "▁parlait",
        -8.949331511931664
      ],
      [
        "▁Wall",
        -8.949451928495009
      ],
      [
        "▁Dama",
        -8.949718551182778
      ],
      [
        "▁Ndar",
        -8.949937089718803
      ],
      [
        "▁taxoon",
        -8.953621219377602
      ],
      [
        "▁romb",
        -8.953769952295623
      ],
      [
        "▁doomi",
        -8.95397314411518
      ],
      [
        "▁ñ",
        -8.956400372062397
      ],
      [
        "▁néegu",
        -8.956682499114006
      ],
      [
        "▁song",
        -8.958291399449429
      ],
      [
        "▁Là",
        -8.958546584816048
      ],
      [
        "▁celle",
        -8.958724170174555
      ],
      [
        "▁Nga",
        -8.95928759975461
      ],
      [
        "▁s'en",
        -8.960427025867872
      ],
      [
        "aire",
        -8.961268828082757
      ],
      [
        "▁vient",
        -8.963646528549363
      ],
      [
        "▁jeune",
        -8.964701371656833
      ],
      [
        "▁googu",
        -8.965692498300422
      ],
      [
        "▁petit",
        -8.969472388420986
      ],
      [
        "at",
        -8.970426316760811
      ],
      [
        "ons",
        -8.97073198563915
      ],
      [
        "▁Mën",
        -8.970920387624702
      ],
      [
        "▁sore",
        -8.972789280100805
      ],
      [
        "ñu",
        -8.978084162813222
      ],
      [
        "▁tabax",
        -8.978380668929681
      ],
      [
        "ité",
        -8.978457122973607
      ],
      [
        "▁toutes",
        -8.982349005324691
      ],
      [
        "▁mort",
        -8.983710254084073
      ],
      [
        "▁pres",
        -8.985799311223865
      ],
      [
        "▁vieille",
        -8.986712453419536
      ],
      [
        "▁connu",
        -8.987296734156542
      ],
      [
        "▁we",
        -8.994673262036287
      ],
      [
        "▁Bamendaa",
        -8.996300435328997
      ],
      [
        "▁forme",
        -8.997063660604033
      ],
      [
        "▁baa",
        -8.998133074691584
      ],
      [
        "▁jolie",
        -8.999958324626242
      ],
      [
        "▁àgg",
        -9.002308561634079
      ],
      [
        "▁travail",
        -9.002335489400163
      ],
      [
        "où",
        -9.00235203887036
      ],
      [
        "▁marché",
        -9.002737155067923
      ],
      [
        "▁dëkke",
        -9.0034805072257
      ],
      [
        "▁masu",
        -9.00788330425752
      ],
      [
        "▁D'",
        -9.008823027717636
      ],
      [
        "▁portes",
        -9.010250751450577
      ],
      [
        "▁deme",
        -9.010251454056265
      ],
      [
        "▁dëkku",
        -9.010508363625679
      ],
      [
        "▁xool",
        -9.02027458285291
      ],
      [
        "▁tàng",
        -9.020638235039865
      ],
      [
        "▁<mask>",
        -9.023708306532438
      ],
      [
        "▁britannique",
        -9.023708306534417
      ],
      [
        "▁liberté",
        -9.023708310296385
      ],
      [
        "▁weesoo",
        -9.02370932587618
      ],
      [
        "▁sucre",
        -9.023710859902204
      ],
      [
        "▁wirgo",
        -9.023712330479436
      ],
      [
        "▁Mbaa",
        -9.023714006230676
      ],
      [
        "▁théière",
        -9.023730582235075
      ],
      [
        "▁gis-gis",
        -9.023780783515168
      ],
      [
        "▁jëkk",
        -9.023931143134924
      ],
      [
        "▁surtout",
        -9.0239471100092
      ],
      [
        "▁Yéen",
        -9.024023877288116
      ],
      [
        "ël",
        -9.024048517149765
      ],
      [
        "▁sedd",
        -9.024107693379463
      ],
      [
        "▁asamaan",
        -9.02411282075871
      ],
      [
        "▁Maurice",
        -9.024227230710398
      ],
      [
        "▁Jox",
        -9.024465560381524
      ],
      [
        "▁tard",
        -9.024568204806377
      ],
      [
        "▁Bés",
        -9.02463262022934
      ],
      [
        "▁Ibo",
        -9.024675501248192
      ],
      [
        "▁Frãs",
        -9.02478020855964
      ],
      [
        "▁ainsi",
        -9.024794200414057
      ],
      [
        "▁tëj",
        -9.02505441364728
      ],
      [
        "▁acheté",
        -9.025204356070244
      ],
      [
        "▁café",
        -9.026692114463605
      ],
      [
        "▁viendra",
        -9.027444486964372
      ],
      [
        "▁sàkk",
        -9.027447096578573
      ],
      [
        "▁xelam",
        -9.029109349046017
      ],
      [
        "st-ce",
        -9.029200588314644
      ],
      [
        "▁d'herbes",
        -9.029594120405548
      ],
      [
        "▁suba",
        -9.03009557296503
      ],
      [
        "or",
        -9.032388917482658
      ],
      [
        "▁jënd",
        -9.032764037068091
      ],
      [
        "▁marche",
        -9.033237728606903
      ],
      [
        "atum",
        -9.034715267041436
      ],
      [
        "▁X",
        -9.034740182395792
      ],
      [
        "▁choses",
        -9.034847753047766
      ],
      [
        "▁jant",
        -9.035785997786816
      ],
      [
        "▁nanu",
        -9.038662766919273
      ],
      [
        "▁buntu",
        -9.041171123422682
      ],
      [
        "▁bee",
        -9.043070248861172
      ],
      [
        "atul",
        -9.044792426132954
      ],
      [
        "▁pars",
        -9.04785224389963
      ],
      [
        "▁grands",
        -9.048130235263093
      ],
      [
        "rrière",
        -9.048914384946244
      ],
      [
        "▁wetu",
        -9.050364955808165
      ],
      [
        "▁biti",
        -9.050917800747907
      ],
      [
        "▁Quelle",
        -9.053401778552207
      ],
      [
        "▁ta",
        -9.063377944016116
      ],
      [
        "▁qu'un",
        -9.063394276401942
      ],
      [
        "fin",
        -9.063758892555004
      ],
      [
        "▁baat",
        -9.06882543855424
      ],
      [
        "▁sori",
        -9.069077365922618
      ],
      [
        "▁noo",
        -9.069531224432371
      ],
      [
        "▁yit",
        -9.07033452406272
      ],
      [
        "waat",
        -9.070407718541732
      ],
      [
        "▁yem",
        -9.07415908906294
      ],
      [
        "▁lekk",
        -9.074380071869768
      ],
      [
        "▁May",
        -9.074750809593569
      ],
      [
        "▁l'un",
        -9.082026996144041
      ],
      [
        "▁carte",
        -9.083279822017905
      ],
      [
        "▁fille",
        -9.084254663440033
      ],
      [
        "▁vienne",
        -9.085183893709035
      ],
      [
        "▁daj",
        -9.088328914028478
      ],
      [
        "!",
        -9.089565574701421
      ],
      [
        "▁Ña",
        -9.090326020133915
      ],
      [
        "▁ŋgii",
        -9.093480376477574
      ],
      [
        "▁main",
        -9.095379527672042
      ],
      [
        "▁b",
        -9.095409582830577
      ],
      [
        "▁coup",
        -9.098677470815428
      ],
      [
        "woo",
        -9.100923764598882
      ],
      [
        "▁garde",
        -9.103273997942292
      ],
      [
        "ils",
        -9.106091875293247
      ],
      [
        "▁mellentaan",
        -9.107041650464328
      ],
      [
        "▁Cherche",
        -9.107041655633694
      ],
      [
        "▁xar-kanam",
        -9.10704166694039
      ],
      [
        "▁Homme",
        -9.107041810199798
      ],
      [
        "▁géej",
        -9.107041981177623
      ],
      [
        "▁làmp",
        -9.107042208778424
      ],
      [
        "▁xanaa",
        -9.107076823827226
      ],
      [
        "▁ëe",
        -9.107087807580841
      ],
      [
        "▁Kër",
        -9.107093931627219
      ],
      [
        "▁soldaar",
        -9.10709538118002
      ],
      [
        "▁déglu",
        -9.107104968663121
      ],
      [
        "▁boroom",
        -9.107112685535945
      ],
      [
        "▁paix",
        -9.107125087172037
      ],
      [
        "▁herbes",
        -9.107133188451272
      ],
      [
        "▁Lawbe",
        -9.10713722100766
      ],
      [
        "▁delloo",
        -9.107201417976748
      ],
      [
        "▁passage",
        -9.10723121560046
      ],
      [
        "▁longue",
        -9.107277645717
      ],
      [
        "▁yuuxu",
        -9.107319884098358
      ],
      [
        "▁yére",
        -9.107354322125556
      ],
      [
        "▁Seen",
        -9.107668723790614
      ],
      [
        "▁ngoon",
        -9.10781770242712
      ],
      [
        "▁appris",
        -9.107929988849671
      ],
      [
        "▁nangu",
        -9.108226308293421
      ],
      [
        "▁n'en",
        -9.108951196000813
      ],
      [
        "▁kàddu",
        -9.108988618266382
      ],
      [
        "▁Jaam",
        -9.109044643052343
      ],
      [
        "▁Bon",
        -9.10917329063888
      ],
      [
        "▁couleurs",
        -9.109532757907777
      ],
      [
        "▁màgget",
        -9.11024056347268
      ],
      [
        "▁Defe",
        -9.110315268613068
      ],
      [
        "▁large",
        -9.110412471781586
      ],
      [
        "▁sang",
        -9.111135833254343
      ],
      [
        "▁jan",
        -9.111627950468229
      ],
      [
        "▁màggat",
        -9.112166291619918
      ],
      [
        "q",
        -9.112263442235804
      ],
      [
        "▁Demal",
        -9.113040592319452
      ],
      [
        "▁duñu",
        -9.115837258851393
      ],
      [
        "beek",
        -9.119846244043007
      ],
      [
        "est-ce",
        -9.121253477520652
      ],
      [
        "▁fees",
        -9.12338076182023
      ],
      [
        "▁fàttali",
        -9.125384957666368
      ],
      [
        "ais",
        -9.126810618562402
      ],
      [
        "▁fleuves",
        -9.127247062496044
      ],
      [
        "os",
        -9.128810738730488
      ],
      [
        "aa",
        -9.129089756504843
      ],
      [
        "▁San",
        -9.135407098689905
      ],
      [
        "lli",
        -9.136356728122214
      ],
      [
        "▁per",
        -9.13737231903632
      ],
      [
        "▁jàng",
        -9.137723771723898
      ],
      [
        "▁Da",
        -9.144271153207104
      ],
      [
        "ement",
        -9.144284365573885
      ],
      [
        "▁sais",
        -9.144725236711585
      ],
      [
        "▁Moi",
        -9.14973560113133
      ],
      [
        "▁doxandéem",
        -9.152485796269367
      ],
      [
        "▁mêmes",
        -9.154013842608471
      ],
      [
        "▁appelle",
        -9.15632992665611
      ],
      [
        "▁égarée",
        -9.158171554106886
      ],
      [
        "eut-être",
        -9.159934062110564
      ],
      [
        "na",
        -9.160092446041254
      ],
      [
        "▁roi",
        -9.16375517090065
      ],
      [
        "▁vent",
        -9.16659621534992
      ],
      [
        "un",
        -9.167057249113734
      ],
      [
        "▁doy",
        -9.167931910771092
      ],
      [
        "vant",
        -9.173218863522855
      ],
      [
        "▁fil",
        -9.173759825742895
      ],
      [
        "▁séché",
        -9.175146588876792
      ],
      [
        "es.",
        -9.175363738593784
      ],
      [
        "kër",
        -9.175446896761272
      ],
      [
        "▁première",
        -9.176799888430644
      ],
      [
        "▁Me",
        -9.180376150974144
      ],
      [
        "uis",
        -9.181890121698807
      ],
      [
        "yan",
        -9.182828446173863
      ],
      [
        "de",
        -9.184106137796265
      ],
      [
        "▁Par",
        -9.188677578172204
      ],
      [
        "▁Koo",
        -9.190605590180432
      ],
      [
        "ture",
        -9.191113319034159
      ],
      [
        "▁dayo",
        -9.193567948346079
      ],
      [
        "▁toogu",
        -9.194011151495527
      ],
      [
        "▁dagg",
        -9.194167504279703
      ],
      [
        "▁Xa",
        -9.194536408881163
      ],
      [
        "▁dexu",
        -9.195570344929543
      ],
      [
        "▁d'Ogoja",
        -9.197950730775762
      ],
      [
        "▁bëj-saalum",
        -9.197950730780537
      ],
      [
        "▁Guwiyaan",
        -9.197950736014675
      ],
      [
        "▁yëkkati",
        -9.197950789479414
      ],
      [
        "▁Guyane",
        -9.197951786828368
      ],
      [
        "▁lumière",
        -9.197952057990044
      ],
      [
        "▁région",
        -9.197952674365636
      ],
      [
        "zone",
        -9.197953532763705
      ],
      [
        "▁rawati",
        -9.197954767334917
      ],
      [
        "▁Xammee",
        -9.19797254284366
      ],
      [
        "▁frère",
        -9.197975727665883
      ],
      [
        "▁d'Europe",
        -9.197987929784823
      ],
      [
        "▁kese",
        -9.198000601438725
      ],
      [
        "▁force",
        -9.198005448178957
      ],
      [
        "kati",
        -9.198021901768058
      ],
      [
        "▁chez",
        -9.198031118832525
      ],
      [
        "▁manger",
        -9.198086781606035
      ],
      [
        "▁raison",
        -9.198095348394801
      ],
      [
        "▁jàll",
        -9.198168825969727
      ],
      [
        "▁Moonte",
        -9.198200137148596
      ],
      [
        "▁Gone",
        -9.198217695503029
      ],
      [
        "▁jéggi",
        -9.198485582376843
      ],
      [
        "▁silence",
        -9.198508267115438
      ],
      [
        "▁bépp",
        -9.198576309422153
      ],
      [
        "▁poste",
        -9.198657300148197
      ],
      [
        "▁Ñoom",
        -9.198758026084544
      ],
      [
        "▁kilifa",
        -9.198829526568117
      ],
      [
        "▁xéy",
        -9.19885742424124
      ],
      [
        "▁bateau",
        -9.198971717339255
      ],
      [
        "▁fépp",
        -9.198978065164603
      ],
      [
        "▁faisait",
        -9.199002604097254
      ],
      [
        "si",
        -9.199081467096292
      ],
      [
        "▁toujours",
        -9.19922846700894
      ],
      [
        "▁xaar",
        -9.199330703794246
      ],
      [
        "▁fenn",
        -9.199356723638594
      ],
      [
        "▁faut",
        -9.199572927569118
      ],
      [
        "▁yóbbu",
        -9.19979717574973
      ],
      [
        "▁feneen",
        -9.199812641705561
      ],
      [
        "-tu",
        -9.200635006274627
      ],
      [
        "llait",
        -9.200665640435878
      ],
      [
        "▁teel",
        -9.201147645579345
      ],
      [
        "▁sortir",
        -9.201289673618788
      ],
      [
        "▁mar",
        -9.203534895640098
      ],
      [
        "▁Sud",
        -9.203574084464298
      ],
      [
        "▁cuir",
        -9.203795649197382
      ],
      [
        "▁avions",
        -9.204032645322352
      ],
      [
        "▁ñetti",
        -9.20448786898321
      ],
      [
        "▁woo",
        -9.204491455149597
      ],
      [
        "▁yaw",
        -9.204752208064862
      ],
      [
        "▁Loo",
        -9.20489810154516
      ],
      [
        "▁miin",
        -9.205139360915744
      ],
      [
        "▁tund",
        -9.207316129559352
      ],
      [
        "▁tàkk",
        -9.208464893099759
      ],
      [
        "ri",
        -9.209048842902366
      ],
      [
        "▁pieds",
        -9.212223944712665
      ],
      [
        "▁tay",
        -9.21264242749516
      ],
      [
        "▁seule",
        -9.215786499813236
      ],
      [
        "▁Ne",
        -9.218619289047957
      ],
      [
        "▁ira",
        -9.223155220860988
      ],
      [
        "▁...",
        -9.226750868854019
      ],
      [
        "me",
        -9.227658796285905
      ],
      [
        "▁ragal",
        -9.238110708494627
      ],
      [
        "▁petite",
        -9.23952716479893
      ],
      [
        "iez",
        -9.241867645490217
      ],
      [
        "je",
        -9.242729052509537
      ],
      [
        "▁Ñ",
        -9.24298596136012
      ],
      [
        "▁të",
        -9.244563822815131
      ],
      [
        "▁cour",
        -9.246531875464257
      ],
      [
        "naka",
        -9.25328346718744
      ],
      [
        "▁Go",
        -9.253898876415217
      ],
      [
        "▁partis",
        -9.254319660755952
      ],
      [
        "▁réewu",
        -9.256560705361947
      ],
      [
        "▁point",
        -9.257822388204035
      ],
      [
        "nga",
        -9.262916343356807
      ],
      [
        "▁cuisine",
        -9.264196284381764
      ],
      [
        "ique",
        -9.264814056632765
      ],
      [
        "▁po",
        -9.265873803029576
      ],
      [
        "oŋ",
        -9.26599616336655
      ],
      [
        "kkali",
        -9.267727937994067
      ],
      [
        "▁tii",
        -9.271640608252754
      ],
      [
        "▁cons",
        -9.27171769261316
      ],
      [
        "▁fleuve",
        -9.274031974606942
      ],
      [
        "aller",
        -9.275184628228196
      ],
      [
        "▁tere",
        -9.276951271607302
      ],
      [
        "▁livre",
        -9.278967517743562
      ],
      [
        "lle",
        -9.282903841362572
      ],
      [
        "euse",
        -9.284280700030836
      ],
      [
        "▁do",
        -9.28562041414773
      ],
      [
        "▁gan",
        -9.287661694216512
      ],
      [
        "▁serai",
        -9.287837816287782
      ],
      [
        "ral",
        -9.290038802709084
      ],
      [
        "▁tan",
        -9.291631590991656
      ],
      [
        "▁Foo",
        -9.291860060631635
      ],
      [
        "▁T",
        -9.291965276109096
      ],
      [
        "▁kook",
        -9.293295583312666
      ],
      [
        "▁Daan",
        -9.295789230281729
      ],
      [
        "▁feu",
        -9.297303744139828
      ],
      [
        "▁Moussa",
        -9.297950735694988
      ],
      [
        "▁nouveau",
        -9.297950737003616
      ],
      [
        "▁pirogue",
        -9.297950738908273
      ],
      [
        "▁drap",
        -9.297951385504732
      ],
      [
        "▁samp",
        -9.297954267965729
      ],
      [
        "▁morceau",
        -9.297955136161164
      ],
      [
        "▁mbóot",
        -9.297976464492738
      ],
      [
        "▁téye",
        -9.297977705570357
      ],
      [
        "▁chevaux",
        -9.298001078718968
      ],
      [
        "▁Ñàkk",
        -9.298005001407677
      ],
      [
        "▁l'enfant",
        -9.298010573113888
      ],
      [
        "▁subë",
        -9.298027080446497
      ],
      [
        "▁Nord",
        -9.298033821101459
      ],
      [
        "▁sentiment",
        -9.298037825885125
      ],
      [
        "▁diggante",
        -9.29805231517813
      ],
      [
        "▁voix",
        -9.298088281656781
      ],
      [
        "▁façon",
        -9.298097491439643
      ],
      [
        "▁train",
        -9.29816921706693
      ],
      [
        "▁jëfandikoo",
        -9.298175494636975
      ],
      [
        "▁Fatim",
        -9.29821954752699
      ],
      [
        "▁metit",
        -9.29831881071601
      ],
      [
        "ëgg",
        -9.29836845685187
      ],
      [
        "-fu",
        -9.298382980320953
      ],
      [
        "▁Voil",
        -9.298395226454957
      ],
      [
        "▁envoyée",
        -9.298598949849598
      ],
      [
        "▁fanaan",
        -9.298647117998453
      ],
      [
        "▁gor",
        -9.29867491160851
      ],
      [
        "▁moins",
        -9.298896254037404
      ],
      [
        "▁bonne",
        -9.298967525236877
      ],
      [
        "▁tàll",
        -9.29902127165911
      ],
      [
        "aw",
        -9.299473291286482
      ],
      [
        "▁rëdd",
        -9.299604459827622
      ],
      [
        "atim",
        -9.299763270438628
      ],
      [
        "▁jege",
        -9.299983562791242
      ],
      [
        "mbaar",
        -9.300143275240838
      ],
      [
        "▁xuus",
        -9.30071941013847
      ],
      [
        "▁Non",
        -9.30112077216934
      ],
      [
        "▁fer",
        -9.30120411473503
      ],
      [
        "naa",
        -9.301490313177837
      ],
      [
        "▁bras",
        -9.302728201249057
      ],
      [
        "▁neneen",
        -9.30282950393424
      ],
      [
        "▁soi",
        -9.304658233023138
      ],
      [
        "▁buur",
        -9.304691557568166
      ],
      [
        "▁naaj",
        -9.305091364703335
      ],
      [
        "▁joor",
        -9.305330148648778
      ],
      [
        "▁hautes",
        -9.307409132331948
      ],
      [
        "▁kon",
        -9.308977669746783
      ],
      [
        "▁wuti",
        -9.310672569441067
      ],
      [
        "▁vi",
        -9.310917929883583
      ],
      [
        "▁yab",
        -9.312373794972967
      ],
      [
        "▁partira",
        -9.312463104968252
      ],
      [
        "▁jeu",
        -9.312555294174505
      ],
      [
        "▁telle",
        -9.312930249901266
      ],
      [
        "▁ñëwul",
        -9.31342834711346
      ],
      [
        "vent",
        -9.314198006785325
      ],
      [
        "▁baxa",
        -9.314587179116028
      ],
      [
        "▁nul",
        -9.318466892326699
      ],
      [
        "▁Fan",
        -9.31944161963721
      ],
      [
        "▁eû",
        -9.320578922331954
      ],
      [
        "belle",
        -9.322875718306555
      ],
      [
        "▁connais",
        -9.323713353767715
      ],
      [
        "▁Fi",
        -9.326756199306402
      ],
      [
        "▁meloon",
        -9.32741631869089
      ],
      [
        "eŋ",
        -9.329402098439715
      ],
      [
        "▁xëcc",
        -9.329617544559987
      ],
      [
        "▁Ou",
        -9.332494312743577
      ],
      [
        "▁noirs",
        -9.333493466197876
      ],
      [
        "ewul",
        -9.334453714591163
      ],
      [
        "▁partes",
        -9.334675120681158
      ],
      [
        "▁garabi",
        -9.338779074646704
      ],
      [
        "▁tefes",
        -9.339465628860184
      ],
      [
        "▁avais",
        -9.340022326364004
      ],
      [
        "▁blancs",
        -9.340066136422909
      ],
      [
        "▁noire",
        -9.340554128050945
      ],
      [
        "▁arrivé",
        -9.341755291204068
      ],
      [
        "▁kaa",
        -9.348002729583087
      ],
      [
        "▁fais",
        -9.348225020421808
      ],
      [
        "ndant",
        -9.348400322111555
      ],
      [
        "ès",
        -9.35192295306961
      ],
      [
        "▁doo",
        -9.352462021287051
      ],
      [
        "▁jusqu'au",
        -9.353602252695207
      ],
      [
        "▁Saa",
        -9.355015420802602
      ],
      [
        "okk",
        -9.355403990694311
      ],
      [
        "ppelle",
        -9.361625157892957
      ],
      [
        "pp",
        -9.362254256146088
      ],
      [
        "▁men",
        -9.363250388930613
      ],
      [
        "▁cases",
        -9.366687316186297
      ],
      [
        "▁kee",
        -9.368413610145973
      ],
      [
        "▁mis",
        -9.369540200180557
      ],
      [
        "▁froid",
        -9.374630352761827
      ],
      [
        "▁pris",
        -9.374983548805849
      ],
      [
        "▁conçue",
        -9.375838150924203
      ],
      [
        "▁ex",
        -9.379326578370318
      ],
      [
        "▁nom",
        -9.386177966414206
      ],
      [
        "▁arbre",
        -9.386600398371911
      ],
      [
        "▁sera",
        -9.388781308328896
      ],
      [
        "réer",
        -9.390016715012436
      ],
      [
        "▁garçon",
        -9.390777214372495
      ],
      [
        "quel",
        -9.395851218537075
      ],
      [
        "rait",
        -9.3974181921344
      ],
      [
        "▁nan",
        -9.39747014887774
      ],
      [
        "▁ciment",
        -9.397689744664842
      ],
      [
        "▁gro",
        -9.400917797336977
      ],
      [
        "▁trouve",
        -9.402794505836741
      ],
      [
        "▁entier",
        -9.404359651376101
      ],
      [
        "û",
        -9.4046537125621
      ],
      [
        "▁tekk",
        -9.406394356340522
      ],
      [
        "▁palanteer",
        -9.407152832530286
      ],
      [
        "▁dënn",
        -9.407618862017364
      ],
      [
        "▁yegg",
        -9.40825796259832
      ],
      [
        "▁foo",
        -9.408455402424657
      ],
      [
        "éjà",
        -9.408914930789996
      ],
      [
        "▁Aujourd'hui",
        -9.409061841889594
      ],
      [
        "▁Biyaafaraa",
        -9.409061841895227
      ],
      [
        "▁wëndéelu",
        -9.409061841902718
      ],
      [
        "▁médicaments",
        -9.409061841938685
      ],
      [
        "▁d'Afrique",
        -9.40906184218209
      ],
      [
        "▁bëj-gànnaar",
        -9.409061842259078
      ],
      [
        "▁yëngu",
        -9.409061842412173
      ],
      [
        "▁savane",
        -9.409061843717193
      ],
      [
        "▁lëndëm",
        -9.409061844112589
      ],
      [
        "▁sowu-jant",
        -9.409061857037466
      ],
      [
        "▁bànneex",
        -9.409061877330227
      ],
      [
        "▁société",
        -9.40906189236108
      ],
      [
        "▁Jamono",
        -9.409061925043918
      ],
      [
        "▁reconna",
        -9.409061996352865
      ],
      [
        "▁Ainsi",
        -9.409064768866784
      ],
      [
        "▁yow",
        -9.409065586734535
      ],
      [
        "▁paaka",
        -9.409065641483046
      ],
      [
        "▁insectes",
        -9.409072068563624
      ],
      [
        "▁lampe",
        -9.409072780885024
      ],
      [
        "▁Sérère",
        -9.40908011895976
      ],
      [
        "▁cosaan",
        -9.409080983716164
      ],
      [
        "▁Almaañ",
        -9.409087493916935
      ],
      [
        "▁Déedéet",
        -9.409099462698656
      ],
      [
        "▁l'âge",
        -9.409102293828038
      ],
      [
        "▁naqar",
        -9.40910500080018
      ],
      [
        "▁chaleur",
        -9.409110059825586
      ],
      [
        "▁tëdd",
        -9.409121045191235
      ],
      [
        "▁baraada",
        -9.409145025632618
      ],
      [
        "▁tubaab",
        -9.409160639474958
      ],
      [
        "▁longtemps",
        -9.409165704945655
      ],
      [
        "▁yéeg",
        -9.409167412579363
      ],
      [
        "▁parfois",
        -9.40918649762272
      ],
      [
        "▁wanag",
        -9.40918847523399
      ],
      [
        "-t-il",
        -9.409216468390424
      ],
      [
        "▁wow",
        -9.40923430241505
      ],
      [
        "▁étions",
        -9.409473583651144
      ],
      [
        "▁Toi",
        -9.409550067145389
      ],
      [
        "▁danga",
        -9.409554583429257
      ],
      [
        "▁loxoom",
        -9.409590554201294
      ],
      [
        "▁Teewul",
        -9.409626360822148
      ],
      [
        "▁ŋgoon",
        -9.409652882197744
      ],
      [
        "p",
        -9.409778004145515
      ],
      [
        "▁jaŋg",
        -9.40998997886184
      ],
      [
        "▁côte",
        -9.410184717705835
      ],
      [
        "▁weñ",
        -9.410227805727727
      ],
      [
        "▁parlé",
        -9.410548864440939
      ],
      [
        "▁alors",
        -9.410631791340021
      ],
      [
        "▁donc",
        -9.410666969966657
      ],
      [
        "▁Niis",
        -9.410757575040904
      ],
      [
        "▁pourtant",
        -9.411315035380856
      ],
      [
        "▁booba",
        -9.411435795623127
      ],
      [
        "▁Doo",
        -9.4117631541493
      ],
      [
        "▁demande",
        -9.4117782041053
      ],
      [
        "▁Alma",
        -9.41188878101651
      ],
      [
        "▁rek",
        -9.412198624488036
      ],
      [
        "▁ça",
        -9.412528453510205
      ],
      [
        "▁meubles",
        -9.412585000545828
      ],
      [
        "▁mucc",
        -9.412921662970936
      ],
      [
        "▁gisaat",
        -9.413038918205377
      ],
      [
        "▁tukki",
        -9.413173315137085
      ],
      [
        "▁ñooñu",
        -9.413191126356603
      ],
      [
        "▁donne",
        -9.41321400497848
      ],
      [
        "▁objets",
        -9.414263635755168
      ],
      [
        "▁ñaan",
        -9.41428479185847
      ],
      [
        "▁lieux",
        -9.41544607723969
      ],
      [
        "▁enfance",
        -9.415849721644843
      ],
      [
        "mettre",
        -9.41674273780305
      ],
      [
        "▁Noon",
        -9.417278094043855
      ],
      [
        "▁fleurs",
        -9.418392158503226
      ],
      [
        "tes",
        -9.418855009041591
      ],
      [
        "▁Tay",
        -9.419246780823919
      ],
      [
        "▁m'en",
        -9.419601973129062
      ],
      [
        "oom",
        -9.420151374216623
      ],
      [
        "▁noon",
        -9.420999899357122
      ],
      [
        "▁alal",
        -9.421060841859571
      ],
      [
        "▁bol",
        -9.42179754506572
      ],
      [
        "▁këram",
        -9.422347023679752
      ],
      [
        "▁car",
        -9.422870356224982
      ],
      [
        "▁garçons",
        -9.427686976262839
      ],
      [
        "venir",
        -9.432298879751123
      ],
      [
        "▁Ta",
        -9.43415124211834
      ],
      [
        "▁viennes",
        -9.438874789613962
      ],
      [
        "▁bees",
        -9.441746483785762
      ],
      [
        "▁jeunes",
        -9.441842866513598
      ],
      [
        "▁teew",
        -9.442300636886282
      ],
      [
        "▁petits",
        -9.442845221600699
      ],
      [
        "▁waral",
        -9.444002439218934
      ],
      [
        "wu",
        -9.444176274969212
      ],
      [
        "▁rey",
        -9.446471475868613
      ],
      [
        "▁vas",
        -9.450543015843872
      ],
      [
        "▁Nda",
        -9.451070493809986
      ],
      [
        "▁ton",
        -9.457880764827129
      ],
      [
        "▁routes",
        -9.463545671290433
      ],
      [
        "▁kay",
        -9.466004988741652
      ],
      [
        "ou",
        -9.467049769392366
      ],
      [
        "▁dakk",
        -9.467664870538725
      ],
      [
        "ton",
        -9.467920543694875
      ],
      [
        "tendre",
        -9.468233109803284
      ],
      [
        "▁gise",
        -9.471361363731727
      ],
      [
        "part",
        -9.474048243739054
      ],
      [
        "▁fee",
        -9.479399859592904
      ],
      [
        "▁ñii",
        -9.479871348001746
      ],
      [
        "el",
        -9.479912615461132
      ],
      [
        "▁pou",
        -9.480010894872557
      ],
      [
        "▁wute",
        -9.480146242908699
      ],
      [
        "▁s'agi",
        -9.481616160107667
      ],
      [
        "een",
        -9.482645996943793
      ],
      [
        "▁tas",
        -9.483070051602978
      ],
      [
        "▁Ya",
        -9.483143694125317
      ],
      [
        "▁Ki",
        -9.483158362409132
      ],
      [
        "ëf",
        -9.483902997797001
      ],
      [
        "▁Ñoo",
        -9.484654036846095
      ],
      [
        "▁wa",
        -9.48474246661143
      ],
      [
        "tion",
        -9.484845729762666
      ],
      [
        "▁table",
        -9.486327683018985
      ],
      [
        "▁j'en",
        -9.488860268322718
      ],
      [
        "ti",
        -9.490364648241929
      ],
      [
        "▁bleu",
        -9.49323093320431
      ],
      [
        "▁not",
        -9.494100130375948
      ],
      [
        "ngi",
        -9.495039074717228
      ],
      [
        "▁nature",
        -9.498104978734329
      ],
      [
        "▁feeñ",
        -9.498725111543704
      ],
      [
        "▁rêve",
        -9.499265955292959
      ],
      [
        "▁Ch",
        -9.50056752353495
      ],
      [
        "▁tool",
        -9.501785228124168
      ],
      [
        "▁yat",
        -9.504810705236336
      ],
      [
        "▁ra",
        -9.505537651690037
      ],
      [
        "▁set",
        -9.50780397402199
      ],
      [
        "kaay",
        -9.513794302681434
      ],
      [
        "▁montagne",
        -9.514862890993673
      ],
      [
        "▁visage",
        -9.515235735215665
      ],
      [
        "▁waxtaan",
        -9.515412725815159
      ],
      [
        "▁pied",
        -9.516274780259206
      ],
      [
        "▁nopp",
        -9.516413860568905
      ],
      [
        "use",
        -9.516495478593674
      ],
      [
        "▁guy",
        -9.517038464873542
      ],
      [
        "▁Xan",
        -9.518909446169673
      ],
      [
        "▁entrai",
        -9.520780612593466
      ],
      [
        "▁sant",
        -9.521234271756429
      ],
      [
        "▁africain",
        -9.521320030159734
      ],
      [
        "▁Ri",
        -9.522657308158916
      ],
      [
        "maana",
        -9.523122359947154
      ],
      [
        "▁janoo",
        -9.523415663910686
      ],
      [
        "▁lakk",
        -9.52352413659544
      ],
      [
        "nde",
        -9.52689070214338
      ],
      [
        "▁tóo",
        -9.529400205275596
      ],
      [
        "▁instant",
        -9.531080808314169
      ],
      [
        "gré",
        -9.531329105648116
      ],
      [
        "▁yilif",
        -9.531502560731079
      ],
      [
        "tant",
        -9.531545449611917
      ],
      [
        "▁juste",
        -9.53360307677523
      ],
      [
        "▁compl",
        -9.533885280616065
      ],
      [
        "▁Victoria",
        -9.534061841898698
      ],
      [
        "▁L'Afrique",
        -9.534061841898755
      ],
      [
        "▁Léeg-léeg",
        -9.53406184190845
      ],
      [
        "▁kéemaane",
        -9.534061842078378
      ],
      [
        "▁yëngal",
        -9.534061842213307
      ],
      [
        "▁mauvais",
        -9.534061843002569
      ],
      [
        "▁xàmmee",
        -9.534061844998764
      ],
      [
        "▁assurément",
        -9.534061849123415
      ],
      [
        "▁ensemble",
        -9.534061852116789
      ],
      [
        "▁accroché",
        -9.534061853516308
      ],
      [
        "▁Monsieur",
        -9.534062003586131
      ],
      [
        "▁Laobé",
        -9.53406223382201
      ],
      [
        "▁jàmm",
        -9.534062345104374
      ],
      [
        "▁xaalis",
        -9.53406242742521
      ],
      [
        "▁chaussettes",
        -9.534063380322106
      ],
      [
        "▁chaussures",
        -9.534064132529217
      ],
      [
        "▁Legoos",
        -9.53406737960841
      ],
      [
        "▁janeer",
        -9.534088953893573
      ],
      [
        "▁keroog",
        -9.534092069595873
      ],
      [
        "▁puissance",
        -9.534092497923503
      ],
      [
        "▁dernier",
        -9.534109315341981
      ],
      [
        "▁Réew",
        -9.534113383343222
      ],
      [
        "▁sànni",
        -9.534119403737275
      ],
      [
        "▁l'amour",
        -9.534119613297989
      ],
      [
        "▁feuilles",
        -9.534144965123943
      ],
      [
        "ax",
        -9.534177591707769
      ],
      [
        "▁douceur",
        -9.53418569360036
      ],
      [
        "▁colère",
        -9.534231658629544
      ],
      [
        "▁départ",
        -9.534276755466596
      ],
      [
        "▁lonk",
        -9.53432510064239
      ],
      [
        "▁proche",
        -9.534409328234688
      ],
      [
        "▁Musaa",
        -9.534409586111629
      ],
      [
        "▁woowe",
        -9.534416942354225
      ],
      [
        "▁gémmiñ",
        -9.534425188497302
      ],
      [
        "▁Officer",
        -9.534451017157085
      ],
      [
        "▁dénd",
        -9.534472441906125
      ],
      [
        "▁Dëkk",
        -9.534549589313043
      ],
      [
        "▁plein",
        -9.534823998409516
      ],
      [
        "▁fajkat",
        -9.534878779019753
      ],
      [
        "▁Nice",
        -9.535191221018152
      ],
      [
        "▁Dañ",
        -9.535370878275089
      ],
      [
        "▁bekk",
        -9.535440939759674
      ],
      [
        "▁prend",
        -9.535496659079726
      ],
      [
        "▁goût",
        -9.535878141549718
      ],
      [
        "▁cœur",
        -9.535879628903983
      ],
      [
        "▁yëf",
        -9.536078633326179
      ],
      [
        "▁Buur",
        -9.536509963751211
      ],
      [
        "▁riir",
        -9.536601969609286
      ],
      [
        "▁gejje",
        -9.536810852066191
      ],
      [
        "▁Kookule",
        -9.536824773067258
      ],
      [
        "▁yenu",
        -9.53691867205365
      ],
      [
        "▁place",
        -9.537574636159837
      ],
      [
        "▁mill",
        -9.53763783848678
      ],
      [
        "▁compte",
        -9.538048922162549
      ],
      [
        "▁ndey",
        -9.538561219021794
      ],
      [
        "▁Sunu",
        -9.538730758013832
      ],
      [
        "▁sës",
        -9.538992841382449
      ],
      [
        "▁cherche",
        -9.539635288120092
      ],
      [
        "an",
        -9.54042406054519
      ],
      [
        "▁unique",
        -9.540786509817153
      ],
      [
        "▁waxtu",
        -9.54132391869456
      ],
      [
        "▁Wu",
        -9.541944086972647
      ],
      [
        "▁tar",
        -9.542090791358653
      ],
      [
        "istrict",
        -9.542207170799111
      ],
      [
        "▁boy",
        -9.542675014347758
      ],
      [
        "▁sew",
        -9.542739336268447
      ],
      [
        "umes",
        -9.54349431356756
      ],
      [
        "▁bëggée",
        -9.543594081073747
      ],
      [
        "▁yar",
        -9.544329137742714
      ],
      [
        "▁parents",
        -9.54449410562433
      ],
      [
        "▁jaune",
        -9.545206742475726
      ],
      [
        "▁sauvages",
        -9.546686532532203
      ],
      [
        "▁t'ai",
        -9.547259131299327
      ],
      [
        "▁v",
        -9.548655653589016
      ],
      [
        "▁êtes",
        -9.550056933890067
      ],
      [
        "Après",
        -9.55522485719709
      ],
      [
        "▁noms",
        -9.555450648739649
      ],
      [
        "▁waar",
        -9.555777170258008
      ],
      [
        "du",
        -9.55747649731184
      ],
      [
        "▁kaas",
        -9.558739663809053
      ],
      [
        "ez-vous",
        -9.558750916400076
      ],
      [
        "ables",
        -9.56398308196528
      ],
      [
        "▁Pe",
        -9.565104152373248
      ],
      [
        "▁Cha",
        -9.566233361657568
      ],
      [
        "▁beau",
        -9.566562630831164
      ],
      [
        "▁diis",
        -9.566766020511961
      ],
      [
        "▁Nu",
        -9.569529352415657
      ],
      [
        "nn",
        -9.569903830133216
      ],
      [
        "▁luy",
        -9.571151828687894
      ],
      [
        "pendan",
        -9.573035163105706
      ],
      [
        "▁Vas",
        -9.574122059954439
      ],
      [
        "▁peur",
        -9.576134755552541
      ],
      [
        "dé",
        -9.578581712891163
      ],
      [
        "▁sor",
        -9.57957430660525
      ],
      [
        "▁Woo",
        -9.580076633514846
      ],
      [
        "▁max",
        -9.58066954045626
      ],
      [
        "▁dalal",
        -9.582002992226407
      ],
      [
        "▁pos",
        -9.582688370736662
      ],
      [
        "▁daawu",
        -9.585882576373471
      ],
      [
        "▁Jën",
        -9.586184143602104
      ],
      [
        "est",
        -9.58649135131606
      ],
      [
        "▁H",
        -9.587459070133589
      ],
      [
        "▁sonal",
        -9.59089777252046
      ],
      [
        "▁No",
        -9.591088413935344
      ],
      [
        "ke",
        -9.59110882931218
      ],
      [
        "▁raconte",
        -9.592211883655708
      ],
      [
        "▁inter",
        -9.592982531496302
      ],
      [
        "cc",
        -9.593221596023676
      ],
      [
        "▁sokolaa",
        -9.593291449229906
      ],
      [
        "nce",
        -9.59568328860715
      ],
      [
        "▁t'en",
        -9.597153883282775
      ],
      [
        "ar",
        -9.603434339971567
      ],
      [
        "▁cee",
        -9.604715689828087
      ],
      [
        "▁siy",
        -9.606285288216375
      ],
      [
        "▁lesquel",
        -9.606628808250905
      ],
      [
        "▁yii",
        -9.60781374529664
      ],
      [
        "▁Tey",
        -9.61244663790839
      ],
      [
        "▁all",
        -9.613180288224262
      ],
      [
        "▁ét",
        -9.616961559292982
      ],
      [
        "▁në",
        -9.622363038234711
      ],
      [
        "aale",
        -9.62278704722871
      ],
      [
        "▁retour",
        -9.628178682578145
      ],
      [
        "ète",
        -9.635542115110892
      ],
      [
        "▁elles",
        -9.642021527219015
      ],
      [
        "▁jur",
        -9.643059597600761
      ],
      [
        "▁pro",
        -9.643993104006313
      ],
      [
        "▁photos",
        -9.646207000543296
      ],
      [
        "▁dessin",
        -9.649476613598733
      ],
      [
        "▁s'ét",
        -9.650294501061769
      ],
      [
        "autorité",
        -9.650320037594776
      ],
      [
        "impression",
        -9.650925693071613
      ],
      [
        "▁wan",
        -9.653081677265769
      ],
      [
        "▁pouvai",
        -9.653715039289201
      ],
      [
        "▁scorpion",
        -9.654090075922383
      ],
      [
        "▁tày",
        -9.654710305851992
      ],
      [
        "▁far",
        -9.655687037917884
      ],
      [
        "▁vivre",
        -9.656462774127727
      ],
      [
        "'avez",
        -9.65747748296929
      ],
      [
        "▁xoole",
        -9.65790760631316
      ],
      [
        "z",
        -9.657997722475022
      ],
      [
        "▁pënd",
        -9.658812376880855
      ],
      [
        "▁nëbb",
        -9.659890774357184
      ],
      [
        "ñeen",
        -9.66241903264225
      ],
      [
        "li",
        -9.665245746006901
      ],
      [
        "kom",
        -9.66750283048149
      ],
      [
        "ay",
        -9.66918610890215
      ],
      [
        "▁jàkk",
        -9.669360387672121
      ],
      [
        "▁jafe",
        -9.669612444205717
      ],
      [
        "▁muur",
        -9.66977980968713
      ],
      [
        "▁sorti",
        -9.673697359178025
      ],
      [
        "▁denc",
        -9.674290973518648
      ],
      [
        "aay",
        -9.67443508376293
      ],
      [
        "▁simple",
        -9.676307783489529
      ],
      [
        "▁gouvernement",
        -9.676918984761254
      ],
      [
        "▁gàncax",
        -9.676918984797354
      ],
      [
        "▁reç",
        -9.676918985042196
      ],
      [
        "▁màndarga",
        -9.67691899062173
      ],
      [
        "▁Óbudu",
        -9.676918990648549
      ],
      [
        "▁solitude",
        -9.676918990655857
      ],
      [
        "▁immense",
        -9.676918993590366
      ],
      [
        "▁màrse",
        -9.676918998834807
      ],
      [
        "▁Ó",
        -9.676919001629862
      ],
      [
        "▁difficile",
        -9.676919004337337
      ],
      [
        "▁Casamance",
        -9.676919009507893
      ],
      [
        "▁loppitaan",
        -9.67691904508212
      ],
      [
        "▁reconnu",
        -9.67691905278725
      ],
      [
        "▁Liggéey",
        -9.6769190532051
      ],
      [
        "▁âge",
        -9.676919061465018
      ],
      [
        "▁bonheur",
        -9.676919077963
      ],
      [
        "▁tôle",
        -9.676919094036545
      ],
      [
        "▁premier",
        -9.676919101271729
      ],
      [
        "▁Ayijoo",
        -9.676919111281096
      ],
      [
        "▁boeuf",
        -9.676919162745428
      ],
      [
        "▁sukkuraat",
        -9.67691922947859
      ],
      [
        "▁Yaakaar",
        -9.676919429824324
      ],
      [
        "▁dehors",
        -9.676919627535815
      ],
      [
        "▁époque",
        -9.676920922939736
      ],
      [
        "▁simoŋ",
        -9.676921526232032
      ],
      [
        "▁yànj",
        -9.67692327638724
      ],
      [
        "▁wurus",
        -9.67692513282143
      ],
      [
        "▁Deŋk",
        -9.676925485814927
      ],
      [
        "▁comport",
        -9.676927231252026
      ],
      [
        "▁rëcc",
        -9.676928343561057
      ],
      [
        "▁suukër",
        -9.676929833119583
      ],
      [
        "▁bett",
        -9.676937420697536
      ],
      [
        "▁réalité",
        -9.676950687459861
      ],
      [
        "▁mourir",
        -9.676963191030447
      ],
      [
        "▁woto",
        -9.676967829290664
      ],
      [
        "▁dëgër",
        -9.676980632387977
      ],
      [
        "▁nelaw",
        -9.676987988257263
      ],
      [
        "▁juddoo",
        -9.67698851638136
      ],
      [
        "▁servir",
        -9.676992239875748
      ],
      [
        "▁croyai",
        -9.67699909242843
      ],
      [
        "▁d'abord",
        -9.677028283103065
      ],
      [
        "▁l'Angleterre",
        -9.677046834866488
      ],
      [
        "▁yeksi",
        -9.677073117527376
      ],
      [
        "▁Fekk",
        -9.677086023767156
      ],
      [
        "▁màndi",
        -9.677088182877448
      ],
      [
        "▁plateaux",
        -9.677089614249448
      ],
      [
        "▁campement",
        -9.677102387987027
      ],
      [
        "▁ràbb",
        -9.67713040006662
      ],
      [
        "▁droit",
        -9.677155350908539
      ],
      [
        "▁bouche",
        -9.677217099929454
      ],
      [
        "uukar",
        -9.67725827559808
      ],
      [
        "▁sowu",
        -9.67727077145635
      ],
      [
        "kàlla",
        -9.677277164116816
      ],
      [
        "▁Ici",
        -9.677312100107004
      ],
      [
        "▁dajale",
        -9.677332192382702
      ],
      [
        "▁wépp",
        -9.67737049275542
      ],
      [
        "▁raglu",
        -9.677441999631686
      ],
      [
        "-do",
        -9.67750546690499
      ],
      [
        "odeur",
        -9.677557531709281
      ],
      [
        "▁porteurs",
        -9.67760101965861
      ],
      [
        "▁genn",
        -9.677629636011961
      ],
      [
        "▁Ayaa",
        -9.677669085631251
      ],
      [
        "▁sens",
        -9.677708004638692
      ],
      [
        "▁jeeg",
        -9.677711228570375
      ],
      [
        "▁jàppale",
        -9.67774851129752
      ],
      [
        "▁images",
        -9.677752354870366
      ],
      [
        "thme",
        -9.677760447173306
      ],
      [
        "▁Pël",
        -9.677775523037628
      ],
      [
        "▁lëf",
        -9.677802363810262
      ],
      [
        "▁më",
        -9.678123513058953
      ],
      [
        "▁Plu",
        -9.678332319862935
      ],
      [
        "▁couteau",
        -9.678411288020566
      ],
      [
        "▁depuis",
        -9.678594094173723
      ],
      [
        "▁propre",
        -9.678597612262305
      ],
      [
        "▁courant",
        -9.678681240931864
      ],
      [
        "▁ventre",
        -9.678811320482465
      ],
      [
        "▁palmes",
        -9.678993220843118
      ],
      [
        "▁woy",
        -9.679022684983767
      ],
      [
        "▁Parle",
        -9.6791816403186
      ],
      [
        "▁termites",
        -9.679227831200432
      ],
      [
        "▁nuages",
        -9.679239426272225
      ],
      [
        "▁Ñii",
        -9.679737005178987
      ],
      [
        "▁Fais",
        -9.679760434812348
      ],
      [
        "▁naqadi",
        -9.679771264913892
      ],
      [
        "▁l'entr",
        -9.680168369471462
      ],
      [
        "▁marchent",
        -9.680211603166082
      ],
      [
        "▁vais",
        -9.680686773198648
      ],
      [
        "-je",
        -9.680754546557704
      ],
      [
        "▁laisser",
        -9.680942247332263
      ],
      [
        "▁district",
        -9.681011637171773
      ],
      [
        "▁seng",
        -9.681092720707356
      ],
      [
        "▁vaste",
        -9.68113469293344
      ],
      [
        "▁écrit",
        -9.68125177300178
      ],
      [
        "▁pom",
        -9.68132501359149
      ],
      [
        "▁Foofu",
        -9.681679058493124
      ],
      [
        "▁àngale",
        -9.681835201480732
      ],
      [
        "▁viennent",
        -9.681966370955024
      ],
      [
        "▁ñen",
        -9.682167877111366
      ],
      [
        "▁danu",
        -9.682495264431783
      ],
      [
        "▁ňuul",
        -9.682692955202873
      ],
      [
        "▁chasse",
        -9.683414612012475
      ],
      [
        "▁soppi",
        -9.683667108301565
      ],
      [
        "▁defare",
        -9.683775199235237
      ],
      [
        "▁pa",
        -9.684507944593777
      ],
      [
        "▁fuir",
        -9.684536482858466
      ],
      [
        "quelles",
        -9.684571753224212
      ],
      [
        "▁bula",
        -9.684941450723269
      ],
      [
        "▁anglaise",
        -9.685288818503262
      ],
      [
        "▁raay",
        -9.68539208056634
      ],
      [
        "▁kowam",
        -9.685585380915942
      ],
      [
        "▁cours",
        -9.685961962479164
      ],
      [
        "-mo",
        -9.686183843970756
      ],
      [
        "▁cru",
        -9.687022043188822
      ],
      [
        "▁wane",
        -9.687394151151222
      ],
      [
        "▁Fii",
        -9.687579331542372
      ],
      [
        "▁jàn",
        -9.68780937733073
      ],
      [
        "▁mukk",
        -9.690052103401623
      ],
      [
        "▁française",
        -9.690355714685863
      ],
      [
        "▁six",
        -9.691827069662708
      ],
      [
        "▁bâtons",
        -9.69186683039468
      ],
      [
        "▁yaak",
        -9.691938823094866
      ],
      [
        "ure",
        -9.69263722092483
      ],
      [
        "▁coloniale",
        -9.693279101860458
      ],
      [
        "ji",
        -9.694096592991395
      ],
      [
        "éri",
        -9.694537478889426
      ],
      [
        "▁mbë",
        -9.695059617763016
      ],
      [
        "▁chemins",
        -9.695127191282138
      ],
      [
        "▁comment",
        -9.695636700785712
      ],
      [
        "▁lim",
        -9.696315222164953
      ],
      [
        "▁ñibbi",
        -9.6980457086925
      ],
      [
        "▁siiw",
        -9.698876837546074
      ],
      [
        "ool",
        -9.699127043854048
      ],
      [
        "▁doxe",
        -9.701061769388735
      ],
      [
        "▁rencontre",
        -9.702197340576925
      ],
      [
        "aanaka",
        -9.702339810637318
      ],
      [
        "▁Yan",
        -9.703341777173128
      ],
      [
        "▁arrivés",
        -9.703596116504192
      ],
      [
        "espère",
        -9.703988484049848
      ],
      [
        "▁tànki",
        -9.705527522127893
      ],
      [
        "▁pe",
        -9.705608083400902
      ],
      [
        "▁crise",
        -9.70580541666325
      ],
      [
        "ns",
        -9.705844093726153
      ],
      [
        "exe",
        -9.709860827127123
      ],
      [
        "▁premières",
        -9.712048179967146
      ],
      [
        "▁refuse",
        -9.712229384604198
      ],
      [
        "▁bo",
        -9.713389065952729
      ],
      [
        "▁xamant",
        -9.718911919569239
      ],
      [
        "▁provi",
        -9.721841273721683
      ],
      [
        "ande",
        -9.722712768718509
      ],
      [
        "▁commence",
        -9.723343305587472
      ],
      [
        "ici",
        -9.723418998751937
      ],
      [
        "▁saba",
        -9.725634784994897
      ],
      [
        "▁mari",
        -9.72966614520081
      ],
      [
        "▁jàngal",
        -9.730257338190915
      ],
      [
        "sse",
        -9.731673986942951
      ],
      [
        "▁ñooña",
        -9.731714986923814
      ],
      [
        "▁donn",
        -9.732321310131397
      ],
      [
        "▁kowe",
        -9.734489125821902
      ],
      [
        "▁boue",
        -9.735142323966116
      ],
      [
        "bi",
        -9.737848113223574
      ],
      [
        "bée",
        -9.739062375297143
      ],
      [
        "▁bool",
        -9.742897573540278
      ],
      [
        "éeri",
        -9.74290711035888
      ],
      [
        "▁Ja",
        -9.74455963697319
      ],
      [
        "▁w",
        -9.746716429183826
      ],
      [
        "ré",
        -9.748429472333967
      ],
      [
        "▁masuma",
        -9.748957808136153
      ],
      [
        "▁fall",
        -9.750085103142936
      ],
      [
        "▁ndi",
        -9.75139177400083
      ],
      [
        "rt",
        -9.755684914697953
      ],
      [
        "▁arrivée",
        -9.756581701183416
      ],
      [
        "-elle",
        -9.757029855030101
      ],
      [
        "▁taabal",
        -9.75811073168207
      ],
      [
        "▁jànq",
        -9.758292971205979
      ],
      [
        "vient",
        -9.759588972978698
      ],
      [
        "tends",
        -9.76071546123165
      ],
      [
        "▁loo",
        -9.762379225367244
      ],
      [
        "ion",
        -9.76496446521087
      ],
      [
        "aas",
        -9.770838537409743
      ],
      [
        "sait",
        -9.773164633506106
      ],
      [
        "▁nañoo",
        -9.774972427669129
      ],
      [
        "óor",
        -9.778273496034377
      ],
      [
        "ch",
        -9.778415909590338
      ],
      [
        "image",
        -9.778788169113755
      ],
      [
        "ññ",
        -9.781448498277923
      ],
      [
        "▁ressenti",
        -9.781826486885981
      ],
      [
        "▁Ji",
        -9.782242628847532
      ],
      [
        "aatu",
        -9.782848059257038
      ],
      [
        "ni",
        -9.783550686200138
      ],
      [
        "▁kàttan",
        -9.78863382520731
      ],
      [
        "andoo",
        -9.79052758754242
      ],
      [
        "▁l'é",
        -9.791272432309588
      ],
      [
        "ssent",
        -9.792304501641595
      ],
      [
        "▁faite",
        -9.792607250073543
      ],
      [
        "eel",
        -9.796265499326047
      ],
      [
        "la",
        -9.797500641940387
      ],
      [
        "▁batt",
        -9.799712628496817
      ],
      [
        "▁nja",
        -9.80230396137398
      ],
      [
        "▁Mas",
        -9.802379987458709
      ],
      [
        "oivent",
        -9.803050922899782
      ],
      [
        "▁tab",
        -9.804193447984604
      ],
      [
        "▁Ceux",
        -9.805615434854706
      ],
      [
        "ène",
        -9.807237221307709
      ],
      [
        "▁bir",
        -9.807372932336646
      ],
      [
        "▁hu",
        -9.807633786329195
      ],
      [
        "▁destin",
        -9.80785388910995
      ],
      [
        "ches",
        -9.809451922606097
      ],
      [
        "mu",
        -9.810184750189558
      ],
      [
        "▁parc",
        -9.811197192170077
      ],
      [
        "mi",
        -9.812591982553842
      ],
      [
        "▁jo",
        -9.813630568214954
      ],
      [
        "aux",
        -9.813798283148765
      ],
      [
        "▁duma",
        -9.819370510144017
      ],
      [
        "ŋŋ",
        -9.820278924498448
      ],
      [
        "▁fenêtre",
        -9.821791500640092
      ],
      [
        "ngui",
        -9.82181911007013
      ],
      [
        "ñax",
        -9.821861075493656
      ],
      [
        "▁d'autre",
        -9.82256338933131
      ],
      [
        "▁Tou",
        -9.822660576573007
      ],
      [
        "▁maladie",
        -9.823886415123326
      ],
      [
        "▁gris",
        -9.824088574519115
      ],
      [
        "▁étranger",
        -9.824107743216809
      ],
      [
        "▁chemin",
        -9.824978136950396
      ],
      [
        "▁taal",
        -9.825360093204035
      ],
      [
        "▁colonial",
        -9.827282441734042
      ],
      [
        "▁V",
        -9.828653036507156
      ],
      [
        "'individu",
        -9.828712506335327
      ],
      [
        "▁Jo",
        -9.829746775312234
      ],
      [
        "▁gardé",
        -9.833227931785748
      ],
      [
        "▁anglais",
        -9.83379080830145
      ],
      [
        "▁ñett",
        -9.833817148344277
      ],
      [
        "ter",
        -9.83459222632224
      ],
      [
        "as",
        -9.834802725613677
      ],
      [
        "x-ci",
        -9.835689829168121
      ],
      [
        "▁sago",
        -9.835739435501237
      ],
      [
        "▁sopp",
        -9.835870820187226
      ],
      [
        "▁jën",
        -9.835925524887351
      ],
      [
        "éy",
        -9.837338033954774
      ],
      [
        "▁féex",
        -9.8376918562142
      ],
      [
        "▁africaine",
        -9.838579669295473
      ],
      [
        "▁aime",
        -9.840485918444458
      ],
      [
        "▁frapp",
        -9.84169904930842
      ],
      [
        "▁co",
        -9.841725918888212
      ],
      [
        "▁Nko",
        -9.841851319803773
      ],
      [
        "▁askan",
        -9.842640565219893
      ],
      [
        "ngóor",
        -9.843320501224342
      ],
      [
        "▁mbind",
        -9.843546551317125
      ],
      [
        "8",
        -9.843561941124104
      ],
      [
        "▁Wiktoryaa",
        -9.843585651422528
      ],
      [
        "▁auparavant",
        -9.843585651426798
      ],
      [
        "▁dëggëntaan",
        -9.843585651455012
      ],
      [
        "▁petorool",
        -9.843585651479946
      ],
      [
        "▁Mellentaan",
        -9.843585651821774
      ],
      [
        "▁dóomu-taal",
        -9.843585652650383
      ],
      [
        "▁territoire",
        -9.84358565408606
      ],
      [
        "▁dëgg-dëgg",
        -9.843585655579794
      ],
      [
        "▁règle",
        -9.843585661716695
      ],
      [
        "▁officer",
        -9.843585662006737
      ],
      [
        "▁rideau",
        -9.843585668396763
      ],
      [
        "▁ngëlén",
        -9.84358566946278
      ],
      [
        "▁ponkal",
        -9.843585679536083
      ],
      [
        "▁l'époque",
        -9.843585680736336
      ],
      [
        "▁jaxasoo",
        -9.843585686375185
      ],
      [
        "▁chemise",
        -9.843585735103648
      ],
      [
        "▁coiff",
        -9.843585796381408
      ],
      [
        "▁tàmm",
        -9.84358592547683
      ],
      [
        "▁caaxaan",
        -9.843586210094998
      ],
      [
        "▁rêvé",
        -9.843586317246666
      ],
      [
        "▁baaraam",
        -9.843586540263422
      ],
      [
        "▁désert",
        -9.843586567555734
      ],
      [
        "▁adulte",
        -9.843586597514367
      ],
      [
        "▁vingt",
        -9.843586917325032
      ],
      [
        "▁000",
        -9.843586943002215
      ],
      [
        "▁Waxtaan",
        -9.843588263622932
      ],
      [
        "▁ressens",
        -9.843588980174138
      ],
      [
        "▁visite",
        -9.843589225104061
      ],
      [
        "▁féete",
        -9.843589901198623
      ],
      [
        "▁Africains",
        -9.843590328786568
      ],
      [
        "▁xibaar",
        -9.843590909387816
      ],
      [
        "▁Génn",
        -9.843591681583218
      ],
      [
        "▁d'autrefois",
        -9.843592153497392
      ],
      [
        "▁Lagos",
        -9.843592245810902
      ],
      [
        "▁contact",
        -9.843598036482703
      ],
      [
        "▁njël",
        -9.84360226168975
      ],
      [
        "▁jékkee-j",
        -9.843603792272631
      ],
      [
        "▁Wolof",
        -9.843604358095025
      ],
      [
        "▁construction",
        -9.843604571711428
      ],
      [
        "▁commun",
        -9.843605227545062
      ],
      [
        "▁vérité",
        -9.84360663968058
      ],
      [
        "▁présent",
        -9.843609569214209
      ],
      [
        "▁lonet",
        -9.843612865312826
      ],
      [
        "▁égale",
        -9.84361345630953
      ],
      [
        "▁peinture",
        -9.843620124313478
      ],
      [
        "▁domaine",
        -9.843623586811812
      ],
      [
        "▁cheveux",
        -9.843624595642513
      ],
      [
        "▁jumtukaay",
        -9.843634989755467
      ],
      [
        "▁werante",
        -9.843645140500989
      ],
      [
        "▁léeb",
        -9.843664256013955
      ],
      [
        "▁début",
        -9.843675943849565
      ],
      [
        "▁mbedd",
        -9.843688709609427
      ],
      [
        "▁mbokk",
        -9.843697072775871
      ],
      [
        "▁sotti",
        -9.843711651609647
      ],
      [
        "▁frontière",
        -9.843712616407633
      ],
      [
        "▁Donne",
        -9.843720439010541
      ],
      [
        "▁Port",
        -9.843723784610214
      ],
      [
        "▁cofeel",
        -9.843725068614141
      ],
      [
        "▁j'imagine",
        -9.843731868032304
      ],
      [
        "▁xeex",
        -9.843749665910545
      ],
      [
        "▁jabar",
        -9.843769405478723
      ],
      [
        "▁wéet",
        -9.843779790445556
      ],
      [
        "▁d'esprit",
        -9.8437862253077
      ],
      [
        "▁sëkk",
        -9.84380859862824
      ],
      [
        "▁Ceux-là",
        -9.843822146050835
      ],
      [
        "▁légère",
        -9.843836353818514
      ],
      [
        "existe",
        -9.843879960704502
      ],
      [
        "▁masques",
        -9.843923473013534
      ],
      [
        "▁meňň",
        -9.844004406484615
      ],
      [
        "▁courir",
        -9.844012583556772
      ],
      [
        "▁njabootam",
        -9.844024585355925
      ],
      [
        "▁L'un",
        -9.844090044769523
      ],
      [
        "▁Tugël",
        -9.844114054873824
      ],
      [
        "▁partout",
        -9.844153826140394
      ],
      [
        "▁taamu",
        -9.844159855043284
      ],
      [
        "▁kawas",
        -9.844260920072829
      ],
      [
        "▁seetaan",
        -9.844297082984475
      ],
      [
        "▁gunge",
        -9.844369675730071
      ],
      [
        "▁journée",
        -9.844427441482999
      ],
      [
        "▁malade",
        -9.844455250686604
      ],
      [
        "▁certainement",
        -9.844495666468115
      ],
      [
        "▁Aro",
        -9.844509626666632
      ],
      [
        "▁l'ét",
        -9.844522713602522
      ],
      [
        "▁revenir",
        -9.844580260615942
      ],
      [
        "▁brousse",
        -9.844599984017378
      ],
      [
        "▁coucher",
        -9.844781167652219
      ],
      [
        "▁tàngaay",
        -9.844790018489192
      ],
      [
        "▁l'aventure",
        -9.844819595185871
      ],
      [
        "▁jouer",
        -9.844878248252613
      ],
      [
        "▁connaissent",
        -9.844990964798164
      ],
      [
        "▁mangé",
        -9.845014950756573
      ],
      [
        "▁néew",
        -9.845207261343479
      ],
      [
        "▁travailleurs",
        -9.845288309326984
      ],
      [
        "▁amour",
        -9.845706706650848
      ],
      [
        "▁déet",
        -9.845734336931109
      ],
      [
        "▁habitants",
        -9.845849311419986
      ],
      [
        "▁fût",
        -9.845917020446128
      ],
      [
        "▁agsi",
        -9.845958031759965
      ],
      [
        "▁démb",
        -9.84606781471444
      ],
      [
        "▁taw",
        -9.84611993689984
      ],
      [
        "▁Obudu",
        -9.846120094364341
      ],
      [
        "▁histoire",
        -9.84612161309598
      ],
      [
        "▁tolloo",
        -9.846141070799725
      ],
      [
        "▁thé",
        -9.846248348693909
      ],
      [
        "▁soosu",
        -9.846309113451145
      ],
      [
        "▁njiit",
        -9.846462354680352
      ],
      [
        "▁kukk",
        -9.846538729325465
      ],
      [
        "▁juum",
        -9.846583689951467
      ],
      [
        "▁arrêté",
        -9.846714897441975
      ],
      [
        "▁vêtu",
        -9.84675017338371
      ],
      [
        "▁kafe",
        -9.846868122463874
      ],
      [
        "▁monter",
        -9.846901530297199
      ],
      [
        "▁juróomi",
        -9.847069528665182
      ],
      [
        "▁tontu",
        -9.847232112163438
      ],
      [
        "▁tata",
        -9.84724092715583
      ],
      [
        "▁yéene",
        -9.847251303882363
      ],
      [
        "▁autre-là",
        -9.847625308840959
      ],
      [
        "▁yéemu",
        -9.84765382794041
      ],
      [
        "▁sanc",
        -9.847873268948899
      ],
      [
        "▁yor",
        -9.848389357176293
      ],
      [
        "▁mb",
        -9.849090318391903
      ],
      [
        "▁humaine",
        -9.849602446970545
      ],
      [
        "▁Quelque",
        -9.84960505765712
      ],
      [
        "▁dirait",
        -9.84984121958594
      ],
      [
        "▁Kor",
        -9.850211861886779
      ],
      [
        "▁d'eux",
        -9.850452637938291
      ],
      [
        "▁doonkoon",
        -9.850473227468125
      ],
      [
        "▁naissance",
        -9.850574164579887
      ],
      [
        "▁wor",
        -9.850659209624137
      ],
      [
        "▁ré",
        -9.851257117227384
      ],
      [
        "▁jotee",
        -9.852080060485171
      ],
      [
        "▁certaine",
        -9.852475432243542
      ],
      [
        "▁Ver",
        -9.852778719448718
      ],
      [
        "▁souffle",
        -9.854392060030166
      ],
      [
        "▁jaam",
        -9.854632544899117
      ],
      [
        "▁jag",
        -9.855108059811014
      ],
      [
        "▁jambes",
        -9.855218401841643
      ],
      [
        "▁dawal",
        -9.856201196522175
      ],
      [
        "▁Mag",
        -9.85638072256449
      ],
      [
        "▁darab",
        -9.856493248549183
      ],
      [
        "▁rage",
        -9.85650674609219
      ],
      [
        "waan",
        -9.857455955515292
      ],
      [
        "▁dikk",
        -9.857838025462536
      ],
      [
        "▁reer",
        -9.857973183380835
      ],
      [
        "▁àpp",
        -9.85873654980098
      ],
      [
        "▁habit",
        -9.8591085689308
      ],
      [
        "▁pierres",
        -9.859265454766405
      ],
      [
        "▁xet",
        -9.859564365794855
      ],
      [
        "ll",
        -9.860444508895862
      ],
      [
        "▁aurais",
        -9.860745570694439
      ],
      [
        "éel",
        -9.861285114676472
      ],
      [
        "▁tours",
        -9.861568275379593
      ],
      [
        "ok",
        -9.862116430427324
      ],
      [
        "▁buum",
        -9.862306806374772
      ],
      [
        "▁habits",
        -9.86389312979942
      ],
      [
        "lon",
        -9.864984397519995
      ],
      [
        "▁yax",
        -9.865317495289895
      ],
      [
        "▁passer",
        -9.865869893225955
      ],
      [
        "▁fenêtres",
        -9.8659802116243
      ],
      [
        "▁serais",
        -9.866100904764048
      ],
      [
        "▁soup",
        -9.866159264604843
      ],
      [
        "▁tiit",
        -9.866180842085
      ],
      [
        "▁tekki",
        -9.86637450245723
      ],
      [
        "▁amen",
        -9.866688094756803
      ],
      [
        "▁viens",
        -9.867568073601607
      ],
      [
        "▁bes",
        -9.86777479783273
      ],
      [
        "▁visages",
        -9.869814027477151
      ],
      [
        "▁Ngi",
        -9.869957619064916
      ],
      [
        "▁yeew",
        -9.870221901355448
      ],
      [
        "▁souhaite",
        -9.873573485682924
      ],
      [
        "▁woowu",
        -9.873969774818617
      ],
      [
        "▁Ñe",
        -9.874457669402824
      ],
      [
        "▁coono",
        -9.874866008024963
      ],
      [
        "pe",
        -9.876238392422975
      ],
      [
        "▁pis",
        -9.877037296640667
      ],
      [
        "bu",
        -9.878173516148786
      ],
      [
        "▁ha",
        -9.878198162661384
      ],
      [
        "▁dois",
        -9.87868990110609
      ],
      [
        "▁Afrigam",
        -9.881931375381008
      ],
      [
        "▁At",
        -9.882555632607911
      ],
      [
        "▁daanu",
        -9.883102788630783
      ],
      [
        "▁ñe",
        -9.886439494367254
      ],
      [
        "▁Dana",
        -9.88652036202053
      ],
      [
        "unu",
        -9.888131790660122
      ],
      [
        "▁coups",
        -9.890301991310352
      ],
      [
        "▁Dis",
        -9.890457454610674
      ],
      [
        "▁melo",
        -9.894093811134997
      ],
      [
        "▁Gan",
        -9.894186122118688
      ],
      [
        "▁Yara",
        -9.895822918130609
      ],
      [
        "▁surga",
        -9.89646222584361
      ],
      [
        "▁Mar",
        -9.897511728535722
      ],
      [
        "▁mé",
        -9.898607601609882
      ],
      [
        "▁Ceux-",
        -9.898872872149555
      ],
      [
        "▁wàcce",
        -9.89970581385225
      ],
      [
        "▁cherch",
        -9.900623807938665
      ],
      [
        "▁Bii",
        -9.901510892226135
      ],
      [
        "▁waxoon",
        -9.901754615969885
      ],
      [
        "tions",
        -9.902462830709899
      ],
      [
        "▁chocolat.",
        -9.904794998139776
      ],
      [
        "▁nguur",
        -9.905117897401958
      ],
      [
        "rends",
        -9.90567353985529
      ],
      [
        "▁rivières",
        -9.90575350842994
      ],
      [
        "hoisi",
        -9.908333049095084
      ],
      [
        "▁dinaa",
        -9.909404609679395
      ],
      [
        "waa",
        -9.909471776375762
      ],
      [
        "▁suñ",
        -9.909496617589436
      ],
      [
        "▁sain",
        -9.910268564436496
      ],
      [
        "instant",
        -9.912813043129546
      ],
      [
        "niki",
        -9.913152766519532
      ],
      [
        "▁ser",
        -9.915060729657355
      ],
      [
        "▁accompagn",
        -9.917222478044323
      ],
      [
        "▁l'avai",
        -9.917535593141261
      ],
      [
        "ient",
        -9.920016014356282
      ],
      [
        "▁jar",
        -9.920710747626883
      ],
      [
        "▁taxu",
        -9.921188240733336
      ],
      [
        "entiers",
        -9.921568163778877
      ],
      [
        "▁ressentir",
        -9.922616380156539
      ],
      [
        "▁soxna",
        -9.926268643344414
      ],
      [
        "laam",
        -9.927924084982429
      ],
      [
        "ama",
        -9.929346111562674
      ],
      [
        "rie",
        -9.931982274744488
      ],
      [
        "ire",
        -9.932318835829491
      ],
      [
        "▁Ka",
        -9.936321030875959
      ],
      [
        "▁Vie",
        -9.936323476635785
      ],
      [
        "▁quelles",
        -9.938400870327905
      ],
      [
        "▁traverse",
        -9.944653361312742
      ],
      [
        "sin",
        -9.945647695425937
      ],
      [
        "galu",
        -9.949046862373851
      ],
      [
        "▁Ar",
        -9.949706572281166
      ],
      [
        "eef",
        -9.950649987250525
      ],
      [
        "▁kë",
        -9.951627813591362
      ],
      [
        "uni",
        -9.951987591325349
      ],
      [
        "▁sokolaa.",
        -9.9522623731615
      ],
      [
        "▁dun",
        -9.95353042774057
      ],
      [
        "▁cinq",
        -9.956946512401737
      ],
      [
        "▁individu",
        -9.957497582150712
      ],
      [
        "▁dàq",
        -9.95892395988062
      ],
      [
        "our",
        -9.959599202658117
      ],
      [
        "▁chang",
        -9.964505334982436
      ],
      [
        "jaa",
        -9.969186166601592
      ],
      [
        "▁nguuru",
        -9.973266943517903
      ],
      [
        "ange",
        -9.973372599874681
      ],
      [
        "▁clair",
        -9.977508416193366
      ],
      [
        "▁goog",
        -9.977887184874296
      ],
      [
        "▁nak",
        -9.97879596391586
      ],
      [
        "▁Xe",
        -9.978819559360348
      ],
      [
        "▁devenu",
        -9.98115585946045
      ],
      [
        "oir",
        -9.984183129903803
      ],
      [
        "près",
        -9.988257946645149
      ],
      [
        "▁prêt",
        -9.989056956058436
      ],
      [
        "ard",
        -9.989918655797675
      ],
      [
        "▁Yo",
        -9.990541874908448
      ],
      [
        "avais",
        -9.99344317747615
      ],
      [
        "▁rue",
        -9.995280360271586
      ],
      [
        "▁utilise",
        -9.996376234045758
      ],
      [
        "▁maître",
        -9.998144626071678
      ],
      [
        "▁jou",
        -10.000959311575095
      ],
      [
        "be",
        -10.002714921295183
      ],
      [
        "▁neex.",
        -10.002799009726541
      ],
      [
        "t-ce",
        -10.004225586854743
      ],
      [
        "▁Abo",
        -10.004649545240209
      ],
      [
        "qu'un",
        -10.006253693105412
      ],
      [
        "▁liggéeye",
        -10.006441660013062
      ],
      [
        "ble",
        -10.007259013071828
      ],
      [
        "▁couvert",
        -10.007551991540723
      ],
      [
        "▁d'or",
        -10.008408422307797
      ],
      [
        "▁champ",
        -10.008675427539751
      ],
      [
        "wuñu",
        -10.013266596150306
      ],
      [
        "▁ñeme",
        -10.017187471153257
      ],
      [
        "ver",
        -10.017520942595358
      ],
      [
        "▁cou",
        -10.018044707251688
      ],
      [
        "▁ñaa",
        -10.020391863261166
      ],
      [
        "▁Daŋg",
        -10.020584630249967
      ],
      [
        "ndax",
        -10.020962246714511
      ],
      [
        "▁voiture",
        -10.021080884607837
      ],
      [
        "mes",
        -10.021683668647011
      ],
      [
        "▁bâton",
        -10.0224338420956
      ],
      [
        "▁sauvage",
        -10.02294414477106
      ],
      [
        "▁français",
        -10.024529058052515
      ],
      [
        "▁pierre",
        -10.024781481512179
      ],
      [
        "cteur",
        -10.025284443821128
      ],
      [
        "▁tee",
        -10.026025334425986
      ],
      [
        "▁tir",
        -10.026933169405343
      ],
      [
        "▁mba",
        -10.027139377472782
      ],
      [
        "▁I",
        -10.02715456758936
      ],
      [
        "▁fit",
        -10.027191595373889
      ],
      [
        "vec",
        -10.028604476698712
      ],
      [
        "▁ressembl",
        -10.028808701704664
      ],
      [
        "habitude",
        -10.02913304950758
      ],
      [
        "▁chaud",
        -10.029308892999426
      ],
      [
        "▁joli",
        -10.029898859858578
      ],
      [
        "▁fort",
        -10.034869286129792
      ],
      [
        "▁coupé",
        -10.035921037610626
      ],
      [
        "tation",
        -10.03687202333965
      ],
      [
        "▁entendu",
        -10.037446145972083
      ],
      [
        "-y",
        -10.038075582227258
      ],
      [
        "▁làq",
        -10.038709073851066
      ],
      [
        "▁fey",
        -10.039009165497816
      ],
      [
        "roule",
        -10.039075109860963
      ],
      [
        "▁nag.",
        -10.039120841117631
      ],
      [
        "elle",
        -10.041286915828584
      ],
      [
        "'imagine",
        -10.041472078119241
      ],
      [
        "veille",
        -10.041833189445368
      ],
      [
        "hôpital",
        -10.042161168684576
      ],
      [
        "▁trente",
        -10.042187240233002
      ],
      [
        "waale",
        -10.042696193258445
      ],
      [
        "ï",
        -10.043037083003371
      ],
      [
        "0",
        -10.04348568134047
      ],
      [
        "▁douce",
        -10.043576967537508
      ],
      [
        "▁camerounais",
        -10.043585651422525
      ],
      [
        "▁ustensile",
        -10.043585651423781
      ],
      [
        "▁Adekunle",
        -10.043585651424294
      ],
      [
        "▁Georgetown",
        -10.04358565142551
      ],
      [
        "▁Sefiriis",
        -10.043585651427549
      ],
      [
        "▁bûcheron",
        -10.043585651434674
      ],
      [
        "▁njàqare",
        -10.043585651454189
      ],
      [
        "”",
        -10.043585651462468
      ],
      [
        "Ç",
        -10.043585651462468
      ],
      [
        "▁Southampton",
        -10.043585651462468
      ],
      [
        "▁calebasse",
        -10.04358565148908
      ],
      [
        "▁biafrais",
        -10.043585651557045
      ],
      [
        "▁Biafra",
        -10.043585652412125
      ],
      [
        "▁Abaakaliki",
        -10.043585654491856
      ],
      [
        "▁termitières",
        -10.043585654905694
      ],
      [
        "▁après-midi",
        -10.04358565715155
      ],
      [
        "▁allemande",
        -10.043585669093563
      ],
      [
        "▁Yoruba",
        -10.043585673477939
      ],
      [
        "▁“",
        -10.043585685244894
      ],
      [
        "▁mosquée",
        -10.04358569956503
      ],
      [
        "▁Anglais",
        -10.043585702808956
      ],
      [
        "▁grand-père",
        -10.043585711814364
      ],
      [
        "▁tronc",
        -10.043585716665767
      ],
      [
        "▁Cross",
        -10.043585741552661
      ],
      [
        "▁alkol",
        -10.043585752628374
      ],
      [
        "▁photographi",
        -10.043585777177253
      ],
      [
        "'occupa",
        -10.043585828299925
      ],
      [
        "▁pantalon",
        -10.04358587234778
      ],
      [
        "angoisse",
        -10.043585972983125
      ],
      [
        "▁besoin",
        -10.04358604249078
      ],
      [
        "▁chacun",
        -10.043586157762844
      ],
      [
        "▁veulent",
        -10.043586165366854
      ],
      [
        "▁kalaate",
        -10.043586504362322
      ],
      [
        "▁L'enfant",
        -10.043587065014306
      ],
      [
        "▁Sorstaawun",
        -10.043587655941167
      ],
      [
        "▁zinc",
        -10.043587859784596
      ],
      [
        "▁Moontin",
        -10.043589216716635
      ],
      [
        "▁terrible",
        -10.043589265108974
      ],
      [
        "▁gentil",
        -10.043589663510486
      ],
      [
        "▁probable",
        -10.04358971613401
      ],
      [
        "▁métier",
        -10.043590297746851
      ],
      [
        "▁assiette",
        -10.043590357151096
      ],
      [
        "▁branche",
        -10.043591941370927
      ],
      [
        "▁collines",
        -10.04359229963654
      ],
      [
        "▁xaaju",
        -10.043592552371104
      ],
      [
        "▁d'arbres",
        -10.043592751763029
      ],
      [
        "▁service",
        -10.043593543752905
      ],
      [
        "▁rejoindre",
        -10.043594403458048
      ],
      [
        "▁Aiya",
        -10.043594572176492
      ],
      [
        "▁poussière",
        -10.043595944959986
      ],
      [
        "▁compris",
        -10.043596034834133
      ],
      [
        "▁ndànk",
        -10.043597471632182
      ],
      [
        "▁ndóol",
        -10.043600088648715
      ],
      [
        "▁douche",
        -10.043600639087172
      ],
      [
        "▁fecc",
        -10.0436026171078
      ],
      [
        "▁fetal",
        -10.043605030166956
      ],
      [
        "▁brûlure",
        -10.043606153470574
      ],
      [
        "▁bërëb",
        -10.043606186466086
      ],
      [
        "▁continent",
        -10.04360864952914
      ],
      [
        "▁retraite",
        -10.043610799722831
      ],
      [
        "▁yàlla",
        -10.043610991726311
      ],
      [
        "▁nàññ",
        -10.043613336606281
      ],
      [
        "▁taaru",
        -10.043615122412518
      ],
      [
        "▁fauve",
        -10.043615232787477
      ],
      [
        "▁gànnaay",
        -10.043616400667393
      ],
      [
        "▁Guddi",
        -10.043616470989242
      ],
      [
        "▁resté",
        -10.043617333542977
      ],
      [
        "▁karaw",
        -10.043617436969866
      ],
      [
        "▁noyyi",
        -10.043623875612765
      ],
      [
        "▁apporté",
        -10.043625545171123
      ],
      [
        "▁doxantu",
        -10.043629938713245
      ],
      [
        "▁rares",
        -10.043633416774634
      ],
      [
        "▁palaat",
        -10.043634186648976
      ],
      [
        "▁ëmb",
        -10.043642802711814
      ],
      [
        "▁këll",
        -10.043647956858363
      ],
      [
        "▁j'étais",
        -10.043648835680159
      ],
      [
        "▁ondul",
        -10.043651543051187
      ],
      [
        "▁Qu'est-ce",
        -10.043680845683458
      ],
      [
        "▁soppiku",
        -10.043692231723293
      ],
      [
        "▁connaissais",
        -10.043695580244778
      ],
      [
        "▁pince",
        -10.04369767371295
      ],
      [
        "▁taille",
        -10.04371682946294
      ],
      [
        "▁mbégte",
        -10.043729073990608
      ],
      [
        "nore",
        -10.04375616144736
      ],
      [
        "▁gox",
        -10.043759980192817
      ],
      [
        "▁maintenant",
        -10.043762530654966
      ],
      [
        "▁làquji",
        -10.043764909639437
      ],
      [
        "▁delsi",
        -10.043767056682777
      ],
      [
        "▁avance",
        -10.043793834168929
      ],
      [
        "▁fowukaay",
        -10.043794261815892
      ],
      [
        "▁ndab",
        -10.043832256674946
      ],
      [
        "▁fitna",
        -10.04384810122722
      ],
      [
        "▁l'argent",
        -10.043854249032846
      ],
      [
        "▁juddu",
        -10.043870929060713
      ],
      [
        "▁oncle",
        -10.043872912686684
      ],
      [
        "science",
        -10.043883510383356
      ],
      [
        "▁awsa",
        -10.043884399844416
      ],
      [
        "▁Pourtant",
        -10.04398074990031
      ],
      [
        "▁courage",
        -10.04399242768348
      ],
      [
        "▁cercl",
        -10.04401177802386
      ],
      [
        "egarde",
        -10.044046514196431
      ],
      [
        "▁simis",
        -10.044064813104
      ],
      [
        "▁yàpp",
        -10.044088812191582
      ],
      [
        "▁raxas",
        -10.044143511489048
      ],
      [
        "-tiir",
        -10.044214334725407
      ],
      [
        "▁sàcc",
        -10.044219102762014
      ],
      [
        "▁dékku",
        -10.044328618140481
      ],
      [
        "▁ŋgoogule",
        -10.044376607787097
      ],
      [
        "▁lui-même",
        -10.044383297332324
      ],
      [
        "▁gàddaay",
        -10.044443615837368
      ],
      [
        "▁rire",
        -10.044460390964721
      ],
      [
        "▁d'eau",
        -10.044481048223792
      ],
      [
        "▁hutte",
        -10.044490287158151
      ],
      [
        "gé",
        -10.044525951416826
      ],
      [
        "▁puj",
        -10.044601593436171
      ],
      [
        "aayu",
        -10.044725992132918
      ],
      [
        "▁brave",
        -10.044797773226952
      ],
      [
        "▁assez",
        -10.044816592410674
      ],
      [
        "▁jàppukaay",
        -10.04484197379374
      ],
      [
        "▁Ñooñu",
        -10.044910079320621
      ],
      [
        "▁exemple",
        -10.044915369973227
      ],
      [
        "▁J'en",
        -10.044929226756551
      ],
      [
        "▁cacher",
        -10.044962289996361
      ],
      [
        "▁parole",
        -10.04496639254761
      ],
      [
        "▁xur",
        -10.045089625380873
      ],
      [
        "▁vivant",
        -10.045119017867211
      ],
      [
        "▁wér",
        -10.045125341470547
      ],
      [
        "▁Aw",
        -10.045187951764047
      ],
      [
        "▁précédé",
        -10.04527905428429
      ],
      [
        "▁voulu",
        -10.045820391700232
      ],
      [
        "▁ensuite",
        -10.045893892557366
      ],
      [
        "▁sensation",
        -10.045936067543417
      ],
      [
        "▁volets",
        -10.045966758005761
      ],
      [
        "▁comprends",
        -10.046019334982919
      ],
      [
        "▁melax",
        -10.046076203182968
      ],
      [
        "▁vide",
        -10.046146125000286
      ],
      [
        "▁Fo",
        -10.046176880224081
      ],
      [
        "▁fortune",
        -10.046474662958488
      ],
      [
        "▁doomi-",
        -10.046548588721663
      ],
      [
        "▁jaaxa",
        -10.046630386903908
      ],
      [
        "▁rappelle",
        -10.04672224597399
      ],
      [
        "▁njort",
        -10.046776967125428
      ],
      [
        "▁ñaxtu",
        -10.046798266530162
      ],
      [
        "▁kookee",
        -10.046908356121032
      ],
      [
        "▁tawat",
        -10.046941303552622
      ],
      [
        "▁Garab",
        -10.047167402357065
      ],
      [
        "▁màgge",
        -10.04729411686506
      ],
      [
        "▁daaneel",
        -10.04735675390232
      ],
      [
        "▁jooy",
        -10.047488828162393
      ],
      [
        "▁wóolu",
        -10.047630238479124
      ],
      [
        "▁hamacs",
        -10.047948228736072
      ],
      [
        "▁suiv",
        -10.048024017305533
      ],
      [
        "▁bleue",
        -10.04823274304004
      ],
      [
        "▁somme",
        -10.048282852315651
      ],
      [
        "▁sombre",
        -10.048301542934148
      ],
      [
        "▁tàngal",
        -10.048338148644163
      ],
      [
        "▁rive",
        -10.04855725784909
      ],
      [
        "▁doomam",
        -10.048881846403967
      ],
      [
        "▁nijaay",
        -10.049260113761516
      ],
      [
        "▁(ce",
        -10.04962997106761
      ],
      [
        "▁daawul",
        -10.04969990278109
      ],
      [
        "▁ňi",
        -10.050253026621064
      ],
      [
        "▁làqu",
        -10.05042699751489
      ],
      [
        "▁dàtt",
        -10.050591768187378
      ],
      [
        "▁couch",
        -10.050794112805827
      ],
      [
        "▁h",
        -10.051064296592475
      ],
      [
        "▁wetam",
        -10.051137093656763
      ],
      [
        "▁naaxi",
        -10.05121571705472
      ],
      [
        "▁pareil",
        -10.051222766041569
      ],
      [
        "abond",
        -10.051291931375149
      ],
      [
        "▁nouvelles",
        -10.051491013576609
      ],
      [
        "▁éclat",
        -10.051713378761843
      ],
      [
        "▁entré",
        -10.052034041666921
      ],
      [
        "▁mesure",
        -10.052399511298626
      ],
      [
        "▁revienne",
        -10.052636849121296
      ],
      [
        "▁Bunt",
        -10.052850072841176
      ],
      [
        "▁pluie",
        -10.052855641715663
      ],
      [
        "▁joge",
        -10.052869063815287
      ],
      [
        "▁yéeme",
        -10.053082951511566
      ],
      [
        "▁sec",
        -10.054330638311079
      ],
      [
        "▁feeñu",
        -10.054543997298973
      ],
      [
        "▁savoir",
        -10.054723245236211
      ],
      [
        "▁forte",
        -10.054798150233449
      ],
      [
        "▁jàkka",
        -10.054839914483177
      ],
      [
        "▁julli",
        -10.054911138850914
      ],
      [
        "▁xaritam",
        -10.055435607527595
      ],
      [
        "▁étage",
        -10.05568436674004
      ],
      [
        "celle",
        -10.056173539236196
      ],
      [
        "▁mënut",
        -10.05642530616969
      ],
      [
        "▁militaires",
        -10.05659832870909
      ],
      [
        "fippu",
        -10.057030475826895
      ],
      [
        "▁met",
        -10.05832626597164
      ],
      [
        "▁bancs",
        -10.05876941261346
      ],
      [
        "kóon",
        -10.05893850016215
      ],
      [
        "▁marcher",
        -10.059346191075413
      ],
      [
        "ières",
        -10.059577655312506
      ],
      [
        "▁be",
        -10.060345620659298
      ],
      [
        "▁troupeau",
        -10.061591762800916
      ],
      [
        "▁yëgaat",
        -10.062075450857364
      ],
      [
        "▁Men",
        -10.062339277224385
      ],
      [
        "andis",
        -10.062845340406795
      ],
      [
        "▁lire",
        -10.063023410535951
      ],
      [
        "▁Bum",
        -10.064167474785654
      ],
      [
        "▁devenus",
        -10.064440700361342
      ],
      [
        "▁guyy",
        -10.064691002373802
      ],
      [
        "▁Xare",
        -10.065022665760697
      ],
      [
        "▁croi",
        -10.065305493249316
      ],
      [
        "ati-",
        -10.06538054767876
      ],
      [
        "isme",
        -10.06554350443633
      ],
      [
        "▁retourne",
        -10.066043638787383
      ],
      [
        "▁pans",
        -10.067139264155635
      ],
      [
        "▁fermée",
        -10.067798919394825
      ],
      [
        "▁xew",
        -10.069902948927929
      ],
      [
        "▁seetu",
        -10.070125888923876
      ],
      [
        "▁ceci",
        -10.071423601277607
      ],
      [
        "▁kam",
        -10.072106512393093
      ],
      [
        "ry",
        -10.0722901914472
      ],
      [
        "▁saf",
        -10.072987047721341
      ],
      [
        "avez",
        -10.074137793804221
      ],
      [
        "▁këru",
        -10.075844271244522
      ],
      [
        "▁mënee",
        -10.076339501541531
      ],
      [
        "▁charge",
        -10.076701075619322
      ],
      [
        "▁scorpions",
        -10.077574714040347
      ],
      [
        "▁kookuu",
        -10.078192080214063
      ],
      [
        "▁dëkkoon",
        -10.079763258755369
      ],
      [
        "▁nus",
        -10.080172203750639
      ],
      [
        "▁dur",
        -10.080627037331938
      ],
      [
        "▁pré",
        -10.081144794748042
      ],
      [
        "▁impression",
        -10.082915415582232
      ],
      [
        "ndait",
        -10.083539966165198
      ],
      [
        "▁tour",
        -10.083745869211405
      ],
      [
        "▁livres",
        -10.085388937529725
      ],
      [
        "▁tiis",
        -10.085979414466271
      ],
      [
        "êtes",
        -10.086160072168378
      ],
      [
        "asi",
        -10.087551100068195
      ],
      [
        "atoo",
        -10.08829001955253
      ],
      [
        "▁wutal",
        -10.090656861117555
      ],
      [
        "▁laine",
        -10.09110701452075
      ],
      [
        "▁maîtres",
        -10.09118326205802
      ],
      [
        "▁prise",
        -10.092667002279232
      ],
      [
        "▁désir",
        -10.092825274440008
      ],
      [
        "▁àtte",
        -10.09388867439825
      ],
      [
        "ide",
        -10.094876511410654
      ],
      [
        "▁Ŋg",
        -10.096475766970375
      ],
      [
        "▁alla",
        -10.096740338534804
      ],
      [
        "sement",
        -10.096850337498093
      ],
      [
        "▁connaiss",
        -10.097363247387385
      ],
      [
        "▁grandi",
        -10.099140250535775
      ],
      [
        "▁séchée",
        -10.099319134256799
      ],
      [
        "▁four",
        -10.099524832392882
      ],
      [
        "oindre",
        -10.100469912431342
      ],
      [
        "▁nourri",
        -10.101135513801436
      ],
      [
        "▁ndo",
        -10.101228084115547
      ],
      [
        "▁sàn",
        -10.104145553866186
      ],
      [
        "'appartien",
        -10.104449657672166
      ],
      [
        "hier",
        -10.106598786942097
      ],
      [
        "▁x",
        -10.107344079825138
      ],
      [
        "▁Mii",
        -10.110571985170193
      ],
      [
        "ku",
        -10.111700542315289
      ],
      [
        "▁mënuma",
        -10.11187920650411
      ],
      [
        "▁eusse",
        -10.112147341552488
      ],
      [
        "▁niir",
        -10.113370625672955
      ],
      [
        "lé",
        -10.117839556051258
      ],
      [
        "▁jooja",
        -10.119856627825072
      ],
      [
        "▁aar",
        -10.121460304457948
      ],
      [
        "aal",
        -10.122054112862276
      ],
      [
        "▁Gu",
        -10.122185122263197
      ],
      [
        "▁posée",
        -10.125583703541878
      ],
      [
        "▁ven",
        -10.12609977057284
      ],
      [
        "▁sou",
        -10.127422040936326
      ],
      [
        "ru",
        -10.12767997346947
      ],
      [
        "ñii",
        -10.128354912174705
      ],
      [
        "sant",
        -10.12874078701126
      ],
      [
        "▁lits",
        -10.129818301296268
      ],
      [
        "▁vari",
        -10.130832755723034
      ],
      [
        "▁trou",
        -10.131537899886736
      ],
      [
        "▁seuls",
        -10.132182211469484
      ],
      [
        "son",
        -10.134104141196454
      ],
      [
        "toon",
        -10.135998826330006
      ],
      [
        "rit",
        -10.137278312733704
      ],
      [
        "▁wiy",
        -10.13757785652026
      ],
      [
        "eelu",
        -10.139649873349324
      ],
      [
        "tam",
        -10.140308898628636
      ],
      [
        "▁fur",
        -10.141784351472566
      ],
      [
        "▁sañ",
        -10.142327358559202
      ],
      [
        "daa",
        -10.144245644687802
      ],
      [
        "▁deey",
        -10.146439208610646
      ],
      [
        "gal",
        -10.148587476826
      ],
      [
        "▁Sor",
        -10.148651141295108
      ],
      [
        "▁Leur",
        -10.1490700621758
      ],
      [
        "▁Celui-",
        -10.15142859877776
      ],
      [
        "▁dugal",
        -10.153846246804493
      ],
      [
        "▁Def",
        -10.15559393165043
      ],
      [
        "▁waxe",
        -10.156346292639745
      ],
      [
        "▁dan",
        -10.160020614940313
      ],
      [
        "▁suffi",
        -10.160665047897526
      ],
      [
        "▁yàq",
        -10.160935404135884
      ],
      [
        "▁enfant-",
        -10.168299067112775
      ],
      [
        "▁plan",
        -10.168625889462572
      ],
      [
        "ër",
        -10.170832304031176
      ],
      [
        "ages",
        -10.171503879970016
      ],
      [
        "ace",
        -10.172432884714416
      ],
      [
        "u-",
        -10.173882572318803
      ],
      [
        "t-il",
        -10.174803267673989
      ],
      [
        "enti",
        -10.17637618427664
      ],
      [
        "nent",
        -10.178536346171695
      ],
      [
        "▁sau",
        -10.178823577254436
      ],
      [
        "uits",
        -10.179636913089269
      ],
      [
        "nge",
        -10.180029292162295
      ],
      [
        "▁outil",
        -10.180772862899005
      ],
      [
        "▁donner",
        -10.183226114271273
      ],
      [
        "▁chambres",
        -10.183764698993851
      ],
      [
        "▁jàppe",
        -10.185197289176777
      ],
      [
        "▁entend",
        -10.186658013505099
      ],
      [
        "'orage",
        -10.190653827703306
      ],
      [
        "gu",
        -10.191204906072231
      ],
      [
        "ka",
        -10.192498412945248
      ],
      [
        "▁pourra",
        -10.193920329039809
      ],
      [
        "iques",
        -10.196606868858836
      ],
      [
        "▁chocolat",
        -10.204109135618683
      ],
      [
        "▁coupe",
        -10.204388639553585
      ],
      [
        "▁sonn",
        -10.205356983654845
      ],
      [
        "▁armé",
        -10.208058229342797
      ],
      [
        "▁cent",
        -10.209187870371982
      ],
      [
        "vions",
        -10.209728652905081
      ],
      [
        "▁tegu",
        -10.21165419732938
      ],
      [
        "▁wàcc",
        -10.211674741636514
      ],
      [
        "ailles",
        -10.21279927259897
      ],
      [
        "bbe",
        -10.21319106070876
      ],
      [
        "óo",
        -10.216816637830862
      ],
      [
        "▁pouss",
        -10.218241421678504
      ],
      [
        "commencer",
        -10.221285735881477
      ],
      [
        "▁jé",
        -10.223761069243448
      ],
      [
        "▁venai",
        -10.223832781786765
      ],
      [
        "▁dure",
        -10.224703904531246
      ],
      [
        "dar",
        -10.225134628228417
      ],
      [
        "able",
        -10.225151883489737
      ],
      [
        "lo",
        -10.225879171359143
      ],
      [
        "▁armée",
        -10.226521365057621
      ],
      [
        "▁n'as",
        -10.227080988222239
      ],
      [
        "▁Leer",
        -10.228578250232918
      ],
      [
        "fu",
        -10.228882158718745
      ],
      [
        "aires",
        -10.229105082945644
      ],
      [
        "goom",
        -10.229877469122325
      ],
      [
        "ëm",
        -10.230677664063336
      ],
      [
        "▁rajo",
        -10.23115894194461
      ],
      [
        "▁Daawu",
        -10.231250045004941
      ],
      [
        "googule",
        -10.233056960370652
      ],
      [
        "▁ge",
        -10.2363957383801
      ],
      [
        "▁méng",
        -10.237734126041321
      ],
      [
        "▁pensé",
        -10.238007218410406
      ],
      [
        "▁différent",
        -10.238276800108913
      ],
      [
        "▁entouré",
        -10.238764166224756
      ],
      [
        "àkk",
        -10.239118630921629
      ],
      [
        "▁tam",
        -10.2407050477366
      ],
      [
        "▁quitte",
        -10.240793736045445
      ],
      [
        "▁mêl",
        -10.241100918295693
      ],
      [
        "eau",
        -10.241360823900557
      ],
      [
        "uwaay",
        -10.243112132026813
      ],
      [
        "▁ñaw",
        -10.243158132901065
      ],
      [
        "ût",
        -10.243287772632929
      ],
      [
        "▁qua",
        -10.245606987503464
      ],
      [
        "▁toj",
        -10.246123753188636
      ],
      [
        "▁arrive",
        -10.246185746352868
      ],
      [
        "▁conten",
        -10.24629902947917
      ],
      [
        "▁cont",
        -10.246372591576321
      ],
      [
        "▁sub",
        -10.247584129001758
      ],
      [
        "ins",
        -10.248638583701405
      ],
      [
        "▁éta",
        -10.251629067875218
      ],
      [
        "aurais",
        -10.252790561374171
      ],
      [
        "ŋga",
        -10.25290099340935
      ],
      [
        "▁décor",
        -10.25359381334033
      ],
      [
        "▁kà",
        -10.254554932291253
      ],
      [
        "ombre",
        -10.25559039073617
      ],
      [
        "▁miroir",
        -10.259061103684807
      ],
      [
        "▁Se",
        -10.259999791969337
      ],
      [
        "tul",
        -10.260118931387218
      ],
      [
        "▁naň",
        -10.260455424182126
      ],
      [
        "kke",
        -10.260508770726531
      ],
      [
        "allaient",
        -10.26145537685795
      ],
      [
        "wi",
        -10.262219260468735
      ],
      [
        "▁ouvert",
        -10.263318335656084
      ],
      [
        "auté",
        -10.26407309632499
      ],
      [
        "▁fui",
        -10.2658247307402
      ],
      [
        "▁découvert",
        -10.265904759119014
      ],
      [
        "▁laissé",
        -10.265970755192713
      ],
      [
        "▁natt",
        -10.266966518601565
      ],
      [
        "▁nju",
        -10.267730589860735
      ],
      [
        "▁Bul",
        -10.26962474778315
      ],
      [
        "war",
        -10.269637762055762
      ],
      [
        "▁tête",
        -10.270766383879446
      ],
      [
        "ëpp",
        -10.270794031587933
      ],
      [
        "▁sûr",
        -10.270816935787561
      ],
      [
        "▁ancien",
        -10.27185399348397
      ],
      [
        "jafe",
        -10.272663647580398
      ],
      [
        "▁affaire",
        -10.272840906735823
      ],
      [
        "ien",
        -10.272934166872144
      ],
      [
        "▁d'herbe",
        -10.272966967834556
      ],
      [
        "▁tasse",
        -10.273569822023562
      ],
      [
        "con",
        -10.273984549422604
      ],
      [
        "▁xamu",
        -10.2741423290968
      ],
      [
        "▁chef",
        -10.275399674356544
      ],
      [
        "àngi",
        -10.276169502929664
      ],
      [
        "▁tra",
        -10.276820087817374
      ],
      [
        "▁yéem",
        -10.276839559615654
      ],
      [
        "ille",
        -10.278964028847454
      ],
      [
        "ish",
        -10.27919504918298
      ],
      [
        "▁d'Ar",
        -10.279351114899296
      ],
      [
        "▁U",
        -10.279893198623636
      ],
      [
        "▁guerr",
        -10.280030146477902
      ],
      [
        "▁jam",
        -10.28035206043534
      ],
      [
        "nte",
        -10.280638647122908
      ],
      [
        "▁cré",
        -10.282062401843476
      ],
      [
        "▁Yen",
        -10.282242051982847
      ],
      [
        "▁Ko",
        -10.282377375772828
      ],
      [
        "▁golf",
        -10.282845773268983
      ],
      [
        "▁bë",
        -10.282974659671497
      ],
      [
        "▁Néeg",
        -10.283151320865162
      ],
      [
        "▁new",
        -10.283225941737225
      ],
      [
        "▁em",
        -10.283261914986076
      ],
      [
        "▁faf",
        -10.283337950218057
      ],
      [
        "▁rëbb",
        -10.283473703790593
      ],
      [
        "▁général",
        -10.283812524926695
      ],
      [
        "fal",
        -10.284249653176136
      ],
      [
        "orts",
        -10.284553893094877
      ],
      [
        "han",
        -10.286092151915733
      ],
      [
        "dire",
        -10.286320099356292
      ],
      [
        "▁taax",
        -10.286885090964144
      ],
      [
        "▁teewu",
        -10.286963649998476
      ],
      [
        "▁rend",
        -10.287359936718104
      ],
      [
        "ddina",
        -10.287603654845237
      ],
      [
        "▁kàdd",
        -10.287807447152227
      ],
      [
        "▁xii",
        -10.287839274662893
      ],
      [
        "▁indi",
        -10.2883824115637
      ],
      [
        "▁Moka",
        -10.288755551712908
      ],
      [
        "▁gëm",
        -10.288855701652974
      ],
      [
        "sion",
        -10.289625077918249
      ],
      [
        "mbres",
        -10.289749277347685
      ],
      [
        "▁Foof",
        -10.289984205539852
      ],
      [
        "at.",
        -10.290156359899392
      ],
      [
        "▁Qu'",
        -10.291578776731683
      ],
      [
        "▁accepte",
        -10.292309617199969
      ],
      [
        "cture",
        -10.292685389887806
      ],
      [
        "▁xërëm",
        -10.293198087374222
      ],
      [
        "ersonne",
        -10.29322933325767
      ],
      [
        "àww",
        -10.293267179961756
      ],
      [
        "añse",
        -10.293299934674595
      ],
      [
        "araada",
        -10.293471519023798
      ],
      [
        "3",
        -10.293560664822223
      ],
      [
        "2",
        -10.29357861459526
      ],
      [
        "▁BBC",
        -10.293585651422514
      ],
      [
        "▁l'après-midi",
        -10.293585651422529
      ],
      [
        "▁trapèze",
        -10.293585651422536
      ],
      [
        "▁discipline",
        -10.29358565142349
      ],
      [
        "▁junniy-junni",
        -10.29358565142427
      ],
      [
        "▁Harcourt",
        -10.293585651424658
      ],
      [
        "▁caravane",
        -10.293585651426284
      ],
      [
        "▁électri",
        -10.293585651432588
      ],
      [
        "▁NGo",
        -10.293585651435528
      ],
      [
        "▁Ahidjo",
        -10.29358565143871
      ],
      [
        "▁béjjén",
        -10.293585651455068
      ],
      [
        "…",
        -10.293585651462468
      ],
      [
        "D.O.",
        -10.293585651476715
      ],
      [
        "▁yëngatu",
        -10.293585651476818
      ],
      [
        "▁accepté",
        -10.293585651482518
      ],
      [
        "▁tés-tés",
        -10.293585651507511
      ],
      [
        "▁lorgnons",
        -10.293585651593412
      ],
      [
        "▁ndànk-ndànk",
        -10.293585651721752
      ],
      [
        "▁éprouv",
        -10.2935856517947
      ],
      [
        "▁rajaxe",
        -10.29358565182418
      ],
      [
        "▁retrouve",
        -10.293585652011767
      ],
      [
        "▁1948",
        -10.293585652027485
      ],
      [
        "▁1928",
        -10.293585652266826
      ],
      [
        "▁grâce",
        -10.293585652779653
      ],
      [
        "▁Bërëtaañ",
        -10.293585653344854
      ],
      [
        "▁l'extérieur",
        -10.293585653576026
      ],
      [
        "▁Kalabaar",
        -10.293585656131365
      ],
      [
        "'arachide",
        -10.293585656370718
      ],
      [
        "▁Bretagne",
        -10.293585656760545
      ],
      [
        "▁sèche",
        -10.29358565813612
      ],
      [
        "▁excessive",
        -10.293585658648329
      ],
      [
        "▁proximité",
        -10.2935856590984
      ],
      [
        "▁Europe",
        -10.29358566012474
      ],
      [
        "▁ràññe",
        -10.29358566217588
      ],
      [
        "llemands",
        -10.293585662250106
      ],
      [
        "▁Jeffries",
        -10.293585662537403
      ],
      [
        "▁trésor",
        -10.293585662732736
      ],
      [
        "▁obsession",
        -10.293585663225636
      ],
      [
        "▁saxaaru-géej",
        -10.293585665378647
      ],
      [
        "▁tekk-tekkaaral",
        -10.293585666116599
      ],
      [
        "▁Voyage",
        -10.293585666808408
      ],
      [
        "▁ruisseau",
        -10.293585674620822
      ],
      [
        "▁Calabar",
        -10.293585679427647
      ],
      [
        "▁Ñëw",
        -10.293585682314244
      ],
      [
        "▁officier",
        -10.293585687131156
      ],
      [
        "▁juróom-ň",
        -10.29358571489109
      ],
      [
        "▁sibbiru",
        -10.293585722775825
      ],
      [
        "▁alentour",
        -10.293585804419333
      ],
      [
        "▁ndanka",
        -10.293585820255354
      ],
      [
        "▁décrit",
        -10.29358585953236
      ],
      [
        "▁bavarda",
        -10.29358588787511
      ],
      [
        "▁njege",
        -10.293585971662079
      ],
      [
        "▁disparu",
        -10.29358602716901
      ],
      [
        "▁kilomet",
        -10.293586090467553
      ],
      [
        "▁présence",
        -10.293586111655788
      ],
      [
        "▁tropicale",
        -10.293586126885952
      ],
      [
        "▁radio",
        -10.2935862416421
      ],
      [
        "▁légende",
        -10.293586376573806
      ],
      [
        "▁cliché",
        -10.293586408046247
      ],
      [
        "▁fabriqu",
        -10.293586433154992
      ],
      [
        "▁Chuku",
        -10.2935864584275
      ],
      [
        "▁possible",
        -10.293586612360382
      ],
      [
        "▁extraordinaire",
        -10.293586621737095
      ],
      [
        "▁vieillard",
        -10.293586823276163
      ],
      [
        "▁pénétr",
        -10.29358694922443
      ],
      [
        "▁l'abri",
        -10.293587123449957
      ],
      [
        "▁bakkan",
        -10.293587695785863
      ],
      [
        "▁Birayim",
        -10.293588134141782
      ],
      [
        "▁accroche",
        -10.293588290326348
      ],
      [
        "▁l'hum",
        -10.293588408274683
      ],
      [
        "▁fauteuil",
        -10.293588413205772
      ],
      [
        "▁répond",
        -10.2935891991323
      ],
      [
        "▁guyaab",
        -10.293590139851478
      ],
      [
        "▁genre",
        -10.293590666496888
      ],
      [
        "▁magasin",
        -10.29359107500093
      ],
      [
        "▁Alfa",
        -10.293591170127803
      ],
      [
        "▁ëlëk",
        -10.293591910097367
      ],
      [
        "▁terrain",
        -10.293592832238845
      ],
      [
        "▁Salut",
        -10.29359286754026
      ],
      [
        "▁mbemb",
        -10.293593203747644
      ],
      [
        "▁gazelle",
        -10.29359935968428
      ],
      [
        "▁coow",
        -10.29359936588317
      ],
      [
        "▁l'aube",
        -10.2936014585089
      ],
      [
        "▁règne",
        -10.293602862184994
      ],
      [
        "▁fonction",
        -10.293604292003998
      ],
      [
        "▁imagin",
        -10.293604427880584
      ],
      [
        "▁sept",
        -10.293605207976233
      ],
      [
        "▁toilettes",
        -10.293605376755789
      ],
      [
        "▁interdit",
        -10.293605628542213
      ],
      [
        "▁Kipli",
        -10.293609605791307
      ],
      [
        "▁1968",
        -10.29361172942861
      ],
      [
        "▁jërr",
        -10.293612320508808
      ],
      [
        "▁weesu",
        -10.293613663349168
      ],
      [
        "▁Demuloo",
        -10.29361433554421
      ],
      [
        "▁Gaynd",
        -10.29361602662539
      ],
      [
        "▁plats",
        -10.293617350293186
      ],
      [
        "▁poitrine",
        -10.293619133057694
      ],
      [
        "▁ràpp",
        -10.293619400845923
      ],
      [
        "▁fanweer",
        -10.293619454023762
      ],
      [
        "▁dëll",
        -10.293621561879366
      ],
      [
        "▁moyen",
        -10.293625239434695
      ],
      [
        "▁firndeel",
        -10.293627344741433
      ],
      [
        "00",
        -10.293628343120748
      ],
      [
        "▁Confi",
        -10.2936283570422
      ],
      [
        "▁xayma",
        -10.293629342512968
      ],
      [
        "▁effect",
        -10.2936371862094
      ],
      [
        "▁Agsil",
        -10.293638662934526
      ],
      [
        "▁séq",
        -10.29364127206563
      ],
      [
        "▁conduis",
        -10.293642931501777
      ],
      [
        "▁soxal",
        -10.29364444742461
      ],
      [
        "▁bënn",
        -10.293646378100576
      ],
      [
        "▁revenu",
        -10.293646525241169
      ],
      [
        "▁meetar",
        -10.29365124280109
      ],
      [
        "▁caract",
        -10.293651642280786
      ],
      [
        "▁ňàkk",
        -10.293655676737608
      ],
      [
        "▁nangoo",
        -10.293657368152116
      ],
      [
        "▁móobal",
        -10.293660028488334
      ],
      [
        "▁maasaloo",
        -10.2936706811637
      ],
      [
        "▁mbindeef",
        -10.293672563492768
      ],
      [
        "▁baobab",
        -10.293674850908511
      ],
      [
        "▁Au-dessus",
        -10.293682994904456
      ],
      [
        "▁heureux",
        -10.29368313693111
      ],
      [
        "▁dëppoo",
        -10.29369973241529
      ],
      [
        "▁naître",
        -10.293714724652073
      ],
      [
        "▁daŋar",
        -10.293715294388981
      ],
      [
        "▁habituellement",
        -10.293715956081519
      ],
      [
        "▁bãŋ",
        -10.293718763083241
      ],
      [
        "▁way-",
        -10.293723518018822
      ],
      [
        "▁rapidement",
        -10.293728632846717
      ],
      [
        "▁comprendre",
        -10.293736962796546
      ],
      [
        "▁flamme",
        -10.29374129290991
      ],
      [
        "▁lentement",
        -10.29374136500312
      ],
      [
        "▁foudre",
        -10.293742338117033
      ],
      [
        "▁verra",
        -10.293760698345366
      ],
      [
        "ège",
        -10.29376109836221
      ],
      [
        "▁peine",
        -10.293767586930711
      ],
      [
        "▁s'installe",
        -10.293771185664848
      ],
      [
        "▁lëmm",
        -10.293773240245343
      ],
      [
        "▁fureur",
        -10.29377566391923
      ],
      [
        "▁capable",
        -10.293841005947266
      ],
      [
        "▁Dieu",
        -10.29384373445299
      ],
      [
        "▁perdre",
        -10.293844212100119
      ],
      [
        "▁tubay",
        -10.293848439963828
      ],
      [
        "▁Mbam",
        -10.293867143971633
      ],
      [
        "▁pension",
        -10.293877853756701
      ],
      [
        "▁gosse",
        -10.293884083120115
      ],
      [
        "▁Combi",
        -10.293892863928535
      ],
      [
        "▁pegg",
        -10.29389860621275
      ],
      [
        "▁màtt",
        -10.293954728260166
      ],
      [
        "▁commencé",
        -10.293963142603381
      ],
      [
        "▁simila",
        -10.293971184260055
      ],
      [
        "▁fièvre",
        -10.293996995201258
      ],
      [
        "▁install",
        -10.29401127882654
      ],
      [
        "▁taq",
        -10.294015809158465
      ],
      [
        "▁bruit",
        -10.294018905667661
      ],
      [
        "▁Ñaar",
        -10.294033314325498
      ],
      [
        "▁contraire",
        -10.294046717846488
      ],
      [
        "▁prière",
        -10.294071784261053
      ],
      [
        "▁serré",
        -10.294086106899977
      ],
      [
        "▁soxor",
        -10.294090321597835
      ],
      [
        "▁gëléem",
        -10.294106259699102
      ],
      [
        "▁Banyo",
        -10.294111126701559
      ],
      [
        "▁xaj",
        -10.294123041398866
      ],
      [
        "▁frappions",
        -10.294172540577796
      ],
      [
        "▁Looloo",
        -10.29418939511993
      ],
      [
        "▁chocolatée",
        -10.294216880196121
      ],
      [
        "▁l'indépendance",
        -10.29426540890609
      ],
      [
        "▁caisse",
        -10.294277359186205
      ],
      [
        "▁voudrait",
        -10.294316890058104
      ],
      [
        "▁woowa",
        -10.294323622179064
      ],
      [
        "▁Bateri",
        -10.294335185662234
      ],
      [
        "▁Joor",
        -10.294360924066538
      ],
      [
        "▁Ho",
        -10.294386883945899
      ],
      [
        "▁absent",
        -10.294387327146303
      ],
      [
        "▁Dégg",
        -10.294405048438682
      ],
      [
        "▁oublier",
        -10.294476814961858
      ],
      [
        "▁yemale",
        -10.294488935409099
      ],
      [
        "▁sooke",
        -10.294495806264397
      ],
      [
        "▁miirloo",
        -10.29453100528334
      ],
      [
        "▁rose",
        -10.294663872933754
      ],
      [
        "▁Bamako",
        -10.294685752986867
      ],
      [
        "▁portale",
        -10.29470484591912
      ],
      [
        "itié",
        -10.29473014851683
      ],
      [
        "▁meññ",
        -10.294764630319303
      ],
      [
        "▁échappé",
        -10.294802703744516
      ],
      [
        "-réew",
        -10.294847330420534
      ],
      [
        "▁marqué",
        -10.294854014164954
      ],
      [
        "▁tuuru",
        -10.294887542365878
      ],
      [
        "▁ràkkaaju",
        -10.294891020476337
      ],
      [
        "▁aigu",
        -10.294917963810798
      ],
      [
        "▁dég",
        -10.295001536859932
      ],
      [
        "-lu",
        -10.295070560635136
      ],
      [
        "▁raconté",
        -10.295075663511884
      ],
      [
        "▁fen",
        -10.295129352542101
      ],
      [
        "▁bég",
        -10.295222197287499
      ],
      [
        "▁prendre",
        -10.295224388416692
      ],
      [
        "▁Xaw",
        -10.295276449116217
      ],
      [
        "▁élevé",
        -10.295292701005247
      ],
      [
        "▁d'entre",
        -10.2952936859019
      ],
      [
        "▁poudre",
        -10.295295031410904
      ],
      [
        "▁remis",
        -10.295438710837754
      ],
      [
        "▁causé",
        -10.295502341660214
      ],
      [
        "▁d'habitude",
        -10.295520449090882
      ],
      [
        "▁Tann",
        -10.29564768520924
      ],
      [
        "▁càkk",
        -10.295675406960928
      ],
      [
        "▁charme",
        -10.295713167701734
      ],
      [
        "▁kookale",
        -10.295727368319891
      ],
      [
        "▁n'importe",
        -10.295737295074158
      ],
      [
        "▁brûlant",
        -10.295794269115882
      ],
      [
        "▁muraille",
        -10.295806095784673
      ],
      [
        "▁surveill",
        -10.295904514250736
      ],
      [
        "▁dikkul",
        -10.295937117675589
      ],
      [
        "▁dijj",
        -10.295949660273228
      ],
      [
        "roya",
        -10.295971910907689
      ],
      [
        "▁pétrole",
        -10.296034692648439
      ],
      [
        "▁móol",
        -10.29607374496719
      ],
      [
        "▁Mbir",
        -10.296089990770843
      ],
      [
        "▁qu'en",
        -10.296093444832758
      ],
      [
        "▁Demuma",
        -10.296206618398102
      ],
      [
        "▁Demkoon",
        -10.296239352222956
      ],
      [
        "▁panier",
        -10.296313558988878
      ],
      [
        "▁léeg",
        -10.296423001278217
      ],
      [
        "▁soirée",
        -10.296436184267492
      ],
      [
        "▁penku",
        -10.296529213725645
      ],
      [
        "▁im",
        -10.296656048943305
      ],
      [
        "erig",
        -10.296685224421184
      ],
      [
        "▁sœurs",
        -10.296763005460177
      ],
      [
        "▁juges",
        -10.296772915793522
      ],
      [
        "▁déci",
        -10.296816784983353
      ],
      [
        "▁tëgg",
        -10.296949639718676
      ],
      [
        "▁cultive",
        -10.296964269015561
      ],
      [
        "▁yeggee",
        -10.29699507908974
      ],
      [
        "empire",
        -10.2970859278596
      ],
      [
        "rass",
        -10.297247694925542
      ],
      [
        "▁exerc",
        -10.297310727935141
      ],
      [
        "ulëer",
        -10.297368201483819
      ],
      [
        "▁matinée",
        -10.29741007709432
      ],
      [
        "▁oreilles",
        -10.297573266401859
      ],
      [
        "▁weg",
        -10.29758922797942
      ],
      [
        "-der",
        -10.297645265375708
      ],
      [
        "▁sàmm",
        -10.297761861219115
      ],
      [
        "▁fowu",
        -10.298236371281627
      ],
      [
        "▁néegu-",
        -10.298437570990858
      ],
      [
        "▁Mokaa",
        -10.298440954826301
      ],
      [
        "▁jog",
        -10.298483596591101
      ],
      [
        "tiens",
        -10.298501484190574
      ],
      [
        "▁sell",
        -10.298600791621306
      ],
      [
        "▁tëwa",
        -10.298643832548596
      ],
      [
        "▁kaki",
        -10.298669166240488
      ],
      [
        "▁corde",
        -10.298673500601844
      ],
      [
        "cousu",
        -10.298811922165015
      ],
      [
        "▁tente",
        -10.298824449611493
      ],
      [
        "▁wàll",
        -10.298950008587559
      ],
      [
        "▁xobi",
        -10.299218016070043
      ],
      [
        "▁accepter",
        -10.299224087269845
      ],
      [
        "▁joow",
        -10.29941610073514
      ],
      [
        "▁sommet",
        -10.299501063730066
      ],
      [
        "óoy",
        -10.299521146519337
      ],
      [
        "▁puur",
        -10.299522066513983
      ],
      [
        "▁you",
        -10.299593743262985
      ],
      [
        "▁rendu",
        -10.299690542751051
      ],
      [
        "-tuut",
        -10.299718960293522
      ],
      [
        "▁cri",
        -10.299804420987929
      ],
      [
        "▁dress",
        -10.30025656057111
      ],
      [
        "▁libre",
        -10.30060891227316
      ],
      [
        "▁way-juram",
        -10.300914464290678
      ],
      [
        "▁Nun",
        -10.301028733860914
      ],
      [
        "▁ñaaw",
        -10.301327446670259
      ],
      [
        "▁tub",
        -10.301331488306321
      ],
      [
        "▁marque",
        -10.301640612841473
      ],
      [
        "▁étrange",
        -10.301708326485464
      ],
      [
        "▁waaxu",
        -10.30204244728551
      ],
      [
        "▁chaise",
        -10.302415339375962
      ],
      [
        "▁Amin",
        -10.302762967611919
      ],
      [
        "▁gës",
        -10.30290030982056
      ],
      [
        "▁xer",
        -10.303753305885374
      ],
      [
        "▁mbooloo",
        -10.303767354625215
      ],
      [
        "▁battu",
        -10.303930634614856
      ],
      [
        "▁xa",
        -10.303982185716617
      ],
      [
        "▁rëbbi",
        -10.304231605655758
      ],
      [
        "boo",
        -10.304284375512797
      ],
      [
        "▁kilomètres",
        -10.304414536270203
      ],
      [
        "▁fruits",
        -10.304425529336246
      ],
      [
        "▁naŋg",
        -10.304480691814275
      ],
      [
        "▁Éta",
        -10.305275208720523
      ],
      [
        "▁demain",
        -10.30529249496571
      ],
      [
        "▁ver",
        -10.305655472769299
      ],
      [
        "▁dundam",
        -10.305907356693075
      ],
      [
        "▁kayit",
        -10.30599536500937
      ],
      [
        "▁kooka",
        -10.306050308462867
      ],
      [
        "mmeel",
        -10.30637624692967
      ],
      [
        "▁faax",
        -10.306382136473474
      ],
      [
        "▁d'enfants",
        -10.306632040284299
      ],
      [
        "▁xóot",
        -10.30668498275781
      ],
      [
        "▁lenn",
        -10.306789322010154
      ],
      [
        "▁jàppoon",
        -10.30759459968413
      ],
      [
        "▁ger",
        -10.307724415056118
      ],
      [
        "▁secondes",
        -10.307914168961094
      ],
      [
        "▁roo",
        -10.307974104281149
      ],
      [
        "▁vagues",
        -10.308114501755613
      ],
      [
        "bët",
        -10.308310453754311
      ],
      [
        "emelle",
        -10.308500676196758
      ],
      [
        "▁Wa",
        -10.30868767127679
      ],
      [
        "▁l'est",
        -10.30872152980436
      ],
      [
        "▁manque",
        -10.308845586429253
      ],
      [
        "▁pax",
        -10.30892153970531
      ],
      [
        "▁idée",
        -10.309206552422854
      ],
      [
        "▁Dañu",
        -10.30929178372573
      ],
      [
        "▁guis",
        -10.309943071672413
      ],
      [
        "▁jeux",
        -10.310134326939309
      ],
      [
        "▁créé",
        -10.310169460855278
      ],
      [
        "ément",
        -10.31063881988312
      ],
      [
        "▁fameuse",
        -10.310716016852508
      ],
      [
        "▁baň",
        -10.311917038700704
      ],
      [
        "▁yóbb",
        -10.311983067244544
      ],
      [
        "▁sipp",
        -10.31255149524667
      ],
      [
        "▁pé",
        -10.31285271286135
      ],
      [
        "▁construi",
        -10.31292693084706
      ],
      [
        "▁ti",
        -10.312937504866138
      ],
      [
        "gante",
        -10.313017136863541
      ],
      [
        "▁diine",
        -10.313042699856112
      ],
      [
        "▁Aka",
        -10.313882071183263
      ],
      [
        "▁jaa",
        -10.313896071227244
      ],
      [
        "▁diggu",
        -10.314107528138518
      ],
      [
        "▁muus",
        -10.314735066369636
      ],
      [
        "àll",
        -10.315681342825208
      ],
      [
        "tal",
        -10.315968015026026
      ],
      [
        "▁dootu",
        -10.316150096542334
      ],
      [
        "mo",
        -10.316737571000273
      ],
      [
        "▁Nag",
        -10.3174621202543
      ],
      [
        "ar.",
        -10.318065896451088
      ],
      [
        "'habitude",
        -10.31865188169693
      ],
      [
        "▁auto",
        -10.320602557978008
      ],
      [
        "oroom",
        -10.321239470185638
      ],
      [
        "▁découverte",
        -10.322052260082668
      ],
      [
        "▁demuñu",
        -10.322237631308454
      ],
      [
        "▁anciens",
        -10.322918309585845
      ],
      [
        "▁gale",
        -10.323065806643758
      ],
      [
        "'exerce",
        -10.323145967391195
      ],
      [
        "▁n'ira",
        -10.324021784424252
      ],
      [
        "lal",
        -10.32416395590925
      ],
      [
        "▁diir",
        -10.324235214550251
      ],
      [
        "tin",
        -10.324452955500602
      ],
      [
        "▁partent",
        -10.324508423915972
      ],
      [
        "à-",
        -10.324980106149422
      ],
      [
        "▁bàn",
        -10.325142167214413
      ],
      [
        "▁maladies",
        -10.325221655135161
      ],
      [
        "▁ouverte",
        -10.325243760572363
      ],
      [
        "▁nd",
        -10.325760637744644
      ],
      [
        "▁toogoon",
        -10.327089213404202
      ],
      [
        "▁Xo",
        -10.327780102630857
      ],
      [
        "▁mur",
        -10.328705833723548
      ],
      [
        "▁sépar",
        -10.329527276213701
      ],
      [
        "▁defaree",
        -10.32954521506029
      ],
      [
        "▁att",
        -10.330711213768286
      ],
      [
        "▁Nee",
        -10.331827838297158
      ],
      [
        "ëtt",
        -10.33232710483943
      ],
      [
        "▁jafee",
        -10.332713427549091
      ],
      [
        "▁ras",
        -10.332861823830294
      ],
      [
        "▁sib",
        -10.334677824920393
      ],
      [
        "ňu",
        -10.334877241199225
      ],
      [
        "▁Dina",
        -10.335392075061456
      ],
      [
        "▁voyai",
        -10.335415476371663
      ],
      [
        "▁waxi",
        -10.33602081865684
      ],
      [
        "▁instants",
        -10.336041137603795
      ],
      [
        "▁dessiné",
        -10.336432183434221
      ],
      [
        "ju",
        -10.336604437693081
      ],
      [
        "▁Doon",
        -10.336954947256197
      ],
      [
        "▁Aa",
        -10.337506420257803
      ],
      [
        "▁fum",
        -10.338017337026116
      ],
      [
        "▁mbal",
        -10.338686200488082
      ],
      [
        "▁répu",
        -10.338999618074373
      ],
      [
        "▁Car",
        -10.339109329114368
      ],
      [
        "▁Kakaa",
        -10.339815128448363
      ],
      [
        "indre",
        -10.340470833977928
      ],
      [
        "▁grise",
        -10.341262208908189
      ],
      [
        "▁rob",
        -10.341549539947213
      ],
      [
        "▁wi.",
        -10.341552882599778
      ],
      [
        "elu",
        -10.342607038671076
      ],
      [
        "laay",
        -10.343487795320273
      ],
      [
        "▁cat",
        -10.346822018006055
      ],
      [
        "▁ker",
        -10.346838652426822
      ],
      [
        "▁ňa",
        -10.347701126576467
      ],
      [
        "▁haute",
        -10.347812510247799
      ],
      [
        "▁chameau",
        -10.35001907924779
      ],
      [
        "co",
        -10.352442806175537
      ],
      [
        "ddi",
        -10.352464853515373
      ],
      [
        "aak",
        -10.35292219601424
      ],
      [
        "▁méngale",
        -10.353026839348113
      ],
      [
        "▁jë",
        -10.353203185891504
      ],
      [
        "rai",
        -10.35352539969701
      ],
      [
        "▁yare",
        -10.35381837233715
      ],
      [
        "obul",
        -10.356399146918903
      ],
      [
        "innaaw",
        -10.356593155816146
      ],
      [
        "▁tableau",
        -10.356747575694751
      ],
      [
        "▁dig",
        -10.356847455178803
      ],
      [
        "▁cr",
        -10.357050416836515
      ],
      [
        "ois",
        -10.357102489283868
      ],
      [
        "ston",
        -10.35724181534496
      ],
      [
        "▁cas",
        -10.358841878528038
      ],
      [
        "▁char",
        -10.359215262849274
      ],
      [
        "▁Lui",
        -10.360794946612456
      ],
      [
        "▁arriv",
        -10.361259371649291
      ],
      [
        "▁Mari",
        -10.362489534979375
      ],
      [
        "▁devenue",
        -10.363862191271418
      ],
      [
        "ards",
        -10.36417842237304
      ],
      [
        "añe",
        -10.3648830894304
      ],
      [
        "▁sot",
        -10.36507836709416
      ],
      [
        "▁àndal",
        -10.367025652060105
      ],
      [
        "▁vol",
        -10.367397704513733
      ],
      [
        "alement",
        -10.371038288250231
      ],
      [
        "waay",
        -10.372792632493336
      ],
      [
        "-même",
        -10.373983845790049
      ],
      [
        "oire",
        -10.377528157287337
      ],
      [
        "▁cartes",
        -10.378798375410623
      ],
      [
        "▁rouges",
        -10.379124500398879
      ],
      [
        "▁pri",
        -10.379528772484742
      ],
      [
        "▁filles",
        -10.379896237760308
      ],
      [
        "stique",
        -10.379939044162393
      ],
      [
        "▁aventure",
        -10.383272708889699
      ],
      [
        "▁jigéen.",
        -10.384818668968656
      ],
      [
        "ations",
        -10.385934105137451
      ],
      [
        "▁n'aurai",
        -10.386206929515918
      ],
      [
        "▁médecine",
        -10.386539776149188
      ],
      [
        "deux",
        -10.386837953987204
      ],
      [
        "fi",
        -10.390961976640087
      ],
      [
        "▁leçon",
        -10.391311154570314
      ],
      [
        "▁xamoon",
        -10.392945578316022
      ],
      [
        "▁int",
        -10.393207464541769
      ],
      [
        "▁voici",
        -10.39353374238102
      ],
      [
        "faites",
        -10.393787931258473
      ],
      [
        "▁jógee",
        -10.394657289132864
      ],
      [
        "ah",
        -10.397474488629364
      ],
      [
        "entre",
        -10.397546662923993
      ],
      [
        "▁xat",
        -10.39963091553376
      ],
      [
        "banaan",
        -10.40339594169171
      ],
      [
        "prè",
        -10.404153691904709
      ],
      [
        "▁ri",
        -10.405024290758863
      ],
      [
        "▁demb",
        -10.406733020595528
      ],
      [
        "▁dunde",
        -10.406856062121925
      ],
      [
        "aises",
        -10.40717888112734
      ],
      [
        "▁conti",
        -10.410247385174257
      ],
      [
        "▁pointe",
        -10.410726227254004
      ],
      [
        "▁continu",
        -10.410978130462487
      ],
      [
        "rgent",
        -10.411123904245013
      ],
      [
        "stice",
        -10.41247078296835
      ],
      [
        "-kow",
        -10.412632750314067
      ],
      [
        "ga",
        -10.412690749145954
      ],
      [
        "▁Gisu",
        -10.413042607932072
      ],
      [
        "▁seri",
        -10.413811898236455
      ],
      [
        "▁ndeysaan.",
        -10.414138805785758
      ],
      [
        "▁njàmba",
        -10.422211410510922
      ],
      [
        "ouille",
        -10.42247566468131
      ],
      [
        "▁her",
        -10.422906252813188
      ],
      [
        "▁ch",
        -10.428623012196745
      ],
      [
        "▁dos",
        -10.430059339640541
      ],
      [
        "▁Gi",
        -10.430252163135334
      ],
      [
        "été",
        -10.436256032199761
      ],
      [
        "▁con",
        -10.438534116546535
      ],
      [
        "ekte",
        -10.439396954059188
      ],
      [
        "▁jëmm",
        -10.439671057040123
      ],
      [
        "▁fini",
        -10.439853546422828
      ],
      [
        "▁tama",
        -10.441286667840172
      ],
      [
        "▁form",
        -10.441397241036434
      ],
      [
        "écu",
        -10.441406208045821
      ],
      [
        "ole",
        -10.441489428926541
      ],
      [
        "nie",
        -10.441532447931639
      ],
      [
        "lée",
        -10.442278691220245
      ],
      [
        "▁nuits",
        -10.442938697664111
      ],
      [
        "▁sida",
        -10.446431920471683
      ],
      [
        "oor",
        -10.446488845226828
      ],
      [
        "▁yàqu",
        -10.446872687799084
      ],
      [
        "▁chi",
        -10.447719901932595
      ],
      [
        "noo",
        -10.448103988897515
      ],
      [
        "▁l'inst",
        -10.452954958602723
      ],
      [
        "▁l'on",
        -10.455918178257779
      ],
      [
        "▁yemu",
        -10.456092863046473
      ],
      [
        "▁touch",
        -10.462221406127785
      ],
      [
        "ttes",
        -10.46396807009058
      ],
      [
        "▁l'in",
        -10.466577733335214
      ],
      [
        "ee.",
        -10.466779337723562
      ],
      [
        "ève",
        -10.469586591898999
      ],
      [
        "▁ñee",
        -10.470012163665567
      ],
      [
        "▁racont",
        -10.470231630997425
      ],
      [
        "aloon",
        -10.472102087653195
      ],
      [
        "▁allai",
        -10.47296656645454
      ],
      [
        "▁soul",
        -10.473674271697226
      ],
      [
        "▁accompagne",
        -10.47506810311325
      ],
      [
        "▁rec",
        -10.481463046071003
      ],
      [
        "ère.",
        -10.481571749945665
      ],
      [
        "▁pli",
        -10.482676256680898
      ],
      [
        "▁anim",
        -10.483889331455128
      ],
      [
        "▁danañ",
        -10.4848549740201
      ],
      [
        "rète",
        -10.48500935451778
      ],
      [
        "▁tus",
        -10.485032996310206
      ],
      [
        "▁m'",
        -10.486477771811945
      ],
      [
        "alal",
        -10.48687606466815
      ],
      [
        "po",
        -10.48785687919343
      ],
      [
        "▁teqal",
        -10.489267708064872
      ],
      [
        "▁fowe",
        -10.49266269756697
      ],
      [
        "dre",
        -10.493292138032901
      ],
      [
        "▁ño",
        -10.495664306657957
      ],
      [
        "ser",
        -10.496458341242093
      ],
      [
        "▁quitt",
        -10.496459861845057
      ],
      [
        "▁kas",
        -10.498561096806746
      ],
      [
        "kkal",
        -10.499532059251937
      ],
      [
        "▁lë",
        -10.499565295032834
      ],
      [
        "▁Ng",
        -10.504001687224836
      ],
      [
        "i-",
        -10.505626758245091
      ],
      [
        "▁Certain",
        -10.506288098078324
      ],
      [
        "▁yatt",
        -10.506289580828874
      ],
      [
        "▁mënoo",
        -10.507044564674464
      ],
      [
        "koo",
        -10.507161205746604
      ],
      [
        "▁Toog",
        -10.510716205331908
      ],
      [
        "▁cor",
        -10.511327468345025
      ],
      [
        "▁bale",
[...]
