{
  "version": "1.0",
  "truncation": null,
  "padding": null,
  "added_tokens": [
    {
      "id": 0,
      "content": "<cls>",
      "single_word": false,
      "lstrip": false,
      "rstrip": false,
      "normalized": false,
      "special": true
    },
    {
      "id": 1,
      "content": "<sep>",
      "single_word": false,
      "lstrip": false,
      "rstrip": false,
      "normalized": false,
      "special": true
    },
    {
      "id": 2,
      "content": "<unk>",
      "single_word": false,
      "lstrip": false,
      "rstrip": false,
      "normalized": false,
      "special": true
    },
    {
      "id": 3,
      "content": "<pad>",
      "single_word": false,
      "lstrip": false,
      "rstrip": false,
      "normalized": false,
      "special": true
    },
    {
      "id": 4,
      "content": "<mask>",
      "single_word": false,
      "lstrip": false,
      "rstrip": false,
      "normalized": false,
      "special": true
    },
    {
      "id": 5,
      "content": "<s>",
      "single_word": false,
      "lstrip": false,
      "rstrip": false,
      "normalized": false,
      "special": true
    },
    {
      "id": 6,
      "content": "</s>",
      "single_word": false,
      "lstrip": false,
      "rstrip": false,
      "normalized": false,
      "special": true
    }
  ],
  "normalizer": null,
  "pre_tokenizer": {
    "type": "Metaspace",
    "replacement": "▁",
    "add_prefix_space": true
  },
  "post_processor": null,
  "decoder": {
    "type": "Metaspace",
    "replacement": "▁",
    "add_prefix_space": true
  },
  "model": {
    "type": "Unigram",
    "unk_id": 2,
    "vocab": [
      [
        "<cls>",
        0.0
      ],
      [
        "<sep>",
        0.0
      ],
      [
        "<unk>",
        0.0
      ],
      [
        "<pad>",
        0.0
      ],
      [
        "<mask>",
        0.0
      ],
      [
        "<s>",
        0.0
      ],
      [
        "</s>",
        0.0
      ],
      [
        ",",
        -2.849898208828389
      ],
      [
        "▁",
        -3.1380505586398435
      ],
      [
        ".",
        -3.3464686096189737
      ],
      [
        "▁ci",
        -3.8878840828837955
      ],
      [
        "y",
        -3.890161062334192
      ],
      [
        "i",
        -4.219750771028325
      ],
      [
        "a",
        -4.274219123882104
      ],
      [
        "u",
        -4.506678068473801
      ],
      [
        "▁ni",
        -4.509687264591657
      ],
      [
        "▁mu",
        -4.546815179769
      ],
      [
        "▁ko",
        -4.657264338194398
      ],
      [
        "▁ba",
        -4.690506436964801
      ],
      [
        "ak",
        -4.715152213694489
      ],
      [
        "▁ma",
        -4.790988079509067
      ],
      [
        "▁di",
        -4.793370507367288
      ],
      [
        "▁la",
        -4.8625982979473426
      ],
      [
        "▁bi",
        -4.912139302291838
      ],
      [
        "▁a",
        -4.951143658506357
      ],
      [
        "▁yi",
        -4.986480749310441
      ],
      [
        "▁ñu",
        -5.013840357198854
      ],
      [
        "▁yu",
        -5.032277962051902
      ],
      [
        "e",
        -5.070729034052783
      ],
      [
        "▁bu",
        -5.149125880947037
      ],
      [
        "▁na",
        -5.1625344078686375
      ],
      [
        "▁seen",
        -5.229031034857684
      ],
      [
        "▁sama",
        -5.229236320827421
      ],
      [
        "▁fa",
        -5.280282058677134
      ],
      [
        "▁daan",
        -5.303921365590836
      ],
      [
        "k",
        -5.357731710660012
      ],
      [
        "▁woon",
        -5.385099191634132
      ],
      [
        "oon",
        -5.461252302532214
      ],
      [
        "l",
        -5.493238669438878
      ],
      [
        "▁te",
        -5.499092582723775
      ],
      [
        "▁ca",
        -5.504272489348962
      ],
      [
        "▁lu",
        -5.5079968214353405
      ],
      [
        "▁doon",
        -5.512177315157917
      ],
      [
        "▁Baay",
        -5.539740734869476
      ],
      [
        "▁ngi",
        -5.557910762721458
      ],
      [
        "▁leen",
        -5.621248949910513
      ],
      [
        "▁Afrig",
        -5.624691116108948
      ],
      [
        "am",
        -5.651031245315405
      ],
      [
        "▁gi",
        -5.672565638220856
      ],
      [
        "n",
        -5.740486736698836
      ],
      [
        "ee",
        -5.785962016041273
      ],
      [
        "▁sax",
        -5.797616818807095
      ],
      [
        "▁du",
        -5.829578995638353
      ],
      [
        "m",
        -5.844514949007545
      ],
      [
        ":",
        -5.858226391205664
      ],
      [
        "▁ya",
        -5.894446652254042
      ],
      [
        "g",
        -5.913163018228112
      ],
      [
        "▁ne",
        -5.953400327129467
      ],
      [
        "▁nu",
        -5.984717126962718
      ],
      [
        "b",
        -5.989977283095791
      ],
      [
        "▁mel",
        -6.015023432266578
      ],
      [
        "▁ay",
        -6.031519562797579
      ],
      [
        "al",
        -6.03722564911832
      ],
      [
        "▁li",
        -6.050617164244187
      ],
      [
        "▁mi",
        -6.09132227291936
      ],
      [
        "▁moo",
        -6.094815953789147
      ],
      [
        "▁nga",
        -6.0963726021994775
      ],
      [
        "ul",
        -6.117193951114848
      ],
      [
        "▁dem",
        -6.130516919580158
      ],
      [
        "▁su",
        -6.138242146481495
      ],
      [
        "▁naa",
        -6.169953490890352
      ],
      [
        "▁moom",
        -6.1790412490795825
      ],
      [
        "▁benn",
        -6.200200853254416
      ],
      [
        "▁may",
        -6.259047149649356
      ],
      [
        "▁dal",
        -6.277455659128057
      ],
      [
        "▁nekk",
        -6.292607387631072
      ],
      [
        "oo",
        -6.296447146571675
      ],
      [
        "▁am",
        -6.323286397279368
      ],
      [
        "▁mën",
        -6.327105864957383
      ],
      [
        "▁def",
        -6.329462000261891
      ],
      [
        "▁ku",
        -6.3432317334418125
      ],
      [
        "▁xam",
        -6.346490784820764
      ],
      [
        "▁gu",
        -6.349072964285868
      ],
      [
        "▁?",
        -6.352988649387374
      ],
      [
        "▁kenn",
        -6.361417710203336
      ],
      [
        "ñ",
        -6.371410065922839
      ],
      [
        "«",
        -6.372240055159629
      ],
      [
        "▁mbaa",
        -6.400041590982778
      ],
      [
        "▁gën",
        -6.407042425950262
      ],
      [
        "▁ju",
        -6.423384520201887
      ],
      [
        "▁it",
        -6.429357676845325
      ],
      [
        "▁»",
        -6.440582127025993
      ],
      [
        "di",
        -6.453960895390153
      ],
      [
        "▁rekk",
        -6.4602309044829775
      ],
      [
        "▁dara",
        -6.460836797222349
      ],
      [
        "▁dëkk",
        -6.468603802633361
      ],
      [
        "▁nag",
        -6.475151998294603
      ],
      [
        "▁wax",
        -6.475595444738416
      ],
      [
        "▁gis",
        -6.476853350311903
      ],
      [
        "▁war",
        -6.477170827215445
      ],
      [
        "-",
        -6.48907052909884
      ],
      [
        "r",
        -6.511499207057021
      ],
      [
        "▁nit",
        -6.525476943975317
      ],
      [
        "ay",
        -6.544986835436052
      ],
      [
        "▁lépp",
        -6.551907514055052
      ],
      [
        "t",
        -6.581953631901786
      ],
      [
        "▁biir",
        -6.593678883834135
      ],
      [
        "▁yaay",
        -6.6082553028908
      ],
      [
        "▁Ci",
        -6.612913744168617
      ],
      [
        "▁fu",
        -6.6152282034510925
      ],
      [
        "▁loolu",
        -6.628137332915085
      ],
      [
        "▁sunu",
        -6.637986182901212
      ],
      [
        "▁sa",
        -6.6464098251079875
      ],
      [
        "▁ñaar",
        -6.649083332295821
      ],
      [
        "▁bés",
        -6.652149343694353
      ],
      [
        "▁yi.",
        -6.652976618863331
      ],
      [
        "▁teg",
        -6.659797934669816
      ],
      [
        "▁kër",
        -6.672610121650608
      ],
      [
        "▁Ogosaa",
        -6.67272978190498
      ],
      [
        "▁walla",
        -6.674786494138985
      ],
      [
        "▁Su",
        -6.681341891153414
      ],
      [
        "s",
        -6.68463512886167
      ],
      [
        "▁yiy",
        -6.6944943231482394
      ],
      [
        "▁gone",
        -6.694502116392497
      ],
      [
        "▁lool",
        -6.697635476678429
      ],
      [
        "▁yoon",
        -6.7159072879350585
      ],
      [
        "▁Li",
        -6.731883255698655
      ],
      [
        "▁Waaye",
        -6.739216607038879
      ],
      [
        "▁xel",
        -6.739241211048016
      ],
      [
        "▁si",
        -6.741583327830895
      ],
      [
        "▁fekk",
        -6.760243277459668
      ],
      [
        "▁mag",
        -6.771131121474115
      ],
      [
        "▁n",
        -6.781777490086061
      ],
      [
        "▁ñoom",
        -6.796747587558537
      ],
      [
        "▁ndax",
        -6.801323176366406
      ],
      [
        "▁Tugal",
        -6.810626110087368
      ],
      [
        "▁doole",
        -6.814122638560848
      ],
      [
        "▁yaram",
        -6.814156699739662
      ],
      [
        "▁daf",
        -6.820940097406236
      ],
      [
        "▁b",
        -6.82400320214694
      ],
      [
        "▁Mu",
        -6.827264679334236
      ],
      [
        "▁bopp",
        -6.831495005312741
      ],
      [
        "▁yëg",
        -6.84109835904556
      ],
      [
        "o",
        -6.858351661433203
      ],
      [
        "▁jigéen",
        -6.8613787238617325
      ],
      [
        "▁réew",
        -6.877025110894534
      ],
      [
        "▁tey",
        -6.887610207322247
      ],
      [
        "▁nataal",
        -6.887646626162717
      ],
      [
        "ngir",
        -6.897574481686406
      ],
      [
        "▁jamono",
        -6.9146065194548925
      ],
      [
        "▁xare",
        -6.9244670320725366
      ],
      [
        "▁tax",
        -6.926540102500452
      ],
      [
        "yeek",
        -6.928343613054933
      ],
      [
        "amul",
        -6.939415116206469
      ],
      [
        "▁saa",
        -6.940659480617235
      ],
      [
        "▁baax",
        -6.94685750407512
      ],
      [
        "ŋ",
        -6.950015569636971
      ],
      [
        "eek",
        -6.955361337447139
      ],
      [
        "▁àddina",
        -6.955457113487833
      ],
      [
        "▁koo",
        -6.972666650140106
      ],
      [
        "▁ànd",
        -6.993313594709537
      ],
      [
        "▁G",
        -6.995621826408773
      ],
      [
        "▁yooyu",
        -7.002164744831113
      ],
      [
        "▁at",
        -7.008203487835729
      ],
      [
        "▁naan",
        -7.024383829508594
      ],
      [
        "▁d",
        -7.030507601775441
      ],
      [
        "▁Te",
        -7.037066326819938
      ],
      [
        "▁wër",
        -7.040677153251705
      ],
      [
        "▁dex",
        -7.042547584301029
      ],
      [
        "ma",
        -7.04369277514916
      ],
      [
        "▁w",
        -7.045280763979119
      ],
      [
        "▁–",
        -7.0512627727345665
      ],
      [
        "▁suuf",
        -7.061571560513752
      ],
      [
        "▁boobu",
        -7.06267554849434
      ],
      [
        "▁fi",
        -7.0628393289341584
      ],
      [
        "▁ñi",
        -7.07319069639988
      ],
      [
        "▁da",
        -7.073399328573743
      ],
      [
        "▁ji",
        -7.082281226788229
      ],
      [
        "▁laa",
        -7.088502339729925
      ],
      [
        ";",
        -7.089645812071992
      ],
      [
        "▁Kamerun",
        -7.09408018188933
      ],
      [
        "▁léeg-léeg",
        -7.094243276613849
      ],
      [
        "▁Tubaab",
        -7.103261988299944
      ],
      [
        "▁dégg",
        -7.1032979509939365
      ],
      [
        "▁àll",
        -7.103482209624621
      ],
      [
        "▁mbir",
        -7.123266559615828
      ],
      [
        "▁jóge",
        -7.128941309446386
      ],
      [
        "▁bëgg",
        -7.132665207308994
      ],
      [
        "▁kow",
        -7.134951685051631
      ],
      [
        "▁ja",
        -7.138181735690631
      ],
      [
        "▁m",
        -7.144601557367169
      ],
      [
        "▁bët",
        -7.145039417780321
      ],
      [
        "▁loxo",
        -7.153652957539018
      ],
      [
        "▁nañ",
        -7.154446810236956
      ],
      [
        "▁D",
        -7.166578099802409
      ],
      [
        "▁jot",
        -7.171093859560012
      ],
      [
        "▁mas",
        -7.172346598261882
      ],
      [
        "at",
        -7.173638151853935
      ],
      [
        "w",
        -7.1743760050027365
      ],
      [
        "▁ga",
        -7.178579270131516
      ],
      [
        "▁wu",
        -7.199704965396654
      ],
      [
        "▁boppam",
        -7.201502018249652
      ],
      [
        "ñu",
        -7.201803881634394
      ],
      [
        "▁L",
        -7.211070700741988
      ],
      [
        "▁wi",
        -7.219881266933161
      ],
      [
        "j",
        -7.2254148630213
      ],
      [
        "▁ndaw",
        -7.229923228567653
      ],
      [
        "▁waay",
        -7.236172907025355
      ],
      [
        "▁ňu",
        -7.250021109834779
      ],
      [
        "lu",
        -7.252695705462507
      ],
      [
        "▁dund",
        -7.260228710400484
      ],
      [
        "▁jëm",
        -7.260814105037172
      ],
      [
        "▁N",
        -7.263919299488622
      ],
      [
        "▁Ñu",
        -7.276004290369222
      ],
      [
        "▁Ma",
        -7.276502395209048
      ],
      [
        "▁toog",
        -7.292283508768536
      ],
      [
        "▁man",
        -7.299146036513765
      ],
      [
        "▁de",
        -7.30581931871553
      ],
      [
        "▁tamit",
        -7.312624693985992
      ],
      [
        "▁dañ",
        -7.314674131570179
      ],
      [
        "▁solo",
        -7.330152502578751
      ],
      [
        "▁garab",
        -7.332172228947749
      ],
      [
        "▁l",
        -7.344747403256055
      ],
      [
        "▁y",
        -7.346505233683459
      ],
      [
        "▁jaar",
        -7.352214787802429
      ],
      [
        "▁fàww",
        -7.354055629963312
      ],
      [
        "▁doŋŋ",
        -7.3542958254225255
      ],
      [
        "▁daanaka",
        -7.356555798101956
      ],
      [
        "▁yépp",
        -7.357267407002711
      ],
      [
        "▁ginnaaw",
        -7.360169832815544
      ],
      [
        "▁liggéey",
        -7.372991381254849
      ],
      [
        "kat",
        -7.373247120624351
      ],
      [
        "nu",
        -7.383078241979092
      ],
      [
        "tu",
        -7.386688358907276
      ],
      [
        "▁ñoo",
        -7.392262811709639
      ],
      [
        "▁dee",
        -7.397536050567907
      ],
      [
        "▁lañu",
        -7.397961098621577
      ],
      [
        "▁Du",
        -7.40280316871873
      ],
      [
        "▁daw",
        -7.408506027746052
      ],
      [
        "um",
        -7.4126054908802885
      ],
      [
        "▁jël",
        -7.419455782949312
      ],
      [
        "▁Am",
        -7.42566615545285
      ],
      [
        "▁Moo",
        -7.4407054513422075
      ],
      [
        "▁c",
        -7.451476043626282
      ],
      [
        "▁neex",
        -7.452470716662718
      ],
      [
        "▁fàttaliku",
        -7.462779619178818
      ],
      [
        "▁bare",
        -7.477281568144336
      ],
      [
        "▁nuy",
        -7.480137905022625
      ],
      [
        "▁Wànte",
        -7.490633081779013
      ],
      [
        "▁Niseryaa",
        -7.490802496409058
      ],
      [
        "▁yaakaar",
        -7.491165870426135
      ],
      [
        "▁dëgg",
        -7.493424427732185
      ],
      [
        "▁metti",
        -7.494085148701553
      ],
      [
        "▁yaa",
        -7.495730417245041
      ],
      [
        "▁Lu",
        -7.499853175597984
      ],
      [
        "▁noonu",
        -7.500142578791291
      ],
      [
        "épp",
        -7.502291968031087
      ],
      [
        "aan",
        -7.505813871158843
      ],
      [
        "ook",
        -7.505994546141592
      ],
      [
        "▁s",
        -7.5083958436526625
      ],
      [
        "▁Ni",
        -7.5092149284737
      ],
      [
        "▁tànk",
        -7.513274949200671
      ],
      [
        "▁lañ",
        -7.526734353173732
      ],
      [
        "▁xol",
        -7.532273117919729
      ],
      [
        "▁ko.",
        -7.537955907414683
      ],
      [
        "▁Móris",
        -7.540350439713142
      ],
      [
        "▁xalaat",
        -7.540733797626425
      ],
      [
        "▁topp",
        -7.544564810659175
      ],
      [
        "▁yàgg",
        -7.546250866903593
      ],
      [
        "▁ñuul",
        -7.554905668639348
      ],
      [
        "▁góor",
        -7.559366485004059
      ],
      [
        "▁k",
        -7.559751945202136
      ],
      [
        "▁dóor",
        -7.561011058032387
      ],
      [
        "te",
        -7.561287161077592
      ],
      [
        "▁gaal",
        -7.5621581295810785
      ],
      [
        "f",
        -7.567527349681923
      ],
      [
        "▁f",
        -7.571067931686814
      ],
      [
        "▁ñ",
        -7.573081547548357
      ],
      [
        "ànte",
        -7.574292133217433
      ],
      [
        "ax",
        -7.574851595992623
      ],
      [
        "▁say",
        -7.589385263135188
      ],
      [
        "▁Bansoo",
        -7.593040106902491
      ],
      [
        "▁doom-aadama",
        -7.593420767651706
      ],
      [
        "▁jeex",
        -7.594613690075196
      ],
      [
        "▁réy",
        -7.595477426297883
      ],
      [
        "▁wéy",
        -7.595555875580679
      ],
      [
        "▁xonq",
        -7.598744931440441
      ],
      [
        "▁Sama",
        -7.599155865617934
      ],
      [
        "si",
        -7.599401115378171
      ],
      [
        "▁Da",
        -7.5996533875828405
      ],
      [
        "▁xamul",
        -7.599866988843273
      ],
      [
        "▁génn",
        -7.599937644602333
      ],
      [
        "▁noppi",
        -7.600478184051887
      ],
      [
        "▁jàpp",
        -7.601172858751493
      ],
      [
        "▁maa",
        -7.605258282476731
      ],
      [
        "▁Xam",
        -7.607332652787528
      ],
      [
        "▁door",
        -7.60759598190147
      ],
      [
        "▁guddi",
        -7.609394942610483
      ],
      [
        "d",
        -7.610434292042921
      ],
      [
        "▁maam",
        -7.6241072033244555
      ],
      [
        "▁g",
        -7.628566454458902
      ],
      [
        "▁néeg",
        -7.635234332916497
      ],
      [
        "▁Bu",
        -7.636656826815797
      ],
      [
        "▁xale",
        -7.639132830804712
      ],
      [
        "▁jaay",
        -7.642599413734217
      ],
      [
        "▁faj",
        -7.646906983496951
      ],
      [
        "▁t",
        -7.647139201095722
      ],
      [
        "▁Loolu",
        -7.648452377407008
      ],
      [
        "▁nettali",
        -7.648889153755355
      ],
      [
        "▁njëkk",
        -7.648995486745728
      ],
      [
        "▁ñépp",
        -7.649450455339677
      ],
      [
        "àddaay",
        -7.649696027439171
      ],
      [
        "▁jooju",
        -7.650503126887754
      ],
      [
        "▁dugg",
        -7.6576774792142395
      ],
      [
        "▁jiit",
        -7.662664615683367
      ],
      [
        "▁itam",
        -7.670931722225863
      ],
      [
        "▁ña",
        -7.670965482765943
      ],
      [
        "▁dellu",
        -7.674736860433223
      ],
      [
        "▁ab",
        -7.678180754655404
      ],
      [
        "x",
        -7.680141614546725
      ],
      [
        "▁gàtt",
        -7.6824831333281125
      ],
      [
        "▁fan",
        -7.684090684307158
      ],
      [
        "▁jox",
        -7.694154908251035
      ],
      [
        "▁bàyyi",
        -7.703779617460414
      ],
      [
        "▁taxaw",
        -7.7068843395325946
      ],
      [
        "▁tàmbal",
        -7.707184500233612
      ],
      [
        "▁gunóor",
        -7.707288348219617
      ],
      [
        "▁Àngale",
        -7.7072992465138235
      ],
      [
        "▁Àngalteer",
        -7.707467895430783
      ],
      [
        "▁Ndax",
        -7.707655744696828
      ],
      [
        "aat",
        -7.712580992967762
      ],
      [
        "-na",
        -7.72065940294879
      ],
      [
        "it",
        -7.721618377675357
      ],
      [
        "▁dëkki",
        -7.722501765068163
      ],
      [
        "▁boo",
        -7.723374134538294
      ],
      [
        "▁Ku",
        -7.728346414562813
      ],
      [
        "▁lii",
        -7.746710151016195
      ],
      [
        "▁M",
        -7.749394794374979
      ],
      [
        "▁masu",
        -7.749709184396376
      ],
      [
        "▁ñàkk",
        -7.750620593031777
      ],
      [
        "▁doom",
        -7.754160537287953
      ],
      [
        "▁sol",
        -7.758839265554659
      ],
      [
        "▁nun",
        -7.763862840868661
      ],
      [
        "▁dox",
        -7.764906409386812
      ],
      [
        "▁tudd",
        -7.765650777274366
      ],
      [
        "▁way-jur",
        -7.766284906700463
      ],
      [
        "▁ñëw",
        -7.768949411896385
      ],
      [
        "▁dunyaa",
        -7.769726493426698
      ],
      [
        "▁dañu",
        -7.772115888386072
      ],
      [
        "▁bé",
        -7.778649999655926
      ],
      [
        "loo",
        -7.782665110552308
      ],
      [
        "▁weex",
        -7.78380830013907
      ],
      [
        "▁Y",
        -7.784481667706535
      ],
      [
        "▁daal",
        -7.788144305633278
      ],
      [
        "▁Ca",
        -7.788805052662887
      ],
      [
        "▁Ay",
        -7.790261510265701
      ],
      [
        "ale",
        -7.790399947666549
      ],
      [
        "▁mujje",
        -7.790422371527448
      ],
      [
        "▁amoon",
        -7.791745137207256
      ],
      [
        "fa",
        -7.798459272657038
      ],
      [
        "▁A",
        -7.806935963867241
      ],
      [
        "▁wut",
        -7.8094934666695375
      ],
      [
        "▁W",
        -7.81301237280843
      ],
      [
        "▁won",
        -7.813485657464997
      ],
      [
        "▁dina",
        -7.813814918371014
      ],
      [
        "▁soo",
        -7.818068252456143
      ],
      [
        "▁waaj",
        -7.820227960553829
      ],
      [
        "▁jéem",
        -7.836022965762693
      ],
      [
        "▁làrme",
        -7.836030861448126
      ],
      [
        "▁doktoor",
        -7.836297390413904
      ],
      [
        "▁gént",
        -7.836453273288809
      ],
      [
        "▁seetlu",
        -7.837954791068212
      ],
      [
        "▁ňaar",
        -7.839687050116659
      ],
      [
        "▁mer",
        -7.839999942228799
      ],
      [
        "▁yaatu",
        -7.840547542803593
      ],
      [
        "▁niroo",
        -7.841308397160983
      ],
      [
        "maa",
        -7.842444080400115
      ],
      [
        "ek",
        -7.843809163906101
      ],
      [
        "▁lan",
        -7.8444464663328795
      ],
      [
        "▁leer",
        -7.845576638769158
      ],
      [
        "▁tudde",
        -7.846531851654229
      ],
      [
        "▁tur",
        -7.848385682050665
      ],
      [
        "dul",
        -7.852350856414526
      ],
      [
        "▁laaj",
        -7.854602649429607
      ],
      [
        "e.",
        -7.856386734586205
      ],
      [
        "▁feebar",
        -7.857649621476888
      ],
      [
        "▁Ak",
        -7.8698353684365205
      ],
      [
        "faral",
        -7.872171315767052
      ],
      [
        "naa",
        -7.8733514725270055
      ],
      [
        "▁ëpp",
        -7.8812724615688925
      ],
      [
        "▁sore",
        -7.890229166804781
      ],
      [
        "▁F",
        -7.894401755593049
      ],
      [
        "▁nañu",
        -7.898897332497885
      ],
      [
        "!",
        -7.904499187858665
      ],
      [
        "▁romb",
        -7.907052639566684
      ],
      [
        "▁tangor",
        -7.9074071830582655
      ],
      [
        "▁moroom",
        -7.9074415223796315
      ],
      [
        "▁wóor",
        -7.907613154210119
      ],
      [
        "▁song",
        -7.907644798581998
      ],
      [
        "▁gaaw",
        -7.908314725083438
      ],
      [
        "▁neen",
        -7.910590114102277
      ],
      [
        "▁Kon",
        -7.9109077239738355
      ],
      [
        "▁Yàlla",
        -7.913650005547997
      ],
      [
        "▁deret",
        -7.914433052438056
      ],
      [
        "▁taxoon",
        -7.915019486542869
      ],
      [
        "▁Bamendaa",
        -7.916755043874537
      ],
      [
        "▁mat",
        -7.917607163009813
      ],
      [
        "▁defar",
        -7.919669495050712
      ],
      [
        "atum",
        -7.921982383703185
      ],
      [
        "▁j",
        -7.923126374730957
      ],
      [
        "mu",
        -7.927930559772475
      ],
      [
        "▁dëkke",
        -7.929486561183403
      ],
      [
        "ré",
        -7.9313340081798
      ],
      [
        "ň",
        -7.9382775839540685
      ],
      [
        "▁xar",
        -7.938567882857205
      ],
      [
        "eneen",
        -7.94241075761656
      ],
      [
        "▁bañ",
        -7.945491915042064
      ],
      [
        "kër",
        -7.94972243282727
      ],
      [
        "▁fàtte",
        -7.952187598089454
      ],
      [
        "▁we",
        -7.952633610875
      ],
      [
        "▁xaw",
        -7.9545978462770774
      ],
      [
        "▁fas",
        -7.956860113341435
      ],
      [
        "ante",
        -7.957884525310847
      ],
      [
        "▁dama",
        -7.958028444564602
      ],
      [
        "wul",
        -7.958915733151844
      ],
      [
        "▁dexu",
        -7.960833373542197
      ],
      [
        "c",
        -7.9627680390926745
      ],
      [
        "▁K",
        -7.962793980129104
      ],
      [
        "▁Bi",
        -7.963800468240067
      ],
      [
        "▁Maa",
        -7.971497294391023
      ],
      [
        "▁day",
        -7.973268243790464
      ],
      [
        "▁yee",
        -7.973554300389667
      ],
      [
        "▁des",
        -7.973795953237529
      ],
      [
        "▁J",
        -7.975882929295112
      ],
      [
        "▁faa",
        -7.976627357635444
      ],
      [
        "▁tàng",
        -7.980424659794811
      ],
      [
        "▁Bés",
        -7.983415388463408
      ],
      [
        "▁weesoo",
        -7.984103639628168
      ],
      [
        "▁gis-gis",
        -7.984258483292061
      ],
      [
        "▁asamaan",
        -7.984467185180763
      ],
      [
        "▁diiwaan",
        -7.984488143743183
      ],
      [
        "▁séen",
        -7.984657424488983
      ],
      [
        "▁tollu",
        -7.984718787117175
      ],
      [
        "▁ubbi",
        -7.9847555534122225
      ],
      [
        "▁yeneen",
        -7.988632962456629
      ],
      [
        "▁bokk",
        -7.988848127035045
      ],
      [
        "▁xeet",
        -7.99236216272519
      ],
      [
        "▁xelam",
        -7.994144368684433
      ],
      [
        "▁miir",
        -7.996565032643035
      ],
      [
        "▁gaa",
        -8.002213484016933
      ],
      [
        "▁la.",
        -8.003334297409861
      ],
      [
        "▁jant",
        -8.00339820662974
      ],
      [
        "▁ki",
        -8.009507262446085
      ],
      [
        "▁der",
        -8.010280959189823
      ],
      [
        "▁àgg",
        -8.010511030224501
      ],
      [
        "▁demee",
        -8.010739390529205
      ],
      [
        "▁tali",
        -8.014861759575446
      ],
      [
        "aas",
        -8.018585712968385
      ],
      [
        "▁seet",
        -8.019691322607269
      ],
      [
        "uy",
        -8.020521220043904
      ],
      [
        "▁deme",
        -8.024142408747469
      ],
      [
        "▁réewu",
        -8.02634536313958
      ],
      [
        "▁nee",
        -8.026553349878306
      ],
      [
        "uñu",
        -8.028051896304904
      ],
      [
        "▁gudd",
        -8.029209615617056
      ],
      [
        "▁Xa",
        -8.035540180837922
      ],
      [
        "▁fàttali",
        -8.037827590640294
      ],
      [
        "▁ndox",
        -8.037829667352261
      ],
      [
        "▁B",
        -8.041877101308753
      ],
      [
        "ug",
        -8.04275356561249
      ],
      [
        "▁so",
        -8.054657002160841
      ],
      [
        "▁sori",
        -8.054661004314124
      ],
      [
        "enn",
        -8.055734629228315
      ],
      [
        "wu",
        -8.056981192715856
      ],
      [
        "▁bay",
        -8.061378019960493
      ],
      [
        "▁sedd",
        -8.067080728112316
      ],
      [
        "▁soldaar",
        -8.067413306845294
      ],
      [
        "▁delloo",
        -8.067413539438505
      ],
      [
        "▁xar-kanam",
        -8.067516138780231
      ],
      [
        "▁mellentaan",
        -8.067555998172912
      ],
      [
        "▁bëj-saalum",
        -8.067560572104322
      ],
      [
        "▁yuuxu",
        -8.068383848667047
      ],
      [
        "nga",
        -8.070298398572007
      ],
      [
        "eŋ",
        -8.0704795875839
      ],
      [
        "▁tëj",
        -8.070553419859104
      ],
      [
        "▁X",
        -8.072426636220543
      ],
      [
        "▁kàddu",
        -8.075528182841888
      ],
      [
        "▁nangu",
        -8.075544237420136
      ],
      [
        "▁géej",
        -8.077198812694188
      ],
      [
        "▁jëkk",
        -8.079342007545772
      ],
      [
        "▁baat",
        -8.085066686970709
      ],
      [
        "▁jàng",
        -8.086294082255675
      ],
      [
        "▁bari",
        -8.09285382482628
      ],
      [
        "▁wone",
        -8.107031482359638
      ],
      [
        "ni",
        -8.114328290338964
      ],
      [
        "▁Daan",
        -8.117068627967717
      ],
      [
        "▁mii",
        -8.117354837897349
      ],
      [
        "▁ta",
        -8.119752813849402
      ],
      [
        "kki",
        -8.12289889590024
      ],
      [
        "▁yem",
        -8.128188509913713
      ],
      [
        "▁bant",
        -8.128834712086157
      ],
      [
        "▁Man",
        -8.129608212131034
      ],
      [
        "▁fo",
        -8.134540616539399
      ],
      [
        "ub",
        -8.135530228908863
      ],
      [
        "▁dayo",
        -8.14132068498877
      ],
      [
        "▁ban",
        -8.14203402149083
      ],
      [
        "▁doy",
        -8.150462814604273
      ],
      [
        "▁të",
        -8.152025022149925
      ],
      [
        "▁waa",
        -8.15563016611009
      ],
      [
        "een",
        -8.15628795525589
      ],
      [
        "▁xéy",
        -8.157553080859351
      ],
      [
        "▁kese",
        -8.157651466124442
      ],
      [
        "▁rawati",
        -8.157946377428441
      ],
      [
        "▁xeer",
        -8.158051580288138
      ],
      [
        "▁yëkkati",
        -8.158055164353945
      ],
      [
        "▁Guwiyaan",
        -8.158137079878301
      ],
      [
        "▁réer",
        -8.158284135496926
      ],
      [
        "▁déglu",
        -8.15840853478982
      ],
      [
        "▁Moonte",
        -8.158646410556223
      ],
      [
        "re",
        -8.15878200684541
      ],
      [
        "▁tund",
        -8.16025153501566
      ],
      [
        "▁jéggi",
        -8.161194129302977
      ],
      [
        "▁googu",
        -8.161199473714923
      ],
      [
        "▁dàll",
        -8.162807732958024
      ],
      [
        "▁màgget",
        -8.163374354270964
      ],
      [
        "▁yóbbu",
        -8.164511499025409
      ],
      [
        "▁xaar",
        -8.16568697219813
      ],
      [
        "▁sàkk",
        -8.165956858159314
      ],
      [
        "▁fees",
        -8.16674557711751
      ],
      [
        "▁ngoon",
        -8.168149341371997
      ],
      [
        "▁Frãs",
        -8.169080995413674
      ],
      [
        "▁tuuti",
        -8.16999016800979
      ],
      [
        "▁kilifa",
        -8.172665303899183
      ],
      [
        "▁miin",
        -8.176307035099782
      ],
      [
        "▁takk",
        -8.180564793677922
      ],
      [
        "kati",
        -8.185197550407587
      ],
      [
        "▁teel",
        -8.18605159643984
      ],
      [
        "▁yit",
        -8.190323422828834
      ],
      [
        "▁baay",
        -8.191097087738019
      ],
      [
        "▁nanu",
        -8.201071772396535
      ],
      [
        "str",
        -8.204235328127886
      ],
      [
        "beek",
        -8.206609976835509
      ],
      [
        "▁doomi",
        -8.207318280382214
      ],
      [
        "▁Nga",
        -8.207593678180562
      ],
      [
        "▁Ba",
        -8.214502504032465
      ],
      [
        "ati",
        -8.219734601589403
      ],
      [
        "waat",
        -8.220557358397073
      ],
      [
        "▁xool",
        -8.220990774055295
      ],
      [
        "▁doxandéem",
        -8.222050986608687
      ],
      [
        "la",
        -8.2226564423344
      ],
      [
        "q",
        -8.226679176980163
      ],
      [
        "▁Di",
        -8.22823260739484
      ],
      [
        "▁baa",
        -8.228410013947089
      ],
      [
        "p",
        -8.23237983229365
      ],
      [
        "▁daj",
        -8.24072124805086
      ],
      [
        "em",
        -8.246229534133116
      ],
      [
        "▁noo",
        -8.24970033187207
      ],
      [
        "▁tii",
        -8.257009105940666
      ],
      [
        "▁yegg",
        -8.257149880611603
      ],
      [
        "▁Gone",
        -8.25745174010976
      ],
      [
        "▁jege",
        -8.2574604984951
      ],
      [
        "▁Ñàkk",
        -8.25754644756162
      ],
      [
        "▁metit",
        -8.257591417336752
      ],
      [
        "▁mbóot",
        -8.257728177767811
      ],
      [
        "▁téye",
        -8.257741152785096
      ],
      [
        "▁xuus",
        -8.257880472084718
      ],
      [
        "▁ngelaw",
        -8.258226173506358
      ],
      [
        "▁téere",
        -8.258230232292572
      ],
      [
        "▁joor",
        -8.263542464860844
      ],
      [
        "ewul",
        -8.268917405717808
      ],
      [
        "▁janoo",
        -8.27062923964298
      ],
      [
        "▁Ib",
        -8.271053891572857
      ],
      [
        "▁maanaa",
        -8.271231718145136
      ],
      [
        "▁wetu",
        -8.27276658808444
      ],
      [
        "▁ragal",
        -8.279907308435575
      ],
      [
        "li",
        -8.280583705008333
      ],
      [
        "▁gise",
        -8.283937409183489
      ],
      [
        "▁Boo",
        -8.284349292745821
      ],
      [
        "▁meloon",
        -8.286529931964381
      ],
      [
        "▁weer",
        -8.297255211408533
      ],
      [
        "▁p",
        -8.301764120100778
      ],
      [
        "iy",
        -8.301833126990516
      ],
      [
        "atul",
        -8.30822765080703
      ],
      [
        "ba",
        -8.310307032748764
      ],
      [
        "▁wuti",
        -8.311289277904521
      ],
      [
        "▁garabi",
        -8.314123370536446
      ],
      [
        "▁bee",
        -8.315279069940507
      ],
      [
        "▁tefes",
        -8.322563374542918
      ],
      [
        "▁bind",
        -8.328148860002678
      ],
      [
        "kk",
        -8.329436968907372
      ],
      [
        "ku",
        -8.347458687191747
      ],
      [
        "na",
        -8.347461337739798
      ],
      [
        "kkali",
        -8.349197245461554
      ],
      [
        "▁mënoo",
        -8.35008020120013
      ],
      [
        "▁lekk",
        -8.3563893610931
      ],
      [
        "▁dënn",
        -8.363607993634258
      ],
      [
        "ër",
        -8.363838241455017
      ],
      [
        "▁lëndëm",
        -8.366775807880757
      ],
      [
        "▁Jamono",
        -8.366775808575728
      ],
      [
        "▁Nataal",
        -8.36678892154885
      ],
      [
        "▁cosaan",
        -8.366810130337997
      ],
      [
        "▁Almaañ",
        -8.366902204395648
      ],
      [
        "▁boroom",
        -8.36695553675301
      ],
      [
        "▁Kër",
        -8.367122155376538
      ],
      [
        "▁Niis",
        -8.367344053278012
      ],
      [
        "▁Seen",
        -8.367477047288816
      ],
      [
        "▁Teewul",
        -8.367536664832778
      ],
      [
        "▁yow",
        -8.36776978581019
      ],
      [
        "▁foofu",
        -8.36825118172204
      ],
      [
        "▁bànneex",
        -8.368665253802472
      ],
      [
        "▁diggante",
        -8.368743370504172
      ],
      [
        "▁sowu-jant",
        -8.368790288066485
      ],
      [
        "▁Biyaafaraa",
        -8.368841642427212
      ],
      [
        "▁bëj-gànnaar",
        -8.368877335195062
      ],
      [
        "▁gisaat",
        -8.369060776878317
      ],
      [
        "▁leneen",
        -8.370345578869149
      ],
      [
        "▁jàll",
        -8.370946916558914
      ],
      [
        "▁yëngu",
        -8.371537379776843
      ],
      [
        "▁For",
        -8.372160159331903
      ],
      [
        "▁neneen",
        -8.37419859938892
      ],
      [
        "▁lakk",
        -8.380214228824691
      ],
      [
        "▁Saa",
        -8.381522663493545
      ],
      [
        "▁këram",
        -8.383859283143224
      ],
      [
        "▁kanam",
        -8.386510277459616
      ],
      [
        "▁rey",
        -8.389514862720555
      ],
      [
        "▁Alma",
        -8.395046684867669
      ],
      [
        "tt",
        -8.397109883575324
      ],
      [
        "oŋ",
        -8.398413847953165
      ],
      [
        "▁suba",
        -8.398827963283788
      ],
      [
        "▁En",
        -8.403094739988942
      ],
      [
        "▁mar",
        -8.408179477449131
      ],
      [
        "▁tàkk",
        -8.4120123962058
      ],
      [
        "leen",
        -8.412488835661598
      ],
      [
        "▁tere",
        -8.41551111665753
      ],
      [
        "ict",
        -8.416981666385041
      ],
      [
        "▁Dañ",
        -8.417394568645943
      ],
      [
        "▁T",
        -8.421245726650746
      ],
      [
        "▁S",
        -8.424383808141403
      ],
      [
        "▁moomu",
        -8.42864691947608
      ],
      [
        "▁yére",
        -8.430796441805581
      ],
      [
        "afa",
        -8.43387759681326
      ],
      [
        "▁fii",
        -8.439187730421192
      ],
      [
        "woo",
        -8.440992151685954
      ],
      [
        "▁wute",
        -8.447133041730801
      ],
      [
        "▁Fa",
        -8.448120641671396
      ],
      [
        "▁na.",
        -8.448282881527687
      ],
      [
        "▁kook",
        -8.450490515091014
      ],
      [
        "▁Mën",
        -8.453521045716911
      ],
      [
        "▁ng",
        -8.459156300626612
      ],
      [
        "▁bunt",
        -8.460837732819709
      ],
      [
        "▁luy",
        -8.460916686902085
      ],
      [
        "▁Wa",
        -8.469018121976767
      ],
      [
        "▁lanu",
        -8.470690607874353
      ],
      [
        "bar",
        -8.471231998907378
      ],
      [
        "▁tóo",
        -8.473840236759905
      ],
      [
        "▁tekk",
        -8.475682872496817
      ],
      [
        "aay",
        -8.47994988772043
      ],
      [
        "▁feeñ",
        -8.481850250839631
      ],
      [
        "▁tar",
        -8.48410477476267
      ],
      [
        "▁sago",
        -8.485015471501773
      ],
      [
        "▁yilif",
        -8.48804053593487
      ],
      [
        "oom",
        -8.4893131794181
      ],
      [
        "bu",
        -8.489931055838547
      ],
      [
        "yu",
        -8.49005777248913
      ],
      [
        "▁Fi",
        -8.49016337372592
      ],
      [
        ")",
        -8.491775800148044
      ],
      [
        "▁Officer",
        -8.491775800148046
      ],
      [
        "▁wëndéelu",
        -8.491775800167925
      ],
      [
        "▁Léeg-léeg",
        -8.491775800173464
      ],
      [
        "▁kéemaane",
        -8.49177580237951
      ],
      [
        "▁Legoos",
        -8.491775870068636
      ],
      [
        "▁House",
        -8.491775941416815
      ],
      [
        "▁xàmmee",
        -8.49177600400989
      ],
      [
        "▁làmp",
        -8.491781310717506
      ],
      [
        "▁janeer",
        -8.491808892718986
      ],
      [
        "▁dénd",
        -8.491828492758465
      ],
      [
        "▁keroog",
        -8.491905569501256
      ],
      [
        "▁yëngal",
        -8.491945706890355
      ],
      [
        "▁Waaw",
        -8.492447603852705
      ],
      [
        "▁sonal",
        -8.49247074225179
      ],
      [
        "▁samp",
        -8.49253415776835
      ],
      [
        "▁sànni",
        -8.492759963375581
      ],
      [
        "▁fajkat",
        -8.492843245615859
      ],
      [
        "▁gémmiñ",
        -8.493121287127845
      ],
      [
        "▁tukki",
        -8.49359859199474
      ],
      [
        "▁loxoom",
        -8.493837554539681
      ],
      [
        "▁wow",
        -8.494869579395797
      ],
      [
        "▁Ñoom",
        -8.495568907715079
      ],
      [
        "▁bees",
        -8.495736112294251
      ],
      [
        "▁xanaa",
        -8.496438888583608
      ],
      [
        "▁sew",
        -8.496666391205487
      ],
      [
        "▁fanaan",
        -8.49691554590432
      ],
      [
        "▁diis",
        -8.497634953750321
      ],
      [
        "▁riir",
        -8.497980686538112
      ],
      [
        "▁sowu",
        -8.500782848751303
      ],
      [
        "▁tubaab",
        -8.501100405359042
      ],
      [
        "naka",
        -8.50586349639384
      ],
      [
        "▁Sunu",
        -8.50675149551346
      ],
      [
        "▁Dama",
        -8.507630780599065
      ],
      [
        "▁màggat",
        -8.509377162703602
      ],
      [
        "▁waar",
        -8.515143331911782
      ],
      [
        "▁teew",
        -8.519296654847608
      ],
      [
        "woon",
        -8.519432005735643
      ],
      [
        "▁jënd",
        -8.520299891751458
      ],
      [
        "?",
        -8.520802900273099
      ],
      [
        "-fu",
        -8.52351172123021
      ],
      [
        "lla",
        -8.527549719524828
      ],
      [
        "▁doomu",
        -8.53176967652522
      ],
      [
        "▁nëbb",
        -8.534201178484935
      ],
      [
        "on",
        -8.540489221391681
      ],
      [
        "▁dalal",
        -8.548339948307502
      ],
      [
        "▁max",
        -8.549426780667606
      ],
      [
        "▁cee",
        -8.551453627220852
      ],
      [
        "▁yab",
        -8.551608457780402
      ],
      [
        "▁Ra",
        -8.553808174893655
      ],
      [
        "▁tas",
        -8.553928917468667
      ],
      [
        "▁kon",
        -8.56022178302091
      ],
      [
        "aa",
        -8.561204303302052
      ],
      [
        "▁rëdd",
        -8.563445323275351
      ],
      [
        "▁Tey",
        -8.56532593690618
      ],
      [
        "▁yenu",
        -8.565566204997126
      ],
      [
        "àkk",
        -8.572775694766188
      ],
      [
        "i.",
        -8.580367847419037
      ],
      [
        "▁yat",
        -8.581483879633684
      ],
      [
        "▁noon",
        -8.58338288103846
      ],
      [
        "▁dëkku",
        -8.585174930479141
      ],
      [
        "uma",
        -8.585722126481528
      ],
      [
        "▁new",
        -8.585836498357724
      ],
      [
        "okk",
        -8.598806411088518
      ],
      [
        "▁lal",
        -8.598849418640105
      ],
      [
        "▁pënd",
        -8.60827780301868
      ],
      [
        "ko",
        -8.62131681404375
      ],
      [
        "▁Soo",
        -8.621492836981158
      ],
      [
        "▁wa",
        -8.626290547285075
      ],
      [
        "ngóor",
        -8.629253122720746
      ],
      [
        "▁dagg",
        -8.630255498465775
      ],
      [
        "▁palanteer",
        -8.63088061845582
      ],
      [
        "▁(",
        -8.63216160191564
      ],
      [
        "an",
        -8.632654398825935
      ],
      [
        "▁woow",
        -8.632664446288748
      ],
      [
        "le",
        -8.633202517077667
      ],
      [
        "▁doxe",
        -8.633323827195255
      ],
      [
        "▁sukkuraat",
        -8.634632946998787
      ],
      [
        "▁loppitaan",
        -8.634633011275582
      ],
      [
        "▁Ayijoo",
        -8.634633920322226
      ],
      [
        "▁rafet",
        -8.634635071210598
      ],
      [
        "▁Óbudu",
        -8.634642269033694
      ],
      [
        "▁Réew",
        -8.634661950772415
      ],
      [
        "▁Déedéet",
        -8.634693941799272
      ],
      [
        "▁simoŋ",
        -8.634742784613488
      ],
      [
        "▁màrse",
        -8.634746850358258
      ],
      [
        "▁dëgër",
        -8.634755366636446
      ],
      [
        "▁xëcc",
        -8.63476500065021
      ],
      [
        "▁bett",
        -8.634785012513257
      ],
      [
        "▁woto",
        -8.634785549709633
      ],
      [
        "▁juddoo",
        -8.634837162191298
      ],
      [
        "▁seng",
        -8.634891659313404
      ],
      [
        "▁tëdd",
        -8.635358998959973
      ],
      [
        "▁nelaw",
        -8.635493587542348
      ],
      [
        "▁tee",
        -8.63549869246187
      ],
      [
        "▁jàppale",
        -8.635772880268732
      ],
      [
        "▁Ó",
        -8.636007694992415
      ],
      [
        "▁lonk",
        -8.636513519750936
      ],
      [
        "▁Noonu",
        -8.636655890902446
      ],
      [
        "▁raglu",
        -8.636757021756903
      ],
      [
        "..",
        -8.639079997388205
      ],
      [
        "▁Ayaa",
        -8.639379211394326
      ],
      [
        "▁dellusi",
        -8.640219300387477
      ],
      [
        "▁àngale",
        -8.640331387957072
      ],
      [
        "▁Buur",
        -8.640512736640726
      ],
      [
        "▁mucc",
        -8.640907117473525
      ],
      [
        "▁ňuul",
        -8.640908713523185
      ],
      [
        "▁Fekk",
        -8.641004016065523
      ],
      [
        "aale",
        -8.645080728109841
      ],
      [
        "▁siiw",
        -8.649926360151305
      ],
      [
        "waan",
        -8.654206031747982
      ],
      [
        "▁dese",
        -8.656444989111836
      ],
      [
        "▁jàn",
        -8.656497356334265
      ],
      [
        "▁soppi",
        -8.657492513788554
      ],
      [
        "àll",
        -8.659066361166138
      ],
      [
        "▁mukk",
        -8.659419555757541
      ],
      [
        "▁raay",
        -8.660050494300863
      ],
      [
        "▁buur",
        -8.66275798383583
      ],
      [
        "▁jafe",
        -8.663726979466714
      ],
      [
        "▁màndi",
        -8.66973658914255
      ],
      [
        "▁togg",
        -8.67030815588843
      ],
      [
        "ukaay",
        -8.670902133099212
      ],
      [
        "▁i",
        -8.672253024244286
      ],
      [
        "▁masuma",
        -8.674867111871752
      ],
      [
        "▁kowe",
        -8.676134685693754
      ],
      [
        "▁nii",
        -8.677691704802005
      ],
      [
        "▁gii",
        -8.685858120122578
      ],
      [
        "▁jàngal",
        -8.689403756902646
      ],
      [
        "▁waral",
        -8.699763871866157
      ],
      [
        "aata",
        -8.701332509009479
      ],
      [
        "m.",
        -8.706167702463723
      ],
      [
        "▁dun",
        -8.709667675435536
      ],
      [
        "▁Ar",
        -8.710148574121149
      ],
      [
        "▁duma",
        -8.712560003258337
      ],
      [
        "▁x",
        -8.71379729974756
      ],
      [
        "▁P",
        -8.714656362417912
      ],
      [
        "▁nañoo",
        -8.717159265338717
      ],
      [
        "biy",
        -8.718442927344826
      ],
      [
        "kkal",
        -8.71853956146005
      ],
      [
        "▁jii",
        -8.720542079308448
      ],
      [
        "▁neex.",
        -8.721851659426886
      ],
      [
        "ti",
        -8.722193072095852
      ],
      [
        "▁ñii",
        -8.73130521983949
      ],
      [
        "▁aw",
        -8.734884556199447
      ],
      [
        "▁Nu",
        -8.735636953931062
      ],
      [
        "▁bii",
        -8.736158341473324
      ],
      [
        "▁Ben",
        -8.74766779225623
      ],
      [
        "▁jànq",
        -8.748764992166464
      ],
      [
        "▁doo",
        -8.753029629121972
      ],
      [
        "ukki",
        -8.756401038566548
      ],
      [
        "▁fow",
        -8.758218365498497
      ],
      [
        "▁fee",
        -8.760023819223315
      ],
      [
        "▁kàttan",
        -8.762687850897805
      ],
      [
        "andoo",
        -8.76829937146823
      ],
      [
        "▁nopp",
        -8.769754910377042
      ],
      [
        "▁Fu",
        -8.771884965964452
      ],
      [
        "ar",
        -8.773983248631595
      ],
      [
        "▁waxtaan",
        -8.775669865558486
      ],
      [
        "▁doomi-",
        -8.777839137503763
      ],
      [
        "▁muur",
        -8.79448119896383
      ],
      [
        "rus",
        -8.799871728607757
      ],
      [
        "▁tàngaay",
        -8.800997506965238
      ],
      [
        "8",
        -8.801281514015576
      ],
      [
        "▁Wiktoryaa",
        -8.801299609672151
      ],
      [
        "▁Mellentaan",
        -8.801299609673848
      ],
      [
        "▁dëggëntaan",
        -8.801299610229373
      ],
      [
        "▁gàncax",
        -8.801299612073597
      ],
      [
        "▁petorool",
        -8.801299631004875
      ],
      [
        "▁jaxasoo",
        -8.801299665374206
      ],
      [
        "▁ponkal",
        -8.801299916595418
      ],
      [
        "▁dëgg-dëgg",
        -8.80129995674808
      ],
      [
        "▁xibaar",
        -8.801300298080292
      ],
      [
        "▁werante",
        -8.801302686111704
      ],
      [
        "▁kawas",
        -8.801302844966054
      ],
      [
        "▁ngëlén",
        -8.801303585788444
      ],
      [
        "▁féete",
        -8.801303945524456
      ],
      [
        "▁baaraam",
        -8.80136998691677
      ],
      [
        "▁jumtukaay",
        -8.801373659163453
      ],
      [
        "▁mbedd",
        -8.801379523542668
      ],
      [
        "▁jékkee-j",
        -8.801384678979788
      ],
      [
        "▁gunge",
        -8.801399955632899
      ],
      [
        "▁agsi",
        -8.80141369328507
      ],
      [
        "▁cofeel",
        -8.801422204164462
      ],
      [
        "▁lonet",
        -8.801438533940686
      ],
      [
        "▁surga",
        -8.801462300983431
      ],
      [
        "▁jàmm",
        -8.801563703579571
      ],
      [
        "▁njabootam",
        -8.80162456008587
      ],
      [
        "▁caaxaan",
        -8.801659018628644
      ],
      [
        "▁tàmm",
        -8.801672124172836
      ],
      [
        "▁meňň",
        -8.80167397077016
      ],
      [
        "▁wéet",
        -8.801723295838508
      ],
      [
        "▁sëkk",
        -8.801948658163512
      ],
      [
        "▁dajale",
        -8.802045726789085
      ],
      [
        "▁jëfandikoo",
        -8.802213345983292
      ],
      [
        "▁askan",
        -8.802390830194161
      ],
      [
        "▁jàkk",
        -8.802500586130625
      ],
      [
        "▁néew",
        -8.802557707547928
      ],
      [
        "▁seetaan",
        -8.802610027684645
      ],
      [
        "▁yéeg",
        -8.803084808468439
      ],
      [
        "▁Xare",
        -8.803492459086232
      ],
      [
        "▁njël",
        -8.803815774410499
      ],
      [
        "▁reer",
        -8.8038428248978
      ],
      [
        "▁Kor",
        -8.804689435977966
      ],
      [
        "▁tata",
        -8.804792772768025
      ],
      [
        "▁tolloo",
        -8.805458967234298
      ],
      [
        "▁gàddaay",
        -8.805545988762391
      ],
      [
        "▁juum",
        -8.806396817539122
      ],
      [
        "▁tontu",
        -8.806670205148862
      ],
      [
        "▁màndarga",
        -8.807922617339734
      ],
      [
        "▁sës",
        -8.808384838998913
      ],
      [
        "▁R",
        -8.808437528815416
      ],
      [
        "pp",
        -8.808881258799435
      ],
      [
        "▁danga",
        -8.809055147811222
      ],
      [
        "ees",
        -8.809468260645819
      ],
      [
        "▁waxtu",
        -8.809477454433207
      ],
      [
        "▁per",
        -8.80980875938792
      ],
      [
        "▁soosu",
        -8.809917681940764
      ],
      [
        "▁déet",
        -8.810146470661303
      ],
      [
        "▁I",
        -8.810343207901361
      ],
      [
        "ji",
        -8.810581155748265
      ],
      [
        "ànd",
        -8.81071074236335
      ],
      [
        "▁naqadi",
        -8.810991796867176
      ],
      [
        "óor",
        -8.812199757496277
      ],
      [
        "▁fenn",
        -8.812265410996954
      ],
      [
        "▁booba",
        -8.81376505489602
      ],
      [
        "▁yéemu",
        -8.815636582338488
      ],
      [
        "▁nja",
        -8.816155158645216
      ],
      [
        "▁foo",
        -8.81616703204527
      ],
      [
        "i-d",
        -8.816835043255
      ],
      [
        "▁démb",
        -8.819399061275988
      ],
      [
        "x-",
        -8.82029192735287
      ],
      [
        "▁At",
        -8.82045237963767
      ],
      [
        "▁Tu",
        -8.822489978777323
      ],
      [
        "▁jotee",
        -8.823674850370855
      ],
      [
        "▁gor",
        -8.824972085568879
      ],
      [
        "▁ndey",
        -8.827772723592535
      ],
      [
        "▁dawal",
        -8.829297842242198
      ],
      [
        "éy",
        -8.830916377968542
      ],
      [
        "▁Fii",
        -8.830916619422876
      ],
      [
        "▁dakk",
        -8.830973581643997
      ],
      [
        "▁alal",
        -8.831061276322727
      ],
      [
        "▁toogu",
        -8.83176816031431
      ],
      [
        "ékk",
        -8.83217653774914
      ],
      [
        "erig",
        -8.833670026738114
      ],
      [
        "olli",
        -8.834417505167036
      ],
      [
        "▁bon",
        -8.841028018269924
      ],
      [
        "▁jag",
        -8.841527467324612
      ],
      [
        "▁coono",
        -8.844150807560634
      ],
      [
        "▁féex",
        -8.8448216330317
      ],
      [
        "▁mënu",
        -8.847190142535817
      ],
      [
        "▁danu",
        -8.849244435514635
      ],
      [
        "▁tekki",
        -8.8493323407052
      ],
      [
        "▁yax",
        -8.855162423539099
      ],
      [
        "▁teewu",
        -8.855575906975721
      ],
      [
        "▁nguuru",
        -8.858965657377329
      ],
      [
        "▁yeew",
        -8.861051576489043
      ],
      [
        "▁daawu",
        -8.864331907437482
      ],
      [
        "rt",
        -8.867201322328087
      ],
      [
        "▁xet",
        -8.875364013290339
      ],
      [
        "▁Afrigam",
        -8.880056037371713
      ],
      [
        "os",
        -8.881027460984509
      ],
      [
        "cc",
        -8.881718432605219
      ],
      [
        "ñoo",
        -8.882787572413239
      ],
      [
        "▁kay",
        -8.885126337831661
      ],
      [
        "▁woy",
        -8.887904151073855
      ],
      [
        "▁kan",
        -8.890126959895717
      ],
      [
        "ll",
        -8.890391674829546
      ],
      [
        "▁far",
        -8.895152456920982
      ],
      [
        "▁àpp",
        -8.896690511850098
      ],
      [
        "▁dikk",
        -8.902077143255793
      ],
      [
        "▁mb",
        -8.908371823657957
      ],
      [
        "▁tànki",
        -8.908424984450738
      ],
      [
        "▁tan",
        -8.908550495293674
      ],
      [
        "noo",
        -8.911180020904908
      ],
      [
        "▁yaak",
        -8.926024949444464
      ],
      [
        "▁jur",
        -8.926506497410763
      ],
      [
        "▁Ken",
        -8.932285124861496
      ],
      [
        "▁La",
        -8.935170529146777
      ],
      [
        "▁nguur",
        -8.935600927025128
      ],
      [
        "▁Ñoo",
        -8.937110498713041
      ],
      [
        "est",
        -8.939360717099943
      ],
      [
        "▁see",
        -8.944344137481332
      ],
      [
        "0",
        -8.945994979671573
      ],
      [
        "bi",
        -8.947069865057586
      ],
      [
        "▁ñeme",
        -8.951210157439093
      ],
      [
        "▁Le",
        -8.951582281224107
      ],
      [
        "n.",
        -8.952909148237918
      ],
      [
        "▁po",
        -8.960198503728163
      ],
      [
        "▁nan",
        -8.96110519861707
      ],
      [
        "ññ",
        -8.962139521442026
      ],
      [
        "kaay",
        -8.9638447263079
      ],
      [
        "antee",
        -8.964730418269825
      ],
      [
        "ci",
        -8.966383285142937
      ],
      [
        "▁Dëg",
        -8.96784809824588
      ],
      [
        "▁sopp",
        -8.970210708888514
      ],
      [
        "▁làq",
        -8.972080592821477
      ],
      [
        "▁naň",
        -8.974235179137883
      ],
      [
        "▁Foo",
        -8.977925602070892
      ],
      [
        "▁saf",
        -8.983118605909908
      ],
      [
        "aw",
        -8.989604126526036
      ],
      [
        "▁dinaa",
        -8.993353527082942
      ],
      [
        "▁dàq",
        -8.994199725567185
      ],
      [
        "▁fey",
        -8.994591684072896
      ],
      [
        "toon",
        -8.99464978575059
      ],
      [
        "▁siy",
        -8.996802922177658
      ],
      [
        "▁dajee",
        -8.999440534895548
      ],
      [
        "▁Sefiriis",
        -9.001299609680247
      ],
      [
        "”",
        -9.001299609711815
      ],
      [
        "▁njàqare",
        -9.001299612180471
      ],
      [
        "▁Abaakaliki",
        -9.001299652488912
      ],
      [
        "▁Yoruba",
        -9.001299684840697
      ],
      [
        "▁“",
        -9.001299769873862
      ],
      [
        "▁Sorstaawun",
        -9.001301090118039
      ],
      [
        "▁kalaate",
        -9.001313915444214
      ],
      [
        "▁ndóol",
        -9.001316351926762
      ],
      [
        "▁noyyi",
        -9.001324546270837
      ],
      [
        "▁fetal",
        -9.001359554054648
      ],
      [
        "▁taabal",
        -9.001365245032304
      ],
      [
        "▁karaw",
        -9.001383781733116
      ],
      [
        "▁xaaju",
        -9.001419360902286
      ],
      [
        "▁gànnaay",
        -9.001429204453714
      ],
      [
        "▁doxantu",
        -9.001482845319089
      ],
      [
        "▁làquji",
        -9.00152584081912
      ],
      [
        "▁alkol",
        -9.001531219367038
      ],
      [
        "▁awsa",
        -9.001613743466326
      ],
      [
        "▁naqar",
        -9.00174655127374
      ],
      [
        "▁wet",
        -9.0017636951142
      ],
      [
        "▁sell",
        -9.001784375215307
      ],
      [
        "-tiir",
        -9.001796821799825
      ],
      [
        "▁xeex",
        -9.001922541283884
      ],
      [
        "▁gox",
        -9.001971341684952
      ],
      [
        "▁mbind",
        -9.002255386238115
      ],
      [
        "▁simis",
        -9.002292209163436
      ],
      [
        "▁soppiku",
        -9.002438175383956
      ],
      [
        "▁mbégte",
        -9.002494541604845
      ],
      [
        "▁sàcc",
        -9.002591699440332
      ],
      [
        "▁Dëkk",
        -9.002689473568562
      ],
      [
        "▁yéene",
        -9.003299209101158
      ],
      [
        "▁delsi",
        -9.003488770502853
      ],
      [
        "▁xur",
        -9.003503258810749
      ],
      [
        "▁yàlla",
        -9.00359063413934
      ],
      [
        "▁fitna",
        -9.003640312989218
      ],
      [
        "fippu",
        -9.00396810047815
      ],
      [
        "▁yëf",
        -9.004236226980456
      ],
      [
        "▁juddu",
        -9.004556735167878
      ],
      [
        "▁ger",
        -9.00458397912112
      ],
      [
        "▁dékku",
        -9.004823577731335
      ],
      [
        "ta",
        -9.005011081679601
      ],
      [
        "▁daaneel",
        -9.005426237411978
      ],
      [
        "▁feneen",
        -9.005586825578323
      ],
      [
        "▁yàpp",
        -9.0058638110729
      ],
      [
        "eef",
        -9.005983885567373
      ],
      [
        "▁fépp",
        -9.007361652423384
      ],
      [
        "▁kukk",
        -9.007440999227587
      ],
      [
        "▁dàtt",
        -9.008682863081061
      ],
      [
        "▁taw",
        -9.009066483091217
      ],
      [
        "▁ëmb",
        -9.010087996804256
      ],
      [
        "▁tus",
        -9.010223163096175
      ],
      [
        "▁yëgaat",
        -9.011342858669247
      ],
      [
        "▁yéeme",
        -9.013427088388212
      ],
      [
        "▁tiis",
        -9.013568084763122
      ],
      [
        "▁melax",
        -9.013673964024553
      ],
      [
        "▁tiit",
        -9.016560992771442
      ],
      [
        "▁njort",
        -9.016964792323463
      ],
      [
        "ati-",
        -9.018186353536668
      ],
      [
        "▁dugal",
        -9.018372705143396
      ],
      [
        "ral",
        -9.018534687439807
      ],
      [
        "▁nijaay",
        -9.019381081048662
      ],
      [
        "▁néegu-",
        -9.02203413010656
      ],
      [
        "▁màgge",
        -9.022268476442218
      ],
      [
        "▁kowam",
        -9.023359184019776
      ],
      [
        "▁àtte",
        -9.023476787597778
      ],
      [
        "boole",
        -9.02464616566923
      ],
      [
        "▁buum",
        -9.026609759467041
      ],
      [
        "▁guyy",
        -9.028389750187042
      ],
      [
        "▁niir",
        -9.031424913464086
      ],
      [
        "▁làqu",
        -9.032502277881528
      ],
      [
        "▁wàcc",
        -9.033290285139934
      ],
      [
        "▁naaxi",
        -9.034366110587957
      ],
      [
        "ët",
        -9.034872540852529
      ],
      [
        "el",
        -9.03522294462409
      ],
      [
        "▁léeb",
        -9.035286668308991
      ],
      [
        "▁sant",
        -9.039733411567285
      ],
      [
        "▁mënuma",
        -9.04229274207122
      ],
      [
        "ke",
        -9.044881034372063
      ],
      [
        "▁dëkkoon",
        -9.046405087087837
      ],
      [
        "daa",
        -9.052830469891047
      ],
      [
        "▁Kan",
        -9.053646060296064
      ],
      [
        "maana",
        -9.05458792512837
      ],
      [
        "su",
        -9.055720199589663
      ],
      [
        "lle",
        -9.055735260696851
      ],
      [
        "ri",
        -9.060074961603547
      ],
      [
        "▁natt",
        -9.065834334969392
      ],
      [
        "▁baxa",
        -9.066167759777114
      ],
      [
        "▁duñu",
        -9.073551191544183
      ],
      [
        "▁yen",
        -9.074473290604974
      ],
      [
        "▁buntu",
        -9.074853218885742
      ],
      [
        "nte",
        -9.077492710287093
      ],
      [
        "▁taamu",
        -9.077662242965156
      ],
      [
        "▁Xe",
        -9.079510776790695
      ],
      [
        "▁gee",
        -9.080712162085046
      ],
      [
        "as",
        -9.084015266631194
      ],
      [
        "▁sàn",
        -9.084848163975083
      ],
      [
        "▁mënut",
        -9.086778014131152
      ],
      [
        "▁ňi",
        -9.093960955336236
      ],
      [
        "▁waxe",
        -9.095013403531805
      ],
      [
        "ëgg",
        -9.09574711165682
      ],
      [
        "ŋŋ",
        -9.097555703787844
      ],
      [
        "suñ",
        -9.098464347899649
      ],
      [
        "ne",
        -9.101681925661845
      ],
      [
        "àbbe",
        -9.102401416795463
      ],
      [
        "▁wutal",
        -9.105632887839171
      ],
      [
        "▁C",
        -9.10768682734966
      ],
      [
        "waale",
        -9.110428806208716
      ],
      [
        "eer",
        -9.111045581257361
      ],
      [
        "▁Mb",
        -9.118907535357783
      ],
      [
        "▁ka",
        -9.119013540720516
      ],
      [
        "▁kii",
        -9.120994169178111
      ],
      [
        "▁jaa",
        -9.124045984867733
      ],
      [
        "▁soxna",
        -9.126377609244937
      ],
      [
        "tul",
        -9.126840981523245
      ],
      [
        "▁fit",
        -9.128171751600313
      ],
      [
        "▁taxu",
        -9.136486725935459
      ],
      [
        "alla",
        -9.142714318819769
      ],
      [
        "aayu",
        -9.142901188963085
      ],
      [
        "ekk",
        -9.144429944644664
      ],
      [
        "▁daanu",
        -9.149212811490205
      ],
      [
        "tee",
        -9.154572039651777
      ],
      [
        "▁toj",
        -9.154742142887404
      ],
      [
        "ee.",
        -9.157817994877337
      ],
      [
        "oy",
        -9.15985702879744
      ],
      [
        "om",
        -9.161141592133962
      ],
      [
        "▁Mba",
        -9.167746388288109
      ],
      [
        "▁tool",
        -9.168172438456237
      ],
      [
        "see",
        -9.17178145028125
      ],
      [
        "▁Na",
        -9.178708136451569
      ],
      [
        "▁ň",
        -9.17874069469508
      ],
      [
        "koo",
        -9.181493757484528
      ],
      [
        "ëpp",
        -9.183000634654896
      ],
      [
        "▁wor",
        -9.183856276781114
      ],
      [
        "▁daa",
        -9.189073299149758
      ],
      [
        "▁Ngi",
        -9.193735656382907
      ],
      [
        "▁yàq",
        -9.200904268725806
      ],
      [
        "ndax",
        -9.202734734109141
      ],
      [
        "▁waru",
        -9.203364053607773
      ],
      [
        "▁rëbb",
        -9.204070767623259
      ],
      [
        "leek",
        -9.212106159696194
      ],
      [
        "▁xa",
        -9.212785653050771
      ],
      [
        "▁guy",
        -9.21288327919011
      ],
      [
        "▁wàcce",
        -9.213206843649685
      ],
      [
        "▁amu",
        -9.213483711603457
      ],
      [
        "»",
        -9.215396439444037
      ],
      [
        "▁yar",
        -9.218071798833462
      ],
      [
        "jafe",
        -9.219351692460839
      ],
      [
        "atu",
        -9.222644494805369
      ],
      [
        "▁yéem",
        -9.222804049444825
      ],
      [
        "▁xii",
        -9.226151551569805
      ],
      [
        "▁kàdd",
        -9.226421675233514
      ],
      [
        "nnee",
        -9.231120264765263
      ],
      [
        "▁kam",
        -9.233388113350749
      ],
      [
        "àcc",
        -9.2348914936605
      ],
      [
        "▁jé",
        -9.23692550790383
      ],
      [
        "▁Leer",
        -9.237940012784925
      ],
      [
        "▁taax",
        -9.238079389984188
      ],
      [
        "aar",
        -9.23908263737307
      ],
      [
        "▁yemu",
        -9.239246008481679
      ],
      [
        "gu",
        -9.240375690901473
      ],
      [
        "▁gëm",
        -9.241320138694338
      ],
      [
        "▁xarit",
        -9.250806209148132
      ],
      [
        "▁tés-tés",
        -9.251299609671932
      ],
      [
        "▁dóomu-taal",
        -9.251299609672063
      ],
      [
        "▁ndànk-ndànk",
        -9.251299609677261
      ],
      [
        "▁Bërëtaañ",
        -9.251299609680446
      ],
      [
        "▁junniy-junni",
        -9.251299609683628
      ],
      [
        "▁béjjén",
        -9.251299610040602
      ],
      [
        "▁Kalabaar",
        -9.251299619864334
      ],
      [
        "▁rajaxe",
        -9.251299630188463
      ],
      [
        "▁tekk-tekkaaral",
        -9.251299644120806
      ],
      [
        "▁saxaaru-géej",
        -9.251299720595778
      ],
      [
        "▁kilomet",
        -9.251299735861332
      ],
      [
        "▁sibbiru",
        -9.251300383632392
      ],
      [
        "▁penku",
        -9.251307061967857
      ],
      [
        "▁bo",
        -9.251311480642926
      ],
      [
        "▁jërr",
        -9.251314816262756
      ],
      [
        "▁Mokaa",
        -9.25132617723886
      ],
      [
        "▁yëngatu",
        -9.251336938554656
      ],
      [
        "▁ràññe",
        -9.251338694783076
      ],
      [
        "▁ndànk",
        -9.251348171847855
      ],
      [
        "▁Pël",
        -9.251349893625054
      ],
      [
        "▁Guddi",
        -9.25135557783118
      ],
      [
        "▁daŋar",
        -9.251379383178788
      ],
      [
        "▁portale",
        -9.251390323417544
      ],
      [
        "▁guyaab",
        -9.251405120570258
      ],
      [
        "▁firndeel",
        -9.251405213485521
      ],
      [
        "▁mbindeef",
        -9.251412746685434
      ],
      [
        "▁pegg",
        -9.251434320192923
      ],
      [
        "▁rëcc",
        -9.251465478565656
      ],
      [
        "▁Looloo",
        -9.251467206595791
      ],
      [
        "▁dëppoo",
        -9.251485983512335
      ],
      [
        "▁dëll",
        -9.251495650334142
      ],
      [
        "▁weesu",
        -9.251566222474692
      ],
      [
        "▁maasaloo",
        -9.251669352894776
      ],
      [
        "▁soxal",
        -9.251677204931013
      ],
      [
        "▁ràpp",
        -9.251700342297173
      ],
      [
        "▁raxas",
        -9.25170236549604
      ],
      [
        "▁meetar",
        -9.251722232675123
      ],
      [
        "▁Kakaa",
        -9.251807066565647
      ],
      [
        "▁Suuf",
        -9.251836849930303
      ],
      [
        "▁móol",
        -9.251870863370945
      ],
      [
        "▁ňàkk",
        -9.251920247868924
      ],
      [
        "▁móobal",
        -9.251954045841037
      ],
      [
        "▁Joor",
        -9.251970484343813
      ],
      [
        "▁tubay",
        -9.252067841288305
      ],
      [
        "▁Mbir",
        -9.25217291339499
      ],
      [
        "▁sooke",
        -9.252249021081392
      ],
      [
        "▁Ñaar",
        -9.252257125905054
      ],
      [
        "▁yemale",
        -9.252381160554734
      ],
      [
        "▁tabax",
        -9.25249218327237
      ],
      [
        "▁miirloo",
        -9.252569219627258
      ],
      [
        "▁dijj",
        -9.25269682566371
      ],
      [
        "▁nangoo",
        -9.252962643249548
      ],
      [
        "▁waxi",
        -9.253024196908903
      ],
      [
        "▁lëmm",
        -9.253489468910049
      ],
      [
        "▁ndab",
        -9.253734341138975
      ],
      [
        "▁méngale",
        -9.255181956239433
      ],
      [
        "▁jeeg",
        -9.255358048328212
      ],
      [
        "▁màtt",
        -9.25570132251042
      ],
      [
        "▁njiit",
        -9.255725491259401
      ],
      [
        "▁mbooloo",
        -9.255736478723206
      ],
      [
        "▁càkk",
        -9.256255556158136
      ],
      [
        "▁Xale",
        -9.256675965684245
      ],
      [
        "▁Xaw",
        -9.256794845458979
      ],
      [
        "▁ker",
        -9.25687732144133
      ],
      [
        "sàmm",
        -9.257113646513252
      ],
      [
        "▁Niseer",
        -9.25768919679659
      ],
      [
        "▁way-",
        -9.257743517578396
      ],
      [
        "▁waaxu",
        -9.258223015387708
      ],
      [
        "▁diine",
        -9.25825199183602
      ],
      [
        "▁ràkkaaju",
        -9.25858753551111
      ],
      [
        "▁diggu",
        -9.258941694396782
      ],
      [
        "▁xaj",
        -9.259770406920962
      ],
      [
        "▁këru",
        -9.260452507053854
      ],
      [
        "▁sipp",
        -9.260889643919038
      ],
      [
        "▁Daawu",
        -9.261049093477288
      ],
      [
        "▁ñaaw",
        -9.261975216054154
      ],
      [
        "▁joow",
        -9.262836149986265
      ],
      [
        "-tuut",
        -9.263985817592937
      ],
      [
        "▁jooy",
        -9.26483652239426
      ],
      [
        "▁Nun",
        -9.265762957757577
      ],
      [
        "▁193",
        -9.265914013661448
      ],
      [
        "▁way-juram",
        -9.266366707320563
      ],
      [
        "▁Masu",
        -9.266872953680732
      ],
      [
        "▁tawat",
        -9.26731985480198
      ],
      [
        "ŋun",
        -9.267563798472146
      ],
      [
        "▁ndeysaan.",
        -9.267738021955774
      ],
      [
        "▁diir",
        -9.268732524512815
      ],
      [
        "iis",
        -9.270079035538759
      ],
      [
        "▁jàppoon",
        -9.270476086168784
      ],
      [
        "jaa",
        -9.270554050334619
      ],
      [
        "▁kayit",
        -9.270820917446356
      ],
      [
        "▁màng",
        -9.271558367956866
      ],
      [
        "▁set",
        -9.271728802389557
      ],
      [
        "ab",
        -9.27179555571747
      ],
      [
        "▁tegu",
        -9.274233000059807
      ],
      [
        "▁lim",
        -9.275038106967529
      ],
      [
        "▁mba",
        -9.2757829745494
      ],
      [
        "▁gës",
        -9.276027125616627
      ],
      [
        "▁Aka",
        -9.278946979097267
      ],
      [
        "▁ňa",
        -9.279139501889896
      ],
      [
        "▁yóbb",
        -9.279204403640119
      ],
      [
        "▁muus",
        -9.279623085380459
      ],
      [
        "▁baň",
        -9.279860410294717
      ],
      [
        "▁wóolu",
        -9.280920932006358
      ],
      [
        "▁jafee",
        -9.28244469865088
      ],
      [
        "ru",
        -9.283280593056972
      ],
      [
        "▁weg",
        -9.285591441318903
      ],
      [
        "▁wér",
        -9.286034150047588
      ],
      [
        "▁julli",
        -9.286521656426173
      ],
      [
        "▁Doon",
        -9.2865691021253
      ],
      [
        "▁yare",
        -9.287315211366437
      ],
      [
        "▁juróomi",
        -9.288530037481959
      ],
      [
        "▁dundam",
        -9.28973227807468
      ],
      [
        "yaa",
        -9.2897609068131
      ],
      [
        "uru",
        -9.290147780787244
      ],
      [
        "▁pom",
        -9.29109601736566
      ],
      [
        "▁dinañ",
        -9.29219102771236
      ],
      [
        "▁Mag",
        -9.293479950876087
      ],
      [
        "▁dib",
        -9.297121433832164
      ],
      [
        "▁kas",
        -9.297573434875327
      ],
      [
        "▁Ñ",
        -9.297872290184165
      ],
      [
        "àww",
        -9.30223983769412
      ],
      [
        "àngi",
        -9.304268758537365
      ],
      [
        "▁sib",
        -9.304563464677765
      ],
      [
        "▁wàll",
        -9.304955804734071
      ],
      [
        "▁jekk",
        -9.305738476937151
      ],
      [
        "▁feeñu",
        -9.306546925219866
      ],
      [
        "▁faax",
        -9.306796603286756
      ],
      [
        "▁rëbbi",
        -9.306966700107804
      ],
      [
        "▁xamoon",
        -9.307269512644243
      ],
      [
        "exe",
        -9.308802227892945
      ],
      [
        "lee",
        -9.312060331062762
      ],
      [
        "▁yatt",
        -9.31477164338309
      ],
      [
        "▁bég",
        -9.317442376559239
      ],
      [
        "bët",
        -9.317577788777857
      ],
      [
        "kom",
        -9.317593404950216
      ],
      [
        "▁Pe",
        -9.318030961533953
      ],
      [
        "▁Ta",
        -9.318554674142433
      ],
      [
        "▁ñaw",
        -9.323012430809833
      ],
      [
        "▁jógee",
        -9.323034110583679
      ],
      [
        "▁xóot",
        -9.32309729933269
      ],
      [
        "oog",
        -9.328794951771716
      ],
      [
        "àllaam",
        -9.329638562205295
      ],
      [
        "▁tëwa",
        -9.331162495991034
      ],
      [
        "mb",
        -9.333870840686235
      ],
      [
        "éb",
        -9.334469328152263
      ],
      [
        "▁sañ",
        -9.334842032240145
      ],
      [
        "▁xobi",
        -9.3479504457384
      ],
      [
        "ool",
        -9.349973002738007
      ],
      [
        "ooy",
        -9.352571476015315
      ],
      [
        "▁Ki",
        -9.357028602135893
      ],
      [
        "aanaka",
        -9.357128734310471
      ],
      [
        "nti",
        -9.368660509318307
      ],
      [
        "▁seetu",
        -9.369329338523082
      ],
      [
        "▁dunde",
        -9.369397165914172
      ],
      [
        "▁nd",
        -9.37526681585004
      ],
      [
        "▁ñetti",
        -9.378248675314456
      ],
      [
        "▁Mas",
        -9.38469587854839
      ],
      [
        "▁Ña",
        -9.384876062141451
      ],
      [
        "àtt",
        -9.385060829569666
      ],
      [
        "▁dootu",
        -9.397283190973942
      ],
      [
        "ju",
        -9.402223394629026
      ],
      [
        "▁xame",
        -9.40303349872479
      ],
      [
        "▁Jo",
        -9.40389934586551
      ],
      [
        "▁Sa",
        -9.406246860077147
      ],
      [
        "▁nju",
        -9.407546999993528
      ],
      [
        "banaan",
        -9.409103702601914
      ],
      [
        "ata",
        -9.414194335716005
      ],
      [
        "-kow",
        -9.415035916389298
      ],
      [
        "▁faf",
        -9.417220430284807
      ],
      [
        "ry",
        -9.422135577869637
      ],
      [
        "▁waroo",
        -9.426663625399572
      ],
      [
        "▁moomee",
        -9.430010183724354
      ],
      [
        "tam",
        -9.432707248831065
      ],
      [
        "▁pé",
        -9.434132556312985
      ],
      [
        "eñ",
        -9.435638576198718
      ],
      [
        "▁yaroo",
        -9.440987052635164
      ],
      [
        "▁May",
        -9.441052080369603
      ],
      [
        "elu",
        -9.44443284257513
      ],
      [
        "▁njàmba",
        -9.445574962041375
      ],
      [
        "▁tama",
        -9.447898178172936
      ],
      [
        "xe",
        -9.449084745933163
      ],
      [
        "▁doxal",
        -9.450465202260856
      ],
      [
        "ww",
        -9.457002640097173
      ],
      [
        "▁mënee",
        -9.460465370453608
      ],
      [
        "es",
        -9.461189331660735
      ],
      [
        "feebar",
        -9.461335090443587
      ],
      [
        "éeri",
        -9.464851108829421
      ],
      [
        "weer",
        -9.465372314367588
      ],
      [
        "▁mujj",
        -9.465438280113458
      ],
      [
        "eti",
        -9.466327962762083
      ],
      [
        "▁dan",
        -9.46814024137306
      ],
      [
        "▁ñee",
        -9.468488646181354
      ],
      [
        "▁xob",
        -9.469360237466866
      ],
      [
        "laay",
        -9.470832590759859
      ],
      [
        "aram",
        -9.470973128619171
      ],
      [
        "añoo",
        -9.471399853730198
      ],
      [
        "éq",
        -9.47339761287683
      ],
      [
        "oole",
        -9.476087068126239
      ],
      [
        "sin",
        -9.476236551411777
      ],
      [
        "▁xat",
        -9.477671995855026
      ],
      [
        "h",
        -9.478320650693675
      ],
      [
        "etti",
        -9.479157396220286
      ],
      [
        "▁Gan",
        -9.482517570654977
      ],
      [
        "boo",
        -9.484186092430173
      ],
      [
        "aj",
        -9.484359887544848
      ],
      [
        "ňň",
        -9.486079461340445
      ],
      [
        "▁wi.",
        -9.487363415045037
      ],
      [
        "▁defe",
        -9.488048195434793
      ],
      [
        "saa",
        -9.488076460796254
      ],
      [
        "▁xolu",
        -9.493041686959055
      ],
      [
        "▁newu",
        -9.493149733319271
      ],
      [
        "nd",
        -9.493537757411017
      ],
      [
        "eem",
        -9.49390541736732
      ],
      [
        "▁ñett",
        -9.494388154076733
      ],
      [
        "pus",
        -9.49584818495809
      ],
      [
        "niki",
        -9.500740963902743
      ],
      [
        "▁bët.",
        -9.50082377245083
      ],
      [
        "▁fowe",
        -9.50470536779777
      ],
      [
        "▁jàppe",
        -9.505685591680333
      ],
      [
        "dar",
        -9.50701974851042
      ],
      [
        "eelu",
        -9.509991235320504
      ],
      [
        "eeku",
        -9.514389554887332
      ],
      [
        "u-",
        -9.521805209213134
      ],
      [
        "ya",
        -9.522029367403901
      ],
      [
        "▁Mar",
        -9.524735781177279
      ],
      [
        "-lu",
        -9.524871641761184
      ],
      [
        "▁xamu",
        -9.52521828456804
      ],
      [
        "tóor",
        -9.525975285602625
      ],
      [
        "▁taal",
        -9.531637024310012
      ],
      [
        "ga",
        -9.533442205059535
      ],
      [
        "▁kur",
        -9.535207889334753
      ],
      [
        "▁sàpp",
        -9.539463107190944
      ],
      [
        "▁aar",
        -9.544832846300697
      ],
      [
        "war",
        -9.546145911358039
      ],
      [
        "ňu",
        -9.548004572150814
      ],
      [
        "fal",
        -9.54864686911582
      ],
      [
        "jënd",
        -9.55495890113292
      ],
      [
        "▁jë",
        -9.555832225033292
      ],
      [
        "▁jaaxa",
        -9.560647522103661
      ],
      [
        "▁jubal",
        -9.561375459713467
      ],
      [
        "▁naqad",
        -9.563865990212156
      ],
      [
        "▁woo",
        -9.565344338375164
      ],
      [
        "▁fulla",
        -9.565575275568396
      ],
      [
        "▁kà",
        -9.565698201909123
      ],
      [
        "▁wà",
        -9.567365343058444
      ],
      [
        "▁mbal",
        -9.568927170524375
      ],
      [
        "nn",
        -9.570379944645811
      ],
      [
        "leel",
        -9.570677051816826
      ],
      [
        "▁jo",
        -9.570961589614337
      ],
      [
        "baŋ",
        -9.571803627181934
      ],
      [
        "▁dég",
        -9.57304748642996
      ],
      [
        "▁melo",
        -9.573588779489224
      ],
      [
        "▁xul",
        -9.574211271726334
      ],
      [
        "▁méng",
        -9.579265295585117
      ],
      [
        "▁dig",
        -9.579377858057045
      ],
      [
        "▁yó",
        -9.581290484837638
      ],
      [
        "ñ.",
        -9.581375764489653
      ],
      [
        "▁xërëm",
        -9.584349956468118
      ],
      [
        "▁rajo",
        -9.58438182390023
      ],
      [
        "▁wë",
        -9.584510481808886
      ],
      [
        "t.",
        -9.584537252741322
      ],
      [
        "2",
        -9.584632934673726
      ],
      [
        "▁roppëlaan",
        -9.584632943006604
      ],
      [
        "▁Adekunle",
        -9.584632943007707
      ],
      [
        "▁mettee-metti",
        -9.58463294303059
      ],
      [
        "è",
        -9.584632943045147
      ],
      [
        "▁jekk-jekkal",
        -9.584632943075993
      ],
      [
        "▁Bénuwe",
        -9.584632943211485
      ],
      [
        "▁ëllëg",
        -9.584632943239955
      ],
      [
        "▁dispañseer",
        -9.584632943586282
      ],
      [
        "▁dankalikoo",
        -9.584632945164689
      ],
      [
        "▁Poor-Arkuur",
        -9.584632946586648
      ],
      [
        "▁Aadamawa",
        -9.584632982999489
      ],
      [
        "▁Polisoŋ",
        -9.584632984355535
      ],
      [
        "▁waxambaane",
        -9.584632999369026
      ],
      [
        "▁mébét",
        -9.584633009656656
      ],
      [
        "▁sukkandik",
        -9.584633015915795
      ],
      [
        "éwén",
        -9.584633071958393
      ],
      [
        "▁sañ-sañ",
        -9.584633078141758
      ],
      [
        "▁bànxaas",
        -9.584633128234877
      ],
      [
        "▁dog-dog",
        -9.584633183028622
      ],
      [
        "▁bataaxal",
        -9.584633202671101
      ],
      [
        "▁Saawusamton",
        -9.58463322374321
      ],
      [
        "▁Tàngaay",
        -9.584633429249479
      ],
      [
        "▁njoowaan",
        -9.58463345680076
      ],
      [
        "▁Yéesu",
        -9.584633555685825
      ],
      [
        "▁ófise",
        -9.584633793691786
      ],
      [
        "▁pikiir",
        -9.58463385339678
      ],
      [
        "▁callweer",
        -9.584633882472259
      ],
      [
        "▁biiru-ta",
        -9.58463520356713
      ],
      [
        "▁xam-xam",
        -9.584636663893003
      ],
      [
        "▁xélu",
        -9.584636880152841
      ],
      [
        "▁lëkkale",
        -9.584637452740289
      ],
      [
        "▁xaalis",
        -9.58463778056334
      ],
      [
        "▁jaar-jaar",
        -9.584638077498667
      ],
      [
        "▁gàngiri",
        -9.584638227397928
      ],
      [
        "▁reetaan",
        -9.584644754741209
      ],
      [
        "▁196",
        -9.584645187640719
      ],
      [
        "▁Fàttewu",
        -9.584654004072194
      ],
      [
        "▁000",
        -9.584656164956815
      ],
      [
        "igéen",
        -9.58466329784548
      ],
      [
        "▁njariñ",
        -9.584665056348179
      ],
      [
        "▁fés",
        -9.58466580183169
      ],
      [
        "▁Riwër",
        -9.584669703266345
      ],
      [
        "▁Fiild",
        -9.584672626908159
      ],
      [
        "▁rendi",
        -9.584674857133917
      ],
      [
        "▁ndaje",
        -9.584683195939236
      ],
      [
        "▁Wiyaa",
        -9.584694847029098
      ],
      [
        "▁jaabante",
        -9.584696658424873
      ],
      [
        "▁Alseri",
        -9.584699244409679
      ],
      [
        "▁laxas",
        -9.5847040900444
      ],
      [
        "▁ŋàññ",
        -9.58472796000684
      ],
      [
        "▁ruqu-géeju",
        -9.584733802254254
      ],
      [
        "▁yàkkamt",
        -9.584784433052404
      ],
      [
        "▁juróom-benn",
        -9.584808617504327
      ],
      [
        "▁yegsi",
        -9.584816007094002
      ],
      [
        "▁segg",
        -9.584839742302183
      ],
      [
        "▁xàmb",
        -9.584844529648944
      ],
      [
        "▁iróko",
        -9.584849249840461
      ],
      [
        "▁toppatoo",
        -9.58484989079936
      ],
      [
        "▁Jàng",
        -9.584860207507852
      ],
      [
        "▁Ndox",
        -9.584868598007471
      ],
      [
        "▁tukkee",
        -9.584879986593515
      ],
      [
        "▁ganesi",
        -9.5848982112333
      ],
      [
        "▁fomp",
        -9.584903360096332
      ],
      [
        "▁moytu",
        -9.584908245810311
      ],
      [
        "▁paaka",
        -9.58490956507699
      ],
      [
        "▁meññ",
        -9.584912707194677
      ],
      [
        "ňeent",
        -9.584958030808012
      ],
      [
        "▁Bariwu",
        -9.584967325348629
      ],
      [
        "▁ginnax",
        -9.58497054183097
      ],
      [
        "▁Pari",
        -9.584974049473756
      ],
      [
        "▁rajoom",
        -9.58500586693913
      ],
      [
        "▁mbagg",
        -9.585029775214876
      ],
      [
        "▁fecc",
        -9.585054624097136
      ],
      [
        "▁soxor",
        -9.58507522809574
      ],
      [
        "▁denc",
        -9.585132313398141
      ],
      [
        "▁Toog",
        -9.58516266357868
      ],
      [
        "▁kawar",
        -9.585194632611472
      ],
      [
        "▁Riis",
        -9.58520978841471
      ],
      [
        "▁tëral",
        -9.585211474660607
      ],
      [
        "▁tàgg",
        -9.585296310973277
      ],
      [
        "▁yaxeet",
        -9.585296480699146
      ],
      [
        "▁Kàttan",
        -9.585314084742077
      ],
      [
        "▁Tont",
        -9.585377555141074
      ],
      [
        "▁aada",
        -9.585400043013003
      ],
      [
        "▁këruus",
        -9.585414641543423
      ],
      [
        "▁Ji",
        -9.585424955434254
      ],
      [
        "▁reyante",
        -9.585469941447753
      ],
      [
        "àyyee",
        -9.585478815259798
      ],
      [
        "▁soppikoo",
        -9.585611033403715
      ],
      [
        "▁jadd",
        -9.585616056909364
      ],
      [
        "▁wecc",
        -9.585664606184045
      ],
      [
        "▁wotoom",
        -9.585719389049098
      ],
      [
        "▁gëdd",
        -9.585766310261752
      ],
      [
        "▁ñàng",
        -9.585795540791082
      ],
      [
        "▁dëj",
        -9.585834498127179
      ],
      [
        "▁sanc",
        -9.585922896527432
      ],
      [
        "▁yànj",
        -9.585970495396547
      ],
      [
        "▁Sopp",
        -9.586342060597849
      ],
      [
        "▁mëdd",
        -9.586376018111775
      ],
      [
        "▁màkkaan",
        -9.586433339074127
      ],
      [
        "▁fexe",
        -9.586585673461641
      ],
      [
        "▁ndoorte",
        -9.586727492539252
      ],
      [
        "▁tëri",
        -9.587083568319855
      ],
      [
        "▁ndigg",
        -9.587164631555916
      ],
      [
        "▁nàññ",
        -9.58738501897752
      ],
      [
        "▁tooñ",
        -9.58784818350173
      ],
      [
        "▁pàkk",
        -9.5878563733532
      ],
      [
        "▁sóob",
        -9.58800244017917
      ],
      [
        "▁tàggat",
        -9.588216122313018
      ],
      [
        "▁dalukaay",
        -9.588671794095305
      ],
      [
        "▁génnaan",
        -9.588838226997371
      ],
      [
        "▁tanc",
        -9.589069322357028
      ],
      [
        "▁So",
        -9.589129114800166
      ],
      [
        "▁weexaay",
        -9.589944522849747
      ],
      [
        "▁gëmoon",
        -9.590124397708852
      ],
      [
        "▁tënk",
        -9.590138394353998
      ],
      [
        "aatu",
        -9.590255281810386
      ],
      [
        "▁Dina",
        -9.590267111844257
      ],
      [
        "méeri",
        -9.590360340275623
      ],
      [
        "éer",
        -9.590360875314584
      ],
      [
        "xosi",
        -9.590474359953602
      ],
      [
        "▁xaritam",
        -9.590587383474226
      ],
      [
        "aakaar",
        -9.590719463137942
      ],
      [
        "▁wékk",
        -9.5908513555015
      ],
      [
        "▁daagu",
        -9.591541578505145
      ],
      [
        "▁làmb",
        -9.59171441467636
      ],
      [
        "▁puu",
        -9.593119920571748
      ],
      [
        "▁ŋaam",
        -9.593655544532162
      ],
      [
        "éen",
        -9.593778720266307
      ],
      [
        "▁deseetu",
        -9.593832879106587
      ],
      [
        "▁sànneek",
        -9.5942323494978
      ],
      [
        "▁Dem",
        -9.594473931276543
      ],
      [
        "saan",
        -9.595041865367804
      ],
      [
        "▁bokkul",
        -9.59523358387461
      ],
      [
        "▁Far",
        -9.595445603201673
      ],
      [
        "▁wépp",
        -9.595665336900645
      ],
      [
        "àddu",
        -9.595681573278144
      ],
      [
        "▁tàngal",
        -9.596003630856284
      ],
      [
        "▁Gis",
        -9.59623399582967
      ],
      [
        "▁dog",
        -9.596399496635684
      ],
      [
        "▁dënnam",
        -9.596682839295312
      ],
      [
        "▁noppal",
        -9.596901731581786
      ],
      [
        "innaaw",
        -9.597242446928345
      ],
      [
        "▁mes",
        -9.597644978019645
      ],
      [
        "▁baraa",
        -9.597734620434723
      ],
      [
        "▁lenn",
        -9.597915168681773
      ],
      [
        "▁Suku",
        -9.59831830456219
      ],
      [
        "▁yaatal",
        -9.598720129780313
      ],
      [
        "▁xarat",
        -9.598919721843837
      ],
      [
        "oolu-xare",
        -9.598937646241822
      ],
      [
        "▁jaawale",
        -9.599893838317639
      ],
      [
        "▁Garab",
        -9.602600746272257
      ],
      [
        "▁tëgg",
        -9.604071077006356
      ],
      [
        "▁tàkkal",
        -9.605959478920012
      ],
      [
        "aaral",
        -9.606129507944384
      ],
      [
        "▁sotti",
        -9.606465837330065
      ],
      [
        "▁Yoon",
        -9.6071646107787
      ],
      [
        "▁soos",
        -9.607334999166088
      ],
      [
        "▁fullaal",
        -9.607712689062911
      ],
      [
        "▁ňoom",
        -9.610808679338326
      ],
      [
        "▁Sor",
        -9.61083842535919
      ],
      [
        "▁ñor",
        -9.611359386903823
      ],
      [
        "▁Der",
        -9.61263715591087
      ],
      [
        "▁pax",
        -9.61294337312852
      ],
      [
        "▁rax",
        -9.615507020717734
      ],
      [
        "▁defante",
        -9.61608722631049
      ],
      [
        "▁tepp",
        -9.616312905410586
      ],
      [
        "▁xer",
        -9.61632518349717
      ],
      [
        "▁géey",
        -9.617946251620785
      ],
      [
        "▁yëge",
        -9.618192483202401
      ],
      [
        "éet",
        -9.619235788942634
      ],
      [
        "▁toogoon",
        -9.619797520138675
      ],
      [
        "▁nawet",
        -9.620950216887191
      ],
      [
        "▁tuutee",
        -9.621076612613967
      ],
      [
        "▁biti",
        -9.622462735525396
      ],
      [
        "▁yooy",
        -9.623541328907503
      ],
      [
        "▁bëtam",
        -9.623599967556986
      ],
      [
        "▁noppalu",
        -9.62501247113871
      ],
      [
        "mmeel",
        -9.625410367631568
      ],
      [
        "▁gëj",
        -9.626238926950625
      ],
      [
        "▁baree-bare",
        -9.62668618943009
      ],
      [
        "▁xiir",
        -9.627166304477948
      ],
      [
        "▁gan",
        -9.628429607395214
      ],
      [
        "▁waxtoo",
        -9.628603711255453
      ],
      [
        "▁genn",
        -9.631244828549892
      ],
      [
        "▁yëngoo",
        -9.631500101323244
      ],
      [
        "seen",
        -9.631557981174407
      ],
      [
        "edd",
        -9.631651815559831
      ],
      [
        "er",
        -9.633594706234561
      ],
      [
        "in",
        -9.634461928809344
      ],
      [
        "waa",
        -9.63473211091974
      ],
      [
        "▁ra",
        -9.635010594274185
      ],
      [
        "▁raŋ",
        -9.63580976560545
      ],
      [
        "▁Sooy",
        -9.636295777280736
      ],
      [
        "▁demul",
        -9.637145105098698
      ],
      [
        "▁tàll",
        -9.637424322180962
      ],
      [
        "du",
        -9.64003186683394
      ],
      [
        "▁Sin",
        -9.640562969778081
      ],
      [
        "▁ñaan",
        -9.643667856264774
      ],
      [
        "▁xoole",
        -9.64411197369846
      ],
      [
        "▁yoonam",
        -9.646714324040905
      ],
      [
        "▁daju",
        -9.64984373903236
      ],
      [
        "▁woowu",
        -9.65074090035447
      ],
      [
        "▁dàqee",
        -9.651235839820119
      ],
      [
        "eeñ",
        -9.65183670519913
      ],
      [
        "▁r",
        -9.652076329446999
      ],
      [
        "▁kaf",
        -9.653802233553405
      ],
      [
        "▁Nj",
        -9.657165864437758
      ],
      [
        "▁nekkin",
        -9.657434038002249
      ],
      [
        "▁teqal",
        -9.659501888344053
      ],
      [
        "▁làppto",
        -9.660058088231828
      ],
      [
        "imis",
        -9.660119566812535
      ],
      [
        "▁waxoon",
        -9.660797454726824
      ],
      [
        "▁pënde",
        -9.660959652272341
      ],
      [
        "▁lek",
        -9.661701921502974
      ],
      [
        "▁Ñi",
        -9.662631714156152
      ],
      [
        "galu",
        -9.66386868812495
      ],
      [
        "jjant",
        -9.665794309549357
      ],
      [
        "▁njaay",
        -9.668386173522713
      ],
      [
        "▁sos",
        -9.668579849238114
      ],
      [
        "▁opeereka",
        -9.668655192231338
      ],
      [
        "añse",
        -9.671758384147891
      ],
      [
        "aloon",
        -9.672580832762247
      ],
      [
        "▁kàttanu",
        -9.674439937833341
      ],
      [
        "▁ree",
        -9.680380114826546
      ],
      [
        "sa",
        -9.682733923400855
      ],
      [
        "▁co",
        -9.686222239101774
      ],
      [
        "saal",
        -9.687026157115726
      ],
      [
        "▁Sene",
        -9.687625296241801
      ],
      [
        "uñ",
        -9.687992613561528
      ],
      [
        "gi",
        -9.688624464103947
      ],
      [
        "▁sonn",
        -9.690837738778718
      ],
      [
        "▁boy",
        -9.690970652608891
      ],
      [
        "▁for",
        -9.691019252279348
      ],
      [
        "óo",
        -9.69365381278906
      ],
      [
        "▁waajal",
        -9.693896646610488
      ],
      [
        "▁toogal",
        -9.696562541562368
      ],
      [
        "▁Waa",
        -9.696569321776048
      ],
      [
        "▁dëdd",
        -9.696721569915876
      ],
      [
        "▁Nko",
        -9.697736613167162
      ],
      [
        "▁goog",
        -9.698927735947336
      ],
      [
        "▁saba",
        -9.702152021268732
      ],
      [
        "▁bale",
        -9.70253284382903
      ],
      [
        "axum",
        -9.705225549681511
      ],
      [
        "aka",
        -9.707420778757616
      ],
      [
        "▁Mii",
        -9.70800498949394
      ],
      [
        "▁nde",
        -9.708489521203255
      ],
      [
        "▁ñàkku",
        -9.710244606241192
      ],
      [
        "alee",
        -9.71040148588375
      ],
      [
        "▁sun",
        -9.711395852414373
      ],
      [
        "3",
        -9.713480308618918
      ],
      [
        "00",
        -9.713812461436735
      ],
      [
        "▁ŋa",
        -9.714749304868878
      ],
      [
        "ris",
        -9.715441255784533
      ],
      [
        "▁ras",
        -9.716834940335067
      ],
      [
        "fu",
        -9.718559575830799
      ],
      [
        "awoo",
        -9.722057753718905
      ],
      [
        "▁Ri",
        -9.722760289287699
      ],
      [
        "u.",
        -9.725311375861232
      ],
      [
        "▁neexu",
        -9.72546896477886
      ],
      [
        "▁ast",
        -9.726941322627386
      ],
      [
        "▁noot",
        -9.727364510779868
      ],
      [
        "we",
        -9.727465580595394
      ],
      [
        "niróo",
        -9.729406490987046
      ],
      [
        "▁boot",
        -9.730356246879184
      ],
      [
        "fara",
        -9.73289763684118
      ],
      [
        "▁Góo",
        -9.73334352799823
      ],
      [
        "▁jëmm",
        -9.734554960635982
      ],
      [
        "▁toje",
        -9.738965390527921
      ],
      [
        "▁nar",
        -9.739675569703133
      ],
      [
        "▁fuñ",
        -9.740388448126733
      ],
      [
        "aaj",
        -9.742462768204012
      ],
      [
        "▁moomoo",
        -9.747303195123015
      ],
      [
        "▁kee",
        -9.748530029544266
      ],
      [
        "▁té",
        -9.75034967805816
      ],
      [
        "ë",
        -9.751172437552068
      ],
      [
        "anam",
        -9.75261466327329
      ],
      [
        "▁njàng",
        -9.755058726861058
      ],
      [
        "▁ñam",
        -9.756162967324471
      ],
      [
        "ra",
        -9.76246965944194
      ],
      [
        "▁guddee",
        -9.763283416558924
      ],
      [
        "▁pée",
        -9.763484337628242
      ],
      [
        "ka",
        -9.763957566343484
      ],
      [
        "▁xe",
        -9.77002381914976
      ],
      [
        "tal",
        -9.772476576108751
      ],
      [
        "▁Ka",
        -9.776052766215084
      ],
      [
        "ok",
        -9.781479021722124
      ],
      [
        "▁Amu",
        -9.78204076452878
      ],
      [
        "▁taa",
        -9.78785023587906
      ],
      [
        "▁Wute",
        -9.788056926741188
      ],
      [
        "aana",
        -9.788115577142039
      ],
      [
        "▁soxnaa",
        -9.789206730090498
      ],
      [
        "▁lem",
        -9.79140661136359
      ],
      [
        "tin",
        -9.794942215363909
      ],
      [
        "▁191",
        -9.796009026466281
      ],
      [
        "jàmbaar",
        -9.800265548709886
      ],
      [
        "de",
        -9.809822775020553
      ],
      [
        "kook",
        -9.81583486314551
      ],
      [
        "rale",
        -9.81858480803001
      ],
      [
        "-réew",
        -9.819331530610445
      ],
      [
        "▁E",
        -9.82187335345167
      ],
      [
        "▁ndig",
        -9.825149826756533
      ],
      [
        "us",
        -9.82843837922146
      ],
      [
        "lay",
        -9.83493089327849
      ],
      [
        "ete",
        -9.835811358106412
      ],
      [
        "mag",
        -9.839000223254715
      ],
      [
        "Tubaab",
        -9.848222193437868
      ],
      [
        "▁tàkku",
        -9.848724825492203
      ],
      [
        "▁tab",
        -9.849387223569533
      ],
      [
        "àdd",
        -9.850929776610236
      ],
      [
        "kaa",
        -9.855492878279115
      ],
      [
        "▁doyu",
        -9.855954647800367
      ],
      [
        "▁wuy",
        -9.85666270346223
      ],
      [
        "ersi",
        -9.857647808927913
      ],
      [
        "▁bindoo",
        -9.861745203502307
      ],
      [
        "▁juróom-ñ",
        -9.862815148779765
      ],
      [
        "gaar",
        -9.864604186031665
      ],
      [
        "ekki",
        -9.864708330242838
      ],
      [
        "oŋŋ",
        -9.866026168955386
      ],
      [
        "laa",
        -9.866780595768592
      ],
      [
        "▁Ye",
        -9.868576411153846
      ],
      [
        "gg",
        -9.875652970816232
      ],
      [
        "▁jëli",
        -9.889073076354784
      ],
      [
        "▁lë",
        -9.889081098127814
      ],
      [
        "ara",
        -9.890651127982567
      ],
      [
        "uwaa",
        -9.890974060056832
      ],
      [
        "àpp",
        -9.896314961557676
      ],
      [
        "laat",
        -9.896625926873371
      ],
      [
        "▁wii",
        -9.899668494613271
      ],
      [
        "▁nëb",
        -9.902877818491218
      ],
      [
        "▁gas",
        -9.903233345735664
      ],
      [
        "taraa",
        -9.903306456719102
      ],
      [
        "▁Abo",
        -9.903452643594946
      ],
      [
        "ro",
        -9.905871236705547
      ],
      [
        "i-",
        -9.906498378075757
      ],
      [
        "▁ind",
        -9.909923209401367
      ],
      [
        "uur",
        -9.91281001315837
      ],
      [
        "ant",
        -9.91889358391359
      ],
      [
        "gal",
        -9.921870923498846
      ],
      [
        "▁dë",
        -9.922380590891766
      ],
      [
        "▁màgg",
        -9.923617918518673
      ],
      [
        "laam",
        -9.924655775690601
      ],
      [
        "roo",
        -9.925562229045555
      ],
      [
        "▁yàcc",
        -9.925954652137342
      ],
      [
        "▁De",
        -9.926163673470791
      ],
      [
        "▁sab",
        -9.928440407626992
      ],
      [
        "kàlla",
        -9.934240527246144
      ],
      [
        "▁kar",
        -9.934806658543296
      ],
      [
        "▁yii",
        -9.942107794373023
      ],
      [
        "njal",
        -9.943552608705708
      ],
      [
        "▁jàngale",
        -9.944331468694845
      ],
      [
        "mi",
        -9.945135810282915
      ],
      [
        "-ra",
        -9.946665549878372
      ],
      [
        "▁Juróom",
        -9.94945061352973
      ],
      [
        "ootul",
        -9.949490339201692
      ],
      [
        "▁cat",
        -9.952771891925366
      ],
      [
        "jàngoro",
        -9.953552056656145
      ],
      [
        "alu",
        -9.954139911028946
      ],
      [
        "féex",
        -9.95486740281438
      ],
      [
        "▁Gar",
        -9.955396538843743
      ],
      [
        "▁daawul",
        -9.955552286027984
      ],
      [
        "I",
        -9.963940392435445
      ],
      [
        "ur",
        -9.964955253519566
      ],
      [
        "▁fë",
        -9.96942773253388
      ],
      [
        "ali",
        -9.971695921658725
      ],
      [
        "xóot",
        -9.972597245329709
      ],
      [
        "▁Gu",
        -9.97279486562951
      ],
      [
        "▁Ng",
        -9.973159763271916
      ],
      [
        "▁juróom-ň",
        -9.973542545082337
      ],
      [
        "▁teqale",
        -9.974865106305293
      ],
      [
        "yi",
        -9.975675191269245
      ],
      [
        "▁teer",
        -9.976599621651285
      ],
      [
        "sam",
        -9.979448778341808
      ],
      [
        "▁Aw",
        -9.982787549064291
      ],
      [
        "▁yóbba",
        -9.988946538618704
      ],
      [
        "aq",
        -9.993578048880224
      ],
      [
        "▁dana",
        -9.995994352277405
      ],
      [
        "benn",
        -9.997105993256518
      ],
      [
        "▁ŋ",
        -9.997595137336942
      ],
      [
        "▁bokkoo",
        -9.998559749526528
      ],
      [
        "▁dugge",
        -9.998964016058075
      ],
      [
        "eel",
        -10.000112172577992
      ],
      [
        "reŋ",
        -10.000299322449855
      ],
      [
        "ng",
        -10.002037273082598
      ],
      [
        "▁juróom",
        -10.003633807234513
      ],
      [
        "▁jóg",
        -10.004577501261217
      ],
      [
        "ddi",
        -10.005121223410685
      ],
      [
        "ngo",
        -10.007207741264443
      ],
      [
        "x.",
        -10.007554689001601
      ],
      [
        "ëddu",
        -10.011020683932088
      ],
      [
        "bée",
        -10.011608065552235
      ],
      [
        "naan",
        -10.012276746741442
      ],
      [
        "téen",
        -10.013855732311487
      ],
      [
        "▁tegoo",
        -10.016789269711108
      ],
      [
        "▁ngone",
        -10.018193373236823
      ],
      [
        "óox",
        -10.020284699211958
      ],
      [
        "▁nes-nesi",
        -10.020898803375317
      ],
      [
        "raa",
        -10.028930189869623
      ],
      [
        "oñ",
        -10.029327594898945
      ],
      [
        "-f",
        -10.029335701086687
      ],
      [
        "▁saaf",
        -10.033753132827876
      ],
      [
        "▁kókkal",
        -10.034474732514184
      ],
      [
        "jum",
        -10.03531328312074
      ],
      [
        "sama",
        -10.035713350271946
      ],
      [
        "▁yée",
        -10.03913276927712
      ],
      [
        "▁ñoom.",
        -10.040219310628443
      ],
      [
        "▁bà",
        -10.042455934699575
      ],
      [
        "he",
        -10.043813338818559
      ],
      [
        "▁Sam",
        -10.044064682416895
      ],
      [
        "abax",
        -10.044440963207892
      ],
      [
        "eexul",
        -10.045327462906403
      ],
      [
        "▁ndeysaan",
        -10.048502992990116
      ],
      [
        "ca",
        -10.049445119884433
      ],
      [
        "▁dalu",
        -10.049937856049233
      ],
      [
        "▁Laaj",
        -10.050470610919612
      ],
      [
        "ili",
        -10.051636279296114
      ],
      [
        "▁xë",
        -10.052031419904958
      ],
      [
        "▁tuut",
        -10.05215446555289
      ],
      [
        "▁sañu",
        -10.057622721994427
      ],
      [
        "▁daje",
        -10.058179880198157
      ],
      [
        "▁Ko",
        -10.061267478091173
      ],
      [
        "▁xott",
        -10.061549872801162
      ],
      [
        "▁tam",
        -10.062024303337731
      ],
      [
        "omb",
        -10.062935147303165
      ],
      [
        "▁jooj",
        -10.064731962553827
      ],
      [
        "ewuma",
        -10.064971914610378
      ],
      [
        "▁tàbb",
        -10.066221671178003
      ],
      [
        "àng",
        -10.06740678545472
      ],
      [
        "ësu",
        -10.06969518463814
      ],
      [
        "▁rëb",
        -10.072246287932082
      ],
      [
        "▁yomb",
        -10.073046366288152
      ],
      [
        "aaki",
        -10.075065177578063
      ],
      [
        "▁fen",
        -10.076651849012682
      ],
      [
        "▁Fo",
        -10.076998025081508
      ],
      [
        "▁xun",
        -10.078912778477633
      ],
      [
        "▁O",
        -10.07962062307258
      ],
      [
        "bégte",
        -10.081167047484197
      ],
      [
        "▁xoo",
        -10.081625842133834
      ],
      [
        "▁À",
        -10.081809179395322
      ],
      [
        "▁Nguu",
        -10.08186033659453
      ],
      [
        "'",
        -10.082249214277148
      ],
      [
        "▁sàq",
        -10.08276472077768
      ],
      [
        "àttalikuwu",
        -10.083692117144189
      ],
      [
        "bembe",
        -10.084111677192421
      ],
      [
        "▁firnde",
        -10.08444462460131
      ],
      [
        "4",
        -10.084549834197492
      ],
      [
        "oxor",
        -10.08456558030442
      ],
      [
        "▁Yàkkamtiwuñu",
        -10.084632943005232
      ],
      [
        "▁Ësen",
        -10.084632943005627
      ],
      [
        "▁ràŋŋatik",
        -10.08463294300625
      ],
      [
        "▁pàpaaya",
        -10.084632943009147
      ],
      [
        "▁Kótónu",
        -10.084632943040504
      ],
      [
        "▁pët-pëti",
        -10.084632943045147
      ],
      [
        "▁jóolóoli",
        -10.084632943091282
      ],
      [
        "▁Normàndi",
        -10.084632943104566
      ],
      [
        "▁wër-ndomb",
        -10.084632943161282
      ],
      [
        "▁195",
        -10.08463294325674
      ],
      [
        "▁takkarnaase",
        -10.084632943273416
      ],
      [
        "ëppaa-lëpp",
        -10.084632943425925
      ],
      [
        "▁Voyage",
        -10.08463294410576
      ],
      [
        "▁soree-sori",
        -10.084632946203309
      ],
      [
        "▁armiňoŋ",
        -10.084632946864721
      ],
      [
        "▁berkelle",
        -10.084632946978614
      ],
      [
        "▁biiri-taññ",
        -10.084632948062689
      ],
      [
        "▁Demeraraa",
        -10.084632950152562
      ],
      [
        "▁ótó",
        -10.084632952894376
      ],
      [
        "▁Dispañseer",
        -10.084632954266064
      ],
      [
        "kànkarla",
        -10.084632955038792
      ],
      [
        "▁1928",
        -10.084632956675861
      ],
      [
        "▁kerewol",
        -10.084632962300907
      ],
      [
        "▁alaateret",
        -10.084632974447668
      ],
      [
        "awanpoor",
        -10.084632979289548
      ],
      [
        "▁yëngu-yëngu",
        -10.08463298387202
      ],
      [
        "▁BBC",
        -10.084632988954693
      ],
      [
        "▁faagaagal",
        -10.084633028426536
      ],
      [
        "▁pentuur",
        -10.084633048894672
      ],
      [
        "▁gàngune",
        -10.084633055481051
      ],
      [
        "▁faraňse",
        -10.084633073113752
      ],
      [
        "▁walbatiku",
        -10.084633090196348
      ],
      [
        "▁sarwiis",
        -10.08463312447147
      ],
      [
        "▁tombu-",
        -10.084633151848552
      ],
      [
        "▁Bawob",
        -10.084633268731663
      ],
      [
        "▁bànqaas",
        -10.084633285431252
      ],
      [
        "▁Àbbaa",
        -10.0846335124326
      ],
      [
        "▁Duwaalaa",
        -10.084633513132674
      ],
      [
        "▁pàttalik",
        -10.08463355227377
      ],
      [
        "▁rewle",
        -10.08463355284433
      ],
      [
        "▁jàmbat",
        -10.084633554038199
      ],
      [
        "▁rangooñ",
        -10.084633619518435
      ],
      [
        "jonni-Yàlla-tey",
        -10.084633676878951
      ],
      [
        "▁jànkoontee",
        -10.084634026200243
      ],
      [
        "▁Diggante",
        -10.084634051945784
      ],
      [
        "▁pijin",
        -10.084634080390225
      ],
      [
        "▁laaxira",
        -10.084634118097783
      ],
      [
        "tëñëx",
        -10.08463428586731
      ],
      [
        "▁Liggéey",
        -10.084634289685336
      ],
      [
        "▁dëkkoo-dëkk",
        -10.084634298253851
      ],
      [
        "▁mbañeel",
        -10.08463433225065
      ],
      [
        "▁kompale",
        -10.084634524093133
      ],
      [
        "▁Gént",
        -10.084635304967254
      ],
      [
        "▁takkandeer",
        -10.084635561603271
      ],
      [
        "▁almet",
        -10.084636906358948
      ],
      [
        "▁Eend",
        -10.08463692394665
      ],
      [
        "▁jàmbure",
        -10.084636957629776
      ],
      [
        "▁xiibon",
        -10.084638127138565
      ],
      [
        "butéel",
        -10.084638202321958
      ],
      [
        "▁Londar",
        -10.084638494917543
      ],
      [
        "▁Téere",
        -10.08463948947466
      ],
      [
        "▁doomu-ndey",
        -10.084639550318604
      ],
      [
        "▁tuumaal",
        -10.084639588391916
      ],
      [
        "▁réccu",
        -10.084639923444733
      ],
      [
        "▁xàjj",
        -10.084640450479696
      ],
      [
        "▁mbëggeel",
        -10.084642868285544
      ],
      [
        "▁caraxam",
        -10.084643229821225
      ],
      [
        "▁xorom",
        -10.084643709143286
      ],
      [
        "▁lottal",
        -10.084643776345686
      ],
      [
        "▁njàmburam",
        -10.084644811870909
      ],
      [
        "▁Saxaraa",
        -10.084645356124774
      ],
      [
        "▁jaxase",
        -10.084652664766024
      ],
      [
        "▁tiitaange",
        -10.08465575021183
      ],
      [
        "▁picc",
        -10.084656127321002
      ],
      [
        "▁Gesam",
        -10.084656650401357
      ],
      [
        "▁fàŋŋ",
        -10.084659420218687
      ],
      [
        "▁geestu",
        -10.0846629294539
      ],
      [
        "▁teerusi",
        -10.084663305274898
      ],
      [
        "▁tuwaal",
        -10.08466996896987
      ],
      [
        "▁garabu-tiir",
        -10.084670188639695
      ],
      [
        "tërëf",
        -10.084671154351225
      ],
      [
        "▁siraas",
        -10.084678962010083
      ],
      [
        "▁soxla",
        -10.084681759952318
      ],
      [
        "▁njaay-àll",
        -10.084682674569308
      ],
      [
        "▁poson",
        -10.084685000714739
      ],
      [
        "▁naawantu",
        -10.084687410467021
      ],
      [
        "▁junniy",
        -10.084689389054214
      ],
      [
        "▁1948",
        -10.0846972951562
      ],
      [
        "▁medaay",
        -10.084699282438326
      ],
      [
        "▁Farãs",
        -10.084708199775086
      ],
      [
        "▁colin",
        -10.084719998313863
      ],
      [
        "▁keppaar",
        -10.08472762111805
      ],
      [
        "▁ganesee",
        -10.084728630229591
      ],
      [
        "▁dénk",
        -10.084734890021558
      ],
      [
        "▁cafko",
        -10.084739081910946
      ],
      [
        "▁toxu",
        -10.084742179642529
      ],
      [
        "▁Ogaar",
        -10.084742249952498
      ],
      [
        "▁àntuwul",
        -10.084759631481395
      ],
      [
        "▁Seetl",
        -10.084762529978878
      ],
      [
        "▁agsee",
        -10.084763645050382
      ],
      [
        "▁reewan",
        -10.084771197360649
      ],
      [
        "▁jaaxle",
        -10.08479249647843
      ],
      [
        "▁póliti",
        -10.084799625954023
      ],
      [
        "àndarma",
        -10.084807653234613
      ],
      [
        "▁golf",
        -10.08480778959062
      ],
      [
        "▁woyantu",
        -10.084808027934097
      ],
      [
        "▁xew-xew",
        -10.084819432107274
      ],
      [
        "▁doomi-tubaab",
        -10.084825845087003
      ],
      [
        "▁néegu-ban",
        -10.084826110486834
      ],
      [
        "▁ñaawtéef",
        -10.084830471976614
      ],
      [
        "▁wujje",
        -10.084839845893264
      ],
      [
        "▁karwaat",
        -10.084850990316312
      ],
      [
        "▁Yàggu",
        -10.084863716326348
      ],
      [
        "▁musiba",
        -10.08488513351167
      ],
      [
        "▁Coono",
        -10.08488625328209
      ],
      [
        "▁aadawoo",
        -10.08491734796878
      ],
      [
        "▁noyyee",
        -10.084936421027702
      ],
      [
        "▁dëmm",
        -10.084958510584423
      ],
      [
        "▁jikko",
        -10.084967451477272
      ],
      [
        "▁déeyante",
        -10.084983711970038
      ],
      [
        "▁xocc",
        -10.084988202299993
      ],
      [
        "▁Yaali",
        -10.084989822449835
      ],
      [
        "▁ñibbi",
        -10.085004099398837
      ],
      [
        "▁ruuj",
        -10.085036626298718
      ],
      [
        "ston",
        -10.085070936951281
      ],
      [
        "éej",
        -10.085118465056983
      ],
      [
        "▁xó",
        -10.085179331638532
      ],
      [
        "▁dajaloo",
        -10.08518067862056
      ],
      [
        "▁ndée",
        -10.085258054924951
      ],
      [
        "▁njëgg",
        -10.085310247301313
      ],
      [
        "▁Mbembe",
        -10.085315031697863
      ],
      [
        "▁butit",
        -10.085331255374246
      ],
      [
        "▁Gëm",
        -10.08536607150334
      ],
      [
        "▁xumb",
        -10.085369044363842
      ],
      [
        "▁wisit",
        -10.08544093397471
      ],
      [
        "▁xeej",
        -10.085471100361227
      ],
      [
        "▁xultu",
        -10.08548438945824
      ],
      [
        "▁Jàpp",
        -10.085567486183608
      ],
      [
        "ti-maam",
        -10.085590490702655
      ],
      [
        "▁xërëmkat",
        -10.085618677038203
      ],
      [
        "▁mbaxan",
        -10.085705229754577
      ],
      [
        "▁siso",
        -10.085705641034682
      ],
      [
        "▁yendoo",
        -10.085761361200007
      ],
      [
        "▁waaso",
        -10.085772923583617
      ],
      [
        "-Ma",
        -10.085790623050613
      ],
      [
        "▁digaalee",
        -10.085836114988554
      ],
      [
        "undu",
        -10.085838297928948
      ],
      [
        "▁naxantee",
        -10.085843562038335
      ],
      [
        "▁ñefe",
        -10.085898292802902
      ],
      [
        "▁tigi",
        -10.085904951148839
      ],
      [
        "▁ràgg",
        -10.085906569299365
      ],
      [
        "▁Babungoo",
        -10.085970905649582
      ],
      [
        "▁léj",
        -10.085998639248947
      ],
      [
        "▁léeg",
        -10.086006432222419
      ],
      [
        "▁Ànd",
        -10.086046398055773
      ],
      [
        "▁Àll",
        -10.086048530538502
      ],
      [
        "▁ngunu",
        -10.08609098034358
      ],
      [
        "▁bëccëg",
        -10.086103626743432
      ],
      [
        "▁sànq",
        -10.086103908425473
      ],
      [
        "▁liise",
        -10.086114412372702
      ],
      [
        "▁Kari",
        -10.08613993527303
      ],
      [
        "▁àndandoo",
        -10.086149433159985
      ],
      [
        "bootaay",
        -10.086162132674161
      ],
      [
        "▁jàq",
        -10.08619439130045
      ],
      [
        "▁limaale",
        -10.086210871292428
      ],
      [
        "▁njatt",
        -10.08643818773858
      ],
      [
        "▁coyy",
        -10.08659038116129
      ],
      [
        "▁yëg-yëg",
        -10.086626353069544
      ],
      [
        "▁yewwi",
        -10.0866927629079
      ],
      [
        "▁tegtal",
        -10.086796265889431
      ],
      [
        "▁fajukaay",
        -10.08688014697217
      ],
      [
        "▁mbàjj",
        -10.086889140564768
      ],
      [
        "'s",
        -10.087022205195732
      ],
      [
        "▁Ija",
        -10.087029158301483
      ],
      [
        "▁jafal",
        -10.087251861049094
      ],
      [
        "▁rab",
        -10.087353867163019
      ],
      [
        "▁màggetloo",
        -10.087523716359625
      ],
      [
        "ërëm",
        -10.087584295272226
      ],
      [
        "▁jànkonteel",
        -10.087794541387842
      ],
      [
        "▁xeeñ",
        -10.087808643863289
      ],
      [
        "▁Baali",
        -10.087869759386638
      ],
      [
        "▁coll",
        -10.087960124130078
      ],
      [
        "▁Suwee",
        -10.088072098803607
      ],
      [
        "▁komfi",
        -10.088214373422643
      ],
      [
        "ginaar",
        -10.08825701839808
      ],
      [
        "▁fentaakon",
        -10.088440457887684
      ],
      [
        "▁rakk",
        -10.088489325526167
      ],
      [
        "▁sëqat",
        -10.088540243346095
      ],
      [
        "▁Jur",
        -10.088871834351362
      ],
      [
        "▁ñall",
        -10.088933500802332
      ],
      [
        "▁maandu",
        -10.088948877582402
      ],
      [
        "▁sàqam",
        -10.088978780983739
      ],
      [
        "ddina",
        -10.089054504914085
      ],
      [
        "▁Nguur",
        -10.08906158084475
      ],
      [
        "▁Tàm",
        -10.089202612885696
      ],
      [
        "▁beru",
        -10.089243228463083
      ],
      [
        "▁nemm",
        -10.089248620388762
      ],
      [
        "▁karne",
        -10.08946869538073
      ],
      [
        "-gal",
        -10.089503810036087
      ],
      [
        "▁gënaloon",
        -10.089605920938862
      ],
      [
        "▁safaan",
        -10.089709715727388
      ],
      [
        "▁Bor",
        -10.089757782103522
      ],
      [
        "unóor",
        -10.08977715878657
      ],
      [
        "▁reelu",
        -10.089830480892374
      ],
      [
        "▁faatoo",
        -10.089907953014542
      ],
      [
        "▁fufu",
        -10.090029146612531
      ],
      [
        "▁Ngon",
        -10.09006088161001
      ],
      [
        "▁tàqal",
        -10.090197863625901
      ],
      [
        "▁xaritoo",
        -10.09022097677371
      ],
      [
        "ilyaa",
        -10.090289328130947
      ],
      [
        "▁koste",
        -10.090326244724725
      ],
      [
        "ilifa",
        -10.090353798933585
      ],
      [
        "itis",
        -10.090354989982975
      ],
      [
        "▁Bokk",
        -10.090435886825924
      ],
      [
        "ëfinam",
        -10.090441344776874
      ],
      [
        "▁yombul",
        -10.090754756314974
      ],
      [
        "bukun",
        -10.0908633245393
      ],
      [
        "▁Dogal",
        -10.091109541658982
      ],
      [
        "wel",
        -10.09127462316947
      ],
      [
        "▁fajar",
        -10.091299769931911
      ],
      [
        "▁ňax",
        -10.09131409808449
      ],
      [
        "▁waxaale",
        -10.091361956290973
      ],
      [
        "▁taxawaay",
        -10.091399190711334
      ],
      [
        "▁bàq",
        -10.091467997350126
      ],
      [
        "▁bóoy",
        -10.092117919887631
      ],
      [
        "àkkaan",
        -10.092365628988794
      ],
      [
        "▁daraja",
        -10.092390252906009
      ],
      [
        "to",
        -10.092443298967979
      ],
      [
        "wii",
        -10.092597825145155
      ],
      [
        "woŋ",
        -10.09275445837777
      ],
      [
        "▁tuuru",
        -10.092825250680082
      ],
      [
        "▁keppukaay",
        -10.093072359848064
      ],
      [
        "▁dof",
        -10.093139660987456
      ],
      [
        "▁féexlu",
        -10.093240194130468
      ],
      [
        "▁tiital",
        -10.093486338560023
      ],
      [
        "ettali",
        -10.09409729774884
      ],
      [
        "▁esk",
        -10.094214691455544
      ],
      [
        "àq",
        -10.094452045168154
      ],
      [
        "▁sédd",
        -10.094467172422629
      ],
      [
        "▁Foor",
        -10.094627702642514
      ],
      [
        "▁ganale",
        -10.094696469642352
      ],
      [
        "▁dogal",
        -10.094966610094623
      ],
      [
        "▁kili",
        -10.095398051929008
      ],
      [
        "▁puur",
        -10.095536018503212
      ],
      [
        "▁këf",
        -10.095567399668445
      ],
      [
        "▁déeg",
        -10.095786484500021
      ],
      [
        "▁lell",
        -10.09583753727441
      ],
      [
        "saŋ",
        -10.096236365990912
      ],
      [
        "poto",
        -10.096293915595137
      ],
      [
        "▁guus",
        -10.096370527029555
      ],
      [
        "▁Jaay",
        -10.096516907247262
      ],
      [
        "▁fàn",
        -10.096675005520154
      ],
      [
        "▁sànga",
        -10.097293169637563
      ],
      [
        "▁wetam",
        -10.09730058631279
      ],
      [
        "▁ñé",
        -10.097354978091099
      ],
      [
        "▁tàngaayam",
        -10.098413351411551
      ],
      [
        "▁wéeru",
        -10.098534746955192
      ],
      [
        "▁tappal",
        -10.098788564852011
      ],
      [
        "▁askanam",
        -10.098797029588738
      ],
      [
        "▁bàyyeeku",
        -10.09895153797306
      ],
      [
        "▁bidd",
        -10.099059751527463
      ],
      [
        "▁Miin",
        -10.099121417481907
      ],
      [
        "▁summi",
        -10.099561271311558
      ],
      [
        "▁Bamako",
        -10.099725793442426
      ],
      [
        "▁yombut",
        -10.099862463044916
      ],
      [
        "▁feeň",
        -10.100390337131836
      ],
      [
        "▁palanteeram",
        -10.1005459446394
      ],
      [
        "umanda",
        -10.10098780029626
      ],
      [
        "▁waaw",
        -10.10107185383449
      ],
      [
        "▁Xaj",
        -10.10160840953791
      ],
      [
        "▁fer",
        -10.101733216782298
      ],
      [
        "ëf",
        -10.10261951544884
      ],
      [
        "▁juumul",
        -10.103152297222184
      ],
      [
        "▁ëf",
        -10.1034194078002
      ],
      [
        "▁foog",
        -10.10345599448386
      ],
      [
        "is",
        -10.103560290564367
      ],
      [
        "ortale",
        -10.103811909551757
      ],
      [
        "▁yilifoon",
        -10.1038131632469
      ],
      [
        "▁fattu",
        -10.104201209579227
      ],
      [
        "-L",
        -10.10433780166643
      ],
      [
        "rabi-",
        -10.104468614619712
      ],
      [
        "▁yell",
        -10.104911383071064
      ],
      [
        "iiru",
        -10.104972057609407
      ],
      [
        "àjjan",
        -10.105152904492366
      ],
      [
        "▁géttu",
        -10.105483035631504
      ],
      [
        "▁opeeree",
        -10.105537533985448
      ],
      [
        "▁dab",
        -10.105597846990362
      ],
      [
        "▁tor",
        -10.105599668755389
      ],
      [
        "▁dundale",
        -10.105944534514808
      ],
      [
        "▁Pom",
        -10.1059534089475
      ],
      [
        "▁Dunu",
        -10.10646144512137
      ],
      [
        "▁teggin",
        -10.106501137627632
      ],
      [
        "▁El",
        -10.106735055347805
      ],
      [
        "-pas",
        -10.106998385854292
      ],
      [
        "or",
        -10.107530756905566
      ],
      [
        "réew",
        -10.107851332760514
      ],
      [
        "▁ubbee",
        -10.107975265919928
      ],
      [
        "▁noonam",
        -10.108231353231966
      ],
      [
        "▁tàbbi",
        -10.108249962646063
      ],
      [
        "▁Jon",
        -10.108731828473331
      ],
      [
        "bure",
        -10.109251966569293
      ],
      [
        "▁Njo",
        -10.110637023665024
      ],
      [
        "rtal",
        -10.11119018360881
      ],
      [
        "▁dawalkat",
        -10.111538942804826
      ],
      [
        "▁Dinañ",
        -10.112236988083163
      ],
      [
        "doorte",
        -10.11378530718699
      ],
      [
        "roon",
        -10.113798450979507
      ],
      [
        "▁Kab",
        -10.113875415687138
      ],
      [
        "▁Pen",
        -10.114009542622426
      ],
      [
        "▁bëlu",
        -10.114299193225978
      ],
      [
        "▁xotti",
        -10.114319852310782
      ],
      [
        "▁Cet",
        -10.11563251667451
      ],
      [
        "eful",
        -10.115769526578072
      ],
      [
        "▁mënat",
        -10.116057782742532
      ],
      [
        "▁gàddu",
        -10.116117606220211
      ],
      [
        "▁ňoo",
        -10.116991073946675
      ],
      [
        "▁desoon",
        -10.11711102381598
      ],
      [
        "▁Masur",
        -10.117738925918522
      ],
      [
        "ëcc",
        -10.117739806163648
      ],
      [
        "▁bañoon",
        -10.118778546524345
      ],
      [
        "▁caq",
        -10.11972728860551
      ],
      [
        "▁bàyyima",
        -10.120547289721227
      ],
      [
        "buur",
        -10.120614683773105
      ],
      [
        "▁Dóo",
        -10.120843422623038
      ],
      [
        "▁laaf",
        -10.121695778442545
      ],
      [
        "atle",
        -10.122002326558556
      ],
      [
        "ilwi",
        -10.123464616475086
      ],
      [
        "gante",
        -10.1244521090823
      ],
      [
        "waay",
        -10.12454996690584
      ],
      [
        "▁gëmm",
        -10.126092167089533
      ],
      [
        "▁faatu",
        -10.126695191562314
      ],
      [
        "▁booboo",
        -10.127198019071685
      ],
      [
        "▁dikkal",
        -10.128478046115486
      ],
      [
        "▁jubb",
        -10.128511485224305
      ],
      [
        "ndeel",
        -10.12892655248266
      ],
      [
        "▁jubale",
        -10.129054051307573
      ],
      [
        "▁safatu",
        -10.129399122267944
      ],
      [
        "nqam",
        -10.12993610865515
      ],
      [
        "▁séy",
        -10.13017962363984
      ],
      [
        "▁taaxu",
        -10.130356900631437
      ],
      [
        "▁neexoon",
        -10.130474679169675
      ],
      [
        "otoom",
        -10.131252914579328
      ],
      [
        "▁në",
        -10.131480447313923
      ],
      [
        "▁kaas",
        -10.131538091980136
      ],
      [
        "laak",
        -10.133119571759968
      ],
      [
        "▁lunk",
        -10.134344619767992
      ],
      [
        "▁maaj",
        -10.13465710913997
      ],
      [
        "▁àggee",
        -10.134719785299158
      ],
      [
        "▁xasa",
        -10.134951953066604
      ],
      [
        "ewaan",
        -10.134952026717725
      ],
      [
        "jj",
        -10.135498957208632
      ],
      [
        "▁bépp",
        -10.135519378652997
      ],
      [
        "▁ginnaa",
        -10.135907531722628
      ],
      [
        "▁tànkam",
        -10.136404226448606
      ],
      [
        "Afrig",
        -10.136869335217165
      ],
      [
        "▁kókkali",
        -10.137510509459212
      ],
      [
        "▁pey",
        -10.140595860018243
      ],
      [
        "▁kersa",
        -10.142310261210095
      ],
      [
        "▁ñooñu",
        -10.142371534750001
      ],
      [
        "▁nóox",
        -10.143255110059636
      ],
      [
        "▁Co",
        -10.143670440339122
      ],
      [
        "▁fuuy",
        -10.144989982487273
      ],
      [
        "▁Bar",
        -10.145775264969823
      ],
      [
        "▁wallu",
        -10.146470131092826
      ],
      [
        "kasaw",
        -10.146498444531789
      ],
      [
        "oor",
        -10.14660269552459
      ],
      [
        "▁yoo",
        -10.147694631609527
      ],
      [
        "▁naax",
        -10.148327455454663
      ],
      [
        "▁jib",
        -10.150987846236294
      ],
      [
        "▁néegu-ňax",
        -10.151089874079862
      ],
      [
        "▁xoolin",
        -10.151186408026767
      ],
      [
        "▁nes-nesil",
        -10.152575362005043
      ],
      [
        "▁dam",
        -10.153036838500071
      ],
      [
        "▁jal",
        -10.153808650152461
      ],
      [
        "▁koň",
        -10.154139900954876
      ],
      [
        "▁nob",
        -10.154985732978245
      ],
      [
        "▁àttan",
        -10.15502595562718
      ],
      [
        "jom",
        -10.155128711899248
      ],
      [
        "▁abal",
        -10.156595534151753
      ],
      [
        "fit",
        -10.156633189178015
      ],
      [
        "▁wo",
        -10.157170375407722
      ],
      [
        "ram",
        -10.15785129154608
      ],
      [
        "gin",
        -10.158902190736924
      ],
      [
        "▁liggéeyam",
        -10.159007927860728
      ],
      [
        "juumte",
        -10.159271378791402
      ],
      [
        "ddu",
        -10.159374310904425
      ],
      [
        "óot",
        -10.16052494500126
      ],
      [
        "▁mbiram",
        -10.161240466578818
      ],
      [
        "▁nirool",
        -10.161315574238087
      ],
      [
        "alaat",
        -10.162489771174096
      ],
      [
        "▁Mil",
        -10.166347246619528
      ],
      [
        "▁Si",
        -10.16658440587706
      ],
      [
        "▁sàppi",
        -10.167948987723317
      ],
      [
        "▁jotu",
        -10.168562254107105
      ],
      [
        "▁Ek",
        -10.169944381555434
      ],
      [
        "▁Nde",
        -10.171615813053856
      ],
      [
        "▁liw",
        -10.172484735009832
      ],
      [
        "▁feyu",
        -10.172749101336949
      ],
      [
        "▁paj",
        -10.17302737979306
      ],
      [
        "▁Foof",
        -10.173120697610956
      ],
      [
        "óor-",
        -10.173243801360293
      ],
      [
        "▁jub",
        -10.173589539871532
      ],
      [
        "▁tag",
        -10.174944456620302
      ],
      [
        "▁bëm",
        -10.175447182751288
      ],
      [
        "▁mënal",
        -10.176243536741655
      ],
      [
        "▁jàmbaar",
        -10.176719735408525
      ],
      [
        "▁Ban",
        -10.178419371569309
      ],
      [
        "▁ñag",
        -10.179037841309379
      ],
      [
        "▁réewam",
        -10.181379955242509
      ],
      [
        "ama",
        -10.181381320425409
      ],
      [
        "▁féexal",
        -10.181563706801304
      ],
      [
        "▁waxtaane",
        -10.18186091743363
      ],
      [
        "hi",
        -10.183446531827785
      ],
      [
        "njàpp",
        -10.186440893342896
      ],
      [
        "▁saxaar",
        -10.186720834602013
      ],
      [
        "uus",
        -10.189055281454936
      ],
      [
        "▁Tama",
        -10.189121315447132
      ],
      [
        "▁Se",
        -10.189296849261144
      ],
      [
        "eykat",
        -10.191024928625634
      ],
      [
        "▁maas",
        -10.192238689405805
      ],
      [
        "▁liggéeykat",
        -10.195265727115316
      ],
      [
        "bax",
        -10.197087557795056
      ],
      [
        "kuur",
        -10.197673969020126
      ],
      [
        "▁nj",
        -10.202312557565431
      ],
      [
        "rmeel",
        -10.203173571960452
      ],
      [
        "▁Mari",
        -10.203549994037099
      ],
      [
        "▁mbool",
        -10.203826342444861
      ],
      [
        "je",
        -10.203939190993587
      ],
      [
        "▁lee",
        -10.204021091580984
      ],
      [
        "isoŋ",
        -10.204379341341618
      ],
      [
        "▁sor",
        -10.207888434721454
      ],
      [
        "anaa",
        -10.209171136424972
      ],
      [
        "▁ub",
        -10.20963906076701
      ],
      [
        "▁juróom-ňe",
        -10.210257996671565
      ],
      [
        "éew",
        -10.21336735777732
      ],
      [
        "▁ngonee",
        -10.214006331062556
      ],
      [
        "▁Koo",
        -10.21516103230875
      ],
      [
        "▁néegu",
        -10.21567477545766
      ],
      [
        "moo",
        -10.216516929221704
      ],
      [
        "–",
        -10.217679544289258
      ],
      [
        "▁terewu",
        -10.21829307724683
      ],
      [
        "é",
        -10.218304299304357
      ],
      [
        "patam",
        -10.219511192096737
      ],
      [
        "▁muuroo",
        -10.219568241178948
      ],
      [
        "▁Gara",
        -10.220182275405504
      ],
      [
        "wó",
        -10.221722963976552
      ],
      [
        "▁jar",
        -10.224177973979534
      ],
      [
        "▁be",
        -10.225498370435421
      ],
      [
        "andu",
        -10.232187950701311
      ],
      [
        "▁defee",
        -10.232631736493037
      ],
      [
        "bidaa",
        -10.233057321752922
      ],
      [
        "waar",
        -10.234360519833016
      ],
      [
        "atoo",
        -10.234467711498965
      ],
      [
        "▁jàngoro",
        -10.23507999618202
      ],
      [
        "▁joxe",
        -10.237304538241712
      ],
      [
        "▁lekke",
        -10.238021738154194
      ],
      [
        "▁fir",
        -10.238568074477552
      ],
      [
        "▁defoon",
        -10.239483860196579
      ],
      [
        "▁xañ",
        -10.239518985719714
      ],
      [
        "▁dand",
        -10.240225675139822
      ],
      [
        "óoy",
        -10.24035678516593
      ],
      [
        "aare",
        -10.240841470766961
      ],
      [
        "▁sag",
        -10.243007096159882
      ],
      [
        "uji",
        -10.243021961202583
      ],
      [
        "▁xu",
        -10.24383500148479
      ],
      [
        "▁ëppal",
        -10.245956712223625
      ],
      [
        "waas",
        -10.246513207616529
      ],
      [
        "▁pala",
        -10.24717302042982
      ],
      [
        "itam",
        -10.247354849727335
      ],
      [
        "▁bër",
        -10.24870620616574
      ],
      [
        "▁too",
        -10.249798824387819
      ],
      [
        "▁ñemee",
        -10.249899194062696
      ],
      [
        "▁puso",
        -10.250905712988018
      ],
      [
        "▁Ro",
        -10.251376942589626
      ],
      [
        "aal",
        -10.251820810361489
      ],
      [
        "mbës",
        -10.254678015016692
      ],
      [
        "▁soriwu",
        -10.254722360015649
      ],
      [
        "aŋ",
        -10.254774002739026
      ],
      [
        "▁téene",
        -10.255185721120062
      ],
      [
        "▁loxoo",
        -10.25666814622619
      ],
      [
        "▁xama",
        -10.259964097945945
      ],
      [
        "▁Pa",
        -10.260040098139728
      ],
      [
        "▁Loo",
        -10.26159143586844
      ],
      [
        "kurti",
        -10.264890958135616
      ],
      [
        "▁xalee",
        -10.264943520328403
      ],
      [
        "▁defaral",
        -10.2651186856629
      ],
      [
        "▁fat",
        -10.266705225983793
      ],
      [
        "▁dëkkam",
        -10.267925076612629
      ],
      [
        "mboo",
        -10.269179792276763
      ],
      [
        "pora",
        -10.26984525886786
      ],
      [
        "▁No",
        -10.271164178920621
      ],
      [
        "▁he",
        -10.272032654453193
      ],
      [
        "▁xàll",
        -10.272735758135553
      ],
      [
        "tip",
        -10.27467425708298
      ],
      [
        "▁nes",
        -10.275122134841416
      ],
      [
        "▁naaw",
        -10.27904946588359
      ],
      [
        "-ja",
        -10.283194182053702
      ],
      [
        "erin",
        -10.284524605027215
      ],
      [
        "▁waxin",
        -10.28625207816049
      ],
      [
        "▁do",
        -10.289799463220106
      ],
      [
        "▁fàttalik",
        -10.292151388914517
      ],
      [
        "-wa",
        -10.294446285306655
      ],
      [
        "ér",
        -10.297489778891
      ],
      [
        "▁jànqu",
        -10.29856476192922
      ],
      [
        "▁là",
        -10.300753523361012
      ],
      [
        "▁mbaar",
        -10.301409713031076
      ],
      [
        "▁Ñooñ",
        -10.301640950331722
      ],
      [
        "▁Ke",
        -10.302647541871346
      ],
      [
        "▁Kana",
        -10.308902810333258
      ],
      [
        "aalif",
        -10.312936404245749
      ],
      [
        "ngali",
        -10.314326228584887
      ],
      [
        "bou",
        -10.316766967870818
      ],
      [
        "axande",
        -10.31873540830417
      ],
      [
        "▁kaar",
        -10.31893321544669
      ],
      [
        "▁wur",
        -10.321548846692473
      ],
      [
        "▁tasee",
        -10.323467041830071
      ],
      [
        "jort",
        -10.326166342450719
      ],
      [
        "àññ",
        -10.328525981361686
      ],
      [
        "góor",
        -10.33236857004087
      ],
      [
        "▁ndoxu",
        -10.334619718320967
      ],
      [
        "ëkk",
        -10.336924421877294
      ],
      [
        "▁doxandéem.",
        -10.337273040484789
      ],
      [
        "awale",
        -10.338440069619292
      ],
      [
        "▁ndon",
        -10.338552761923438
      ],
      [
        "ñoom",
        -10.341818614857829
      ],
      [
        "▁sangu",
        -10.343548407837602
      ],
      [
        "xam",
        -10.344518853006273
      ],
      [
        "ott",
        -10.344854919819314
      ],
      [
        "asin",
        -10.345471664799563
      ],
      [
        "ndiŋ",
        -10.347445259974144
      ],
      [
        "siye",
        -10.349344661118833
      ],
      [
        "▁Yó",
        -10.351539490451891
      ],
      [
        "gelaw",
        -10.351888303273856
      ],
      [
        "▁jig",
        -10.353576383921325
      ],
      [
        "▁siir",
        -10.354556491274499
      ],
      [
        "b-x",
        -10.354890931349436
      ],
      [
        "▁jëw",
        -10.354979504282824
      ],
      [
        "kow",
        -10.356163584564912
      ],
      [
        "▁ñaare",
        -10.356368302669752
      ],
      [
        "too",
        -10.357919448594824
      ],
      [
        "àcc-",
        -10.358626793543639
      ],
      [
        "▁Mënu",
        -10.359819657393698
      ],
      [
        "may",
        -10.360614307647529
      ],
      [
        "▁digal",
        -10.364696281068376
      ],
      [
        "▁tefesu",
        -10.368339669896496
      ],
      [
        "ulli",
        -10.369479693433464
      ],
      [
        "r-",
        -10.36960950766673
      ],
      [
        "rukaayam",
        -10.370775889473062
      ],
      [
        "émb",
        -10.372589426585684
      ],
      [
        "ënn",
        -10.374183650006785
      ],
      [
        "àngóor",
        -10.375967171055873
      ],
      [
        "iw",
        -10.378179886246292
      ],
      [
        "▁yàqu",
        -10.383437256752552
      ],
      [
        "enke",
        -10.385218771479954
      ],
      [
        "▁teey",
        -10.39007295860581
      ],
      [
        "ay-",
        -10.393068998060215
      ],
      [
        "kuy",
        -10.394159833473497
      ],
      [
        "▁defu",
        -10.39513874121529
      ],
      [
        "▁ňaw",
        -10.395782950505243
      ],
      [
        "▁Ja",
        -10.396822617402904
      ],
      [
        "▁wal",
        -10.399582184326288
      ],
      [
        "uuf",
        -10.401689114596035
      ],
      [
        "aak",
        -10.405514844447914
      ],
      [
        "▁pe",
        -10.40711048289098
      ],
      [
        "▁ŋaa",
        -10.408880929450117
      ],
      [
        "▁gëna",
        -10.409242511380103
      ],
      [
        "jaay",
        -10.411207262392352
      ],
      [
        "wi",
        -10.412754545086843
      ],
      [
        "eñaa",
        -10.41963134460293
      ],
      [
        "▁Br",
        -10.42074124124548
      ],
      [
        "▁bala",
        -10.42085543402553
      ],
      [
        "umaa",
        -10.423520183488371
      ],
      [
        "uri",
        -10.426698494384734
      ],
      [
        "▁Faj",
        -10.427231266401167
      ],
      [
        "da",
        -10.432529286473635
      ],
      [
        "▁sé",
        -10.4344531019277
      ],
      [
        "▁Dan",
        -10.43532278676069
      ],
      [
        "ekkoo",
        -10.443466903308584
      ],
      [
        "tëx",
        -10.445463465791693
      ],
      [
        "▁yéree",
        -10.446303719752589
      ],
      [
        "9",
        -10.455242842909195
      ],
      [
        "anti",
        -10.456121403621472
      ],
      [
        "▁fiir",
        -10.45632940153027
      ],
      [
        "▁doxale",
        -10.462422251467537
      ],
      [
        "▁Lé",
        -10.464505557169504
      ],
      [
        "▁jan",
        -10.465798945012267
      ],
      [
        "eeru",
        -10.465960274888277
      ],
      [
        "▁sot",
        -10.469315270546488
      ],
      [
        "▁laam",
        -10.470699127355157
      ],
      [
        "▁liggéeye",
        -10.471098793691827
      ],
      [
        "iir",
        -10.476389780804762
      ],
      [
        "-sa",
        -10.476833235792412
      ],
      [
        "▁kaa",
        -10.478115605846714
      ],
      [
        "▁fàttewu",
        -10.481097307349852
      ],
      [
        "▁nax",
        -10.482295311495998
      ],
      [
        "▁xoll",
        -10.482713785464064
      ],
      [
        "▁19",
        -10.483353196978687
      ],
      [
        "▁xamat",
        -10.483589347237348
      ],
      [
        "▁bir",
        -10.488559018502654
      ],
      [
        "oroo",
        -10.49025629424104
      ],
      [
        "▁tëw",
        -10.492230934037407
      ],
      [
        "of",
        -10.49244671458666
      ],
      [
        "-a-",
        -10.492702193063893
      ],
      [
        "▁Manu",
        -10.494029284568903
      ],
      [
        "▁ño",
        -10.498557392457966
      ],
      [
        "nke",
        -10.498609819091314
      ],
      [
        "▁yor",
        -10.49929214355452
      ],
      [
        "▁Wut",
        -10.503818042323553
      ],
      [
        "▁àddinaa",
        -10.5052018020889
      ],
      [
        "▁yër",
        -10.50547997482176
      ],
      [
        "▁sà",
        -10.51183202721024
      ],
      [
        "ëri",
        -10.512611712186992
      ],
      [
        "fant",
        -10.51678233788472
      ],
      [
        "mbali",
        -10.519254958653098
      ],
      [
        "kees",
        -10.521433617052836
      ],
      [
        "▁dale",
        -10.521555811031302
      ],
      [
        "etam",
        -10.52278249124752
      ],
      [
        "▁Doo",
        -10.526302138160023
      ],
      [
        "ki",
        -10.52662109470482
      ],
      [
        "▁xal",
        -10.526957989980755
      ],
      [
        "▁Lee",
        -10.540477332998382
      ],
      [
        "▁daag",
        -10.54067142966071
      ],
      [
        "afe",
        -10.542804933507668
      ],
      [
        "raŋ",
        -10.54405261006049
      ],
      [
        "▁jote",
        -10.545765713589935
      ],
      [
        "tiir",
        -10.546993104116702
      ],
      [
        "yoon",
        -10.547167090400722
      ],
      [
        "mp",
        -10.547353330317062
      ],
      [
        "amal",
        -10.549539218737165
      ],
      [
        "▁fe",
        -10.55192027184593
      ],
      [
        "▁Nda",
        -10.552079375411914
      ],
      [
        "ngi",
        -10.556369734782633
      ],
      [
        "ngor",
        -10.557479586537092
      ],
      [
        "▁yà",
        -10.558508891396245
      ],
      [
        "▁màbb",
        -10.56227506230375
      ],
      [
        "ric",
        -10.564134581538056
      ],
      [
        "▁yàkk",
        -10.564818749020068
      ],
      [
        "ñetti",
        -10.566465577304767
      ],
      [
        "▁Ara",
        -10.567141243062391
      ],
      [
        "iri",
        -10.574081642560245
      ],
      [
        "saň",
        -10.575524244060517
      ],
      [
        "karaa",
        -10.576229159934412
      ],
      [
        "▁coo",
        -10.576710877365748
      ],
      [
        "xare",
        -10.58038549854534
      ],
      [
        "en",
        -10.585922003143077
      ],
      [
        "se",
        -10.58913485484181
      ],
      [
        "▁seeti",
        -10.591531247663367
      ],
      [
        "▁yitte",
        -10.592003574038143
      ],
      [
        "gul",
        -10.5921758210228
      ],
      [
        "▁ati",
        -10.594615106846264
      ],
      [
        "▁Gaa",
        -10.596417404524368
      ],
      [
        "▁së",
        -10.597991573052894
      ],
      [
        "elaw",
        -10.600830397754931
      ],
      [
        "▁bàn",
        -10.605537916819612
      ],
      [
        "▁fàttalikuwu",
        -10.607369078144515
      ],
      [
        "▁no",
        -10.608151353146056
      ],
      [
        "dee",
        -10.611295727846095
      ],
      [
        "▁Luw",
        -10.612133948274964
      ],
      [
        "▁Màr",
        -10.614818066380995
      ],
      [
        "▁mee",
        -10.614895709749879
      ],
      [
        "añ",
        -10.617026610442664
      ],
      [
        "tti",
        -10.619330204410607
      ],
      [
        "▁Aga",
        -10.620156715888148
      ],
      [
        "▁gisee",
        -10.628186099975071
      ],
      [
        "▁ñaa",
        -10.62871126662337
      ],
      [
        "▁gëne",
        -10.629791029639359
      ],
      [
        "wiy",
        -10.63357040477065
      ],
      [
        "▁Tal",
        -10.642176227857684
      ],
      [
        "▁alk",
        -10.64652228297356
      ],
      [
        "moon",
        -10.648428282676257
      ],
      [
        "àllal",
        -10.648988681369593
      ],
      [
        "et",
        -10.650534942544061
      ],
      [
        "gaal",
        -10.655534361402415
      ],
      [
        "▁Wax",
        -10.656629764079897
      ],
      [
        "unu",
        -10.656792308644572
      ],
      [
        "bés",
        -10.656855543020157
      ],
      [
        "dd",
        -10.657642652285586
      ],
      [
        "▁gaar",
        -10.657936849580942
      ],
      [
        "▁ndo",
        -10.660953692126808
      ],
      [
        "▁baree",
        -10.661718551020304
      ],
      [
        "gël",
        -10.66632381705579
      ],
      [
        "▁wan",
        -10.666738940729921
      ],
      [
        "▁ye",
        -10.6678626307438
      ],
      [
        "▁We",
        -10.66903239826114
      ],
      [
        "mal",
        -10.670468540194681
      ],
      [
        "▁gë",
        -10.670833063448672
      ],
      [
        "maŋ",
        -10.671376293693042
      ],
      [
        "ana",
        -10.675771004070251
      ],
      [
        "xu",
        -10.67713481475203
      ],
      [
        "▁pat",
        -10.67786363972256
      ],
      [
        "▁yëgu",
        -10.680954761484303
      ],
      [
        "wuma",
        -10.687093092244634
      ],
      [
        "aň",
        -10.6905984867834
      ],
      [
        "antu",
        -10.691059432662179
      ],
      [
        "ñaa",
        -10.693918251283622
      ],
      [
        "mbaa",
        -10.696951118861449
      ],
      [
        "▁ñañ",
        -10.699259381932261
      ],
      [
        "aroon",
        -10.700139385981947
      ],
      [
        "eri",
        -10.70219402931248
      ],
      [
        "▁Laa",
        -10.703087071977055
      ],
      [
        "▁Lo",
        -10.704359459996097
      ],
      [
        "ir",
        -10.705172498030073
      ],
      [
        "yaram",
        -10.705352442977889
      ],
      [
        "doon",
        -10.705460241837772
      ],
      [
        "▁juróom-ñe",
        -10.706137957382374
      ],
      [
        "eetul",
        -10.711909427297547
      ],
      [
        "cee",
        -10.71662348320634
      ],
      [
        "nit",
        -10.724246940251005
      ],
      [
        "njaay",
        -10.729488185710348
      ],
      [
        "aari",
        -10.729969152232945
      ],
      [
        "wal",
        -10.735546065732185
      ],
      [
        "kaar",
        -10.735946080357085
      ],
      [
        "oyal",
        -10.738534523382853
      ],
      [
        "▁jam",
        -10.739018509227241
      ],
      [
        "ó",
        -10.739280371915878
      ],
      [
        "em.",
        -10.740602838663499
      ],
      [
        "▁Dis",
        -10.749264216368639
      ],
      [
        "▁opeere",
        -10.751463075772392
      ],
      [
        "attu",
        -10.754369776635846
      ],
      [
        "enera",
        -10.760285070015787
      ],
      [
        "▁siga",
        -10.76148438148409
      ],
      [
        "▁deewa",
        -10.761819463714394
      ],
      [
        "▁ragale",
        -10.762539870703737
      ],
      [
        "aate",
        -10.765277840082002
      ],
      [
        "ginnaaw",
        -10.768355510612833
      ],
      [
        "aññ",
        -10.77051330279893
      ],
      [
        "goom",
        -10.776528517822669
      ],
      [
        "wuñu",
        -10.777227538408518
      ],
      [
        "▁pa",
        -10.77806163021601
      ],
      [
        "àkku",
        -10.779061214025177
      ],
      [
        "▁Nd",
        -10.780437501156968
      ],
      [
        "dimbal",
        -10.780951467333441
      ],
      [
        "dund",
        -10.787483084862366
      ],
      [
        "angoo",
        -10.78758253267718
      ],
      [
        "-benn",
        -10.79306218671203
      ],
      [
        "ñse",
        -10.793519644363553
      ],
      [
        "ée",
        -10.79433120449191
      ],
      [
        "▁mënun",
        -10.79640504456351
      ],
      [
        "▁dégge",
        -10.807914762879003
      ],
      [
        "▁poo",
        -10.808117489981365
      ],
      [
        "▁An",
        -10.80917286266821
      ],
      [
        "▁sang",
        -10.80941080673533
      ],
      [
        "▁Ker",
        -10.81075601049846
      ],
      [
        "ag",
        -10.81547138591114
      ],
      [
        "▁mo",
        -10.815562935725955
      ],
      [
        "àpptoo",
        -10.817437688264391
      ],
      [
        "▁Tim",
        -10.818382110273232
      ],
      [
        "▁taf",
        -10.82026044548131
      ],
      [
        "àppaa",
        -10.82192093700076
      ],
      [
        "▁kak",
        -10.822347319127008
      ],
      [
        "▁xo",
        -10.827628751952314
      ],
      [
        "▁bindu",
        -10.831069105712043
      ],
      [
        "génn",
        -10.836969133153984
      ],
      [
        "aaxaan",
        -10.840588427605988
      ],
      [
        "Bamendaa",
        -10.842379111433786
      ],
      [
        "jee",
        -10.846582481541107
      ],
      [
        "tum",
        -10.847962729234938
      ],
      [
        "▁xew",
        -10.848112916057222
      ],
      [
        "ànk",
        -10.848245027333027
      ],
      [
        "def",
        -10.85015464017613
      ],
      [
        "bis",
        -10.851684610122845
      ],
      [
        "▁teen",
        -10.855459002972719
      ],
      [
        "▁kilif",
        -10.860143604072526
      ],
      [
        "▁léeba",
        -10.860467831445982
      ],
      [
        "▁gay",
        -10.860493569721104
      ],
      [
        "eg",
        -10.862113039310822
      ],
      [
        "tànk",
        -10.862143245455094
      ],
      [
        "teer",
        -10.862434707966905
      ],
      [
        "inam",
        -10.86484395957048
      ],
      [
        "amaa",
        -10.86850199309277
      ],
      [
        "▁Sung",
        -10.869362845167283
      ],
      [
        "aru",
        -10.870166693336065
      ],
      [
        "▁ro",
        -10.87292744605051
      ],
      [
        "▁jànge",
        -10.87396584525135
      ],
      [
        "Frãs",
        -10.875495689454267
      ],
      [
        "tudd",
        -10.87677663357644
      ],
      [
        "▁yo",
        -10.879537566104766
      ],
      [
        "stam",
        -10.88151435630682
      ],
      [
        "guma",
        -10.88270780774719
      ],
      [
        "-t",
        -10.885196225688539
      ],
      [
        "laaj",
        -10.887000246892788
      ],
      [
        "àmbu",
        -10.889274566407869
      ],
      [
        "ëm",
        -10.892098993418305
      ],
      [
        "ànt",
        -10.894175821957491
      ],
      [
        "aloom",
        -10.894186463436782
      ],
      [
        "▁daws",
        -10.895071559078104
      ],
      [
        "▁kaay",
        -10.90014676647339
      ],
      [
        "Alma",
        -10.900992324456201
      ],
      [
        "yàgg",
        -10.904425222070962
      ],
      [
        "àkkal",
        -10.904662834536172
      ],
      [
        "Ni",
        -10.905149259168432
      ],
      [
        "-l",
        -10.9054155768302
      ],
      [
        "took",
        -10.908142437361631
      ],
      [
        "lli",
        -10.912183122156991
      ],
      [
        "C",
        -10.918023161977386
      ],
      [
        "▁baree-bar",
        -10.925028574444246
      ],
      [
        "og",
        -10.925461338286802
      ],
      [
        "jag",
        -10.925809444053586
      ],
      [
        "▁loo",
        -10.926041849603173
      ],
      [
        "▁nite",
        -10.92945353160713
      ],
      [
        "▁ňaa",
        -10.930191370488341
      ],
      [
        "nc",
        -10.932478997783477
      ],
      [
        "▁dooni",
        -10.932521389264693
      ],
      [
        "e-",
        -10.934262953449077
      ],
      [
        "démb",
        -10.935406311922382
      ],
      [
        "daŋ",
        -10.936219749048568
      ],
      [
        "rëdd",
        -10.93674753706436
      ],
      [
        "foo",
        -10.937597372002665
      ],
      [
        "▁wé",
        -10.938114633614072
      ],
      [
        "▁xà",
        -10.938927645599296
      ],
      [
        "néegu-ňax",
        -10.944280487485782
      ],
      [
        "pe",
        -10.947421319608175
      ],
      [
        "▁ware",
        -10.947947270588998
      ],
      [
        "wóolu",
        -10.95142657912945
      ],
      [
        "kersa",
        -10.951702804128715
      ],
      [
        "gee",
        -10.951864564095745
      ],
      [
        "orma",
        -10.95280920007181
      ],
      [
        "kkan",
        -10.95357929825433
      ],
      [
        "deret",
        -10.953771218921101
      ],
      [
        "▁njuum",
        -10.954622848437031
      ],
      [
        "dex",
        -10.955808765422228
      ],
      [
        "ammeel",
        -10.955827003326453
      ],
      [
        "tuut",
        -10.956000084831096
      ],
      [
        "-góor",
        -10.956227277366002
      ],
      [
        "wér",
        -10.956399656660745
      ],
      [
        "néeg",
        -10.956769572579322
      ],
      [
        "▁jà",
        -10.956819275834022
      ],
      [
        "oto",
        -10.957119159139443
      ],
      [
        "▁Mëne",
        -10.958515336077237
      ],
      [
        "▁déggu",
        -10.961147176297015
      ],
      [
        "xet",
        -10.964760755610879
      ],
      [
        "▁wee",
        -10.974442158358498
      ],
      [
        "ňe",
        -10.98115610260765
      ],
      [
        "▁foto",
        -10.984890601899492
      ],
      [
        "muur",
        -10.986682056406176
      ],
      [
        "mbaar",
        -10.988732226640192
      ],
      [
        "▁sam",
        -10.991248856523868
      ],
      [
        "R",
        -10.992380341124775
      ],
      [
        "rey",
        -10.99371173886414
      ],
      [
        "reem",
        -10.994096788844383
      ],
      [
        "doole",
        -10.995135322475655
      ],
      [
        "à",
        -10.99515980195152
      ],
      [
        "wàll",
        -10.996856291335837
      ],
      [
        "▁bë",
        -10.996880645585756
      ],
      [
        "dayo",
        -10.998672364931574
      ],
      [
        "óotal",
        -11.001267064148514
      ],
      [
        "bir",
        -11.002261099700128
      ],
      [
        "tawat",
        -11.004222283471556
      ],
      [
        "taa",
        -11.010822637168786
      ],
      [
        "àmm",
        -11.011481212770661
      ],
      [
        "nijaay",
        -11.012218776882609
      ],
      [
        "-der",
        -11.01499251167438
      ],
      [
        "a.",
        -11.015537182911041
      ],
      [
        "njort",
        -11.016345187099324
      ],
      [
        "óotu",
        -11.016670532801342
      ],
      [
        "▁gàdd",
        -11.017635832218868
      ],
      [
        "▁Ag",
        -11.018316981297943
      ],
      [
        "nangu",
        -11.021126954732944
      ],
      [
        "▁yakk",
        -11.022455491135604
      ],
      [
        "-j",
        -11.024181446121673
      ],
      [
        "ëdd",
        -11.025408345919123
      ],
      [
        "▁màndargaa",
        -11.026291567545472
      ],
      [
        "▁toolu-",
        -11.029471805499668
      ],
      [
        "pasar",
        -11.029672592589026
      ],
      [
        "uwul",
        -11.031757875223214
      ],
      [
        "mbi",
        -11.032042148566415
      ],
      [
        "▁gé",
        -11.03760775345527
      ],
      [
        "▁tont",
        -11.037625937166846
      ],
      [
        "▁Ya",
        -11.037766735602222
      ],
      [
        "▁caa",
        -11.037899812590474
      ],
      [
        "▁téen",
        -11.039071671388854
      ],
      [
        "dë",
        -11.039210228396934
      ],
      [
        "Br",
        -11.039417325805992
      ],
      [
        "▁Gó",
        -11.0405718782962
      ],
      [
        "▁gétt",
        -11.04082140612402
      ],
      [
        "baab",
        -11.041338549767028
      ],
      [
        "ënd",
        -11.041935858148822
      ],
      [
        "▁Do",
        -11.043154390275237
      ],
      [
        "▁ràkkaaj",
        -11.043343374045886
      ],
      [
        "▁xuu",
        -11.043782500564246
      ],
      [
        "▁àtta",
        -11.045005593899365
      ],
      [
        "aw-",
        -11.045167250272598
      ],
      [
        "▁sànnee",
        -11.047267690390093
      ],
      [
        "▁jull",
        -11.047537136926088
      ],
      [
        "▁lox",
        -11.049091021140672
      ],
      [
        "ewwi",
        -11.05076647968582
      ],
      [
        "▁bàyyeek",
        -11.051753499126228
      ],
      [
        "▁jégg",
        -11.052413847513964
      ],
      [
        "▁Nise",
        -11.05326643552525
      ],
      [
        "▁àjj",
        -11.055246624130335
      ],
      [
        "ndey",
        -11.055336340657526
      ],
      [
        "bàjj",
        -11.057420005479273
      ],
      [
        "▁wéer",
        -11.059089848544978
      ],
      [
        "▁Jé",
        -11.060058972976343
      ],
      [
        "▁Gin",
        -11.060063299265636
      ],
      [
        "arloo",
        -11.06062074259801
      ],
      [
        "▁ragl",
        -11.062630906585168
      ],
      [
        "àbb",
        -11.06346899217641
      ],
      [
        "▁fur",
        -11.064578511959446
      ],
      [
        "ànq",
        -11.064887325092604
      ],
      [
        "▁yuux",
        -11.068796908358419
      ],
      [
        "▁dekk",
        -11.068954510779019
      ],
      [
        "▁gémmi",
        -11.069034364138023
      ],
      [
        "▁tapp",
        -11.06931917412303
      ],
      [
        "▁Doga",
        -11.069726995433298
      ],
      [
        "ppukaayam",
        -11.069868073271754
      ],
      [
        "éegu-ňax",
        -11.070511147983408
      ],
      [
        "oley",
        -11.07121455561396
      ],
      [
        "eryaa",
        -11.071607910806161
      ],
      [
        "▁wóol",
        -11.07211389002071
      ],
      [
        "▁Afri",
        -11.073567206319673
      ],
      [
        "▁se",
        -11.073581785381498
      ],
      [
        "daan",
        -11.075191415331787
      ],
      [
        "▁fentaako",
        -11.07562071137939
      ],
      [
        "▁jaawa",
        -11.076072088711115
      ],
      [
        "▁sëq",
        -11.0762149131129
      ],
      [
        "▁tollo",
        -11.07637462114628
      ],
      [
        "▁jëfandiko",
        -11.07637780907621
      ],
      [
        "▁jànkontee",
        -11.076622449561887
      ],
      [
        "▁tàq",
        -11.076716615753627
      ],
      [
        "▁teggi",
        -11.07861828495733
      ],
      [
        "ëg-yëg",
        -11.079571464850602
      ],
      [
        "▁summ",
        -11.07962580622308
      ],
      [
        "ërë",
        -11.080424902337437
      ],
      [
        "▁aj",
        -11.080547699154419
      ],
      [
        "ëccëg",
        -11.080893157867617
      ],
      [
        "óobal",
        -11.081138419050522
      ],
      [
        "▁ge",
        -11.081212830369628
      ],
      [
        "▁Babungo",
        -11.081228697995112
      ],
      [
        "▁njaboot",
        -11.081722977082155
      ],
      [
        "àyyi",
        -11.081914761413222
      ],
      [
        "oktoor",
        -11.082191349618144
      ],
      [
        "àrme",
        -11.08262791316914
      ],
      [
        "▁tuur",
        -11.082826042058167
      ],
      [
        "ddoo",
        -11.082828657107642
      ],
      [
        "dàqe",
        -11.082831244608357
      ],
      [
        "bàcc",
        -11.083229088911413
      ],
      [
        "ékkee-j",
        -11.083876078850977
      ],
      [
        "éexlu",
        -11.083958050873294
      ],
      [
        "umtukaay",
        -11.083996197732965
      ],
      [
        "rãs",
        -11.084123885816924
      ],
      [
        "aawtéef",
        -11.084129318525747
      ],
      [
        "ew-xew",
        -11.084157444585816
      ],
      [
        "uqu-géeju",
        -11.084212963346202
      ],
      [
        "▁póli",
        -11.08421729153282
      ],
      [
        "▁Néegu-",
        -11.084233049693747
      ],
      [
        "6",
        -11.084581944557936
      ],
      [
        "▁1",
        -11.084622225026648
      ],
      [
        "▁Ho",
        -11.084631278387759
      ],
      [
        "▁Saawusam",
        -11.084632538079909
      ],
      [
        "U",
        -11.084632943005193
      ],
      [
        "7",
        -11.084632943005193
      ],
      [
        "/",
        -11.0846329430052
      ],
      [
        "Ò",
        -11.084632943045147
      ],
      [
        "‘",
        -11.084632943045147
      ],
      [
        "gànnaar",
        -11.084633072234631
      ],
      [
        "▁V",
        -11.084634888207901
      ],
      [
        "taawun",
        -11.084650659104646
      ],
      [
        "-Yàlla-tey",
        -11.08465293775618
      ],
      [
        "tekkaaral",
        -11.084663704544942
      ],
      [
        "▁194",
        -11.084680797531016
      ],
      [
        "▁kepp",
        -11.084918264604253
      ],
      [
        "▁njabo",
        -11.085275048608874
      ],
      [
        "▁ndó",
        -11.085291466774134
      ],
      [
        "ókoo",
        -11.085454068845852
      ],
      [
        "oldaar",
        -11.085679364126191
      ],
      [
        "▁Poor",
        -11.085706730216604
      ],
      [
        "àmbaa",
        -11.085734416268481
      ],
      [
        "quji",
        -11.085904577651755
      ],
      [
        "fise",
        -11.085958545174947
      ],
      [
        "oro",
        -11.08596652964887
      ],
      [
        "-tubaab",
        -11.085986273730834
      ],
      [
        "-aadama",
        -11.086049000336779
      ],
      [
        "▁tó",
        -11.086199448372207
      ],
      [
        "ikk",
        -11.086265083122125
      ],
      [
        "▁njii",
        -11.086277478955958
      ],
      [
        "ànnaay",
        -11.086428914302244
      ],
      [
        "añseer",
        -11.086575819373047
      ],
      [
        "ggatu",
        -11.08667339210388
      ],
      [
        "▁só",
        -11.086835847200492
      ],
      [
        "i-ñ",
        -11.086969917676448
      ],
      [
        "gëlé",
        -11.087045660381108
      ],
      [
        "▁Léeg",
        -11.087400201388077
      ],
      [
        "bbale",
        -11.087694910019456
      ],
      [
        "um-b",
        -11.087700782181514
      ],
      [
        "éedéet",
        -11.087876591947035
      ],
      [
        "▁Tool",
        -11.087894171265809
      ],
      [
        "▁àntu",
        -11.088293694331067
      ],
      [
        "▁jonn",
        -11.08832077993232
      ],
      [
        "oyd",
        -11.08835090758072
      ],
      [
        "oo-dë",
        -11.088711636952617
      ],
      [
        "▁kilo",
        -11.088871109796834
      ],
      [
        "▁yombu",
        -11.088871601826146
      ],
      [
        "bbe",
        -11.088921993976069
      ],
      [
        "-Yàlla",
        -11.089106256517187
      ],
      [
        "xantu",
        -11.089612007817276
      ],
      [
        "aqar",
        -11.089660419121785
      ],
      [
        "▁Abaak",
        -11.089668303640384
      ],
      [
        "Arkuur",
        -11.089702124425383
      ],
      [
        "gu-",
        -11.090477492462245
      ],
      [
        "▁manoo",
        -11.090509495808618
      ],
      [
        "▁jëf",
        -11.091732392954942
      ],
      [
        "njar",
        -11.091846043339215
      ],
      [
        "▁Kó",
        -11.092094169120532
      ],
      [
        "▁tàl",
        -11.092564156098817
      ],
      [
        "▁tée",
        -11.092792636349559
      ],
      [
        "▁Alse",
        -11.092997044380969
      ],
      [
        "ofeel",
        -11.093042140957833
      ],
      [
        "uurit",
        -11.093044648728252
      ],
      [
        "▁kó",
        -11.093376898424975
      ],
      [
        "▁bëj",
        -11.09368233577583
      ],
      [
        "▁kë",
        -11.093851499594864
      ],
      [
        "-dëkk",
        -11.094334635603197
      ],
      [
        "-tey",
        -11.094588828474611
      ],
      [
        "▁waax",
        -11.094984948051982
      ],
      [
        "lbati",
        -11.09520287383497
      ],
      [
        "-géej",
        -11.095718383499925
      ],
      [
        "▁Sors",
        -11.095964704474746
      ],
      [
        "▁Og",
        -11.097240996213268
      ],
      [
        "aasaloo",
        -11.098140256038299
      ],
      [
        "jo",
        -11.098298165773562
      ],
      [
        "▁joo",
        -11.098651869030057
      ],
      [
        "wiyaa",
        -11.099301442262371
      ],
      [
        "▁waxee",
        -11.100263524095746
      ],
      [
        "ró",
        -11.10151553532905
      ],
      [
        "ewuñ",
        -11.10155622524052
      ],
      [
        "ndeer",
        -11.102930201976775
      ],
      [
        "nco",
        -11.104135250139208
      ],
      [
        "asi",
        -11.104279394796759
      ],
      [
        "ñet",
        -11.104690982804437
      ],
      [
        "▁tà",
        -11.10482190042745
      ],
      [
        "ngalee",
        -11.105743890423707
      ],
      [
        "mmiñ",
        -11.107847430335184
      ],
      [
        "aange",
        -11.108241967900238
      ],
      [
        "-àll",
        -11.108550486000112
      ],
      [
        "oxal",
        -11.108672120442158
      ],
      [
        "▁xub",
        -11.108918553692703
      ],
      [
        "▁ngoo",
        -11.109088917478193
      ],
      [
        "ayloo",
        -11.109179143769284
      ],
      [
        "▁bël",
        -11.110602171055
      ],
      [
        "▁doomu-",
        -11.111055076137674
      ],
      [
        "▁(b",
        -11.11145920432651
      ],
      [
        "rme",
        -11.11160626805605
      ],
      [
        "raay",
        -11.112032145119056
      ],
      [
        "-saal",
        -11.112169605865668
      ],
      [
        "eji",
        -11.11304944686028
      ],
      [
        "▁namm",
        -11.113962590048311
      ],
      [
        "ey",
        -11.11556912445026
      ],
      [
        "kkë",
        -11.116741801682991
      ],
      [
        "dëgg-",
        -11.116875682901732
      ],
      [
        "▁lëpp",
        -11.117454021959363
      ],
      [
        "nóox",
        -11.117836256380178
      ],
      [
        "m-",
        -11.118378120190481
      ],
      [
        "lëm",
        -11.120200864806247
      ],
      [
        "yàcc",
        -11.12059991601483
      ],
      [
        "sée",
        -11.121530133776806
      ],
      [
        "▁wóo",
        -11.12198596919308
      ],
      [
        "▁dell",
        -11.122323231521682
      ],
      [
        "fin",
        -11.122485653246402
      ],
      [
        "samaan",
        -11.124335511180746
      ],
      [
        "▁déey",
        -11.124740066379962
      ],
      [
        "▁simi",
        -11.125000907976682
      ],
      [
        "▁upp",
        -11.125125118728752
      ],
      [
        "ttu",
        -11.125981291712446
      ],
      [
        "ost",
        -11.126522558872653
      ],
      [
        "▁yew",
        -11.128242629615473
      ],
      [
        "kusaa",
        -11.128710168310116
      ],
      [
        "▁fatt",
        -11.133410423354603
      ],
      [
        "▁ti",
        -11.134483827463137
      ],
      [
        "▁ruu",
        -11.134521114788827
      ],
      [
        "ajoom",
        -11.134753650896235
      ],
      [
        "▁Tuba",
        -11.134819733723853
      ],
      [
        "skan",
        -11.134890946032405
      ],
      [
        "rabu-",
        -11.134919919119639
      ],
      [
        "▁saay",
        -11.140815980922001
      ],
      [
        "▁dékk",
        -11.141050848796151
      ],
      [
        "▁góo",
        -11.143646333820863
      ],
      [
        "peer",
        -11.144037442220561
      ],
      [
        "-maa",
        -11.144971137749272
      ],
      [
        "konte",
        -11.145266157880815
      ],
      [
        "ggatoon",
        -11.146555023243188
      ],
      [
        "r-k",
        -11.146922142965506
      ],
      [
        "qal",
        -11.147976792468066
      ],
      [
        "▁bey",
        -11.14959614936614
      ],
      [
        "ëgge",
        -11.150040826334225
      ],
      [
        "neen",
        -11.150936014434066
      ],
      [
        "▁boppu",
        -11.151554767106951
      ],
      [
        "▁To",
        -11.151675928403373
      ],
      [
        "u-g",
        -11.151830787016177
      ],
      [
        "éggi",
        -11.152934620964825
      ],
      [
        "▁Bok",
        -11.153579507091376
      ],
      [
        "▁yeg",
        -11.153864007218719
      ],
      [
        "oroom",
        -11.155771838828977
      ],
      [
        "▁Yé",
        -11.15582999173074
      ],
      [
        "oobar",
        -11.156639674314645
      ],
      [
        "▁mor",
        -11.156717122990566
      ],
      [
        "óol",
        -11.157090386062045
      ],
      [
        "oxnaa",
        -11.15777418663338
      ],
      [
        "ole",
        -11.15802240816054
      ],
      [
        "▁jàppoo",
        -11.159637203469572
      ],
      [
        "maand",
        -11.160069828434846
      ],
      [
        "Ki",
        -11.161459309305512
      ],
      [
        "▁gale",
        -11.161792933151997
      ],
      [
        "mer",
        -11.163660477318029
      ],
      [
        "ent",
        -11.167978971435321
      ],
      [
        "nesi",
        -11.168870434566752
      ],
      [
        "▁aska",
        -11.169365974816149
      ],
      [
        "▁lëm",
        -11.169613471492703
      ],
      [
        "joor",
        -11.170149872130677
      ],
      [
        "eesal",
        -11.172689760463959
      ],
      [
        "▁jën",
        -11.17324046432313
      ],
      [
        "diine",
        -11.173339019698943
      ],
      [
        "mba",
        -11.17393642601715
      ],
      [
        "▁kañ",
        -11.174607026647188
      ],
      [
        "mbax",
        -11.175050187382325
      ],
      [
        "aree",
        -11.176083239218757
      ],
      [
        "dde",
        -11.176459921197488
      ],
      [
        "▁yéen",
        -11.176540577072323
      ],
      [
        "olloo",
        -11.17671474928695
      ],
      [
        "seg",
        -11.178810769566761
      ],
      [
        "ukk",
        -11.181310672334245
      ],
      [
        "ndal",
        -11.182294817575563
      ],
      [
        "▁dundal",
        -11.185258219347162
      ],
      [
        "jji",
        -11.185490557343527
      ],
      [
        "ras",
        -11.185812871866073
      ],
      [
        "aajuloo",
        -11.187596477251798
      ],
      [
        "son",
        -11.18940057948909
      ],
      [
        "anoo",
        -11.1903455811475
      ],
      [
        "-gis",
        -11.190640131772339
      ],
      [
        "▁tege",
        -11.191924717005941
      ],
      [
        "ajaa",
        -11.195985765585913
      ],
      [
        "ëro",
        -11.197245086421628
      ],
      [
        "▁tëg",
        -11.198729916433656
      ],
      [
        "▁Ño",
        -11.200479444627105
      ],
      [
        "▁sott",
        -11.20685201839578
      ],
      [
        "bati",
        -11.208341829617208
      ],
      [
        "▁Al",
        -11.209885863284596
      ],
      [
        "▁wëra",
        -11.212252643343128
      ],
      [
        "▁wis",
        -11.212837584984102
      ],
      [
        "ippi",
        -11.215297198633005
      ],
      [
        "mam",
        -11.217269548187573
      ],
      [
        "uusu",
        -11.219534577675372
      ],
      [
        "nuy",
        -11.220054322427256
      ],
      [
        "set",
        -11.22163074448883
      ],
      [
        "▁Bo",
        -11.222094802107321
      ],
      [
        "ajoo",
        -11.225793115114373
      ],
      [
        "goneem",
        -11.226954862170484
      ],
      [
        "liki",
        -11.228370097280026
      ],
      [
        "▁gol",
        -11.230290859196877
      ],
      [
        "▁pet",
        -11.231134395581684
      ],
      [
        "▁Leera",
        -11.231320927427976
      ],
      [
        "▁Ama",
        -11.2349305149856
      ],
      [
        "dool",
        -11.235754846295093
      ],
      [
        "▁pot",
        -11.238527668192669
      ],
      [
        "▁to",
        -11.23958155153976
      ],
      [
        "▁Noon",
        -11.239693185684137
      ],
      [
        "aguma",
        -11.24728684227263
      ],
      [
        "eraa",
        -11.249474479265402
      ],
      [
        "tr",
        -11.25234910794487
      ],
      [
        "▁Kawa",
        -11.254408308668378
      ],
      [
        "ujj",
        -11.255018423850363
      ],
      [
        "▁bésu",
        -11.25584223243775
      ],
      [
        "pee",
        -11.259672025761837
      ],
      [
        "▁màn",
        -11.260112934173913
      ],
      [
        "mul",
        -11.261835452731297
      ],
      [
        "bokk",
        -11.262652494573574
      ],
      [
        "▁xon",
        -11.262997678619607
      ],
      [
        "▁mbaam",
        -11.265268615404366
      ],
      [
        "ŋs",
        -11.265567383125912
      ],
      [
        "ét",
        -11.27132977207081
      ],
      [
        "ët.",
        -11.272847379217477
      ],
      [
        "ryaa",
        -11.273611472934737
      ],
      [
        "meek",
        -11.275204721732994
      ],
      [
        "kare",
        -11.277701033525572
      ],
      [
        "qat",
        -11.277798299919601
      ],
      [
        "égg",
        -11.278672029800358
      ],
      [
        "eetar",
        -11.282576101344702
      ],
      [
        "▁gudde",
        -11.284590677635258
      ],
      [
        "▁jab",
        -11.289526104697185
      ],
      [
        "▁amoo",
        -11.290256510434048
      ],
      [
        "me",
        -11.291298478870146
      ],
      [
        "entu",
        -11.292489362470677
      ],
      [
        "ndaw",
        -11.293471212402903
      ],
      [
        "-s",
        -11.294199631769075
      ],
      [
        "▁àgge",
        -11.296914652085569
      ],
      [
        "iiru-",
        -11.29710211976296
      ],
      [
        "▁ňe",
        -11.297435587534883
      ],
      [
        "▁lo",
        -11.299853035600824
      ],
      [
        "▁këri",
        -11.300054940521365
      ],
      [
        "lekk",
        -11.30177252824602
      ],
      [
        "noŋ",
        -11.304205388600282
      ],
      [
        "▁tub",
        -11.306672292086542
      ],
      [
        "▁caw",
        -11.3076838322615
      ],
      [
        "▁cax",
        -11.308753253027563
      ],
      [
        "wa",
        -11.309308557613129
      ],
      [
        "▁Ngo",
        -11.310847156984703
      ],
      [
        "ñaar",
        -11.311436705039197
      ],
      [
        "taas",
        -11.312090622239667
      ],
      [
        "Góo",
        -11.316944160548484
      ],
      [
        "▁ñooñ",
        -11.317434716488279
      ],
      [
        "▁xas",
        -11.31855915826269
      ],
      [
        "be",
        -11.321336904304456
      ],
      [
        "▁jaf",
        -11.321662674519535
      ],
      [
        "eewu",
        -11.323793989489634
      ],
      [
        "iyee",
        -11.325809591144514
      ],
      [
        "▁Fe",
        -11.330320170467912
      ],
      [
        "yoo",
        -11.333305314497665
      ],
      [
        "amaŋ",
        -11.337006293322386
      ],
      [
        "▁Xamu",
        -11.339792487248248
      ],
      [
        "▁bokku",
        -11.345170163257198
      ],
      [
        "ori",
        -11.345860687173523
      ],
      [
        "nag",
        -11.345914008793253
      ],
      [
        "akkan",
        -11.347066138565918
      ],
      [
        "aakoon",
        -11.35399800732475
      ],
      [
        "g-",
        -11.355275030683794
      ],
      [
        "▁fekke",
        -11.355468298453108
      ],
      [
        "-sa-",
        -11.35771081889744
      ],
      [
        "▁lij",
        -11.35850103903027
      ],
      [
        "àlle",
        -11.36276260781825
      ],
      [
        "bbi",
        -11.366012081329211
      ],
      [
        "iñ",
        -11.367056261326654
      ],
      [
        "nq",
        -11.368657887816372
      ],
      [
        "are",
        -11.37089283586304
      ],
      [
        "-d",
        -11.377645771203618
      ],
      [
        "▁Mbe",
        -11.378850619116987
      ],
      [
        "▁yàkka",
        -11.38205115892564
      ],
      [
        "ttee",
        -11.38462983377087
      ],
      [
        "▁xër",
        -11.385079395021384
      ],
      [
        "▁xooli",
        -11.38989204995997
      ],
      [
        "suk",
        -11.402696048960209
      ],
      [
        "▁bar",
        -11.409732739685921
      ],
      [
        "gaa",
        -11.411157501700085
      ],
      [
        "▁foof",
        -11.414081884647404
      ],
      [
        "nyaa",
        -11.41535988163832
      ],
      [
        "▁moy",
        -11.422738806914591
      ],
      [
        "oppit",
        -11.423966456859414
      ],
      [
        "▁suu",
        -11.424628190477286
      ],
      [
        "mmi",
        -11.42682175241169
      ],
      [
        "▁Ne",
        -11.429316254661579
      ],
      [
        "ase",
        -11.433683451151975
      ],
      [
        "go",
        -11.438414855920074
      ],
      [
        "teel",
        -11.438539512218522
      ],
      [
        "▁daŋ",
        -11.440302846347347
      ],
      [
        "mo",
        -11.446772182596382
      ],
      [
        "eww",
        -11.455145087929242
      ],
      [
        "bare",
        -11.459389324213108
      ],
      [
        "▁nda",
        -11.460566027029902
      ],
      [
        "ellu",
        -11.461364079092546
      ],
      [
        "ppu",
        -11.462211323417861
      ],
      [
        "emaa",
        -11.463084470814973
      ],
      [
        "mbar",
        -11.465336303794018
      ],
      [
        "nañ",
        -11.46596616853026
      ],
      [
        "▁Dë",
        -11.466931869462876
      ],
      [
        "▁fañ",
        -11.467158199064805
      ],
      [
        "ndoor",
        -11.472800552160086
      ],
      [
        "ëfe",
        -11.473096228566751
      ],
      [
        "▁yaat",
        -11.478519266314947
      ],
      [
        "leer",
        -11.480001619441337
      ],
      [
        "▁fom",
        -11.481102032912514
      ],
      [
        "areŋ",
        -11.481772157557602
      ],
      [
        "den",
        -11.488886824497602
      ],
      [
        "lunk",
        -11.48985443990513
      ],
      [
        "▁yend",
        -11.490162594399342
      ],
      [
        "▁Mara",
        -11.492441852792965
      ],
      [
        "anteer",
        -11.495068745031487
      ],
      [
        "ree",
        -11.496358594213355
      ],
      [
        "▁duñ",
        -11.50009011524659
      ],
      [
        "▁le",
        -11.501282380137454
      ],
      [
        "mbur",
        -11.503075602708074
      ],
      [
        "ayaal",
        -11.50782103492922
      ],
      [
        "kaani",
        -11.508253160143493
      ],
      [
        "eroog",
        -11.509621320992963
      ],
      [
        "do",
        -11.515329525912087
      ],
      [
        "axoon",
        -11.5221957730208
      ],
      [
        "dell",
        -11.523773798078633
      ],
      [
        "uróom-benn",
        -11.528344061313545
      ],
      [
        "▁mbë",
        -11.529720568216947
      ],
      [
        "seeti",
        -11.531383556671061
      ],
      [
        "▁gënal",
        -11.531959607382815
      ],
      [
        "rga",
        -11.547636814383818
      ],
      [
        "soŋ",
        -11.55732275692031
      ],
      [
        "naaxi",
        -11.557502289110948
      ],
      [
        "fe",
        -11.557758826340658
      ],
      [
        "▁waxam",
        -11.558453638436468
      ],
      [
        "fi",
        -11.561957786413302
      ],
      [
        "utu",
        -11.56204614241268
      ],
      [
        "uux",
        -11.574969794250201
      ],
      [
        "qu",
        -11.57749832671384
      ],
      [
        "afara",
        -11.585094213908206
      ],
      [
        "▁Sind",
        -11.586705487668905
      ],
      [
        "▁masuñ",
        -11.58825229408238
      ],
      [
        "kiri",
        -11.589373500946373
      ],
      [
        "▁mbe",
        -11.59267379922407
      ],
      [
        "▁nen",
        -11.59305215823129
      ],
      [
        "sim",
        -11.60139485567788
      ],
      [
        "nee",
        -11.60914376976965
      ],
      [
        "lo",
        -11.626520435518524
      ],
      [
        "wantee",
        -11.629317418155685
      ],
      [
        "eňň",
        -11.62962850608304
      ],
      [
        "aral",
        -11.63709998190946
      ],
      [
        "▁ë",
        -11.641625712576399
      ],
      [
        "▁Yo",
        -11.645300665808497
      ],
      [
        "aasa",
        -11.6496448454889
      ],
      [
        "am-x",
        -11.650542584676014
      ],
      [
        "loos",
        -11.655127428388706
      ],
      [
        "ise",
        -11.655810977289054
      ],
      [
        "Baay",
        -11.660099728800393
      ],
      [
        "ël",
        -11.663760418928147
      ],
      [
        "eetu",
        -11.665909294854526
      ],
      [
        "miň",
        -11.67014091768218
      ],
      [
        "ňi",
        -11.671671845803072
      ],
      [
        "daw",
        -11.676506900487983
      ],
      [
        "▁meru",
        -11.677726685719922
      ],
      [
        "ña",
        -11.677858659898906
      ],
      [
        "abal",
        -11.68497871896722
      ],
      [
        "mm",
        -11.705376692984535
      ],
      [
        "▁Tug",
        -11.711425239317272
      ],
      [
        "tati",
        -11.711425670852243
      ],
      [
        "▁jaax",
        -11.715003232348002
      ],
      [
        "ru-",
        -11.71776285619238
      ],
      [
        "uukar",
        -11.725349245962729
      ],
      [
        "▁ru",
        -11.725793701502605
      ],
      [
        "ell",
        -11.72824348472778
      ],
      [
        "▁Waxa",
        -11.742387868097488
      ],
      [
        "iiwaan",
        -11.748338257083027
      ],
      [
        "ak-s",
        -11.752190814995894
      ],
      [
        "▁muu",
        -11.753071433698631
      ],
      [
        "▁nir",
        -11.756987156774287
      ],
      [
        "kam",
        -11.762877964065456
      ],
      [
        "▁pata",
        -11.767286653821717
      ],
      [
        "oontee",
        -11.785096524438003
      ],
      [
        "ntu",
        -11.791708938357118
      ],
      [
        "▁Xal",
        -11.796322382527778
      ],
      [
        "▁bëggu",
        -11.797942644042601
      ],
      [
        "etul",
        -11.797997331108808
      ],
      [
        "naaw",
        -11.804576977285056
      ],
      [
        "lal",
        -11.807375472206843
      ],
      [
        "▁rawa",
        -11.808916137356007
      ],
      [
        "gato",
        -11.823159550524794
      ],
      [
        "bit",
        -11.824867285563585
      ],
      [
        "ge",
        -11.827052393065491
      ],
      [
        "ex",
        -11.828996920750976
      ],
      [
        "araa",
        -11.830907966748148
      ],
      [
        "atam",
        -11.831700563889573
      ],
      [
        "▁ré",
        -11.83589924562663
      ],
      [
        "ndi",
        -11.845061315983902
      ],
      [
        "àttu",
        -11.845195457099079
      ],
      [
        "afal",
        -11.85018979451247
      ],
      [
        "▁toolu",
        -11.85160369437299
      ],
      [
        "▁Dii",
        -11.853406552687236
      ],
      [
        "meel",
        -11.856777828338602
      ],
      [
        "anaka",
        -11.857004990856527
      ],
      [
        "▁dé",
        -11.85712842068656
      ],
      [
        "-laa",
        -11.858880253014089
      ],
      [
        "▁moome",
        -11.86698136167573
      ],
      [
        "jaloo",
        -11.86752801882788
      ],
      [
        "yaar",
        -11.87318834663939
      ],
      [
        "▁Joo",
        -11.874598869824071
      ],
      [
        "suma",
        -11.878975761702094
      ],
      [
        "▁rii",
        -11.885994396130666
      ],
      [
        "aloo",
        -11.888655536169596
      ],
      [
        "wandoo",
        -11.892916965748572
      ],
      [
        "inu",
        -11.894552251891641
      ],
      [
        "àrse",
        -11.894933938049926
      ],
      [
        "▁Me",
        -11.89544943879656
      ],
      [
        "-bi",
        -11.898867028020419
      ],
      [
        "omp",
        -11.90609463473641
      ],
      [
        "▁sóo",
        -11.911919858976352
      ],
      [
        "àgg",
        -11.913469077456268
      ],
      [
        "▁naw",
        -11.920677449776889
      ],
      [
        "▁añ",
        -11.923584705883325
      ],
      [
        "▁sid",
        -11.933148005119316
      ],
      [
        "▁àtt",
        -11.936279813825797
      ],
      [
        "▁lax",
        -11.941061923084915
      ],
      [
        "aam",
        -11.949185672838931
      ],
      [
        "▁Mi",
        -11.949502830112598
      ],
      [
        "anu",
        -11.952654655848919
      ],
      [
        "sunu",
        -11.956924831180157
      ],
      [
        "▁faju",
        -11.957351150284554
      ],
      [
        "goon",
        -11.958296416489011
      ],
      [
        "o.",
        -11.964759094224496
      ],
      [
        "▁ke",
        -11.965436050038743
      ],
      [
        "aňoo",
        -11.966605357118178
      ],
      [
        "lim",
        -11.980427290248873
      ],
      [
        "asu",
        -11.987808623005314
      ],
      [
        "▁Saxa",
        -11.990715569470304
      ],
      [
        "us-",
        -11.996576442763358
      ],
      [
        "▁bor",
        -12.0061281251612
      ],
      [
        "niy",
        -12.010693453468187
      ],
      [
        "kkat",
        -12.011552835711687
      ],
      [
        "nge",
        -12.018682135411503
      ],
      [
        "ddo",
        -12.021543503287337
      ],
      [
        "lis",
        -12.02183318695114
      ],
      [
        "bee",
        -12.024911656764706
      ],
      [
        "dal",
        -12.026747312373226
      ],
      [
        "aayam",
        -12.028840228714689
      ],
      [
        "añe",
        -12.040332743963003
      ],
      [
        "late",
        -12.042646341208656
      ],
      [
        "nuñu",
        -12.05320141534106
      ],
      [
        "wi.",
        -12.055617973275742
      ],
      [
        "kanam",
        -12.05905289722096
      ],
      [
        "ja",
        -12.06119863142077
      ],
      [
        "àttal",
        -12.069209370454429
      ],
      [
        "mee",
        -12.070431667866137
      ],
      [
        "▁bóo",
        -12.071981158018009
      ],
      [
        "nde",
        -12.073019214219467
      ],
      [
        "iit",
        -12.07506995679771
      ],
      [
        "▁Go",
        -12.08500971180886
      ],
      [
        "s-",
        -12.111453303175361
      ],
      [
        "e-b",
        -12.11302318262081
      ],
      [
[...]
